{"<s>":0,"<pad>":1,"</s>":2,"<unk>":3,"<mask>":4,"!":5,"\"":6,"#":7,"$":8,"%":9,"'":10,"(":11,")":12,"+":13,",":14,".":15,"/":16,"0":17,"1":18,"2":19,"3":20,"4":21,"5":22,"6":23,"7":24,"8":25,"9":26,";":27,"=":28,"?":29,"@":30,"A":31,"B":32,"C":33,"D":34,"E":35,"F":36,"G":37,"H":38,"I":39,"J":40,"K":41,"L":42,"M":43,"N":44,"O":45,"P":46,"Q":47,"R":48,"S":49,"T":50,"U":51,"V":52,"W":53,"X":54,"Y":55,"Z":56,"[":57,"\\":58,"]":59,"^":60,"_":61,"a":62,"b":63,"c":64,"d":65,"e":66,"f":67,"g":68,"h":69,"i":70,"j":71,"k":72,"l":73,"m":74,"n":75,"o":76,"p":77,"q":78,"r":79,"s":80,"t":81,"u":82,"v":83,"w":84,"x":85,"y":86,"z":87,"{":88,"|":89,"}":90,"¡":91,"¢":92,"¤":93,"¥":94,"¦":95,"§":96,"¨":97,"©":98,"ª":99,"¬":100,"®":101,"¯":102,"°":103,"±":104,"²":105,"´":106,"µ":107,"¶":108,"¸":109,"¹":110,"º":111,"¼":112,"½":113,"¾":114,"¿":115,"À":116,"Â":117,"Ã":118,"Ä":119,"Å":120,"Æ":121,"Ç":122,"È":123,"É":124,"Ê":125,"Ì":126,"Í":127,"Ð":128,"Ñ":129,"Ò":130,"Ó":131,"Õ":132,"Ö":133,"×":134,"Ø":135,"Ú":136,"Û":137,"Ü":138,"Ý":139,"Þ":140,"ß":141,"à":142,"á":143,"â":144,"ã":145,"ä":146,"å":147,"æ":148,"ç":149,"è":150,"é":151,"ê":152,"ë":153,"ì":154,"í":155,"î":156,"ð":157,"ñ":158,"ó":159,"ô":160,"õ":161,"ö":162,"ø":163,"ù":164,"ú":165,"û":166,"ü":167,"þ":168,"ÿ":169,"ĕ":170,"ě":171,"ō":172,"œ":173,"š":174,"Ÿ":175,"ƒ":176,"ǃ":177,"ʹ":178,"ʻ":179,"ʼ":180,"ʾ":181,"ʿ":182,"˒":183,"˓":184,"˜":185,"˝":186,"ˮ":187,"̋":188,"̎":189,"̏":190,"̦":191,"̵":192,"Α":193,"ί":194,"α":195,"θ":196,"ι":197,"μ":198,"ο":199,"π":200,"ׁ":201,"א":202,"ב":203,"ג":204,"ד":205,"ה":206,"ו":207,"ז":208,"ח":209,"ט":210,"י":211,"כ":212,"ל":213,"מ":214,"נ":215,"ס":216,"ע":217,"פ":218,"צ":219,"ק":220,"ר":221,"ש":222,"ת":223,"ሀ":224,"ሁ":225,"ሂ":226,"ሃ":227,"ሄ":228,"ህ":229,"ሆ":230,"ለ":231,"ሉ":232,"ሊ":233,"ላ":234,"ሌ":235,"ል":236,"ሎ":237,"ሏ":238,"ሐ":239,"ሑ":240,"ሒ":241,"ሓ":242,"ሔ":243,"ሕ":244,"ሖ":245,"ሗ":246,"መ":247,"ሙ":248,"ሚ":249,"ማ":250,"ሜ":251,"ም":252,"ሞ":253,"ሟ":254,"ሠ":255,"ሡ":256,"ሢ":257,"ሣ":258,"ሤ":259,"ሥ":260,"ሦ":261,"ሧ":262,"ረ":263,"ሩ":264,"ሪ":265,"ራ":266,"ሬ":267,"ር":268,"ሮ":269,"ሯ":270,"ሰ":271,"ሱ":272,"ሲ":273,"ሳ":274,"ሴ":275,"ስ":276,"ሶ":277,"ሷ":278,"ሸ":279,"ሹ":280,"ሺ":281,"ሻ":282,"ሼ":283,"ሽ":284,"ሾ":285,"ሿ":286,"ቀ":287,"ቁ":288,"ቂ":289,"ቃ":290,"ቄ":291,"ቅ":292,"ቆ":293,"ቈ":294,"ቊ":295,"ቋ":296,"ቌ":297,"ቍ":298,"ቐ":299,"ቑ":300,"ቓ":301,"ቕ":302,"ቖ":303,"በ":304,"ቡ":305,"ቢ":306,"ባ":307,"ቤ":308,"ብ":309,"ቦ":310,"ቧ":311,"ቨ":312,"ቩ":313,"ቪ":314,"ቫ":315,"ቬ":316,"ቭ":317,"ቮ":318,"ቯ":319,"ተ":320,"ቱ":321,"ቲ":322,"ታ":323,"ቴ":324,"ት":325,"ቶ":326,"ቷ":327,"ቸ":328,"ቹ":329,"ቺ":330,"ቻ":331,"ቼ":332,"ች":333,"ቾ":334,"ቿ":335,"ኀ":336,"ኁ":337,"ኂ":338,"ኃ":339,"ኄ":340,"ኅ":341,"ኆ":342,"ኈ":343,"ኊ":344,"ኋ":345,"ኌ":346,"ኍ":347,"ነ":348,"ኑ":349,"ኒ":350,"ና":351,"ኔ":352,"ን":353,"ኖ":354,"ኗ":355,"ኘ":356,"ኙ":357,"ኚ":358,"ኛ":359,"ኜ":360,"ኝ":361,"ኞ":362,"ኟ":363,"አ":364,"ኡ":365,"ኢ":366,"ኣ":367,"ኤ":368,"እ":369,"ኦ":370,"ኧ":371,"ከ":372,"ኩ":373,"ኪ":374,"ካ":375,"ኬ":376,"ክ":377,"ኮ":378,"ኰ":379,"ኲ":380,"ኳ":381,"ኴ":382,"ኵ":383,"ኸ":384,"ኹ":385,"ኺ":386,"ኻ":387,"ኼ":388,"ኽ":389,"ኾ":390,"ዀ":391,"ዂ":392,"ዃ":393,"ዅ":394,"ወ":395,"ዉ":396,"ዊ":397,"ዋ":398,"ዌ":399,"ው":400,"ዎ":401,"ዏ":402,"ዐ":403,"ዑ":404,"ዒ":405,"ዓ":406,"ዔ":407,"ዕ":408,"ዖ":409,"ዘ":410,"ዙ":411,"ዚ":412,"ዛ":413,"ዜ":414,"ዝ":415,"ዞ":416,"ዟ":417,"ዠ":418,"ዡ":419,"ዢ":420,"ዣ":421,"ዤ":422,"ዥ":423,"ዦ":424,"ዧ":425,"የ":426,"ዩ":427,"ዪ":428,"ያ":429,"ዬ":430,"ይ":431,"ዮ":432,"ዯ":433,"ደ":434,"ዱ":435,"ዲ":436,"ዳ":437,"ዴ":438,"ድ":439,"ዶ":440,"ዷ":441,"ዸ":442,"ዺ":443,"ዻ":444,"ዼ":445,"ዽ":446,"ዿ":447,"ጀ":448,"ጁ":449,"ጂ":450,"ጃ":451,"ጄ":452,"ጅ":453,"ጆ":454,"ጇ":455,"ገ":456,"ጉ":457,"ጊ":458,"ጋ":459,"ጌ":460,"ግ":461,"ጎ":462,"ጏ":463,"ጐ":464,"ጒ":465,"ጓ":466,"ጔ":467,"ጕ":468,"ጘ":469,"ጙ":470,"ጝ":471,"ጠ":472,"ጡ":473,"ጢ":474,"ጣ":475,"ጤ":476,"ጥ":477,"ጦ":478,"ጧ":479,"ጨ":480,"ጩ":481,"ጪ":482,"ጫ":483,"ጬ":484,"ጭ":485,"ጮ":486,"ጯ":487,"ጰ":488,"ጱ":489,"ጲ":490,"ጳ":491,"ጴ":492,"ጵ":493,"ጶ":494,"ጷ":495,"ጸ":496,"ጹ":497,"ጺ":498,"ጻ":499,"ጼ":500,"ጽ":501,"ጾ":502,"ጿ":503,"ፀ":504,"ፁ":505,"ፂ":506,"ፃ":507,"ፄ":508,"ፅ":509,"ፆ":510,"ፈ":511,"ፉ":512,"ፊ":513,"ፋ":514,"ፌ":515,"ፍ":516,"ፎ":517,"ፏ":518,"ፐ":519,"ፑ":520,"ፒ":521,"ፓ":522,"ፔ":523,"ፕ":524,"ፖ":525,"ፘ":526,"፞":527,"፟":528,"፠":529,"።":530,"፣":531,"፤":532,"፦":533,"፩":534,"፪":535,"፫":536,"፬":537,"፭":538,"፮":539,"፯":540,"፰":541,"፱":542,"፲":543,"፳":544,"፴":545,"፵":546,"፶":547,"፷":548,"፸":549,"፹":550,"፺":551,"፻":552,"፼":553,"ᎀ":554,"ᎈ":555,"᎐":556,"᎓":557,"᐀":558,"ṓ":559,"‐":560,"‑":561,"‒":562,"–":563,"―":564,"‚":565,"‛":566,"„":567,"†":568,"‣":569,"…":570,"‰":571,"′":572,"″":573,"‵":574,"‶":575,"‼":576,"Ⅱ":577,"←":578,"↑":579,"→":580,"⇾":581,"−":582,"∙":583,"▖":584,"■":585,"▶":586,"►":587,"◀":588,"○":589,"◌":590,"◾":591,"✍":592,"✎":593,"✔":594,"❑":595,"⠚":596,"⤫":597,"ⶈ":598,"ⶋ":599,"ⶭ":600,"ⶵ":601,"ⶸ":602,"ⶺ":603,"ⷄ":604,"ⷅ":605,"ⷈ":606,"ⷐ":607,"ⷘ":608,"ⷝ":609,"ⷞ":610,"「":611,"ꬋ":612,"여":613,"와":614,"호":615,"﷽":616,"ﺃ":617,"ን</w>":618,"ፍ</w>":619,"ላ</w>":620,"ቡ</w>":621,"ና</w>":622,"ች</w>":623,"ሌ</w>":624,"g</w>":625,"ት</w>":626,"ም</w>":627,"ኝ</w>":628,"ሏ</w>":629,"ው</w>":630,"ባ</w>":631,"ያ</w>":632,"ብ</w>":633,"ቼ</w>":634,"ጉ</w>":635,"ጹ</w>":636,"ለ</w>":637,"ፊ</w>":638,"d</w>":639,"ል</w>":640,"8</w>":641,"ሻ</w>":642,"ድ</w>":643,"ኙ</w>":644,"ቤ</w>":645,"ር</w>":646,"ስ</w>":647,"ሚ</w>":648,"ሽ</w>":649,"E</w>":650,"ቹ</w>":651,"ሪ</w>":652,"ኩ</w>":653,"ዱ</w>":654,"ቱ</w>":655,"ሩ</w>":656,"ሁ</w>":657,"ኑ</w>":658,"ጥ</w>":659,"ሙ</w>":660,"ኖ</w>":661,"ኮ</w>":662,"0</w>":663,"ሮ</w>":664,"ጩ</w>":665,"ሃ</w>":666,"ዋ</w>":667,"አ</w>":668,"y</w>":669,"ማ</w>":670,"ዬ</w>":671,"ጦ</w>":672,"ደ</w>":673,"ዊ</w>":674,"ቿ</w>":675,"ዳ</w>":676,"ጡ</w>":677,"ሱ</w>":678,"ህ</w>":679,"ኒ</w>":680,"ቅ</w>":681,"ሰ</w>":682,"ክ</w>":683,"ታ</w>":684,"ጽ</w>":685,"ሞ</w>":686,"መ</w>":687,"ኛ</w>":688,"ሣ</w>":689,"ገ</w>":690,"ሶ</w>":691,"ራ</w>":692,"ኦ</w>":693,"ቴ</w>":694,"ጋ</w>":695,"ሉ</w>":696,"e</w>":697,"s</w>":698,"t</w>":699,"ዮ</w>":700,"ኪ</w>":701,"ቦ</w>":702,"ዛ</w>":703,"ጤ</w>":704,"ጠ</w>":705,"ሳ</w>":706,"r</w>":707,"ቶ</w>":708,"ፉ</w>":709,"2</w>":710,"ጭ</w>":711,"ዝ</w>":712,"ፈ</w>":713,"ሸ</w>":714,"ዉ</w>":715,"ዲ</w>":716,"n</w>":717,"ጨ</w>":718,"ጣ</w>":719,"3</w>":720,"ግ</w>":721,"ሊ</w>":722,"ቲ</w>":723,"ሯ</w>":724,"ጅ</w>":725,"Â</w>":726,"ቷ</w>":727,"ሲ</w>":728,"ቋ</w>":729,"ረ</w>":730,"ዧ</w>":731,"ዘ</w>":732,"ይ</w>":733,"ፋ</w>":734,"ዎ</w>":735,"ኟ</w>":736,"ሄ</w>":737,"ሺ</w>":738,"c</w>":739,"በ</w>":740,"ዩ</w>":741,"i</w>":742,"ነ</w>":743,"ቀ</w>":744,"ፃ</w>":745,"ኳ</w>":746,"ቭ</w>":747,"5</w>":748,"ጃ</w>":749,"ፒ</w>":750,"ፌ</w>":751,"4</w>":752,"ካ</w>":753,"ዙ</w>":754,"D</w>":755,"ቂ</w>":756,"7</w>":757,"ሂ</w>":758,"ጂ</w>":759,"a</w>":760,"ተ</w>":761,"ቄ</w>":762,"9</w>":763,"ፎ</w>":764,"ሴ</w>":765,"ዡ</w>":766,"ቫ</w>":767,"ቁ</w>":768,"ፖ</w>":769,"ቻ</w>":770,"ዶ</w>":771,"ሎ</w>":772,"ጆ</w>":773,"ቃ</w>":774,"ዕ</w>":775,"6</w>":776,"%</w>":777,"ሥ</w>":778,"ዥ</w>":779,"ፕ</w>":780,"ኘ</w>":781,"ቸ</w>":782,"ፏ</w>":783,"ጁ</w>":784,"ፓ</w>":785,"ሜ</w>":786,"ጫ</w>":787,"ኋ</w>":788,"ሹ</w>":789,"ጀ</w>":790,"ኜ</w>":791,"የ</w>":792,"ወ</w>":793,"ጎ</w>":794,"ፄ</w>":795,"ጐ</w>":796,"ኺ</w>":797,"T</w>":798,"ኽ</w>":799,"ኗ</w>":800,"ጼ</w>":801,"ኔ</w>":802,"ቧ</w>":803,"ኹ</w>":804,"ዴ</w>":805,"ዚ</w>":806,"ሬ</w>":807,"ቆ</w>":808,"p</w>":809,"1</w>":810,"h</w>":811,"ሀ</w>":812,"ሷ</w>":813,"m</w>":814,"ቢ</w>":815,"ጌ</w>":816,"ከ</w>":817,"ቺ</w>":818,"ዜ</w>":819,"ኻ</w>":820,"F</w>":821,"ቾ</w>":822,"ፔ</w>":823,"ዤ</w>":824,"ሟ</w>":825,"A</w>":826,"ዪ</w>":827,"እ</w>":828,"ጪ</w>":829,"ሡ</w>":830,"ኤ</w>":831,"l</w>":832,"ዑ</w>":833,"O</w>":834,"N</w>":835,"u</w>":836,"ሐ</w>":837,"C</w>":838,"ጄ</w>":839,"ሠ</w>":840,"ዓ</w>":841,"k</w>":842,"ቪ</w>":843,"S</w>":844,"ጧ</w>":845,"ኬ</w>":846,"w</w>":847,"ጻ</w>":848,"ዞ</w>":849,"▶</w>":850,"G</w>":851,"ዷ</w>":852,"ጊ</w>":853,"ሼ</w>":854,"፻</w>":855,"o</w>":856,"ሒ</w>":857,"፮</w>":858,"ፑ</w>":859,"ዟ</w>":860,"ጬ</w>":861,"¤</w>":862,"ኧ</w>":863,"W</w>":864,"ዔ</w>":865,"ጓ</w>":866,"ሿ</w>":867,"b</w>":868,"ዌ</w>":869,"I</w>":870,"ቬ</w>":871,"ኀ</w>":872,"ሆ</w>":873,"ʾ</w>":874,"ኃ</w>":875,"ፁ</w>":876,"ጸ</w>":877,"ቩ</w>":878,"ሤ</w>":879,"ሕ</w>":880,"ጮ</w>":881,"´</w>":882,"ጇ</w>":883,"⠚</w>":884,"ኚ</w>":885,"ኣ</w>":886,"ሾ</w>":887,"H</w>":888,"ዣ</w>":889,"፭</w>":890,"x</w>":891,"\\</w>":892,"V</w>":893,"ሓ</w>":894,"ፀ</w>":895,"ጾ</w>":896,"L</w>":897,"᎓</w>":898,"Y</w>":899,"ፅ</w>":900,"R</w>":901,"f</w>":902,"ፂ</w>":903,"ቮ</w>":904,"ዐ</w>":905,"ʼ</w>":906,"ኅ</w>":907,"ጺ</w>":908,"ኞ</w>":909,"፩</w>":910,"ጳ</w>":911,"፰</w>":912,"ሑ</w>":913,"P</w>":914,"ጵ</w>":915,"ኸ</w>":916,"ዢ</w>":917,"ጴ</w>":918,"½</w>":919,"ዠ</w>":920,"ኾ</w>":921,"፹</w>":922,"U</w>":923,"‛</w>":924,"ኡ</w>":925,"ጝ</w>":926,"፬</w>":927,"¸</w>":928,"ቨ</w>":929,"፫</w>":930,"M</w>":931,"X</w>":932,"፷</w>":933,"Ü</w>":934,"፯</w>":935,"ጢ</w>":936,"ቍ</w>":937,"ዒ</w>":938,"፪</w>":939,"Ò</w>":940,"B</w>":941,"ፆ</w>":942,"̎</w>":943,"ጯ</w>":944,"ኢ</w>":945,"י</w>":946,"§</w>":947,"j</w>":948,"©</w>":949,"Q</w>":950,"ሔ</w>":951,"z</w>":952,"Ø</w>":953,"፲</w>":954,"¦</w>":955,"፺</w>":956,")</w>":957,"ቖ</w>":958,"˝</w>":959,"ኄ</w>":960,"ዼ</w>":961,"ዖ</w>":962,"‐</w>":963,"ቊ</w>":964,"「</w>":965,"ù</w>":966,"Ý</w>":967,"❑</w>":968,"ፐ</w>":969,"Z</w>":970,"þ</w>":971,"◌</w>":972,"ሦ</w>":973,"ዀ</w>":974,"ጰ</w>":975,"ʹ</w>":976,"$</w>":977,"ቑ</w>":978,"'</w>":979,"ሖ</w>":980,"®</w>":981,"À</w>":982,"×</w>":983,"ˮ</w>":984,"፱</w>":985,"¾</w>":986,"̏</w>":987,"ጿ</w>":988,"Ñ</w>":989,"/</w>":990,"J</w>":991,"²</w>":992,"¬</w>":993,"à</w>":994,"።</w>":995,"ኆ</w>":996,"←</w>":997,"v</w>":998,"K</w>":999,"፼</w>":1000,"¹</w>":1001,"ሗ</w>":1002,"ኵ</w>":1003,"ዦ</w>":1004,"ጲ</w>":1005,"−</w>":1006,"ሢ</w>":1007,"é</w>":1008,"=</w>":1009,"፶</w>":1010,"˜</w>":1011,"ת</w>":1012,"′</w>":1013,"ⶵ</w>":1014,"ቐ</w>":1015,"ק</w>":1016,"Ÿ</w>":1017,"Ö</w>":1018,"ኈ</w>":1019,"È</w>":1020,"ê</w>":1021,"É</w>":1022,"፴</w>":1023,"פ</w>":1024,",</w>":1025,"와</w>":1026,"ቯ</w>":1027,"ኼ</w>":1028,"א</w>":1029,"ኁ</w>":1030,"í</w>":1031,"q</w>":1032,"ב</w>":1033,"…</w>":1034,"፵</w>":1035,"¥</w>":1036,"_</w>":1037,"̋</w>":1038,"⇾</w>":1039,"Ⅱ</w>":1040,"è</w>":1041,"(</w>":1042,"?</w>":1043,"Ã</w>":1044,"ö</w>":1045,"○</w>":1046,"ⶋ</w>":1047,"✎</w>":1048,"ׁ</w>":1049,"″</w>":1050,"µ</w>":1051,"{</w>":1052,"]</w>":1053,"+</w>":1054,"ƒ</w>":1055,"ש</w>":1056,"‼</w>":1057,"ה</w>":1058,"[</w>":1059,"‑</w>":1060,"^</w>":1061,"✍</w>":1062,"Ç</w>":1063,".</w>":1064,"ç</w>":1065,"ኰ</w>":1066,"◀</w>":1067,"ኴ</w>":1068,"ⶭ</w>":1069,"ג</w>":1070,"፳</w>":1071,"ח</w>":1072,"፸</w>":1073,"―</w>":1074,"↑</w>":1075,"\"</w>":1076,"¿</w>":1077,"ü</w>":1078,"š</w>":1079,"ǃ</w>":1080,"ዃ</w>":1081,"Ê</w>":1082,"צ</w>":1083,"ð</w>":1084,"᐀</w>":1085,"Å</w>":1086,"˒</w>":1087,"¯</w>":1088,"û</w>":1089,"Í</w>":1090,"ã</w>":1091,"̵</w>":1092,"‰</w>":1093,"→</w>":1094,"ቈ</w>":1095,"†</w>":1096,"ዏ</w>":1097,"|</w>":1098,"ñ</w>":1099,"ፘ</w>":1100,"ד</w>":1101,"፤</w>":1102,"፠</w>":1103,"ä</w>":1104,"¶</w>":1105,"כ</w>":1106,"■</w>":1107,"á</w>":1108,"Æ</w>":1109,"α</w>":1110,"►</w>":1111,"‵</w>":1112,"ו</w>":1113,"¨</w>":1114,"፦</w>":1115,"¼</w>":1116,";</w>":1117,"ז</w>":1118,"‒</w>":1119,"፣</w>":1120,"Ä</w>":1121,"–</w>":1122,"◾</w>":1123,"}</w>":1124,"ט</w>":1125,"#</w>":1126,"ר</w>":1127,"ዺ</w>":1128,"„</w>":1129,"@</w>":1130,"ኌ</w>":1131,"מ</w>":1132,"ዅ</w>":1133,"נ</w>":1134,"ጱ</w>":1135,"‚</w>":1136,"ዽ</w>":1137,"‣</w>":1138,"ס</w>":1139,"ë</w>":1140,"‶</w>":1141,"ל</w>":1142,"å</w>":1143,"✔</w>":1144,"¡</w>":1145,"ጶ</w>":1146,"!</w>":1147,"⤫</w>":1148,"ኍ</w>":1149,"ⷄ</w>":1150,"ע</w>":1151,"▖</w>":1152,"እን":1153,"የሚ":1154,"ነው</w>":1155,"ቸው</w>":1156,"የተ":1157,"ውን</w>":1158,"ላይ</w>":1159,"እንደ":1160,"ነት</w>":1161,"ዎች</w>":1162,"አን":1163,"በመ":1164,"ችን</w>":1165,"እንዲ":1166,"ነበ":1167,"መን":1168,"አስ":1169,"ዋል</w>":1170,"ለመ":1171,"አገ":1172,"በት</w>":1173,"ለው</w>":1174,"በተ":1175,"ደረ":1176,"ለማ":1177,"ሆን</w>":1178,"የመ":1179,"ዚህ</w>":1180,"ንም</w>":1181,"ቶች</w>":1182,"አይ":1183,"ትን</w>":1184,"ያስ":1185,"ውስ":1186,"ቸውን</w>":1187,"ከተ":1188,"በማ":1189,"ነገ":1190,"የአ":1191,"በአ":1192,"ትና</w>":1193,"ድረ":1194,"ለት</w>":1195,"ድር":1196,"ሆነ</w>":1197,"ደር":1198,"ለም</w>":1199,"ውስጥ</w>":1200,"ወደ</w>":1201,"ባለ":1202,"ራት</w>":1203,"ረት</w>":1204,"ኢት":1205,"እንደሚ":1206,"ነበር</w>":1207,"ኢትዮ":1208,"መንግ":1209,"ኢትዮጵ":1210,"የማ":1211,"ጋር</w>":1212,"መል":1213,"መስ":1214,"እንዳ":1215,"ጊዜ</w>":1216,"የም":1217,"አንድ</w>":1218,"ግን</w>":1219,"መለ":1220,"የሚያ":1221,"ሰው</w>":1222,"ተኛ</w>":1223,"አል":1224,"ስት</w>":1225,"ዓመ":1226,"መሆ":1227,"በሚ":1228,"ርት</w>":1229,"ደግ":1230,"ውም</w>":1231,"እስ":1232,"ምን</w>":1233,"ሮች</w>":1234,"ቱን</w>":1235,"ረው</w>":1236,"ስለ":1237,"ኢትዮጵያ</w>":1238,"ሪያ</w>":1239,"ምክ":1240,"ግባ":1241,"ትም</w>":1242,"ጉዳ":1243,"ላል</w>":1244,"ችግ":1245,"ያህ":1246,"ነገር</w>":1247,"ቤት</w>":1248,"ጀመ":1249,"ደግሞ</w>":1250,"ስት":1251,"አስተ":1252,"አካ":1253,"እያ":1254,"ሳይ":1255,"ላቸው</w>":1256,"ናቸው</w>":1257,"ስተ":1258,"ሆኑ</w>":1259,"ሁን</w>":1260,"ንና</w>":1261,"አም":1262,"እር":1263,"ይም</w>":1264,"መንግሥ":1265,"ይህ":1266,"ሎች</w>":1267,"ናል</w>":1268,"ገባ":1269,"ታል</w>":1270,"እነ":1271,"ዳን":1272,"ገል":1273,"ሥራ</w>":1274,"ንን</w>":1275,"ልማ":1276,"እየ":1277,"ተሰ":1278,"ንያ":1279,"ያለ":1280,"እና</w>":1281,"ግን":1282,"ምህ":1283,"ዲስ</w>":1284,"ወጣ":1285,"ናገ":1286,"ያን</w>":1287,"እየተ":1288,"ኑን</w>":1289,"ካከ":1290,"ከፍ":1291,"ምን":1292,"ብር</w>":1293,"ታት</w>":1294,"ሉት</w>":1295,"አለ":1296,"ኛው</w>":1297,"ድረግ</w>":1298,"እንደ</w>":1299,"ይህ</w>":1300,"ገድ</w>":1301,"ዘመ":1302,"ናት</w>":1303,"ብቻ</w>":1304,"አቶ</w>":1305,"ፈል":1306,"20":1307,"ወቅ":1308,"ዎችን</w>":1309,"ላት</w>":1310,"ተጠ":1311,"ምር":1312,"ባቸው</w>":1313,"በር":1314,"ራዊ</w>":1315,"ዓለም</w>":1316,"ችና</w>":1317,"ሁኔ":1318,"ምክንያ":1319,"ችሁ</w>":1320,"አቅ":1321,"ለያ":1322,"ሁሉ</w>":1323,"ኋላ</w>":1324,"መጠ":1325,"ገለ":1326,"ወን":1327,"መሰ":1328,"ይወ":1329,"መረ":1330,"ሪካ</w>":1331,"ወይም</w>":1332,"ታቸው</w>":1333,"ገን":1334,"አባ":1335,"ትምህ":1336,"ተው</w>":1337,"አብ":1338,"ክፍ":1339,"ሰዎች</w>":1340,"ልጣ":1341,"ክል":1342,"ኢን":1343,"አበ":1344,"ንግ":1345,"በዚህ</w>":1346,"ሁም</w>":1347,"መንግሥት</w>":1348,"ህዝ":1349,"የነበ":1350,"ሩት</w>":1351,"በር</w>":1352,"ብሎ</w>":1353,"ፊት</w>":1354,"ሕዝ":1355,"አገር</w>":1356,"በቀ":1357,"ከመ":1358,"ዓመት</w>":1359,"አድር":1360,"በላይ</w>":1361,"በኋላ</w>":1362,"ገው</w>":1363,"ታወ":1364,"አገል":1365,"ላለ":1366,"እና":1367,"ቃል</w>":1368,"ቀር":1369,"የት</w>":1370,"ሉም</w>":1371,"የሰ":1372,"ያው</w>":1373,"ወደ":1374,"ጠቀ":1375,"ከፍተኛ</w>":1376,"ውና</w>":1377,"አይደ":1378,"ዘር":1379,"ልማት</w>":1380,"ገኘ":1381,"ሠራ":1382,"ያለው</w>":1383,"በረ":1384,"ዕድ":1385,"ብዙ</w>":1386,"አደ":1387,"ሁለ":1388,"ልም</w>":1389,"መሆኑን</w>":1390,"ኃይ":1391,"ድር</w>":1392,"ግብ":1393,"ሥራ":1394,"ራል</w>":1395,"ሲሆን</w>":1396,"ደረጃ</w>":1397,"ዚህ":1398,"ቷል</w>":1399,"ኞች</w>":1400,"ማስ":1401,"እንዲሁም</w>":1402,"ርና</w>":1403,"ትምህርት</w>":1404,"ዮን</w>":1405,"መንገድ</w>":1406,"የሚያስ":1407,"ለያዩ</w>":1408,"ጥር</w>":1409,"ለሁ</w>":1410,"ብረ":1411,"ልቅ</w>":1412,"ቀን</w>":1413,"ያህዌ</w>":1414,"ሌሎች</w>":1415,"ሁኔታ</w>":1416,"ረጋ":1417,"ውድ":1418,"ቦች</w>":1419,"መካከ":1420,"ሆነ":1421,"አገልግ":1422,"አመ":1423,"ይች":1424,"በኩ":1425,"አት":1426,"ወሰ":1427,"ጠና":1428,"ዓት</w>":1429,"አዲስ</w>":1430,"ከሚ":1431,"ችም</w>":1432,"ድን</w>":1433,"ሁለት</w>":1434,"አሁን</w>":1435,"ደር</w>":1436,"ሽን</w>":1437,"ፓር":1438,"አገልግሎ":1439,"ስፖ":1440,"ሆኑ":1441,"ያደር":1442,"ተቋ":1443,"200":1444,"ታዊ</w>":1445,"ለን</w>":1446,"ባት</w>":1447,"ሰማ":1448,"እንዲህ</w>":1449,"መር":1450,"ቅር":1451,"ሀገ":1452,"ችግር</w>":1453,"ዘጋ":1454,"ፕሮ":1455,"ምና</w>":1456,"ያም</w>":1457,"ያል":1458,"ሚኒ":1459,"ፈጠ":1460,"ውጤ":1461,"ዓይ":1462,"ላክ</w>":1463,"ራቸው</w>":1464,"እው":1465,"አቀ":1466,"ንስ</w>":1467,"ምሮ</w>":1468,"ሌላ</w>":1469,"አገሪ":1470,"ድርጅ":1471,"ኛል</w>":1472,"አካባ":1473,"ተከ":1474,"ጥያ":1475,"ሪዎች</w>":1476,"ዎቹ</w>":1477,"ተገ":1478,"መካከል</w>":1479,"ሊዮን</w>":1480,"ተር</w>":1481,"ሆነው</w>":1482,"በተለ":1483,"ባህ":1484,"ከተማ</w>":1485,"ተግባ":1486,"ለች</w>":1487,"ተና":1488,"ጉዳይ</w>":1489,"ይህን</w>":1490,"ጠቅ":1491,"ገንዘ":1492,"ፍሪካ</w>":1493,"ወቅት</w>":1494,"በየ":1495,"ካሄ":1496,"ሲያ":1497,"ሩን</w>":1498,"እስከ</w>":1499,"እንጂ</w>":1500,"እንደሆነ</w>":1501,"ባል</w>":1502,"ብት</w>":1503,"ድረስ</w>":1504,"ይገ":1505,"ሰብ</w>":1506,"ስራ</w>":1507,"መሠ":1508,"አበባ</w>":1509,"ተዋል</w>":1510,"ሞክ":1511,"እኔ</w>":1512,"ከዚህ</w>":1513,"በሰ":1514,"መለከ":1515,"ቱም</w>":1516,"ድን":1517,"ሙሉ</w>":1518,"ጠበ":1519,"ቀረ":1520,"ማለት</w>":1521,"ቶችን</w>":1522,"ምክንያት</w>":1523,"ግለ":1524,"አይደለም</w>":1525,"ንድ</w>":1526,"ጠው</w>":1527,"አር":1528,"ልና</w>":1529,"ታው":1530,"ረዳ":1531,"የሚገ":1532,"ተቀ":1533,"ታሪ":1534,"ደው</w>":1535,"ታቸውን</w>":1536,"አንዳን":1537,"በስ":1538,"የኢትዮጵያ</w>":1539,"ያው":1540,"ላሉ</w>":1541,"ቸዋል</w>":1542,"ሰራ":1543,"እነዚህ</w>":1544,"ገበ":1545,"ውጭ</w>":1546,"ዴት</w>":1547,"ችል</w>":1548,"ይሆ":1549,"ግንባ":1550,"ፈው</w>":1551,"ኢየ":1552,"አው":1553,"አስተዳ":1554,"ጊዜ":1555,"ፋት</w>":1556,"ኖች</w>":1557,"ሰብ":1558,"ክለ":1559,"ያህል</w>":1560,"አማ":1561,"ወዳ":1562,"ምር</w>":1563,"ጣት</w>":1564,"ደም</w>":1565,"ቀው</w>":1566,"አገልግሎት</w>":1567,"በል":1568,"ከና":1569,"ፕሬ":1570,"ላው</w>":1571,"ጠር</w>":1572,"አለ</w>":1573,"ዓመታት</w>":1574,"ቅዱ":1575,"ሆኖ</w>":1576,"ለው":1577,"ኝነት</w>":1578,"እግ":1579,"ተመ":1580,"ሱን</w>":1581,"ጨማ":1582,"በርካ":1583,"ሥር":1584,"ምንም</w>":1585,"እንዴት</w>":1586,"ክር":1587,"ይዘ":1588,"ዚህም</w>":1589,"ልጆ":1590,"ሁሉም</w>":1591,"ለዋል</w>":1592,"ላም</w>":1593,"ማህ":1594,"ለቲ":1595,"ፍት":1596,"ብሔ":1597,"ፖለቲ":1598,"ረዋል</w>":1599,"ዘመን</w>":1600,"ዮች</w>":1601,"ኃላ":1602,"ጨዋ":1603,"ጽሐ":1604,"ያሳ":1605,"ተሳ":1606,"በፊት</w>":1607,"ፈጥ":1608,"ሪያ":1609,"ጥረት</w>":1610,"ባን":1611,"ሳይሆን</w>":1612,"ጣም</w>":1613,"ኢኮ":1614,"ቅም</w>":1615,"ችው</w>":1616,"ቀት</w>":1617,"በርካታ</w>":1618,"ኢኮኖ":1619,"ቀጥ":1620,"ገንዘብ</w>":1621,"ገባ</w>":1622,"ታው</w>":1623,"የሚል</w>":1624,"ኢየሱ":1625,"ነሳ":1626,"ርድ</w>":1627,"ቸውም</w>":1628,"ሏል</w>":1629,"መንግስት</w>":1630,"መው</w>":1631,"እንግ":1632,"ካም</w>":1633,"ይወት</w>":1634,"ከሰ":1635,"ድጋ":1636,"አሳ":1637,"እድ":1638,"ተማ":1639,"19":1640,"ይኖ":1641,"ዚያ</w>":1642,"የት":1643,"ዶች</w>":1644,"ጨረ":1645,"አገሪቱ</w>":1646,"ብር":1647,"ሳብ</w>":1648,"ስለ</w>":1649,"ማን":1650,"ተናግ":1651,"እም":1652,"የግ":1653,"የበ":1654,"እንዲያ":1655,"ማድረግ</w>":1656,"ጥበ":1657,"የወ":1658,"ግኘ":1659,"በም":1660,"በት":1661,"ጠቃ":1662,"ችንን</w>":1663,"በው</w>":1664,"ፌዴ":1665,"ይገባ":1666,"ፈለ":1667,"ዋና</w>":1668,"መጣ":1669,"አላ":1670,"ነጋ":1671,"ግራ":1672,"ስፖርት</w>":1673,"ደራ":1674,"ራሳ":1675,"ለሚ":1676,"ቹን</w>":1677,"ይችላል</w>":1678,"ብዙ":1679,"ቀበ":1680,"ተስ":1681,"ልጅ</w>":1682,"ግብ</w>":1683,"ቦታ</w>":1684,"ሚሊዮን</w>":1685,"ባለው</w>":1686,"በጥ":1687,"ማት</w>":1688,"ስቲ":1689,"ስና</w>":1690,"አምላክ</w>":1691,"የሚሰ":1692,"ዩኒ":1693,"አንዱ</w>":1694,"የታ":1695,"በደ":1696,"የማይ":1697,"በእ":1698,"ገት</w>":1699,"00</w>":1700,"ይሆናል</w>":1701,"ብለው</w>":1702,"ዛሬ</w>":1703,"ጽሐፍ</w>":1704,"ሆንም</w>":1705,"ኢየሱስ</w>":1706,"የር</w>":1707,"በጣም</w>":1708,"እንቅ":1709,"ብን</w>":1710,"ኖር</w>":1711,"ቀድ":1712,"ህዝብ</w>":1713,"ጋል</w>":1714,"በኩል</w>":1715,"ምሳ":1716,"ቢያ</w>":1717,"ሞች</w>":1718,"ከላ":1719,"አሰ":1720,"ቅረ":1721,"መጥ":1722,"ርም</w>":1723,"ሕዝብ</w>":1724,"ባለሙ":1725,"ጠት</w>":1726,"የህ":1727,"ያለ</w>":1728,"ለማስ":1729,"ስራ":1730,"ንት</w>":1731,"የምት":1732,"ሬት</w>":1733,"አለመ":1734,"ቢያ":1735,"ሳይ</w>":1736,"ፕሬዚ":1737,"የለ":1738,"ቨር":1739,"ታዎች</w>":1740,"ሚያ</w>":1741,"ዝግ":1742,"ሚኒስት":1743,"ትኩ":1744,"አስፈ":1745,"ጠይ":1746,"ጀት</w>":1747,"ብረተሰ":1748,"ገኘው</w>":1749,"ፕሬዚዳን":1750,"ሞክራ":1751,"አቀፍ</w>":1752,"ከማ":1753,"ድም":1754,"ያደረ":1755,"ገር</w>":1756,"ቡን</w>":1757,"ሉን</w>":1758,"ፈረ":1759,"ያሉ</w>":1760,"የስ":1761,"ጡት</w>":1762,"ደት</w>":1763,"ኃላፊ":1764,"ሳት</w>":1765,"ሥልጣ":1766,"ቃት</w>":1767,"ክት</w>":1768,"ራችን</w>":1769,"ቅዱስ</w>":1770,"በትን</w>":1771,"ምፒ":1772,"ብረት</w>":1773,"ከናወ":1774,"የው</w>":1775,"ጥያቄ</w>":1776,"በተለይ</w>":1777,"ወስ":1778,"በግ":1779,"በማለት</w>":1780,"አንዳንድ</w>":1781,"ሪካ":1782,"ልን</w>":1783,"ስም</w>":1784,"ኃይል</w>":1785,"ክስ</w>":1786,"ነቱ</w>":1787,"ኮሚ":1788,"የተለያዩ</w>":1789,"ቤቱ</w>":1790,"ነበረ":1791,"ተጠቃ":1792,"ከአ":1793,"ጋት</w>":1794,"መሆን</w>":1795,"ብለዋል</w>":1796,"ሆኑም</w>":1797,"ጤና</w>":1798,"በተጨማ":1799,"ዩኒቨር":1800,"ሊያ":1801,"ንጉ":1802,"ቤተሰ":1803,"አሉ</w>":1804,"በመሆኑ</w>":1805,"አትሌ":1806,"ቁጥር</w>":1807,"ፉት</w>":1808,"ሴቶች</w>":1809,"ላችሁ</w>":1810,"ግኘት</w>":1811,"ስታ":1812,"መሆኑ</w>":1813,"ጠን":1814,"ከል</w>":1815,"አጋ":1816,"ናው</w>":1817,"ቻቸው</w>":1818,"ስቴ":1819,"የተሰ":1820,"ሲል</w>":1821,"ራሉ</w>":1822,"ረጋገ":1823,"ሃይ":1824,"እርግ":1825,"መሳ":1826,"ነጥ":1827,"አድ":1828,"አስተዳደር</w>":1829,"ወረ":1830,"ከት</w>":1831,"ጥሩ</w>":1832,"ያስፈል":1833,"ውያን</w>":1834,"ዓይነት</w>":1835,"አዳ":1836,"ታሪክ</w>":1837,"የምን":1838,"ያለውን</w>":1839,"ሁኑ</w>":1840,"ፖሊ":1841,"ቅር</w>":1842,"ብራ":1843,"ክተር</w>":1844,"ስላ":1845,"ፈጸ":1846,"ነትን</w>":1847,"እንድ":1848,"ትን":1849,"ገልጸ":1850,"ገኙ</w>":1851,"ልክ</w>":1852,"ገብ":1853,"ፍላ":1854,"በራ":1855,"ከባ":1856,"ተር":1857,"ውጤት</w>":1858,"ስቃ":1859,"መዘ":1860,"ምሳሌ</w>":1861,"ትር</w>":1862,"ገና</w>":1863,"ትራ":1864,"ወር":1865,"ዲያ</w>":1866,"ሮችን</w>":1867,"ማሳ":1868,"ጉባ":1869,"መቀ":1870,"መዝ":1871,"ስለዚህ</w>":1872,"ይት</w>":1873,"ደን":1874,"ጉት</w>":1875,"ቢው</w>":1876,"ማዕ":1877,"አካባቢ</w>":1878,"ወር</w>":1879,"ቴክ":1880,"ድጋፍ</w>":1881,"ጀመሪያ</w>":1882,"በአንድ</w>":1883,"ጀምሮ</w>":1884,"ምክር</w>":1885,"ስን</w>":1886,"ማር":1887,"እንዳይ":1888,"ለማድረግ</w>":1889,"የእ":1890,"መንገ":1891,"መሠረት</w>":1892,"ዛት</w>":1893,"ገና":1894,"ምና":1895,"ንግድ</w>":1896,"ኮን":1897,"ክልል</w>":1898,"በታ":1899,"ያያ":1900,"ያዎች</w>":1901,"መደ":1902,"ተኞች</w>":1903,"ጋዜ":1904,"ፖለቲካ</w>":1905,"የሆነ</w>":1906,"ሯል</w>":1907,"መልክ":1908,"ትር":1909,"ራው</w>":1910,"ስን":1911,"ለውጥ</w>":1912,"ተወ":1913,"ጋራ</w>":1914,"ይገባል</w>":1915,"ዩኒቨርሲ":1916,"ተናግረዋል</w>":1917,"ሪፖ":1918,"ነትና</w>":1919,"ሕግ</w>":1920,"ምላ":1921,"ኢንዱ":1922,"ስተኛ</w>":1923,"ድም</w>":1924,"ቤቶች</w>":1925,"ፕሮጀ":1926,"በታል</w>":1927,"ከሆነ</w>":1928,"ሴት</w>":1929,"ግንኙ":1930,"ውድድር</w>":1931,"ኤል</w>":1932,"ኢንዱስት":1933,"በኢትዮጵያ</w>":1934,"ሄድ</w>":1935,"አገሮች</w>":1936,"ከተማ":1937,"ደጋ":1938,"ባይ":1939,"ቢሆንም</w>":1940,"ግንባታ</w>":1941,"ትኩረት</w>":1942,"ጠብ":1943,"ካል":1944,"ይሁን</w>":1945,"አዴ":1946,"ስለሚ":1947,"10</w>":1948,"ማለ":1949,"የገ":1950,"እንቅስቃ":1951,"ሰጥ":1952,"ተኛው</w>":1953,"በመቶ</w>":1954,"ቀደም</w>":1955,"ሱም</w>":1956,"ባለ</w>":1957,"ጠቁ":1958,"ውድድ":1959,"ሌላው</w>":1960,"የሚያደር":1961,"ይህም</w>":1962,"ክት":1963,"ህን</w>":1964,"በመሆኑም</w>":1965,"ባል":1966,"ቋቋ":1967,"ቡድን</w>":1968,"ነገሮች</w>":1969,"ታችን</w>":1970,"ያላ":1971,"ዋጋ</w>":1972,"አዋ":1973,"የለም</w>":1974,"በሽ":1975,"ፈቃ":1976,"ሕይወት</w>":1977,"ክፍል</w>":1978,"ገኝ</w>":1979,"ልዩ</w>":1980,"ዴሞክራ":1981,"ለውን</w>":1982,"ዋን</w>":1983,"ታደ":1984,"ስብ":1985,"ስር":1986,"በማድረግ</w>":1987,"ቢሆን</w>":1988,"ባሉ</w>":1989,"ቅድ</w>":1990,"ይሰ":1991,"ተን</w>":1992,"ተቋማት</w>":1993,"ልጠ":1994,"ተነ":1995,"ገነ":1996,"አለበት</w>":1997,"ትልቅ</w>":1998,"ሳተ":1999,"ወገ":2000,"እጅ":2001,"ያሉት</w>":2002,"ሺህ</w>":2003,"ኢኮኖሚ</w>":2004,"የው":2005,"ዜጎ":2006,"ዓላ":2007,"ሦስት</w>":2008,"ሥርዓት</w>":2009,"ከዚ":2010,"መድረ":2011,"ቀሳ":2012,"ደረጃ":2013,"ውል":2014,"ደረገ</w>":2015,"አቅም</w>":2016,"በተለያዩ</w>":2017,"15</w>":2018,"ሆኖ":2019,"ማን</w>":2020,"አለው</w>":2021,"ፍላጎ":2022,"ዘርፍ</w>":2023,"ሞት</w>":2024,"ሜሪካ</w>":2025,"የደ":2026,"መጣ</w>":2027,"ከታ":2028,"ተብሎ</w>":2029,"ዲህ</w>":2030,"እንደተ":2031,"ስሜ":2032,"ዎችና</w>":2033,"ሻሻ":2034,"ወጣት</w>":2035,"በሚል</w>":2036,"ድርጅት</w>":2037,"ይመስ":2038,"እግር</w>":2039,"በሙሉ</w>":2040,"መሥ":2041,"ካባ":2042,"ኛውም</w>":2043,"ወጥ</w>":2044,"ርን</w>":2045,"መጽሐፍ</w>":2046,"እኛ</w>":2047,"ችግሮች</w>":2048,"ገበያ</w>":2049,"የጥ":2050,"ፓርቲ":2051,"እንደማ":2052,"አያ":2053,"ይታ":2054,"አምስት</w>":2055,"መብ":2056,"ነሳ</w>":2057,"ጉዳዮች</w>":2058,"ፕሬዚዳንት</w>":2059,"በአሁኑ</w>":2060,"በዓ":2061,"ምንት</w>":2062,"ኳን</w>":2063,"ቀጠ":2064,"ባበ":2065,"ቡብ</w>":2066,"ይቻ":2067,"ለምን</w>":2068,"ያዊ</w>":2069,"በዚ":2070,"ከር</w>":2071,"20</w>":2072,"ገልጸዋል</w>":2073,"የሚች":2074,"ዝም</w>":2075,"መንፈ":2076,"ዳር</w>":2077,"ክር</w>":2078,"ተት</w>":2079,"ጥያቄ":2080,"ምት</w>":2081,"ኝም</w>":2082,"ማኖ":2083,"ድና</w>":2084,"ቡድ":2085,"ጥም</w>":2086,"ገኙ":2087,"ምም":2088,"የነበረው</w>":2089,"ዳን</w>":2090,"ቋል</w>":2091,"ወቅ</w>":2092,"ይህንን</w>":2093,"ገደ":2094,"ፍርድ</w>":2095,"ማስተ":2096,"ውሳ":2097,"ታላ":2098,"ይሄ":2099,"ሰላ":2100,"12</w>":2101,"መነ":2102,"ክምና</w>":2103,"መን</w>":2104,"ናቸውን</w>":2105,"መልካም</w>":2106,"ያላቸው</w>":2107,"በማስ":2108,"ይሁ":2109,"ደረገው</w>":2110,"ኳስ</w>":2111,"መድ":2112,"ልጆች</w>":2113,"መረጃ</w>":2114,"ሁንም</w>":2115,"እንዳለ":2116,"መለስ</w>":2117,"ሰዓት</w>":2118,"ሻለ</w>":2119,"መው":2120,"አመራ":2121,"ቡት</w>":2122,"በቅር":2123,"ጠየ":2124,"ይላል</w>":2125,"አካል</w>":2126,"መጠን</w>":2127,"ሌሎ":2128,"ንድ":2129,"አፍ":2130,"ፈት</w>":2131,"የዓለም</w>":2132,"ዋን":2133,"ዝግጅ":2134,"ነዋ":2135,"ሩም</w>":2136,"እኔ":2137,"እሱ</w>":2138,"ተቃ":2139,"ሀብ":2140,"የሥራ</w>":2141,"የውጭ</w>":2142,"ምርጫ</w>":2143,"ናዊ</w>":2144,"አጥ":2145,"ብሔራዊ</w>":2146,"መር</w>":2147,"ዊት</w>":2148,"አገራት</w>":2149,"ረውን</w>":2150,"እውነ":2151,"እምነት</w>":2152,"ነበሩ</w>":2153,"ወጣ</w>":2154,"የራ":2155,"ቸውና</w>":2156,"አክ":2157,"ግንኙነት</w>":2158,"እንኳን</w>":2159,"ዘንድ</w>":2160,"ይዞ</w>":2161,"ብና</w>":2162,"ተደር":2163,"ሰባ":2164,"ይናገ":2165,"ግም</w>":2166,"ሜትር</w>":2167,"ሳል</w>":2168,"ቦት</w>":2169,"ይልቅ</w>":2170,"አስፈላ":2171,"ክርስቲ":2172,"ተዋ":2173,"ትል</w>":2174,"እጅግ</w>":2175,"አካላት</w>":2176,"ባይ</w>":2177,"ወጣቶች</w>":2178,"አቅር":2179,"ቅና</w>":2180,"ቆጣ":2181,"ቢዎች</w>":2182,"የሚታ":2183,"መም":2184,"ፍቅር</w>":2185,"ደግ</w>":2186,"መኖ":2187,"ጿል</w>":2188,"ቀር</w>":2189,"አፍሪካ</w>":2190,"አንደ":2191,"ተግባር</w>":2192,"ከበ":2193,"ጥቂ":2194,"ለህ</w>":2195,"ሪው</w>":2196,"ርነት</w>":2197,"ክል</w>":2198,"ቴክኖ":2199,"የአፍሪካ</w>":2200,"ታማ":2201,"ገልጿል</w>":2202,"አሁንም</w>":2203,"ቆይ":2204,"ሆኖም</w>":2205,"የሰው</w>":2206,"አሸ":2207,"ጥቅም</w>":2208,"ንግ</w>":2209,"ሪያው</w>":2210,"ቴክኖሎ":2211,"ጀን":2212,"ምስ":2213,"ቆጠ":2214,"ልብ</w>":2215,"አዴግ</w>":2216,"ስፖር":2217,"መሰረት</w>":2218,"በዓለም</w>":2219,"በመስ":2220,"መሠረ":2221,"ነፃ":2222,"መብት</w>":2223,"ከራ":2224,"ጠናቀ":2225,"መሬት</w>":2226,"የዘ":2227,"ቅድ":2228,"በ19":2229,"እስራ":2230,"አማካ":2231,"ጠቅላይ</w>":2232,"መልኩ</w>":2233,"ፌዴሬ":2234,"ቋን":2235,"እንዳል":2236,"አስተያ":2237,"የተቀ":2238,"ውይ":2239,"11</w>":2240,"አደጋ</w>":2241,"ዶላ":2242,"ሚኒስትር</w>":2243,"ማር</w>":2244,"ጠቃላይ</w>":2245,"ሙት</w>":2246,"ግድ":2247,"ጓል</w>":2248,"ለማሳ":2249,"ቶችና</w>":2250,"ይቻላል</w>":2251,"ችንም</w>":2252,"ሥልጣን</w>":2253,"በሌላ</w>":2254,"ተስፋ</w>":2255,"ሚኒስቴ":2256,"አስተዋ":2257,"የፖለቲካ</w>":2258,"ሃይማኖ":2259,"ዳይ":2260,"ውንም</w>":2261,"ኩት</w>":2262,"ሀገር</w>":2263,"ማኅ":2264,"የኤ":2265,"ጀም":2266,"ኢህ":2267,"ገብ</w>":2268,"ምጃ</w>":2269,"ብሏል</w>":2270,"የቆ":2271,"አቋ":2272,"ቶቹ</w>":2273,"ይታወ":2274,"ክልሉ</w>":2275,"እንኳ</w>":2276,"ሪም</w>":2277,"ዊና</w>":2278,"ፓርቲ</w>":2279,"ኞቹ</w>":2280,"ሀብት</w>":2281,"ጓደ":2282,"ኗል</w>":2283,"ሳቸው</w>":2284,"አፈ":2285,"በህ":2286,"ገቡ</w>":2287,"ቁጥ":2288,"የሌ":2289,"የሆነው</w>":2290,"ድርሻ</w>":2291,"ከዚያም</w>":2292,"ላይ":2293,"ለመስ":2294,"ቀስ</w>":2295,"የሚለው</w>":2296,"ሥነ</w>":2297,"14</w>":2298,"እዚህ</w>":2299,"መራ":2300,"ከር":2301,"ወይ":2302,"ነጥብ</w>":2303,"ተፈ":2304,"ስፍ":2305,"ግል":2306,"ዶላር</w>":2307,"ሥር</w>":2308,"ማቸው</w>":2309,"ከፈ":2310,"መንግስ":2311,"ቅረብ</w>":2312,"ጉም</w>":2313,"ሰላም</w>":2314,"ሊሆን</w>":2315,"ወንድ":2316,"በአዲስ</w>":2317,"ቡና</w>":2318,"ብሄ":2319,"ሪፖር":2320,"ባለፈው</w>":2321,"ተመል":2322,"ተሳት":2323,"ነስ</w>":2324,"ዱን</w>":2325,"ስልጣ":2326,"ይገኛል</w>":2327,"የሆነ":2328,"መድ</w>":2329,"መታ":2330,"ለዚህ</w>":2331,"ብዬ</w>":2332,"ጫወ":2333,"ጦር</w>":2334,"ጨምሮ</w>":2335,"ረጋግ":2336,"አስታው":2337,"ግል</w>":2338,"መራ</w>":2339,"ኢኮኖሚ":2340,"ኢንቨ":2341,"ኖሩ</w>":2342,"እኮ</w>":2343,"መሆኑ":2344,"የሙ":2345,"ገባው</w>":2346,"ምክንያቱም</w>":2347,"ወለ":2348,"ዛሬ":2349,"ነግ":2350,"ጣቸው</w>":2351,"መግለ":2352,"ዶክተር</w>":2353,"እንቅስቃሴ</w>":2354,"ፍጠር</w>":2355,"ያዘ":2356,"መት</w>":2357,"ዙሪያ</w>":2358,"ወቅቱ</w>":2359,"ይሄ</w>":2360,"ኛውን</w>":2361,"የሆኑ</w>":2362,"ዝር":2363,"በበኩ":2364,"13</w>":2365,"ለተ":2366,"የቀ":2367,"በልጥ</w>":2368,"ጥቅ":2369,"ጥናት</w>":2370,"ኮች</w>":2371,"ታዲያ</w>":2372,"ኦሮ":2373,"እናን":2374,"ፎች</w>":2375,"ዝና":2376,"ቻችን</w>":2377,"እንደሚያ":2378,"ምንድን</w>":2379,"ፈር":2380,"የመጀመ":2381,"መጡ</w>":2382,"የምር":2383,"በተለይም</w>":2384,"ግና</w>":2385,"ሆኑት</w>":2386,"እንስ":2387,"ሰር":2388,"ንነት</w>":2389,"ተረ":2390,"ችላለ":2391,"ድርጊ":2392,"ብል":2393,"ሱት</w>":2394,"ቀድሞ</w>":2395,"የካ":2396,"ራን</w>":2397,"ጉዳት</w>":2398,"ኢንዱስትሪ</w>":2399,"ያት</w>":2400,"ስምም":2401,"ሉትን</w>":2402,"አንድ":2403,"ሙን</w>":2404,"እያን":2405,"ፋይ":2406,"ግር</w>":2407,"መሰረ":2408,"ሰራ</w>":2409,"አንተ</w>":2410,"በዚህም</w>":2411,"መፍት":2412,"ዚህን</w>":2413,"ናገር</w>":2414,"ዓመቱ</w>":2415,"አራት</w>":2416,"ጥቂት</w>":2417,"ምት":2418,"ሲሉ</w>":2419,"ሳሰ":2420,"ፈጣ":2421,"ጨር":2422,"16</w>":2423,"ፕሮግራ":2424,"ይና</w>":2425,"የነ":2426,"ረገድ</w>":2427,"አድርጎ</w>":2428,"ፕሮጀክ":2429,"ልጠና</w>":2430,"ሰለ":2431,"ዕራ":2432,"ዜጎች</w>":2433,"ትምህር":2434,"መለካከ":2435,"የተሻለ</w>":2436,"ስድ":2437,"አባላት</w>":2438,"ዘርፉ</w>":2439,"ታይ</w>":2440,"ጽሑ":2441,"ሁት</w>":2442,"በቀጣ":2443,"ምርት</w>":2444,"ለምሳሌ</w>":2445,"የጎ":2446,"እስካ":2447,"የትምህርት</w>":2448,"በእርግ":2449,"ወንጀ":2450,"የልማት</w>":2451,"ሊያ</w>":2452,"አገራችን</w>":2453,"ጨዋታ</w>":2454,"ቻል</w>":2455,"ደብ":2456,"አግ":2457,"ምላሽ</w>":2458,"ሠራ</w>":2459,"ስቶ":2460,"ውሃ</w>":2461,"ማህበ":2462,"ጣል</w>":2463,"በቂ</w>":2464,"ልበት</w>":2465,"ግባር</w>":2466,"በዘ":2467,"ቻቸውን</w>":2468,"ሥርዓ":2469,"ዎችም</w>":2470,"ጹት</w>":2471,"ጠቀም</w>":2472,"መልስ</w>":2473,"ትክ":2474,"በተጨማሪም</w>":2475,"ሜዳ":2476,"ረን</w>":2477,"ታማ</w>":2478,"ደረጉ</w>":2479,"ፍላጎት</w>":2480,"ጥና":2481,"ገቢ</w>":2482,"ሃል</w>":2483,"ልም":2484,"ዳይሬ":2485,"ቂያ</w>":2486,"አብዛ":2487,"ጠንካ":2488,"ተጠቃሚ</w>":2489,"መለከተ</w>":2490,"ዕድል</w>":2491,"አጋጣ":2492,"ርዕ":2493,"የመንግሥት</w>":2494,"ስር</w>":2495,"ሶች</w>":2496,"ወጥ":2497,"ተዳ":2498,"ይገል":2499,"ነቱን</w>":2500,"ሚኒስቴር</w>":2501,"ምላክ</w>":2502,"ክን</w>":2503,"መዋል</w>":2504,"ችልም</w>":2505,"ትነት</w>":2506,"ከረ":2507,"ባለሙያዎች</w>":2508,"ጨረሻ</w>":2509,"17</w>":2510,"ራቸውን</w>":2511,"ሂደት</w>":2512,"ዳት</w>":2513,"ሪክ</w>":2514,"ከብ":2515,"ከት":2516,"ጊዜው</w>":2517,"ወራት</w>":2518,"ሽኑ</w>":2519,"ናገሩት</w>":2520,"መመ":2521,"የቻ":2522,"ሚና</w>":2523,"ባለመ":2524,"ፈጥሮ</w>":2525,"ዊው</w>":2526,"30</w>":2527,"ይኖር":2528,"እያንዳን":2529,"ኩባ":2530,"አይነት</w>":2531,"በተጨማሪ</w>":2532,"ባንክ</w>":2533,"ፈጽ":2534,"ውሳኔ</w>":2535,"ላዊ</w>":2536,"ስትራ":2537,"ምድር</w>":2538,"ስሜት</w>":2539,"ተን":2540,"መረጃ":2541,"ባህል</w>":2542,"ቀጣ":2543,"ሁለተኛ</w>":2544,"ሰው":2545,"ጥበብ</w>":2546,"ቁት</w>":2547,"ባቸውን</w>":2548,"ይላሉ</w>":2549,"ኖረው</w>":2550,"ምል":2551,"ካሄደው</w>":2552,"ማድረ":2553,"ሐሳብ</w>":2554,"ክብ":2555,"2009</w>":2556,"ልፍ</w>":2557,"ዱት</w>":2558,"ይበልጥ</w>":2559,"ብረተሰቡ</w>":2560,"መንት</w>":2561,"ያቸው</w>":2562,"50</w>":2563,"ድል</w>":2564,"ቾች</w>":2565,"ሁለቱ</w>":2566,"ሸነ":2567,"ከነ":2568,"ፍት</w>":2569,"በፍ":2570,"ዘጋጀ":2571,"ፕላ":2572,"የጤና</w>":2573,"ግብርና</w>":2574,"ጥን":2575,"ለጠ</w>":2576,"ቤተ</w>":2577,"ራጭ</w>":2578,"ያስ</w>":2579,"ዩኒቨርሲቲ</w>":2580,"እንግሊ":2581,"ወጡ</w>":2582,"ቀም</w>":2583,"መላ":2584,"ጋዜጠ":2585,"ስል":2586,"ቢሊዮን</w>":2587,"ሚዎች</w>":2588,"ነፃ</w>":2589,"ካል</w>":2590,"ኩባንያ":2591,"ሕይወ":2592,"ፋብ":2593,"ተግባራዊ</w>":2594,"ዝግጅት</w>":2595,"ከፍ</w>":2596,"በላ":2597,"ዕድገት</w>":2598,"ሪቱ</w>":2599,"አካባቢዎች</w>":2600,"አቅጣ":2601,"ኃላፊነት</w>":2602,"ሆነም</w>":2603,"ቷን</w>":2604,"ነበረው</w>":2605,"ልካም</w>":2606,"ሥራዎች</w>":2607,"ደረግ</w>":2608,"2008</w>":2609,"ሆቴ":2610,"ማዊ</w>":2611,"እንደነበር</w>":2612,"በቅ":2613,"ሎት</w>":2614,"ያል</w>":2615,"ይሁንና</w>":2616,"ከዚያ</w>":2617,"የባ":2618,"ንብረት</w>":2619,"ፈተ":2620,"ብቃት</w>":2621,"የደረ":2622,"የኢ":2623,"የላ":2624,"ባለፉት</w>":2625,"ስታ</w>":2626,"ዳል</w>":2627,"ጠንካራ</w>":2628,"ጀር":2629,"ንስ":2630,"ኢህአዴግ</w>":2631,"የተለ":2632,"ሻምፒ":2633,"ካሄድ</w>":2634,"በአገሪቱ</w>":2635,"ከላከ":2636,"ተጫ":2637,"ብርሃ":2638,"ጭምር</w>":2639,"ይጠበ":2640,"የአዲስ</w>":2641,"ገውን</w>":2642,"ችንና</w>":2643,"ወላ":2644,"ቴክኖሎጂ</w>":2645,"በቅርቡ</w>":2646,"ልኝ</w>":2647,"ድንጋ":2648,"ትውል":2649,"ራረ":2650,"ገለጹት</w>":2651,"ጅም</w>":2652,"ራሳቸው</w>":2653,"መስጠት</w>":2654,"አት</w>":2655,"ደስ</w>":2656,"ፈን</w>":2657,"ውጪ</w>":2658,"መዋ":2659,"አመለካከ":2660,"እነሱ</w>":2661,"ዕቅድ</w>":2662,"ውል</w>":2663,"ሲያዊ</w>":2664,"ማም":2665,"ወይዘ":2666,"እነዚህን</w>":2667,"ማግኘት</w>":2668,"በትም</w>":2669,"የሚገኙ</w>":2670,"ቀዋል</w>":2671,"አድርገ":2672,"መሆናቸውን</w>":2673,"በወቅቱ</w>":2674,"ልብ":2675,"ሳዊ</w>":2676,"ይሆን</w>":2677,"ፎር":2678,"እንዲሰ":2679,"ለም":2680,"የጠ":2681,"ኢንቨስት":2682,"እንድት":2683,"ሳምንት</w>":2684,"በመንግ":2685,"ሮው</w>":2686,"እውነት</w>":2687,"ስቶ</w>":2688,"አስቸ":2689,"ከላከል</w>":2690,"ታውን</w>":2691,"አንፃ":2692,"ስተዋ":2693,"የሚያሳ":2694,"መቻ":2695,"ሆኗል</w>":2696,"ሰር</w>":2697,"ኢትዮጵያው":2698,"አረ":2699,"ቧል</w>":2700,"ሆን":2701,"ግንዛ":2702,"እንዲሆን</w>":2703,"ንፈ":2704,"ችሉ</w>":2705,"25</w>":2706,"አርሶ</w>":2707,"ነኝ</w>":2708,"ስኬ":2709,"ያህዌ":2710,"ባሻ":2711,"ዳታ</w>":2712,"ባባ":2713,"ተከት":2714,"ስፒ":2715,"ለማግኘት</w>":2716,"ቱሪ":2717,"ፍታት</w>":2718,"ንቀሳ":2719,"ተጋ":2720,"ረጋገጥ</w>":2721,"አልነበረ":2722,"ቀናት</w>":2723,"መምህ":2724,"ሁለተኛው</w>":2725,"ያና</w>":2726,"ከተሞች</w>":2727,"ችሏል</w>":2728,"ይናገራሉ</w>":2729,"ሮፓ</w>":2730,"እርምጃ</w>":2731,"ብሎ":2732,"አላቸው</w>":2733,"ቱት</w>":2734,"ቆም</w>":2735,"ደገ":2736,"ፈረን":2737,"ማማ":2738,"ካባቢው</w>":2739,"ጫው</w>":2740,"ጨማሪ</w>":2741,"ካት</w>":2742,"ሩበት</w>":2743,"ዕው":2744,"ሕገ</w>":2745,"ዳቸው</w>":2746,"ጀመር</w>":2747,"ችግሩ</w>":2748,"ያዝ</w>":2749,"ድህ":2750,"ሰነ":2751,"ይኸ":2752,"ዘላ":2753,"ፈፀ":2754,"ጥታ</w>":2755,"በገ":2756,"ጋቸው</w>":2757,"ጀመረ</w>":2758,"ጎን</w>":2759,"መሪ</w>":2760,"ዋነ":2761,"ግር":2762,"ብዛ":2763,"ጆች</w>":2764,"ራሳቸውን</w>":2765,"ደርስ</w>":2766,"የም</w>":2767,"የሚያስችል</w>":2768,"አስተያየት</w>":2769,"ለኝ</w>":2770,"18</w>":2771,"ከባድ</w>":2772,"በረታ":2773,"ሌክት":2774,"በሆነ</w>":2775,"አልፎ</w>":2776,"የምታ":2777,"ዮሐ":2778,"ጦርነት</w>":2779,"መለከተ":2780,"ፈር</w>":2781,"ሷል</w>":2782,"በተመለከተ</w>":2783,"ተገልጿል</w>":2784,"የቀረ":2785,"ዓላማ</w>":2786,"ታን</w>":2787,"ግባት</w>":2788,"ኤር":2789,"የተወሰ":2790,"ወል":2791,"የተነሳ</w>":2792,"አነ":2793,"ረጃ</w>":2794,"ምፒክ</w>":2795,"በዋል</w>":2796,"ሆስፒ":2797,"የግል</w>":2798,"ያስፈልጋል</w>":2799,"ቶን</w>":2800,"ጉን</w>":2801,"ቢሮ</w>":2802,"ካዊ</w>":2803,"ዕለት</w>":2804,"እስካሁን</w>":2805,"የንግድ</w>":2806,"የምና":2807,"ግለሰ":2808,"እህ":2809,"ዩኒቨርሲቲ":2810,"ተማሪዎች</w>":2811,"አሉ":2812,"ሻምፒዮ":2813,"አግኝ":2814,"ልዩ":2815,"በጀት</w>":2816,"ቴዎ":2817,"ተከታ":2818,"ላቸውን</w>":2819,"አስረ":2820,"እናንተ</w>":2821,"ባቸዋል</w>":2822,"ውይይት</w>":2823,"ምግብ</w>":2824,"ሮስ</w>":2825,"አስፈላጊ</w>":2826,"ብለን</w>":2827,"ጠራ":2828,"ዩት</w>":2829,"ኞችን</w>":2830,"መለክ":2831,"መቶ</w>":2832,"አመልክ":2833,"እርስ</w>":2834,"አስተሳ":2835,"የስራ</w>":2836,"ኢትዮጵያን</w>":2837,"ከፋ":2838,"የሞ":2839,"ወይዘሮ</w>":2840,"ጭት</w>":2841,"ተወዳ":2842,"ሪፖርተር</w>":2843,"ተመሳ":2844,"በረሰብ</w>":2845,"እድገት</w>":2846,"አሠራ":2847,"በመሆን</w>":2848,"የአገሪቱ</w>":2849,"እንግዲህ</w>":2850,"በ20":2851,"የጀመ":2852,"የኢኮኖሚ</w>":2853,"ግንዛቤ</w>":2854,"ስድስት</w>":2855,"ቀዳ":2856,"ቀመ":2857,"መልከት</w>":2858,"ብዛት</w>":2859,"አባል</w>":2860,"ቁር":2861,"እኩ":2862,"ጉዞ</w>":2863,"ወታደ":2864,"ክብር</w>":2865,"ፈቃድ</w>":2866,"በበኩላቸው</w>":2867,"ውንና</w>":2868,"ይፋ</w>":2869,"ሰድ</w>":2870,"የጋራ</w>":2871,"ጥፋት</w>":2872,"ናይ":2873,"ጠበቅ</w>":2874,"ሰን":2875,"ይችላሉ</w>":2876,"ያያዘ</w>":2877,"ህዝቡ</w>":2878,"ጥረ":2879,"ትል":2880,"መክ":2881,"ማል</w>":2882,"ፍን</w>":2883,"ሰፊ</w>":2884,"ካለ":2885,"ገናኛ</w>":2886,"አምላ":2887,"ቋንቋ</w>":2888,"ምዕራ":2889,"ንጉሥ</w>":2890,"ኛሉ</w>":2891,"ዘመናዊ</w>":2892,"ኪሎ</w>":2893,"ሶስት</w>":2894,"ሰሞ":2895,"ጉዳዩ</w>":2896,"ደርግ</w>":2897,"ይዘው</w>":2898,"ፍራ":2899,"እኛ":2900,"ተጨማሪ</w>":2901,"ግባቡ</w>":2902,"ወጪ</w>":2903,"የማስ":2904,"ታም</w>":2905,"የሚለውን</w>":2906,"አንቀ":2907,"ጥበቃ</w>":2908,"ቋቋም</w>":2909,"ድምፅ</w>":2910,"ገንባት</w>":2911,"ሙዚ":2912,"በጋራ</w>":2913,"ሕዝቡ</w>":2914,"ይን</w>":2915,"አዲ":2916,"ውጣት</w>":2917,"ወጣው</w>":2918,"ግዛት</w>":2919,"ሻው</w>":2920,"ወንዶች</w>":2921,"ወዲህ</w>":2922,"ባሕ":2923,"ክርስቲያ":2924,"ቤተሰብ</w>":2925,"አሰልጣ":2926,"ሃይማኖት</w>":2927,"ሟል</w>":2928,"ራሱን</w>":2929,"ዊነት</w>":2930,"ስምምነት</w>":2931,"ተቋም</w>":2932,"መለከት</w>":2933,"ቦችን</w>":2934,"በ200":2935,"ተያ":2936,"ዲት</w>":2937,"ጥቃት</w>":2938,"ታና</w>":2939,"መድረክ</w>":2940,"ፉን</w>":2941,"ሃሳብ</w>":2942,"ምድ":2943,"መንፈስ</w>":2944,"አኳ":2945,"በዚሁ</w>":2946,"ሥት</w>":2947,"ሳሉ</w>":2948,"ድርጅቶች</w>":2949,"ችኋ":2950,"የሽ":2951,"ፍና</w>":2952,"ዕድሜ</w>":2953,"አራ":2954,"ተሳታ":2955,"ባሻገር</w>":2956,"ባረ":2957,"ከታተ":2958,"ከናወን</w>":2959,"ናና</w>":2960,"ያስተ":2961,"ዮሐንስ</w>":2962,"እጅ</w>":2963,"ነፃነት</w>":2964,"ተራ":2965,"ተጫዋ":2966,"ዕር":2967,"የሚጠ":2968,"ኦሮሚያ</w>":2969,"ህይወት</w>":2970,"መጋ":2971,"ቴን</w>":2972,"ደን</w>":2973,"ቢት</w>":2974,"ባዊ</w>":2975,"መሣ":2976,"ወዲ":2977,"ሜን</w>":2978,"ጉባኤ</w>":2979,"ዞን</w>":2980,"ተገቢ</w>":2981,"የፀ":2982,"ጠን</w>":2983,"ሠር":2984,"ተሳትፎ</w>":2985,"ስለሆነ</w>":2986,"ዋንጫ</w>":2987,"ታይ":2988,"ወንጀል</w>":2989,"ተሸ":2990,"ባለቤ":2991,"በአግባቡ</w>":2992,"አሰራ":2993,"ብረተሰብ</w>":2994,"24</w>":2995,"የሕ":2996,"ብት":2997,"ናን</w>":2998,"ብኝ</w>":2999,"ባሉት</w>":3000,"ድርጅቱ</w>":3001,"ዋት</w>":3002,"አጋጣሚ</w>":3003,"ችሁን</w>":3004,"ሉበት</w>":3005,"ፈል</w>":3006,"ፈጸም</w>":3007,"ኢንተር":3008,"አትሌቶች</w>":3009,"ዕኖ</w>":3010,"ማራ":3011,"ተመሳሳይ</w>":3012,"ፌዴራል</w>":3013,"ገኙት</w>":3014,"ዘር</w>":3015,"ትንሽ</w>":3016,"ነፍ":3017,"ኖር":3018,"እስኪ":3019,"ራሱ</w>":3020,"ሌላ":3021,"ዩን</w>":3022,"ከለ":3023,"ተወካ":3024,"ስቱ</w>":3025,"ክልሎች</w>":3026,"ረጥ</w>":3027,"እኔም</w>":3028,"ጧል</w>":3029,"በትና</w>":3030,"ጋሚ</w>":3031,"ኢንቨስትመንት</w>":3032,"ነታቸው</w>":3033,"እያለ</w>":3034,"ቱና</w>":3035,"ጠል</w>":3036,"አልተ":3037,"ተጠና":3038,"ዳና</w>":3039,"ስደ":3040,"ሰዋል</w>":3041,"ነህ</w>":3042,"ሜሪካ":3043,"ገል</w>":3044,"ወሰን</w>":3045,"ደረገ":3046,"ምክትል</w>":3047,"ሰት</w>":3048,"ስትና</w>":3049,"ከራ</w>":3050,"ሠሩ</w>":3051,"ደቡብ</w>":3052,"ክለቦች</w>":3053,"በዚያ</w>":3054,"ይገልጻ":3055,"አስተዋጽ":3056,"የያህዌ</w>":3057,"ለያየ</w>":3058,"ክሮ</w>":3059,"አድርገው</w>":3060,"ትርጉም</w>":3061,"ነን</w>":3062,"ልህ</w>":3063,"ያህዌን</w>":3064,"ብሄራዊ</w>":3065,"ነቶች</w>":3066,"ላቀ":3067,"ሚው</w>":3068,"ኛና</w>":3069,"ችሎ":3070,"ጭር</w>":3071,"19</w>":3072,"ወይ</w>":3073,"በሚያ":3074,"የነበረውን</w>":3075,"የአምላክ</w>":3076,"መኪ":3077,"ትውልድ</w>":3078,"ክተ":3079,"የመስ":3080,"ጋሪ</w>":3081,"ውጤታማ</w>":3082,"ሰብሳ":3083,"ከአንድ</w>":3084,"ፎርሜ":3085,"ኑሮ</w>":3086,"መገ":3087,"በሩ</w>":3088,"የመልካም</w>":3089,"ኪራ":3090,"አመት</w>":3091,"ኢትዮጵያውያን</w>":3092,"በኛ</w>":3093,"ጥነት</w>":3094,"በለ":3095,"አቅጣጫ</w>":3096,"ሶማ":3097,"ጣው</w>":3098,"ፓርቲዎች</w>":3099,"ቀም":3100,"ጠኝ</w>":3101,"ታስ":3102,"ወሳ":3103,"ቁም</w>":3104,"የህዝብ</w>":3105,"ሻሻል</w>":3106,"የአገር</w>":3107,"ማሽ</w>":3108,"ሉንም</w>":3109,"ባብ</w>":3110,"ልን":3111,"ሰባ</w>":3112,"የሚችል</w>":3113,"በዓል</w>":3114,"ቁጥጥር</w>":3115,"የበለጠ</w>":3116,"ነሱ</w>":3117,"ረዳት</w>":3118,"በል</w>":3119,"የለውም</w>":3120,"በግል":3121,"ግንቦት</w>":3122,"ውድድሩ</w>":3123,"ሰጠው</w>":3124,"በአጠቃላይ</w>":3125,"የነበሩ</w>":3126,"ቀበል</w>":3127,"ደህ":3128,"ፊዎች</w>":3129,"በተመሳ":3130,"ፕሮጀክት</w>":3131,"ሌም</w>":3132,"ስለመ":3133,"ጥና</w>":3134,"ክፍለ</w>":3135,"ተው":3136,"እንስሳት</w>":3137,"አመለካከት</w>":3138,"ተግ":3139,"ማንኛውም</w>":3140,"22</w>":3141,"ሊግ</w>":3142,"ማግ":3143,"ደጋጋሚ</w>":3144,"ዮር":3145,"ጥር":3146,"ሳን":3147,"አንፃር</w>":3148,"አልነበረም</w>":3149,"ሩና</w>":3150,"ጊዜም</w>":3151,"ሲባል</w>":3152,"መስራት</w>":3153,"ኮሚቴ</w>":3154,"በድ":3155,"ከን":3156,"በአፍሪካ</w>":3157,"ታሉ</w>":3158,"ተቃዋ":3159,"ሚነት</w>":3160,"ሰሩ</w>":3161,"መግለጫ</w>":3162,"ከበር</w>":3163,"ኃላፊ</w>":3164,"ተስፋ":3165,"ሌክትሪክ</w>":3166,"ዴሞክራሲያዊ</w>":3167,"ቡም</w>":3168,"ቅሬ":3169,"ያለበት</w>":3170,"ልምድ</w>":3171,"ንቅ":3172,"የያ":3173,"ይዞ":3174,"አሜሪካ</w>":3175,"ክና</w>":3176,"ማዕከል</w>":3177,"በሌሎች</w>":3178,"ባሳ":3179,"ላል":3180,"ርያ</w>":3181,"አህ":3182,"ሽከር":3183,"እንዳለ</w>":3184,"ቲክስ</w>":3185,"ሪነት</w>":3186,"አለባቸው</w>":3187,"ያንን</w>":3188,"ፖሊስ</w>":3189,"ዎቹን</w>":3190,"ጮች</w>":3191,"ቀላል</w>":3192,"ደሩ</w>":3193,"21</w>":3194,"ሱዳን</w>":3195,"ማው</w>":3196,"ወረዳ</w>":3197,"ታር</w>":3198,"በአገር</w>":3199,"ግብር</w>":3200,"ጉድ":3201,"ክርስቶ":3202,"ቴሌ":3203,"ተደራ":3204,"እንዴ</w>":3205,"ማረ":3206,"40</w>":3207,"የብ":3208,"ሩትን</w>":3209,"ገትና</w>":3210,"ዘጋጅ":3211,"አዋጅ</w>":3212,"ሚኒስትሩ</w>":3213,"ፎርሜሽን</w>":3214,"ለይ":3215,"ፊያ</w>":3216,"ኪራይ</w>":3217,"ተባ":3218,"ባለቤት</w>":3219,"ዋናው</w>":3220,"ፍል":3221,"ትክክለ":3222,"እጥረት</w>":3223,"አገልጋ":3224,"ሰዎችን</w>":3225,"አስተዋጽኦ</w>":3226,"ዴሞክራሲ</w>":3227,"እንድን":3228,"ወድ":3229,"ያደርግ</w>":3230,"ያላቸውን</w>":3231,"የሚፈል":3232,"ጀመሩ</w>":3233,"መዛ":3234,"ከብ</w>":3235,"የፈጠ":3236,"የሚሉት</w>":3237,"ያደርጋል</w>":3238,"ረጅም</w>":3239,"በከፍተኛ</w>":3240,"አንድነት</w>":3241,"ሄዱ</w>":3242,"ለኛል</w>":3243,"ተካ":3244,"ከሌሎች</w>":3245,"ምም</w>":3246,"አልቻ":3247,"የአየር</w>":3248,"እንደሚችል</w>":3249,"ጥያቄዎች</w>":3250,"ዛዝ</w>":3251,"ባለሀብ":3252,"ረሰ":3253,"ችለው</w>":3254,"ስህ":3255,"ተደ":3256,"ታወቀ</w>":3257,"ቻለ</w>":3258,"ይህን":3259,"ታላቅ</w>":3260,"የሆነውን</w>":3261,"ራስ</w>":3262,"ዝና</w>":3263,"ጨት</w>":3264,"በእርግጥ</w>":3265,"አማካኝነት</w>":3266,"የስፖርት</w>":3267,"እስራኤል</w>":3268,"ወደፊት</w>":3269,"ቹም</w>":3270,"ቃቸው</w>":3271,"ሆይ</w>":3272,"ዳረ":3273,"ቅርብ</w>":3274,"መግ":3275,"ተጠቅ":3276,"ተፅ":3277,"ብቻ":3278,"ስልጣን</w>":3279,"ደመ":3280,"እንዳለው</w>":3281,"አሸና":3282,"ጠናከር</w>":3283,"የመንግስት</w>":3284,"ዝር</w>":3285,"የቤት</w>":3286,"አድርጓል</w>":3287,"ነጋገ":3288,"ርቅ</w>":3289,"ፀሐ":3290,"የሚገኘው</w>":3291,"ትዕ":3292,"እስራኤ":3293,"ትና":3294,"ስርዓት</w>":3295,"የሚባል</w>":3296,"ቀደ":3297,"በተያያዘ</w>":3298,"ማንም</w>":3299,"ዘን</w>":3300,"ፋይና":3301,"ጋዊ</w>":3302,"የዚህ</w>":3303,"ሐሳ":3304,"ቃሉ</w>":3305,"በቃ</w>":3306,"ፕሮግራም</w>":3307,"የእር":3308,"ራሽ</w>":3309,"ውው":3310,"ምሥ":3311,"ውስ</w>":3312,"ጠቁመዋል</w>":3313,"የሚመ":3314,"ማህበር</w>":3315,"ዳይሬክተር</w>":3316,"000</w>":3317,"አጠና":3318,"ውሎ":3319,"አስተሳሰብ</w>":3320,"አገራ":3321,"ጠፋ":3322,"ሮቹ</w>":3323,"ቁን</w>":3324,"መንግሥቱ</w>":3325,"የአው":3326,"ሲው</w>":3327,"ገልፀ":3328,"ኤጀን":3329,"እያንዳንዱ</w>":3330,"ያደርጉ</w>":3331,"ቡር</w>":3332,"ቆጣጠር</w>":3333,"ችግሩን</w>":3334,"ላለች</w>":3335,"ብላ</w>":3336,"ይቀ":3337,"እድል</w>":3338,"አነስተኛ</w>":3339,"ዬን</w>":3340,"ሁሉንም</w>":3341,"ሪዎችን</w>":3342,"ሰን</w>":3343,"23</w>":3344,"ይነት</w>":3345,"ይታወቃል</w>":3346,"ለበት</w>":3347,"መቆ":3348,"ቀጥል</w>":3349,"ከተማዋ</w>":3350,"ተከትሎ</w>":3351,"ተኮ":3352,"ሽከርካ":3353,"የገንዘብ</w>":3354,"ንያ</w>":3355,"ክፍሎች</w>":3356,"አቋም</w>":3357,"ሁለቱም</w>":3358,"ቢውን</w>":3359,"አለኝ</w>":3360,"ለኛ</w>":3361,"መጀመሪያ</w>":3362,"ክለብ</w>":3363,"ሰጥ</w>":3364,"መሸ":3365,"ወያ":3366,"የሚፈ":3367,"ፊው</w>":3368,"ሉና</w>":3369,"የሚያስፈል":3370,"በጎ":3371,"የሕዝብ</w>":3372,"መኖር</w>":3373,"እያስ":3374,"አኳያ</w>":3375,"መም</w>":3376,"ጋጥ":3377,"ምናል":3378,"ክርስቲያን</w>":3379,"ታችንን</w>":3380,"ጨመ":3381,"ለቀ":3382,"ምርምር</w>":3383,"ውድድሮች</w>":3384,"ሆና":3385,"ላላ</w>":3386,"ምሁ":3387,"ሴን</w>":3388,"ተም</w>":3389,"ታዳ":3390,"ከው</w>":3391,"ማለትም</w>":3392,"ነበረ</w>":3393,"እግዚ":3394,"ዋለሁ</w>":3395,"ለዚህም</w>":3396,"ይባ":3397,"ማስታወ":3398,"የተለየ</w>":3399,"ሰባት</w>":3400,"የኮ":3401,"ለመስጠት</w>":3402,"ስለማ":3403,"ጽሑፍ</w>":3404,"ተሰጥ":3405,"በተመሳሳይ</w>":3406,"ሐዋ":3407,"ንድሮ</w>":3408,"ዳሴ</w>":3409,"ማሪ</w>":3410,"ብኝ":3411,"ይገኛሉ</w>":3412,"ለመሆን</w>":3413,"ዷል</w>":3414,"መቅ":3415,"ብቅ</w>":3416,"ጻጸ":3417,"ስብሰባ</w>":3418,"ግዴ":3419,"የነበሩት</w>":3420,"ሪፖርት</w>":3421,"ግምት</w>":3422,"የዳ":3423,"አፍሪካ":3424,"ሮም</w>":3425,"ገኘ</w>":3426,"በቀላሉ</w>":3427,"ከዚህም</w>":3428,"መንግሥታት</w>":3429,"ጠረ":3430,"መለከተው</w>":3431,"ቆር":3432,"ባው</w>":3433,"ሎችን</w>":3434,"ዘግ":3435,"ደረግ":3436,"ቀድሞ":3437,"ልት":3438,"ልጅ":3439,"የመሰ":3440,"ክፍያ</w>":3441,"ሃሳ":3442,"ሕፃ":3443,"ቀርም</w>":3444,"ጉባኤ":3445,"አየር</w>":3446,"ፌዴሬሽን</w>":3447,"ሰይ":3448,"ህዝቦች</w>":3449,"ሠራተኞች</w>":3450,"ሌሎችም</w>":3451,"አስረድ":3452,"አመራር</w>":3453,"ቸውንም</w>":3454,"ti":3455,"ለምንድን</w>":3456,"ሰሞኑን</w>":3457,"ብስ":3458,"ጥራት</w>":3459,"ለመፍታት</w>":3460,"ሀገሪቱ</w>":3461,"ምንጭ</w>":3462,"ታውቋል</w>":3463,"ድርጊት</w>":3464,"በስፋት</w>":3465,"አስገ":3466,"ሕዝቦች</w>":3467,"የሆኑት</w>":3468,"በው":3469,"ፕሪ":3470,"የተባለው</w>":3471,"ትራንስ":3472,"ሥራት</w>":3473,"በቀጣይ</w>":3474,"የማህ":3475,"ቡድኑ</w>":3476,"ሆናቸው</w>":3477,"የትራ":3478,"ማየት</w>":3479,"10":3480,"ድርቅ</w>":3481,"በታች</w>":3482,"ዓዊ</w>":3483,"ፋብሪካ":3484,"ሰበ":3485,"ጠዋል</w>":3486,"አገሪቱን</w>":3487,"አስፈላጊ":3488,"ተጠያ":3489,"እናም</w>":3490,"ኃጢ":3491,"አንዲት</w>":3492,"በራዊ</w>":3493,"ክርስቶስ</w>":3494,"ሳይን":3495,"እቅድ</w>":3496,"ያቀረ":3497,"የምግብ</w>":3498,"ፖሊሲ</w>":3499,"ቦታዎች</w>":3500,"መፍ":3501,"ተቋማ":3502,"ስልጠና</w>":3503,"ልማትና</w>":3504,"ባለሙያ</w>":3505,"ነታቸውን</w>":3506,"አይችልም</w>":3507,"በተደጋጋሚ</w>":3508,"ሜዳ</w>":3509,"የመጀመሪያው</w>":3510,"መንገዶች</w>":3511,"ቆጥ":3512,"ካር":3513,"ወሳኝ</w>":3514,"ምቹ</w>":3515,"በራሱ</w>":3516,"ህም</w>":3517,"አማራጭ</w>":3518,"አዳዲስ</w>":3519,"ታዎችን</w>":3520,"በመስጠት</w>":3521,"ጌታ</w>":3522,"ፍር":3523,"ኒት</w>":3524,"የነበረ</w>":3525,"ቀርብ</w>":3526,"ፓርላ":3527,"አለማ":3528,"ፈጠር</w>":3529,"እሱም</w>":3530,"ሪያዎች</w>":3531,"እግዚአብ":3532,"ያን":3533,"ንግግር</w>":3534,"በዋ":3535,"ቀነ":3536,"ምጣ":3537,"ንስፖርት</w>":3538,"ላቸዋል</w>":3539,"ጳውሎ":3540,"ምግባር</w>":3541,"እንደሌ":3542,"ተናል</w>":3543,"ይመስላል</w>":3544,"ጠባ":3545,"በሳ":3546,"ዜና</w>":3547,"የመጀመሪያ</w>":3548,"ኦሊ":3549,"ፈተና</w>":3550,"በማሳ":3551,"መጻ":3552,"ወገድ</w>":3553,"በሽታ</w>":3554,"እውቀት</w>":3555,"ተጽ":3556,"በስተ":3557,"እንቅስቃሴ":3558,"ሰስ</w>":3559,"ልዩነት</w>":3560,"ክን":3561,"ለጠ":3562,"በቃ":3563,"ሙስና</w>":3564,"አጠ":3565,"ብን":3566,"ግብፅ</w>":3567,"ወረዳ":3568,"ገረ":3569,"ያመለክ":3570,"ገኛ":3571,"ዚሁ</w>":3572,"ነገሩ</w>":3573,"ፈቃደ":3574,"ሰማይ</w>":3575,"ከናው":3576,"መልክ</w>":3577,"ቶችም</w>":3578,"ከፊ":3579,"ሆቴል</w>":3580,"ስፍራ</w>":3581,"ያሉትን</w>":3582,"ነዋሪዎች</w>":3583,"ትህ</w>":3584,"ጁን</w>":3585,"ጦች</w>":3586,"ተወዳዳ":3587,"ያልተ":3588,"ባለሥልጣ":3589,"ወዘ":3590,"መዝገብ</w>":3591,"ትግል</w>":3592,"ዕለ":3593,"ጣን</w>":3594,"ኖራቸው</w>":3595,"ግራ</w>":3596,"ስተር</w>":3597,"ዝናብ</w>":3598,"አሠራር</w>":3599,"አትሌት</w>":3600,"ቂነት</w>":3601,"አውሮ":3602,"የቅ":3603,"ጨም":3604,"ሥራው</w>":3605,"ንቀሳቀ":3606,"ምጣት</w>":3607,"ይረ":3608,"ስትራቴ":3609,"28</w>":3610,"ኮር":3611,"ይስ":3612,"የአንድ</w>":3613,"ጋው</w>":3614,"ደቂ":3615,"ሪዎቹ</w>":3616,"በመጠቀም</w>":3617,"ዝርዝር</w>":3618,"በኢ":3619,"ፋይናንስ</w>":3620,"ናገረው</w>":3621,"በነ":3622,"እንዲሁ</w>":3623,"ተኩ":3624,"ባንያ</w>":3625,"ፈጣን</w>":3626,"ሌት</w>":3627,"ስራዎች</w>":3628,"ደብዳ":3629,"ቀን":3630,"እንደገና</w>":3631,"አረጋግ":3632,"መሰል</w>":3633,"እንችላለ":3634,"እያሉ</w>":3635,"ራር":3636,"ቢነት</w>":3637,"ወርቅ</w>":3638,"አዛ":3639,"ከእነዚህ</w>":3640,"ተሞክ":3641,"መረጃዎች</w>":3642,"ቦችና</w>":3643,"ጫና</w>":3644,"መና":3645,"አንጻ":3646,"አንቀጽ</w>":3647,"እንችላለን</w>":3648,"መዝሙ":3649,"መግባ":3650,"ደረሰ":3651,"ኩባንያ</w>":3652,"እንደምት":3653,"ሊያስ":3654,"ህፈት</w>":3655,"የተሳ":3656,"የመጽሐፍ</w>":3657,"ባለሙያ":3658,"አይቀርም</w>":3659,"ደግሞ":3660,"መሪዎች</w>":3661,"ገባም</w>":3662,"እንዳለበት</w>":3663,"መነሻ</w>":3664,"ዶቹ</w>":3665,"ግድብ</w>":3666,"ብም</w>":3667,"አግባ":3668,"ክታር</w>":3669,"አዘ":3670,"መጠቀም</w>":3671,"ቅድሚያ</w>":3672,"ስና":3673,"ኃይሎች</w>":3674,"ዝማ":3675,"ኪያ":3676,"ይል":3677,"ከላከያ</w>":3678,"ለማስተ":3679,"የአሜሪካ</w>":3680,"ዳዊት</w>":3681,"ጋና</w>":3682,"ጡን</w>":3683,"ዳጅ</w>":3684,"ኦሎ":3685,"ምርጥ</w>":3686,"እገ":3687,"የመሳሰ":3688,"ለል</w>":3689,"በጉ":3690,"አስደ":3691,"ከተል</w>":3692,"መሆናቸው</w>":3693,"ህገ</w>":3694,"በሁሉም</w>":3695,"ሰቡ</w>":3696,"ህግ</w>":3697,"ነጋገር</w>":3698,"ማቸውን</w>":3699,"ኩባንያዎች</w>":3700,"መሥራት</w>":3701,"th":3702,"ችግሮችን</w>":3703,"ፈልጋ":3704,"ፏል</w>":3705,"ምገ":3706,"ኘው</w>":3707,"ተላለ":3708,"ጠላ":3709,"በፊ":3710,"ይጠበቃል</w>":3711,"ነትም</w>":3712,"ሞን</w>":3713,"የጦር</w>":3714,"ጠፋ</w>":3715,"ትራ</w>":3716,"ቀል</w>":3717,"ደረጉት</w>":3718,"ፋፋት</w>":3719,"እስከ":3720,"ፌዴሬሽኑ</w>":3721,"ያለሁ</w>":3722,"ዳው</w>":3723,"ተል":3724,"ሁኔታዎች</w>":3725,"ፈን":3726,"ዋዕ":3727,"ወራ":3728,"መጨረሻ</w>":3729,"ችበት</w>":3730,"የነበረ":3731,"ህይወ":3732,"ጨባ":3733,"መሆኑም</w>":3734,"ቴዎስ</w>":3735,"ተግባራት</w>":3736,"አንደኛ</w>":3737,"ለብ":3738,"መፍትሔ</w>":3739,"ከተማው</w>":3740,"ማጣ":3741,"አጠቃላይ</w>":3742,"ግልጽ</w>":3743,"ነውና</w>":3744,"60</w>":3745,"ፕላን</w>":3746,"አድማ":3747,"ቋንቋ":3748,"እግዚአብሔ":3749,"ባህር</w>":3750,"ናሉ</w>":3751,"ገለጸ":3752,"የውሃ</w>":3753,"መሆኑንም</w>":3754,"ቡድኖች</w>":3755,"ሳያ":3756,"ይበ":3757,"ቆጠሩ</w>":3758,"ገኘውን</w>":3759,"ነገ</w>":3760,"የክልሉ</w>":3761,"ለማወቅ</w>":3762,"ወገኖች</w>":3763,"ሚያ":3764,"በበ":3765,"ኖሮ</w>":3766,"ውጣ":3767,"ዘጋጀት</w>":3768,"ተቀም":3769,"እንዲያውም</w>":3770,"ሊት</w>":3771,"ግራይ</w>":3772,"ሙያ</w>":3773,"ሂደ":3774,"አጀን":3775,"እንደገለጹት</w>":3776,"የምርጫ</w>":3777,"ድህነት</w>":3778,"እርዳታ</w>":3779,"ቅን</w>":3780,"ቱሪዝም</w>":3781,"ትንና</w>":3782,"ያዘው</w>":3783,"ቻልም</w>":3784,"ኑት</w>":3785,"የተፈጠ":3786,"ፍሬ":3787,"በማን":3788,"አይደል</w>":3789,"ቅድመ</w>":3790,"ድነው</w>":3791,"ከኢትዮጵያ</w>":3792,"ረዳ</w>":3793,"ናገሩ</w>":3794,"ከላይ</w>":3795,"ብሔር</w>":3796,"ምሥራ":3797,"ኝና</w>":3798,"ንብ</w>":3799,"ፍሬ</w>":3800,"አንዳ":3801,"የዓ":3802,"ወዘተ</w>":3803,"ሳተፍ</w>":3804,"መሠረታዊ</w>":3805,"ላን":3806,"ይጠቀ":3807,"26</w>":3808,"ቋሚ</w>":3809,"በግልጽ</w>":3810,"የሚሆነው</w>":3811,"እኛም</w>":3812,"እንዳሉት</w>":3813,"ጣል":3814,"መሀ":3815,"ችኋል</w>":3816,"ሻል</w>":3817,"ውሰድ</w>":3818,"ቻሉ</w>":3819,"ነገሮችን</w>":3820,"ትስ":3821,"አና":3822,"ይመስለኛል</w>":3823,"ይሰማ":3824,"ፈራ":3825,"ያስረዳ":3826,"ርቀት</w>":3827,"ግድ</w>":3828,"ፕሮፌ":3829,"ብርሃን</w>":3830,"በመን":3831,"የተጠቀ":3832,"ዘረ":3833,"መጣል</w>":3834,"እናት</w>":3835,"ባበሩት</w>":3836,"ክረ":3837,"የተሰማ":3838,"ዝቅ":3839,"ሸነፍ</w>":3840,"ቱንም</w>":3841,"ምባ":3842,"ከሁለት</w>":3843,"የል":3844,"በሚገባ</w>":3845,"ስምንት</w>":3846,"ሯቸው</w>":3847,"ጳውሎስ</w>":3848,"ጠውን</w>":3849,"የተፈጥሮ</w>":3850,"ይደረ":3851,"ይታወሳል</w>":3852,"ቀቅ</w>":3853,"ሀገራችን</w>":3854,"አንብ":3855,"ልድ</w>":3856,"ትግ":3857,"ክፉ</w>":3858,"ጠናቀቅ</w>":3859,"አስመልክ":3860,"ብቶ</w>":3861,"ገን</w>":3862,"የሚጠቀ":3863,"ቀርቡ</w>":3864,"ትራንስፎርሜሽን</w>":3865,"27</w>":3866,"ሮት</w>":3867,"አይመስ":3868,"እንደሚገባ</w>":3869,"ኤል":3870,"መስመር</w>":3871,"አስር</w>":3872,"ምክንያቶች</w>":3873,"መጠበ":3874,"ዛሬም</w>":3875,"ገልፀዋል</w>":3876,"አስፈጻ":3877,"ባይነት</w>":3878,"ንጫ":3879,"ፋን</w>":3880,"ገባቸው</w>":3881,"ሮን</w>":3882,"የሁ</w>":3883,"የሚሆኑ</w>":3884,"ላቅ</w>":3885,"በሕ":3886,"ኘት</w>":3887,"ሪና</w>":3888,"ተገኝ":3889,"ቸውንና</w>":3890,"በአካባቢው</w>":3891,"ችሁ":3892,"ችውን</w>":3893,"አስረድተዋል</w>":3894,"ስጋት</w>":3895,"ባለድርሻ</w>":3896,"እንግሊዝ</w>":3897,"በየጊዜው</w>":3898,"ፀረ</w>":3899,"መልዕ":3900,"ፈላ":3901,"ዛሬው</w>":3902,"ሠረ":3903,"ደስታ</w>":3904,"ያስች":3905,"ተመራ":3906,"በሁለት</w>":3907,"ለየት</w>":3908,"አዲሱ</w>":3909,"ጥራ":3910,"ሃገ":3911,"ማሉ</w>":3912,"በእነዚህ</w>":3913,"ጽሕ":3914,"ጠይቅ</w>":3915,"ቴክኒ":3916,"an":3917,"ካለው</w>":3918,"እነሱም</w>":3919,"ፍም</w>":3920,"ዲሞክራ":3921,"ብዙዎች</w>":3922,"መምጣ":3923,"አቅርቦት</w>":3924,"ቦታው</w>":3925,"ወንድ</w>":3926,"አስቸጋሪ</w>":3927,"እንዲሆኑ</w>":3928,"በትክ":3929,"ያደረገው</w>":3930,"ቻይና</w>":3931,"የን</w>":3932,"ላይም</w>":3933,"ውኃ</w>":3934,"ጠር":3935,"ታች</w>":3936,"ሳን</w>":3937,"ለመቀ":3938,"ኑም</w>":3939,"የሚታወ":3940,"ቀበሌ</w>":3941,"ሰም":3942,"ተክ":3943,"መለሱ</w>":3944,"ቢኖ":3945,"አገራቸው</w>":3946,"ግለሰቦች</w>":3947,"ምሽ":3948,"ኢኮኖሚያዊ</w>":3949,"ምረ":3950,"በክልሉ</w>":3951,"ገባት</w>":3952,"ጸሐ":3953,"አንደኛው</w>":3954,"ሃላ":3955,"ዘንድሮ</w>":3956,"ለአንድ</w>":3957,"ገወጥ</w>":3958,"ውይይ":3959,"2007</w>":3960,"ዘመናት</w>":3961,"ቃወ":3962,"ይሄን</w>":3963,"ወይስ</w>":3964,"በ1":3965,"አንድም</w>":3966,"ብዙም</w>":3967,"ተብሏል</w>":3968,"በአብዛ":3969,"የወርቅ</w>":3970,"ምኒ":3971,"ጣሉ</w>":3972,"በኋ":3973,"ነባ":3974,"ዋስትና</w>":3975,"አምራ":3976,"ለማሳደግ</w>":3977,"ቀጠል</w>":3978,"ቲት</w>":3979,"ካተ":3980,"ሐዋር":3981,"ዋነኛ</w>":3982,"ተያይዞ</w>":3983,"ጪው</w>":3984,"ተመልክ":3985,"ጓዝ</w>":3986,"ሁላ":3987,"ማህበራዊ</w>":3988,"የሚሉ</w>":3989,"ከል":3990,"እንደሆኑ</w>":3991,"አመታት</w>":3992,"ሪት</w>":3993,"ሽማግ":3994,"ጠቅላላ</w>":3995,"ጊዜያት</w>":3996,"ከሉ</w>":3997,"ፋቸው</w>":3998,"በተግባር</w>":3999,"ህብረተሰቡ</w>":4000,"ፕሮጀክቶች</w>":4001,"ተቃው":4002,"ታለች</w>":4003,"ቻለው</w>":4004,"የግብርና</w>":4005,"እስቲ</w>":4006,"ኮሚሽን</w>":4007,"ኢትዮጵያ":4008,"ብብር</w>":4009,"29</w>":4010,"ሚስ":4011,"ጋጠ":4012,"ግለሰብ</w>":4013,"ቻለሁ</w>":4014,"አድራ":4015,"መድኃ":4016,"in":4017,"ወገን</w>":4018,"ተችሏል</w>":4019,"ተደርጓል</w>":4020,"ሮችና</w>":4021,"በመንግሥት</w>":4022,"ሆስፒታል</w>":4023,"የፊ":4024,"አይኖ":4025,"ገለግ":4026,"ጨባጭ</w>":4027,"ኦሊምፒክ</w>":4028,"ክሽን</w>":4029,"በትምህርት</w>":4030,"ኅብረት</w>":4031,"ዳር":4032,"የሚችሉ</w>":4033,"ገላ":4034,"ዘዋ":4035,"በመጀመ":4036,"ትስ</w>":4037,"አሰራር</w>":4038,"ቃቄ</w>":4039,"አደሩ</w>":4040,"የቦ":4041,"ሀሳብ</w>":4042,"አንስቶ</w>":4043,"ዘርፎች</w>":4044,"ይናገራል</w>":4045,"ገዋል</w>":4046,"ከረ</w>":4047,"አስኪያ":4048,"መቼ":4049,"እስራኤላ":4050,"የሚገኙ":4051,"የሚደር":4052,"በየዓመቱ</w>":4053,"ሲሆኑ</w>":4054,"ተወካዮች</w>":4055,"ተፈጥ":4056,"ጨረሻ":4057,"500</w>":4058,"ደል</w>":4059,"ንበት</w>":4060,"ነዋሪ</w>":4061,"የሕግ</w>":4062,"ደቀ</w>":4063,"ምርመራ</w>":4064,"ተኝነት</w>":4065,"ተኛ":4066,"ፕሎ":4067,"ነበረበት</w>":4068,"ውሳኔ":4069,"ክም</w>":4070,"ገብረ":4071,"ያሰ":4072,"ዛው</w>":4073,"ድንገት</w>":4074,"ቀኝ</w>":4075,"አገራዊ</w>":4076,"የሰብ":4077,"እኩል</w>":4078,"ተሳታፊ</w>":4079,"ነውን</w>":4080,"በአማ":4081,"ፖለቲካዊ</w>":4082,"ስፋ":4083,"ከውጭ</w>":4084,"አመልክተዋል</w>":4085,"ይፈ":4086,"የሚያው":4087,"መንፈሳዊ</w>":4088,"መፅ":4089,"በደቡብ</w>":4090,"ዙት</w>":4091,"ዘጋጀው</w>":4092,"ርፍ</w>":4093,"ጋለ":4094,"ደንበ":4095,"ቆይ</w>":4096,"ግለጽ</w>":4097,"የአካባ":4098,"በዘርፉ</w>":4099,"መመሪያ</w>":4100,"ስህተት</w>":4101,"ብዙኃ":4102,"ይገልጻሉ</w>":4103,"ናችን</w>":4104,"ዋቸው</w>":4105,"ዲፕሎ":4106,"ውረ":4107,"ለማለት</w>":4108,"ስተኛው</w>":4109,"ፕሪሚ":4110,"ሥልጠና</w>":4111,"እየመ":4112,"ዞኑ</w>":4113,"ክህ":4114,"አወ":4115,"እየሰ":4116,"ይችል</w>":4117,"መሰረተ</w>":4118,"ኬንያ</w>":4119,"ኮሚቴ":4120,"ከተለው</w>":4121,"ሠራዊት</w>":4122,"ማብራ":4123,"አስተያየ":4124,"ሰውን</w>":4125,"ይጠይ":4126,"ስብ</w>":4127,"ማርያም</w>":4128,"የፍ":4129,"አትሌቲክስ</w>":4130,"ውድ</w>":4131,"የእግር</w>":4132,"አባት</w>":4133,"ልቦ":4134,"የድ":4135,"ዩኒቨርሲቲው</w>":4136,"ሌዎች</w>":4137,"ብሎም</w>":4138,"ቢያንስ</w>":4139,"ደግሞም</w>":4140,"ከጊዜ</w>":4141,"ካሄደ</w>":4142,"እነር":4143,"ታማኝ</w>":4144,"ሄደ</w>":4145,"ተኞችን</w>":4146,"ጽህፈት</w>":4147,"ነር</w>":4148,"አጣ":4149,"የሥነ</w>":4150,"መልእ":4151,"ህክምና</w>":4152,"ዙር</w>":4153,"ባህላዊ</w>":4154,"ሊቀ":4155,"ርክ</w>":4156,"ጥን</w>":4157,"ዘገባ</w>":4158,"አታ":4159,"ጥቃ":4160,"ፈልግ</w>":4161,"የሚሰጠው</w>":4162,"እግዚአብሔር</w>":4163,"ተፅዕኖ</w>":4164,"ማወቅ</w>":4165,"ድንጋይ</w>":4166,"ቪዥ":4167,"የቢ":4168,"ነገር":4169,"ቁርጠ":4170,"መገለ":4171,"የተጀመ":4172,"የተባለ":4173,"በአገራችን</w>":4174,"ለፍ</w>":4175,"ነጋዴ":4176,"ፍራት</w>":4177,"የዋ":4178,"በመቀ":4179,"ሳይንስ</w>":4180,"ምንድነው</w>":4181,"ጨዋታዎች</w>":4182,"ጅነት</w>":4183,"ለአ":4184,"በምን</w>":4185,"er":4186,"ጀምር</w>":4187,"ኮሌ":4188,"ገጠ":4189,"ጥፋ":4190,"ቃዎች</w>":4191,"ልስ</w>":4192,"በሰው</w>":4193,"እሱን</w>":4194,"ስለሆነም</w>":4195,"ነች</w>":4196,"ጠቃሚ</w>":4197,"en":4198,"ገር":4199,"ወታደራዊ</w>":4200,"የአር":4201,"በሌ":4202,"ፈለገው</w>":4203,"ሳተፉ</w>":4204,"ሀይ":4205,"የሚገል":4206,"ረም</w>":4207,"ሏቸው</w>":4208,"ቀፍ</w>":4209,"ከ1":4210,"የወጣ":4211,"ሬን</w>":4212,"ሩሳ":4213,"ኖችን</w>":4214,"ከናወኑ</w>":4215,"በቆ":4216,"በን":4217,"አይ</w>":4218,"አደሮች</w>":4219,"የሚሆን</w>":4220,"ስርዓ":4221,"ባር":4222,"አውጥ":4223,"ስማ":4224,"ጫዎች</w>":4225,"ፌደ":4226,"በያህዌ</w>":4227,"ይባላል</w>":4228,"በአብዛኛው</w>":4229,"ሽልማት</w>":4230,"ብናል</w>":4231,"ጋዜጣ</w>":4232,"የካቲት</w>":4233,"ሞላ</w>":4234,"ቁር</w>":4235,"የወሰ":4236,"እያደ":4237,"እየታ":4238,"ለመከላከል</w>":4239,"ስላል":4240,"ከእ":4241,"ባለፈ</w>":4242,"ዘላቂ</w>":4243,"መፍጠር</w>":4244,"ከሚያ":4245,"መፍትሄ</w>":4246,"አግባብ</w>":4247,"ክርስቲያኖች</w>":4248,"በወ":4249,"ያገኘ":4250,"አፈጻጸ":4251,"ጽሕፈት</w>":4252,"የገለጹት</w>":4253,"የፌዴራል</w>":4254,"ጉዳዩን</w>":4255,"ወይንም</w>":4256,"አባላ":4257,"ካለ</w>":4258,"ምዕራፍ</w>":4259,"ትክክለኛ</w>":4260,"ታችሁ</w>":4261,"ምጃ":4262,"ሸት</w>":4263,"ጥላ":4264,"በፍጥነት</w>":4265,"ጨበ":4266,"አደረጃ":4267,"ህፃ":4268,"ብድር</w>":4269,"ባህር":4270,"ለቅ":4271,"ፊነት</w>":4272,"መጠየ":4273,"ሃብ":4274,"ብሔረሰ":4275,"ጊያ</w>":4276,"አለብን</w>":4277,"ተደርጎ</w>":4278,"አዎ</w>":4279,"የማስተ":4280,"ዘው</w>":4281,"ነሳው</w>":4282,"ምረት</w>":4283,"የአካባቢው</w>":4284,"ጣኝ</w>":4285,"ርኩ</w>":4286,"80</w>":4287,"መጻሕ":4288,"ካን":4289,"የኢንዱስትሪ</w>":4290,"መሠረተ</w>":4291,"ሻምፒዮና</w>":4292,"ፍረ":4293,"እንደማይ":4294,"የሚወ":4295,"ባስ":4296,"ያለመ":4297,"የግብ":4298,"የተባለ</w>":4299,"ለዋ":4300,"ደረሰ</w>":4301,"አብሮ</w>":4302,"መጥፎ</w>":4303,"በውስ":4304,"ለማር":4305,"ማህበረሰብ</w>":4306,"ናውን</w>":4307,"አቀፉ</w>":4308,"ሄክታር</w>":4309,"አደር</w>":4310,"ይኸውም</w>":4311,"እያደረገ</w>":4312,"ጠቀሜ":4313,"ያቸውን</w>":4314,"ቃላት</w>":4315,"ካከል</w>":4316,"ተቀባይነት</w>":4317,"የመጣ":4318,"ዘመኑ</w>":4319,"ተኛውን</w>":4320,"ኳር</w>":4321,"ተማሪ</w>":4322,"ለሌሎች</w>":4323,"ገጽ</w>":4324,"ጊዮር":4325,"መጽ":4326,"ጎረ":4327,"ዕድሜ":4328,"ስፖርቱ</w>":4329,"ክሮች</w>":4330,"ሃን</w>":4331,"ሳሽ</w>":4332,"ጴጥ":4333,"የአምላ":4334,"በኋላም</w>":4335,"ሺሕ</w>":4336,"ሳቢ</w>":4337,"ጊዮርጊ":4338,"ሙበት</w>":4339,"ባባይ</w>":4340,"ቴክኖሎጂ":4341,"ውያ":4342,"ጋገ":4343,"ግንባር</w>":4344,"መሥሪያ</w>":4345,"ራለች</w>":4346,"ብቃ":4347,"ካሉ</w>":4348,"በሰጡት</w>":4349,"ህና</w>":4350,"ትሌ":4351,"ውን":4352,"አስመልክቶ</w>":4353,"ሸን":4354,"ጡም</w>":4355,"የሲ":4356,"ጫወት</w>":4357,"ዶችን</w>":4358,"ችሁም</w>":4359,"ከ19":4360,"ጨመረ</w>":4361,"ተብለው</w>":4362,"ቤተሰቦ":4363,"ዲግ":4364,"የተቃ":4365,"ዕድገትና</w>":4366,"ክፍተት</w>":4367,"ልጃ":4368,"ደርጋ":4369,"ሕአዴግ</w>":4370,"የከ":4371,"አይቻልም</w>":4372,"እንደሚያስ":4373,"በምት":4374,"መሐ":4375,"ርዕስ</w>":4376,"ሶማሊያ</w>":4377,"ዓይን</w>":4378,"ኮንስትራ":4379,"ኔት</w>":4380,"ኢየሩሳ":4381,"ጠበቀ</w>":4382,"ኩን</w>":4383,"የደቡብ</w>":4384,"ልብስ</w>":4385,"ቀና</w>":4386,"ክስተ":4387,"መዘገበ":4388,"አሸናፊ</w>":4389,"በሥራ</w>":4390,"ጋን":4391,"አሰጣ":4392,"ይጠበቅ":4393,"ሰማ</w>":4394,"ስለነበር</w>":4395,"አሜሪካ":4396,"ገልገል</w>":4397,"ዝቅተኛ</w>":4398,"እንደሚሆን</w>":4399,"አብዛኞቹ</w>":4400,"ለኢትዮጵያ</w>":4401,"ወንድሞ":4402,"በማስተ":4403,"አመራሮች</w>":4404,"ፊል":4405,"ሲያስ":4406,"ወሰነ</w>":4407,"ቅሬታ</w>":4408,"የሚባለው</w>":4409,"ኒያ</w>":4410,"ስጦ":4411,"ገድ":4412,"ራና</w>":4413,"የሴ":4414,"እየተደረገ</w>":4415,"አስታውቀዋል</w>":4416,"ገንዝ":4417,"ፋብሪካ</w>":4418,"ቴሌቪዥ":4419,"ኬት</w>":4420,"የሚቀ":4421,"ግዙ":4422,"ቀርቶ</w>":4423,"ይኼ":4424,"ምራት</w>":4425,"መገኘ":4426,"ናቱ</w>":4427,"ካካ":4428,"ገነዘ":4429,"ይህንኑ</w>":4430,"በባ":4431,"ያገ":4432,"ሷን</w>":4433,"ይደረጋል</w>":4434,"ካላ":4435,"ማክ":4436,"ካፒ":4437,"መሬ":4438,"በብዙ</w>":4439,"እረ":4440,"አል</w>":4441,"ጹም</w>":4442,"የኤሌክትሪክ</w>":4443,"መለከታቸው</w>":4444,"ስኬት</w>":4445,"ዳሉ</w>":4446,"እንዳልሆነ</w>":4447,"ናነት</w>":4448,"ግማሽ</w>":4449,"ፈዋል</w>":4450,"ሰጣቸው</w>":4451,"የሚችለው</w>":4452,"ቀድሞው</w>":4453,"አገሪቷ</w>":4454,"መገናኛ</w>":4455,"ወጣቱ</w>":4456,"መጀመ":4457,"አጠቃ":4458,"ጉትን</w>":4459,"ወደሚ":4460,"ሦስተኛ</w>":4461,"ከሰት</w>":4462,"ላንድ</w>":4463,"ዛል</w>":4464,"ነኛ</w>":4465,"በተለያየ</w>":4466,"ደብዳቤ</w>":4467,"ቆጣጠ":4468,"ጥሪ</w>":4469,"አቅራ":4470,"አያው":4471,"የህክምና</w>":4472,"ዲዮ</w>":4473,"ጉብኝ":4474,"ህል":4475,"ከአዲስ</w>":4476,"የአውሮፓ</w>":4477,"አንጻር</w>":4478,"ነሽ</w>":4479,"ካሄዱ</w>":4480,"ሀገራት</w>":4481,"መዝሙር</w>":4482,"ሾች</w>":4483,"ንደር</w>":4484,"ፋል</w>":4485,"ትችላለ":4486,"አይደሉም</w>":4487,"መቼም</w>":4488,"ብቸ":4489,"ሥራውን</w>":4490,"መስሪያ</w>":4491,"ሃብት</w>":4492,"ሙስ":4493,"ማረጋገ":4494,"ንብረ":4495,"በቀጥታ</w>":4496,"በብ</w>":4497,"ተናግሯል</w>":4498,"ማዳ":4499,"ፈታ":4500,"የተመረ":4501,"ብህ</w>":4502,"በስተቀር</w>":4503,"ሩሲ":4504,"እስር</w>":4505,"ሃያ</w>":4506,"ይረዳ":4507,"መጣው</w>":4508,"ቆይቷል</w>":4509,"የህዝ":4510,"በመሆናቸው</w>":4511,"ርሃ":4512,"የማያ":4513,"ይኖርበታል</w>":4514,"የግድ</w>":4515,"70</w>":4516,"የሚገኝ</w>":4517,"ለታል</w>":4518,"ኬሽን</w>":4519,"ይደ":4520,"ያደርጋ":4521,"ስራቅ</w>":4522,"ያደረገ</w>":4523,"ወላጆ":4524,"የአገሪቱን</w>":4525,"እንደዚህ</w>":4526,"እንዳሉ</w>":4527,"ከረም</w>":4528,"ሕክምና</w>":4529,"ሟላ</w>":4530,"መንግሥታዊ</w>":4531,"ይኸው</w>":4532,"ሩጫ</w>":4533,"የሌለው</w>":4534,"ሙዚቃ</w>":4535,"ያመለክታል</w>":4536,"ምናልባት</w>":4537,"ሁል":4538,"እንደሚሉት</w>":4539,"የሚያደርግ</w>":4540,"መስክ</w>":4541,"ተጨዋ":4542,"ዳግ":4543,"ቀመጥ</w>":4544,"ታዋ":4545,"ደቅ</w>":4546,"ሪንግ</w>":4547,"ሠራው</w>":4548,"እውነተኛ</w>":4549,"በማህ":4550,"ሥርዓቱ</w>":4551,"ለመፍጠር</w>":4552,"አሰልጣኝ</w>":4553,"ገኝ":4554,"ቅርንጫ":4555,"ደቂቃ</w>":4556,"ማስረጃ</w>":4557,"የተናገሩት</w>":4558,"ሥጋ</w>":4559,"በመጀመሪያ</w>":4560,"የከተማ</w>":4561,"ቶቹን</w>":4562,"ይጠቁ":4563,"ቀኑ</w>":4564,"ካሂ":4565,"አሻ":4566,"ዱም</w>":4567,"ለማ</w>":4568,"መሣሪያ</w>":4569,"ዕቅ":4570,"ምግ":4571,"የተከሰ":4572,"አምባሳ":4573,"ሥላ":4574,"ዮችን</w>":4575,"እንደም":4576,"አይታ":4577,"ሰኔ</w>":4578,"ሌሎቹ</w>":4579,"ለናል</w>":4580,"ሊክ</w>":4581,"ማህበራት</w>":4582,"ትረ":4583,"ሆነዋል</w>":4584,"በ199":4585,"ኳይ</w>":4586,"ካች</w>":4587,"ያሳያል</w>":4588,"ሐኪ":4589,"ኦባ":4590,"ዘለ":4591,"ጭን":4592,"በርስ</w>":4593,"ደንብ</w>":4594,"እኔን</w>":4595,"ዲፕሎማ":4596,"በኤ":4597,"ቴአት":4598,"በተካሄደው</w>":4599,"ትክክል</w>":4600,"ይሰጣል</w>":4601,"ግጭት</w>":4602,"ፍትህ</w>":4603,"ርስ</w>":4604,"ስል</w>":4605,"ቦር":4606,"ምስት</w>":4607,"ሕን":4608,"የሚያሳይ</w>":4609,"የመጀመሪያ":4610,"ክለቡ</w>":4611,"ስብሰባ":4612,"እዚ":4613,"ነሳት</w>":4614,"ታክ":4615,"ጡበት</w>":4616,"ሳት":4617,"አሳይ":4618,"ለማረጋገጥ</w>":4619,"ከተለያዩ</w>":4620,"በውጭ</w>":4621,"ግንባታው</w>":4622,"ሃይል</w>":4623,"ጠበቅ":4624,"መቼ</w>":4625,"በደንብ</w>":4626,"ተመር":4627,"ቀርበው</w>":4628,"ይጠ":4629,"ማቅረብ</w>":4630,"አይሆንም</w>":4631,"መስጠ":4632,"ነገረ":4633,"ከቱ</w>":4634,"አቤ":4635,"ያውን</w>":4636,"አስቸኳይ</w>":4637,"እንዳስ":4638,"ሲና</w>":4639,"እል":4640,"ፓርላማ</w>":4641,"የውን</w>":4642,"የሰላም</w>":4643,"ገልጸው</w>":4644,"ለመጀመሪያ</w>":4645,"ወንዝ</w>":4646,"አብዮ":4647,"ዘዴ</w>":4648,"ፈጠረ</w>":4649,"የሸ":4650,"የጋ":4651,"ነበት</w>":4652,"ባለሀብቶች</w>":4653,"የአምላክን</w>":4654,"የሚቆጠሩ</w>":4655,"ለመደ</w>":4656,"ንታል</w>":4657,"ጦር":4658,"አለች</w>":4659,"የረ":4660,"ሰላማዊ</w>":4661,"ኩም</w>":4662,"ኝን</w>":4663,"ዘጠኝ</w>":4664,"ባቸውም</w>":4665,"መመር":4666,"ያለን</w>":4667,"ደረጃው</w>":4668,"አስተዳደር":4669,"የበላይ":4670,"ጋዜጠኞች</w>":4671,"ካይ</w>":4672,"በአንዳንድ</w>":4673,"ሚስት</w>":4674,"ሽናል</w>":4675,"የገለ":4676,"ባላ":4677,"የሚገባ":4678,"ያስፖ":4679,"ምነው</w>":4680,"ሰዓ":4681,"ንጉሡ</w>":4682,"መኪና</w>":4683,"ልነት</w>":4684,"የሚኖ":4685,"ዘጋጁ</w>":4686,"የራሱን</w>":4687,"ኦሎምፒክ</w>":4688,"on":4689,"ኢዮ":4690,"ደበ":4691,"ጎበ":4692,"ገለጸው</w>":4693,"ሪውን</w>":4694,"አንብብ</w>":4695,"35</w>":4696,"ይኼ</w>":4697,"ጓደኛ":4698,"አለም</w>":4699,"ፊክ</w>":4700,"አካባቢው</w>":4701,"ታላቁ</w>":4702,"ደርስ":4703,"ሐረ":4704,"የተማ":4705,"የውድድር</w>":4706,"የገበያ</w>":4707,"ሬሽን</w>":4708,"አየ":4709,"የሚሸ":4710,"ፕሬዚዳንቱ</w>":4711,"በትክክል</w>":4712,"ሊያን</w>":4713,"እርሱ</w>":4714,"ቤተ":4715,"ያነ":4716,"ቆት</w>":4717,"ፈተና":4718,"ይኖራል</w>":4719,"ገለጻ</w>":4720,"ፈለገ</w>":4721,"on</w>":4722,"ፈጠሩ</w>":4723,"ከወ":4724,"ይሆናሉ</w>":4725,"ይቅር":4726,"ፕሬዝ":4727,"በአው":4728,"እስራኤላውያን</w>":4729,"ፕሪሚየር</w>":4730,"ልቶ</w>":4731,"ስንት</w>":4732,"መጽሐ":4733,"ገጽ":4734,"በተቃ":4735,"ዜጋ</w>":4736,"መልሶ</w>":4737,"መጠው</w>":4738,"ፍቅ":4739,"በብዛት</w>":4740,"ምልክት</w>":4741,"ኮንስትራክሽን</w>":4742,"አስታውቋል</w>":4743,"ስታዲ":4744,"አስተዋፅ":4745,"ማብራሪያ</w>":4746,"እርግጥ</w>":4747,"ባለስልጣ":4748,"ሰጡ</w>":4749,"ፁት</w>":4750,"መለከቱ</w>":4751,"ረጃ":4752,"ዮቹ</w>":4753,"ጊዮርጊስ</w>":4754,"የተጠ":4755,"ጉባዔ</w>":4756,"ድሮስ</w>":4757,"አይሁ":4758,"ትች":4759,"መቀመ":4760,"ማቴዎስ</w>":4761,"ባሕር":4762,"ይጠቅ":4763,"ባክ":4764,"መንገዱ</w>":4765,"እንዳለባቸው</w>":4766,"ትናንት</w>":4767,"ዘው":4768,"ሟላት</w>":4769,"በቃል</w>":4770,"ናትና</w>":4771,"በእጅ":4772,"ጽን":4773,"አስቀድሞ</w>":4774,"አሳል":4775,"ፈፀም</w>":4776,"ራዎች</w>":4777,"ባትም</w>":4778,"የጣ":4779,"እርሳቸው</w>":4780,"አደጋ":4781,"አድርገዋል</w>":4782,"አሊ":4783,"ከም</w>":4784,"ደም":4785,"ተቃዋሚ</w>":4786,"ተራ</w>":4787,"ሉቃ":4788,"መዛሙ":4789,"ድረ</w>":4790,"መንስ":4791,"ተግባራ":4792,"ቅን":4793,"ካህ":4794,"ዝን":4795,"በጎ</w>":4796,"ጣጠ":4797,"ሚካ":4798,"ዛፍ</w>":4799,"ክፍተ":4800,"የለበትም</w>":4801,"ላላ":4802,"ዟል</w>":4803,"ፖለቲካ":4804,"ልኩ</w>":4805,"ይታ</w>":4806,"ለአብ":4807,"አሠ":4808,"የአን":4809,"ጨረሻው</w>":4810,"የራሱ</w>":4811,"መጋቢት</w>":4812,"የሆኑ":4813,"ነበሩት</w>":4814,"በሞ":4815,"ፍትሕ</w>":4816,"ያኔ</w>":4817,"እያሳ":4818,"መጠበቅ</w>":4819,"ሽግ":4820,"ተጠቃሚነት</w>":4821,"ሰጠ":4822,"መደረ":4823,"ዘመቻ</w>":4824,"ሉቃስ</w>":4825,"በምድር</w>":4826,"መና</w>":4827,"ዝውው":4828,"ድቅ</w>":4829,"or":4830,"ሁላችንም</w>":4831,"ቴሌቪዥን</w>":4832,"መናገር</w>":4833,"አፋ":4834,"አሉት</w>":4835,"ኃጢአት</w>":4836,"የሚኖሩ</w>":4837,"ላለፉት</w>":4838,"መሄድ</w>":4839,"ሳለ</w>":4840,"ካልሆነ</w>":4841,"ታገ":4842,"ጥፍ</w>":4843,"አለን</w>":4844,"ዕለቱ</w>":4845,"ምናምን</w>":4846,"ዝን</w>":4847,"ለመስራት</w>":4848,"ስቶች</w>":4849,"በአምላክ</w>":4850,"ጀርመን</w>":4851,"በሙ":4852,"ፍቶ</w>":4853,"አካላ":4854,"ጴጥሮስ</w>":4855,"ልት</w>":4856,"ጉር</w>":4857,"የመሬት</w>":4858,"ርዕሰ</w>":4859,"ሰል</w>":4860,"ኤጀንሲ</w>":4861,"ዝያ</w>":4862,"ባችን</w>":4863,"ፍለ":4864,"ምርጫው</w>":4865,"የአገ":4866,"የማድረግ</w>":4867,"እናቶች</w>":4868,"ኤክ":4869,"የሳ":4870,"ባን</w>":4871,"ኢትዮጵያዊ</w>":4872,"ዝነስ</w>":4873,"ከሁሉም</w>":4874,"ንቶ</w>":4875,"ብረተሰቡን</w>":4876,"ትእ":4877,"ውጤቶች</w>":4878,"ሜዳሊያ</w>":4879,"ክተሩ</w>":4880,"ቦርድ</w>":4881,"የፋይናንስ</w>":4882,"ክትትል</w>":4883,"ዊያን</w>":4884,"እዚያ</w>":4885,"ፈጽሞ</w>":4886,"ክራ":4887,"ኢንጂ":4888,"31</w>":4889,"የመንገድ</w>":4890,"ያስታው":4891,"ምኒልክ</w>":4892,"ar":4893,"ባንኩ</w>":4894,"ሊን</w>":4895,"ከን</w>":4896,"የማን":4897,"ደጋግ":4898,"ሙም</w>":4899,"ዲያ":4900,"ተፋ":4901,"ምርቶች</w>":4902,"ሥራዎችን</w>":4903,"ጡትን</w>":4904,"ራም</w>":4905,"አዊ</w>":4906,"እውን</w>":4907,"እንደሆነም</w>":4908,"ዜአ</w>":4909,"ሰና":4910,"በነገ":4911,"በመጠ":4912,"የሴቶች</w>":4913,"ላችን</w>":4914,"የኢትዮጵያን</w>":4915,"ለመሆኑ</w>":4916,"ገዳ":4917,"ሰቢያ</w>":4918,"ፕሮጀክቱ</w>":4919,"ያየ":4920,"ይሻ":4921,"ትላ":4922,"ኢየሩሳሌም</w>":4923,"በላ</w>":4924,"የፈ":4925,"ጥልቅ</w>":4926,"ኃላፊዎች</w>":4927,"ቂዎች</w>":4928,"ገበ</w>":4929,"ቻችንን</w>":4930,"ወሩ</w>":4931,"እነሆ</w>":4932,"እየጨመረ</w>":4933,"አምላክን</w>":4934,"እርግጠ":4935,"ደሳ":4936,"ፈልገው</w>":4937,"መኖሪያ</w>":4938,"ትልቁ</w>":4939,"ያደ":4940,"ፕሮፌሰር</w>":4941,"ማይ":4942,"ቡበት</w>":4943,"ዳግም</w>":4944,"ውቅም</w>":4945,"ይታያል</w>":4946,"ኮርፖ":4947,"ፕሬዝዳን":4948,"ቶሎ</w>":4949,"ፕራ":4950,"ስልጠና":4951,"ታዘ":4952,"የሃይማኖት</w>":4953,"ድንበር</w>":4954,"ሴፍ</w>":4955,"ጣቢያ</w>":4956,"ፈቃደኛ</w>":4957,"ለማችን</w>":4958,"ተሞክሮ</w>":4959,"ጨነ":4960,"በዋናነት</w>":4961,"ማኅበር</w>":4962,"ደህንነት</w>":4963,"ስያ":4964,"ቸገ":4965,"ታወቅ</w>":4966,"መስል</w>":4967,"ሪዎ":4968,"ዝም":4969,"የበኩ":4970,"ባለሥልጣን</w>":4971,"ለኝም</w>":4972,"የተረ":4973,"መፈ":4974,"ጉባኤው</w>":4975,"ካሬ</w>":4976,"ርቶ</w>":4977,"ዕውቀት</w>":4978,"ቅጣት</w>":4979,"ምሳ</w>":4980,"ፊልም</w>":4981,"በረ</w>":4982,"ዘጋጅ</w>":4983,"ንጓ":4984,"ደርገው</w>":4985,"32</w>":4986,"ጣቢያ":4987,"አበረ":4988,"ከመሆኑም</w>":4989,"ደድ</w>":4990,"ሽነት</w>":4991,"ለማየት</w>":4992,"ሙና</w>":4993,"አውሮፓ</w>":4994,"አክብ":4995,"ማሳያ</w>":4996,"ትንም</w>":4997,"ዩም</w>":4998,"ጨው</w>":4999,"ራስ":5000,"ከሩ</w>":5001,"ግጥ":5002,"በቀር</w>":5003,"ሄደ":5004,"ለማርያም</w>":5005,"ቀና":5006,"ዓላማ":5007,"እሳ":5008,"ስተው</w>":5009,"ቫይረ":5010,"አሳስ":5011,"ደካ":5012,"የሙዚ":5013,"ጎብ":5014,"ሠራተኛ</w>":5015,"ከናወነ</w>":5016,"ቃቤ</w>":5017,"በራሳቸው</w>":5018,"የቀድሞ</w>":5019,"አካሄድ</w>":5020,"ገብቶ</w>":5021,"ግዴታ</w>":5022,"ሩሲያ</w>":5023,"ሬዳ":5024,"ገጥ":5025,"ገኛ</w>":5026,"ሁፍ</w>":5027,"ዕቆ":5028,"ዛቸው</w>":5029,"በሰላም</w>":5030,"አዘጋጅ":5031,"ውለ":5032,"ጃፓ":5033,"ጎች</w>":5034,"ናገድ</w>":5035,"ብል</w>":5036,"በየት":5037,"እንዲያስ":5038,"የላቀ</w>":5039,"ኢዜአ</w>":5040,"33</w>":5041,"በሁለተኛው</w>":5042,"ሚዛ":5043,"አድርጎ":5044,"ተባበር</w>":5045,"ሆና</w>":5046,"ልማቱ</w>":5047,"ማራቶን</w>":5048,"ከስ":5049,"ክቶ":5050,"ይን":5051,"ሥላሴ</w>":5052,"ዥም</w>":5053,"የባህል</w>":5054,"ዳማ</w>":5055,"ምንዛ":5056,"ብዙኃን</w>":5057,"ቤቱን</w>":5058,"ንግግ":5059,"አጀንዳ</w>":5060,"ካላቸው</w>":5061,"ገመ":5062,"ተገቢውን</w>":5063,"ወንድም</w>":5064,"መቃ":5065,"ሳቢያ</w>":5066,"የኦ":5067,"ይዝ</w>":5068,"ዘጋጀ</w>":5069,"አስተዋፅኦ</w>":5070,"ሳምን":5071,"ፓርቲው</w>":5072,"ሞችን</w>":5073,"በሚገኘው</w>":5074,"እየሆነ</w>":5075,"መረዳት</w>":5076,"አንዳንዶቹ</w>":5077,"ህን":5078,"ፍረት</w>":5079,"ወላጆች</w>":5080,"ሰነድ</w>":5081,"በነበረው</w>":5082,"የዕ":5083,"በዛሬው</w>":5084,"ሆነና</w>":5085,"እድሜ</w>":5086,"ተም":5087,"የተባበሩት</w>":5088,"የሚወስ":5089,"እይ</w>":5090,"እየተሰራ</w>":5091,"ሄደው</w>":5092,"ተሻ":5093,"ገደብ</w>":5094,"ኩንታል</w>":5095,"ያችን</w>":5096,"እንዳላቸው</w>":5097,"በመጀመሪያው</w>":5098,"ያዙ</w>":5099,"ፍቃ":5100,"አስራ</w>":5101,"ሰላምና</w>":5102,"ግርማ</w>":5103,"ኗን</w>":5104,"ኬንያ":5105,"በእጅጉ</w>":5106,"ለያህዌ</w>":5107,"ፌዴራ":5108,"ምበት</w>":5109,"ቿን</w>":5110,"መምህር</w>":5111,"እንዲያገኙ</w>":5112,"ምሥክሮች</w>":5113,"በአሜሪካ</w>":5114,"ያወ":5115,"ተኞ":5116,"ፍትሐ":5117,"ኃይለ</w>":5118,"ማታ</w>":5119,"በመካከ":5120,"ኦባማ</w>":5121,"የን":5122,"ዲዛ":5123,"ፈሩ</w>":5124,"ቤታቸው</w>":5125,"ለማን":5126,"የሚሰጥ</w>":5127,"የሚከተ":5128,"መስከረም</w>":5129,"ምኞ":5130,"ራችሁ</w>":5131,"ለመገንባት</w>":5132,"ሬው</w>":5133,"ሆነች</w>":5134,"ተጽዕኖ</w>":5135,"ሰራው</w>":5136,"የሚያደርገው</w>":5137,"ቀትና</w>":5138,"ኅብረተሰቡ</w>":5139,"እየሰራ</w>":5140,"ሎችና</w>":5141,"በዳ":5142,"የተጣ":5143,"ግጭ":5144,"ጫውን</w>":5145,"አስኪያጅ</w>":5146,"ወሬ</w>":5147,"ቀጥሎ</w>":5148,"ጠሩ</w>":5149,"ቅዱስን</w>":5150,"ጨመር</w>":5151,"ንቅና":5152,"ነበራቸው</w>":5153,"የሽብር</w>":5154,"የራሳቸውን</w>":5155,"እንዲቀ":5156,"መካ":5157,"አለመሆ":5158,"ተጨባጭ</w>":5159,"እያደገ</w>":5160,"ነዘ":5161,"ፉም</w>":5162,"ሳቁ":5163,"እንግዳ</w>":5164,"ምፕ</w>":5165,"ያነሳ":5166,"ዱና</w>":5167,"የተቋቋ":5168,"እውቅና</w>":5169,"እንድታ":5170,"አስታወቀ</w>":5171,"መሆና":5172,"ተነሳ":5173,"ቶታል</w>":5174,"ህብረት</w>":5175,"ታሪካዊ</w>":5176,"ታማነት</w>":5177,"ብዙዎቹ</w>":5178,"መውሰድ</w>":5179,"ቆይታ</w>":5180,"ሳል":5181,"የጉ":5182,"ክረምት</w>":5183,"ይቅርታ</w>":5184,"ሐም":5185,"ቆረ":5186,"የሚለ":5187,"በማድረ":5188,"ገደማ</w>":5189,"መጻሕፍት</w>":5190,"ነብ":5191,"ሽያ":5192,"ፋው</w>":5193,"ሌሎችን</w>":5194,"በእርግጥም</w>":5195,"ደገፍ</w>":5196,"ላለሁ</w>":5197,"ረታ</w>":5198,"በአጭር</w>":5199,"ፈለግ</w>":5200,"ሕዝቡን</w>":5201,"ቸግ":5202,"ዕርምጃ</w>":5203,"ኤርትራ</w>":5204,"ድግ</w>":5205,"ባህልና</w>":5206,"የቱ</w>":5207,"አድና":5208,"የኦሮሚያ</w>":5209,"የተለያየ</w>":5210,"ቶት</w>":5211,"ፈገ":5212,"አስተባባ":5213,"በሉ</w>":5214,"በሕይወት</w>":5215,"ተጫዋቾች</w>":5216,"ኩረት</w>":5217,"ያደረጉት</w>":5218,"የተነ":5219,"ሲታይ</w>":5220,"አይገባም</w>":5221,"ጤና":5222,"የተገኘው</w>":5223,"የሚገባው</w>":5224,"በመላው</w>":5225,"ሰለሞን</w>":5226,"ልበ":5227,"እነ</w>":5228,"ችሎታ</w>":5229,"ነታችን</w>":5230,"የተባሉ</w>":5231,"ፈጣሪ</w>":5232,"መከላከያ</w>":5233,"ተኝ":5234,"ኳን":5235,"የተሰጠው</w>":5236,"መልከ":5237,"ሪን</w>":5238,"ያስደ":5239,"ኮሚቴው</w>":5240,"ራቅ</w>":5241,"ፐብ":5242,"ባብ":5243,"ውስጥም</w>":5244,"እርሻ</w>":5245,"ሰጥቶ</w>":5246,"ምሁራን</w>":5247,"ትችላለህ</w>":5248,"ትርፍ</w>":5249,"መኮ":5250,"በሁ":5251,"በመንፈ":5252,"ይገልጻል</w>":5253,"ካን</w>":5254,"ዝግጁ</w>":5255,"ብለህ</w>":5256,"ቃው</w>":5257,"የገባ":5258,"በየደረጃው</w>":5259,"አንዳንዶች</w>":5260,"ከታተል</w>":5261,"በማቅረብ</w>":5262,"ጀርባ</w>":5263,"መግባት</w>":5264,"ሱና</w>":5265,"ግምገ":5266,"ስትራቴጂ":5267,"አርቲ":5268,"ማሰብ</w>":5269,"ተዘጋጅ":5270,"ዋሳ</w>":5271,"100</w>":5272,"ሪያና</w>":5273,"ሰብሳቢነት</w>":5274,"ችህ</w>":5275,"ናትን</w>":5276,"ሮችም</w>":5277,"በኮ":5278,"ፋስ</w>":5279,"ጠላት</w>":5280,"ለማሳካት</w>":5281,"ከም":5282,"ጊዎች</w>":5283,"ይቀጥ":5284,"እርምጃ":5285,"ኢንስቲ":5286,"አስከ":5287,"ባንኮች</w>":5288,"ታወቀው</w>":5289,"በረሰቡ</w>":5290,"አሊያም</w>":5291,"የሀገ":5292,"የመንግሥ":5293,"የዋጋ</w>":5294,"ግጥም</w>":5295,"ነገሥ":5296,"ተከታታይ</w>":5297,"የታሪክ</w>":5298,"ቁል":5299,"ኧረ</w>":5300,"በረከ":5301,"አዳራሽ</w>":5302,"ስደተኞች</w>":5303,"ጨረታ</w>":5304,"የህግ</w>":5305,"ሀሳ":5306,"ክሊ":5307,"ክክር</w>":5308,"ጭነት</w>":5309,"ቀጥለው</w>":5310,"ቀጣይ</w>":5311,"200</w>":5312,"ልጠና":5313,"ማሩ</w>":5314,"በዛ</w>":5315,"ካቸው</w>":5316,"45</w>":5317,"መከራ</w>":5318,"ድምጽ</w>":5319,"ወረቀት</w>":5320,"ሊቀመን":5321,"ይፈጥ":5322,"ሰብዓዊ</w>":5323,"ይመ":5324,"ማሰ":5325,"ቃና</w>":5326,"ነቅ":5327,"አደረ":5328,"አንበ":5329,"ክሲ":5330,"አስተማማ":5331,"የምርምር</w>":5332,"ልጁ</w>":5333,"ግዙፍ</w>":5334,"በዛ":5335,"ጥቁር</w>":5336,"ፀሐይ</w>":5337,"ለሁለት</w>":5338,"ምሩ":5339,"ተሽከርካ":5340,"የአገልግሎት</w>":5341,"አይደለ":5342,"ያውቅ</w>":5343,"ነጋግ":5344,"ተስፋዬ</w>":5345,"ልቀት</w>":5346,"ጋዜጠኛ</w>":5347,"ይፈል":5348,"ሰኞ</w>":5349,"ወረዳዎች</w>":5350,"ቀውን</w>":5351,"ትብብር</w>":5352,"ከሌ":5353,"ዘላለም</w>":5354,"ልታ":5355,"ወጥቶ</w>":5356,"90</w>":5357,"ክፉ":5358,"ጀምሯል</w>":5359,"ፍልስፍ":5360,"ቋረጥ</w>":5361,"ባለበት</w>":5362,"በርና</w>":5363,"ወደፊ":5364,"አስተዳደ":5365,"ችሉም</w>":5366,"ኔን</w>":5367,"ፈረንሳይ</w>":5368,"ምንዛሪ</w>":5369,"የሠ":5370,"መንግስቱ</w>":5371,"ክም":5372,"በዓመት</w>":5373,"አካባቢ":5374,"በቁ":5375,"ለመሥራት</w>":5376,"ቶቻችን</w>":5377,"የገቢ</w>":5378,"ትስስር</w>":5379,"ዕም":5380,"ድበት</w>":5381,"የተጀመረው</w>":5382,"መቱ</w>":5383,"ቪል</w>":5384,"ውሉ</w>":5385,"ጠና</w>":5386,"ካልተ":5387,"ጓደኞ":5388,"መቅረ":5389,"ዳቸውን</w>":5390,"ሁኔታው</w>":5391,"ድጋሚ</w>":5392,"ቢሲ</w>":5393,"ከዓለም</w>":5394,"ናው":5395,"የሚያስች":5396,"አልቻለም</w>":5397,"የሶ":5398,"ጎዳና</w>":5399,"የሙዚቃ</w>":5400,"በጅ":5401,"ዕቃ</w>":5402,"የፈለ":5403,"የመጨረሻ</w>":5404,"ደርሷል</w>":5405,"ቀረ</w>":5406,"አንቺ</w>":5407,"ሥፍ":5408,"የዕድገትና</w>":5409,"መልዕክት</w>":5410,"ቲክ</w>":5411,"መንቀሳ":5412,"እኤ":5413,"ወዝ</w>":5414,"የሰማ":5415,"ሌላኛው</w>":5416,"እሳት</w>":5417,"በካ":5418,"ፕሬስ</w>":5419,"ሬዳዋ</w>":5420,"በአር":5421,"እንደሚያስፈል":5422,"አፈጻጸም</w>":5423,"ኪና</w>":5424,"የሚናገሩት</w>":5425,"ለመሸ":5426,"ተልዕ":5427,"የዴሞክራሲ</w>":5428,"ይጠይቃል</w>":5429,"ደውን</w>":5430,"ጡና</w>":5431,"ፉበት</w>":5432,"መኖሩን</w>":5433,"የኤር":5434,"ሽን":5435,"ቀይ</w>":5436,"ድርሻ":5437,"ካስ":5438,"ንጓዴ</w>":5439,"መሞ":5440,"ኢሕአዴግ</w>":5441,"መቀጠል</w>":5442,"ዜጎችን</w>":5443,"ተወዳዳሪ</w>":5444,"የሚደረገው</w>":5445,"ቸት</w>":5446,"ራሳችን</w>":5447,"ለሁሉም</w>":5448,"ሳው</w>":5449,"እንዳያ":5450,"ቁልፍ</w>":5451,"ቂቅ</w>":5452,"አስቀም":5453,"ቆች</w>":5454,"ተግበር</w>":5455,"አብዛኛው</w>":5456,"ብሩ":5457,"የመጣው</w>":5458,"ጠቀሜታ</w>":5459,"ድሩ</w>":5460,"ፈጠረው</w>":5461,"ሁልጊዜ</w>":5462,"ቤን</w>":5463,"ገለጸ</w>":5464,"ሕፃናት</w>":5465,"የአል":5466,"ተለይ":5467,"ጠቅሰዋል</w>":5468,"ደሳለኝ</w>":5469,"ረች</w>":5470,"ዕል</w>":5471,"የኃይል</w>":5472,"ረዳው</w>":5473,"አማራ":5474,"በጥን":5475,"ያስረዳሉ</w>":5476,"ያላት</w>":5477,"አንዴ</w>":5478,"ቴአትር</w>":5479,"ሙከራ</w>":5480,"ማሳየት</w>":5481,"ንድሮው</w>":5482,"ቸዋ":5483,"ጉዞ":5484,"ቃለሁ</w>":5485,"ባደረጉት</w>":5486,"ጥበት</w>":5487,"የሚገኘውን</w>":5488,"ኢንስቲት":5489,"ሁሉን</w>":5490,"አባባል</w>":5491,"ፎካካ":5492,"ማመን":5493,"አንገ":5494,"መደበኛ</w>":5495,"በሚመለከት</w>":5496,"በቀን</w>":5497,"ድሮ</w>":5498,"ድሶ</w>":5499,"ለማምጣት</w>":5500,"ያለባቸው</w>":5501,"ገነባ</w>":5502,"እኤአ</w>":5503,"ማሻሻ":5504,"ቢያው</w>":5505,"በዚያው</w>":5506,"መጥ</w>":5507,"የደም</w>":5508,"እንደተናገሩት</w>":5509,"የአገራችን</w>":5510,"ጠብቅ</w>":5511,"ጌታ":5512,"መጠና":5513,"ማንነት</w>":5514,"ሎን</w>":5515,"ታን":5516,"ለማቅረብ</w>":5517,"34</w>":5518,"የሚቆ":5519,"ክብካ":5520,"ቀዳሚ</w>":5521,"ሒደት</w>":5522,"ጉባዔ":5523,"ለወጥ</w>":5524,"አሥር</w>":5525,"መስተዳ":5526,"ቡትን</w>":5527,"እንጀ":5528,"ረጋገጠ</w>":5529,"ሁሌም</w>":5530,"ኛውንም</w>":5531,"አዋጁ</w>":5532,"ቱንና</w>":5533,"ናሽናል</w>":5534,"አብረው</w>":5535,"ሰይጣን</w>":5536,"በኦሮሚያ</w>":5537,"የግንባታ</w>":5538,"በጋ":5539,"ኖስ</w>":5540,"አላት</w>":5541,"ቁና</w>":5542,"በሕግ</w>":5543,"መንደር</w>":5544,"ተጠር":5545,"ኢየሱስን</w>":5546,"መጥቷል</w>":5547,"የአካል</w>":5548,"ጥንቃቄ</w>":5549,"of</w>":5550,"ሰልጣ":5551,"ትራንስፖርት</w>":5552,"ቀጠለ</w>":5553,"በሚለው</w>":5554,"ዳንኤል</w>":5555,"የተወሰነ</w>":5556,"ሙኒ":5557,"ጣዊ</w>":5558,"ይሁዳ</w>":5559,"ለወ":5560,"የሆ":5561,"መሰረታዊ</w>":5562,"መኝ</w>":5563,"ቢሮ":5564,"እሷ</w>":5565,"አምባ":5566,"ማረጋገጥ</w>":5567,"ኤስ</w>":5568,"አንባ":5569,"ይቅር</w>":5570,"መብቶች</w>":5571,"ሳቸውን</w>":5572,"ብላ":5573,"ዝቅ</w>":5574,"ቴዎድሮስ</w>":5575,"ሌው</w>":5576,"እድገትና</w>":5577,"በዓሉ</w>":5578,"ልና":5579,"የሙያ</w>":5580,"ቀለም</w>":5581,"ክረው</w>":5582,"ናይጄ":5583,"ተጠያቂ</w>":5584,"እንደሚገኝ</w>":5585,"ንቀሳቀሱ</w>":5586,"በውን</w>":5587,"ይኖር</w>":5588,"ልጥ":5589,"ምግባ":5590,"ገዝ":5591,"ህዳሴ</w>":5592,"ተፈጥሮ</w>":5593,"መዳ":5594,"ቀውስ</w>":5595,"በመንግስት</w>":5596,"ማግኘ":5597,"ኖሪያ</w>":5598,"የቀድሞው</w>":5599,"ዮና":5600,"ሕጉ</w>":5601,"ያይ":5602,"ወሰኑ</w>":5603,"አምል":5604,"የተደረገው</w>":5605,"ይሸ":5606,"ፃፀ":5607,"በጀ":5608,"በውድድሩ</w>":5609,"አስፈጻሚ</w>":5610,"ቃለ</w>":5611,"ጥብ":5612,"ኮሚሽ":5613,"ለመመለስ</w>":5614,"ልያ":5615,"ሰረ":5616,"መድሃ":5617,"የሚሆኑት</w>":5618,"ምቤ":5619,"ቲም</w>":5620,"የጀመረው</w>":5621,"ነበረች</w>":5622,"ማረጋገጫ</w>":5623,"ስራው</w>":5624,"አምባሳደር</w>":5625,"በመጨረሻ":5626,"ተቃውሞ</w>":5627,"ጣልቃ</w>":5628,"ጉድ</w>":5629,"መጠየቅ</w>":5630,"ስጦታ</w>":5631,"እነርሱ</w>":5632,"መሩ</w>":5633,"ማሽ":5634,"ጨዋታው</w>":5635,"እንደሚችሉ</w>":5636,"ይገኙ":5637,"እቅ":5638,"የሚረ":5639,"በመፍጠር</w>":5640,"ጉድጓ":5641,"ከአገር</w>":5642,"የኖ":5643,"ድል":5644,"ያሉ":5645,"ጠየቅ</w>":5646,"ቁሳቁ":5647,"መናል</w>":5648,"ቱርክ</w>":5649,"ዘን":5650,"የመገናኛ</w>":5651,"ሕጋዊ</w>":5652,"አዝማ":5653,"ተመልከት</w>":5654,"የመጣ</w>":5655,"ማሳደግ</w>":5656,"ፋይዳ</w>":5657,"ሽፋን</w>":5658,"ቡቲ</w>":5659,"በሆነው</w>":5660,"በሴቶች</w>":5661,"ያዕቆ":5662,"ንጹ":5663,"ዳሜ</w>":5664,"ባና</w>":5665,"ኅብረተሰብ</w>":5666,"ድራ":5667,"እንስሳ":5668,"ጉብኝት</w>":5669,"ዲን</w>":5670,"ላለን</w>":5671,"አቤቱ":5672,"ሙሉ":5673,"ሩቅ</w>":5674,"ቶቻቸው</w>":5675,"መምህራን</w>":5676,"መልእክት</w>":5677,"ባላቸው</w>":5678,"በሶ":5679,"ዜማ</w>":5680,"ደሪያ</w>":5681,"ቲን</w>":5682,"አለቃ</w>":5683,"ልጄ</w>":5684,"ረውም</w>":5685,"በበኩሉ</w>":5686,"ድንቅ</w>":5687,"ዕርዳታ</w>":5688,"ገቢው</w>":5689,"የአባ":5690,"ያልሆነ</w>":5691,"አንዳንዴ</w>":5692,"የእኛ</w>":5693,"እንግሊዝ":5694,"ስነ</w>":5695,"ፈጠራ</w>":5696,"ስሙ</w>":5697,"ቹና</w>":5698,"ለማስወገድ</w>":5699,"ለፍ":5700,"ተጠናክሮ</w>":5701,"ሊጉ</w>":5702,"ሶችን</w>":5703,"ኩበት</w>":5704,"የያህዌን</w>":5705,"ጨምር</w>":5706,"ጫት</w>":5707,"በጭ":5708,"ገስ</w>":5709,"ቃለን</w>":5710,"ተወስ":5711,"ኃይሌ</w>":5712,"ችሁት</w>":5713,"re":5714,"ማና</w>":5715,"ሚዲ":5716,"የኑሮ</w>":5717,"ፎችን</w>":5718,"ይልቁ":5719,"ሊዝም</w>":5720,"መች</w>":5721,"አሰጣጥ</w>":5722,"ልማታዊ</w>":5723,"ወጪ":5724,"ያደርጋሉ</w>":5725,"ላቁ</w>":5726,"አስፈፃ":5727,"ኢንዱስትሪው</w>":5728,"ፈውን</w>":5729,"ሁለቱን</w>":5730,"መሥዋዕ":5731,"መንግስታት</w>":5732,"ጠንቀ":5733,"ቀለ":5734,"ገዢ":5735,"ሃት</w>":5736,"ሚሊ":5737,"ሪቱን</w>":5738,"ስለተ":5739,"ኮሚሽኑ</w>":5740,"ምድብ</w>":5741,"ሳይቀር</w>":5742,"ላለፍ</w>":5743,"ክርክር</w>":5744,"ገኙበት</w>":5745,"ታላላቅ</w>":5746,"ፈራ</w>":5747,"ሠራዊ":5748,"ዘወ":5749,"በሚያስ":5750,"የሚያስችሉ</w>":5751,"ኪያ</w>":5752,"መያዝ</w>":5753,"ቁርጠኝነት</w>":5754,"አስተዳደሩ</w>":5755,"ፍላጐ":5756,"አይመስለኝም</w>":5757,"ለን":5758,"ለአገር</w>":5759,"ሽም</w>":5760,"ነዋ</w>":5761,"የፈጠራ</w>":5762,"ኛነት</w>":5763,"የተቋ":5764,"እንድና":5765,"ተህ</w>":5766,"በቅርብ</w>":5767,"ምሽት</w>":5768,"ራእይ</w>":5769,"አንዱን</w>":5770,"መለከቱት</w>":5771,"ስትል</w>":5772,"ፈልጉ</w>":5773,"ነዋል</w>":5774,"ኢትዮጵያና</w>":5775,"አስተማማኝ</w>":5776,"ሎቹ</w>":5777,"ዜጐ":5778,"ያውም</w>":5779,"ደራጀት</w>":5780,"መጥቶ</w>":5781,"ከቅርብ</w>":5782,"ጄኔ":5783,"አመልክቷል</w>":5784,"ሚክ</w>":5785,"ራቸውም</w>":5786,"ቂው</w>":5787,"ከማስ":5788,"በሚገኙ</w>":5789,"የትራንስፖርት</w>":5790,"መሀል</w>":5791,"ዎን</w>":5792,"በመጽሐፍ</w>":5793,"ኳቸው</w>":5794,"ትኩረ":5795,"ናለሁ</w>":5796,"እንደምን":5797,"አውቶ":5798,"በግል</w>":5799,"ይገልፃ":5800,"ዮሴፍ</w>":5801,"በእኛ</w>":5802,"ሎም</w>":5803,"ርቱ</w>":5804,"ውር":5805,"የእንስሳት</w>":5806,"ፈቀ":5807,"ኃይለማርያም</w>":5808,"ችለዋል</w>":5809,"የበላይነት</w>":5810,"የእኔ</w>":5811,"ጋቸውን</w>":5812,"ሰጥተዋል</w>":5813,"ጦት</w>":5814,"የአትሌ":5815,"መሳሪያ</w>":5816,"የተዋ":5817,"ሰጥቷል</w>":5818,"ስኬታማ</w>":5819,"ቆስ</w>":5820,"መልካ":5821,"ይችሉ</w>":5822,"በራስ</w>":5823,"የጠቆ":5824,"እንዳት":5825,"ማዕከ":5826,"ከበደ</w>":5827,"ዲግሪ</w>":5828,"ሐምሌ</w>":5829,"ሻሻ</w>":5830,"በመተባበር</w>":5831,"አላስ":5832,"ኖቹ</w>":5833,"ሽና</w>":5834,"ተመስ":5835,"ከእሱ</w>":5836,"መላ</w>":5837,"የጎላ</w>":5838,"ዩኒቨርሲቲዎች</w>":5839,"ትዕዛዝ</w>":5840,"የጸ":5841,"አንዷ</w>":5842,"ያደርገው</w>":5843,"የደረሰ":5844,"የኢንቨስትመንት</w>":5845,"እንቅፋት</w>":5846,"ፖለቲከ":5847,"199":5848,"ተነስቶ</w>":5849,"እንዲኖር</w>":5850,"ከንቲ":5851,"ሙሴ</w>":5852,"ናዎች</w>":5853,"ድብ</w>":5854,"ለያ</w>":5855,"በእኔ</w>":5856,"ይዟል</w>":5857,"ምራ":5858,"ሴቶችን</w>":5859,"ዓይነቱ</w>":5860,"አይሁዳ":5861,"መከላከል</w>":5862,"ኒው</w>":5863,"አለመሆኑን</w>":5864,"ላቸውም</w>":5865,"ራዕ":5866,"ራስን</w>":5867,"የሚሰማ":5868,"ስልክ</w>":5869,"ደስተኛ</w>":5870,"ፋዊ</w>":5871,"ቅዱሳን</w>":5872,"በሽታው</w>":5873,"ደዋል</w>":5874,"ዘገባው</w>":5875,"ዕድገ":5876,"የእስራኤል</w>":5877,"ደጃ":5878,"37</w>":5879,"ፁም</w>":5880,"ሳሙ":5881,"ክቸ":5882,"ተቋሙ</w>":5883,"ፖሊሲ":5884,"ለሙሉ</w>":5885,"ረብ</w>":5886,"ይቱ</w>":5887,"ኩባንያው</w>":5888,"ሰራተኞች</w>":5889,"ገብተው</w>":5890,"ኮከብ</w>":5891,"የመረጃ</w>":5892,"ብዙሃን</w>":5893,"ድርድር</w>":5894,"በሻ":5895,"አብርሃ":5896,"ማህበራ":5897,"በዙ":5898,"ናግ":5899,"ልማድ</w>":5900,"ወንድሞች</w>":5901,"ወለድ</w>":5902,"በድጋሚ</w>":5903,"li":5904,"ቀሩ</w>":5905,"ተውን</w>":5906,"ዓመታዊ</w>":5907,"ጥናቱ</w>":5908,"ለኛው</w>":5909,"መድኃኒት</w>":5910,"ሲመጣ</w>":5911,"ባችሁ</w>":5912,"እንደሚያሳ":5913,"አብረ":5914,"ግቢ</w>":5915,"አካዳ":5916,"ዝውውር</w>":5917,"መስራ":5918,"ሞቱ</w>":5919,"በግብ":5920,"አብራር":5921,"አማካይነት</w>":5922,"ይህንንም</w>":5923,"ተረጋግ":5924,"ጣቸውን</w>":5925,"እንጨት</w>":5926,"ከሰቱ</w>":5927,"መድረኮች</w>":5928,"ከነበረው</w>":5929,"መጠጥ</w>":5930,"ባለን</w>":5931,"አሉታዊ</w>":5932,"እህል</w>":5933,"ኩኝ</w>":5934,"ተጠቃሽ</w>":5935,"አስፈላጊውን</w>":5936,"ፋር</w>":5937,"ናቂ</w>":5938,"አዝ":5939,"በአካባ":5940,"ቢያቸው</w>":5941,"የምንችለው</w>":5942,"ንቀሳቀስ</w>":5943,"አጠቃቀም</w>":5944,"ቁጠ":5945,"የተናገ":5946,"በተሻለ</w>":5947,"ነፍስ</w>":5948,"the</w>":5949,"ይመጣል</w>":5950,"ለመቅረ":5951,"ምንጮች</w>":5952,"ዋላ</w>":5953,"ዲሱ</w>":5954,"ጻናት</w>":5955,"በረከት</w>":5956,"አደባባይ</w>":5957,"የሚያሰ":5958,"ለለ</w>":5959,"ውበት</w>":5960,"አንተም</w>":5961,"ላማዊ</w>":5962,"ስቴት</w>":5963,"ትህን</w>":5964,"የሐ":5965,"ሊና</w>":5966,"እናላችሁ</w>":5967,"ለጎን</w>":5968,"ኤሌክትሪክ</w>":5969,"ጠነ":5970,"ምንጊዜም</w>":5971,"አበበ</w>":5972,"በይፋ</w>":5973,"ዞር</w>":5974,"የውስጥ</w>":5975,"የትም</w>":5976,"የቴክኖሎጂ</w>":5977,"መሰላችሁ</w>":5978,"ማነ":5979,"ቂት</w>":5980,"የሚገኙት</w>":5981,"ቷቸው</w>":5982,"ሚያዝያ</w>":5983,"ጋንዳ</w>":5984,"ሽግግር</w>":5985,"ለእኔ</w>":5986,"ሰጠ</w>":5987,"ጣጣ":5988,"ያውቁ</w>":5989,"ጨርቅ</w>":5990,"ፍለጋ</w>":5991,"ህጉ":5992,"ስፔ":5993,"የፀረ</w>":5994,"በሆኑ</w>":5995,"ኮንት":5996,"ይኖርብናል</w>":5997,"ተያያ":5998,"ተጠቃሚ":5999,"ጠቁመው</w>":6000,"ለዓለም</w>":6001,"መስኮች</w>":6002,"ያልሆኑ</w>":6003,"ስትራቴጂ</w>":6004,"ዕምሮ</w>":6005,"ድርና</w>":6006,"ከአፍሪካ</w>":6007,"al</w>":6008,"አክሲ":6009,"መያ":6010,"ተፎካካ":6011,"ችግሮ":6012,"ፈጸሙ</w>":6013,"ዘገባ":6014,"ይነገ":6015,"ጠጥ</w>":6016,"ያዘ</w>":6017,"መዳረ":6018,"ብዝ":6019,"ደላ":6020,"በተደረገው</w>":6021,"ኢትዮ</w>":6022,"ይጠብ":6023,"የምክር</w>":6024,"ግዛ":6025,"ፈልግም</w>":6026,"ይወስ":6027,"ጉዳዮችን</w>":6028,"መደብ</w>":6029,"በቤ":6030,"ዘም</w>":6031,"አሰፋ</w>":6032,"አቅርቦ":6033,"የያዘ</w>":6034,"ተተ":6035,"እርግጠኛ</w>":6036,"የተሸ":6037,"ሰብና</w>":6038,"እነሱን</w>":6039,"ኮሌጅ</w>":6040,"ገኝም</w>":6041,"ወቅታዊ</w>":6042,"መግቢያ</w>":6043,"ምናልባትም</w>":6044,"አንዳች</w>":6045,"ውረድ</w>":6046,"ከማድረግ</w>":6047,"ታውቃ":6048,"ዴን</w>":6049,"የመሳሰሉ</w>":6050,"ሱበት</w>":6051,"በከተማዋ</w>":6052,"ንግድና</w>":6053,"የአማ":6054,"ተመልክቷል</w>":6055,"ወዳጅነት</w>":6056,"ደካማ</w>":6057,"የጠቀ":6058,"ጅት</w>":6059,"የተለመደ</w>":6060,"አገሩ</w>":6061,"ይኖረዋል</w>":6062,"ተሳትፎ":6063,"ካፒታል</w>":6064,"በን</w>":6065,"ጫፍ</w>":6066,"ለመግባት</w>":6067,"ባለስልጣን</w>":6068,"ቻችሁ</w>":6069,"ቾችን</w>":6070,"ተማመን</w>":6071,"ምሩ</w>":6072,"እመ":6073,"የዛሬ</w>":6074,"ፍጥረት</w>":6075,"መሰግ":6076,"300</w>":6077,"ቷቸዋል</w>":6078,"ዱበት</w>":6079,"ወታደሮች</w>":6080,"ያወጣ":6081,"ዬው</w>":6082,"ለትም</w>":6083,"ሆነን</w>":6084,"የሰጠው</w>":6085,"መውጣት</w>":6086,"ሃለሁ</w>":6087,"የሕይወት</w>":6088,"ጃቸው</w>":6089,"18":6090,"ለህዝብ</w>":6091,"መገንባት</w>":6092,"በሁለቱ</w>":6093,"የሌላቸው</w>":6094,"እዚያው</w>":6095,"ሳተ</w>":6096,"ማሪዎች</w>":6097,"ያረ":6098,"ገዥ":6099,"የሚጠቅ":6100,"ሄዶ</w>":6101,"ሰጣ":6102,"የቤ":6103,"ጥቅ</w>":6104,"ፍን":6105,"አረጋግጠዋል</w>":6106,"መመልከት</w>":6107,"ታትን</w>":6108,"የተጋ":6109,"አልቀረ":6110,"ይመስል</w>":6111,"ሰውየው</w>":6112,"ንቅናቄ</w>":6113,"ሪስ</w>":6114,"ሪዎችና</w>":6115,"ድክ":6116,"ተከራ":6117,"er</w>":6118,"ትዳር</w>":6119,"እንመልከት</w>":6120,"ሌን</w>":6121,"ኸው</w>":6122,"አድርገን</w>":6123,"ፕሬዝዳንት</w>":6124,"ሞላ":6125,"የመድ":6126,"ሉዓላ":6127,"ዘይት</w>":6128,"ሽያጭ</w>":6129,"እሺ</w>":6130,"የሚታየው</w>":6131,"በመጨረሻም</w>":6132,"ለቅ</w>":6133,"በተለየ</w>":6134,"አህጉ":6135,"ታዋቂ</w>":6136,"ነጋዴዎች</w>":6137,"ሏት</w>":6138,"ናን":6139,"ወሰድ</w>":6140,"ወስድ</w>":6141,"ለኢዜአ</w>":6142,"ባራ":6143,"ኝማ</w>":6144,"ጌታቸው</w>":6145,"ተጠበ":6146,"ቴክኒክ</w>":6147,"ብሩ</w>":6148,"በቀው</w>":6149,"ግድቡ</w>":6150,"የሰብዓዊ</w>":6151,"ሮና</w>":6152,"ኮል</w>":6153,"የተወለ":6154,"መግባባት</w>":6155,"ለውም</w>":6156,"ማቴ</w>":6157,"አያያ":6158,"ዎቻቸው</w>":6159,"ጆቹ</w>":6160,"ፍጹም</w>":6161,"የመረ":6162,"ወስደው</w>":6163,"ልጆቹ</w>":6164,"በዚያን</w>":6165,"ከቆ":6166,"ከላዊ</w>":6167,"አሸባ":6168,"አስመ":6169,"ገለገ":6170,"መኮንን</w>":6171,"ክብካቤ</w>":6172,"የምርት</w>":6173,"ጆሮ</w>":6174,"ያቀር":6175,"ፋፋ":6176,"በቀለ</w>":6177,"ጥሬ</w>":6178,"የሚገባ</w>":6179,"የሚታይ</w>":6180,"ለመቀነስ</w>":6181,"ሰጪ</w>":6182,"ለረጅም</w>":6183,"ኝት</w>":6184,"ጉበት</w>":6185,"ፈቅ":6186,"ጃፓን</w>":6187,"የሚኖረው</w>":6188,"የአሜሪካ":6189,"እንደሚቻል</w>":6190,"ታጋ":6191,"ላስ":6192,"ካሳ</w>":6193,"ገዝ</w>":6194,"ስታዲየም</w>":6195,"ምዝ":6196,"ረበት</w>":6197,"ኃይሉ</w>":6198,"ቼን</w>":6199,"የከፋ</w>":6200,"ለማድረስ</w>":6201,"አቅርበዋል</w>":6202,"እገዛ</w>":6203,"ጫን</w>":6204,"ቅርንጫፍ</w>":6205,"ከጥቂት</w>":6206,"ይነ":6207,"የሚነ":6208,"የሚያደርጉት</w>":6209,"ሥጋት</w>":6210,"ርዳት</w>":6211,"የሚጠይ":6212,"ያውኑ</w>":6213,"በእሱ</w>":6214,"ጅና</w>":6215,"አብዱ":6216,"ረቂቅ</w>":6217,"ቢና</w>":6218,"ናፍ":6219,"ኒው":6220,"ቺን</w>":6221,"ሰብሰብ</w>":6222,"አበረታች</w>":6223,"የበላይ</w>":6224,"ክስተት</w>":6225,"ተገል":6226,"በራት</w>":6227,"ያብራ":6228,"ስተዋል</w>":6229,"ይዘን</w>":6230,"በጤና</w>":6231,"የቻይና</w>":6232,"ኢንተርናሽናል</w>":6233,"መለሰ</w>":6234,"በደል</w>":6235,"ለሕዝብ</w>":6236,"ባንድ</w>":6237,"ከጎ":6238,"ቤተሰቦች</w>":6239,"እንደገለ":6240,"ቁጭ</w>":6241,"አደረገ</w>":6242,"ፈፅ":6243,"የአመራ":6244,"ፌዴሬሽ":6245,"ተራራ</w>":6246,"በየትኛውም</w>":6247,"ብላለች</w>":6248,"እዬ":6249,"በመቶ":6250,"ያደርጉት</w>":6251,"ክብረ":6252,"ፈርት</w>":6253,"መካከለኛ</w>":6254,"ተቋቁ":6255,"በቀል</w>":6256,"ያስችላል</w>":6257,"አንድን</w>":6258,"ከንቱ</w>":6259,"ይደር":6260,"የህብረተሰብ</w>":6261,"የወደ":6262,"ባለሃብ":6263,"ነው":6264,"አያስ":6265,"ኪዳን</w>":6266,"በመጥ":6267,"መብራት</w>":6268,"ሲታ":6269,"ገዛ":6270,"የተን":6271,"ጊዜያዊ</w>":6272,"ነጥቦች</w>":6273,"00":6274,"ስሙ":6275,"እነዚህም</w>":6276,"ቀላ":6277,"ታቅ":6278,"ችኝ</w>":6279,"ንቶ":6280,"መጥተው</w>":6281,"እውነታ</w>":6282,"ማው":6283,"ራውን</w>":6284,"ከመንግሥት</w>":6285,"አርሶ":6286,"ትድ</w>":6287,"እየተባለ</w>":6288,"ለሰው</w>":6289,"ክፍት</w>":6290,"ኢንተርፕራ":6291,"አክራ":6292,"ከመሆኑ</w>":6293,"ድስ</w>":6294,"ዘርፉን</w>":6295,"ብቻውን</w>":6296,"አርብቶ</w>":6297,"ምልክ":6298,"አይኖርም</w>":6299,"ህጋዊ</w>":6300,"ልጣን</w>":6301,"መዘገቡ</w>":6302,"ማህበሩ</w>":6303,"የአካባቢ</w>":6304,"36</w>":6305,"ati":6306,"ቸዋለሁ</w>":6307,"ጋገር</w>":6308,"ውሎ</w>":6309,"መርህ</w>":6310,"ሌሊት</w>":6311,"ዕጣ</w>":6312,"ዞች</w>":6313,"አገኘ":6314,"ሱስ</w>":6315,"ስለዚህም</w>":6316,"በነፃ</w>":6317,"ተቀና":6318,"ሬዲዮ</w>":6319,"ተጎ":6320,"ዬም</w>":6321,"ፈት":6322,"በመያዝ</w>":6323,"ዲሞክራሲ</w>":6324,"ስያሜ</w>":6325,"ትዝ</w>":6326,"ኗኗ":6327,"ይዘት</w>":6328,"ምሥራቅ</w>":6329,"ለአብነት</w>":6330,"ሰሜን</w>":6331,"እምሮ</w>":6332,"ዘፈ":6333,"ፉክክር</w>":6334,"ፋና</w>":6335,"ይገባዋል</w>":6336,"ወዲያው</w>":6337,"ያውቃል</w>":6338,"ጣቢያዎች</w>":6339,"ለፊት</w>":6340,"በምርጫ</w>":6341,"ዳያስፖ":6342,"የሚደ":6343,"ጥናቶች</w>":6344,"ይፈልጋል</w>":6345,"ሁድ</w>":6346,"ልናል</w>":6347,"ቀቱ</w>":6348,"ሰሙ</w>":6349,"የሕክምና</w>":6350,"ችሎት</w>":6351,"ገዛ</w>":6352,"ይኖርባቸዋል</w>":6353,"ለሽ</w>":6354,"ሆኜ</w>":6355,"ወግ":6356,"ዘዴ":6357,"አላውቅም</w>":6358,"ቀል":6359,"ፍጻ":6360,"የተደ":6361,"ይልቁንም</w>":6362,"የባቡር</w>":6363,"ተኮር</w>":6364,"የትኛው</w>":6365,"ሆናለች</w>":6366,"ገጽታ</w>":6367,"በተቃራ":6368,"ሻና</w>":6369,"በሰማይ</w>":6370,"ውጣ</w>":6371,"መገለጫ</w>":6372,"አያውቅም</w>":6373,"ዕድን</w>":6374,"ጠቅሰው</w>":6375,"14":6376,"መከራ":6377,"ረናል</w>":6378,"ገኘት</w>":6379,"ውቀው</w>":6380,"ፍሪካ":6381,"አልባ</w>":6382,"መመለስ</w>":6383,"ፌዴሪ</w>":6384,"ኢህአዴ":6385,"ታዛ":6386,"እሳቸው</w>":6387,"የቅርብ</w>":6388,"ያተኮ":6389,"ገለግል</w>":6390,"የተባለውን</w>":6391,"ሷም</w>":6392,"ጠዋት</w>":6393,"ይገኙበታል</w>":6394,"በአዋ":6395,"ደርሱ</w>":6396,"የተወሰኑ</w>":6397,"ከአምላክ</w>":6398,"መቀነስ</w>":6399,"ትምህርትና</w>":6400,"ዳይሬክተሩ</w>":6401,"የተሰማሩ</w>":6402,"በራ</w>":6403,"እኖ</w>":6404,"ጣሊያ":6405,"አልነበ":6406,"ሰናል</w>":6407,"ታቸውም</w>":6408,"እንደመሆኑ</w>":6409,"ባህሪ</w>":6410,"ባልም</w>":6411,"ድግ":6412,"ለመረዳት</w>":6413,"መስቀል</w>":6414,"ደራሲ</w>":6415,"ራሳችንን</w>":6416,"ሚዲያ</w>":6417,"ነጭ</w>":6418,"የዱ":6419,"ዘና</w>":6420,"ይቆ":6421,"ፋሉ</w>":6422,"ማምጣት</w>":6423,"ኝታ</w>":6424,"ላን</w>":6425,"ሸማ":6426,"ጥናትና</w>":6427,"ለዘላለም</w>":6428,"ሊኖር</w>":6429,"ትዝ":6430,"እንጀራ</w>":6431,"ሦስተኛው</w>":6432,"ከሞት</w>":6433,"ክሩ</w>":6434,"ከያህዌ</w>":6435,"ውት</w>":6436,"አንጋ":6437,"የማኅ":6438,"መውን</w>":6439,"ግቦች</w>":6440,"ለጥ":6441,"ልውው":6442,"ዘይ":6443,"እያደረጉ</w>":6444,"ኦሮሞ</w>":6445,"የትና</w>":6446,"ደህና</w>":6447,"ግምገማ</w>":6448,"መላለ":6449,"ተኛና</w>":6450,"38</w>":6451,"ረኛ</w>":6452,"ከደ":6453,"ህዝባዊ</w>":6454,"ሥፍራ</w>":6455,"እናገ":6456,"የሚደረግ</w>":6457,"መንቀሳቀስ</w>":6458,"ቀረበ</w>":6459,"መሥራ":6460,"የትኛውም</w>":6461,"ይጠቁማሉ</w>":6462,"ሽብር":6463,"ቦቹ</w>":6464,"አቡ":6465,"ፋብሪካዎች</w>":6466,"የነገ":6467,"ጢር</w>":6468,"ታለሁ</w>":6469,"የጊዜ</w>":6470,"ተቃዋሚዎች</w>":6471,"400</w>":6472,"ሊሆኑ</w>":6473,"የግንዛቤ</w>":6474,"መንግሥትም</w>":6475,"ልጆቻቸው</w>":6476,"ኤጀንሲው</w>":6477,"ሐሴ</w>":6478,"አቀረ":6479,"ብርቱ</w>":6480,"አምራች</w>":6481,"ይነገራል</w>":6482,"ማበረታ":6483,"ይቀጥላል</w>":6484,"የቤተሰብ</w>":6485,"ይሠራ":6486,"የተደራ":6487,"ቀርብ":6488,"በቀጣይም</w>":6489,"የላቸውም</w>":6490,"ጸሎት</w>":6491,"አገልግሎቱን</w>":6492,"ሰባሰብ</w>":6493,"ሬዎች</w>":6494,"ሳስ</w>":6495,"ተስማ":6496,"ውድድሩን</w>":6497,"አሸን":6498,"ያዕቆብ</w>":6499,"ሥልጠና":6500,"ስደት</w>":6501,"በቦ":6502,"ከሞ":6503,"ካው</w>":6504,"ተማሪዎችን</w>":6505,"ዳሪ</w>":6506,"ግዚ":6507,"አርባ</w>":6508,"በጉዳዩ</w>":6509,"ድዋ</w>":6510,"ፍጥነት</w>":6511,"መስዋዕ":6512,"ብሔረሰቦችና</w>":6513,"ልዑ":6514,"ዳሴ":6515,"በደስታ</w>":6516,"አደረጃጀት</w>":6517,"የሰው":6518,"ልጠን</w>":6519,"እንቅስቃሴዎች</w>":6520,"ጉልህ</w>":6521,"ጣሊያ</w>":6522,"ጠቀሙ</w>":6523,"ከወዲ":6524,"ፋክቸ":6525,"ፖር":6526,"ቤተሰቡ</w>":6527,"0ዎቹ</w>":6528,"ነቅ</w>":6529,"ኮት</w>":6530,"15":6531,"ባደረገው</w>":6532,"ጸን</w>":6533,"ምቤላ</w>":6534,"ካሳ":6535,"ብረቱ</w>":6536,"ከፈለ":6537,"ይጀም":6538,"ኪሳ":6539,"ጠየቁ</w>":6540,"ቢዝነስ</w>":6541,"እንግሊዝኛ</w>":6542,"ምደ":6543,"የተሻ":6544,"አባቱ</w>":6545,"በትኩረት</w>":6546,"ሪፖርቱ</w>":6547,"ሰል":6548,"ለመጠቀም</w>":6549,"አባቴ</w>":6550,"ወዳጅ</w>":6551,"ውጣጡ</w>":6552,"አብርሃም</w>":6553,"ከእኔ</w>":6554,"ማስተማር</w>":6555,"ባለቤትነት</w>":6556,"ቀች</w>":6557,"ነቷ</w>":6558,"ጠብ</w>":6559,"ወጣቶችን</w>":6560,"የኪራይ</w>":6561,"አብዛኛውን</w>":6562,"ሃብ</w>":6563,"ንሽ</w>":6564,"ክምና":6565,"ዳችን</w>":6566,"ሐስ</w>":6567,"በሐ":6568,"ብሮ":6569,"በአደ":6570,"ማስጠንቀ":6571,"ሞክር</w>":6572,"ብርሃኑ</w>":6573,"ተጓ":6574,"ዊቷ</w>":6575,"ድሪ":6576,"ጋቢ</w>":6577,"ያደርገዋል</w>":6578,"ከዚሁ</w>":6579,"አረጋ":6580,"እንቅልፍ</w>":6581,"ገለግሉ</w>":6582,"በዞኑ</w>":6583,"የሊ":6584,"የወንጀል</w>":6585,"አፈፃፀ":6586,"ዘል":6587,"መሰና":6588,"መረጋ":6589,"ጫማ</w>":6590,"የሚመስ":6591,"ዓይነቶች</w>":6592,"አጭር</w>":6593,"ወክ":6594,"ቋረ":6595,"ከናወነው</w>":6596,"በሕይወ":6597,"አመላ":6598,"ወዲያውኑ</w>":6599,"ካንሰር</w>":6600,"ለማጠናከር</w>":6601,"ምክንያቱ</w>":6602,"ርብር":6603,"የሚሰጡ</w>":6604,"በማንኛውም</w>":6605,"ሲን</w>":6606,"ስጋ":6607,"አቸው</w>":6608,"ዙን</w>":6609,"ጎዳ":6610,"ጣሊያን</w>":6611,"ሯን</w>":6612,"ጠፍ":6613,"ወቅም</w>":6614,"ክህሎት</w>":6615,"ሚካኤል</w>":6616,"ሊባል</w>":6617,"ከሦስት</w>":6618,"ጣጥ":6619,"ሰርቪ":6620,"ፐብሊክ</w>":6621,"ተደራጅ":6622,"ወቁ</w>":6623,"ያመ":6624,"ያጋጠ":6625,"በመሄድ</w>":6626,"መስሎ</w>":6627,"ሳሙኤል</w>":6628,"የምለው</w>":6629,"ከመቶ</w>":6630,"ነር":6631,"ፆታ</w>":6632,"ብራዚ":6633,"ታደሰ</w>":6634,"ተጫዋች</w>":6635,"ኖርበት</w>":6636,"አስደናቂ</w>":6637,"አድማስ</w>":6638,"የተወ":6639,"አደገኛ</w>":6640,"በሆ":6641,"ይኖራሉ</w>":6642,"ቅንና</w>":6643,"የማሳ":6644,"አጠናክሮ</w>":6645,"የሆኑትን</w>":6646,"ሉኝ</w>":6647,"ቆራ":6648,"በዝ":6649,"የሚፈጥ":6650,"በመውሰድ</w>":6651,"የእርሻ</w>":6652,"ከትል</w>":6653,"የቡና</w>":6654,"በማሰብ</w>":6655,"ፈጸመ</w>":6656,"መርሃ</w>":6657,"ፋብሪካው</w>":6658,"አውሮፕላን</w>":6659,"ብና":6660,"ሶን</w>":6661,"በመጨረሻ</w>":6662,"ሆስፒታ":6663,"ዘገ":6664,"ለመደው</w>":6665,"ባለች</w>":6666,"በድም":6667,"የሚያደርጉ</w>":6668,"ሆስፒታሉ</w>":6669,"ረድ":6670,"በመግለጽ</w>":6671,"የህዳሴ</w>":6672,"ትእዛዝ</w>":6673,"ረግ</w>":6674,"ቅስ":6675,"የሠራ":6676,"ፌስ":6677,"የተያያ":6678,"ውይይቱ</w>":6679,"ባቀረ":6680,"ብታ":6681,"ከሆኑ</w>":6682,"ጠብቆ</w>":6683,"በ198":6684,"ሽማግሌዎች</w>":6685,"ሳለሁ</w>":6686,"ከሁሉ</w>":6687,"ያለምንም</w>":6688,"ማና":6689,"ረዥም</w>":6690,"በመነሳት</w>":6691,"በሀገሪቱ</w>":6692,"ካት":6693,"ባለሁ</w>":6694,"መሆኗን</w>":6695,"ወንበር</w>":6696,"ፍትሃ":6697,"የገጠር</w>":6698,"የመፍት":6699,"በርከት</w>":6700,"ማንኛውንም</w>":6701,"ጠብቀው</w>":6702,"ምስ</w>":6703,"ናንት</w>":6704,"የጎደ":6705,"ለዘመናት</w>":6706,"ከለ</w>":6707,"ማለፍ</w>":6708,"ጤናማ</w>":6709,"ካፈል</w>":6710,"ያም":6711,"ጨን":6712,"እድሜ":6713,"የመጡ</w>":6714,"እየተካሄደ</w>":6715,"አደረጃጀ":6716,"የፓ":6717,"ዘመና":6718,"መሰብ":6719,"ቀሳ</w>":6720,"ገነት</w>":6721,"ጉልበት</w>":6722,"ፓርክ</w>":6723,"ተግዳ":6724,"ለእኛ</w>":6725,"ጽና":6726,"ri":6727,"ለጊዜው</w>":6728,"ዩናይ":6729,"ዎችንና</w>":6730,"ገም</w>":6731,"ፈታ</w>":6732,"ገበያው</w>":6733,"በመስራት</w>":6734,"and</w>":6735,"በየአ":6736,"ነጻ</w>":6737,"ውያንን</w>":6738,"ዳደር</w>":6739,"እርስ":6740,"መድኃኒ":6741,"ለአምላክ</w>":6742,"ሪዮ</w>":6743,"ሲገል":6744,"ቢኖር</w>":6745,"ባቡር</w>":6746,"በመልካም</w>":6747,"ታዳጊ</w>":6748,"ህፃናት</w>":6749,"ባይል</w>":6750,"ሸዋ</w>":6751,"ክልና</w>":6752,"ማኅበረሰብ</w>":6753,"ፍትሐዊ</w>":6754,"ዋሚ</w>":6755,"ድስት</w>":6756,"የተላ":6757,"ከሚገኙ</w>":6758,"ታደግ</w>":6759,"ቃን</w>":6760,"በሲ":6761,"በእግር</w>":6762,"የለ</w>":6763,"የኢህአዴግ</w>":6764,"ጠላ</w>":6765,"ሳይያስ</w>":6766,"ኃጢአ":6767,"ማችን</w>":6768,"የቱን</w>":6769,"ደስታ":6770,"ዶሮ</w>":6771,"የተጻ":6772,"ውልድ</w>":6773,"ባለሥልጣናት</w>":6774,"st":6775,"ሃገር</w>":6776,"ቤቶችን</w>":6777,"ስራዎችን</w>":6778,"ይሄንን</w>":6779,"ሰብሳቢ</w>":6780,"ትዕግ":6781,"በሦስት</w>":6782,"ብሪ":6783,"ቻው</w>":6784,"የፋ":6785,"ዴኤ":6786,"ታወቁ</w>":6787,"ጥርጥር</w>":6788,"ከወዲሁ</w>":6789,"በሬ</w>":6790,"በሞት</w>":6791,"ብንም</w>":6792,"ውታል</w>":6793,"ተመዝግ":6794,"ሁከት</w>":6795,"ካሉት</w>":6796,"የጠበቀ</w>":6797,"ተነግ":6798,"ከእነሱ</w>":6799,"ዘጋጁ":6800,"ህመም</w>":6801,"ሲነ":6802,"ትመት</w>":6803,"ጠበቁ</w>":6804,"ዲዛይን</w>":6805,"መማር</w>":6806,"ተገንዝ":6807,"ናም</w>":6808,"የብሔራዊ</w>":6809,"አይችሉም</w>":6810,"የሰጡት</w>":6811,"ተገና":6812,"እድገ":6813,"በአማራ</w>":6814,"ኑፋክቸ":6815,"ለማከናወን</w>":6816,"መጽሔ":6817,"ባሌ</w>":6818,"እሴት</w>":6819,"የዚ":6820,"ይል</w>":6821,"የውኃ</w>":6822,"ተደራሽ</w>":6823,"12":6824,"ለገበያ</w>":6825,"የሁሉም</w>":6826,"እንዲያደርጉ</w>":6827,"ዘግቧል</w>":6828,"ከፊል</w>":6829,"39</w>":6830,"42</w>":6831,"መጣም</w>":6832,"ሰጪ":6833,"ጋዬ</w>":6834,"የሚባሉ</w>":6835,"ልጠኛ</w>":6836,"ሳካ</w>":6837,"ጧቸው</w>":6838,"በሰጠው</w>":6839,"አሠልጣ":6840,"ይፈጥራል</w>":6841,"ዎቻችን</w>":6842,"ገፅ":6843,"ሰበብ</w>":6844,"ሳይንስና</w>":6845,"ሚውን</w>":6846,"ሮውን</w>":6847,"ስበው</w>":6848,"ንጥ":6849,"የሚስተዋ":6850,"ከሰው</w>":6851,"ጩኸ":6852,"በሚደረገው</w>":6853,"ጭንቀት</w>":6854,"ልምም":6855,"ክበር</w>":6856,"ውጤቱ</w>":6857,"አሳስበዋል</w>":6858,"ሄድ":6859,"መላው</w>":6860,"ሸቀ":6861,"እራ":6862,"በአምስት</w>":6863,"እንዳላ":6864,"ብስ</w>":6865,"ለማሳየት</w>":6866,"ጣሪ</w>":6867,"ያደረጉ</w>":6868,"አጠገብ</w>":6869,"በሁዋላ</w>":6870,"ናጋ":6871,"ሥራቸው</w>":6872,"ገለጹ</w>":6873,"ገነቡ</w>":6874,"አጥብ":6875,"ለድ</w>":6876,"ቆየት</w>":6877,"ቢሆኑ</w>":6878,"ጥቅምት</w>":6879,"አስገራ":6880,"ራቶን</w>":6881,"ጀግ":6882,"አገልግሎቶች</w>":6883,"መዋቅ":6884,"እናው":6885,"አገልግሎቱ</w>":6886,"ቀይ":6887,"ከአምስት</w>":6888,"ጎት</w>":6889,"ትልልቅ</w>":6890,"ተወካይ</w>":6891,"የሚቻለው</w>":6892,"በሽታዎች</w>":6893,"ስም":6894,"ስፋ</w>":6895,"ወራ</w>":6896,"የወጣው</w>":6897,"በተሰ":6898,"ችኋለሁ</w>":6899,"ስህተ":6900,"የድርጅቱ</w>":6901,"በህገ</w>":6902,"ሜዳሊያ":6903,"ሞል":6904,"ሲሉም</w>":6905,"ሹራ":6906,"ቆሮ</w>":6907,"አማካሪ</w>":6908,"ስለመሆኑ</w>":6909,"ትቶ</w>":6910,"ከዋ":6911,"የሚገቡ</w>":6912,"ናችሁ</w>":6913,"ውሃ":6914,"በመር":6915,"የሚታዩ</w>":6916,"አሮ":6917,"ማዕከሉ</w>":6918,"ሜት":6919,"ብቁ</w>":6920,"አባ</w>":6921,"ou":6922,"የተቀና":6923,"ሸጥ</w>":6924,"ዕቃዎች</w>":6925,"ለማሻሻል</w>":6926,"ከበሩ</w>":6927,"የኤርትራ</w>":6928,"ከየት</w>":6929,"ውንት</w>":6930,"ድንገ":6931,"ትላልቅ</w>":6932,"ሊድ</w>":6933,"ሚን</w>":6934,"ሳች</w>":6935,"ካፈ":6936,"ጥሩ":6937,"መለሰ":6938,"ተሰም":6939,"ጸባረ":6940,"ነበርና</w>":6941,"ለመኖር</w>":6942,"መፍታት</w>":6943,"ይሻላል</w>":6944,"አስተባባሪ</w>":6945,"የሚያን":6946,"አሳሳቢ</w>":6947,"አስተዳደርና</w>":6948,"መጠ</w>":6949,"ቀረት</w>":6950,"ጓጓ":6951,"ከቀረ":6952,"በመጪው</w>":6953,"ኢንተርኔት</w>":6954,"ነገረ</w>":6955,"ደርሶ</w>":6956,"አድርጐ</w>":6957,"የመሰረ":6958,"በደረ":6959,"በዝርዝር</w>":6960,"እባክ":6961,"ወደኋላ</w>":6962,"ስተዋወቅ</w>":6963,"ሙትን</w>":6964,"የቀረበው</w>":6965,"ኛዎቹ</w>":6966,"ያስቀ":6967,"አልበ":6968,"ረዱት</w>":6969,"ጉድለት</w>":6970,"ዊውን</w>":6971,"ይወጣ":6972,"ሜዳል":6973,"ጭበር":6974,"ዘርጋት</w>":6975,"ጠናከረ</w>":6976,"ልቦና</w>":6977,"ሴት":6978,"እጁን</w>":6979,"ይሉ":6980,"መምጣቱን</w>":6981,"ፍልስፍና</w>":6982,"ቅራ":6983,"ቢባል</w>":6984,"ባዶ</w>":6985,"የቆየው</w>":6986,"ቃይ</w>":6987,"ቢሮው</w>":6988,"ሊቀመንበር</w>":6989,"ማኝ</w>":6990,"ህብረተሰብ</w>":6991,"በጥቅ":6992,"ጠይቀዋል</w>":6993,"ዓለማ":6994,"ለማድረ":6995,"ለጥ</w>":6996,"ለሪፖርተር</w>":6997,"በሊ":6998,"ኑና</w>":6999,"ነገረው</w>":7000,"ለመቅረፍ</w>":7001,"ረኝ</w>":7002,"ቅጣ":7003,"ተናገ":7004,"የሀገር</w>":7005,"ድርቁ</w>":7006,"በስብ":7007,"አንበሳ</w>":7008,"መኛ</w>":7009,"ባይሆ":7010,"ተዋና":7011,"እንዲኖረው</w>":7012,"መስማት</w>":7013,"በላቸው</w>":7014,"ጉና</w>":7015,"ገብረ</w>":7016,"ሳይንሳዊ</w>":7017,"ሆኑና</w>":7018,"ወሰዱ</w>":7019,"ድምፃ":7020,"ገኛለች</w>":7021,"ጎልበት</w>":7022,"የሚን":7023,"ስላሚክ</w>":7024,"ተላለፍ</w>":7025,"በሕዝብ</w>":7026,"ተሾ":7027,"ክፈል</w>":7028,"እንዳን":7029,"ጨርሶ</w>":7030,"ዋነኛው</w>":7031,"መልዕክ":7032,"በሻ</w>":7033,"የኪ":7034,"በመግባት</w>":7035,"ባለሙያዎችን</w>":7036,"ተጠበቀ</w>":7037,"ሕገወጥ</w>":7038,"ምረጥ</w>":7039,"ቢራ</w>":7040,"ዳም</w>":7041,"ትላለች</w>":7042,"ከኢ":7043,"ጣሚ</w>":7044,"ለበርካታ</w>":7045,"በሀ":7046,"ረገ":7047,"ስቲ</w>":7048,"ግባባት</w>":7049,"ማቅረ":7050,"ዘነ":7051,"አብራርተዋል</w>":7052,"በተቀ":7053,"ሊያሳ":7054,"የሕዝ":7055,"የሁለቱ</w>":7056,"ይስተዋ":7057,"ኢትዮጵያም</w>":7058,"ስራውን</w>":7059,"ጨለማ</w>":7060,"ለሚያ":7061,"የሀ":7062,"የመነ":7063,"ብነት</w>":7064,"ንጀ":7065,"የራሳቸው</w>":7066,"እንክብካቤ</w>":7067,"ርብርብ</w>":7068,"በፍቅር</w>":7069,"ጭና</w>":7070,"ፀው</w>":7071,"ግብዓት</w>":7072,"ሄዳ":7073,"በተገቢው</w>":7074,"አለሁ</w>":7075,"ሁኔታዎችን</w>":7076,"ተመልካ":7077,"ሃድሶ</w>":7078,"ሬሽኑ</w>":7079,"በከተማ</w>":7080,"በህዝብ</w>":7081,"ካሜ":7082,"አልጋ</w>":7083,"መሥዋዕት</w>":7084,"ክሱ</w>":7085,"ድቡ</w>":7086,"ጥርጣ":7087,"በጽ":7088,"ኛቸው</w>":7089,"ላና</w>":7090,"ሎጂ</w>":7091,"ዘመድ</w>":7092,"መንስኤ</w>":7093,"ህዝቡን</w>":7094,"በዘላ":7095,"ሲቀ":7096,"ከ200":7097,"የነበሩትን</w>":7098,"ካለፈው</w>":7099,"አገልጋዮች</w>":7100,"ኮችን</w>":7101,"ደበት</w>":7102,"መረጡ</w>":7103,"ማድረጉ</w>":7104,"ተጨዋቾች</w>":7105,"ለግ":7106,"ዳኝ</w>":7107,"ጥረው</w>":7108,"ፐር":7109,"ፈጸመው</w>":7110,"ጫወቱ</w>":7111,"ሊታ":7112,"በቁጥጥር</w>":7113,"የተራ":7114,"ገንዘብና</w>":7115,"የትራፊክ</w>":7116,"ሰበው</w>":7117,"ያህሉ</w>":7118,"ማስረጃ":7119,"ባለሙያው</w>":7120,"መኖራቸውን</w>":7121,"አውሮፓ":7122,"ቃወም</w>":7123,"ፈጥር</w>":7124,"የተናገረው</w>":7125,"አብዮት</w>":7126,"ረብ":7127,"ስነ":7128,"የኢየሱስ</w>":7129,"ድርን</w>":7130,"አያ</w>":7131,"የተመሠረተ</w>":7132,"ጠብቁ</w>":7133,"ዕውቅና</w>":7134,"የእንግሊዝ</w>":7135,"ዘነጋ":7136,"እንዲኖ":7137,"ፌደራል</w>":7138,"በሁለቱም</w>":7139,"ተቆጥ":7140,"ክትት":7141,"ልባቸው</w>":7142,"ሲደርስ</w>":7143,"የአፈ":7144,"የአቅም</w>":7145,"ኮንዶ":7146,"ለበ":7147,"ለእ":7148,"በኞች</w>":7149,"በሩን</w>":7150,"ኢኮኖሚው</w>":7151,"ኢንቨስትመን":7152,"መቀበል</w>":7153,"ፀጥታ</w>":7154,"የበለ":7155,"ሚንቶ</w>":7156,"አቋር":7157,"ዋጋ":7158,"ትራምፕ</w>":7159,"ማነስ</w>":7160,"እጥፍ</w>":7161,"ጭማሪ</w>":7162,"ክልላዊ</w>":7163,"ቀጠሮ</w>":7164,"ለትን</w>":7165,"ሲቲ</w>":7166,"የኩ":7167,"ስለሌ":7168,"17":7169,"ራቱ</w>":7170,"ያዎችን</w>":7171,"ለመድረስ</w>":7172,"የምስ":7173,"ስፖን":7174,"ማኅበራት</w>":7175,"ዎት</w>":7176,"ደደ</w>":7177,"ሰማው</w>":7178,"ሐዋርያው</w>":7179,"አምልኮ</w>":7180,"ሸለ":7181,"በእርስ</w>":7182,"ቻይ":7183,"ግራም</w>":7184,"በ2007</w>":7185,"ተኞቹ</w>":7186,"የብር</w>":7187,"አስገንዝ":7188,"የኢን":7189,"ገለል":7190,"ተወላ":7191,"አልቀረም</w>":7192,"መታየት</w>":7193,"ሩኝ</w>":7194,"ታክስ</w>":7195,"በረክ":7196,"ሙስሊ":7197,"ኔት":7198,"ያዝ":7199,"ቀጥሉ</w>":7200,"ኮርፖሬሽን</w>":7201,"ታሳቢ</w>":7202,"ኤምባ":7203,"የመሠረ":7204,"ላቱ</w>":7205,"ረስ</w>":7206,"ከእኛ</w>":7207,"ዕድ</w>":7208,"የተገኙ</w>":7209,"ተጠቀ":7210,"ታሪካ":7211,"ሰቀ":7212,"የእርስ</w>":7213,"ሀል</w>":7214,"መራው</w>":7215,"የተባሉት</w>":7216,"መጠቀ":7217,"የህይወት</w>":7218,"ያስፈልጋ":7219,"ማርቆስ</w>":7220,"ተግባራትን</w>":7221,"የኔ</w>":7222,"መንግሥትና</w>":7223,"በልዩ</w>":7224,"ሪያዎችን</w>":7225,"ትንቢት</w>":7226,"በገንዘብ</w>":7227,"አእም":7228,"ብሔሮች</w>":7229,"ማስታወቂያ</w>":7230,"ሲን":7231,"ኦር":7232,"ኮም</w>":7233,"በአውሮፓ</w>":7234,"የሚመጡ</w>":7235,"ከተሞ":7236,"በሕገ</w>":7237,"የታወቀ</w>":7238,"አስከባ":7239,"ስላለው</w>":7240,"ዩናይትድ</w>":7241,"ሰዎችም</w>":7242,"ሽብር</w>":7243,"ንታ</w>":7244,"ይግባ":7245,"ዴል</w>":7246,"ከቤት</w>":7247,"እሁድ</w>":7248,"አምባገነ":7249,"ይይት</w>":7250,"ዳኞች</w>":7251,"የሚደረ":7252,"መንግስታዊ</w>":7253,"ባለመሆኑ</w>":7254,"መዋቅር</w>":7255,"ተሳታፊዎች</w>":7256,"ቶቻቸውን</w>":7257,"ከሳ":7258,"ፈቱ</w>":7259,"ብሄረሰ":7260,"ዘወትር</w>":7261,"ሰፍ":7262,"አስፋ":7263,"ተቀብሎ</w>":7264,"ሃይማኖታዊ</w>":7265,"ሌላውን</w>":7266,"አልቻሉም</w>":7267,"እለት</w>":7268,"እንቁ":7269,"ግንብ</w>":7270,"ልጆችን</w>":7271,"ቆይተዋል</w>":7272,"ይዞታ</w>":7273,"ሜጋ</w>":7274,"ከልብ</w>":7275,"ደዱ</w>":7276,"ለመጠበቅ</w>":7277,"እርካ":7278,"ኃላፊው</w>":7279,"ወስዶ</w>":7280,"መደረጉን</w>":7281,"es</w>":7282,"ምሕ":7283,"ኢሳይያስ</w>":7284,"የፍርድ</w>":7285,"ድካ":7286,"የተገኘ</w>":7287,"ተልዕኮ</w>":7288,"ነገሩን</w>":7289,"ምዕራብ</w>":7290,"ኢዮብ</w>":7291,"ሙያ":7292,"በጠ":7293,"ነጻ":7294,"ማኅበራዊ</w>":7295,"ውያኑ</w>":7296,"የያዘ":7297,"ልማትን</w>":7298,"ወቅትም</w>":7299,"በረሰ":7300,"ስታድ":7301,"ዕቃ":7302,"ወዳጄ</w>":7303,"ለቱ</w>":7304,"አሽ":7305,"ወጣቶችና</w>":7306,"ተስማም":7307,"የቻለው</w>":7308,"ኢያ":7309,"ካሔ":7310,"ዑዲ</w>":7311,"የሆነችው</w>":7312,"እኛን</w>":7313,"ባይኖ":7314,"ክላ":7315,"ገቢ":7316,"ገቡት</w>":7317,"ፋሪ</w>":7318,"ለመናገር</w>":7319,"በምዕራ":7320,"ያቀ":7321,"ወዳደር</w>":7322,"ከላከልና</w>":7323,"ቱሪስት</w>":7324,"ልባ":7325,"ውቅ</w>":7326,"መዘገበው</w>":7327,"ራዕይ</w>":7328,"65</w>":7329,"ቀቁ</w>":7330,"የወረ":7331,"ታቸውና</w>":7332,"ጉር":7333,"ጥላ</w>":7334,"የተውጣጡ</w>":7335,"አሳዛ":7336,"ከአራት</w>":7337,"ኤልያስ</w>":7338,"ማሻሻያ</w>":7339,"መምጣት</w>":7340,"አህመድ</w>":7341,"ቲያ</w>":7342,"ጉል":7343,"ፈለጉ</w>":7344,"ማኔ":7345,"የሁለት</w>":7346,"ልጆቻቸውን</w>":7347,"የእና":7348,"አገዛዝ</w>":7349,"አዳማ</w>":7350,"ላምና</w>":7351,"ሙስ</w>":7352,"ቆሮ":7353,"በነፃነት</w>":7354,"ኛዋ</w>":7355,"ወዲያ</w>":7356,"ኑፋክቸሪንግ</w>":7357,"ላለው</w>":7358,"ዕቅዱ</w>":7359,"ንጉሠ</w>":7360,"መፃ":7361,"ሻቸው</w>":7362,"አፍ</w>":7363,"ግብረ</w>":7364,"ደመወዝ</w>":7365,"ing</w>":7366,"ለብዙ</w>":7367,"መቆጣጠር</w>":7368,"ቅበት</w>":7369,"የከተማው</w>":7370,"በአራት</w>":7371,"ግብና</w>":7372,"በየቀኑ</w>":7373,"መሐመድ</w>":7374,"ወታ":7375,"ጎና":7376,"በትግራይ</w>":7377,"ሰሞን</w>":7378,"መቋቋም</w>":7379,"ሺዎች</w>":7380,"ሆቴሎች</w>":7381,"ተካሂ":7382,"ይቀር":7383,"የሚጠይቅ</w>":7384,"በሰሜን</w>":7385,"ደንበኞች</w>":7386,"ሪያም</w>":7387,"ባባ</w>":7388,"ደፍ":7389,"ማማ</w>":7390,"ረድ</w>":7391,"በሀገር</w>":7392,"ቡክ</w>":7393,"ታየው</w>":7394,"አፈር</w>":7395,"ስፋፋ</w>":7396,"የእድገትና</w>":7397,"የሚመለከታቸው</w>":7398,"ሪያቸው</w>":7399,"የለኝም</w>":7400,"ትርጉ":7401,"ሶቹ</w>":7402,"ዳም":7403,"ግብዓ":7404,"ባይሆንም</w>":7405,"ክሌ":7406,"የፈረን":7407,"ጋችሁ</w>":7408,"የተደረ":7409,"ለመቀበል</w>":7410,"ኢንዱስትሪዎች</w>":7411,"ይሄዳል</w>":7412,"ታም":7413,"ፈረስ</w>":7414,"ስርጭት</w>":7415,"ወጥተው</w>":7416,"48</w>":7417,"የሚያረጋግ":7418,"በምሳ":7419,"መዘግ":7420,"it":7421,"መባ":7422,"ስቷል</w>":7423,"ጅማ</w>":7424,"እየሰራ":7425,"ማስከበር</w>":7426,"ማንሳት</w>":7427,"ቋንቋዎች</w>":7428,"ስርዓቱ</w>":7429,"ጉባዔው</w>":7430,"ነቶችን</w>":7431,"ቀበሉ</w>":7432,"አሉላ</w>":7433,"an</w>":7434,"ብረ</w>":7435,"ኛን</w>":7436,"አብረን</w>":7437,"ክፍተቶች</w>":7438,"ይዛ":7439,"የተሟላ</w>":7440,"አልሸ":7441,"አድርጌ</w>":7442,"የሚሰሩ</w>":7443,"ደጋፊዎች</w>":7444,"መሃል</w>":7445,"በዋነ":7446,"በቅድሚያ</w>":7447,"አቃ":7448,"መንደ":7449,"ሜት</w>":7450,"ሳለች</w>":7451,"ችን":7452,"ፍታ":7453,"የደን</w>":7454,"ሁና</w>":7455,"ሶስተኛ</w>":7456,"በጊዜ</w>":7457,"at":7458,"ነቴ</w>":7459,"ማድረጉን</w>":7460,"ተጋላ":7461,"አራተኛ</w>":7462,"ድረው</w>":7463,"ሐዋርያት</w>":7464,"ያላትን</w>":7465,"ተመልሶ</w>":7466,"ሆንኩ</w>":7467,"ገኝበት</w>":7468,"መዘጋጀ":7469,"ሥነ":7470,"ከትናንት</w>":7471,"መረጃዎችን</w>":7472,"ለይ</w>":7473,"ከ20</w>":7474,"ስኳር</w>":7475,"ቶም</w>":7476,"መቅደ":7477,"እየታየ</w>":7478,"ናይጄሪያ</w>":7479,"ቆን":7480,"ተከፍ":7481,"የፍቅር</w>":7482,"ቀርቦ</w>":7483,"ተመልካች</w>":7484,"ቁበት</w>":7485,"በግብርና</w>":7486,"ብላችሁ</w>":7487,"አአ</w>":7488,"በህግ</w>":7489,"ንቶስ</w>":7490,"የነዳጅ</w>":7491,"ይገልፃሉ</w>":7492,"75</w>":7493,"ለነገሩ</w>":7494,"መበት</w>":7495,"በንግድ</w>":7496,"ያደረግ":7497,"ምልልስ</w>":7498,"የኢፌዴሪ</w>":7499,"ማስጠንቀቂያ</w>":7500,"ድንገተኛ</w>":7501,"መዝ</w>":7502,"ናሽ</w>":7503,"የር":7504,"የሙ</w>":7505,"ጭብ":7506,"ሂሳብ</w>":7507,"ኅንነት</w>":7508,"አደርጋ":7509,"ስቲቫ":7510,"ፈተሽ</w>":7511,"ባሕር</w>":7512,"ለውጭ</w>":7513,"ገፅ</w>":7514,"ለአገሪቱ</w>":7515,"መባ</w>":7516,"ተላ":7517,"እፈልጋ":7518,"በተወሰነ</w>":7519,"ለመሄድ</w>":7520,"የከተማዋ</w>":7521,"ሁለን":7522,"የገጠ":7523,"ጡረታ</w>":7524,"በተፈጥሮ</w>":7525,"ዘርግ":7526,"ጥያቄው</w>":7527,"41</w>":7528,"ናውያን</w>":7529,"የሴት</w>":7530,"ጠራ</w>":7531,"በአዲሱ</w>":7532,"ዚህች</w>":7533,"ማለቴ</w>":7534,"የመሳሰሉት</w>":7535,"ፈላጊ</w>":7536,"ሞና</w>":7537,"ስኮ</w>":7538,"ፋጠን</w>":7539,"የተነሳ":7540,"የሚያስከት":7541,"ማውጣት</w>":7542,"በአንፃ":7543,"በመድረ":7544,"ያለፈ</w>":7545,"ረጋጋ</w>":7546,"ac":7547,"መድረስ</w>":7548,"ቅዳሜ</w>":7549,"እጃ":7550,"ዋም</w>":7551,"እንዲቀጥል</w>":7552,"ባለሥልጣኑ</w>":7553,"ንጹሕ</w>":7554,"Th":7555,"በሪያ</w>":7556,"በነበረበት</w>":7557,"ታግ":7558,"ትዳ":7559,"ኩትን</w>":7560,"ፆች</w>":7561,"ውስጥና</w>":7562,"ከተሉ</w>":7563,"ሕዝባዊ</w>":7564,"ስንል</w>":7565,"ይቻል</w>":7566,"ዜጐች</w>":7567,"የተቀናጀ</w>":7568,"ስቲክ</w>":7569,"ባልንጀ":7570,"ፕሮግራሙ</w>":7571,"እያንዳንዳቸው</w>":7572,"የተፈጠረው</w>":7573,"ሉትም</w>":7574,"መወጣት</w>":7575,"የስብ":7576,"በቅን":7577,"ኢንጂነ":7578,"ዋሪ</w>":7579,"ጎንደር</w>":7580,"ያለበትን</w>":7581,"ወሰደ</w>":7582,"አሳይቷል</w>":7583,"ማከናወን</w>":7584,"ሰበ</w>":7585,"ቁሟል</w>":7586,"ግሩም</w>":7587,"የአለም</w>":7588,"የአትሌቲክስ</w>":7589,"ስሙኝማ</w>":7590,"ምረው</w>":7591,"ትገኛለች</w>":7592,"ያስታወ":7593,"የጥራት</w>":7594,"አረንጓዴ</w>":7595,"እንደሌለ</w>":7596,"ስላለ":7597,"ውኃ":7598,"ቀጣይነት</w>":7599,"የጥበብ</w>":7600,"ጮችን</w>":7601,"ለመቆጣጠር</w>":7602,"2015</w>":7603,"43</w>":7604,"ህል</w>":7605,"ቢሆኑም</w>":7606,"ኤም</w>":7607,"የሃ":7608,"ጾች</w>":7609,"የመኖሪያ</w>":7610,"ጠናከ":7611,"መዛሙርቱ</w>":7612,"በነገራችን</w>":7613,"ባልና</w>":7614,"አሟ":7615,"ዓቃቤ</w>":7616,"ለመርዳት</w>":7617,"አልያም</w>":7618,"ከብር</w>":7619,"ደሞ":7620,"ምታ</w>":7621,"ፌስቲቫ":7622,"የማዕ":7623,"ስተካከ":7624,"ሚስተር</w>":7625,"ነቃ":7626,"እንዲታ":7627,"የሰጠ":7628,"ይታመናል</w>":7629,"ለይቶ</w>":7630,"ለሙ</w>":7631,"የለውጥ</w>":7632,"ጨብ":7633,"የተመሰረተ</w>":7634,"ለመግ":7635,"የፀጥታ</w>":7636,"ምጣቱ</w>":7637,"ብቸኛ</w>":7638,"አምጥ":7639,"ግልፅ</w>":7640,"ተረድ":7641,"ጋብቻ</w>":7642,"ተቋማትን</w>":7643,"ርያው</w>":7644,"በሀገራችን</w>":7645,"አሥ":7646,"ያደረገ":7647,"የተሰኘ</w>":7648,"አስደሳች</w>":7649,"ሎና</w>":7650,"ሰፈ":7651,"በዓይ":7652,"ባልደረ":7653,"የሚመራው</w>":7654,"ሳምንታት</w>":7655,"አቤቱታ</w>":7656,"በፍርድ</w>":7657,"ፋቸውን</w>":7658,"ሱትን</w>":7659,"ፅን":7660,"በመገንባት</w>":7661,"እያደረ":7662,"የወጣ</w>":7663,"ያመለክታሉ</w>":7664,"ነቢ":7665,"የቱሪዝም</w>":7666,"ምርቶችን</w>":7667,"ታሪኩ</w>":7668,"ጠባቂ</w>":7669,"ጎረቤት</w>":7670,"በጥንቃቄ</w>":7671,"ቁጠባ</w>":7672,"al":7673,"ሲሄድ</w>":7674,"ቻላቸው</w>":7675,"ይሞ":7676,"ዳቦ</w>":7677,"ድሮ":7678,"የሚካሄደው</w>":7679,"ስርአት</w>":7680,"ቀጣዩ</w>":7681,"ከፋፈል</w>":7682,"ለአዲስ</w>":7683,"ማደ":7684,"ተና</w>":7685,"ሳይሆኑ</w>":7686,"አማራ</w>":7687,"በጥሩ</w>":7688,"ግልጽ":7689,"እአአ</w>":7690,"ዕዳ</w>":7691,"የሻ":7692,"የፍትህ</w>":7693,"ገናል</w>":7694,"መለክት</w>":7695,"መገኘት</w>":7696,"ለና</w>":7697,"ቆሙ</w>":7698,"መንገደ":7699,"ስፖርታዊ</w>":7700,"ነፃፀ":7701,"መቻቸት</w>":7702,"ከፋፈ":7703,"ራችንን</w>":7704,"ዳኛ</w>":7705,"ጠረጴ":7706,"ይጠቀሳሉ</w>":7707,"ዘገባዎች</w>":7708,"መሻሻል</w>":7709,"ሞገስ</w>":7710,"የተያያዘ</w>":7711,"የበጀት</w>":7712,"ሁለንተና":7713,"16":7714,"በምን":7715,"ነቷን</w>":7716,"ዋለን</w>":7717,"ዜግ":7718,"ዝማች</w>":7719,"በ5":7720,"ኬሚ":7721,"ዩበት</w>":7722,"ምሳሌ":7723,"ደረጃውን</w>":7724,"እፈልጋለሁ</w>":7725,"ro":7726,"ተፍ</w>":7727,"ገናኘት</w>":7728,"ሲገባ</w>":7729,"ወግ</w>":7730,"ጎድ":7731,"መርሐ</w>":7732,"ኛም</w>":7733,"ኞችና</w>":7734,"ግፊት</w>":7735,"ጣና</w>":7736,"ፈራረ":7737,"አመቺ</w>":7738,"መጣሉ</w>":7739,"የቻለ</w>":7740,"መደረግ</w>":7741,"ዑስ</w>":7742,"አስቀድ":7743,"ሥራቅ</w>":7744,"ራረብ</w>":7745,"በመጥቀስ</w>":7746,"ልምና</w>":7747,"መገንዘብ</w>":7748,"ሽንና</w>":7749,"ኮሪያ</w>":7750,"በመታ":7751,"የሚያጋጥ":7752,"በፖለቲካ</w>":7753,"የክብር</w>":7754,"የመከላከያ</w>":7755,"እናንተም</w>":7756,"ሳንቲም</w>":7757,"ምሩክ</w>":7758,"ሙላት</w>":7759,"ወተት</w>":7760,"የከፍተኛ</w>":7761,"አይቪ</w>":7762,"የዘር</w>":7763,"ጀምረው</w>":7764,"ዎቹም</w>":7765,"መሣሪያዎች</w>":7766,"ድብ":7767,"ፎቶ":7768,"በሚካሄደው</w>":7769,"ግለሰቡ</w>":7770,"በማሳደግ</w>":7771,"በከተማው</w>":7772,"ቢሎን</w>":7773,"ከፋ</w>":7774,"የጠየ":7775,"የአቶ</w>":7776,"በርክ":7777,"በቀጣዩ</w>":7778,"ጦርነቱ</w>":7779,"ባትና</w>":7780,"ከሌላው</w>":7781,"የዞኑ</w>":7782,"ለጠነ</w>":7783,"ያስረዳል</w>":7784,"ሁበት</w>":7785,"ሱዳ":7786,"ቆመ</w>":7787,"ቻለም</w>":7788,"ገኙም</w>":7789,"ጉድጓድ</w>":7790,"ኦዲ":7791,"ይር":7792,"ጎል</w>":7793,"መስመ":7794,"በሚቀጥለው</w>":7795,"ተከሳ":7796,"የሚችሉት</w>":7797,"መፅሐ":7798,"አውጥቶ</w>":7799,"ፍላጐት</w>":7800,"ነታችንን</w>":7801,"የክልል</w>":7802,"ለመቋቋም</w>":7803,"የተሳሳተ</w>":7804,"ሕንፃ</w>":7805,"ሥጋ":7806,"ተጣ":7807,"የእምነት</w>":7808,"የሚውል</w>":7809,"በማስገባት</w>":7810,"ድንጋጌ":7811,"በአማካይ</w>":7812,"ሕንፃ":7813,"ሪያን</w>":7814,"ባቸውና</w>":7815,"ክፍሉ</w>":7816,"መኖሩ</w>":7817,"አረጋግጧል</w>":7818,"የከተማ":7819,"ጽንፈ":7820,"ጠቁሟል</w>":7821,"እህት</w>":7822,"ልውውጥ</w>":7823,"በሴ":7824,"የዚህን</w>":7825,"ፍል</w>":7826,"በቀስ</w>":7827,"የበጎ</w>":7828,"ድልድ":7829,"በስራ</w>":7830,"የዕለት</w>":7831,"ፈበት</w>":7832,"ሆንበት</w>":7833,"የሚደርሱ</w>":7834,"አክብሮት</w>":7835,"es":7836,"ደች</w>":7837,"ዲዮ":7838,"ከተቀ":7839,"በአለም</w>":7840,"ጥያቄዎችን</w>":7841,"ወያየት</w>":7842,"የመጀመሪያውን</w>":7843,"ሟቸው</w>":7844,"አደራ</w>":7845,"አትክል":7846,"አውቃለሁ</w>":7847,"44</w>":7848,"ed</w>":7849,"ዶና":7850,"አንተን</w>":7851,"መለወጥ</w>":7852,"መሆኗ</w>":7853,"ቆይቶ</w>":7854,"አድርጎታል</w>":7855,"46</w>":7856,"ልክ":7857,"ስበት</w>":7858,"የማይገ":7859,"ሀገሮች</w>":7860,"የስኳር</w>":7861,"አጋማሽ</w>":7862,"ስልት</w>":7863,"ኪሳራ</w>":7864,"ሦስቱ</w>":7865,"ንደን</w>":7866,"የሞት</w>":7867,"ያኑ</w>":7868,"በስቲያ</w>":7869,"ከንቲባ</w>":7870,"ለአፍሪካ</w>":7871,"ልሽ</w>":7872,"ቆሻሻ</w>":7873,"በቀድ":7874,"የስነ</w>":7875,"አፍቃ":7876,"አንድዬ</w>":7877,"መላክ":7878,"ስጤ":7879,"ይለያ":7880,"እንዲወጡ</w>":7881,"ምርታማ":7882,"በጥልቀት</w>":7883,"ጠንቅ":7884,"ቤትና</w>":7885,"ድነት</w>":7886,"የሚያግ":7887,"የብድር</w>":7888,"ፅንፈ":7889,"እንዲኖራቸው</w>":7890,"ለመወጣት</w>":7891,"ተሰማር":7892,"መረጋጋት</w>":7893,"የሌሎች</w>":7894,"የዕድሜ</w>":7895,"ጥል</w>":7896,"አልባ":7897,"በልጡ</w>":7898,"ፈታኝ</w>":7899,"መነሳ":7900,"ምቱ</w>":7901,"ይነሳ":7902,"የሚጠበቅ":7903,"ለመውሰድ</w>":7904,"የመሆን</w>":7905,"የጥናት</w>":7906,"የሙስና</w>":7907,"አፍሪካውያን</w>":7908,"ብዙውን</w>":7909,"ማምረት</w>":7910,"ማጠናከር</w>":7911,"ጠያ":7912,"የሚጋ":7913,"ጠናቀቁ</w>":7914,"አይሁዳውያን</w>":7915,"መቁ":7916,"ምስራቅ</w>":7917,"198":7918,"ውብ</w>":7919,"ዮኖች</w>":7920,"ይጠበቅባቸዋል</w>":7921,"ያዊና</w>":7922,"ማስተር</w>":7923,"በውስጡ</w>":7924,"ኢንጂነር</w>":7925,"0ሺ</w>":7926,"ሌላም</w>":7927,"ጎር":7928,"ጓቸው</w>":7929,"አይቀ":7930,"ጠይቀው</w>":7931,"ሜዳው</w>":7932,"ሻለሁ</w>":7933,"ናዳ</w>":7934,"በተባለው</w>":7935,"የሰፈ":7936,"ሪያል</w>":7937,"ሊያደር":7938,"በዘላቂነት</w>":7939,"97</w>":7940,"ቀቀ</w>":7941,"በታሪክ</w>":7942,"ተቆጣ":7943,"ኦል</w>":7944,"ሰማያዊ</w>":7945,"አደጋዎች</w>":7946,"ማዕከላት</w>":7947,"ተሾመ</w>":7948,"ቃለች</w>":7949,"ቶችንና</w>":7950,"ንፁ":7951,"ጃን":7952,"የመጡት</w>":7953,"ለህ":7954,"ላታል</w>":7955,"ራትና</w>":7956,"ነሰ</w>":7957,"ማርኛ</w>":7958,"ማስተዋል</w>":7959,"ሲናገር</w>":7960,"ሹም</w>":7961,"የመን":7962,"ፅሁፍ</w>":7963,"መናገ":7964,"ረዱ</w>":7965,"ይለ":7966,"በተጓ":7967,"ጊዜና</w>":7968,"ያሳስ":7969,"ደረገላቸው</w>":7970,"ቆመው</w>":7971,"ነዳጅ</w>":7972,"ኤን</w>":7973,"የሚችለውን</w>":7974,"ልጁን</w>":7975,"ለውጦች</w>":7976,"ብሄር</w>":7977,"ርሽ":7978,"ዳጊ</w>":7979,"እንዲችሉ</w>":7980,"መስተ":7981,"ታወቂያ</w>":7982,"የትግራይ</w>":7983,"የቆየ</w>":7984,"ለተለያዩ</w>":7985,"ፈጽም</w>":7986,"ጥሎ</w>":7987,"ተጠቃሚዎች</w>":7988,"ስላሴ</w>":7989,"ጡር</w>":7990,"መስፍን</w>":7991,"ኛለን</w>":7992,"የያዘው</w>":7993,"እንባ</w>":7994,"ፈጠረ":7995,"የራስ</w>":7996,"ተጠያቂነት</w>":7997,"ሙኒኬሽን</w>":7998,"ለሌላ</w>":7999,"መተ":8000,"የእስ":8001,"እንደሚከተለው</w>":8002,"ማስጨበ":8003,"ደረሰበት</w>":8004,"ቆሮንቶስ</w>":8005,"ቋር":8006,"በፌዴራል</w>":8007,"በተከታ":8008,"የአደ":8009,"እስኪ</w>":8010,"ጠቀምበት</w>":8011,"600</w>":8012,"ሥራቸውን</w>":8013,"ይሄው</w>":8014,"ሰልፍ</w>":8015,"ሰፈር</w>":8016,"ጓዙ</w>":8017,"ደህን":8018,"አስገራሚ</w>":8019,"800</w>":8020,"በሂደት</w>":8021,"ባቱ</w>":8022,"ዮሽ</w>":8023,"ስኩ</w>":8024,"በወንዶች</w>":8025,"ብክ":8026,"ይዛ</w>":8027,"የተዘጋጀ</w>":8028,"አቅሙ</w>":8029,"ራሴ</w>":8030,"በቱ</w>":8031,"የሀገሪቱ</w>":8032,"ዮሐ</w>":8033,"የተካሄደው</w>":8034,"በማውጣት</w>":8035,"ረጋጋት</w>":8036,"ሪያውን</w>":8037,"ቢቢሲ</w>":8038,"ጆር":8039,"እንዲያው</w>":8040,"ስብሰባዎች</w>":8041,"ብጥብ":8042,"በመላ</w>":8043,"ገበው</w>":8044,"መዝና":8045,"ተሸላ":8046,"ሪዎችም</w>":8047,"ሬድ</w>":8048,"ቤቴ</w>":8049,"እየሠራ</w>":8050,"ወቅና</w>":8051,"እናቴ</w>":8052,"በ2008</w>":8053,"ዎቻቸውን</w>":8054,"ዘፍጥረት</w>":8055,"ፎም</w>":8056,"የተገነ":8057,"የዘላ":8058,"ነቀ":8059,"በመንግሥ":8060,"አስፈፃሚ</w>":8061,"ውለው</w>":8062,"የዘርፉ</w>":8063,"በግልፅ</w>":8064,"የልብ</w>":8065,"ግባ</w>":8066,"ማመንጫ</w>":8067,"የአማራ</w>":8068,"ልዶ</w>":8069,"ሪፍ</w>":8070,"ሱንም</w>":8071,"ገጠር</w>":8072,"ፋይ</w>":8073,"ምስጋና</w>":8074,"ብሮ</w>":8075,"ትዋ</w>":8076,"ካርድ</w>":8077,"ሁኔታውን</w>":8078,"እንግዶች</w>":8079,"ቢታ":8080,"እጥረ":8081,"ገዙ</w>":8082,"የሚገነ":8083,"ተቀበ":8084,"ላቀል</w>":8085,"አዛዥ</w>":8086,"ኢንስቲትዩት</w>":8087,"ቃጠ":8088,"ይካሄ":8089,"ጃል</w>":8090,"የመን</w>":8091,"አድርጋ</w>":8092,"ለልማት</w>":8093,"በስ</w>":8094,"ታዊና</w>":8095,"ይጨም":8096,"እንደነበረ</w>":8097,"ይታያሉ</w>":8098,"የአመራር</w>":8099,"መኑ</w>":8100,"ቃቸውን</w>":8101,"በሸ":8102,"ተአም":8103,"ታለን</w>":8104,"ከትምህርት</w>":8105,"በመሥራት</w>":8106,"ለመውጣት</w>":8107,"አመጣ":8108,"ድንኳ":8109,"የስደ":8110,"አደርጋለሁ</w>":8111,"በሠ":8112,"የባንክ</w>":8113,"ይመለከ":8114,"አማር":8115,"ሰቅ":8116,"ፈራው</w>":8117,"ያስከት":8118,"ይሰራል</w>":8119,"አድራጎት</w>":8120,"ርማ":8121,"ሹን</w>":8122,"ናዋ</w>":8123,"እኔና</w>":8124,"ፈገግ":8125,"ሽልማ":8126,"ፊና</w>":8127,"ሰማራት</w>":8128,"መንገዱን</w>":8129,"ስፖርተኞች</w>":8130,"አፍሪካን</w>":8131,"ሩዋን":8132,"አፄ</w>":8133,"ጋች</w>":8134,"ጠጅ</w>":8135,"ጠነ</w>":8136,"ገለፃ</w>":8137,"በሃ":8138,"ተሟ":8139,"ተረት</w>":8140,"ንቱ</w>":8141,"ኪን</w>":8142,"ዎችንም</w>":8143,"ጦችን</w>":8144,"ጭንቅ":8145,"የተፋ":8146,"ከተለ</w>":8147,"እንደሚገኙ</w>":8148,"ስተን</w>":8149,"ፈጥሯል</w>":8150,"አላማ</w>":8151,"አግኝተዋል</w>":8152,"ፈንታ</w>":8153,"መኳን":8154,"ቢል</w>":8155,"ከመንግስት</w>":8156,"ያግ":8157,"ለማጥፋት</w>":8158,"ጀምረዋል</w>":8159,"ሶማሌ</w>":8160,"is</w>":8161,"ነሐሴ</w>":8162,"ንዳ":8163,"የጻ":8164,"የክል":8165,"ሰብም</w>":8166,"ዶናልድ</w>":8167,"ረችው</w>":8168,"ራም":8169,"ጥሮ</w>":8170,"ጻፍ</w>":8171,"ምናሉ</w>":8172,"ኮንትራ":8173,"የና":8174,"የገባው</w>":8175,"ጎራ</w>":8176,"የተመሠረ":8177,"የሚያቀር":8178,"አዳራ":8179,"ልቡ</w>":8180,"በእር":8181,"ጠፉ</w>":8182,"ለመታ":8183,"ወደው</w>":8184,"የነሐስ</w>":8185,"ደብዳቤ":8186,"ቆዩ</w>":8187,"ወት":8188,"ዋይ</w>":8189,"በአየር</w>":8190,"ደጋፊ</w>":8191,"የሚፈልጉ</w>":8192,"ባህርዳር</w>":8193,"ሹራንስ</w>":8194,"ሞኑ</w>":8195,"በፓ":8196,"ካክ":8197,"ውሰ":8198,"ጎዳ</w>":8199,"በቀረ":8200,"ይሆን":8201,"በህይወት</w>":8202,"በመንገድ</w>":8203,"ባሕርይ</w>":8204,"ሙሽ":8205,"ሠራበት</w>":8206,"በትን":8207,"መላእ":8208,"ተቋማቱ</w>":8209,"አስከፊ</w>":8210,"ባለማ":8211,"ችላ</w>":8212,"ኒስ</w>":8213,"የጐ":8214,"የተደረገ</w>":8215,"የመጠጥ</w>":8216,"ሰብን</w>":8217,"እንዲያ</w>":8218,"እንዲያገኝ</w>":8219,"የመስኖ</w>":8220,"ቴክኒክና</w>":8221,"ብኛል</w>":8222,"የአፍሪካ":8223,"ማንበብ</w>":8224,"ሂደቱ</w>":8225,"52</w>":8226,"ኞቹን</w>":8227,"ጭሩ</w>":8228,"ፋፊያ</w>":8229,"በእዚህ</w>":8230,"ርህ</w>":8231,"ሲናገሩ</w>":8232,"ቀድ</w>":8233,"የሚሠሩ</w>":8234,"መልአ":8235,"ጠቅሶ</w>":8236,"ማኖት</w>":8237,"አይመስልም</w>":8238,"መሃ":8239,"በዘመናዊ</w>":8240,"ኅዳር</w>":8241,"የሚሠ":8242,"ዩኒኬሽን</w>":8243,"መገመት</w>":8244,"ሩብ</w>":8245,"ከበር":8246,"ከብዙ</w>":8247,"ከ10</w>":8248,"ተሰር":8249,"ክተሮች</w>":8250,"የህዝቡን</w>":8251,"ሕመም</w>":8252,"ሥዕል</w>":8253,"መስፈርት</w>":8254,"እስከሚ":8255,"ብሔረሰቦች</w>":8256,"አጋር</w>":8257,"ወርድ</w>":8258,"ውር</w>":8259,"አስተናጋ":8260,"ተንቀሳ":8261,"55</w>":8262,"ማሸነፍ</w>":8263,"ተዛ":8264,"እጦት</w>":8265,"የሰዎች</w>":8266,"እንዲገቡ</w>":8267,"መካከልም</w>":8268,"ከሰተው</w>":8269,"የትዳር</w>":8270,"መውጣ":8271,"አጫ":8272,"ዳዎች</w>":8273,"በማኅ":8274,"ዩኒቨርስቲ</w>":8275,"እውነተኛው</w>":8276,"ከምት":8277,"የተገኙት</w>":8278,"አገራችንን</w>":8279,"ሯዊ</w>":8280,"ኙት</w>":8281,"አነጋገር</w>":8282,"የሥልጣን</w>":8283,"በተቋ":8284,"እንዳይሆን</w>":8285,"ከነማ</w>":8286,"በ3":8287,"አሽከርካ":8288,"የሚቀር":8289,"የተሳተ":8290,"የመቀ":8291,"ዓመቱን</w>":8292,"እየተከናወነ</w>":8293,"መድሃኒ":8294,"ባታል</w>":8295,"ዶችና</w>":8296,"ፅና</w>":8297,"ተርታ</w>":8298,"ጸሐፊ</w>":8299,"ሁከ":8300,"ሩንም</w>":8301,"ተካ</w>":8302,"ንገ":8303,"ይጥ":8304,"ሰም</w>":8305,"ሰሱ</w>":8306,"ቁጣ</w>":8307,"ጠባበ":8308,"ተነስተው</w>":8309,"ሁለንተናዊ</w>":8310,"ሂድ</w>":8311,"ሊሰ":8312,"እውቀ":8313,"ነጋዴ</w>":8314,"54</w>":8315,"ec":8316,"ቡዕ</w>":8317,"ውዝ":8318,"የሮ":8319,"ብራዚል</w>":8320,"ሏን</w>":8321,"ረሰብ</w>":8322,"በበርካታ</w>":8323,"ብርና</w>":8324,"እንደሆነና</w>":8325,"በማዘጋጀት</w>":8326,"ምዶ</w>":8327,"ክቡር</w>":8328,"የሚዲያ</w>":8329,"ለመግዛት</w>":8330,"የሚያከናው":8331,"ስለሚያ":8332,"ስፍራዎች</w>":8333,"ዮርክ</w>":8334,"ቫይረሱ</w>":8335,"ለማካሄድ</w>":8336,"የአዋ":8337,"ደግና</w>":8338,"ድህነትን</w>":8339,"አገራቱ</w>":8340,"መጨመር</w>":8341,"በብሔራዊ</w>":8342,"ጠም</w>":8343,"በአካል</w>":8344,"አባቶች</w>":8345,"ቀጥሏል</w>":8346,"ቢያን</w>":8347,"እሰ":8348,"ወሓ":8349,"መሰለኝ</w>":8350,"የጥፋት</w>":8351,"ተስ</w>":8352,"ከህ":8353,"ፍቱ</w>":8354,"ፎቅ</w>":8355,"በመለየት</w>":8356,"የአምስት</w>":8357,"እየሰሩ</w>":8358,"በሰፊው</w>":8359,"ታይቷል</w>":8360,"የተያያዙ</w>":8361,"በልማት</w>":8362,"በአገልግሎት</w>":8363,"አክለ":8364,"ድሬዳዋ</w>":8365,"ጠቅ</w>":8366,"የአሁኑ</w>":8367,"ክትትልና</w>":8368,"ላለመ":8369,"ጡኝ</w>":8370,"መስረት</w>":8371,"በረታታ</w>":8372,"47</w>":8373,"ዝቃ":8374,"የሚቻ":8375,"የሚመጣው</w>":8376,"እንደሚያደርግ</w>":8377,"ተመራጭ</w>":8378,"አርቲስት</w>":8379,"መከተል</w>":8380,"ምሰ":8381,"ሻውን</w>":8382,"ኔው</w>":8383,"የዕድገት</w>":8384,"ያምናሉ</w>":8385,"ጢሞ":8386,"የሚበ":8387,"የሚኖር</w>":8388,"ታወስ</w>":8389,"በዚያም</w>":8390,"መንግስትና</w>":8391,"ለገ":8392,"ብሔራት</w>":8393,"ወገኖ":8394,"እንዲሰጥ</w>":8395,"ic":8396,"ዕብራ":8397,"እንደነበሩ</w>":8398,"መስፈር":8399,"እንዳይገ":8400,"ችግኝ</w>":8401,"ወዳጆ":8402,"ተከታዮች</w>":8403,"ማረፊያ</w>":8404,"አክሲዮን</w>":8405,"ኔል</w>":8406,"የተከፈ":8407,"በሚፈለገው</w>":8408,"ተጠቅመው</w>":8409,"መፍጠ":8410,"የአይ":8411,"ድርግ</w>":8412,"ጥንካሬ</w>":8413,"እንደነበ":8414,"እንዲያሳ":8415,"በማይ":8416,"ድርጊቶች</w>":8417,"መለካከት</w>":8418,"ማጣት</w>":8419,"ከሆኑት</w>":8420,"የሚመረ":8421,"ተደርጎ":8422,"ጠናቀቀው</w>":8423,"ትምህርቱን</w>":8424,"ቶኛል</w>":8425,"አያስፈል":8426,"ሳይም</w>":8427,"op":8428,"ሎችም</w>":8429,"ኦት</w>":8430,"በመሠረ":8431,"መዘገበ</w>":8432,"አሰልጣኞች</w>":8433,"አስገንዝበዋል</w>":8434,"ቋቸው</w>":8435,"አዘጋ":8436,"ኩስ</w>":8437,"ዓለም":8438,"የወጣቶች</w>":8439,"ፎቶ</w>":8440,"ተሰብስ":8441,"እናስ":8442,"በዘንድሮው</w>":8443,"አስተያየታቸውን</w>":8444,"የጠቆሙት</w>":8445,"ዳዊ</w>":8446,"ሲዎች</w>":8447,"ፊቱ</w>":8448,"ወደዚህ</w>":8449,"የታላቁ</w>":8450,"ሥርዓቶች</w>":8451,"አሳዛኝ</w>":8452,"ሒሳብ</w>":8453,"ንጋ":8454,"ዘብ</w>":8455,"ጂዎች</w>":8456,"ጀመርኩ</w>":8457,"ሰንደቅ</w>":8458,"ቃለል</w>":8459,"እንደተሰ":8460,"አገላለ":8461,"ባበል</w>":8462,"ፓርላማው</w>":8463,"ሐኪም</w>":8464,"ቃሽ</w>":8465,"ደረጃን</w>":8466,"የተከሰተው</w>":8467,"ለቀው</w>":8468,"ትተው</w>":8469,"የሚገር":8470,"ልደ":8471,"በናል</w>":8472,"ቦን</w>":8473,"ዩሮ</w>":8474,"የሰራ":8475,"ቀጥተኛ</w>":8476,"ሻምፒዮንስ</w>":8477,"ባራክ</w>":8478,"አጉ":8479,"በተጨባጭ</w>":8480,"ዘውተ":8481,"ምኑ</w>":8482,"ቃላ":8483,"ከምን":8484,"የምንለው</w>":8485,"ቁጥራቸው</w>":8486,"ወልደ":8487,"ቢኖሩም</w>":8488,"ንጥረ</w>":8489,"ከእንግዲህ</w>":8490,"ክፈ":8491,"ይነግ":8492,"om":8493,"ሽታ</w>":8494,"በምንም</w>":8495,"በአንድነት</w>":8496,"ጐን</w>":8497,"ረዳን</w>":8498,"ከበረ</w>":8499,"ምኞት</w>":8500,"ኚዎች</w>":8501,"ያሸነ":8502,"መልሱ</w>":8503,"እናደርጋ":8504,"ሆነውን</w>":8505,"ለባቸው</w>":8506,"ማነው</w>":8507,"ባሪያ</w>":8508,"ቶና</w>":8509,"የአስተዳደር</w>":8510,"መሥረት</w>":8511,"ባህርይ</w>":8512,"ማፍራት</w>":8513,"ሲሰ":8514,"ችነት</w>":8515,"ኩራ":8516,"ጋዝ</w>":8517,"ከተባለ</w>":8518,"ግብር":8519,"ፍትሃዊ</w>":8520,"ክፋት</w>":8521,"የእነዚህ</w>":8522,"ደና":8523,"መሳሪያዎች</w>":8524,"መዝገ":8525,"ፈጽሙ</w>":8526,"ሾቹ</w>":8527,"ጎዱ</w>":8528,"ደርሶ":8529,"ምርም":8530,"እረፍት</w>":8531,"መመርያ</w>":8532,"ደጋግሞ</w>":8533,"ላላችሁ</w>":8534,"መቸ":8535,"በ2":8536,"ብራት</w>":8537,"ንዑስ</w>":8538,"ጄን</w>":8539,"የምድር</w>":8540,"አባይ</w>":8541,"ወደብ</w>":8542,"አጋጣሚዎች</w>":8543,"አድናቆት</w>":8544,"ትናገ":8545,"ዞሮ</w>":8546,"ጭቆ":8547,"አስተሳሰ":8548,"አውራ</w>":8549,"ብዛም</w>":8550,"ተፎካካሪ</w>":8551,"መስዋዕትነት</w>":8552,"የአስቸኳይ</w>":8553,"ያገኘው</w>":8554,"ጠራው</w>":8555,"ለማውጣት</w>":8556,"መጥቀስ</w>":8557,"መኖራቸው</w>":8558,"ክሌት</w>":8559,"ደረሱ</w>":8560,"ተጠቁሟል</w>":8561,"ይጠቁማል</w>":8562,"በሥነ</w>":8563,"ተቆ":8564,"ተላል":8565,"አነሳ":8566,"የዲ":8567,"ጥብቅ</w>":8568,"በመግለ":8569,"አልፈው</w>":8570,"ላውን</w>":8571,"ሸጋገር</w>":8572,"ንታዊ</w>":8573,"ከ2":8574,"እንዲፈጠር</w>":8575,"ስተናገ":8576,"ፈለገውን</w>":8577,"መልእክ":8578,"በተቃራኒው</w>":8579,"ማዎች</w>":8580,"ስፋት</w>":8581,"ይው":8582,"ገፍ</w>":8583,"ህዝብን</w>":8584,"ሰብስ":8585,"አልቻል":8586,"ኮንትራት</w>":8587,"የመሰረተ</w>":8588,"ለባ":8589,"ሚዎችን</w>":8590,"ኤፍ</w>":8591,"ከሥራ</w>":8592,"የባህር</w>":8593,"አልማ":8594,"ሰራበት</w>":8595,"ደረገበት</w>":8596,"ክብረወሰን</w>":8597,"ለጋ":8598,"ልሃል</w>":8599,"መወሰ":8600,"ሾፌ":8601,"ትግራይ</w>":8602,"ዘመን":8603,"እንዲሉ</w>":8604,"ገበሬ</w>":8605,"ፕሮግራሞች</w>":8606,"እንደምታ":8607,"አያያዝ</w>":8608,"ከመጀመ":8609,"መድህን</w>":8610,"ነባር</w>":8611,"ነባራዊ</w>":8612,"ማውያን</w>":8613,"የስ</w>":8614,"የአረ":8615,"ሥርዓተ</w>":8616,"የሚያሳየው</w>":8617,"አስተዳደርን</w>":8618,"ሚዲያዎች</w>":8619,"አቻ</w>":8620,"እብ":8621,"የወን":8622,"በች</w>":8623,"በቤተ</w>":8624,"ተባባ":8625,"ያለማ":8626,"ጂንግ</w>":8627,"ትምህርታቸውን</w>":8628,"የደረሰው</w>":8629,"ዕድሜያቸው</w>":8630,"አፈፃፀም</w>":8631,"ሜዲ":8632,"ካም":8633,"ኸኝ</w>":8634,"የምዕራ":8635,"ሠራተኛው</w>":8636,"በእኩ":8637,"እሷም</w>":8638,"መለከት":8639,"እንደማይችል</w>":8640,"አብዛኛዎቹ</w>":8641,"መሙ</w>":8642,"ሰውም</w>":8643,"ቀበት</w>":8644,"አቆጣጠር</w>":8645,"እንደውም</w>":8646,"በመደ":8647,"ይጀምራል</w>":8648,"መግዛት</w>":8649,"ማል":8650,"ሲያደርግ</w>":8651,"በዕለቱ</w>":8652,"የሚጠቁ":8653,"ስፖርቶች</w>":8654,"እንዲሰጡ</w>":8655,"ማሪያ</w>":8656,"በሰዎች</w>":8657,"ከድህነት</w>":8658,"ከናውን</w>":8659,"ሰጥተው</w>":8660,"ክምች":8661,"ለፉ</w>":8662,"ለካ</w>":8663,"ቆሞ</w>":8664,"ከጀመረ</w>":8665,"ክስ":8666,"ኮሎ":8667,"ጋዜጣዊ</w>":8668,"ሥርዓቱን</w>":8669,"አዛውን":8670,"ቱበት</w>":8671,"ዘረጋ":8672,"የከፈ":8673,"ጥንት</w>":8674,"ፀሐፊ</w>":8675,"ሴን":8676,"የቤተ</w>":8677,"ይመረ":8678,"ጀው</w>":8679,"ማስወገድ</w>":8680,"መድረኩ</w>":8681,"በቤት</w>":8682,"አጎ":8683,"የቡድን</w>":8684,"የመጨረሻው</w>":8685,"ምርና</w>":8686,"ጥቅስ</w>":8687,"ጽሑፎች</w>":8688,"ወረዳው</w>":8689,"ሐይ":8690,"ሲጀምር</w>":8691,"ኋላ":8692,"የተቀበ":8693,"በማጣ":8694,"ይሰጣሉ</w>":8695,"ኤርትራ":8696,"ነገሥታት</w>":8697,"ህገ":8698,"ሞዴል</w>":8699,"ሳታ":8700,"ቢስ</w>":8701,"ከው":8702,"እየተን":8703,"የነበራቸው</w>":8704,"የሚሰጠውን</w>":8705,"የአውሮ":8706,"ያቀረበው</w>":8707,"እንደሚያስፈልግ</w>":8708,"በግ</w>":8709,"የሚነሱ</w>":8710,"በመሆ":8711,"ከማሳ":8712,"ገብተዋል</w>":8713,"ብልሹ</w>":8714,"ሩትም</w>":8715,"ሬና</w>":8716,"ያካተ":8717,"ፉና</w>":8718,"አጋጥ":8719,"ፍረስ</w>":8720,"ይጠበቅበታል</w>":8721,"ቦርዱ</w>":8722,"ታክሲ</w>":8723,"ረር</w>":8724,"በኃይል</w>":8725,"ያቀረቡት</w>":8726,"ኗኗር</w>":8727,"ዘፈን</w>":8728,"የግብፅ</w>":8729,"በመቀጠል</w>":8730,"ኃይለ":8731,"ዝርያዎች</w>":8732,"በእስራኤል</w>":8733,"ኒስቴ":8734,"ኪዳ":8735,"የሚካሄ":8736,"በጥቂት</w>":8737,"ድርጊቱ</w>":8738,"አግኝቶ</w>":8739,"ደረግበት</w>":8740,"ትግሉ</w>":8741,"የገለፁት</w>":8742,"ሐውል":8743,"ረግ":8744,"ሳላ":8745,"ጥለው</w>":8746,"ጽሁፍ</w>":8747,"ፍየ":8748,"አደጋው</w>":8749,"መደምደ":8750,"ተከታት":8751,"ብቻም</w>":8752,"ጨምረው</w>":8753,"እርስዎ</w>":8754,"ቁትን</w>":8755,"የመኖር</w>":8756,"ግብዣ</w>":8757,"ተያያዥ</w>":8758,"እናደርጋለን</w>":8759,"ቆጠር</w>":8760,"የረጅም</w>":8761,"ረከ":8762,"ተስተ":8763,"ንታ":8764,"የፖሊሲ</w>":8765,"ጀግና</w>":8766,"እስከመ":8767,"ሰለባ</w>":8768,"ሰውነት</w>":8769,"የሚታወቀው</w>":8770,"በአንፃሩ</w>":8771,"በአገሪቷ</w>":8772,"ክፈት</w>":8773,"ዓለምን</w>":8774,"አደራ":8775,"ማዕቀፍ</w>":8776,"ማለቱ</w>":8777,"ተጠቅሞ</w>":8778,"ጋለጡ</w>":8779,"ልምምድ</w>":8780,"ብሶ":8781,"ግዥ</w>":8782,"ለማገልገል</w>":8783,"የወጪ</w>":8784,"መንግስትን</w>":8785,"ማክሰኞ</w>":8786,"ሊቀ</w>":8787,"ረኞች</w>":8788,"ቧቸው</w>":8789,"ከምንም</w>":8790,"ዝነ":8791,"የቴክኒክ</w>":8792,"ዱትን</w>":8793,"ይህች</w>":8794,"የሚሰጡት</w>":8795,"በ196":8796,"ፈተናዎች</w>":8797,"ረፍት</w>":8798,"ከ2</w>":8799,"የሚደርስ</w>":8800,"ሀገራዊ</w>":8801,"በጥናት</w>":8802,"ገኙትን</w>":8803,"ጉድለ":8804,"in</w>":8805,"ቶናል</w>":8806,"ክሮ":8807,"የበረ":8808,"ጓደኛ</w>":8809,"ክብደት</w>":8810,"በመንፈስ</w>":8811,"ሊኖረው</w>":8812,"ትሽ</w>":8813,"ኒስት":8814,"ይጋ":8815,"የማጣ":8816,"ቀርቧል</w>":8817,"በኩልም</w>":8818,"የተቀመጠ":8819,"ለመንግሥት</w>":8820,"ርማ</w>":8821,"ዕና</w>":8822,"አለና</w>":8823,"እናቱ</w>":8824,"ገዥው</w>":8825,"ከነበሩት</w>":8826,"ምርትና</w>":8827,"በሰብ":8828,"የስልጣን</w>":8829,"የጀመሩት</w>":8830,"49</w>":8831,"ቃቂ</w>":8832,"የሀገራችን</w>":8833,"ደሞ</w>":8834,"ፉትን</w>":8835,"ዓመታትን</w>":8836,"ተቋራ":8837,"የወጡ</w>":8838,"በ197":8839,"እንድትሆን</w>":8840,"እንደገለፁት</w>":8841,"ማዶ</w>":8842,"ታድ":8843,"ንቁ</w>":8844,"ዜናዊ</w>":8845,"የ20":8846,"መስፋፋት</w>":8847,"ኢኮኖሚያዊና</w>":8848,"ሰብሳቢ":8849,"ርዝ":8850,"ቢያስ":8851,"ያጠ":8852,"ውስን</w>":8853,"ከፍል</w>":8854,"ንጉሡ":8855,"ተቀምጦ</w>":8856,"ሙያዊ</w>":8857,"ኑበት</w>":8858,"እባ":8859,"እችላለ":8860,"ለሚገኙ</w>":8861,"ወላጅ</w>":8862,"ሐሳቦች</w>":8863,"አውሮፕላ":8864,"ለ0</w>":8865,"ማንን</w>":8866,"ሲካሄድ</w>":8867,"በሁለተኛ</w>":8868,"ኝነትና</w>":8869,"መምህራ":8870,"የሚገባውን</w>":8871,"ባለስልጣናት</w>":8872,"ሚዛን</w>":8873,"ጄኔራል</w>":8874,"በዋና</w>":8875,"መምራት</w>":8876,"ማቅ</w>":8877,"አመስ":8878,"ኩና</w>":8879,"ግበት</w>":8880,"ለመያዝ</w>":8881,"እየሠራ":8882,"የጎዳና</w>":8883,"ጥርጣሬ</w>":8884,"ለሥራ</w>":8885,"ባሉበት</w>":8886,"ገብቷል</w>":8887,"እናውቃለን</w>":8888,"ሊቃ":8889,"ሳችሁ</w>":8890,"ካተት</w>":8891,"ዲባባ</w>":8892,"ፃሜ</w>":8893,"ከባከብ</w>":8894,"መክፈል</w>":8895,"ዘነጋም</w>":8896,"ይጨምራል</w>":8897,"ባወጣው</w>":8898,"በሚገኝ</w>":8899,"አድርጓ":8900,"ለመን":8901,"በመቅረ":8902,"ያለሽ</w>":8903,"ሪያቸውን</w>":8904,"ኤርሚ":8905,"ምሁራ":8906,"አካዳሚ</w>":8907,"ትከ":8908,"ይዙ</w>":8909,"ይተር":8910,"እንኩ":8911,"የሚመጣ</w>":8912,"እንዲሰማ":8913,"ማስተካከ":8914,"ቀነሰ</w>":8915,"ስማቸው</w>":8916,"ቆዳ</w>":8917,"ጭም</w>":8918,"ለማፍራት</w>":8919,"በቀዳ":8920,"ቅርስ</w>":8921,"ዓይነ":8922,"አግኝቷል</w>":8923,"አንቀፅ</w>":8924,"እርካታ</w>":8925,"ረፍ</w>":8926,"ከብት</w>":8927,"ከፍታ</w>":8928,"ደጋፊ":8929,"ቫይረስ</w>":8930,"is":8931,"ሩባቸው</w>":8932,"አቢ":8933,"ከደቡብ</w>":8934,"ሰማያት</w>":8935,"መሆኑንና</w>":8936,"በገጠር</w>":8937,"ተገኝተው</w>":8938,"መስተዳድር</w>":8939,"ጩኸት</w>":8940,"ሒደ":8941,"ወኪ":8942,"ዲያው</w>":8943,"ስትሆን</w>":8944,"አስተማሪ</w>":8945,"ፍራን":8946,"የማግኘት</w>":8947,"እችላለሁ</w>":8948,"ሽት</w>":8949,"አቤት</w>":8950,"ከ30</w>":8951,"የበት</w>":8952,"እውነቱን</w>":8953,"መቻል</w>":8954,"አዎ":8955,"ይተ":8956,"ጂቡቲ</w>":8957,"ጆን</w>":8958,"ጣራ</w>":8959,"እንዲወጣ</w>":8960,"ያልፍ</w>":8961,"ዘዝ</w>":8962,"ፈች</w>":8963,"ያውያን</w>":8964,"ጠናቀቀ</w>":8965,"ወይን</w>":8966,"ዳግመኛ</w>":8967,"እባክህ</w>":8968,"በተከታታይ</w>":8969,"በድንገት</w>":8970,"ታታ":8971,"አንችልም</w>":8972,"ጀመረው</w>":8973,"ድጋፍና</w>":8974,"ማምረ":8975,"ተገን":8976,"ዞኖች</w>":8977,"ያፈ":8978,"ያለች</w>":8979,"አበራ</w>":8980,"ደብረ</w>":8981,"el":8982,"ከስድስት</w>":8983,"ይስ</w>":8984,"የተሰጠውን</w>":8985,"ያተኮረ</w>":8986,"በኦ":8987,"የኝ</w>":8988,"ጨና":8989,"ባለቤቱ</w>":8990,"እናማ</w>":8991,"በምታ":8992,"ዝምድና</w>":8993,"ጢሞቴዎስ</w>":8994,"ሲደረግ</w>":8995,"ሰጥም</w>":8996,"ግድግ":8997,"የመሰለ</w>":8998,"ምዝገባ</w>":8999,"ማብ":9000,"ሰፋ</w>":9001,"በእግ":9002,"የታቸው</w>":9003,"የወይን</w>":9004,"ላይታ</w>":9005,"በገዛ</w>":9006,"ርበት</w>":9007,"በአይ":9008,"አደረጉ</w>":9009,"ትምህርቱ</w>":9010,"ነፃፀር</w>":9011,"ትናገራለች</w>":9012,"ዲና</w>":9013,"ገዢ</w>":9014,"መቻሉን</w>":9015,"ያገኛሉ</w>":9016,"ከበረ":9017,"ጋን</w>":9018,"ጫዎችን</w>":9019,"ጉዳተኞች</w>":9020,"ክብረ</w>":9021,"የሚገልጽ</w>":9022,"መጀመር</w>":9023,"ቸር</w>":9024,"ዖን</w>":9025,"የኦሮሞ</w>":9026,"ገብር":9027,"የተመሰረ":9028,"ዘዋዋሪ</w>":9029,"የተቋቋመው</w>":9030,"ወደፊትም</w>":9031,"ተግዳሮ":9032,"ኔትወር":9033,"ታምራት</w>":9034,"የኮንስትራክሽን</w>":9035,"ፍፁም</w>":9036,"ፓርኩ</w>":9037,"ፓርኮች</w>":9038,"የተሰኘው</w>":9039,"ሠርቶ</w>":9040,"ስማማ</w>":9041,"ሲቪል</w>":9042,"ካችሁ</w>":9043,"የዛ":9044,"ምርታማነት</w>":9045,"መሄ":9046,"ታረ":9047,"ጅመንት</w>":9048,"በማጠናከር</w>":9049,"እንደሚገባም</w>":9050,"ገኘም</w>":9051,"ለማስፋፋት</w>":9052,"አካላትን</w>":9053,"ማመልከ":9054,"በሌሎችም</w>":9055,"ችአይቪ</w>":9056,"እዚሁ</w>":9057,"መስጫ</w>":9058,"መንግሥቱን</w>":9059,"አቀፋዊ</w>":9060,"በአል":9061,"አትሌቶችን</w>":9062,"ይጠቅሳሉ</w>":9063,"ለእነዚህ</w>":9064,"ከግምት</w>":9065,"የተመ":9066,"ነበርኩ</w>":9067,"ለመግለጽ</w>":9068,"ጠናቅ":9069,"ዲፕሎማሲ</w>":9070,"ይስተዋላል</w>":9071,"ሁሴን</w>":9072,"መጓዝ</w>":9073,"ሲያደርጉ</w>":9074,"ጃም</w>":9075,"መረብ</w>":9076,"በትራ":9077,"መብትና</w>":9078,"ገደል</w>":9079,"ፍልስጤ":9080,"ኦፍ</w>":9081,"አሳልፎ</w>":9082,"ተሽከርካሪዎች</w>":9083,"ወታደር</w>":9084,"The</w>":9085,"at</w>":9086,"ህልም</w>":9087,"ማገልገል</w>":9088,"ንዛ":9089,"የኅ":9090,"የሚመራ</w>":9091,"ኃላፊነቱን</w>":9092,"ቆጠብ</w>":9093,"ሻንጉ":9094,"በፀ":9095,"ኛለሁ</w>":9096,"ጎም</w>":9097,"የማት":9098,"መቆራረ":9099,"መደረጉ</w>":9100,"ሙቀት</w>":9101,"አዘጋጅ</w>":9102,"ዩትን</w>":9103,"ይገለ":9104,"በማግኘት</w>":9105,"እውነትን</w>":9106,"ዝግጅቶች</w>":9107,"ስፖርቱን</w>":9108,"ቁልቁ":9109,"ራሪ</w>":9110,"አሞ":9111,"ኪዎች</w>":9112,"ውስብስ":9113,"በማዕ":9114,"መለየት</w>":9115,"ጀመረች</w>":9116,"መንግሥትን</w>":9117,"ደረሰባቸው</w>":9118,"ሀይል</w>":9119,"የሚከተለውን</w>":9120,"ይግባኝ</w>":9121,"መብራ":9122,"አደር":9123,"ከ15</w>":9124,"ከንፈ":9125,"የዝናብ</w>":9126,"ያነጋገ":9127,"ፍበት</w>":9128,"ፕሬዚዳንትነት</w>":9129,"ምፒዩ":9130,"ተወዳዳሪዎች</w>":9131,"ክምናው</w>":9132,"ተረጋግጧል</w>":9133,"ባለሃብቶች</w>":9134,"ቃኝ</w>":9135,"ደደ":9136,"ጤን</w>":9137,"በተባበሩት</w>":9138,"ኢንቨስት</w>":9139,"የምርመራ</w>":9140,"የማህበረሰብ</w>":9141,"ለማንኛውም</w>":9142,"ኬሚካል</w>":9143,"ሕል":9144,"ከዛ":9145,"ኳት</w>":9146,"በማሸነፍ</w>":9147,"ተሰማ</w>":9148,"አለማየሁ</w>":9149,"በብቃት</w>":9150,"በግብፅ</w>":9151,"የተዛ":9152,"ማዕቀ":9153,"ወሓት</w>":9154,"ሻሊ":9155,"ጦሽ</w>":9156,"በመል":9157,"መለክተው</w>":9158,"ካርታ</w>":9159,"ሌና</w>":9160,"ኒክ</w>":9161,"የሚሠራ</w>":9162,"አስተማ":9163,"ዘመዶ":9164,"ጊዜያ":9165,"ይከፍ":9166,"አስመዝግ":9167,"መመዘ":9168,"ቃለ":9169,"ያገኙ</w>":9170,"ገም":9171,"ጤንነት</w>":9172,"በአትሌ":9173,"በየዕለቱ</w>":9174,"ለስ</w>":9175,"መል</w>":9176,"ቤቶችና</w>":9177,"ተላላ":9178,"ጎልማ":9179,"በተያዘው</w>":9180,"አይገባ":9181,"ብዙዎችን</w>":9182,"ጠየቀ</w>":9183,"ምጣኔ</w>":9184,"ውሞ</w>":9185,"አለብኝ</w>":9186,"የቢዝነስ</w>":9187,"ያስታውሳሉ</w>":9188,"ኮንዶሚኒ":9189,"ጥግ</w>":9190,"ለመፈጸም</w>":9191,"ገልጻ":9192,"የሚፈልግ</w>":9193,"ሮቻቸው</w>":9194,"አቁ":9195,"ክሪ":9196,"ያመጣ":9197,"ማውን</w>":9198,"የመኪና</w>":9199,"ሁኔታም</w>":9200,"ቀጥታ</w>":9201,"ተወያይ":9202,"ጓደኞቹ</w>":9203,"ፈቃደኝነት</w>":9204,"በድምሩ</w>":9205,"ገፅታ</w>":9206,"ባች</w>":9207,"መንድ</w>":9208,"የምናገ":9209,"ዘርፈ</w>":9210,"ተመጣ":9211,"ይጠቀሳል</w>":9212,"ሃላፊነት</w>":9213,"ህልውና</w>":9214,"ሌሊ":9215,"ቦሌ</w>":9216,"ቋቋሙ</w>":9217,"ምስል</w>":9218,"ተፈላ":9219,"መፈጸም</w>":9220,"ማደግ</w>":9221,"በኢኮኖሚ</w>":9222,"የኅብረተሰብ</w>":9223,"ol":9224,"ሆድ</w>":9225,"ይፈልጋ":9226,"ገባን</w>":9227,"ቀረቡ</w>":9228,"የሚሰራ</w>":9229,"በማሳየት</w>":9230,"ዳሴው</w>":9231,"1ኛው</w>":9232,"ልል</w>":9233,"ማእ":9234,"ማሻሻል</w>":9235,"በበቂ</w>":9236,"ባትን</w>":9237,"ዘፍ</w>":9238,"ዷቸው</w>":9239,"ጠናል</w>":9240,"ፍቅር":9241,"ግብይት</w>":9242,"የውይይት</w>":9243,"ሰቱ</w>":9244,"ሰአት</w>":9245,"በጣ":9246,"በውሃ</w>":9247,"በስፖርቱ</w>":9248,"ኚህ</w>":9249,"ኤች</w>":9250,"ጫቸው</w>":9251,"ፈንድ</w>":9252,"ፊውን</w>":9253,"ባለቤቶች</w>":9254,"ያልተገ":9255,"ባት":9256,"ቴሌኮም</w>":9257,"የማህበራዊ</w>":9258,"ተመጣጣኝ</w>":9259,"ክሲ</w>":9260,"ጆሮ":9261,"ገልገ":9262,"የማይታ":9263,"ጨርቃ</w>":9264,"ተገናኝ":9265,"ስጋ</w>":9266,"ሸና":9267,"የፈረ":9268,"ፎረም</w>":9269,"አዳም</w>":9270,"ልጅነት</w>":9271,"ሠራዊቱ</w>":9272,"ቅርና</w>":9273,"ነጋ</w>":9274,"እላለሁ</w>":9275,"ቀጥሉት</w>":9276,"የበኩሉን</w>":9277,"ክፉኛ</w>":9278,"ራትም</w>":9279,"ሯቸውን</w>":9280,"በነበ":9281,"ከ1</w>":9282,"እነማን</w>":9283,"እምብዛም</w>":9284,"ታስቦ</w>":9285,"ኦሎምፒ":9286,"ቦታ":9287,"ኖችና</w>":9288,"ከቀ":9289,"የሚመለከተው</w>":9290,"አይዘነጋም</w>":9291,"ወደተ":9292,"ውድቀት</w>":9293,"ተከናው":9294,"በርካቶች</w>":9295,"ተፈጻ":9296,"ራሴን</w>":9297,"በሶማሊያ</w>":9298,"ቻር":9299,"አታው":9300,"ጸል":9301,"የተዘጋጀው</w>":9302,"ጀምሩ</w>":9303,"ጥንታዊ</w>":9304,"ተቋማትና</w>":9305,"ለትምህርት</w>":9306,"ልታ</w>":9307,"አሪፍ</w>":9308,"ይፈጠ":9309,"ፀን</w>":9310,"አምስተኛ</w>":9311,"እየቀ":9312,"አለችው</w>":9313,"የች</w>":9314,"የሚሆኑ":9315,"ሐረር</w>":9316,"ለዓመታት</w>":9317,"እላ":9318,"ወከል</w>":9319,"የመድረ":9320,"ድርም</w>":9321,"ንጉስ</w>":9322,"በማስመዝገብ</w>":9323,"እንደሌለው</w>":9324,"ተቀምጧል</w>":9325,"ኢትዮጵያዊያን</w>":9326,"ጥላሁን</w>":9327,"ሙማን</w>":9328,"ማስ</w>":9329,"ውት":9330,"የጠቅላይ</w>":9331,"ጭን</w>":9332,"ፀዳ":9333,"መረጥ</w>":9334,"ፍርሃት</w>":9335,"በጉጉት</w>":9336,"ተፈጥሮ":9337,"ለችው</w>":9338,"በሮች</w>":9339,"ጋል":9340,"የሚሳተ":9341,"ወጣቶቹ</w>":9342,"ማህጸን</w>":9343,"መምሪያ</w>":9344,"የዓለማችን</w>":9345,"ሐኪሞች</w>":9346,"በእያንዳንዱ</w>":9347,"ከመሆን</w>":9348,"አለመኖር</w>":9349,"ሃገሪቱ</w>":9350,"ግዚቢ":9351,"ሊሰጠው</w>":9352,"መከ":9353,"ተዕለት</w>":9354,"ከእናንተ</w>":9355,"ካሪ</w>":9356,"እንደሚለው</w>":9357,"ቀውም</w>":9358,"ክንድ</w>":9359,"ፍትን</w>":9360,"በመዝ":9361,"መልሰው</w>":9362,"ያለንን</w>":9363,"ረዳቸው</w>":9364,"የፈጠረው</w>":9365,"በክልል</w>":9366,"ኪም</w>":9367,"ይለኛል</w>":9368,"ያሳያሉ</w>":9369,"ከአሜሪካ</w>":9370,"የሚያስፈልገው</w>":9371,"ቆይታ":9372,"ወጣም</w>":9373,"አድርግ</w>":9374,"ዜግነት</w>":9375,"ተጀምሯል</w>":9376,"የሄ":9377,"የቅድመ</w>":9378,"ደመቀ":9379,"ፃናት</w>":9380,"ያስገ":9381,"አቅርቧል</w>":9382,"ማጣሪያ</w>":9383,"ሞተ</w>":9384,"ይመክ":9385,"ጎልቶ</w>":9386,"በሚሊዮን</w>":9387,"ማዕከላዊ</w>":9388,"በዓሉን</w>":9389,"የባሕ":9390,"ክህሎ":9391,"ሰርቪስ</w>":9392,"ከዛሬ</w>":9393,"ጳጳ":9394,"ለማዳ":9395,"ውስጣዊ</w>":9396,"ተመልሰው</w>":9397,"ከታተሉ</w>":9398,"ቁሳቁስ</w>":9399,"ውስብስብ</w>":9400,"ሟን</w>":9401,"ከሆነው</w>":9402,"ዕጩ":9403,"የሁለ":9404,"መርከ":9405,"ከብቶች</w>":9406,"ይረዳል</w>":9407,"to</w>":9408,"ለራሱ</w>":9409,"መገን":9410,"ቃጠል</w>":9411,"ተለ":9412,"ኡጋንዳ</w>":9413,"ቀርቷል</w>":9414,"ምስክር</w>":9415,"ጋለጥ</w>":9416,"3ኛ</w>":9417,"ማዘጋጀት</w>":9418,"ፈስ</w>":9419,"ብልጫ</w>":9420,"ርዕዮ":9421,"የተቃዋሚ</w>":9422,"መጽሔት</w>":9423,"ምሕረት</w>":9424,"ልኛል</w>":9425,"ስኩ":9426,"ቅኝ</w>":9427,"ታዊው</w>":9428,"የልማትና</w>":9429,"ፋፍ":9430,"ስለሆኑ</w>":9431,"እያልን</w>":9432,"ግብሩ</w>":9433,"ገንዘቡ</w>":9434,"ገንዘቡን</w>":9435,"ወንድሙ</w>":9436,"እርምጃዎች</w>":9437,"ተደራጅተው</w>":9438,"ሣኤ</w>":9439,"ሸራ":9440,"በእነሱ</w>":9441,"ከጅ":9442,"አገልጋይ</w>":9443,"ሜዳልያ</w>":9444,"ማችሁ</w>":9445,"ረሳ":9446,"ራለሁ</w>":9447,"ኢንተርፕራይዞ":9448,"ለውና</w>":9449,"የሚናገረው</w>":9450,"በመሳሰ":9451,"እነዚህ":9452,"ያለችው</w>":9453,"ከፍለው</w>":9454,"ውድቅ</w>":9455,"ውጤታማነት</w>":9456,"አንዳንዶ":9457,"ኢንቨስተ":9458,"ልጃቸው</w>":9459,"መጀመሩን</w>":9460,"መቀመጫ</w>":9461,"እናገኛለን</w>":9462,"ኤርሚያስ</w>":9463,"ትክል":9464,"ግሮ</w>":9465,"በተጠቀ":9466,"መውሰ":9467,"አባላቱ</w>":9468,"ይሠራል</w>":9469,"ሩዋንዳ</w>":9470,"በከተሞች</w>":9471,"ኋቸው</w>":9472,"የለሽ</w>":9473,"ወንድማማ":9474,"ዳይሬክቶ":9475,"ካለፉት</w>":9476,"በቡድን</w>":9477,"ከግ":9478,"ለመጀመር</w>":9479,"በአራ":9480,"እንደሚያደር":9481,"ከበረው</w>":9482,"ለሦስት</w>":9483,"ሩታል</w>":9484,"እያልኩ</w>":9485,"ንግዱ</w>":9486,"የሰውን</w>":9487,"ቡድኑን</w>":9488,"መፍትሔ":9489,"ሰጡት</w>":9490,"በአን":9491,"ዋለች</w>":9492,"ያለብን</w>":9493,"ምርመራ":9494,"አቅራቢያ</w>":9495,"ለተሰ":9496,"ቀጥ</w>":9497,"ታትና</w>":9498,"ንሽን</w>":9499,"እማ":9500,"በተደረገ</w>":9501,"ሞክሩ</w>":9502,"ለአምስት</w>":9503,"ማመን</w>":9504,"ራሷን</w>":9505,"ዓረ":9506,"የውም</w>":9507,"የደርግ</w>":9508,"ይበት</w>":9509,"አልችልም</w>":9510,"ዮናስ</w>":9511,"ation</w>":9512,"ባበር</w>":9513,"ምክንያታዊ</w>":9514,"የቆዳ</w>":9515,"ፍቃድ</w>":9516,"ልያዎቹ</w>":9517,"ሙሉጌታ</w>":9518,"1ኛ</w>":9519,"ለእሱ</w>":9520,"በወር</w>":9521,"ባደረ":9522,"ከዛ</w>":9523,"ያረጋገ":9524,"ጐበ":9525,"መስለው</w>":9526,"ብረትና</w>":9527,"ከፈል</w>":9528,"የሚያሳዩ</w>":9529,"ኤርም":9530,"ሙዚቀ":9531,"ተመራማሪዎች</w>":9532,"የአካባቢውን</w>":9533,"የሚቆጠር</w>":9534,"ህገወጥ</w>":9535,"ለግል</w>":9536,"ሞው</w>":9537,"ሲደ":9538,"ነትንና</w>":9539,"ጠች</w>":9540,"ፍጥረ":9541,"ያስቆጠ":9542,"የሰሜን</w>":9543,"ውጤቶችን</w>":9544,"የእጅ</w>":9545,"ተረፈ</w>":9546,"የሰውነት</w>":9547,"ማቆ":9548,"ሳችን</w>":9549,"ቅጥር</w>":9550,"ከሌላ</w>":9551,"የችግሩ</w>":9552,"የማራቶን</w>":9553,"እውቀትና</w>":9554,"ውድድሮችን</w>":9555,"መንግስትም</w>":9556,"ሊኖ":9557,"ሎጂ":9558,"ሮጥ</w>":9559,"ከ50</w>":9560,"ያገኙት</w>":9561,"አገሬ</w>":9562,"ለማሟላት</w>":9563,"የመጠቀም</w>":9564,"ማስመዝገብ</w>":9565,"የወለ":9566,"በጥራት</w>":9567,"ሻሻለ</w>":9568,"ባለመኖሩ</w>":9569,"በቦታው</w>":9570,"ተጥ":9571,"አቅማቸው</w>":9572,"ምስጢር</w>":9573,"የመስጠት</w>":9574,"ማሰልጠኛ</w>":9575,"ህጻናት</w>":9576,"ሳም":9577,"ቃቅንና</w>":9578,"ነስተኛ</w>":9579,"የቱሪስት</w>":9580,"ጧት</w>":9581,"አበባና</w>":9582,"ዩኒቨርስቲ":9583,"ስታን</w>":9584,"ቢኖርም</w>":9585,"ታውቃለህ</w>":9586,"የጽ":9587,"የድርሻ":9588,"የመር":9589,"አምናለሁ</w>":9590,"ሆነችው</w>":9591,"አለመኖ":9592,"የቀረበ</w>":9593,"or</w>":9594,"መሪነት</w>":9595,"ቂና</w>":9596,"ጽፏል</w>":9597,"በመባል</w>":9598,"መንግስታ":9599,"ዘመነ</w>":9600,"አስከባሪ</w>":9601,"ዘውተሪያ</w>":9602,"ሲወጣ</w>":9603,"ተደጋጋሚ</w>":9604,"ማዕረግ</w>":9605,"ቀጠሉ</w>":9606,"አቅጣጫዎች</w>":9607,"ይፈልጋሉ</w>":9608,"ምድርን</w>":9609,"ርእ":9610,"ሻዎች</w>":9611,"ቻን</w>":9612,"ንዲ</w>":9613,"ዕጩ</w>":9614,"ያሉበት</w>":9615,"ድጉ</w>":9616,"አስቆጥ":9617,"ተገኘ</w>":9618,"ሚኒስቴሩ</w>":9619,"ቤል</w>":9620,"ታዬ</w>":9621,"አሥራ</w>":9622,"አነጋግ":9623,"የሁለተኛ</w>":9624,"የተገለ":9625,"አስተላል":9626,"ካሄዱት</w>":9627,"ይዘዋል</w>":9628,"ነግረ":9629,"ኢንስቲትዩ":9630,"መዳረሻ</w>":9631,"ሏቸዋል</w>":9632,"ወዴት</w>":9633,"ያጋጥ":9634,"ግዢ</w>":9635,"ጫዋ":9636,"ጸሎ":9637,"እንፈልጋ":9638,"አልማዝ</w>":9639,"51</w>":9640,"ቻች":9641,"እሸ":9642,"ገጹ</w>":9643,"የሚመጣ":9644,"መጠነኛ</w>":9645,"85</w>":9646,"መስ</w>":9647,"በዕድሜ</w>":9648,"ዋና":9649,"ጎርፍ</w>":9650,"ለመሳተፍ</w>":9651,"እየገ":9652,"መደበ":9653,"ችላለች</w>":9654,"ሲሰጥ</w>":9655,"ሳር</w>":9656,"የፍትሕ</w>":9657,"ፍጆ":9658,"ችግሮቹ</w>":9659,"በስተ</w>":9660,"ዝርያ</w>":9661,"መመሪያዎች</w>":9662,"ሥዕ":9663,"ሦስ":9664,"ታት":9665,"ይጠፋ":9666,"ደርሰው</w>":9667,"መድሃኒት</w>":9668,"ማም</w>":9669,"ሟሉ</w>":9670,"ራትን</w>":9671,"ተሪ</w>":9672,"ዊም</w>":9673,"ፈና":9674,"የሚስ":9675,"የመከላከል</w>":9676,"ሰራር</w>":9677,"ዝንባሌ</w>":9678,"ኢንጂነሪንግ</w>":9679,"ሰች</w>":9680,"ውንድ</w>":9681,"ያረጋግ":9682,"ገርም</w>":9683,"ጉምሩክ</w>":9684,"ጎል":9685,"ጸጋ</w>":9686,"ወረደ</w>":9687,"ትችላላችሁ</w>":9688,"ተሸላሚ</w>":9689,"መቅረብ</w>":9690,"ሯት</w>":9691,"ተች</w>":9692,"የሚመለከት</w>":9693,"56</w>":9694,"ሃምሳ</w>":9695,"በሌላው</w>":9696,"ኙን</w>":9697,"አገርን</w>":9698,"ልማቶች</w>":9699,"ሠራተኞ":9700,"በትዕ":9701,"አምራቾች</w>":9702,"ማድረስ</w>":9703,"ተሃድሶ</w>":9704,"ታዊነት</w>":9705,"ኑሮ":9706,"የግንቦት</w>":9707,"ጎላ</w>":9708,"ውስትራ":9709,"ደግነት</w>":9710,"ፈገግታ</w>":9711,"ለፍርድ</w>":9712,"ለሕዝቡ</w>":9713,"መጡት</w>":9714,"ቲቭ</w>":9715,"ይኑ":9716,"ጥም":9717,"ነበብ":9718,"ግንባታዎች</w>":9719,"መክፈ":9720,"ሃላፊ</w>":9721,"መጫወት</w>":9722,"ሥፍራ":9723,"አሁ":9724,"ዓብ</w>":9725,"ዛር</w>":9726,"የሚያነሳ":9727,"በየቦታው</w>":9728,"ባንዲ":9729,"ስርአ":9730,"ገለልተኛ</w>":9731,"በተጓዳኝ</w>":9732,"ኝበት</w>":9733,"አመሰግ":9734,"ፀጋዬ</w>":9735,"ፈነ":9736,"በእጅ</w>":9737,"በማህበራዊ</w>":9738,"ተናገረ</w>":9739,"ረሙ</w>":9740,"በኢየሩሳሌም</w>":9741,"ቤታችን</w>":9742,"ኤም":9743,"ነገሥት</w>":9744,"ጠቀስ</w>":9745,"አሳድ":9746,"በቅርበት</w>":9747,"ቁርጥ</w>":9748,"ጥላቻ</w>":9749,"የፖሊስ</w>":9750,"ዩና</w>":9751,"ሊያደርግ</w>":9752,"ስህ</w>":9753,"ቻት</w>":9754,"እጆ":9755,"ፍጠ":9756,"በምና":9757,"ምትክ</w>":9758,"ተገኝተዋል</w>":9759,"መቃብር</w>":9760,"ህነት</w>":9761,"ዓን</w>":9762,"ደጉ</w>":9763,"ፋሲ":9764,"የበዓ":9765,"መቀየር</w>":9766,"ዓላማው</w>":9767,"ርብ</w>":9768,"ታካ":9769,"ኒሳ</w>":9770,"ጅን</w>":9771,"ሳይቆይ</w>":9772,"ያለህ</w>":9773,"የግብር</w>":9774,"ደንበኛ</w>":9775,"ድንጋጌ</w>":9776,"ደገፈ</w>":9777,"ይካሄዳል</w>":9778,"መጨረሻው</w>":9779,"ረቡዕ</w>":9780,"ሲመጡ</w>":9781,"ሳቱ</w>":9782,"ባርቅ</w>":9783,"ተናገሩ</w>":9784,"ኖና</w>":9785,"አሶ":9786,"ከእነዚህም</w>":9787,"ደረቅ</w>":9788,"በአጋ":9789,"ምክህ":9790,"የሚያስደ":9791,"ከሚገኘው</w>":9792,"በእሳት</w>":9793,"ከነዚህ</w>":9794,"10ሺ</w>":9795,"አማርኛ</w>":9796,"እቴ":9797,"ደረጃዎች</w>":9798,"ትችት</w>":9799,"አቡነ</w>":9800,"ሳያስ":9801,"የሚመነ":9802,"መምጣቱ</w>":9803,"ፌደሬሽን</w>":9804,"በበጀት</w>":9805,"ትሪ":9806,"ፋትና</w>":9807,"የሚጠበቅ</w>":9808,"የተገደ":9809,"በአህጉ":9810,"ተቀይ":9811,"ተጫው":9812,"ፍሬም</w>":9813,"የዱር</w>":9814,"ዘጋጁት</w>":9815,"ልበትን</w>":9816,"ስምን":9817,"ቀልድ</w>":9818,"አወጣ":9819,"አዕም":9820,"የጨ":9821,"ደራሲ":9822,"ሀብታ":9823,"አስፈላጊነት</w>":9824,"ሻንጉል</w>":9825,"ፍጥ":9826,"ፍር</w>":9827,"በመግ":9828,"ጠቀሙበት</w>":9829,"በሰላማዊ</w>":9830,"ሀብታም</w>":9831,"አድርገህ</w>":9832,"ተተኪ</w>":9833,"በአደባባይ</w>":9834,"ማካሄድ</w>":9835,"ቀደው</w>":9836,"ዳሩ</w>":9837,"የሚደረጉ</w>":9838,"የመማር</w>":9839,"ሕዝብን</w>":9840,"ያደርጉ":9841,"ማስተዋ":9842,"ፕሮጀክቶችን</w>":9843,"ዳረስ</w>":9844,"የሱ":9845,"የሚዘ":9846,"በአጭሩ</w>":9847,"ሥራን</w>":9848,"አርአያ</w>":9849,"ክርስትና</w>":9850,"ያሳየው</w>":9851,"ጨርስ</w>":9852,"ፌስቡክ</w>":9853,"እንፈልጋለን</w>":9854,"ለሁለተኛ</w>":9855,"መጓ":9856,"ረክ":9857,"ስካ":9858,"በዱ":9859,"ተጉ":9860,"ታጥ":9861,"ናኝ</w>":9862,"ትእዛ":9863,"ተጠርጣ":9864,"ሕጎች</w>":9865,"በላይ":9866,"ተይዞ</w>":9867,"የአሠራ":9868,"በዓላት</w>":9869,"አኳኋ":9870,"አልተቻለም</w>":9871,"መቅደስ</w>":9872,"ሃላፊ":9873,"የሴቶችን</w>":9874,"ማስጨበጫ</w>":9875,"53</w>":9876,"ህንነት</w>":9877,"ሊትር</w>":9878,"ነክ</w>":9879,"ጠኝነት</w>":9880,"ጥናታዊ</w>":9881,"እያንዳንዱን</w>":9882,"በፍጹም</w>":9883,"አልባሳት</w>":9884,"ትብ":9885,"የወቅቱ</w>":9886,"ጠጋ</w>":9887,"ፀባረ":9888,"የሚባለ":9889,"በመሰረ":9890,"አይነ":9891,"መጥፋት</w>":9892,"የተሰጠ</w>":9893,"ማስታወቂ":9894,"በ18":9895,"ሁትን</w>":9896,"መከበር</w>":9897,"ሙዝ</w>":9898,"ሜው</w>":9899,"በሙስና</w>":9900,"በምርጫው</w>":9901,"በውይይቱ</w>":9902,"ቤትም</w>":9903,"ብተው</w>":9904,"ቦችም</w>":9905,"ውሸት</w>":9906,"ፀድ":9907,"የማይችል</w>":9908,"ያለባቸውን</w>":9909,"ለሚለው</w>":9910,"ስምምነቱ</w>":9911,"ሰውዬ</w>":9912,"ተጠናቆ</w>":9913,"ደቂቃዎች</w>":9914,"ሰሚ</w>":9915,"ያስቀም":9916,"ተሰና":9917,"ይደርሳል</w>":9918,"ለካ":9919,"ሪፐብሊክ</w>":9920,"የሚደግ":9921,"የመጨረሻ":9922,"የምር</w>":9923,"ገነዝ":9924,"እኩልነት</w>":9925,"ዴኤታ</w>":9926,"አሊ</w>":9927,"ጠበት</w>":9928,"በማከናወን</w>":9929,"የሰጠውን</w>":9930,"በታማ":9931,"አመራሩ</w>":9932,"ወልድ</w>":9933,"ዳርቻ</w>":9934,"ፊልሞች</w>":9935,"አፋጣኝ</w>":9936,"ፖለቲከኞች</w>":9937,"የሚደረገውን</w>":9938,"ተደረገ</w>":9939,"ጠል":9940,"እንዲገባ</w>":9941,"2016</w>":9942,"ጋዜጠኝነት</w>":9943,"ሻምፒዮን</w>":9944,"ሽማግሌ</w>":9945,"በመንፈሳዊ</w>":9946,"አውቶቡ":9947,"ተባለ</w>":9948,"ካደረ":9949,"የዘንድሮው</w>":9950,"የጀመር":9951,"ሃሳቦች</w>":9952,"ያገኛል</w>":9953,"ላቸውና</w>":9954,"ኔና</w>":9955,"አከራ":9956,"ይገባቸዋል</w>":9957,"አግኝተው</w>":9958,"ምገም</w>":9959,"እየሰጠ</w>":9960,"ሆንና</w>":9961,"ሕያው</w>":9962,"ማጥፋት</w>":9963,"ምቢያ</w>":9964,"በኢየሱስ</w>":9965,"ውደ</w>":9966,"ጤፍ</w>":9967,"ነገራቸው</w>":9968,"የተሰጣቸው</w>":9969,"ገዢው</w>":9970,"ምላ</w>":9971,"ሴቶችና</w>":9972,"ቾቹ</w>":9973,"ጋታ</w>":9974,"እንዲያደርግ</w>":9975,"አካላዊ</w>":9976,"የታክስ</w>":9977,"ባበቅ</w>":9978,"ሐዋርያ":9979,"ደርስባቸው</w>":9980,"ቤተክርስቲያን</w>":9981,"ሲብ</w>":9982,"ከመካከ":9983,"ዝግጅቱ</w>":9984,"ተሞክሮ":9985,"ዲሞክራሲያዊ</w>":9986,"የመጣውን</w>":9987,"ማክበር</w>":9988,"ፍጻሜ</w>":9989,"ሰላምን</w>":9990,"ባሕርያት</w>":9991,"ዐይ":9992,"ያክል</w>":9993,"ክርነት</w>":9994,"በምግብ</w>":9995,"ትንታ":9996,"መጽሐፉ</w>":9997,"ግጭቶች</w>":9998,"ለሰዎች</w>":9999,"ንተን</w>":10000,"የብዙ</w>":10001,"የበርካታ</w>":10002,"ዳዊ":10003,"ጇን</w>":10004,"ጠፍ</w>":10005,"ፋለች</w>":10006,"የሚወጡ</w>":10007,"የአዕምሮ</w>":10008,"የአመለካከት</w>":10009,"እየጠ":10010,"ልጣል</w>":10011,"ቅርሶች</w>":10012,"ቀበሌዎች</w>":10013,"ተጫዋቾችን</w>":10014,"ማሳ</w>":10015,"ሸባ":10016,"ከአሁን</w>":10017,"የኑ":10018,"የቴሌቪዥን</w>":10019,"ፀጉ":10020,"ፈቀደ":10021,"ሀገራቸው</w>":10022,"ያሳለ":10023,"ባይሆን</w>":10024,"እንዲሰሩ</w>":10025,"ፈቀደ</w>":10026,"ቅስቀሳ</w>":10027,"ረቤት</w>":10028,"ኔም</w>":10029,"አፈ</w>":10030,"ያጣ":10031,"ጋዜጣው</w>":10032,"ተደርገው</w>":10033,"ሲሳይ</w>":10034,"በወጣ":10035,"ኩራት</w>":10036,"የወደፊት</w>":10037,"እነዚያ</w>":10038,"ህዝብና</w>":10039,"አረቢያ</w>":10040,"አሉኝ</w>":10041,"ሚዎቹ</w>":10042,"ሳቅ</w>":10043,"ቹንም</w>":10044,"ኤንድ</w>":10045,"ይይ":10046,"ፒያ":10047,"አልሆነም</w>":10048,"ሰብአዊ</w>":10049,"የትኞቹ</w>":10050,"መጥን</w>":10051,"ከራሱ</w>":10052,"ያህዌም</w>":10053,"በ2006</w>":10054,"ማግስት</w>":10055,"የፓርላማ</w>":10056,"ይለዋል</w>":10057,"ደሰት</w>":10058,"ገዳ</w>":10059,"የማንነት</w>":10060,"ይኖራ":10061,"ወረራ</w>":10062,"ታይቶ</w>":10063,"ቸዋለን</w>":10064,"ነቱም</w>":10065,"ዋጋው</w>":10066,"ገውም</w>":10067,"ሻምፒዮናው</w>":10068,"አስገድ":10069,"በማንሳት</w>":10070,"የበኩላቸውን</w>":10071,"ነርጂ</w>":10072,"እጃቸውን</w>":10073,"ማወ":10074,"በእንግሊዝ</w>":10075,"ቻና</w>":10076,"ነታ":10077,"ናቸውም</w>":10078,"አኩ":10079,"ዋጋት</w>":10080,"ዓም</w>":10081,"ገዥ</w>":10082,"ጋብ":10083,"በማየት</w>":10084,"ሰለፍ</w>":10085,"ታዳጊ":10086,"em":10087,"ቤቶቹ</w>":10088,"ወድ</w>":10089,"ደኛ</w>":10090,"የሚያወ":10091,"ከራከ":10092,"ተስማሚ</w>":10093,"ለህብረተሰቡ</w>":10094,"ላላው</w>":10095,"ረፈ</w>":10096,"ታውቅ</w>":10097,"ያውቀው</w>":10098,"አዴን</w>":10099,"መፍትሄ":10100,"ተሸክ":10101,"ቤተሰቦቻቸው</w>":10102,"ድክመ":10103,"700</w>":10104,"መተግበር</w>":10105,"ድፍረት</w>":10106,"ተገም":10107,"ለማስፈን</w>":10108,"ከባከ":10109,"ባበሪያ</w>":10110,"አምላክ":10111,"ያስተም":10112,"ገልፀው</w>":10113,"የፊልም</w>":10114,"ዝምታ</w>":10115,"አማራጮች</w>":10116,"ኮሚሽነር</w>":10117,"መዱ</w>":10118,"ሮቹን</w>":10119,"በእንዲህ</w>":10120,"የፕሬስ</w>":10121,"አደሩን</w>":10122,"ሲያጋጥ":10123,"አንዳንዱ</w>":10124,"እርግዝና</w>":10125,"ምሁር</w>":10126,"መኖ</w>":10127,"የእድገት</w>":10128,"ያዋ":10129,"ጥቆ":10130,"መንጃ</w>":10131,"አካባቢውን</w>":10132,"ሻሻሉ</w>":10133,"ልቅ":10134,"ሰፋ":10135,"የዛሬ":10136,"ያትር</w>":10137,"የሚያደርጉትን</w>":10138,"ደጃዝማች</w>":10139,"ተጋላጭ</w>":10140,"ሆች</w>":10141,"መዳን</w>":10142,"በከፊል</w>":10143,"የሀብት</w>":10144,"የተከለ":10145,"በተደራ":10146,"አካሄ":10147,"አሳው":10148,"መረጃው</w>":10149,"ሆቴሉ</w>":10150,"ፌዴራላዊ</w>":10151,"ሻይ</w>":10152,"ኒን</w>":10153,"ጤናው</w>":10154,"ግባብ</w>":10155,"አብራ":10156,"አድርጉ</w>":10157,"ሰብል</w>":10158,"ጠየቅ":10159,"ኢኮኖሚና</w>":10160,"የያዙ</w>":10161,"si":10162,"ራለን</w>":10163,"ከኝ</w>":10164,"ጀግን":10165,"ለመለየት</w>":10166,"እያለች</w>":10167,"አስተዳዳሪ</w>":10168,"የሚያደርገውን</w>":10169,"አስተዳደራዊ</w>":10170,"ላችኋል</w>":10171,"ስሙን</w>":10172,"ቱኒ":10173,"ነውም</w>":10174,"ዊነትን</w>":10175,"ጥገና</w>":10176,"ፈሪ":10177,"የሚሆነውን</w>":10178,"የመሸ":10179,"አምና</w>":10180,"መረጋገ":10181,"ዋንጫው</w>":10182,"ሆንክ</w>":10183,"150</w>":10184,"ሞቹ</w>":10185,"ተውና</w>":10186,"ኮሙኒኬሽን</w>":10187,"ጉን":10188,"ጽኑ</w>":10189,"እየተሠራ</w>":10190,"ገንዘቤ</w>":10191,"ደረገች</w>":10192,"ስነት</w>":10193,"ሷቸው</w>":10194,"ቱትን</w>":10195,"ዥነት</w>":10196,"መርዳት</w>":10197,"በሰበው</w>":10198,"ሰዎቹ</w>":10199,"ከመስጠት</w>":10200,"ያማ":10201,"ያመጣል</w>":10202,"በተና":10203,"የሚያጠ":10204,"ያውቁት</w>":10205,"ወልደ</w>":10206,"ሆስፒታሎች</w>":10207,"መደምደሚያ</w>":10208,"ይከብ":10209,"ከመሬት</w>":10210,"እውነቱ</w>":10211,"ሀብትና</w>":10212,"ወለዱ</w>":10213,"ምሥክር</w>":10214,"58</w>":10215,"ከንድ</w>":10216,"በመሳተፍ</w>":10217,"ለመደገፍ</w>":10218,"ለማዘጋጀት</w>":10219,"አልታ":10220,"ቱሪስቶች</w>":10221,"ምልክቶች</w>":10222,"ኢሳ</w>":10223,"የነፃነት</w>":10224,"ገባኝ</w>":10225,"ደራሲው</w>":10226,"ለማስገባት</w>":10227,"ነጥብ":10228,"ሰርቶ</w>":10229,"አዲሱን</w>":10230,"ተጽእኖ</w>":10231,"ተኩል</w>":10232,"ረና</w>":10233,"ሹመት</w>":10234,"ችህን</w>":10235,"ከአገሪቱ</w>":10236,"የፆታ</w>":10237,"በተሰጠው</w>":10238,"ገለጽ</w>":10239,"ትረፍ</w>":10240,"ለ1</w>":10241,"ላስ</w>":10242,"ሰኝ</w>":10243,"ከግብፅ</w>":10244,"ይዤ</w>":10245,"ጋይ</w>":10246,"ጫካ</w>":10247,"ጽና</w>":10248,"እየቀነሰ</w>":10249,"ተከሰ":10250,"በጥናቱ</w>":10251,"የለንም</w>":10252,"ስብስብ</w>":10253,"ይኼን</w>":10254,"ማዳበሪያ</w>":10255,"ራስህን</w>":10256,"ልዕ":10257,"ሰተኛ</w>":10258,"ስዊ":10259,"ሽው</w>":10260,"የተገኘ":10261,"ችግርን</w>":10262,"ኮንዶሚኒየም</w>":10263,"ህክምና":10264,"ረሃብ</w>":10265,"ሳቸውም</w>":10266,"ያድ":10267,"ይጫወ":10268,"በመሰ":10269,"ተወል":10270,"ለቀ</w>":10271,"ቤን":10272,"በማለ":10273,"በርግ":10274,"ክፍፍል</w>":10275,"ሥራም</w>":10276,"ተቀብለው</w>":10277,"ግንባታውን</w>":10278,"ባልተ":10279,"ሜክሲ":10280,"የፕሬዚዳንት</w>":10281,"ድሶ":10282,"ጎጂ</w>":10283,"ፌደራ":10284,"ለውጡ</w>":10285,"ተመድ":10286,"የተቀመጠው</w>":10287,"በረታታት</w>":10288,"የሚኖሩት</w>":10289,"ተነሳሽነት</w>":10290,"ጤን":10291,"ለማቋቋም</w>":10292,"ከባበር</w>":10293,"ምስኪን</w>":10294,"መታሰቢያ</w>":10295,"ስደተኞችን</w>":10296,"በአንጻ":10297,"ቶሪ</w>":10298,"ኝነትን</w>":10299,"ዝነው</w>":10300,"በመጋ":10301,"በመላክ</w>":10302,"በማግ":10303,"2006</w>":10304,"ፖሊሲና</w>":10305,"ሌክትሮ":10306,"ሕፃን</w>":10307,"ሀላ":10308,"ማሠ":10309,"ቃሉን</w>":10310,"የሚፈለገውን</w>":10311,"እንደዚ":10312,"አስከት":10313,"ተጠብ":10314,"አበባን</w>":10315,"ፈለግ":10316,"በቅጡ</w>":10317,"ኤርምያስ</w>":10318,"2ኛ</w>":10319,"ህብረተሰቡን</w>":10320,"ሪል</w>":10321,"ከ3":10322,"ውክልና</w>":10323,"ዴፓ</w>":10324,"እንደሚሆኑ</w>":10325,"በየወሩ</w>":10326,"የደረሰ</w>":10327,"ውሳኔው</w>":10328,"57</w>":10329,"ቅቡ":10330,"ችስ</w>":10331,"ወቀ</w>":10332,"ፎካከ":10333,"እንደሆነች</w>":10334,"ፍቅርና</w>":10335,"ባለስልጣኑ</w>":10336,"ሆንን</w>":10337,"መጸ":10338,"ሳና</w>":10339,"እንደሚታወቀው</w>":10340,"የእሱ</w>":10341,"ኒውዮርክ</w>":10342,"በቅንጅት</w>":10343,"ሲገቡ</w>":10344,"በአንዱ</w>":10345,"በክብር</w>":10346,"አዎን</w>":10347,"የሚባሉት</w>":10348,"አልተሳ":10349,"አስታውሰዋል</w>":10350,"ትልቁን</w>":10351,"ሳይንቲ":10352,"ur":10353,"ሙያው</w>":10354,"ሩንና</w>":10355,"ብለ":10356,"ንዴ</w>":10357,"አበርክ":10358,"ዕን":10359,"የዜጎች</w>":10360,"እያከናወነ</w>":10361,"የታየው</w>":10362,"መሳተፍ</w>":10363,"የደህንነት</w>":10364,"መሥፈር":10365,"በመስኖ</w>":10366,"ዳይመንድ</w>":10367,"ሆናችሁ</w>":10368,"የማህበሩ</w>":10369,"ድክመት</w>":10370,"ሕገ":10371,"በእን":10372,"አእምሮ</w>":10373,"ጥሰት</w>":10374,"ለመታደግ</w>":10375,"ፕሮፓ":10376,"በስድስት</w>":10377,"ሰብኩ</w>":10378,"ent</w>":10379,"በሌለበት</w>":10380,"ተፋሰስ</w>":10381,"ክምችት</w>":10382,"ቢሊ":10383,"ቧን</w>":10384,"አጠራ":10385,"ውሀ</w>":10386,"የሶማሊያ</w>":10387,"የተነገረ":10388,"አንጀ":10389,"የመምህ":10390,"ቅዱን</w>":10391,"ለማስቀጠል</w>":10392,"ይሄም</w>":10393,"ተፈጥሯል</w>":10394,"ቸገሩ</w>":10395,"መተማመን</w>":10396,"ነብ</w>":10397,"ጓጉ":10398,"ወሰደው</w>":10399,"መቀሌ</w>":10400,"ፈፀሙ</w>":10401,"ሲስተ":10402,"ሲነሳ</w>":10403,"በጊዜው</w>":10404,"ንጋት</w>":10405,"የቡ":10406,"የድርቅ</w>":10407,"ግፍ</w>":10408,"የተሠራ</w>":10409,"እንደሚሰጥ</w>":10410,"ግባቸው</w>":10411,"የግድቡ</w>":10412,"ማሳካት</w>":10413,"ማበረታቻ</w>":10414,"ሪቷ</w>":10415,"ስኮ":10416,"ለመለወጥ</w>":10417,"በአዳማ</w>":10418,"ተፈራ</w>":10419,"ፍራፍሬ</w>":10420,"ላቀሉ</w>":10421,"የመሠረተ</w>":10422,"የዘላለም</w>":10423,"ለምንድነው</w>":10424,"ሪክ":10425,"ባውያን</w>":10426,"አይቶ</w>":10427,"ድንኳን</w>":10428,"ለማስከበር</w>":10429,"ፖሊሶች</w>":10430,"የምታደር":10431,"ዮርዳ":10432,"ሐዋሳ</w>":10433,"ጀግኖች</w>":10434,"ዕብራውያን</w>":10435,"ላቅ":10436,"ቦንድ</w>":10437,"የልጅ</w>":10438,"ጅቶ</w>":10439,"የሚጠብ":10440,"የሚካሄድ</w>":10441,"የሚያመለክት</w>":10442,"ወስዱ</w>":10443,"አመልክተው</w>":10444,"ምሥራች</w>":10445,"ዲያብሎ":10446,"63</w>":10447,"በስፖርት</w>":10448,"ኮረ":10449,"ደብ</w>":10450,"ጋችን</w>":10451,"ፖል</w>":10452,"በማካሄድ</w>":10453,"እንዳሳ":10454,"እየነ":10455,"አካባቢያ":10456,"ሪያዎቹ</w>":10457,"የታገ":10458,"ገናኝ</w>":10459,"አዋቂ</w>":10460,"ተፅእኖ</w>":10461,"ለመቀየር</w>":10462,"ፖለቲካና</w>":10463,"ዳይሬክቶሬት</w>":10464,"ሲሚንቶ</w>":10465,"ሻሽ":10466,"በበት</w>":10467,"ከፊት</w>":10468,"ያጋ":10469,"ደንት</w>":10470,"ጨዋታውን</w>":10471,"ተሳታፊ":10472,"ላቀቅ</w>":10473,"ሞላበት</w>":10474,"ለቁ</w>":10475,"ከ20":10476,"ወንጌ":10477,"የወር</w>":10478,"እፎ":10479,"የእን":10480,"ዴም</w>":10481,"በተቻለ</w>":10482,"ኃይለኛ</w>":10483,"መዘገቡት</w>":10484,"አሰልጣኙ</w>":10485,"ተካሂዷል</w>":10486,"አኳኋን</w>":10487,"ቢኔ</w>":10488,"ብረው</w>":10489,"ተበት</w>":10490,"ከህዝብ</w>":10491,"የቲ":10492,"ዳውን</w>":10493,"ጉዋ":10494,"ጋድ</w>":10495,"ፁን</w>":10496,"ፈላለ":10497,"ያለውና</w>":10498,"ብሔረሰብ</w>":10499,"የትግል</w>":10500,"ትንበ":10501,"የራስን</w>":10502,"ብቸኛው</w>":10503,"አዎንታዊ</w>":10504,"ማልማት</w>":10505,"በ10</w>":10506,"ኑትን</w>":10507,"የተነሳው</w>":10508,"የለብንም</w>":10509,"ሠርግ</w>":10510,"ወድቅ</w>":10511,"ኤክስ":10512,"ፈገግ</w>":10513,"ጭበርበር</w>":10514,"ማቱ</w>":10515,"ስስ</w>":10516,"ተዓ":10517,"ትው":10518,"ውህ":10519,"የፈጸ":10520,"የኬንያ</w>":10521,"ይኖሩ</w>":10522,"አፍር":10523,"ባለቤቴ</w>":10524,"ጎብኘት</w>":10525,"ብጥብጥ</w>":10526,"መላእክት</w>":10527,"ሁከትና</w>":10528,"ve</w>":10529,"ልክት</w>":10530,"የአንድነት</w>":10531,"እንዲመጣ</w>":10532,"እየተንቀሳቀ":10533,"ታሪኮች</w>":10534,"ያውቃሉ</w>":10535,"ጠይቁ</w>":10536,"ወረርሽ":10537,"ገናኘ":10538,"በታላቅ</w>":10539,"የመንግሥትን</w>":10540,"የጎደለው</w>":10541,"ሟላ":10542,"እንዲውል</w>":10543,"እንደሚቀጥል</w>":10544,"ስለም":10545,"ተጠቅሷል</w>":10546,"ሳለን</w>":10547,"ቀልብ</w>":10548,"ብለው":10549,"ኢሕ":10550,"የኛ</w>":10551,"ጋትና</w>":10552,"የሚጣ":10553,"የሚሉትን</w>":10554,"የሚወጣው</w>":10555,"ከሚለው</w>":10556,"ተመላ":10557,"መቀጠ":10558,"ትግበራ</w>":10559,"ኢያሱ</w>":10560,"ለችግሩ</w>":10561,"ሲልም</w>":10562,"በሶስት</w>":10563,"ጀር</w>":10564,"ጫም</w>":10565,"ፅሁ":10566,"ፅህፈት</w>":10567,"ፖርት</w>":10568,"የአሰራር</w>":10569,"መነሻ":10570,"የተፈጠረውን</w>":10571,"ዘዴዎች</w>":10572,"ተነግሯል</w>":10573,"ማርና</w>":10574,"ቀስ":10575,"መንገሻ</w>":10576,"መድረሱን</w>":10577,"ተጠያቂ":10578,"በትክክለ":10579,"ተዘጋጅቶ</w>":10580,"አክለዋል</w>":10581,"ሙከራ":10582,"ሲኖር</w>":10583,"ፊቱን</w>":10584,"ፍስ</w>":10585,"የተሞላ</w>":10586,"የምን</w>":10587,"ጠቅላላው</w>":10588,"ይገር":10589,"ሰራተኛ</w>":10590,"ስንዴ</w>":10591,"የተጠቀሰው</w>":10592,"የሚታወቅ</w>":10593,"በአስቸኳይ</w>":10594,"ታር":10595,"ከፍተኛውን</w>":10596,"ይገኝ":10597,"እንስሳ</w>":10598,"የሚያስፈልገውን</w>":10599,"እልባት</w>":10600,"ጌታዬ</w>":10601,"ችግሮቹን</w>":10602,"አመሰግናለሁ</w>":10603,"le</w>":10604,"ልፈው</w>":10605,"ሲኒ":10606,"የዜጎችን</w>":10607,"ዮቹን</w>":10608,"ደሴ</w>":10609,"የተመደ":10610,"ለመምራት</w>":10611,"አርበኞች</w>":10612,"ተወዳጅ</w>":10613,"አያውቁም</w>":10614,"ለራሳቸው</w>":10615,"ሐሙስ</w>":10616,"መድን</w>":10617,"ዌር</w>":10618,"በመጣ":10619,"በማምረት</w>":10620,"አሳታ":10621,"የምትችለው</w>":10622,"ሥልጣኔ</w>":10623,"ኤምባሲ</w>":10624,"ለሴቶች</w>":10625,"መት":10626,"በሰ</w>":10627,"ተለዋ":10628,"ከድ":10629,"የሚፈጥር</w>":10630,"አባላትን</w>":10631,"ተዋናይ</w>":10632,"ማድ":10633,"ምጥ</w>":10634,"ብሃል</w>":10635,"ታቱ</w>":10636,"ቷም</w>":10637,"በርን</w>":10638,"አበባ":10639,"ላሊ":10640,"ራመድ</w>":10641,"ከመ</w>":10642,"ዘሩ</w>":10643,"ገላ</w>":10644,"ነገድ</w>":10645,"አልኩ</w>":10646,"አካሂ":10647,"ትርዒ":10648,"ዘግይ":10649,"ችሁና</w>":10650,"ሽማግሌ":10651,"የተቃውሞ</w>":10652,"ክስተቶች</w>":10653,"በምዕራብ</w>":10654,"መቅደሱ</w>":10655,"72</w>":10656,"ሲሄዱ</w>":10657,"ቀሪ</w>":10658,"የአስ":10659,"ጠቁ</w>":10660,"ዓይኖ":10661,"ድርጅቶችና</w>":10662,"ተቃራ":10663,"የነበረችው</w>":10664,"59</w>":10665,"ሄጄ</w>":10666,"ሪካም</w>":10667,"ታትም</w>":10668,"ንማ</w>":10669,"ከሰማይ</w>":10670,"የፓርቲው</w>":10671,"ፐር</w>":10672,"እንበል</w>":10673,"ለመማር</w>":10674,"የማዕድን</w>":10675,"ያለፈው</w>":10676,"ከሚመለከታቸው</w>":10677,"ገናዘ":10678,"ፖለቲካው</w>":10679,"ማህበራዊና</w>":10680,"ሐዘን</w>":10681,"ሠልጣ":10682,"ከአውሮፓ</w>":10683,"ይነህ</w>":10684,"በመገናኛ</w>":10685,"ማህበረሰቡ</w>":10686,"ለማስተካከል</w>":10687,"ስልጠናው</w>":10688,"ፎቶግራ":10689,"ሌዋ":10690,"በቻይና</w>":10691,"ቴኒስ</w>":10692,"ዴቪ":10693,"እንደተጠበቀ</w>":10694,"እርሷ</w>":10695,"ሥራና</w>":10696,"ፓርት":10697,"ሚኒስትሮች</w>":10698,"የገዛ</w>":10699,"ጥያቄውን</w>":10700,"አቋራጭ</w>":10701,"መሀመድ</w>":10702,"ሃገራት</w>":10703,"ሙላቱ</w>":10704,"ካችን</w>":10705,"ግማ":10706,"ጓድ</w>":10707,"የሚቀርቡ</w>":10708,"እየተቀ":10709,"ኢንሹራንስ</w>":10710,"ኃይልና</w>":10711,"ሰላምታ</w>":10712,"ቁጥጥ":10713,"መግለጽ</w>":10714,"ተፈጥሯዊ</w>":10715,"አመላካች</w>":10716,"ገልጻለች</w>":10717,"ለታ":10718,"ለሞት</w>":10719,"ሲነፃፀር</w>":10720,"ከውን</w>":10721,"ውጊያ</w>":10722,"ጠባብ</w>":10723,"ተገነዘ":10724,"ጥንካ":10725,"ካህናት</w>":10726,"መመለ":10727,"ነሱት</w>":10728,"እወዳ":10729,"ጭው</w>":10730,"ሕይወታቸውን</w>":10731,"በ2015</w>":10732,"ተጠናቋል</w>":10733,"መዛሙርት</w>":10734,"ጨነቅ</w>":10735,"በጥቅሉ</w>":10736,"ሐቅ</w>":10737,"መቆም</w>":10738,"ረከብ</w>":10739,"በቴክኖሎጂ</w>":10740,"ነፋስ</w>":10741,"ኬሚካ":10742,"ይሳ":10743,"የመታ":10744,"ውስንነት</w>":10745,"ምንኛ</w>":10746,"በምስራቅ</w>":10747,"በጥልቅ</w>":10748,"ብሪታ":10749,"ሰበት</w>":10750,"ቁጥሩ</w>":10751,"በመገንዘብ</w>":10752,"መንጨት</w>":10753,"ማኅበሩ</w>":10754,"ጠፋም</w>":10755,"ተቀምጠው</w>":10756,"ለሌላው</w>":10757,"ምታት</w>":10758,"ቴር</w>":10759,"ደላ</w>":10760,"ዳፊ</w>":10761,"በማግኘ":10762,"የአህጉ":10763,"በአም":10764,"ምንዛሬ</w>":10765,"ማስገባት</w>":10766,"ጥቅሞች</w>":10767,"አድርገናል</w>":10768,"ካተቱ</w>":10769,"ይከተ":10770,"ገባና</w>":10771,"ጨዋታዎችን</w>":10772,"በተመሳሳይም</w>":10773,"ሸንፍ</w>":10774,"ብሩህ</w>":10775,"ኔትወርክ</w>":10776,"ከእዚህ</w>":10777,"ከ40</w>":10778,"ያወጣው</w>":10779,"ዳኝነት</w>":10780,"ፔን</w>":10781,"አልፈልግም</w>":10782,"ገበሬዎች</w>":10783,"የምንች":10784,"ቆንጆ</w>":10785,"በመድረኩ</w>":10786,"ሩበትን</w>":10787,"ቁን":10788,"በደም</w>":10789,"ክሉ</w>":10790,"ዳችሁ</w>":10791,"ቀድመው</w>":10792,"ደረጃም</w>":10793,"ይሄኔ</w>":10794,"ተላለፉ</w>":10795,"አጠቃቀ":10796,"ወክለው</w>":10797,"67</w>":10798,"ለአደጋ</w>":10799,"ለዚሁ</w>":10800,"ሚስቱ</w>":10801,"ሯሯ":10802,"ተዘ":10803,"ታጣ":10804,"የረ</w>":10805,"የኮን":10806,"የጀርመን</w>":10807,"ጻፈው</w>":10808,"ድርጅቱን</w>":10809,"በሰው":10810,"ከማድረ":10811,"የቦርድ</w>":10812,"ምግባርና</w>":10813,"አሸባሪ</w>":10814,"ምባቸው</w>":10815,"ሰሳ</w>":10816,"ሳኔ</w>":10817,"በጐ":10818,"በዩኒቨርሲቲው</w>":10819,"ካቶ</w>":10820,"የባንኩ</w>":10821,"አስርት</w>":10822,"ተነሳ</w>":10823,"ትምህርቶች</w>":10824,"አቅራቢ</w>":10825,"ቶቻ":10826,"ኞችም</w>":10827,"ኢስላሚክ</w>":10828,"ኮራ</w>":10829,"በተራ":10830,"ለማንም</w>":10831,"ምህረት</w>":10832,"ቅርጽ</w>":10833,"የምትለው</w>":10834,"ረጋገጡ</w>":10835,"የእሱን</w>":10836,"የጥን":10837,"ሌሎችንም</w>":10838,"ካለበት</w>":10839,"በፊትም</w>":10840,"ደሞዝ</w>":10841,"ለሰ":10842,"ቀው":10843,"ኖረ</w>":10844,"ከአንተ</w>":10845,"ለመጠ":10846,"ላለህ</w>":10847,"ውጤታማ":10848,"ላይነት</w>":10849,"የአሜሪካን</w>":10850,"ፌዴሬሽኖች</w>":10851,"መልአክ</w>":10852,"ማሟላት</w>":10853,"በቁ</w>":10854,"በግለሰብ</w>":10855,"ጠረ</w>":10856,"ፀጉር</w>":10857,"ምርም</w>":10858,"ከመድረ":10859,"ያሳድ":10860,"ጥበቃና</w>":10861,"የደመ":10862,"ሞቅ</w>":10863,"ሮዋ</w>":10864,"ቃይ":10865,"ቴና</w>":10866,"የሩሲያ</w>":10867,"ያነት</w>":10868,"፲፱":10869,"እንደነበረው</w>":10870,"በተገኙበት</w>":10871,"ምክክር</w>":10872,"ገብነት</w>":10873,"ተሳትፈዋል</w>":10874,"የሚጠበቀው</w>":10875,"ይቀራል</w>":10876,"ደርስበት</w>":10877,"የስደተኞች</w>":10878,"የሚገርመው</w>":10879,"ce</w>":10880,"ኮም":10881,"የሉም</w>":10882,"ያንና</w>":10883,"ጋጥም</w>":10884,"የሚተ":10885,"ደረግም</w>":10886,"ልጆቹን</w>":10887,"በግማሽ</w>":10888,"ማስተናገድ</w>":10889,"በእርግጠኝነት</w>":10890,"እስከአሁን</w>":10891,"ኤክስፖርት</w>":10892,"ውለታ</w>":10893,"አላስፈላጊ</w>":10894,"ለዚ":10895,"ክሬ":10896,"ደነገ":10897,"ድና":10898,"ዓመቷ</w>":10899,"መጠሪያ</w>":10900,"አክሊ":10901,"የመሳሰሉትን</w>":10902,"ሀዋሳ</w>":10903,"ሊቲ</w>":10904,"ላማ</w>":10905,"እጁ</w>":10906,"ብረታ</w>":10907,"ተከትለው</w>":10908,"መቆጣጠ":10909,"ቀኑን</w>":10910,"ችኛው</w>":10911,"ንክ":10912,"የብሔር</w>":10913,"ዷን</w>":10914,"አስባለሁ</w>":10915,"ለማዋል</w>":10916,"መለኪያ</w>":10917,"ከፍተኛው</w>":10918,"ግንባታና</w>":10919,"as":10920,"ሜናዊ</w>":10921,"ሠላም</w>":10922,"ቀልጣ":10923,"ቀንድ</w>":10924,"ናወ":10925,"ዱቄ":10926,"ዳለች</w>":10927,"ጅምር</w>":10928,"የተዘጋጀ":10929,"እንደዚሁ</w>":10930,"አገሮችን</w>":10931,"ተገበር</w>":10932,"ሥርዓትን</w>":10933,"ሰነዶች</w>":10934,"ንቅለ</w>":10935,"tion</w>":10936,"ቁርጠኛ</w>":10937,"የሚገልጹት</w>":10938,"አንጋፋ</w>":10939,"የሚያረጋግጥ</w>":10940,"5ኛ</w>":10941,"ሕጉን</w>":10942,"መጓደ":10943,"ሞትን</w>":10944,"ቃችን</w>":10945,"ፓውንድ</w>":10946,"የሚሄድ</w>":10947,"ደርሰዋል</w>":10948,"ስተኛና</w>":10949,"ወርቁ</w>":10950,"ይሰጣ":10951,"መዋጮ</w>":10952,"ባለሀብቱ</w>":10953,"ማስታወሻ</w>":10954,"መነ</w>":10955,"መቀበ":10956,"ማማት</w>":10957,"ቂም</w>":10958,"በአገራቸው</w>":10959,"ባቡ":10960,"ተቆር":10961,"ይመለ":10962,"ድኩ</w>":10963,"ሕዝቅ":10964,"መርመር</w>":10965,"ህሳስ</w>":10966,"ሉበትን</w>":10967,"ኦዲት</w>":10968,"ዛሉ</w>":10969,"ጣይቱ</w>":10970,"እንኳ":10971,"በመሸ":10972,"በተፈጠረው</w>":10973,"ያስቸግ":10974,"ተገድ":10975,"ኃላፊነታቸውን</w>":10976,"ገናኙ</w>":10977,"የውጪ</w>":10978,"ዕርምጃ":10979,"ይኼው</w>":10980,"ገለገሉ</w>":10981,"አልሸባብ</w>":10982,"ምድ</w>":10983,"ሯቸዋል</w>":10984,"ሽከረ":10985,"በብ":10986,"በሱ</w>":10987,"በምክር</w>":10988,"ኤድስ</w>":10989,"የውድድሩ</w>":10990,"የሐዋርያት</w>":10991,"ደችው</w>":10992,"ይገባ</w>":10993,"አውራ":10994,"አለመግባባት</w>":10995,"ትንፋ":10996,"እውነትም</w>":10997,"ተሰጥቷል</w>":10998,"ሕሊ":10999,"ርተው</w>":11000,"በዙ</w>":11001,"ችለናል</w>":11002,"ከሶስት</w>":11003,"ዟቸው</w>":11004,"ይጣን</w>":11005,"የተፈረ":11006,"እንደዚያ</w>":11007,"መስኮት</w>":11008,"የምስራቅ</w>":11009,"ይሄን":11010,"ጠየቀው</w>":11011,"ችንንም</w>":11012,"የአሠራር</w>":11013,"ህጻ":11014,"ምብ</w>":11015,"ቃዊ</w>":11016,"በምር":11017,"በድል</w>":11018,"ቴል</w>":11019,"ቼክ</w>":11020,"አቸውን</w>":11021,"እሱ":11022,"ዕቢያ</w>":11023,"የሚተዳ":11024,"ያለነው</w>":11025,"አቀባይ</w>":11026,"በልግ</w>":11027,"የምትች":11028,"ዴሞክራሲያ":11029,"ማስተላለ":11030,"ሰውዬው</w>":11031,"ለቀረ":11032,"ማገ":11033,"አጥር</w>":11034,"ኮቹ</w>":11035,"ጊዜውን</w>":11036,"ያስፈልገናል</w>":11037,"በህብረተሰቡ</w>":11038,"በ2014</w>":11039,"ተቋቁሞ</w>":11040,"ለኞች</w>":11041,"መሻ":11042,"መታ</w>":11043,"በድርቅ</w>":11044,"የጅ":11045,"ግኝ":11046,"በተባለ</w>":11047,"መሰብሰብ</w>":11048,"ሥቃይ</w>":11049,"በደረጃ</w>":11050,"ቤና</w>":11051,"ኛለች</w>":11052,"ከግማሽ</w>":11053,"ዋለ</w>":11054,"የቀድሞ":11055,"ደለ</w>":11056,"እንዲኖሩ</w>":11057,"እስራት</w>":11058,"የተቀመጡ</w>":11059,"ገነዘብ</w>":11060,"የመፍትሔ</w>":11061,"ልቁ</w>":11062,"ዬር</w>":11063,"ግሩ":11064,"በአፋ":11065,"ባለሀብት</w>":11066,"የሚያገኙት</w>":11067,"መብትን</w>":11068,"ድርጊቱን</w>":11069,"እንግሊዛ":11070,"ዕውቀ":11071,"ክንፍ</w>":11072,"ይስጥ</w>":11073,"ይሰማል</w>":11074,"ለእነሱ</w>":11075,"ማዋል</w>":11076,"ሣሥ</w>":11077,"በይ</w>":11078,"አዕምሮ</w>":11079,"ከጠ":11080,"ግግር</w>":11081,"ፍሳሽ</w>":11082,"ለማስቀረት</w>":11083,"የሚታየውን</w>":11084,"ዘዋወር</w>":11085,"የህዝብን</w>":11086,"ብሄረሰቦችና</w>":11087,"66</w>":11088,"በደርግ</w>":11089,"በመሬት</w>":11090,"የማይች":11091,"በእጁ</w>":11092,"ለማስጠበቅ</w>":11093,"ቢያና</w>":11094,"ማርክ</w>":11095,"ሕይወታቸው</w>":11096,"ተመራማ":11097,"ሱቅ</w>":11098,"በክል":11099,"ቢን</w>":11100,"ቲዎ":11101,"አሉን</w>":11102,"ወረ</w>":11103,"ይጣ":11104,"እየሆኑ</w>":11105,"ሃይሎች</w>":11106,"ታዳጊዎች</w>":11107,"አስተያየቶች</w>":11108,"5ሺ</w>":11109,"ሐራም</w>":11110,"መነሳት</w>":11111,"ሲኖ":11112,"ቀፉ</w>":11113,"ቆሎ</w>":11114,"በቤተሰብ</w>":11115,"ቶችንም</w>":11116,"የፌዴሬሽኑ</w>":11117,"ያገለግ":11118,"ደኅንነት</w>":11119,"ሰራዊት</w>":11120,"ኦሮሚ":11121,"ተንታ":11122,"አብዱል":11123,"መጫወ":11124,"ቅስ</w>":11125,"ቋት</w>":11126,"ከዓመት</w>":11127,"ገመት</w>":11128,"የተቀረ":11129,"እንደሚባለው</w>":11130,"ፍላጎትና</w>":11131,"ከብሩ</w>":11132,"ማረሚያ</w>":11133,"ይረዳናል</w>":11134,"በሻህ</w>":11135,"በዋነኛነት</w>":11136,"ልደት</w>":11137,"ባሉትን</w>":11138,"ብቷል</w>":11139,"እሴቶች</w>":11140,"ጻድቅ</w>":11141,"በመውጣት</w>":11142,"ያስተዋ":11143,"የሚያገለግሉ</w>":11144,"በርግ</w>":11145,"የህብረተሰቡን</w>":11146,"ነጋገሩ</w>":11147,"አስፈላጊው</w>":11148,"ቀነኒሳ</w>":11149,"ያቀርባል</w>":11150,"ምፒዩተር</w>":11151,"መኩ":11152,"ሽበት</w>":11153,"በክ</w>":11154,"እቃ</w>":11155,"ጋር":11156,"ያለኝ</w>":11157,"ሁኔታ":11158,"ተወለ":11159,"ንስሐ</w>":11160,"የሚጠጉ</w>":11161,"አስኪያጁ</w>":11162,"ሚዛናዊ</w>":11163,"ኢንስቲትዩቱ</w>":11164,"ለሆኑ</w>":11165,"ሔዋን</w>":11166,"ሙዩኒኬሽን</w>":11167,"ርጌ</w>":11168,"ሰከንድ</w>":11169,"ቁም":11170,"ተሩ</w>":11171,"ታኅ":11172,"ቴም</w>":11173,"አዙ":11174,"አያደር":11175,"ካራ":11176,"ገጣ":11177,"አንገት</w>":11178,"እየሠሩ</w>":11179,"መጠኑ</w>":11180,"ኢየሱስም</w>":11181,"አስተዳደሮች</w>":11182,"ይወጣል</w>":11183,"ሊጥ</w>":11184,"መኝታ</w>":11185,"ሬውን</w>":11186,"ሲሸ":11187,"የሁለቱን</w>":11188,"ጋርም</w>":11189,"የሚመስል</w>":11190,"መጠለያ</w>":11191,"በጥብቅ</w>":11192,"ትንሣኤ</w>":11193,"ትራፊክ</w>":11194,"ከፈለው</w>":11195,"ለማስተናገድ</w>":11196,"በስብሰባ":11197,"ስፖንሰር</w>":11198,"ማኔጅመንት</w>":11199,"30":11200,"ከጀመ":11201,"ካፍ":11202,"የሕዝቡን</w>":11203,"ዳሚ</w>":11204,"ዶክ":11205,"ጎማ</w>":11206,"ሰራም</w>":11207,"ብርታት</w>":11208,"ሔክታር</w>":11209,"ማችንን</w>":11210,"ቀዶ</w>":11211,"ቂቱ</w>":11212,"ቬን":11213,"ከአንዱ</w>":11214,"መለያ</w>":11215,"የግሉ</w>":11216,"ስላለ</w>":11217,"አያሌው</w>":11218,"በበለጠ</w>":11219,"የሲቪል</w>":11220,"ወደፊቱ</w>":11221,"ታቅዶ</w>":11222,"ድልድይ</w>":11223,"ህጉ</w>":11224,"መሲ":11225,"ማሽን</w>":11226,"ርቀ":11227,"በጦር</w>":11228,"የኦሎምፒክ</w>":11229,"ይቀበ":11230,"እንዲህም</w>":11231,"ያስመዘገበ":11232,"ነበረኝ</w>":11233,"እስከዛሬ</w>":11234,"አስፈጻሚው</w>":11235,"ጎበዝ</w>":11236,"ቆስ":11237,"ዋስት":11238,"ደባቸው</w>":11239,"እንደሚናገሩት</w>":11240,"አቅምና</w>":11241,"ስቲክስ</w>":11242,"መደገፍ</w>":11243,"የሚችልበት</w>":11244,"ጸሐፊው</w>":11245,"ኢህአዴግን</w>":11246,"መቆራረጥ</w>":11247,"ሳህ":11248,"ባዩ</w>":11249,"የሳይንስ</w>":11250,"ዶም</w>":11251,"በረከተ":11252,"አቀባበል</w>":11253,"አውደ</w>":11254,"የመጀመርያ</w>":11255,"ተውታል</w>":11256,"በበላይነት</w>":11257,"ጠረጴዛ</w>":11258,"ዋስ</w>":11259,"ይለናል</w>":11260,"ከተጠቀ":11261,"አልፏል</w>":11262,"መሰጠ":11263,"ደመወ":11264,"ባለሙያዎቹ</w>":11265,"አሠልጣኝ</w>":11266,"ያካተተ</w>":11267,"ደመቀች</w>":11268,"መመረ":11269,"በቁጥር</w>":11270,"ካፕ</w>":11271,"የኔ":11272,"የቀበሌ</w>":11273,"ጎለ":11274,"ጎስ</w>":11275,"ጽም</w>":11276,"በአቅራ":11277,"አልተሰ":11278,"በትጋት</w>":11279,"የገቡ</w>":11280,"ጽሑፉ</w>":11281,"ክብርና</w>":11282,"የሚፈልገውን</w>":11283,"ዘረጋ</w>":11284,"የጠቀሱት</w>":11285,"በቀዳሚነት</w>":11286,"ማቀ":11287,"ማድሪ":11288,"የክርስቶስ</w>":11289,"ደረ</w>":11290,"ፋቱ</w>":11291,"የሚጫወ":11292,"አገራቸውን</w>":11293,"ፈልጎ</w>":11294,"በተለምዶ</w>":11295,"እግዜ":11296,"ተማሪዎቹ</w>":11297,"በዘለለ</w>":11298,"በድፍረት</w>":11299,"ያብራራሉ</w>":11300,"ተሰማርተው</w>":11301,"95</w>":11302,"ያዙት</w>":11303,"ጀትና</w>":11304,"አይን</w>":11305,"ዓመትም</w>":11306,"ወርቅ":11307,"የእህል</w>":11308,"ከታች</w>":11309,"ጥረቶች</w>":11310,"ውሳኔዎች</w>":11311,"ተለይቶ</w>":11312,"ለንባብ</w>":11313,"ነጻነት</w>":11314,"ያግዛል</w>":11315,"ርዕዮተ</w>":11316,"ተክለ":11317,"ተጀመረ</w>":11318,"የንግድና</w>":11319,"ፍታ</w>":11320,"ያደረገውን</w>":11321,"ወረቀ":11322,"ያስፈልገዋል</w>":11323,"ተገኝቷል</w>":11324,"ልዑል</w>":11325,"68</w>":11326,"ቆየ</w>":11327,"በአስ":11328,"ትሮ":11329,"ኪነ</w>":11330,"ጭፍ":11331,"በመከተል</w>":11332,"አገርና</w>":11333,"ተገቢው</w>":11334,"መብላት</w>":11335,"ማድረጋቸውን</w>":11336,"የኢጣሊያ</w>":11337,"አዛውንት</w>":11338,"ሙስናን</w>":11339,"አይደለሁም</w>":11340,"ኮንትሮ":11341,"ሀን</w>":11342,"ተለው":11343,"ችዋ</w>":11344,"ወት</w>":11345,"የጨረ":11346,"ያር":11347,"ጎብኝ":11348,"የሚረዳ</w>":11349,"ወደዚያ</w>":11350,"በምድብ</w>":11351,"አዝማሚያ</w>":11352,"በሶሪያ</w>":11353,"በታማኝነት</w>":11354,"መገደ":11355,"ሚር</w>":11356,"የጽን":11357,"ዮችና</w>":11358,"ጠጡ</w>":11359,"በተዘዋዋሪ</w>":11360,"አይፈ":11361,"በ2012</w>":11362,"የሀገሪቱን</w>":11363,"83</w>":11364,"ሀበሻ</w>":11365,"ሲጀመር</w>":11366,"ውሏል</w>":11367,"ያበ":11368,"ዴድ</w>":11369,"ጋጭ</w>":11370,"የሚንቀሳቀሱ</w>":11371,"ለማሸነፍ</w>":11372,"ገባበት</w>":11373,"ሰዓታት</w>":11374,"አልነበሩም</w>":11375,"ማሰባ":11376,"በጉባኤው</w>":11377,"ውሻ</w>":11378,"የብሄራዊ</w>":11379,"ያዳ":11380,"ያድር":11381,"ጠጣ</w>":11382,"አስነብ":11383,"ማስፋፋት</w>":11384,"አህጉር</w>":11385,"የተጠቀሱት</w>":11386,"ተክለ</w>":11387,"ኢንተርፕራይዞች</w>":11388,"ቀውና</w>":11389,"በኢንዱስትሪ</w>":11390,"ተከተ":11391,"ከስ</w>":11392,"የፌደራል</w>":11393,"ግቡ</w>":11394,"እንደሚኖረው</w>":11395,"ይወር":11396,"ሁለተኛውን</w>":11397,"እንግዲያው</w>":11398,"ተናግራለች</w>":11399,"ጋዜጦች</w>":11400,"እንዲሰፍን</w>":11401,"ደረግላቸው</w>":11402,"ይሰማኛል</w>":11403,"ያገኘነው</w>":11404,"መሞከር</w>":11405,"በገበያ</w>":11406,"ድባቸው</w>":11407,"ክርስት":11408,"ፈጥኖ</w>":11409,"እነርሱም</w>":11410,"ህንፃ</w>":11411,"መሆናቸውንም</w>":11412,"ለአገልግሎት</w>":11413,"መህ</w>":11414,"ሪዎቹን</w>":11415,"ታጅ":11416,"አሌ":11417,"ዛቸውን</w>":11418,"ያችሁ</w>":11419,"ያመላክ":11420,"የተቻ":11421,"በትብብር</w>":11422,"ብዙሃ":11423,"ማድረጋቸው</w>":11424,"መኪኖች</w>":11425,"ክሲዮን</w>":11426,"ንፁህ</w>":11427,"ምህ</w>":11428,"በጠቅላይ</w>":11429,"ያልታ":11430,"ይሄዳሉ</w>":11431,"መድሀ":11432,"በትዕግ":11433,"ለቃ</w>":11434,"ለአካባቢው</w>":11435,"በሃይማኖት</w>":11436,"በድርጅቱ</w>":11437,"ቀበለው</w>":11438,"የሚገኙትን</w>":11439,"አወቃ":11440,"ካፒታ":11441,"ሊኖራቸው</w>":11442,"ረውና</w>":11443,"ሩትና</w>":11444,"በራሳችን</w>":11445,"የሚከፍ":11446,"በመወከል</w>":11447,"ዘመናችን</w>":11448,"መጠን":11449,"ዕድሉ</w>":11450,"ተፈጽ":11451,"ሞልቶ</w>":11452,"ሸክ":11453,"በቡ":11454,"አላለ":11455,"ዓሊ</w>":11456,"ድሃ</w>":11457,"የሚናገ":11458,"አስብ</w>":11459,"በሚቀጥሉት</w>":11460,"ምርቱን</w>":11461,"ወዳጅ":11462,"የስልጠና</w>":11463,"ማተ":11464,"በቋ":11465,"ተካት</w>":11466,"ክቷል</w>":11467,"ውቅ":11468,"ያቆ":11469,"ይንት</w>":11470,"ጋላ":11471,"አባልነት</w>":11472,"ጻጸር</w>":11473,"ጨበጥ</w>":11474,"በምሳሌ":11475,"ሉባቸው</w>":11476,"ሊን":11477,"መተዳ":11478,"ማዋ":11479,"ቅጽ":11480,"ተሮች</w>":11481,"ኃያል</w>":11482,"አከናው":11483,"ያሬድ</w>":11484,"ይቆጠ":11485,"ግህ</w>":11486,"ጎራ":11487,"ፍጡር</w>":11488,"አባተ</w>":11489,"የተቀመጠ</w>":11490,"ብቃትና</w>":11491,"ፐብሊ":11492,"የሚያሰኝ</w>":11493,"ያምናል</w>":11494,"ሚስ</w>":11495,"ማለች</w>":11496,"ታዲ":11497,"ዘገበው</w>":11498,"ፈነ</w>":11499,"አቅማቸውን</w>":11500,"ግራና</w>":11501,"አለመቻ":11502,"ተገምቷል</w>":11503,"ልፉ</w>":11504,"ከአካባቢው</w>":11505,"ዱላ</w>":11506,"አስችሏል</w>":11507,"አይነቶች</w>":11508,"ይወሰ":11509,"ቅርጫት</w>":11510,"ፈለገ":11511,"በአንተ</w>":11512,"ኗቸው</w>":11513,"ከማለት</w>":11514,"የሚሄ":11515,"በአመራ":11516,"ግብአት</w>":11517,"የታዘ":11518,"መግለጫው</w>":11519,"ስለማይ":11520,"ተሳትፎና</w>":11521,"ሸለቆ</w>":11522,"በጦርነት</w>":11523,"የአገሪቷ</w>":11524,"የፈረንሳይ</w>":11525,"ጣቢያው</w>":11526,"የተሠ":11527,"ጠቅሷል</w>":11528,"የትኩረት</w>":11529,"ፓርቲዎቹ</w>":11530,"ማስተካከል</w>":11531,"ለመስማት</w>":11532,"ምግቦች</w>":11533,"እዚያም</w>":11534,"ይወስዳል</w>":11535,"ለዘርፉ</w>":11536,"ሪታ":11537,"ቪዲዮ</w>":11538,"ተለያ":11539,"አሃ":11540,"የታቸውን</w>":11541,"የዩኒቨርሲቲው</w>":11542,"ያት":11543,"ጂን</w>":11544,"በመምጣቱ</w>":11545,"መሳሰ":11546,"ሰልጣኞች</w>":11547,"ሜክሲኮ</w>":11548,"ሞኝ</w>":11549,"ሴራ</w>":11550,"በለት</w>":11551,"በኬንያ</w>":11552,"ኖኅ</w>":11553,"ዓርብ</w>":11554,"ጀነ":11555,"ለማጠናቀቅ</w>":11556,"ለማቃለል</w>":11557,"አገሪቷን</w>":11558,"መላኩ</w>":11559,"ፋይናን":11560,"ሚስጥር</w>":11561,"ጥቃቅን</w>":11562,"የተጀመረውን</w>":11563,"የአደጋ</w>":11564,"ይም":11565,"ይመር":11566,"ጣጣ</w>":11567,"ግብጽ</w>":11568,"ዓይነ</w>":11569,"ጠንከር</w>":11570,"አሜሪካን</w>":11571,"ዴቪድ</w>":11572,"ሊደርስ</w>":11573,"መፈጸ":11574,"ሲጠናቀቅ</w>":11575,"ቅናሽ</w>":11576,"በኤርትራ</w>":11577,"ቦል</w>":11578,"የቤተሰ":11579,"ደጀ":11580,"ደስተ":11581,"በመደገፍ</w>":11582,"በተያያ":11583,"ባህላ":11584,"ወርዶ</w>":11585,"ታማኝነት</w>":11586,"ስፍራው</w>":11587,"ድህረ</w>":11588,"የአርሶ</w>":11589,"ጎረቤ":11590,"ተባባሪ</w>":11591,"ሊቢያ</w>":11592,"ሽፈራው</w>":11593,"ባካሄደው</w>":11594,"ድካም</w>":11595,"ጩን</w>":11596,"ደንገ":11597,"ማዕከላ":11598,"ንድፈ</w>":11599,"ነዋሪው</w>":11600,"ወለል</w>":11601,"በ2013</w>":11602,"ማይ</w>":11603,"የቀን</w>":11604,"የሚገባቸው</w>":11605,"በመጠበቅ</w>":11606,"በአነስተኛ</w>":11607,"ንግተን</w>":11608,"ሰማቸው</w>":11609,"ባልሆነ</w>":11610,"ፈቃዱ</w>":11611,"ተሰጥቶት</w>":11612,"il":11613,"ከኤ":11614,"ፀደ":11615,"ፎቹ</w>":11616,"እየተሰጠ</w>":11617,"በሰቡ</w>":11618,"ትንቢ":11619,"ስንመለከት</w>":11620,"ወለደ</w>":11621,"ዝናኛ</w>":11622,"በፍፁም</w>":11623,"ከ100</w>":11624,"ጓደኛዬ</w>":11625,"64</w>":11626,"99</w>":11627,"ሚም</w>":11628,"በሥልጣን</w>":11629,"በእንስሳት</w>":11630,"ዕኖ":11631,"የጉዞ</w>":11632,"ይቅርና</w>":11633,"ድያ</w>":11634,"ጉጉት</w>":11635,"ፍነው</w>":11636,"በአቶ</w>":11637,"ገባሁ</w>":11638,"ተውት</w>":11639,"ችሎ</w>":11640,"ዘራ":11641,"እንከን</w>":11642,"የመካከ":11643,"ፈጥሮ":11644,"መፅሐፍ</w>":11645,"ማምረቻ</w>":11646,"ውስትራሊያ</w>":11647,"ለምን":11648,"መፈጠር</w>":11649,"ሪዋ</w>":11650,"ሲወጡ</w>":11651,"ከሰዎች</w>":11652,"ዕብ</w>":11653,"ያች</w>":11654,"ጾታ</w>":11655,"የሚጥ":11656,"ለመተግበር</w>":11657,"ለማለፍ</w>":11658,"የለባቸውም</w>":11659,"ያስፈልግ</w>":11660,"በራዊና</w>":11661,"ጥቂቶች</w>":11662,"አብዮታዊ</w>":11663,"የመነጨ</w>":11664,"መነጋገ":11665,"ሳካ":11666,"ሺፕ</w>":11667,"በዳ</w>":11668,"በምርምር</w>":11669,"ጉልበ":11670,"እንዲሠሩ</w>":11671,"ምክንያትም</w>":11672,"2005</w>":11673,"በልጅ":11674,"ፈጥሩ</w>":11675,"ብርቱ":11676,"የስር":11677,"ህይወታቸውን</w>":11678,"በዩ":11679,"ተገባ":11680,"ከባለ":11681,"የቅዱስ</w>":11682,"የህዝቡ</w>":11683,"የዓይን</w>":11684,"የገለጸው</w>":11685,"የፌዴራ":11686,"የሚሠራው</w>":11687,"ለማህ":11688,"የማምረት</w>":11689,"ተጠይ":11690,"አስተዳዳ":11691,"ከተማዋን</w>":11692,"ይቀን":11693,"ሽከርካሪ</w>":11694,"ለፍነው</w>":11695,"ይገኝበታል</w>":11696,"ሕብረተሰቡ</w>":11697,"ሞተር</w>":11698,"በእምነት</w>":11699,"ካኝ</w>":11700,"ወሎ</w>":11701,"ደክ":11702,"ገዱ</w>":11703,"ጩት</w>":11704,"በሚሰ":11705,"ጉዳቱ</w>":11706,"ሁኔታን</w>":11707,"ይወድ":11708,"ጨረስ</w>":11709,"ስፖርተኞችን</w>":11710,"የሰብል</w>":11711,"ልቤ</w>":11712,"ቲና</w>":11713,"ከ3</w>":11714,"የሁ":11715,"ያህ</w>":11716,"ዶክት":11717,"የሚሰራው</w>":11718,"እንዲመለሱ</w>":11719,"ለማምረት</w>":11720,"ዘመናቸው</w>":11721,"አገልግሎቶችን</w>":11722,"ነበረባቸው</w>":11723,"ያስተላል":11724,"ሏቸውን</w>":11725,"ምዕ":11726,"ባር</w>":11727,"ዛን</w>":11728,"ለመቀጠል</w>":11729,"ደርና</w>":11730,"ስተካከል</w>":11731,"ሕዝብና</w>":11732,"ከሚል</w>":11733,"ከሚያስ":11734,"አቀማ":11735,"ፈጥረው</w>":11736,"የቆዩ</w>":11737,"ትክክለኛውን</w>":11738,"ጥራትና</w>":11739,"ሃና</w>":11740,"ሠፈር</w>":11741,"በሕዝቡ</w>":11742,"የዋ</w>":11743,"የችው</w>":11744,"የተረጋጋ</w>":11745,"እንዲሳተፉ</w>":11746,"ተጠሪ</w>":11747,"ላለፈው</w>":11748,"ቆይተው</w>":11749,"ፈርስ</w>":11750,"ላሳ</w>":11751,"ቁኝ</w>":11752,"በፅ":11753,"ቲንግ</w>":11754,"ጡን":11755,"ጥይት</w>":11756,"ፍቅረ":11757,"የተጠናከረ</w>":11758,"እየደ":11759,"ናገኝ</w>":11760,"እየተሸ":11761,"በረሃ</w>":11762,"ምስጋ":11763,"ተረክ":11764,"ባለቤታቸው</w>":11765,"ውያንና</w>":11766,"መስጠቱ</w>":11767,"መዝናኛ</w>":11768,"ሔድ</w>":11769,"ሲሰራ</w>":11770,"ቃረ":11771,"በወን":11772,"የተፃ":11773,"የተረጋገጠ</w>":11774,"በመምጣት</w>":11775,"የመላ</w>":11776,"ስለነበረ</w>":11777,"ተከስቶ</w>":11778,"ሪያችን</w>":11779,"የወላ":11780,"ማስታወስ</w>":11781,"ኦሊምፒ":11782,"የተፈጠረ</w>":11783,"ገጠመ":11784,"በአዋጅ</w>":11785,"የተደራጀ</w>":11786,"ተሠር":11787,"ወል</w>":11788,"ግም":11789,"ጫል</w>":11790,"ከተጀመረ</w>":11791,"እንደሚሰራ</w>":11792,"መስህ":11793,"ገባች</w>":11794,"አድርጋ":11795,"ሁለተኛ":11796,"መጣና</w>":11797,"ቅሬታዎች</w>":11798,"የዳኝነት</w>":11799,"ክሌር</w>":11800,"ይፈጠራል</w>":11801,"ላሊት</w>":11802,"ማቅ":11803,"ማሞ</w>":11804,"ሲስ</w>":11805,"በቢ":11806,"በዲ":11807,"በየአካባቢው</w>":11808,"ታቸውንም</w>":11809,"እኒ":11810,"ካድ":11811,"ዛፎች</w>":11812,"ገፀ</w>":11813,"ጓዳ</w>":11814,"ቅርፅ</w>":11815,"ዴሞክራሲና</w>":11816,"የሚችሉበት</w>":11817,"የሌለበት</w>":11818,"በ2002</w>":11819,"በ2003</w>":11820,"ኦዲተር</w>":11821,"ምርታማነትን</w>":11822,"መታል</w>":11823,"ቆቹ</w>":11824,"እይታ</w>":11825,"ዙትን</w>":11826,"ይዳ":11827,"በመድ":11828,"እንዲያደር":11829,"ለማም":11830,"የመብት</w>":11831,"በማረጋገጥ</w>":11832,"የማምረ":11833,"እነዚሁ</w>":11834,"ጽሐፉ</w>":11835,"ከማንም</w>":11836,"የጎርፍ</w>":11837,"ከናውኑ</w>":11838,"ምሥራቹን</w>":11839,"ጥፋተኛ</w>":11840,"መንስኤ":11841,"በጋምቤላ</w>":11842,"en</w>":11843,"ማጅ</w>":11844,"ሪፐብሊ":11845,"በኮን":11846,"በከተማ":11847,"ኖሯል</w>":11848,"ኤግዚቢ":11849,"የብል":11850,"ፍስ":11851,"ፍሩ</w>":11852,"አለመሆኑ</w>":11853,"ስምምነቶች</w>":11854,"ከሌለ</w>":11855,"ርዝመት</w>":11856,"ለአራት</w>":11857,"መነጋገር</w>":11858,"ስማ</w>":11859,"ታቸውንና</w>":11860,"ናፈ":11861,"ጻድ":11862,"ፊደል</w>":11863,"ሰማይነህ</w>":11864,"ለማስረዳት</w>":11865,"መውደ":11866,"ቴክኖሎጂዎችን</w>":11867,"ጣሊያኖች</w>":11868,"፲፱፻":11869,"ለጥቂት</w>":11870,"ከሙ</w>":11871,"ዜሮ</w>":11872,"የና</w>":11873,"ይመጣሉ</w>":11874,"አቅምን</w>":11875,"ሥራዎቹ</w>":11876,"ተሳፋ":11877,"ስቃይ</w>":11878,"አማካይ</w>":11879,"መፅሀ":11880,"በዚህች</w>":11881,"አጥ</w>":11882,"ክሱም</w>":11883,"ዕውን</w>":11884,"ዙበት</w>":11885,"ጋግ":11886,"ግቦችን</w>":11887,"የመብራት</w>":11888,"ማስቀመጥ</w>":11889,"ተከሳሽ</w>":11890,"ማስተላለፍ</w>":11891,"ወንድሜ</w>":11892,"ሕይወቱን</w>":11893,"የሞባይል</w>":11894,"በጎች</w>":11895,"13":11896,"መረ</w>":11897,"እንዴ":11898,"የተደረጉ</w>":11899,"እንደታ":11900,"እንደማለት</w>":11901,"አለባበ":11902,"በስልክ</w>":11903,"ሃይማኖቶች</w>":11904,"ፈፀመው</w>":11905,"ማራቶ":11906,"መዛባት</w>":11907,"ፌደሬሽኑ</w>":11908,"ተግዳሮቶች</w>":11909,"73</w>":11910,"ቻዎች</w>":11911,"ኤን":11912,"ከሌሎቹ</w>":11913,"ዛና</w>":11914,"ይመል":11915,"ዴና</w>":11916,"ጊነት</w>":11917,"አስቀ":11918,"ለማክበር</w>":11919,"ምርቱ</w>":11920,"ጠበቃ</w>":11921,"የወረዳ</w>":11922,"መውጫ</w>":11923,"አጥንት</w>":11924,"የቀረው</w>":11925,"በዘር</w>":11926,"አድናቆ":11927,"ተለይተው</w>":11928,"ባስ</w>":11929,"ከደረ":11930,"የቡድኑ</w>":11931,"የዛሬው</w>":11932,"በተሟላ</w>":11933,"መለዋ":11934,"በሚባል</w>":11935,"ከመቼ":11936,"ለማስመዝገብ</w>":11937,"አለመግባ":11938,"ዕድሜው</w>":11939,"መጠናከር</w>":11940,"ብሮድካ":11941,"ህዳር</w>":11942,"መከላከ":11943,"በውድድር</w>":11944,"በክልሎች</w>":11945,"ቶኝ</w>":11946,"ከአቶ</w>":11947,"ፈፃ":11948,"ለማጣ":11949,"ዘጋጃ</w>":11950,"ውጤቱን</w>":11951,"ታሪክና</w>":11952,"ከራስ</w>":11953,"ታስታው":11954,"በመሆኗ</w>":11955,"ማስተካከያ</w>":11956,"In":11957,"ላኩ</w>":11958,"ልቀ":11959,"መዓ":11960,"ቲቪ</w>":11961,"እንደው</w>":11962,"አንስተዋል</w>":11963,"በመግዛት</w>":11964,"የስልክ</w>":11965,"በለንደን</w>":11966,"ተመራማሪ</w>":11967,"ታዘዝ</w>":11968,"የኪነ</w>":11969,"እንቁላል</w>":11970,"ሕግ":11971,"ቃችሁ</w>":11972,"በ2009</w>":11973,"ውጥረት</w>":11974,"የመንግሥቱ</w>":11975,"ጠበቀው</w>":11976,"አሳማኝ</w>":11977,"ድምዳሜ</w>":11978,"ደረጃቸውን</w>":11979,"ግድያ</w>":11980,"የመጀመርያው</w>":11981,"ሕይወትን</w>":11982,"ተካፋይ</w>":11983,"ይበልጣል</w>":11984,"ስብሰባው</w>":11985,"ሽንፈት</w>":11986,"ይነሳል</w>":11987,"አይቀሬ</w>":11988,"ቅኔ</w>":11989,"በባህር</w>":11990,"ተቀር":11991,"ታቦ":11992,"የጨዋታ</w>":11993,"ጭራሽ</w>":11994,"ፈሳሽ</w>":11995,"ፍሰ":11996,"እንዲችል</w>":11997,"የአፈር</w>":11998,"ልጆቻችሁ</w>":11999,"ስቴትስ</w>":12000,"ይሰጥ</w>":12001,"የባሰ</w>":12002,"አዘውት":12003,"ምኒል":12004,"ካሂድ</w>":12005,"የጠቆመው</w>":12006,"የመፍትሄ</w>":12007,"መዋቅራዊ</w>":12008,"74</w>":12009,"በጉባኤ</w>":12010,"አብ</w>":12011,"ጋሽ</w>":12012,"ፈም</w>":12013,"ለመጀመ":12014,"ለማን</w>":12015,"በማምጣት</w>":12016,"የአም":12017,"የአትክል":12018,"ሳይል</w>":12019,"ሊያስከትል</w>":12020,"ትችላለች</w>":12021,"ያነሰ</w>":12022,"ተሽከርካሪ</w>":12023,"በረሰቡን</w>":12024,"ድንጋጌዎች</w>":12025,"ሀት</w>":12026,"ለኔ</w>":12027,"ሬድ":12028,"ሰልጠን</w>":12029,"ሲገ":12030,"ቡባዊ</w>":12031,"ተመለሱ</w>":12032,"ከህዝቡ</w>":12033,"የሕገ</w>":12034,"የዚሁ</w>":12035,"የባህልና</w>":12036,"ይሰራ":12037,"ገጾች</w>":12038,"እንዲል</w>":12039,"መርሆ":12040,"የኢሕአዴግ</w>":12041,"መፅሃ":12042,"የሚስተዋሉ</w>":12043,"የሚባለውን</w>":12044,"40":12045,"am":12046,"ለራ":12047,"ለእናንተ</w>":12048,"ሊሰጥ</w>":12049,"ሊከሰት</w>":12050,"ሲጋራ</w>":12051,"ስባቸው</w>":12052,"ሸን</w>":12053,"ሸክም</w>":12054,"ትፈልጋ":12055,"አየሁ</w>":12056,"ዙም</w>":12057,"የክረምት</w>":12058,"ያበረታ":12059,"ይዋ":12060,"ይድ</w>":12061,"ለመሰብሰብ</w>":12062,"የመፍጠር</w>":12063,"ምርጫዎች</w>":12064,"ታወቁት</w>":12065,"አመር":12066,"ኃላፊነቱ</w>":12067,"ስቴንሽን</w>":12068,"ተደራሽነት</w>":12069,"አስቀምጧል</w>":12070,"ለከፍተኛ</w>":12071,"ለህዝቡ</w>":12072,"ራራ":12073,"በውል</w>":12074,"ቤቱም</w>":12075,"ተባቸው</w>":12076,"አፅ":12077,"ደፋር</w>":12078,"ፀሃ":12079,"የተለመ":12080,"እንዲደርስ</w>":12081,"አልኩት</w>":12082,"ሕዝቡም</w>":12083,"አንደበት</w>":12084,"የቻሉት</w>":12085,"ባለመቻሉ</w>":12086,"ባባስ</w>":12087,"በቀድሞው</w>":12088,"ለፈ</w>":12089,"ሺያ</w>":12090,"ቀችው</w>":12091,"ቤትን</w>":12092,"ትበት</w>":12093,"ኒኖ</w>":12094,"ከምን</w>":12095,"ከግብርና</w>":12096,"የቱርክ</w>":12097,"ዶና</w>":12098,"በመከላከል</w>":12099,"የሰዎችን</w>":12100,"ሁለቱንም</w>":12101,"በየነ</w>":12102,"ወዳደሩ</w>":12103,"በመስጠ":12104,"የሰብአዊ</w>":12105,"ተቃራኒ</w>":12106,"62</w>":12107,"ሽቶ</w>":12108,"ቅደም</w>":12109,"ኑኤል</w>":12110,"ናቸውና</w>":12111,"ዘንድ":12112,"የጌ":12113,"የባለ":12114,"ዶን</w>":12115,"ፍፃሜ</w>":12116,"ለማልማት</w>":12117,"እርሱም</w>":12118,"አብር":12119,"ከሰሞኑ</w>":12120,"የገቡት</w>":12121,"እስራኤልን</w>":12122,"ጽንሰ</w>":12123,"አገላለጽ</w>":12124,"ለዩ</w>":12125,"ቢዎቹ</w>":12126,"የሦስት</w>":12127,"የኢትዮ</w>":12128,"መሆን":12129,"ይገመታል</w>":12130,"ሸነፉ</w>":12131,"የዳያስፖ":12132,"ተልዕኮ":12133,"ኛውና</w>":12134,"ከነ</w>":12135,"ከአል":12136,"የኦሊምፒክ</w>":12137,"ዳትና</w>":12138,"ፈጻ":12139,"ፌሶን</w>":12140,"ሰራጨት</w>":12141,"በምሥራቅ</w>":12142,"የቻይ":12143,"ፍልሚያ</w>":12144,"ዳረጉ</w>":12145,"በመቀነስ</w>":12146,"ለአብነትም</w>":12147,"ሪክኛ</w>":12148,"50":12149,"ሃም</w>":12150,"በሺዎች</w>":12151,"ቹንና</w>":12152,"አናት</w>":12153,"ከሃ":12154,"ከዘርፉ</w>":12155,"ደስ":12156,"በመመ":12157,"እያየ</w>":12158,"ገኘቱ</w>":12159,"ሆነህ</w>":12160,"2004</w>":12161,"በሰበ</w>":12162,"ጠየቁት</w>":12163,"አልነበረውም</w>":12164,"ከፋፍ":12165,"ዲፕሎማሲያዊ</w>":12166,"እመቤት</w>":12167,"ጥሩነሽ</w>":12168,"ሲደርሱ</w>":12169,"ንቃ":12170,"የድል</w>":12171,"የሚቀጥል</w>":12172,"አበባው</w>":12173,"ወዳደ":12174,"እንግልት</w>":12175,"ሰላማ":12176,"የተለዩ</w>":12177,"ጨመሩ</w>":12178,"በሕገወጥ</w>":12179,"አይታወቅም</w>":12180,"ዲዛይ":12181,"ሕትና</w>":12182,"ሠፊ</w>":12183,"ሳም</w>":12184,"በግንባታ</w>":12185,"በዓመቱ</w>":12186,"ቦታውን</w>":12187,"ቷት</w>":12188,"ኃያላ":12189,"የሌሎችን</w>":12190,"ያሻ":12191,"የሚሳተፉ</w>":12192,"በመቀበል</w>":12193,"እየተከናወኑ</w>":12194,"የትብብር</w>":12195,"የትውልድ</w>":12196,"ስለሚችል</w>":12197,"ታደስ</w>":12198,"ዕውቀትና</w>":12199,"ጠራቀ":12200,"ይስማማ":12201,"የተከሰተውን</w>":12202,"ልፎ</w>":12203,"ከማንኛውም</w>":12204,"እንዳላት</w>":12205,"ተደርጐ</w>":12206,"ሐሳቡን</w>":12207,"ለማስተማር</w>":12208,"ትስስ":12209,"የሚያውቅ</w>":12210,"ተጨዋች</w>":12211,"ፈፅሞ</w>":12212,"አፍቃሪ</w>":12213,"አተኩ":12214,"ከነበረበት</w>":12215,"ዘጋ</w>":12216,"ያቃ":12217,"ለማዳን</w>":12218,"ወጣቱን</w>":12219,"ፖሊሲው</w>":12220,"በ2005</w>":12221,"ብስክሌት</w>":12222,"በመካከላቸው</w>":12223,"የሚረዱ</w>":12224,"ያስፈልጋቸዋል</w>":12225,"በሀገ":12226,"ኔታ</w>":12227,"እንደምና":12228,"ለማስተዋወቅ</w>":12229,"የአበ":12230,"ተከላ":12231,"ወርቃ":12232,"የነበረበት</w>":12233,"ራስህ</w>":12234,"የሐሰት</w>":12235,"ደላሎች</w>":12236,"ሐውልት</w>":12237,"መፈተሽ</w>":12238,"ቦራ":12239,"ትዮሽ</w>":12240,"ቻቸውና</w>":12241,"አቆ":12242,"የሚከሰ":12243,"የሚነገር":12244,"እንዲሸ":12245,"ከተቋቋ":12246,"ችግርና</w>":12247,"ኢንጅ":12248,"ዕድሉን</w>":12249,"ማስረ":12250,"የተቀላቀ":12251,"የካር":12252,"የካፒ":12253,"ደንበኞ":12254,"የክልሉን</w>":12255,"un":12256,"ሜውን</w>":12257,"ቶቻችንን</w>":12258,"ኅራ":12259,"ያጠና":12260,"ያከናወ":12261,"ደሰ":12262,"ለመጠየቅ</w>":12263,"መጠይ":12264,"ገኛለን</w>":12265,"ይገልፃል</w>":12266,"ag":12267,"መተ</w>":12268,"ቤቷ</w>":12269,"አነጋ":12270,"ከገ":12271,"የፕሪሚየር</w>":12272,"ፈና</w>":12273,"ማህበረ":12274,"አይታይም</w>":12275,"77</w>":12276,"ለትና</w>":12277,"ረቱ</w>":12278,"ራቸውና</w>":12279,"ሻን</w>":12280,"ሻም</w>":12281,"ሽፋ":12282,"ቶበታል</w>":12283,"ከአባ":12284,"ከክልሉ</w>":12285,"ክብ</w>":12286,"ኮሜ":12287,"ዋዜማ</w>":12288,"ያጠፋ":12289,"ፅጌ":12290,"የሚቀርብ</w>":12291,"እንደተቀ":12292,"መንና</w>":12293,"ድርድሩ</w>":12294,"አጋን":12295,"የዘረ":12296,"ደመቀ</w>":12297,"አስገዳጅ</w>":12298,"ህልው":12299,"ተገልጋ":12300,"ሰጪዎች</w>":12301,"በርግጥ</w>":12302,"እወዳለሁ</w>":12303,"ኖክ</w>":12304,"ኖችም</w>":12305,"ጣችሁ</w>":12306,"የሚቻል</w>":12307,"ለመለ":12308,"በተካሄደ</w>":12309,"የትን":12310,"ክትባት</w>":12311,"የኤጀን":12312,"እናንተን</w>":12313,"ትክክለኛው</w>":12314,"ልበስ</w>":12315,"ተኝነትን</w>":12316,"ሽብርተኝነት</w>":12317,"ላቀ</w>":12318,"መፈለግ</w>":12319,"ቀናል</w>":12320,"በህዝቡ</w>":12321,"የሥጋ</w>":12322,"ደለው</w>":12323,"የተገኘውን</w>":12324,"አስፍ":12325,"ለመቅ":12326,"ብሄሮች</w>":12327,"ሙስናና</w>":12328,"በአውሮ":12329,"ሽግግ":12330,"በሙያው</w>":12331,"እሳቤ</w>":12332,"ርካ":12333,"በ1</w>":12334,"ቦታዎችን</w>":12335,"ነቢያ":12336,"የዓመቱ</w>":12337,"ፀሀ":12338,"በመለ":12339,"አይነቱ</w>":12340,"በማሻሻል</w>":12341,"መሆናችን</w>":12342,"መጣቸው</w>":12343,"የሚሰጣቸው</w>":12344,"አሰባ":12345,"ማለታቸው</w>":12346,"ሰላሳ</w>":12347,"መሰረቱ</w>":12348,"ለመሸፈን</w>":12349,"ባቀረቡት</w>":12350,"4ኛ</w>":12351,"ሞላው</w>":12352,"ትሆናለች</w>":12353,"ጉቦ</w>":12354,"እንገኛለን</w>":12355,"እንደገለጸው</w>":12356,"ለመድ":12357,"ሳይቀሩ</w>":12358,"ገለፀ</w>":12359,"መሰክ":12360,"በበጎ</w>":12361,"ቅብ":12362,"ተውም</w>":12363,"ኒየም</w>":12364,"የከረ":12365,"ደንግ":12366,"ገኝነት</w>":12367,"ጽድ":12368,"አስቴር</w>":12369,"የመሪዎች</w>":12370,"እንደሚደረግ</w>":12371,"የምድብ</w>":12372,"ስራቸውን</w>":12373,"መታገል</w>":12374,"ድንጋጤ</w>":12375,"ውይይቶች</w>":12376,"ነገረኝ</w>":12377,"ፅንፈኛ</w>":12378,"ኒስቴሩ</w>":12379,"ፀዳጃ</w>":12380,"ያስገኛል</w>":12381,"ፕሮፓጋንዳ</w>":12382,"ቶቿ</w>":12383,"ዓሣ</w>":12384,"ገሩ</w>":12385,"አስደን":12386,"ያስተማ":12387,"ልማቱን</w>":12388,"የያዙት</w>":12389,"አናሳ</w>":12390,"በነበሩት</w>":12391,"አያል":12392,"ካዳ":12393,"ፅን</w>":12394,"ፈኑ</w>":12395,"በመኪና</w>":12396,"የአእምሮ</w>":12397,"አስተም":12398,"መርከብ</w>":12399,"የበሽ":12400,"አራቱ</w>":12401,"ተሰጥቶ</w>":12402,"አውጥተው</w>":12403,"ልጃገረ":12404,"ጉዞው</w>":12405,"ግብዓቶች</w>":12406,"ፌስቲቫል</w>":12407,"ዮርዳኖስ</w>":12408,"ማቀነ":12409,"ሮሎጂ</w>":12410,"በና</w>":12411,"ይባል</w>":12412,"ዳሽ</w>":12413,"ጣለች</w>":12414,"የተሠሩ</w>":12415,"በመሸጥ</w>":12416,"እያዩ</w>":12417,"ያልቻ":12418,"አሸናፊ":12419,"አጠናክ":12420,"አገራትን</w>":12421,"መቆየቱን</w>":12422,"ድሶው</w>":12423,"ሀቅ</w>":12424,"ለአፍ":12425,"በአገ":12426,"በእስ":12427,"በቁርጠኝነት</w>":12428,"ተነጋግ":12429,"የ19":12430,"2003</w>":12431,"እግረ</w>":12432,"አላገኘ":12433,"በ2011</w>":12434,"ሳምንቱ</w>":12435,"መወሰን</w>":12436,"ማጠናቀ":12437,"በሳምንት</w>":12438,"ባውን</w>":12439,"ተፈጠረ</w>":12440,"ታደርጋ":12441,"ካሣ":12442,"የድጋፍ</w>":12443,"ይከፈ":12444,"ፍቺ</w>":12445,"ፍሰት</w>":12446,"እንደሚገባው</w>":12447,"ተዋጊዎች</w>":12448,"አጣጥ":12449,"መዛሙር":12450,"የጽንስና</w>":12451,"መዘርጋት</w>":12452,"ብዳ":12453,"ከራሳቸው</w>":12454,"ከሕዝቡ</w>":12455,"ዓባይ</w>":12456,"የብቃት</w>":12457,"የቁጥጥር</w>":12458,"እንደነ":12459,"በተዘጋጀው</w>":12460,"መልካች</w>":12461,"እንዳይወ":12462,"መዘንጋት</w>":12463,"ስድስተኛ</w>":12464,"አራተኛው</w>":12465,"ተሸን":12466,"ደረገም</w>":12467,"ጥቃቶች</w>":12468,"ፍቃዱ</w>":12469,"ጓደኞቼ</w>":12470,"አማራጮችን</w>":12471,"ራህ</w>":12472,"ሰሰ</w>":12473,"ሶችና</w>":12474,"በከንቱ</w>":12475,"ብዮ":12476,"ቶዶ":12477,"ቼል":12478,"ኮራ":12479,"ዋሉ</w>":12480,"ይቺን</w>":12481,"ፓኬ":12482,"አቅርቦ</w>":12483,"የቀደ":12484,"ተጋድ":12485,"ክርስቲያናዊ</w>":12486,"የተማሪዎች</w>":12487,"የደረሰበት</w>":12488,"ተወላጅ</w>":12489,"oc":12490,"ሕግን</w>":12491,"ቆጣ</w>":12492,"በለው</w>":12493,"በለጠ</w>":12494,"ቻቸውም</w>":12495,"ኘውን</w>":12496,"ከሕዝብ</w>":12497,"የሚነግ":12498,"የሚከሰት</w>":12499,"የሚያስተዳ":12500,"ተከላ</w>":12501,"ተግባሩ</w>":12502,"ገበያ":12503,"ሕይወቱ</w>":12504,"ፈረንጅ</w>":12505,"በለዚያ</w>":12506,"ኤልሳ":12507,"ለንደን</w>":12508,"የበለፀ":12509,"88</w>":12510,"ለረዥም</w>":12511,"ላትን</w>":12512,"ሳኦል</w>":12513,"ከፈል":12514,"ከዳር</w>":12515,"ዘሮች</w>":12516,"ግኝት</w>":12517,"የሚውሉ</w>":12518,"እንዲሄድ</w>":12519,"በማዳ":12520,"የእሳት</w>":12521,"ትርጓ":12522,"እንደማያ":12523,"መምረጥ</w>":12524,"አንባቢ</w>":12525,"ይተርስ</w>":12526,"ተላላፊ</w>":12527,"ይኖራቸዋል</w>":12528,"ማቆም</w>":12529,"ሟች</w>":12530,"ሲመ":12531,"ዓለሙ</w>":12532,"ዛቀ":12533,"ተጠም":12534,"በቀውን</w>":12535,"ኃይማኖት</w>":12536,"አሳሳ":12537,"አድማሱ</w>":12538,"አጀንዳዎች</w>":12539,"እየሰጡ</w>":12540,"ሂም</w>":12541,"ቁሳዊ</w>":12542,"በሮ":12543,"ቡር":12544,"ቡንም</w>":12545,"ዮችም</w>":12546,"እንዲቻል</w>":12547,"ግብፃ":12548,"ተከታይ</w>":12549,"ከሰባት</w>":12550,"ለሚሆኑ</w>":12551,"መዘገብ</w>":12552,"ገኛቸው</w>":12553,"ሸው</w>":12554,"እሚ":12555,"ከቀኑ</w>":12556,"ዜሽን</w>":12557,"ደሉ</w>":12558,"ጥምረት</w>":12559,"መሰራት</w>":12560,"ፕሮፖ":12561,"በስምም":12562,"በእጥፍ</w>":12563,"የስነ":12564,"የሆነች</w>":12565,"እንደነበርም</w>":12566,"ምቾ":12567,"በሰማ":12568,"የጭ":12569,"የድህነት</w>":12570,"ያኛው</w>":12571,"ጥጥ</w>":12572,"በመቃወም</w>":12573,"አስጨ":12574,"የመያዝ</w>":12575,"ላለፈ</w>":12576,"ሰማሩ</w>":12577,"ዋንጫውን</w>":12578,"ውያንም</w>":12579,"ዲያብሎስ</w>":12580,"ኩህ</w>":12581,"የድምፅ</w>":12582,"ጠግ":12583,"የሚወጣ":12584,"ለመጨረሻ</w>":12585,"የመለ":12586,"የሚያጠና":12587,"አብሮ":12588,"ቀረጥ</w>":12589,"ዝርዝ":12590,"ሰይጣ":12591,"አስገኝ":12592,"አያስፈልግም</w>":12593,"ቁልቁል</w>":12594,"ty</w>":12595,"ለአርሶ</w>":12596,"ሎተሪ</w>":12597,"ስው":12598,"ደማቅ</w>":12599,"ከተሰ":12600,"አብቅ":12601,"ለተወሰነ</w>":12602,"የሚፈልገው</w>":12603,"አይኖረውም</w>":12604,"ቢሮዎች</w>":12605,"ጭቆና</w>":12606,"ሰውና</w>":12607,"ቂኝ</w>":12608,"ባሪ</w>":12609,"ታችንም</w>":12610,"ታችሁን</w>":12611,"ወፍ</w>":12612,"የየ":12613,"የሌላ</w>":12614,"ያመለከቱት</w>":12615,"ጉራ":12616,"ጣፋ":12617,"መሠዊ":12618,"የማይባል</w>":12619,"አቋቁ":12620,"መላሽ</w>":12621,"አስተሳሰብና</w>":12622,"ተራሮች</w>":12623,"መጠበቂያ</w>":12624,"ዘይቤ</w>":12625,"ሕግና</w>":12626,"ስማማ":12627,"ችስተር</w>":12628,"ነድ":12629,"ኛለህ</w>":12630,"ደብረ":12631,"ድባብ</w>":12632,"ዶችም</w>":12633,"ፅዳት</w>":12634,"አምኖ</w>":12635,"እርባ":12636,"ክፍሎችን</w>":12637,"ሥራችን</w>":12638,"ወዳድ</w>":12639,"መጣጠነ</w>":12640,"መንገዶችን</w>":12641,"መነቃ":12642,"ጥቅሙ</w>":12643,"ኖርባቸው</w>":12644,"ትናንሽ</w>":12645,"ባለሙያዎችና</w>":12646,"በማስተማር</w>":12647,"መጠናቀ":12648,"ከመቼውም</w>":12649,"ቶዶክስ</w>":12650,"ሞከር</w>":12651,"በጽሑፍ</w>":12652,"ተሽ":12653,"ተሻ</w>":12654,"ተደብ":12655,"ኒያ":12656,"ኒክስ</w>":12657,"እራሱን</w>":12658,"ጣውን</w>":12659,"ፏቸው</w>":12660,"አስቦ</w>":12661,"በማለትም</w>":12662,"የሚያገለግል</w>":12663,"ግብአ":12664,"ወስደ":12665,"መደብ":12666,"ፍላጎቱ</w>":12667,"ኮሌጁ</w>":12668,"በአካባቢያቸው</w>":12669,"መስተንግ":12670,"ውዝግብ</w>":12671,"ለቤት</w>":12672,"ሊመጣ</w>":12673,"ነጠላ</w>":12674,"ኢብራ":12675,"ከወን":12676,"ጤናና</w>":12677,"የሚፈጠ":12678,"የሚመራ":12679,"ለመመልከት</w>":12680,"ዓመፅ</w>":12681,"ጠቅም</w>":12682,"ጠበቅና</w>":12683,"ዝግጁ":12684,"በታላቁ</w>":12685,"እንዳለብን</w>":12686,"ምስጢ":12687,"የዘንድሮ</w>":12688,"እህቶች</w>":12689,"የተባለች</w>":12690,"ተመስገን</w>":12691,"ዓለማየሁ</w>":12692,"በአንጻሩ</w>":12693,"ላላቸው</w>":12694,"ራን":12695,"ሰቡት</w>":12696,"ሻም":12697,"የሠራዊት</w>":12698,"የአገራችንን</w>":12699,"ግሎ":12700,"ጢሞ</w>":12701,"ፈተ</w>":12702,"የሰጡ</w>":12703,"ታውቀው</w>":12704,"ሰርተው</w>":12705,"ክርስቶስን</w>":12706,"እንደሌላቸው</w>":12707,"ምሽቱ</w>":12708,"መሰናክል</w>":12709,"ሥፍራዎች</w>":12710,"ለር</w>":12711,"ሐት</w>":12712,"ሯችን</w>":12713,"ሰባቸው</w>":12714,"ኒሻንጉል</w>":12715,"ከመጠን</w>":12716,"ኪንግ</w>":12717,"የቋንቋ</w>":12718,"ደል":12719,"ጣዕ":12720,"ፑቲን</w>":12721,"የሚበልጡ</w>":12722,"የመዋ":12723,"ዘርላንድ</w>":12724,"የሚገመት</w>":12725,"አውታ":12726,"ጨዋታ":12727,"ክንው":12728,"በአካባቢ</w>":12729,"98</w>":12730,"መፋ":12731,"ሪነትና</w>":12732,"ሰኛ</w>":12733,"ሳውያን</w>":12734,"ቢያደር":12735,"ባችንን</w>":12736,"ቧን":12737,"ከምድር</w>":12738,"ውሸ":12739,"ጋሉ</w>":12740,"ጮህ</w>":12741,"ጴጥ</w>":12742,"የሚያስተም":12743,"እምቅ</w>":12744,"የህል":12745,"ጓደኛው</w>":12746,"ፕላኑ</w>":12747,"የሚያውቀው</w>":12748,"ይጠቅማል</w>":12749,"ንግግራቸው</w>":12750,"የአፍሪካን</w>":12751,"የአረንጓዴ</w>":12752,"ኮሎኔል</w>":12753,"ፍጆታ</w>":12754,"ተጀምሮ</w>":12755,"ኤስ":12756,"የይሁዳ</w>":12757,"የተያዘ":12758,"ገልጾ</w>":12759,"እየሳ":12760,"2014</w>":12761,"አጥን":12762,"ትምህርትን</w>":12763,"ተቃውሞ":12764,"ኒስትሮች</w>":12765,"ታታኝ</w>":12766,"11":12767,"ch":12768,"መደ</w>":12769,"ኋት</w>":12770,"እሷን</w>":12771,"ኳታር</w>":12772,"ዙና</w>":12773,"የሱዳን</w>":12774,"ጮቹ</w>":12775,"መሰን":12776,"የሰለጠነ</w>":12777,"አትር":12778,"አገልግሎትን</w>":12779,"ሲያሳ":12780,"ጠንካራና</w>":12781,"ግርግር</w>":12782,"መመርመር</w>":12783,"ስታድዬም</w>":12784,"ሕንፃዎች</w>":12785,"ተፈጻሚ</w>":12786,"መፈጠ":12787,"ረዘም</w>":12788,"ስዩም</w>":12789,"ነት":12790,"ጋቡ</w>":12791,"የሚንቀሳቀ":12792,"የተነሱ</w>":12793,"ሠራም</w>":12794,"ራሳችሁ</w>":12795,"እውነታው</w>":12796,"መቻሉ</w>":12797,"ተያይዘው</w>":12798,"ተደራሽ":12799,"በውኃ</w>":12800,"አባላትና</w>":12801,"ሄደች</w>":12802,"ተሻሽ":12803,"መስመሮች</w>":12804,"በአፋጣኝ</w>":12805,"ደስተኞች</w>":12806,"ለብ</w>":12807,"ላሉት</w>":12808,"መኮን":12809,"መዲና</w>":12810,"ቀረው</w>":12811,"ናዊው</w>":12812,"አመን":12813,"ኩር":12814,"ገፋ":12815,"መስሎ":12816,"ክልሎችና</w>":12817,"ኢንፎርሜሽን</w>":12818,"ሠራተኞችን</w>":12819,"ያሳተ":12820,"የደስታ</w>":12821,"ገኙና</w>":12822,"ታንዛ":12823,"ድንኳኑ</w>":12824,"ያስከትላል</w>":12825,"የተዛባ</w>":12826,"120</w>":12827,"ህብረተሰ":12828,"ሊፈጠር</w>":12829,"ማዘውተሪያ</w>":12830,"ከዘ":12831,"ከልክ</w>":12832,"የክለቡ</w>":12833,"የሳይንስና</w>":12834,"ጣችን</w>":12835,"ጥልቀት</w>":12836,"ፋንታ</w>":12837,"የተግባር</w>":12838,"የመል":12839,"እየሸ":12840,"ከሚገኙት</w>":12841,"ይገባሉ</w>":12842,"ምፒው":12843,"አድሮ</w>":12844,"መንገድና</w>":12845,"የቆየውን</w>":12846,"በገጠ":12847,"በ2004</w>":12848,"ምድረ</w>":12849,"ችሎቱ</w>":12850,"አገልጋዮቹ</w>":12851,"ጨምሯል</w>":12852,"ዘለቄ":12853,"የተገነባው</w>":12854,"86</w>":12855,"ልተን</w>":12856,"ስቱ":12857,"ተዘዋ":12858,"የፖ":12859,"የተጀመሩ</w>":12860,"በመሰብሰብ</w>":12861,"በአማርኛ</w>":12862,"የሰነ":12863,"ቋቋመው</w>":12864,"መብቱ</w>":12865,"አስታውሰው</w>":12866,"ወጥነት</w>":12867,"ሰምቻለሁ</w>":12868,"ፖሊሲዎች</w>":12869,"እንደሚያሳየው</w>":12870,"ረገድም</w>":12871,"ነቢዩ</w>":12872,"ቋርጥ</w>":12873,"በተናጠል</w>":12874,"ህሊ":12875,"ማጥናት</w>":12876,"ቼስ</w>":12877,"ከቻይና</w>":12878,"ደዌ</w>":12879,"ጀሪያ</w>":12880,"እንደሚጠበቅ":12881,"የማቅረብ</w>":12882,"መሰገ":12883,"ወደቀ</w>":12884,"በረጅም</w>":12885,"የተሰራ</w>":12886,"የውሳኔ</w>":12887,"መቆየት</w>":12888,"አዘጋጅነት</w>":12889,"ድራማ</w>":12890,"ተቋራጮች</w>":12891,"ሕክምና":12892,"በሥ":12893,"ችበትን</w>":12894,"አሏቸው</w>":12895,"የደረጃ</w>":12896,"ጅተው</w>":12897,"ፊፋ</w>":12898,"በማቋቋም</w>":12899,"እርከን</w>":12900,"ጊዜያቸውን</w>":12901,"አዳጋች</w>":12902,"ህይወትን</w>":12903,"ጥፋቱ</w>":12904,"ኮሚሽነ":12905,"የተፋሰስ</w>":12906,"76</w>":12907,"ረጠ</w>":12908,"ሬስቶ":12909,"በሱዳን</w>":12910,"በክረምት</w>":12911,"ናችንን</w>":12912,"ንዲ":12913,"ጠኑ</w>":12914,"እንዳይኖር</w>":12915,"ደጋገ":12916,"ፈላጊ":12917,"በማድረጉ</w>":12918,"ውሃና</w>":12919,"92</w>":12920,"ሞከረ</w>":12921,"ቦኮ":12922,"ተቱ</w>":12923,"ነፋ":12924,"እጣ</w>":12925,"በመቅ":12926,"የማር":12927,"አልገባ":12928,"ደራደር</w>":12929,"ሥልጣንና</w>":12930,"ይሁን":12931,"የቀረቡ</w>":12932,"78</w>":12933,"ev":12934,"ማጥ":12935,"ምግብና</w>":12936,"በወጣው</w>":12937,"ቶቼ</w>":12938,"ቸል</w>":12939,"ነነ</w>":12940,"ኖም</w>":12941,"አድ</w>":12942,"የነው</w>":12943,"የፓርቲ</w>":12944,"የሩጫ</w>":12945,"ገምገም</w>":12946,"የተዘረ":12947,"ከተሞችን</w>":12948,"በሚያደርጉት</w>":12949,"እያወ":12950,"ከመጽሐፍ</w>":12951,"ፍትሕ":12952,"ተሳስ":12953,"የተሰሩ</w>":12954,"መብታቸው</w>":12955,"ሚያዚያ</w>":12956,"በመጠቆም</w>":12957,"ኮርፖሬሽኑ</w>":12958,"ሰፋፊ</w>":12959,"ገናዘበ</w>":12960,"ግሩፕ</w>":12961,"ሁነኛ</w>":12962,"ርስት</w>":12963,"ሰለት</w>":12964,"ቀሱ</w>":12965,"ኔስኮ</w>":12966,"ከርድ</w>":12967,"ድንግ":12968,"ፈችው</w>":12969,"መንን</w>":12970,"አትችልም</w>":12971,"ጊዜውም</w>":12972,"ቀበልም</w>":12973,"አጋዥ</w>":12974,"ትራን":12975,"የጥናትና</w>":12976,"አጥነት</w>":12977,"ወለጋ</w>":12978,"ህፃን</w>":12979,"ገነዘቡ</w>":12980,"ደጋግመው</w>":12981,"ትዝታ</w>":12982,"ሜዳሊያዎችን</w>":12983,"ይሉታል</w>":12984,"ማስረጃዎች</w>":12985,"ሊኖሩ</w>":12986,"ቅመ":12987,"በቴሌቪዥን</w>":12988,"በእንግሊዝኛ</w>":12989,"ከጀመሩ</w>":12990,"ጽሁ":12991,"ጽድቅ</w>":12992,"አይዞ":12993,"በአባ":12994,"እየጎ":12995,"ምንቱ</w>":12996,"አጠናክረው</w>":12997,"የቅጣት</w>":12998,"ተመስርቶ</w>":12999,"መጓደል</w>":13000,"250</w>":13001,"ህመ":13002,"ነቴን</w>":13003,"ኖሩበት</w>":13004,"እሴ":13005,"የጂ":13006,"ዮስ</w>":13007,"ጃችን</w>":13008,"ድርጅቶችን</w>":13009,"አውቆ</w>":13010,"ድምፁን</w>":13011,"ንድስና</w>":13012,"ደረሰኝ</w>":13013,"ፕሪሚዬር</w>":13014,"የሚጠቅም</w>":13015,"በተቃራኒ</w>":13016,"ጽንፈኛ</w>":13017,"ሸናፊነት</w>":13018,"ዱቄት</w>":13019,"አመርቂ</w>":13020,"መከታተል</w>":13021,"ሞችና</w>":13022,"በኢህአዴግ</w>":13023,"ባቢሎን</w>":13024,"ታል":13025,"የወንድ</w>":13026,"ያከናው":13027,"ይከታተ":13028,"አስበው</w>":13029,"አልፈ":13030,"ምክረ</w>":13031,"ከፍቶ</w>":13032,"ፈልገውን</w>":13033,"ሁኔታና</w>":13034,"አቀራረብ</w>":13035,"ተመሥር":13036,"ጠንክሮ</w>":13037,"ዮሐን":13038,"እየመጣ</w>":13039,"በየአመቱ</w>":13040,"አምባገነን</w>":13041,"አድርጓቸዋል</w>":13042,"እቴጌ</w>":13043,"os":13044,"ሌባ</w>":13045,"በእስር</w>":13046,"ኤፍሬም</w>":13047,"ጌጥ</w>":13048,"የሚከተለው</w>":13049,"ለማዊ</w>":13050,"መስኖ</w>":13051,"የወተት</w>":13052,"ግለሰቦችን</w>":13053,"ሄድም</w>":13054,"ሶም</w>":13055,"ብላት</w>":13056,"ቦና</w>":13057,"ናቱን</w>":13058,"ንሰር</w>":13059,"እዚህም</w>":13060,"እንላለን</w>":13061,"አልሰማ":13062,"ንያን</w>":13063,"ያለመ</w>":13064,"እየተባባ":13065,"ነዋሪዎቹ</w>":13066,"ተፈታታኝ</w>":13067,"ማራኪ</w>":13068,"ሁሌ</w>":13069,"ለሆነው</w>":13070,"ሣይ</w>":13071,"ሴም</w>":13072,"ቅል</w>":13073,"በፈቃደኝነት</w>":13074,"ኪስ</w>":13075,"የዜና</w>":13076,"ጀማ":13077,"እንዲካሄድ</w>":13078,"አስችሎ":13079,"ደግፍ</w>":13080,"ይገባናል</w>":13081,"ተወው</w>":13082,"በቅርቡም</w>":13083,"ታውቃላችሁ</w>":13084,"ልንም</w>":13085,"ሕጎ":13086,"መተላለ":13087,"ቦቹን</w>":13088,"አጼ</w>":13089,"እንቆ":13090,"አይኖር":13091,"በማደግ</w>":13092,"ዘርዝ":13093,"የታክሲ</w>":13094,"ልምድና</w>":13095,"አንዳችም</w>":13096,"የሶሪያ</w>":13097,"ያቀርባሉ</w>":13098,"እንኳንስ</w>":13099,"ለወጣቶች</w>":13100,"ቀለማ":13101,"በና":13102,"አጤ</w>":13103,"ዊነቱ</w>":13104,"ዕይታ</w>":13105,"ገምግ":13106,"እየተጠቀ":13107,"ውድመት</w>":13108,"ልጆቼ</w>":13109,"መዝገቡ</w>":13110,"ዳግማዊ</w>":13111,"ለቀጣይ</w>":13112,"ረሳ</w>":13113,"የዩኒቨርሲቲ</w>":13114,"ይላ":13115,"ጀኔ":13116,"ግዜ</w>":13117,"ፀባር":13118,"ፍራው</w>":13119,"የተጓ":13120,"በሚያሳ":13121,"የሚያስተናግ":13122,"ጊዜን</w>":13123,"በእዚህም</w>":13124,"የተማረ</w>":13125,"ኢንቨስተሮች</w>":13126,"በጥ</w>":13127,"ታፈ":13128,"ቴቪ</w>":13129,"ከዳ":13130,"ከአስር</w>":13131,"ውበታል</w>":13132,"የሩ</w>":13133,"ደባ</w>":13134,"የሚገልጸው</w>":13135,"የምሥራቅ</w>":13136,"እግሩ</w>":13137,"አቅርበው</w>":13138,"የዓለምን</w>":13139,"አዘጋጅቶ</w>":13140,"ለማድረግም</w>":13141,"ግልጽነት</w>":13142,"ፒያሳ</w>":13143,"ዶክትሬት</w>":13144,"ra":13145,"ሕዛ":13146,"ሞሉ</w>":13147,"ተከተል</w>":13148,"ቲቱ</w>":13149,"ኦፊ":13150,"ከረው</w>":13151,"ዲናዋ</w>":13152,"አገኘ</w>":13153,"በተቀና":13154,"ደግም</w>":13155,"የግብ</w>":13156,"የስድስት</w>":13157,"በላቀ</w>":13158,"ብዝሃ":13159,"የመድኃ":13160,"ሴሎና</w>":13161,"በዝግጅት</w>":13162,"ቴኳን":13163,"የሚከናወን</w>":13164,"ስለምት":13165,"ተቀላቅ":13166,"ተናግሮ</w>":13167,"የበግ</w>":13168,"ጋዜጠኛው</w>":13169,"ቀመጡት</w>":13170,"ንብረቶች</w>":13171,"ማዳበር</w>":13172,"እያሳየ</w>":13173,"ንቅናቄ":13174,"የሚያስችለውን</w>":13175,"ፋፋትና</w>":13176,"ትዕግስት</w>":13177,"ይቀርባል</w>":13178,"69</w>":13179,"ማሕ":13180,"ማጭ</w>":13181,"ሪከርድ</w>":13182,"ሲሰጡ</w>":13183,"በራል</w>":13184,"ተክል</w>":13185,"ነግራ":13186,"ኢጣሊያ</w>":13187,"ጦስ</w>":13188,"ፎር</w>":13189,"ያስን</w>":13190,"ያስገነዝ":13191,"ከተሉት</w>":13192,"በአፍ":13193,"ልማዳዊ</w>":13194,"የነፃ</w>":13195,"ተቋማትም</w>":13196,"ለብሰው</w>":13197,"የተቋሙ</w>":13198,"ካምፓ":13199,"ምዘና</w>":13200,"ቻልበት</w>":13201,"ንጋ</w>":13202,"እልህ</w>":13203,"የሩ":13204,"የቁጠባ</w>":13205,"የሚዋ":13206,"በመመልከት</w>":13207,"ለመሙላት</w>":13208,"ህዝቡም</w>":13209,"ለማስፈጸም</w>":13210,"እንደሚያመለክተው</w>":13211,"ሳሰር</w>":13212,"ይጠፋል</w>":13213,"us":13214,"ሃድ</w>":13215,"ለፈው</w>":13216,"ለእዚህ</w>":13217,"ሊባ":13218,"ሰሌ":13219,"ቀሉ</w>":13220,"ቐለ</w>":13221,"ኢነርጂ</w>":13222,"ከባለድርሻ</w>":13223,"የእውቀት</w>":13224,"ያነሳው</w>":13225,"የተመለከተ</w>":13226,"አንዱና</w>":13227,"መጠነ</w>":13228,"አድርጋችሁ</w>":13229,"ሰማሁ</w>":13230,"የህን":13231,"የተሰጣቸውን</w>":13232,"መምህሩ</w>":13233,"ምድራዊ</w>":13234,"ያስተናገ":13235,"መሸጥ</w>":13236,"ልጃችሁ</w>":13237,"ተአምር</w>":13238,"ኮንትሮባንድ</w>":13239,"ለአንተ</w>":13240,"ለብቻ":13241,"ላከ</w>":13242,"መከላከልና</w>":13243,"ሲሲ</w>":13244,"ሻገር</w>":13245,"ከልጅ":13246,"ኪሎ":13247,"የኋላ</w>":13248,"የቀጠ":13249,"የንብረት</w>":13250,"ጉንም</w>":13251,"ጸያ":13252,"ፀጋ</w>":13253,"በመነ":13254,"በመፍታት</w>":13255,"በመረጃ</w>":13256,"ደረጀ</w>":13257,"በአሜሪካ":13258,"አቅመ</w>":13259,"ድምጻ":13260,"ደረጃና</w>":13261,"ጉባኤዎች</w>":13262,"ድግስ</w>":13263,"ለሀገር</w>":13264,"ሳና":13265,"በባህ":13266,"በወንጀል</w>":13267,"በወረዳው</w>":13268,"ታዝ":13269,"ትጥቅ</w>":13270,"ከስምንት</w>":13271,"ወጡት</w>":13272,"የገና</w>":13273,"ጠፍቶ</w>":13274,"ጨስ</w>":13275,"የተካሄ":13276,"በመረዳት</w>":13277,"እንዲጨምር</w>":13278,"እንደሚቻለው</w>":13279,"ወቅቶች</w>":13280,"አውር":13281,"ቀድም</w>":13282,"ጠይቋል</w>":13283,"ቀዳማዊ</w>":13284,"ለወጠ</w>":13285,"መከራከ":13286,"ትንታኔ</w>":13287,"መቅ</w>":13288,"ሙድ</w>":13289,"ማኒ":13290,"ሬሽ":13291,"ቂዎቹ</w>":13292,"በሩ":13293,"በእውነት</w>":13294,"ቶቹም</w>":13295,"ቻችሁን</w>":13296,"አደረግ":13297,"ክረዋል</w>":13298,"ያተ</w>":13299,"ደፋ</w>":13300,"ጋቱ</w>":13301,"ግዳ":13302,"የማይችሉ</w>":13303,"እየጣ":13304,"በርበሬ</w>":13305,"በረራ</w>":13306,"ዓይነቱን</w>":13307,"ተቀባይ":13308,"ንጉሱ</w>":13309,"ፈርዖን</w>":13310,"ባለቤቷ</w>":13311,"ሜዳሊያዎች</w>":13312,"በዋነኝነት</w>":13313,"እየተንቀሳቀሰ</w>":13314,"ልመና</w>":13315,"ማዕድን</w>":13316,"ምነት</w>":13317,"ሰበር</w>":13318,"ቦላ</w>":13319,"የናይ":13320,"እንዲያው":13321,"ማስፋፊያ</w>":13322,"ተናግረው</w>":13323,"ብትሆን</w>":13324,"መቀመጥ</w>":13325,"ዕድገቱ</w>":13326,"የአፈርና</w>":13327,"የከተማዋን</w>":13328,"አልቻልኩም</w>":13329,"ያስቸግራል</w>":13330,"ሲመለሱ</w>":13331,"በኃላፊነት</w>":13332,"በአስር</w>":13333,"ቪዬ":13334,"ንፅ":13335,"ያገኘ</w>":13336,"ዳብር</w>":13337,"ጅቡቲ</w>":13338,"ፍተ</w>":13339,"የተያዙ</w>":13340,"አንቺ":13341,"እንዲሠራ</w>":13342,"ለመላው</w>":13343,"አምስቱ</w>":13344,"ከመቀ":13345,"ግለፅ</w>":13346,"ከአሥር</w>":13347,"ተርፎም</w>":13348,"መዘገ":13349,"ገነባው</w>":13350,"መንፈሳ":13351,"የሽግግር</w>":13352,"ተኩር</w>":13353,"መሬቱን</w>":13354,"እርግጠኞች</w>":13355,"በመቶው</w>":13356,"ጭብጥ</w>":13357,"61</w>":13358,"8ዓ</w>":13359,"መጀመሩ</w>":13360,"ሙባቸው</w>":13361,"ቀኛ</w>":13362,"ተነጥ":13363,"ነም</w>":13364,"ጎን":13365,"ፎን</w>":13366,"ናገረ</w>":13367,"ፈልጉም</w>":13368,"ተመን</w>":13369,"ማሳደ":13370,"አዋጁን</w>":13371,"በገጽ</w>":13372,"ሰይፍ</w>":13373,"የወሰደው</w>":13374,"ግጥሞች</w>":13375,"ህግና</w>":13376,"ሉትና</w>":13377,"ቆላ</w>":13378,"በኪራይ</w>":13379,"የችግሩን</w>":13380,"ለመክፈል</w>":13381,"ከመደ":13382,"ሰማን</w>":13383,"ይገጥ":13384,"ደራጁ</w>":13385,"ሰባቸውን</w>":13386,"እንዳልተ":13387,"ጥቅሶች</w>":13388,"የሚያስፈልጉ</w>":13389,"ፈቃደኞች</w>":13390,"ይደነግ":13391,"ሁልጊዜም</w>":13392,"ይውላል</w>":13393,"ሦስተ":13394,"እክል</w>":13395,"ከፌዴራል</w>":13396,"ዋር":13397,"የሚከሰቱ</w>":13398,"እንደማንኛውም</w>":13399,"የማድረ":13400,"ብርን</w>":13401,"የግጥም</w>":13402,"በጥንት</w>":13403,"ባልነት</w>":13404,"የቀጣ":13405,"ቀጣና</w>":13406,"ምልከ":13407,"የቀረቡት</w>":13408,"የምናደርገው</w>":13409,"ዘንድሮም</w>":13410,"ለመንግስት</w>":13411,"መሻሻ":13412,"ሳትና</w>":13413,"በወቅ":13414,"ታህሳስ</w>":13415,"ነግ</w>":13416,"ከሠ":13417,"ያገኙትን</w>":13418,"ይከሰ":13419,"ይደረግ</w>":13420,"ደፍ</w>":13421,"በመነጋገር</w>":13422,"እንደሚመጣ</w>":13423,"የማያስ":13424,"በጥሞና</w>":13425,"ምሳሌት</w>":13426,"ቀደምት</w>":13427,"የተመረጡ</w>":13428,"ታጋይ</w>":13429,"ተመልካቾች</w>":13430,"ሙስሊም</w>":13431,"የያዘውን</w>":13432,"መንገደኞች</w>":13433,"ባንዲራ</w>":13434,"ሞገ":13435,"ሲሰማ</w>":13436,"ስክ</w>":13437,"ቋም</w>":13438,"በጊ":13439,"እሙን</w>":13440,"ኮሙዩኒኬሽን</w>":13441,"ዋለህ</w>":13442,"ዘወር</w>":13443,"ደፋ":13444,"ጋባ</w>":13445,"የተመዘገበው</w>":13446,"የተደገፈ</w>":13447,"ዳንን</w>":13448,"ብልጽ":13449,"ተከትሎም</w>":13450,"ሰነዱ</w>":13451,"የሚታወስ</w>":13452,"ፈላለግ</w>":13453,"ሞባይል</w>":13454,"ሲሠራ</w>":13455,"ጥኩ</w>":13456,"በመገኘት</w>":13457,"ደረው</w>":13458,"በማሳተፍ</w>":13459,"የሚያገለግ":13460,"ተሰባስ":13461,"ገበሬው</w>":13462,"መጣሁ</w>":13463,"መዘዝ</w>":13464,"ቋቋምና</w>":13465,"ተነሱ</w>":13466,"የሌላውን</w>":13467,"የግብር":13468,"አሜሪካና</w>":13469,"አሻራ</w>":13470,"ሊላ</w>":13471,"መሪ":13472,"መመልከ":13473,"ሥሪያ</w>":13474,"ሬያለሁ</w>":13475,"ሳው":13476,"ሹማ":13477,"ቅጭ":13478,"ዋልያዎቹ</w>":13479,"ይደግ":13480,"የሚሆንበት</w>":13481,"እንደሚኖር</w>":13482,"የማየት</w>":13483,"ሁለትና</w>":13484,"እንዲያድግ</w>":13485,"ጥበቡ</w>":13486,"አስፈሪ</w>":13487,"ማርያ":13488,"መሠረቱ</w>":13489,"የሙስ":13490,"ወልዱ</w>":13491,"ፍራሽ</w>":13492,"የሚመሩት</w>":13493,"በንቃት</w>":13494,"ሕፍት</w>":13495,"ሙሴን</w>":13496,"በይሁዳ</w>":13497,"ክሎ":13498,"ዘገበ</w>":13499,"ጸጥታ</w>":13500,"አንዲ":13501,"አንተስ</w>":13502,"የመላው</w>":13503,"የአራት</w>":13504,"እንደሚሰ":13505,"እንዳደረ":13506,"የሚያገኘው</w>":13507,"ገበያውን</w>":13508,"መሳሰል</w>":13509,"እንዲሰጣቸው</w>":13510,"ዝንባ":13511,"ነገሥቱ</w>":13512,"ወኪል</w>":13513,"ግድግዳ</w>":13514,"ፋሲካ</w>":13515,"96</w>":13516,"ማጉ":13517,"ምኩ</w>":13518,"በቸ":13519,"ብሯል</w>":13520,"ቶማስ</w>":13521,"ኸር</w>":13522,"ፅዋት</w>":13523,"ለማው</w>":13524,"በስደት</w>":13525,"በትዳር</w>":13526,"ስራን</w>":13527,"ድህነትና</w>":13528,"ቀዳሚው</w>":13529,"ለማስተላለፍ</w>":13530,"እድሜያቸው</w>":13531,"ሲነጻጸር</w>":13532,"በተደራጀ</w>":13533,"71</w>":13534,"መታወ":13535,"ሹመ":13536,"በእናንተ</w>":13537,"የተሰራው</w>":13538,"መለኮ":13539,"አምስተኛው</w>":13540,"እየተስፋፋ</w>":13541,"አባታችን</w>":13542,"ሰጥበት</w>":13543,"የመስሪያ</w>":13544,"በፊቱ</w>":13545,"እንስሳትና</w>":13546,"አዛውንቱ</w>":13547,"በመሳሰሉት</w>":13548,"ጎለብት</w>":13549,"79</w>":13550,"ለአገራችን</w>":13551,"ሴና</w>":13552,"ቅጠል</w>":13553,"ቆል":13554,"ከመን":13555,"የፃ":13556,"የሐሳብ</w>":13557,"የአስተሳሰብ</w>":13558,"ያማ</w>":13559,"ይሳተ":13560,"ጥታው</w>":13561,"ጭቱ</w>":13562,"ፃፍ</w>":13563,"የሚወሰ":13564,"የሚነሳው</w>":13565,"የሚያካሂ":13566,"ሰማት</w>":13567,"ታውስ</w>":13568,"ክለቦችን</w>":13569,"ጥበብና</w>":13570,"ማሳሰቢያ</w>":13571,"እንደተለመደው</w>":13572,"መታቀ":13573,"ወንጀለኛ</w>":13574,"ጴጥሮ":13575,"ዘለቀ</w>":13576,"ህንፃ":13577,"የሆነበት</w>":13578,"በጭራሽ</w>":13579,"መቸም</w>":13580,"ጀግንነት</w>":13581,"አስነብቧል</w>":13582,"ሜና</w>":13583,"በድህነት</w>":13584,"ብሽ</w>":13585,"ተኝ</w>":13586,"ነካ</w>":13587,"ዊነትና</w>":13588,"የፕሮጀክቱ</w>":13589,"የኢየሱስን</w>":13590,"ጅማ":13591,"ጨፍ":13592,"በማራቶን</w>":13593,"በሚያደር":13594,"በቀኝ</w>":13595,"ቀርበዋል</w>":13596,"መርጠው</w>":13597,"ባህልን</w>":13598,"በምድ":13599,"ያስፈልገው</w>":13600,"ገብስ</w>":13601,"በሽታን</w>":13602,"ማድረግና</w>":13603,"ፕሮፌሽናል</w>":13604,"ቴክኖሎጂው</w>":13605,"በምትገኘው</w>":13606,"የጣሊያን</w>":13607,"ጎብኚዎች</w>":13608,"አውሮፓውያን</w>":13609,"ያዝነው</w>":13610,"በቋሚነት</w>":13611,"ህጎች</w>":13612,"መተማ":13613,"ቀለል</w>":13614,"እከ":13615,"ከ25</w>":13616,"ከ60</w>":13617,"ኪዩ":13618,"ጎጃም</w>":13619,"በመረ":13620,"በተወሰኑ</w>":13621,"በተስፋ</w>":13622,"የማል":13623,"እንዳመለከተው</w>":13624,"ሳይታ":13625,"እነዚ":13626,"ተቋቋ":13627,"መብቱን</w>":13628,"ገዳይ</w>":13629,"አገኘሁ</w>":13630,"የባሕር</w>":13631,"ቅቡዓን</w>":13632,"84</w>":13633,"ለጤና</w>":13634,"ስቼ</w>":13635,"ከበ</w>":13636,"ዦች</w>":13637,"ይዝ":13638,"የሚፈጽ":13639,"እንደኔ</w>":13640,"በርሳቸው</w>":13641,"በዓለማችን</w>":13642,"አሉና</w>":13643,"ሙዚቃ":13644,"ጥርስ</w>":13645,"አየለ</w>":13646,"አህጉራዊ</w>":13647,"አጥብቆ</w>":13648,"አለመኖሩን</w>":13649,"መሥፈርቶች</w>":13650,"ህሊና</w>":13651,"ቅጥ</w>":13652,"ኝነቱ</w>":13653,"የቁ":13654,"ጋምቤላ</w>":13655,"ግሉ</w>":13656,"ጣዖ":13657,"የሚጀምረው</w>":13658,"በተመለከተ":13659,"ወዳጆች</w>":13660,"ለውጥና</w>":13661,"ደንቅ</w>":13662,"ተረጎ":13663,"የምታስ":13664,"ባሳለፍነው</w>":13665,"ማጣርያ</w>":13666,"ገዝቶ</w>":13667,"ተገንዝቦ</w>":13668,"ሜትሪክ</w>":13669,"እየሠራን</w>":13670,"ማድሪድ</w>":13671,"ለስራ</w>":13672,"ለእያንዳንዱ</w>":13673,"ሊያደርጉ</w>":13674,"ማዘ":13675,"ሲወ":13676,"ሳኝ</w>":13677,"ንባብ</w>":13678,"አድን":13679,"ከቦታ</w>":13680,"ክሬን</w>":13681,"ዥው</w>":13682,"የጃፓን</w>":13683,"ጓጓዝ</w>":13684,"እንመለከ":13685,"የሚገለ":13686,"የሚሰራ":13687,"ጉዳይም</w>":13688,"እየተገነባ</w>":13689,"መሠራት</w>":13690,"አሰቃቂ</w>":13691,"ፕላስቲክ</w>":13692,"ለጠኑ</w>":13693,"ኢየሩሳሌ":13694,"በመሠረቱ</w>":13695,"በአጋጣሚ</w>":13696,"ሀያ</w>":13697,"ለክ</w>":13698,"ላሪ</w>":13699,"ሳዑዲ</w>":13700,"ስኩት</w>":13701,"በዕ":13702,"ተምሳሌት</w>":13703,"ታዋ</w>":13704,"አኗኗር</w>":13705,"እት":13706,"እዛ</w>":13707,"ከሳምንት</w>":13708,"የተገለጸው</w>":13709,"አንዳቸው</w>":13710,"ለመዝ":13711,"ያስረዱት</w>":13712,"አያሌ</w>":13713,"ተዳር":13714,"እንቅስቃሴው</w>":13715,"ቴክኖሎጂዎች</w>":13716,"አሳይተዋል</w>":13717,"ጎበኙ</w>":13718,"የሚከተሉት</w>":13719,"ጎናጸ":13720,"ጭንቅላ":13721,"ፍጥረታት</w>":13722,"ይይዛል</w>":13723,"ህፍት</w>":13724,"ሸፍ":13725,"በጀርመን</w>":13726,"ነቁ</w>":13727,"ከሥልጣን</w>":13728,"ይድ":13729,"ዱንም</w>":13730,"ፌት</w>":13731,"መስኮ":13732,"ፈልጉት</w>":13733,"አብዝ":13734,"አመቱ</w>":13735,"ታሪኩን</w>":13736,"የትጥቅ</w>":13737,"ከተማን</w>":13738,"ይሰጠዋል</w>":13739,"ይታይ":13740,"መንግስቱን</w>":13741,"ደረገለት</w>":13742,"የመስራት</w>":13743,"የመጀመሪያዎቹ</w>":13744,"ሜዲካል</w>":13745,"ሊቃውንት</w>":13746,"ሲኒማ</w>":13747,"ማዳን</w>":13748,"የወንዶች</w>":13749,"የገንዘብና</w>":13750,"ጭማ":13751,"የአማርኛ</w>":13752,"የምፈልገው</w>":13753,"ደግፎ</w>":13754,"አስተናግ":13755,"ከፍሉ</w>":13756,"አንድነትና</w>":13757,"መመገብ</w>":13758,"የድሬዳዋ</w>":13759,"ተግዳሮት</w>":13760,"እግዜር</w>":13761,"ለዘ":13762,"ለችም</w>":13763,"ልቻ</w>":13764,"መወ":13765,"በዝ</w>":13766,"ናበ":13767,"ከሆነም</w>":13768,"ከክርስቶስ</w>":13769,"ያጭ</w>":13770,"ፈባቸው</w>":13771,"ፉክ":13772,"እንደሚሰሩ</w>":13773,"እንደሚያደርጉ</w>":13774,"ያለፉት</w>":13775,"እየተጓ":13776,"ወቅቱን</w>":13777,"ሰብሎች</w>":13778,"ገረም</w>":13779,"መዝሙሮች</w>":13780,"ይሰማቸዋል</w>":13781,"በሕጉ</w>":13782,"ወላጆቻቸው</w>":13783,"ዳያስፖራ</w>":13784,"ከመጀመሪያው</w>":13785,"የምዕራብ</w>":13786,"በተጠቀሰው</w>":13787,"di":13788,"መሳይ</w>":13789,"ርቆ</w>":13790,"በርት</w>":13791,"ከየትኛውም</w>":13792,"ካፋ</w>":13793,"ዓቱ</w>":13794,"የሜ":13795,"ፋችሁ</w>":13796,"የተዘጋጁ</w>":13797,"እንዲያስተ":13798,"ለመወሰን</w>":13799,"ወርደው</w>":13800,"የኤክ":13801,"እኩይ</w>":13802,"ኢንተርፕራይዝ</w>":13803,"ሲገልጽ</w>":13804,"ሻሊስት</w>":13805,"ይመክራሉ</w>":13806,"ልኩት</w>":13807,"ሴቶቹ</w>":13808,"ስለት</w>":13809,"ስራቸው</w>":13810,"በ2</w>":13811,"ቢሰ":13812,"ቻውን</w>":13813,"ከያ":13814,"የኅብረት</w>":13815,"ይማ":13816,"የሚናገሩ</w>":13817,"ከመጀመሩ</w>":13818,"ልጆቻችን</w>":13819,"ከባቢ</w>":13820,"መውለድ</w>":13821,"የዘለለ</w>":13822,"እንድንችል</w>":13823,"የእርዳታ</w>":13824,"የተቋቋመ</w>":13825,"ተዘዋው":13826,"ለሦስተኛ</w>":13827,"ሊታይ</w>":13828,"ምቀት</w>":13829,"ሲሰሩ</w>":13830,"ቅናት</w>":13831,"ከሁለቱ</w>":13832,"የኒ":13833,"ጎሳ":13834,"እንደተጠቀ":13835,"አስታወቁ</w>":13836,"አርዓ":13837,"ተመው</w>":13838,"ጨዋታም</w>":13839,"እምቢ</w>":13840,"መጥተዋል</w>":13841,"አለመስ":13842,"በማስፋፋት</w>":13843,"እውነተኛውን</w>":13844,"ተፈሪ</w>":13845,"ስፍራ":13846,"አሸናፊነት</w>":13847,"ነጋዴው</w>":13848,"የተሻሉ</w>":13849,"ጃንሆይ</w>":13850,"በጠቅላላው</w>":13851,"አነጋገ":13852,"ዋር</w>":13853,"የወዳጅነት</w>":13854,"የተበላ":13855,"በአእም":13856,"አስተምህ":13857,"አመለካከትና</w>":13858,"የጀመረውን</w>":13859,"ክረምቱ</w>":13860,"የቢቢሲ</w>":13861,"ታምኖ":13862,"ነቢይ</w>":13863,"የሚያግዝ</w>":13864,"ፍየል</w>":13865,"ቴኳንዶ</w>":13866,"ላድ":13867,"መጉ":13868,"ሸር</w>":13869,"ችያለሁ</w>":13870,"ነቀል</w>":13871,"ክቶ</w>":13872,"የእድሜ</w>":13873,"ይከናወ":13874,"ጉሙዝ</w>":13875,"የሚዳ":13876,"በሚባለው</w>":13877,"አባባ</w>":13878,"ንግሥ":13879,"ይኖረው</w>":13880,"የታዳጊ</w>":13881,"ያደረጉትን</w>":13882,"እንደማት":13883,"ወጥቷል</w>":13884,"አቋርጦ</w>":13885,"መተው</w>":13886,"መገልገ":13887,"ሲነግ":13888,"ቆሻሻ":13889,"ቦታና</w>":13890,"ተዘርግ":13891,"ኑንም</w>":13892,"ከከተማ</w>":13893,"ከገባ</w>":13894,"ዶክተሩ</w>":13895,"ጻሜ</w>":13896,"ፕሊን</w>":13897,"ለመልካም</w>":13898,"አገሩን</w>":13899,"አይተናል</w>":13900,"በአፋር</w>":13901,"አልፈለ":13902,"አካሉ</w>":13903,"በጥቃቅንና</w>":13904,"ገናኘ</w>":13905,"ቆጠራ</w>":13906,"መላክት</w>":13907,"ብትሆንም</w>":13908,"ሂደቱን</w>":13909,"ደበበ</w>":13910,"አቀረበ</w>":13911,"የሚመስለው</w>":13912,"የማሳደግ</w>":13913,"ዴኤታው</w>":13914,"አስፋልት</w>":13915,"ለሀገ":13916,"ሬሳ</w>":13917,"ሹክ":13918,"ቅሶ</w>":13919,"በዘመኑ</w>":13920,"ዌይ</w>":13921,"ዕለ</w>":13922,"ጄሪያ</w>":13923,"የተሰራ":13924,"በመጨመር</w>":13925,"የማይወ":13926,"የምክክር</w>":13927,"ተማር":13928,"የማይቀር</w>":13929,"በግድ</w>":13930,"ብልፅ":13931,"ቆርጦ</w>":13932,"በመካከለኛው</w>":13933,"ተጠቃሚነትን</w>":13934,"ካትት</w>":13935,"ሌክትሮኒክስ</w>":13936,"ሮና":13937,"ብአዴን</w>":13938,"ካገኘ":13939,"ኮማን":13940,"የጫ":13941,"የ10</w>":13942,"የመንፈስ</w>":13943,"ጉዟ":13944,"መርጥ</w>":13945,"ክርክ":13946,"ምሳሌዎች</w>":13947,"ተወጥ":13948,"አስረድቷል</w>":13949,"እንደምትችል</w>":13950,"አግባብነት</w>":13951,"ገርምም</w>":13952,"ልጃቸውን</w>":13953,"ካፈሉ</w>":13954,"87</w>":13955,"ማሰላ":13956,"ሣር</w>":13957,"ሶሪያ</w>":13958,"ሾፍቱ</w>":13959,"ቀንና</w>":13960,"ቂላ</w>":13961,"ኤችአይቪ</w>":13962,"እትም</w>":13963,"የኢትዮጵያና</w>":13964,"ያሰብ":13965,"ፈረው</w>":13966,"በመቻ":13967,"ምንነት</w>":13968,"አቅሙን</w>":13969,"ሰራሽ</w>":13970,"የእኛን</w>":13971,"ቀጠልም</w>":13972,"ተቃር":13973,"ጥቅምና</w>":13974,"ኢትዮጵያውያንን</w>":13975,"አስመልክተው</w>":13976,"ፊልሙ</w>":13977,"በሊቢያ</w>":13978,"ሐዋርያቱ</w>":13979,"አምላክህ</w>":13980,"ul":13981,"ህሙማን</w>":13982,"ቢሉ</w>":13983,"ትሩ":13984,"ኳሱ</w>":13985,"ዊን</w>":13986,"የቱ":13987,"የጉባኤ</w>":13988,"እንዲመጡ</w>":13989,"ድርሰት</w>":13990,"እስክ":13991,"ረዳህ</w>":13992,"የሚገጥ":13993,"ክለቡን</w>":13994,"ጥበብን</w>":13995,"ጨርቃ":13996,"ስርዓቱን</w>":13997,"በረከተ</w>":13998,"እንስሳትን</w>":13999,"ሥልጠናው</w>":14000,"ሸቀጦች</w>":14001,"ወረርሽኝ</w>":14002,"እንመለከታለን</w>":14003,"ab":14004,"ሊወጣ</w>":14005,"ልባ</w>":14006,"ልጇን</w>":14007,"መዘጋጀት</w>":14008,"ኤፌሶን</w>":14009,"ዓለ":14010,"ማስወገ":14011,"ደጋው</w>":14012,"ስለሚሆን</w>":14013,"ስምምነቱን</w>":14014,"በፍርሃ":14015,"እስኪያ":14016,"የሚጠቀስ</w>":14017,"ቅርንጫፎች</w>":14018,"ተኞችና</w>":14019,"ቢሮክራ":14020,"ጠናከርና</w>":14021,"ማውጣ":14022,"ማሰባሰብ</w>":14023,"ቅብ</w>":14024,"በፀረ</w>":14025,"ኖሩት</w>":14026,"የቴክኒክና</w>":14027,"ጽዮን</w>":14028,"ፎረሙ</w>":14029,"እንዲጠቀሙ</w>":14030,"እናት":14031,"እናያለን</w>":14032,"የምትገኘው</w>":14033,"መቻቻል</w>":14034,"የቀረበውን</w>":14035,"በድሬዳዋ</w>":14036,"የሚኖረውን</w>":14037,"መሆናቸውም</w>":14038,"በአዋጁ</w>":14039,"ቅጣጫው</w>":14040,"አመስግ":14041,"የደመወዝ</w>":14042,"ላትም</w>":14043,"መሞት</w>":14044,"መጨረሻ":14045,"ቀጠቀ":14046,"አን</w>":14047,"ከ200</w>":14048,"ኩርት</w>":14049,"የጊ":14050,"ያኖች</w>":14051,"ጅጋ</w>":14052,"ፍጽ":14053,"የሚቀርበው</w>":14054,"ለመዋጋት</w>":14055,"የመሠ":14056,"ከፍሎ</w>":14057,"አብይ</w>":14058,"ጠቀሱ</w>":14059,"ታሪክን</w>":14060,"እምነቱ</w>":14061,"ትርያ":14062,"ተፈራር":14063,"ቁርስ</w>":14064,"አህያ</w>":14065,"የሚጠቀሱ</w>":14066,"ታገዝ</w>":14067,"ሉዓላዊነት</w>":14068,"አሮጌ</w>":14069,"የሚጠቁም</w>":14070,"ተፈጥሮአዊ</w>":14071,"መላክ</w>":14072,"ሮታል</w>":14073,"ሰኞች</w>":14074,"ሹፌ":14075,"ብራ</w>":14076,"እዛው</w>":14077,"ከዓመታት</w>":14078,"የከተሞች</w>":14079,"የሕዝቡ</w>":14080,"በመማር</w>":14081,"የማዳ":14082,"ወጣች</w>":14083,"ተጠን":14084,"ምርጫውን</w>":14085,"አብነት</w>":14086,"አብደላ</w>":14087,"ጨዋነት</w>":14088,"እምነ":14089,"ቅድስት</w>":14090,"የቀለም</w>":14091,"ተሰጥቶታል</w>":14092,"ህይወታቸው</w>":14093,"ፖለቲከኛ</w>":14094,"ይሠራሉ</w>":14095,"መቁረጥ</w>":14096,"አጉል</w>":14097,"ኢሕአዴ":14098,"የማምረቻ</w>":14099,"94</w>":14100,"ሄድን</w>":14101,"መቋ":14102,"ሣራ</w>":14103,"ስቱን</w>":14104,"በላው</w>":14105,"ቶሊክ</w>":14106,"ይጀመ":14107,"ይበል</w>":14108,"ከተቻለ</w>":14109,"ነገርም</w>":14110,"ከመግባ":14111,"ጠበቅም</w>":14112,"ሰብዓ":14113,"የህብረት</w>":14114,"ለማስቻል</w>":14115,"ገናና</w>":14116,"ነፃነትና</w>":14117,"ፈፀመ</w>":14118,"በ2010</w>":14119,"ባረብ</w>":14120,"የሚፈልጉትን</w>":14121,"ተገኝቶ</w>":14122,"ቅንጅት</w>":14123,"የተናገረውን</w>":14124,"አደረጃጀቶች</w>":14125,"ተወላጆች</w>":14126,"አሽከርካሪዎች</w>":14127,"ለሌ":14128,"ሕመም":14129,"በውይይት</w>":14130,"ተመለሰ</w>":14131,"ትሮው</w>":14132,"ንዳ</w>":14133,"ኙበት</w>":14134,"ካድም</w>":14135,"ዘም":14136,"በሚደረግ</w>":14137,"በሚያደርገው</w>":14138,"ስለምን":14139,"ጀመርን</w>":14140,"ዳንስ</w>":14141,"ወንዞች</w>":14142,"ንግሥት</w>":14143,"ሆነባቸው</w>":14144,"በምስ":14145,"እንደማይቻል</w>":14146,"ቆይታቸው</w>":14147,"አሉባል":14148,"እረኛ</w>":14149,"የሚቻልበት</w>":14150,"ለቆ":14151,"ለግድቡ</w>":14152,"ማመቻቸት</w>":14153,"ሞራ":14154,"ሮዎች</w>":14155,"ቃል":14156,"በይ":14157,"ብለሽ</w>":14158,"ትከል</w>":14159,"ከሽ":14160,"ከመሰ":14161,"ካኔ</w>":14162,"ኬድ</w>":14163,"ዉን</w>":14164,"ዎቿ</w>":14165,"ጪዎቹ</w>":14166,"ስትሪ</w>":14167,"በርም</w>":14168,"አገልግለዋል</w>":14169,"2002</w>":14170,"ባህሪያ":14171,
[...]
