{"<s>":0,"<pad>":1,"</s>":2,"<unk>":3,"<mask>":4,"!":5,"\"":6,"#":7,"$":8,"%":9,"&":10,"'":11,"(":12,")":13,"*":14,"+":15,",":16,"-":17,".":18,"/":19,"0":20,"1":21,"2":22,"3":23,"4":24,"5":25,"6":26,"7":27,"8":28,"9":29,":":30,";":31,"<":32,"=":33,">":34,"?":35,"@":36,"A":37,"B":38,"C":39,"D":40,"E":41,"F":42,"G":43,"H":44,"I":45,"J":46,"K":47,"L":48,"M":49,"N":50,"O":51,"P":52,"Q":53,"R":54,"S":55,"T":56,"U":57,"V":58,"W":59,"X":60,"Y":61,"Z":62,"[":63,"\\":64,"]":65,"^":66,"_":67,"`":68,"a":69,"b":70,"c":71,"d":72,"e":73,"f":74,"g":75,"h":76,"i":77,"j":78,"k":79,"l":80,"m":81,"n":82,"o":83,"p":84,"q":85,"r":86,"s":87,"t":88,"u":89,"v":90,"w":91,"x":92,"y":93,"z":94,"{":95,"|":96,"}":97,"~":98,"¡":99,"¢":100,"£":101,"¤":102,"¥":103,"¦":104,"§":105,"¨":106,"©":107,"ª":108,"«":109,"¬":110,"®":111,"¯":112,"°":113,"±":114,"²":115,"³":116,"´":117,"µ":118,"¶":119,"·":120,"¸":121,"¹":122,"º":123,"»":124,"¼":125,"½":126,"¾":127,"¿":128,"À":129,"Á":130,"Â":131,"Ã":132,"Ä":133,"Å":134,"Æ":135,"Ç":136,"È":137,"É":138,"Ê":139,"Ë":140,"Ì":141,"Í":142,"Î":143,"Ï":144,"Ð":145,"Ñ":146,"Ò":147,"Ó":148,"Ô":149,"Õ":150,"Ö":151,"×":152,"Ø":153,"Ù":154,"Ú":155,"Û":156,"Ü":157,"Ý":158,"Þ":159,"ß":160,"à":161,"á":162,"â":163,"ã":164,"ä":165,"å":166,"æ":167,"ç":168,"è":169,"é":170,"ê":171,"ë":172,"ì":173,"í":174,"î":175,"ï":176,"ð":177,"ñ":178,"ò":179,"ó":180,"ô":181,"õ":182,"ö":183,"÷":184,"ø":185,"ù":186,"ú":187,"û":188,"ü":189,"ý":190,"þ":191,"ÿ":192,"Ā":193,"ā":194,"Ă":195,"ă":196,"Ą":197,"ą":198,"Ć":199,"ć":200,"Ĉ":201,"ĉ":202,"Ċ":203,"ċ":204,"Č":205,"č":206,"Ď":207,"ď":208,"Đ":209,"đ":210,"Ē":211,"ē":212,"Ĕ":213,"ĕ":214,"Ė":215,"ė":216,"Ę":217,"ę":218,"Ě":219,"ě":220,"Ĝ":221,"ĝ":222,"Ğ":223,"ğ":224,"Ġ":225,"ġ":226,"Ģ":227,"ģ":228,"Ĥ":229,"ĥ":230,"Ħ":231,"ħ":232,"Ĩ":233,"ĩ":234,"Ī":235,"ī":236,"Ĭ":237,"ĭ":238,"Į":239,"į":240,"İ":241,"ı":242,"Ĳ":243,"ĳ":244,"Ĵ":245,"ĵ":246,"Ķ":247,"ķ":248,"ĸ":249,"Ĺ":250,"ĺ":251,"Ļ":252,"ļ":253,"Ľ":254,"ľ":255,"Ŀ":256,"ŀ":257,"Ł":258,"ł":259,"Ń":260,"áĪ":261,"áī":262,"áĭ":263,"áĬ":264,"áĮ":265,"ĠáĬ":266,"Ġáĭ":267,"ĠáĪ":268,"áĬķ":269,"áį":270,"Ġáī":271,"áīµ":272,"áĭį":273,"Ġáį":274,"Ġáĭ¨":275,"łáĪ":276,"áĪį":277,"áĪŃ":278,"áĪĿ":279,"áĪµ":280,"áĪĪ":281,"áī½":282,"Ġáį¢":283,"áĬĵ":284,"ĠáĬ¥":285,"áī°":286,"áĮĪ":287,"áĭ«":288,"áĮį":289,"áĭŃ":290,"áĭ°":291,"áĪĺ":292,"ĠáĬł":293,"Ġáīł":294,"áĬĲ":295,"ĠáĪĺ":296,"áĭµ":297,"áĪ¨":298,"áī¥":299,"áĪ«":300,"áī³":301,"Ġáĭ¨áĪ":302,"ĠáĮ":303,"áĪĭ":304,"áī£":305,"ĠáĬ¥áĬķ":306,"ĠáīłáĪ":307,"áĪħ":308,"áīł":309,"ĠáĬłáĪ":310,"áĪĽ":311,"ĠáĬ¨":312,"ĠáĬĲ":313,"áī¸":314,"Ġáī°":315,"áĬŃ":316,"ĠáĪĪ":317,"áĬ¨":318,"áīĢ":319,"áĪ°":320,"áĭ³":321,"áĮ¥":322,"áĭ¨":323,"áī¸áĭį":324,"ĠáĭŃ":325,"áīħ":326,"Ġáĭ¨áĪļ":327,"áīłáĪ":328,"Ġáĭ«":329,"áįį":330,"áĪ³":331,"áĪĨ":332,"áĬ«":333,"áĪª":334,"áĪī":335,"Ġáį£":336,"áĬł":337,"áĭĪ":338,"áĮł":339,"áĭĭ":340,"İáī½":341,"ĠáĭĪ":342,"áĮĭ":343,"áī±":344,"áįĪ":345,"Ġ\"":346,"áĮ£":347,"áī¶":348,"ĠáĪĽ":349,"áĭ²":350,"ĠáĬĲáĭį":351,"áĪļ":352,"ĠáĪµ":353,"áĪ®":354,"áĬĽ":355,"áĭİáī½":356,"áĬ¥":357,"ĠáĪĿ":358,"Ġáī¥":359,"ĭáĭŃ":360,"ĠáĬ¥áĬķáĭ°":361,"áĬĲáīµ":362,"áĬĳ":363,"Ġáĭ¨áī°":364,"áĭļ":365,"áĪģ":366,"áīĥ":367,"Ġáį¤":368,"áĪ©":369,"áĬĸ":370,"ĠáĪ°":371,"áĭĿ":372,"áĭĺ":373,"Ġáĭį":374,"ĠáĪĭáĭŃ":375,"ĠáĮį":376,"áĭĬ":377,"Ġáī£":378,"áĬĿ":379,"Ġáĭ°":380,"áĭįáĬķ":381,"áĪŀ":382,"áīłáīµ":383,"ĠáĪ²":384,"áĭ®":385,"ĠáīłáĪĺ":386,"ĠáĬ¥áĬķáĭ²":387,"áī»":388,"áī½áĬķ":389,"áĬķáĭµ":390,"Ġáīµ":391,"áĭĭáĪį":392,"áĬłáĪ":393,"áĪİ":394,"áī¡":395,"áĭļáĪħ":396,"áĪ±":397,"áĪĨáĬķ":398,"ĠáĮ¥":399,"áĪĪáĭį":400,"áįĭ":401,"áĮĪáĪŃ":402,"áĪ½":403,"ĠáĬłáĪµ":404,"ĠáĪį":405,"Ġáĭĵ":406,"áī¢":407,"áĮħ":408,"áīłáĪŃ":409,"áĮĢ":410,"áĪ¬":411,"ĠáĪģ":412,"ĠáĮĪ":413,"áĬ©":414,"áĮłáĪ":415,"áĭľ":416,"áī¶áī½":417,"áĮī":418,"Ġáĭ¨áĪĺ":419,"Ġáĭµ":420,"áĭ±":421,"áĬķáĮį":422,"áĪµáīµ":423,"áĬĶ":424,"áĪĨáĬĳ":425,"ĠáīĢ":426,"áĭĽ":427,"Ġáīłáī°":428,"áĪĮ":429,"áĪ¥":430,"áĭ°áĪŃ":431,"áįĬ":432,"áĭĵ":433,"ĠáĬŃ":434,"áĬ¢":435,"áĪ»":436,"ĠáĪĪáĪĺ":437,"áī¸áĭįáĬķ":438,"Ġáĭĺ":439,"Ġ?":440,"áī²":441,"áĪĻ":442,"ĠáĪĪáĪĽ":443,"ĠáĭĪáĭ°":444,"áĪĬ":445,"áĪĪáīµ":446,"áĪĪáĪĿ":447,"ĠáĬłáĭŃ":448,"áīĨ":449,"áĭ©":450,"áĭ°áĪ¨":451,"áī¹":452,"ĠáĪ¥":453,"áĮĥ":454,"Ġáĭ¨áĪļáĭ«":455,"ĠáĮįáĬķ":456,"ĠáĮĭ":457,"ĠáīłáĪĽ":458,"áīģ":459,"Ĭáĭľ":460,"ĠáĬ¥áĭ¨":461,"áĪµáĮ¥":462,"áīĭ":463,"áī°áĬĽ":464,"ĠáĪĨ":465,"ĠáĬ¢":466,"ĠáĪĬ":467,"áĭķ":468,"áĭ´":469,"ĠáĬłáĪĪ":470,"Ġáī¢":471,"Ġ1":472,"áī¦":473,"ĠáĭįáĪµáĮ¥":474,"Ġáī¤":475,"áĬĴ":476,"ĠáĮī":477,"ĠáĬłáĬķ":478,"áĮ«":479,"áĬ®":480,"áĮ¨":481,"ĠáĪ³":482,"áĪªáĭ«":483,"áĮ½":484,"Ġáī³":485,"áĭµáĪŃ":486,"ĠáīłáĬł":487,"áĬķáĪĿ":488,"áīµáĭ®":489,"áĮŃ":490,"ĠáĬ¥áĬķáĭ°áĪļ":491,"áīµáĬķ":492,"áĮµ":493,"ĠáĮĬáĭľ":494,"áĪĦ":495,"áĮµáĭ«":496,"áīµáĭ®áĮµáĭ«":497,"áĮ¡":498,"áīµáĬĵ":499,"ĠáĮĭáĪŃ":500,"áī¤":501,"áīłáĪ¨":502,"áĭµáĪ¨":503,"Ġáĭ¨áĬł":504,"áī´":505,"Ġ)":506,"áĪ²":507,"ĠáĬ¥áĬķáĭ³":508,"áĮİ":509,"Ġáĭ¨áĪĽ":510,"ĠáĬĲáīłáĪŃ":511,"áĮĪáĬ":512,"âĢ":513,"áĭĻ":514,"áĪŃáīµ":515,"ĠâĢ":516,"áĪ¨áīµ":517,"Ġáī£áĪĪ":518,"áĮĪáī£":519,"áĪ®áī½":520,"ĠáĬ«":521,"ĠáĬ¥áĬĵ":522,"áĪĨáĬĲ":523,"Ġáĭ¨áĪĿ":524,"ĠâĢ¦":525,"ĠáĬłáĮĪ":526,"áĪ«áīµ":527,"ĠáĪļ":528,"ĠáĬłáĪį":529,"Ġ2":530,"áī±áĬķ":531,"áĪĭáĪį":532,"áįĸ":533,"ĠáīłáĪļ":534,"Ġáįį":535,"áĪİáī½":536,"áįī":537,"áĪĥ":538,"ĠáĪķ":539,"ĠáĪµáĪĪ":540,"ĠáĬ¨áī°":541,"Ġáī½":542,"áĪµáī°":543,"ĠáĪħ":544,"áĭ¶":545,"áīĤ":546,"ĠáĮł":547,"áĮįáĪŀ":548,"Ġ!":549,"áĬ¤":550,"áĮįáī£":551,"ĠáĭĵáĪĺ":552,"áī·":553,"áĪľ":554,"Ġáĭ«áĪĪ":555,"áĬĵáĪį":556,"áĪ¨áĮĥ":557,"Ġáĭ°áĮįáĪŀ":558,"áĭİ":559,"áĬķáĮįáĪ¥":560,"ĠáįĪ":561,"áĬķáĭ«":562,"ĠáĪĺáĬķ":563,"áĬŀ":564,"Ġáĭķ":565,"Ġ'":566,"Ġáīħ":567,"áĪªáĬ«":568,"ĠáĬ¥áĭ«":569,"áĪħáĬķ":570,"áĪłáĪ":571,"áĪĲ":572,"ĠáĪ¥áĪ«":573,"ĠáĪĿáĬķ":574,"áĮĤ":575,"áīµáĪĿ":576,"áī³áĪį":577,"ĠáĬĵ":578,"ĠáĮīáĭ³":579,"ĠáĬłáĬ«":580,"áĪĺáĪĪ":581,"00":582,"áĬ¢áīµáĭ®áĮµáĭ«":583,"ĠáĬ¥áĪµ":584,"áĪ¸":585,"áĮĪáĭµ":586,"áĭŃáĪĿ":587,"ĠáĬłáĪµáī°":588,"áĭ«áĬķ":589,"áĪĭáī¸áĭį":590,"áĮ¸":591,"áī½áĪģ":592,"áĪĺáĬķ":593,"ĠáĬłáĬķáĭµ":594,"Ġáī½áĮį":595,"áĪ´":596,"ĠáĬĲáĮĪáĪŃ":597,"ĠáĪģáĪī":598,"áĪĽáīµ":599,"Ġáĭĭ":600,"áįĥ":601,"ĠáĪĿáĬŃ":602,"ĠáĬĥ":603,"áĭ²áĪµ":604,"áĮĢáĪĺ":605,"Ġ(":606,"áĬĲáĭį":607,"áĪ¶":608,"ĠáĪĮ":609,"ĠáĪĺáĪĨáĬĳ":610,"áĬĭ":611,"áĬ¨áĪį":612,"áĭµáĪ¨áĮį":613,"ĠáĬķ":614,"áĪ°áī¥":615,"áĬ¨áī°":616,"áī³áīµ":617,"áī¥áĪŃ":618,"ĠáĪ³áĭŃ":619,"áĪ¨áĭį":620,"ĠáĬ¥áĭ¨áī°":621,"áįĪáĪį":622,"áĭ³áĬķ":623,"Ġáĭ¨áĪĨ":624,"áĮ¤":625,"áĮłáĬĵ":626,"ĠáĪĺáĪµ":627,"áī£áī¸áĭį":628,"Ġáĭ¨áĬĲ":629,"áįħ":630,"ĠáĪ°áĭį":631,"áĭİáī½áĬķ":632,"ĠáĬ¨áĪĺ":633,"Ġáī¥áī»":634,"ĠáĪĺáĪį":635,"áĪķ":636,"áĮ»":637,"ĠáĬłáĪĺ":638,"áīħáĪŃ":639,"áĬķáĪµ":640,"ĠáĬłáĪĿ":641,"áī°áĭį":642,"áĭ¬":643,"áĪĿáĬķ":644,"áĪĽáĪª":645,"ĠáĪĢ":646,"áĪīáīµ":647,"Ġáī¤áīµ":648,"áī³áī¸áĭį":649,"áĪĪáĭ«":650,"áĬ³":651,"áĬª":652,"áĬĽáĭį":653,"ĠáĭµáĪŃ":654,"Ġáįķ":655,"ĠáĬĵáī¸áĭį":656,"áĬĶáī³":657,"áĭĮ":658,"áĬĭáĪĭ":659,"áĮĪáĬĺ":660,"áĮĪáĪį":661,"Ġáĭ«áĪħ":662,"áĪĪáĪģ":663,"ĠáĪĻ":664,"áī£áī¢":665,"áįİ":666,"Ġáĭ«áĪµ":667,"ĠáĬ®":668,"Ġáīģ":669,"áĭ«áĭį":670,"áĮĨ":671,"áĬķáĮįáĪ¥áīµ":672,"áĭĿáī¥":673,"Ġáĭ¨áĪ°":674,"áĪŃáĪĿ":675,"Ġáĭ¨áĬ¥":676,"ĠáĬ¨áįį":677,"áĪ«áĭĬ":678,"áīłáĪ©":679,"ĠáĪģáĬĶáī³":680,"áĪĭáīµ":681,"áĮĬ":682,"ĠáīłáĬ¥":683,"áĪĪáĬķ":684,"áįĢ":685,"áĭĪáĮ£":686,"áĮĵ":687,"áīĦ":688,"áĬ¨áīµ":689,"áĮĪáĭį":690,"áīħáĪĿ":691,"áī¥áĪ¨":692,"Ġáĭ¨áĬłáĪ":693,"áĮłáīĢ":694,"áĪĪáī½":695,"ĠáīłáĬĭáĪĭ":696,"áĮĪáĬĻ":697,"áī£áĪį":698,"áī°áĪŃ":699,"áī½áĪį":700,"áĭ¨áīµ":701,"Ġáī¥áĭĻ":702,"áĮĪáĪ«":703,"áĬķáĬĵ":704,"áĪļáĭ«":705,"ĠáĭĿ":706,"áĪĭáĬŃ":707,"áĬĵáīµ":708,"áī³áĭĪ":709,"áįķ":710,"Ġáĭ°áĪ¨áĮĥ":711,"áĭŃáĪħ":712,"áī³áĭį":713,"ĠáĮ¨":714,"ĠáĬłáĭµáĪŃ":715,"ĠáĪ°áĭİáī½":716,"ĠáĮĢ":717,"ĠáĭĪáĭŃáĪĿ":718,"áĪĶ":719,"ĠáĬŃáįį":720,"áĬŀáī½":721,"áĪįáĮ£":722,"Ġáī¦":723,"áī¦áī½":724,"áĭŀ":725,"ĠáīłáĬłáĪ":726,"ģáĬķ":727,"ĠáīłáĪĭáĭŃ":728,"ĠáĬłáī¶":729,"Ġáĭ«áĪĪáĭį":730,"ĠáĪĥ":731,"áĬĲáĭļáĪħ":732,"áĬ¥áĬķ":733,"Ġáī°áĪĺ":734,"áĪĿáĪħ":735,"áĮłáĪŃ":736,"ĠáĪĿáĬŃáĬķáĭ«":737,"ĠáĬłáĭŃáĭ°":738,"áĪģáĪĿ":739,"áĭİáī¹":740,"áī£áīµ":741,"ĠáĪĺáĪĨáĬĳáĬķ":742,"áĮĪáĪĪ":743,"áī³áĭĬ":744,"ĠáĭĵáĪĺáīµ":745,"áĮĪáĬķ":746,"ĠáĪ²áĪĨáĬķ":747,"Ġáĭ³":748,"ĠáĪĺáĬ«":749,"áĪŃáĪµ":750,"áīĢáĪŃ":751,"áĭŃáĭĪ":752,"áī·áĪį":753,"áĪĿáĬĵ":754,"áĭļáĭ«":755,"ĠáĪ«":756,"áĭ«áĪµ":757,"áĬĸáĪŃ":758,"ĠáĬłáīł":759,"áĭ®áĬķ":760,"áĪ¨áĭ³":761,"áĬĺ":762,"Ġáī¥áĪŃ":763,"áįįáĪªáĬ«":764,"áĪĪáĭ«áĭ©":765,"áĬĲáĪ³":766,"ĠáĪĨáĬĲ":767,"Ġ3":768,"áĮ¥áĪŃ":769,"áĭµáĬķ":770,"áĮ¦":771,"áĮłáīĥ":772,"ĠáĬ¥áĪµáĬ¨":773,"áĪįáīħ":774,"áįĴ":775,"áĪĢ":776,"ĠáĭĪáīħ":777,"áĪ½áĬķ":778,"áĭĵáīµ":779,"áĮłáīł":780,"ĠáĬ¥áĬķáĭ°áĪĨáĬĲ":781,"ĠáĬ¢áīµáĭ®áĮµáĭ«":782,"áĮįáĪİ":783,"áįĬáīµ":784,"ĠáīĨ":785,"áĪĿáĪ®":786,"ĠáĬ¥áĬķáĭ²áĪģáĪĿ":787,"áĪĺáĪµ":788,"áĪı":789,"ĠáĪĺáĬķáĮĪáĭµ":790,"ĠáīĢáĬķ":791,"ĠáĬłáĮĪáĪį":792,"Ġáĭ¨áĮį":793,"ĠáĪĽáĪµ":794,"áįĮ":795,"áĬ¦":796,"áĮ£áīµ":797,"ĵáĪŃ":798,"ĠáīłáĪŃ":799,"áĪįáĬŃ":800,"ĠáĬ¤":801,"áĪ¨áĪµ":802,"áĪ°áĭį":803,"áĮłáĭį":804,"áĭĺáĮĭ":805,"áĮĪáĪª":806,"áĬŃáĪį":807,"ĠáĪµáĪ«":808,"áĪ°áĪĽ":809,"Ġáī½áĮįáĪŃ":810,"ĠáĬĥáĭŃ":811,"Ġáĭ¨áĪļáĭ«áĪµ":812,"ĠáĬ¨áįįáī°áĬĽ":813,"ĠáĬłáīłáī£":814,"áīłáĪ«":815,"ĠáĪĽáĪĪáīµ":816,"ĠáĬ¨áĬł":817,"ĠáĪĺáĬ«áĬ¨áĪį":818,"áĪ¨áĮĭ":819,"áĮĪáĬĿ":820,"áī£áĪĪ":821,"áīłáī°":822,"ĠáĪĿáĪŃ":823,"áĭ°áĭį":824,"áĭĪáĪ°":825,"Ġáī°áīĭ":826,"áīłáĪį":827,"Ġáī¥áĪİ":828,"ĠáĪĺáĪ°":829,"ĠáĬĲáĮĪ":830,"áĬĽáĪį":831,"áĪ«áĪį":832,"Ġáī¡":833,"ĠáĭŃáĪħáĬķ":834,"áĪĭáĭŃ":835,"ĠáĪ´":836,"áĪ¯":837,"ĠáĬłáĭ°":838,"áĪĬáĭ®áĬķ":839,"áĭ«áīĦ":840,"ĠáĮīáĭ³áĭŃ":841,"áĭĵáĪĪáĪĿ":842,"áī¨":843,"áī¶áī½áĬķ":844,"ĠáĬłáī£":845,"áīĢáĭį":846,"áĪĭáįĬ":847,"ĠáĬłáīĢ":848,"áī¥áīµ":849,"áĪĺáĮ£":850,"ĠáĪĨáĬĸ":851,"ĠáīłáĪĿ":852,"ĠáīłáīĢ":853,"áĪĭáĭį":854,"áĪ³áīµ":855,"áĪłáĪ¨":856,"áīłáĭį":857,"ĠáĬłáĪĭ":858,"ĠáĭĪáīħáīµ":859,"ĠáĪĭ":860,"ĠáĪĲ":861,"ĠáĬ¨áī°áĪĽ":862,"ĠáīłáĪµ":863,"ĠáĬ¥áĬķáĮĤ":864,"áĮª":865,"Ġáĭ¨áĪµ":866,"ĠáĭįáĮ¤":867,"ĠáĭŃáĪħ":868,"áĪĺáĪŃ":869,"Ġáī°áĮįáī£":870,"áī³áī¸áĭįáĬķ":871,"Ġáĭ¨áĭį":872,"ĠáĬłáī¥":873,"áĬ©áĪį":874,"áĭĺáī¥":875,"áī°áĭĭáĪį":876,"ĠáĭĺáĪŃ":877,"áĬķáĮįáĪµáīµ":878,"áĬ«áĪĦ":879,"áĬĸáī½":880,"áī±áĪĿ":881,"ĠáĬ¥áĬķáĭ´":882,"áīłáĭļáĪħ":883,"áĬĥ":884,"ĠáĭŃáī½":885,"Ġáīĥ":886,"áĪīáĪĿ":887,"ĠáĬłáĭŃáĭ°áĪĪáĪĿ":888,"ĠáĬłáīµ":889,"Ġáī¢áĪĨáĬķ":890,"ĠáĪ½":891,"áĪ©áĬķ":892,"ĠáĪļáĬĴ":893,"ĠáĮİ":894,"ĠáĬłáĬ«áī£áī¢":895,"ĠáĬłáĮĪáĪŃ":896,"áįĪáĭį":897,"áĬĿáĬĲáīµ":898,"áĪªáĬŃ":899,"ĠáĮ¥áĭ«áīĦ":900,"áĭŃáĬĲáīµ":901,"áĮįáĪŃ":902,"áĮłáĬķ":903,"ĠáĪĿáĬŃáĬķáĭ«áīµ":904,"Ġáīłáĭ¨":905,"ĠáĬłáĮĪáĪįáĮįáĪİ":906,"Ġáĭ«áĪį":907,"Ġáĭ¨áĭĪ":908,"ĠáĪĺáĬķáĮįáĪ¥áīµ":909,"áĭ°áĪĿ":910,"áĪģáĬķ":911,"łáĪ«":912,"ĠáĪľ":913,"áĮĢáĪĺáĪªáĭ«":914,"áī¢áĭ«":915,"ĠáīłáĪ°":916,"áī¸áĭĭáĪį":917,"Ġáī¦áī³":918,"Ġáĭķáĭµ":919,"ĠáĮĪáĪį":920,"Ġáĭ¶":921,"áĬĵáĭį":922,"ĠáĪ¨":923,"áįĸáĪŃáīµ":924,"Ġáĭ¨áĬĲáīłáĪ¨":925,"áįįáīµ":926,"áīĢáĪ¨":927,"ĠáīµáĪĿáĪħ":928,"ĠáĪ¥áĪŃ":929,"ĠáĬ¥áĬķáĭ²áĪħ":930,"áĪ©áīµ":931,"ĠáĬłáĪī":932,"ĠáĪŀ":933,"áĪŀáĬŃ":934,"Ġáĭįáĭµ":935,"áįĭáīµ":936,"Ġáĭ«áĪħáĪį":937,"áī°áĪ°":938,"áĬħ":939,"ĠáĬ¨áĪļ":940,"áĮĪáĬĵ":941,"Ġáĭ¨áĪħ":942,"áī¼":943,"áĪĭáĪī":944,"áĬłáĬķ":945,"ĠáĬ¢áĬķ":946,"áĬĻ":947,"áīłáĪĺ":948,"áĪĺáĭį":949,"áĪĨáĬĵ":950,"Ġáĭ¨áĬ¢":951,"áĬ¬":952,"áĪĪáĭĭáĪį":953,"áĭ®áī½":954,"áĪ°áĪ«":955,"ĠáĭµáĪŃáĮħ":956,"áĭ°áĪ¨áĮĪ":957,"ĠáįķáĪ®":958,"áĭĪáīħ":959,"áĬ«áī³":960,"áĪ³áī¥":961,"Ġáī°áĬĵ":962,"áĪĿáĪŃ":963,"áĪ³áĭŃ":964,"ĠáīłáĭļáĪħ":965,"Ġ4":966,"áĮįáī¥":967,"áĪ±áĬķ":968,"áĪŃáĭµ":969,"ĠáĬłáĪ³":970,"ĠáĬłáĪ°":971,"Ġáĭ¨áĪĨáĬĲ":972,"áīĥáĪį":973,"Ġáī°áīĢ":974,"áĮ¨áĪĽáĪª":975,"ĠáĬ¥áĬķáĭ²áĭ«":976,"áĬŃáīµ":977,"ĠáĬłáĭį":978,"áī¤áīµ":979,"áĪŁ":980,"áĭ¶áī½":981,"áĪµáįĭ":982,"ĠáįĵáĪŃ":983,"áĪĪáī²":984,"Ġáĭ¨áĪĽáĭŃ":985,"áĪ¨áĭĭáĪį":986,"áĭ³áĭ°áĪŃ":987,"ĠáĪº":988,"áĪ±áĪµ":989,"ĠáĬłáĪĽ":990,"áĪµáĪĪ":991,"áĮ½áĪĲ":992,"áĮĪáĪªáī±":993,"ĠáĪĽáĬķ":994,"áĭ«áĪħ":995,"áĪĺáĪ¨":996,"áīĢáīµ":997,"ĠáĪŃ":998,"ĠáīłáįĬáīµ":999,"áĪ³áĪĮ":1000,"áĭŃáĭĪáīµ":1001,"ĠáĪ³áĭŃáĪĨáĬķ":1002,"Ġáĭ¨áĬ¢áīµáĭ®áĮµáĭ«":1003,"ĠáĪĪáĬł":1004,"Ġáįĸ":1005,"áĬ®áĬĸ":1006,"áĭ¨áĪ±áĪµ":1007,"ĠáĬłáĪŃ":1008,"ĠáĮ½":1009,"áĮįáĪ«":1010,"áĪįáĪĿ":1011,"ĠáĭĵáĪĺáī³áīµ":1012,"áĬ¨áĪŃ":1013,"áĪĭáĪĽ":1014,"ĠáĬ¥áĬķáĭ´áīµ":1015,"ĠáĪ²áĭ«":1016,"áĪıáĪį":1017,"áĪªáĭİáī½":1018,"áĬĲáĪµ":1019,"áĮģ":1020,"áĬ«áĪĿ":1021,"áĬĹ":1022,"Ġáĭ«áĪī":1023,"ĠáĭµáĪ¨áĪµ":1024,"áĬķáīµ":1025,"áĭ«áĪħáĭĮ":1026,"ĠáĬ¥áĭį":1027,"áįĵ":1028,"ĠáĭĺáĪĺáĬķ":1029,"ĠáĪĮáĪİáī½":1030,"Ġáĭľ":1031,"áĮ£áĪĿ":1032,"áĬĵáĮĪ":1033,"áĭ¨áĭį":1034,"200":1035,"áĬĲáīłáĪ¨":1036,"Ġáĭ¨áĪļáĪį":1037,"áī½áĭį":1038,"áĪłáĪ«":1039,"áĪĪáĭŃ":1040,"áĮ¹":1041,"áĮĭáĪį":1042,"ĠáĬ¥áĪŃ":1043,"áįĸáĪŃ":1044,"ĠáĪĽáĪħ":1045,"áĮłáĪ«":1046,"ĠáįĬ":1047,"áĪ«áĪ²":1048,"Ġáī°áĭĪ":1049,"áĪĪáī²áĬ«":1050,"ĠáĮŃ":1051,"Ġ5":1052,"ĠáĭĵáĪĪáĪĿ":1053,"ĠáĬ¨áĪĽ":1054,"Ġáī°áī¥":1055,"áĮįáĪį":1056,"ĠáĬŃáĪį":1057,"áĮĨáī½":1058,"áīµáĪŃ":1059,"ĠáĬĥáĪĭáįĬ":1060,"ĠáĬ¥áĬĶ":1061,"áĪŀáī½":1062,"áĬĲáĪ±":1063,"ĠáĪĺáĪłáĪ¨":1064,"áĪĭáĪĪ":1065,"áĭ°áĪ¨áĮī":1066,"áĮįáĬĺ":1067,"ĠáĪĽáĭµáĪ¨áĮį":1068,"ĠáĪįáĮħ":1069,"ĠáĬ¥áĬķáĬ³":1070,"áī½áĬķáĬķ":1071,"áĪ£":1072,"áĭ±áĪµ":1073,"ĠáĪģáĪĪáīµ":1074,"ĠáĬ¨áĬ¥":1075,"áĪĭáĪĿ":1076,"ĠáĪĪáĭį":1077,"áĬ¨áĪĭ":1078,"áĬ¨áĬĵ":1079,"áĭ¨áĪŃ":1080,"ĠáĭŃáī½áĪĭáĪį":1081,"áĪĿáĬĲáīµ":1082,"áĪĺáĪį":1083,"áĪ·":1084,"áĭ¥":1085,"áĮĬáĭľ":1086,"ĠáĬłáĮĪáĪįáĮįáĪİáīµ":1087,"áĬķáĬķ":1088,"áĭ²áĪħ":1089,"ĠáīµáĪĿáĪħáĪŃáīµ":1090,"áįĪáĪĪ":1091,"ĠáīłáĪĺáĪĨáĬĳ":1092,"áĪŃáĭ«":1093,"áĮłáĪ¨":1094,"ĠáīłáĬ©áĪį":1095,"áĭįáĭ«áĬķ":1096,"ĠáĪįáĪĽáīµ":1097,"ĠáĬłáĭ²áĪµ":1098,"ĠáĬ¦":1099,"ĠáĭŃáĮĪáī£":1100,"áīłáĬł":1101,"Ġáĭ¨áī³":1102,"áĮĪáīµ":1103,"áĭ²áĭ«":1104,"áĬŃáĪµ":1105,"áĪ«áī¸áĭį":1106,"áĮ½áĪĲáįį":1107,"ĠáĬłáĪģáĬķ":1108,"áĪ³áī¸áĭį":1109,"áīħáĭµ":1110,"áĪĨáĬĵáĪį":1111,"ĠáĮįáĬķáī£":1112,"áĮĮ":1113,"áĮĪáĬĺáĭį":1114,"ĠáĭŃáĪĨáĬĵáĪį":1115,"ĠáĪĮáĪĭ":1116,"ĠáĬłáīħ":1117,"ĠáĪļáĪĬáĭ®áĬķ":1118,"ĠáĭĽ":1119,"áĭĿáī¡":1120,"ĠáĭŃáĮĪ":1121,"ĠáĪµáĪĿ":1122,"ĠáĬª":1123,"ĠáĭĪáĪŃ":1124,"Ġáĭ«áĪħáĭĮ":1125,"Ġáī°áĬĵáĮį":1126,"áīłáīµáĬķ":1127,"áĬŃáĪŃ":1128,"áĪ¬áīµ":1129,"Ġáĭ¨áīµ":1130,"ĠáĪĺáĪ¨áĮĥ":1131,"áĮłáīµ":1132,"Ġáī£áĪħ":1133,"ľáĪªáĬ«":1134,"áīħáĪ¨":1135,"Ġáĭ¨áĪ¥":1136,"ĠáĬłáĬķáĭ±":1137,"áĮĪáī¡":1138,"áĮĲ":1139,"áĪ¬áĭļ":1140,"áĭįáĪĿ":1141,"áĭ°áĮį":1142,"áĬ¨áĬĵáĭĪ":1143,"Ġáīħáĭ±áĪµ":1144,"áĬłáĪĿ":1145,"ĠáĬ©":1146,"Ġáī´":1147,"ĠáĪĺáĪĨáĬķ":1148,"áĮįáĪĪ":1149,"áĪĺáĪ«":1150,"áĭ«áĭĺ":1151,"áĬ¥áĬĲáĭļáĪħ":1152,"áīĢáĪĺ":1153,"áĪĭáī½áĪģ":1154,"ĠáĮĪáĬķ":1155,"ĠáįĵáĪŃáī²":1156,"ĠáĬ¥áĬķáĭ³áĭŃ":1157,"ĠáĭĪáĬķ":1158,"Ġáĭ¨áĪļáĪ°":1159,"áĮįáĬķ":1160,"áĮłáīħ":1161,"áĪ¬áĭļáĭ³áĬķ":1162,"áĮĢáīµ":1163,"áĮ¨áĪ¨":1164,"áĪĻáĭ«":1165,"ĠáĭµáĮĭ":1166,"áĭ°áīµ":1167,"áĬĲáī±":1168,"áįĪáĮ¥":1169,"áīĥáīµ":1170,"ĠáĬ¥áĬķáĭ°áī°":1171,"ĠáīłáĮ¥":1172,"ĠáĭĭáĬĵ":1173,"áī»áī¸áĭį":1174,"ĠáĪįáĭ©":1175,"Ġáĭ¨áĪķ":1176,"áĪ³áī°":1177,"ĠáĭĪáĭŃ":1178,"ĠáĬ¥áĮħ":1179,"ĠáĬłáīĢáįį":1180,"áīłáī¥":1181,"Ġáĭ²":1182,"ĠáĭĪáĮ£":1183,"áĪĽáĭŃ":1184,"ĠáĬ¥áĬķáīħ":1185,"áĪĿáįĴ":1186,"áĭĺáĪŃ":1187,"ĠáīłáĮ£áĪĿ":1188,"áĬ®áĬĸáĪļ":1189,"áĭ³áĬķáĭµ":1190,"Ġáĭ¨áĪį":1191,"áĬ¨áĭļáĪħ":1192,"Ġáĭ¨áĪĿáīµ":1193,"áĪ«áĪŃ":1194,"áĮ¡áīµ":1195,"ĠáĬłáĪµáī°áĭ³áĭ°áĪŃ":1196,"áĬ¤áĪį":1197,"áĪĦáĭµ":1198,"áīµáĪĿáĪħ":1199,"áī°áĬĽáĭį":1200,"ĠáĭĺáĪĺ":1201,"Ġáī°áĬ¨":1202,"ĠáīłáĪŃáĬ«áī³":1203,"áĪº":1204,"áĭįáĪį":1205,"ĠáĮ£":1206,"ĠáĬ¥áĭµ":1207,"áīª":1208,"áĭ°áĪŃáĮį":1209,"áĮĭáīµ":1210,"ĠáĪĬáĭ«":1211,"áĪįáĮ£áĬķ":1212,"áĬĴáī¨":1213,"Ġáĭ©":1214,"ĠáĪµáĪŃ":1215,"ĠáīµáĬ©":1216,"ĠáĬłáĪĪáĪĺ":1217,"19":1218,"ĠáĪĺáĬķáĮįáĪ¥":1219,"ĠáĮįáī¥":1220,"ĠáīłáĪĽáĪĪáīµ":1221,"ĠáĬłáĮĭ":1222,"ĠáĬłáĪµáįĪ":1223,"ĠáĪĪáĪļ":1224,"ĠáĬłáĪĿáĪĭáĬŃ":1225,"ĠáīĥáĪį":1226,"áī¥áĪ¨áīµ":1227,"áĭ°áĬķ":1228,"áĭŃáīµ":1229,"áĮįáĬĺáīµ":1230,"ĠáĪĪáĪĽáĪµ":1231,"áįīáīµ":1232,"ĠáĪĺáĪŃ":1233,"áĪ¨áĮĭáĮĪ":1234,"ĠáĪļáĬĴáĪµáīµ":1235,"áĪĨáĬĳáĪĿ":1236,"áĬĸáĪ©":1237,"áĮĪáĬĲ":1238,"Ġáĭ¨áĪĨáĬĳ":1239,"ĠáĬ¨áĪĨáĬĲ":1240,"áĪįáĬĵ":1241,"Ġáī¥áĪĪáĭĭáĪį":1242,"áĮłáĪ©":1243,"ĠáīłáĪĻ":1244,"áĬŃáī°áĪŃ":1245,"áĪµáĬĵ":1246,"áīłáĪĪ":1247,"Ġáī¥áĪĶ":1248,"Ġáī°áĮłáīĥ":1249,"áĭŃáĪħáĬķ":1250,"Ġáĭ«áĪĪáĭįáĬķ":1251,"áĭ¨áĬł":1252,"ĠáĪµáīµ":1253,"áĭĭáĬķ":1254,"áĬĲáĮĭ":1255,"ĠáĬ¥áĬķáĭ³áĪĪ":1256,"áī°áĬŀáī½":1257,"áīĢáĮ¥":1258,"áĬ¥áĬķáĭ°":1259,"áīłáĭ«":1260,"Ġáĭ¨áī°áĪĪáĭ«áĭ©":1261,"ĠáĭĵáĭŃáĬĲáīµ":1262,"áĪ®áī½áĬķ":1263,"áĭ«áĭĬ":1264,"áĪ°áī£":1265,"áĪŀáĬŃáĪ«áĪ²":1266,"áĮİáī½":1267,"áīłáīĥ":1268,"ĠáĬ¥áĬķáĭµ":1269,"ĠáīģáĮ¥áĪŃ":1270,"ĠáĮ¨áĭĭ":1271,"áĭ°áĪ¨áĮĪáĭį":1272,"áį¦":1273,"áĮłáīĢáĪĿ":1274,"áĬĵáĭĬ":1275,"áī³áī½áĬķ":1276,"áĬķáī°":1277,"ĠáĪĿáĬķáĪĿ":1278,"áĭ°áĪ«":1279,"ĠáĪĪáĪĽáĭµáĪ¨áĮį":1280,"áįĪáĮ¸":1281,"áĮłáīłáīħ":1282,"Ġ6":1283,"ĠáĮłáīħ":1284,"ĠáĭµáĮĭáįį":1285,"áĪŃáĪ²":1286,"ĠáĬłáĭµ":1287,"ĠáĪĦ":1288,"áī³áĭŃ":1289,"ĠáĭĻ":1290,"áĮĪáī¢":1291,"áĮĭáĪ«":1292,"áĬ¨áįį":1293,"áĬĳáĬķ":1294,"ĠáĪĽáĭķ":1295,"áī³áĪĽ":1296,"ĠáĬłáĭ«":1297,"ĠáĭµáĬķ":1298,"ĠáĪĽáĪ³":1299,"ĠáĪ²áĪį":1300,"Ġáĭ¨áĪĿáĬķ":1301,"Ġáī¥áĪĪáĭį":1302,"áīĢáĭµ":1303,"ĠáīłáĪĺáī¶":1304,"áĬ¸":1305,"áī¥áĭĻ":1306,"áĬ¨áĪ°":1307,"áĭĽáīµ":1308,"ĠáĬ¨áĭļáĪħ":1309,"ĠáĪĺáĮ¥":1310,"ĠáĪĪáī°":1311,"áĬ«áī£áī¢":1312,"Ġáī£áĪĪáĪĻáĭ«":1313,"áī¹áĬķ":1314,"áĪĽáĪŃ":1315,"áĮłáĭŃ":1316,"Ġáĭ¨áī°áĪ°":1317,"áĬ¨áĪ«":1318,"áĪĺáĪĪáĬ¨áī°":1319,"áĪĿáīµ":1320,"ĠáīłáĪģ":1321,"áĪŃáĪ²áī²":1322,"áįĪáĪŃ":1323,"ĠáĮ¥áĪ¨áīµ":1324,"ĠáĬ®áĪļ":1325,"áīµáĪĿáĪħáĪŃáīµ":1326,"ĠáĬłáīµáĪĮ":1327,"áī½áĪī":1328,"ĠáĪģáĪĪ":1329,"áĪµáīĥ":1330,"ĠáĬłáĮĪáĪ®áī½":1331,"áĪįáĬķ":1332,"ĠáĪĺáĬķáĮįáĪµáīµ":1333,"ĠáīłáĪĨ":1334,"Ġáīłáĭĵ":1335,"ĠáĮĢáĪĿáĪ®":1336,"áĪ¯áĪį":1337,"áī¥áĪ«":1338,"áĮ¥áī¥":1339,"ĠáĭįáĮ¤áīµ":1340,"ĠáĬ¥áĬķáĭ°áĪļáĭ«":1341,"Ġáīłáīµ":1342,"áĬ¨áī°áĪĽ":1343,"ĠáĭŃáĮĪáī£áĪį":1344,"áĪ¥áĪ«":1345,"Ġáī°áĪµáįĭ":1346,"Ġáī°áĬĵáĮįáĪ¨áĭĭáĪį":1347,"áīłáī³áĪį":1348,"ģáĬĳ":1349,"ĠáįĢ":1350,"ĠáĬķáĮį":1351,"áĭĽáĪ¬":1352,"áĭ°áĪ¨áĮį":1353,"ĠáĪĺáĪłáĪ¨áīµ":1354,"áĬĴáī¨áĪŃáĪ²áī²":1355,"ĠáĪĤ":1356,"áįĸáĪĪáī²áĬ«":1357,"áĭ±áĪµáīµ":1358,"áĪ»áĪ»":1359,"áįįáĪ«":1360,"áĮ¨áĪ¨áĪ»":1361,"ĠáĪª":1362,"ĠáĭĺáĬķáĭµ":1363,"áĮĪáī¥":1364,"áĬŃáĪĿáĬĵ":1365,"áĪµáĪĪáĭļáĪħ":1366,"áĪĭáĮĬ":1367,"áĪ°áĮ¥":1368,"ĠáīłáĪĽáĭµáĪ¨áĮį":1369,"áĭ°áĪŃáĮī":1370,"áĪīáĬķ":1371,"áĭĪáĭ°":1372,"ĠáĮįáĬķáī£áī³":1373,"ĠáĪĪáĬ¥":1374,"áĪ¨áĬķ":1375,"áĮįáĮ¥":1376,"ĠáĬłáĭ³":1377,"ĠáįįáĪĭ":1378,"ĠáīµáĬ©áĪ¨áīµ":1379,"ĠáĮĪáĪįáĮ¸":1380,"áĪĪáĪĽ":1381,"20":1382,"Ġáĭ«áĪ³":1383,"ĠáĭĽáĪ¬":1384,"ĠáĮ¥áĪ©":1385,"áĪµáīĥáĪ´":1386,"ĠáīłáĪĮ":1387,"áīĢáĪ³":1388,"Ġáīłáĭį":1389,"áī§":1390,"áĬłáĭ´":1391,"áīĭáīĭ":1392,"Ġáī°áĮłáīĥáĪļ":1393,"áī°áĪ°áī¡":1394,"Ġáĭ¨áĪ«":1395,"ĠáĪĻáĪī":1396,"áĪµáĪ«":1397,"ĠáĬĥáĭŃáĪį":1398,"ĠáĪłáĪ«":1399,"ĠáĮįáĬķáĬĻ":1400,"ĠáĪĺáĭµáĪ¨":1401,"Ġáĭ¨áĪĪáĪĿ":1402,"áĪĪáĭįáĬķ":1403,"ĠáĬĲáĮĪáĪ®áī½":1404,"ĠáĮ¨áĭĭáī³":1405,"áĬĲáĮĪáĪŃ":1406,"áĬĲáīµáĬķ":1407,"áĬĲáĮĪ":1408,"ĠáīłáĬłáĬķáĭµ":1409,"áĬłáĪģáĬķ":1410,"áĪ¹":1411,"ĠáĬ¥áĬķáīħáĪµáīĥáĪ´":1412,"áĪįáĮłáĬĵ":1413,"áī¥áĬķ":1414,"ĠáĪĿáĬŃáĪŃ":1415,"áĪµáĬķ":1416,"áī»áĪį":1417,"áĪ¬áĭļáĭ³áĬķáīµ":1418,"Ġáī¢áĪĨáĬķáĪĿ":1419,"áī¾":1420,"áĮ®":1421,"¦áĪµáīµ":1422,"áĬĲáīłáĪŃ":1423,"ĠáĪ°áī¥":1424,"áī°áĪ°áī¥":1425,"Ġáīłáīł":1426,"áĪµáī³":1427,"áįĪáīµ":1428,"ĠáĬ³":1429,"áĮĪáĪ«áī½áĬķ":1430,"áīħáĬĵ":1431,"Ġ20":1432,"Ġáī¤áī±":1433,"ĠáĮĪáĬķáĭĺáī¥":1434,"ĠáĬłáĪĪáīłáīµ":1435,"ĠáĬłáįįáĪªáĬ«":1436,"Ġáī°áīĭáĪĽáīµ":1437,"áĪĺáĭµ":1438,"Ġáī¤áī¶áī½":1439,"ĠáĪĪáĭįáĮ¥":1440,"ĠáĬłáīħáĪĿ":1441,"áĮłáĪį":1442,"áĭ«áĭĿ":1443,"áĪŃáĪµáī²":1444,"Ġ7":1445,"áī°áĬķ":1446,"ĠáīµáĪįáīħ":1447,"ĠáĭĺáĪŃáįį":1448,"Ġáĭ«áĪīáīµ":1449,"áĪĬáĭ«":1450,"áīłáĪĮ":1451,"Ġ200":1452,"Ġáī°áī¥áĪİ":1453,"ĠáĪĺáĪĪ":1454,"áĪĺáīµ":1455,"ĠáĪĺáīĢ":1456,"ĠáĬŃáįįáĪį":1457,"«áīµ":1458,"Ġáī£áĬķ":1459,"áĭ°áĬĽ":1460,"ĠáĪµáĬķ":1461,"ĠáĭĿáĮį":1462,"ĠáĪĺáĪĨáĬĵ":1463,"Ġáĭ¨áī£":1464,"ĠáĬłáĪĪáĭį":1465,"áīłáĪĭ":1466,"Ġáī³áĪªáĬŃ":1467,"áī£áĭŃ":1468,"Ġáĭ¨áĪĪ":1469,"áĬĵáĮĪáĪ«":1470,"áĪİáĮĤ":1471,"ĠáĭµáĪĿ":1472,"Ġáī½áĮįáĪ®áī½":1473,"áĭĺáĭį":1474,"ĠáĬłáĪ¨":1475,"áĮĦ":1476,"Ġáĭ¨áĮ¥":1477,"ĠáĬ¥áĬĲáĭļáĪħ":1478,"Ġáĭ´":1479,"áī£áĪĪáĭį":1480,"ĠáĪ¸":1481,"áĮłáī¥":1482,"áĪ¾":1483,"ĠáĮ¦":1484,"áĪµáī´":1485,"áĪ³áĪį":1486,"áįĮáĭ´":1487,"áĭ±áĪµáīµáĪª":1488,"ĠáĭŃáĪĦ":1489,"ĠáīłáĪķ":1490,"áĭ°áĮĭ":1491,"áī¡áī¥":1492,"ĠáĮīáĭ³áĭ®áī½":1493,"áĪĺáĭĺ":1494,"áĪ³áĬĶ":1495,"Ġáī£áĭŃ":1496,"ĠáĭĪáĬķáĭµ":1497,"ĠáīłáĪĻáĪī":1498,"ĠáĬłáĭĭ":1499,"Ġáīĭ":1500,"áĭ°áĪŃáĪµ":1501,"áĮłáĬĵáīĢ":1502,"Ġáĭ¨áįĪ":1503,"ĠáĭŃáĪĺáĪµ":1504,"áĪ»áĪĪ":1505,"ĠáīµáĬķ":1506,"Ġáī°áĪĽáĪª":1507,"ĠáĪ¥áĪŃáĭĵáīµ":1508,"ĠáĭĭáĮĭ":1509,"áī°áīµ":1510,"Ġáĭ¨áĬĲáīłáĪ©":1511,"áīº":1512,"ĠáĪµáĪľ":1513,"áĭļáĭ«áĪĿ":1514,"áĪĪáĪħ":1515,"ĠáĬłáĭ°áĮĭ":1516,"ĠáĭµáĪŃáĮħáīµ":1517,"áĪŃáĪĿáĮĥ":1518,"áĬ¥áĬĶ":1519,"áĪĿáĬķáīµ":1520,"áĮ¤áĬĵ":1521,"ĠáįĮ":1522,"ĠáīłáĪļáĪį":1523,"Ġáĭ¨áĪĮ":1524,"ĠáĪĪáĪĿ":1525,"ĠáĪ¶":1526,"áī£áĬķáĭ«":1527,"Ġáĭ«áĪĭáī¸áĭį":1528,"Ġáĭ¨áĬĲáīłáĪ¨áĭį":1529,"ĠáĬŃáĪįáĪį":1530,"áĬŃáĪĪ":1531,"ĠáīłáĪ«":1532,"áĪĭáī¸áĭįáĬķ":1533,"áįİáī½":1534,"Ġáįĭ":1535,"áĪĪáĪĺ":1536,"ĠáĬŃáĪĪ":1537,"ĠáīłáĬ¢áīµáĭ®áĮµáĭ«":1538,"áĪĽáĬĸ":1539,"ĠáįįáĪĭáĮİ":1540,"áĬĽáĭįáĪĿ":1541,"ĠáīµáĪŃ":1542,"áĬĲáīµáĬĵ":1543,"áĭ³áĪŃ":1544,"áĬķáĮ«":1545,"ĠáĮĪáĪįáĮ¸áĭĭáĪį":1546,"áĬ¥áĪŃ":1547,"áĭļáĪģ":1548,"ĠáīĢáĭ°áĪĿ":1549,"áĬłáĬķáĭµ":1550,"áī£áĪī":1551,"áĪĮáĪİáī½":1552,"Ġ8":1553,"ĠáĪįáĪĽ":1554,"áīĭáĪį":1555,"áĪ°áĪŃ":1556,"ĠáĪįáī¥":1557,"ĠáĮ¥áīħáĪĿ":1558,"ĠáĪĺáī¥":1559,"áĪ«áĬķáĪµ":1560,"áĮłáĭ¨":1561,"Ġáīłáĭ°":1562,"áĭ¨áī°":1563,"Ġáī¡áĭµáĬķ":1564,"ĠáĬ«áĪį":1565,"áĬĵáī¸áĭį":1566,"áĪĭáĭĬ":1567,"áĬłáĭ´áĮį":1568,"ĠáĬĲáįĥ":1569,"ĠáĪĿáĪŃáĮ«":1570,"áĭĪáĪŃ":1571,"Ġ.":1572,"ĠáĪĺáĮłáĬķ":1573,"áĪĺáĪĪáĬ¨":1574,"áĮ£áĪį":1575,"áĭŃáĪĽáĬĸ":1576,"ĠáĪįáĮĨáī½":1577,"ĠáĬĲáĭĭ":1578,"Ġáīłáī³":1579,"áī¥áĬĿ":1580,"Ġáīłáī°áĪĪáĭ«áĭ©":1581,"ĠáĪĽáĪµáī°":1582,"áĭ¨áĪĺ":1583,"ĠáĪķáĭĿáī¥":1584,"áĪ«áĬķ":1585,"ĠáīłáĪį":1586,"ĠáĪ°áĭĵáīµ":1587,"áī¥áĪ¨áī°áĪ°áī¡":1588,"ĠáĭŃáĪĭáĪį":1589,"áĮĪáĬķáĭĺáī¥":1590,"ĠáĬłáĮĪáĪ«áīµ":1591,"áĮ¿":1592,"ĠáĮįáĭµ":1593,"ĠáĭĪáĮ¥":1594,"áī¦áīµ":1595,"ĠáįķáĪ®áĮĢ":1596,"ĠáĬłáĭµáĪŃáĮİ":1597,"áĬķáĭ³":1598,"Ġáĭ¨áĪ¥áĪ«":1599,"ĠáĭŃáĪ°":1600,"Ġáĭ«áĭ°áĪŃ":1601,"ĠáĪ»":1602,"áĪ¨áĭµ":1603,"ĠáĬ¢áĭ¨áĪ±áĪµ":1604,"Ġáĭ¨áĮĪ":1605,"ĠáīĨáĭŃ":1606,"ĠáĮłáĬķ":1607,"ĠáĮĪáī¥":1608,"áĭŃáĬķ":1609,"áĬŃáĬĸ":1610,"Ġ10":1611,"ĠáīĢáĪŃ":1612,"ĠáīłáĪħ":1613,"áĪĺáĪ°":1614,"ĠáįĪáīĥ":1615,"Ġáī°áĭ°áĪŃ":1616,"ĠáĬ³áĪµ":1617,"ĠáĬłáĬ«áĪĭáīµ":1618,"ĠáĪ°áĮ¥":1619,"ĠáĭįáĭµáĭµáĪŃ":1620,"áī¶áī¹":1621,"ĠáĮįáĬķáĬĻáĬĲáīµ":1622,"ĠáĮłáĪ":1623,"Ġáĭ®":1624,"áĮ£áĪļ":1625,"ĠáĪµáĪĪáĪļ":1626,"áī¥áĪŃáĬĵ":1627,"áĭ°áĮĪ":1628,"ĠáĮ¦áĪŃ":1629,"ĠáĬłáĬ«áĪį":1630,"áĭİáī½áĬĵ":1631,"ĠáĭŃáĪįáīħ":1632,"Ġáīłáī°áĮ¨áĪĽáĪª":1633,"ĠáĪĺáĪ¥":1634,"áĪĽáĬķ":1635,"áĬ¨áī¥":1636,"Ġáī°áĮįáī£áĪŃ":1637,"ĠáĪĺáĬķáĮĪ":1638,"áīĨáĮ£":1639,"áĭ·":1640,"ĠáīłáĪĽáĪµ":1641,"ĠáĪħáĭĿáī¥":1642,"ĠáĬłáīħáĪŃ":1643,"áĮ¿áĪį":1644,"Ġáĭ¨áĪ°áĭį":1645,"ĠáĪºáĪħ":1646,"ĠáĮīáī£":1647,"áĬ¥áĬĵ":1648,"áĬ¨áĪĪ":1649,"áīłáĪĺáĪĨáĬĳáĪĿ":1650,"ĠáīłáĪ½":1651,"ģáĬķáĪĿ":1652,"ĠáĮ¤":1653,"áĪĳ":1654,"áĬłáī¶":1655,"áī¥áĪĶ":1656,"áĮ¢":1657,"ĠáįĸáĪĬ":1658,"Ġáĭ¨áĪļáĮĪáĬĻ":1659,"ĠáīłáĬ¢":1660,"ĠáĭįáĪ³áĬĶ":1661,"áĭŃáĪį":1662,"áĪĪáī±":1663,"áīĤáīµ":1664,"áĬķáīĭ":1665,"Ġáĭ¨áĭįáĮŃ":1666,"ĠáĪĺáĪįáĬ«áĪĿ":1667,"Ġ9":1668,"áĭ³áĮħ":1669,"áĭĪáĪµ":1670,"áīĤáĭ«":1671,"áĪ³áĪ³áĭŃ":1672,"áĭ«áĪį":1673,"Ġáĭ¨áĭĵáĪĪáĪĿ":1674,"Ġ19":1675,"ĠáĪĺáĪ°áĪ¨áīµ":1676,"ĠáĪľáīµáĪŃ":1677,"áĪµáĮłáīµ":1678,"ĠáĬłáĪµáįĪáĪĭáĮĬ":1679,"ĠáĪĺáĪįáĬ©":1680,"ĠáĬ¥áĮħáĮį":1681,"áĬŀáī¹":1682,"áĬ©áīµ":1683,"ĠáĪĺáĭį":1684,"áĬŃáĬĸáĪİáĮĤ":1685,"ĠáĬ¨áĬłáĪ":1686,"ĠáĪĺáī¥áīµ":1687,"áĪĪáĬ«":1688,"ĠáĪµáī¥":1689,"ĠáĭŃáĬĵáĮĪáĪ«":1690,"ĠáĪĨáĬĲáĭį":1691,"Ġáĭ¨áīł":1692,"áįģ":1693,"Ġáĭ¨áĬłáįįáĪªáĬ«":1694,"ĠáĬ¥áĬķáĮį":1695,"áĭĿáĬĵ":1696,"áĪĿáĭµ":1697,"ĠáĭŃáī»":1698,"áĬķáĮįáĭµ":1699,"áĬłáĭ²áĪµ":1700,"áĭŃáĬĵ":1701,"ĠáĬ¥áĬĽ":1702,"ĠáĪ±":1703,"áĬ«áĪį":1704,"áĭĺáĮĭáĮĢ":1705,"ĠáĪĺáĪĺ":1706,"áĪĭáĪŃ":1707,"áīħáĪ¨áī¥":1708,"áĪĭáĪ½":1709,"áī£áī¥":1710,"ĠáĬ¥áĬķáĬ³áĬķ":1711,"áĮ§":1712,"Ġáĭ¨áįĸáĪĪáī²áĬ«":1713,"áĮłáīĥáĪĭáĭŃ":1714,"Ġáĭ«áĪµáįĪáĪį":1715,"ĠáĪļáĬĴáĪµáīµáĪŃ":1716,"Ġ/":1717,"ĠáĪĺáĬķáįĪ":1718,"Ġáĭ¨áĪĨáĬĲáĭį":1719,"áįįáĮłáĪŃ":1720,"ĠáĮĮ":1721,"áĬĸáĪ¨áĭį":1722,"ĠáĮĭáĭľ":1723,"ĠáĪģáĪīáĪĿ":1724,"áīĢáĪµ":1725,"áĮĵáĪį":1726,"áī»áī½áĬķ":1727,"ĠáĪ´áī¶áī½":1728,"ĠáĬłáĪĽáĬ«":1729,"áĮ£áī¸áĭį":1730,"ĠáĭŃáī»áĪĭáĪį":1731,"áĪĭáīħ":1732,"ĠáĬ¥áĬķáĭ³áĪį":1733,"ĠáĪĬáĪĨáĬķ":1734,"ĠáĬ©áī£áĬķáĭ«":1735,"ĠáĭĻáĪªáĭ«":1736,"ĠáĬķáĮī":1737,"áĭ¨áĪĿ":1738,"áĬķáĭµáĬķ":1739,"ĠáĮĪáī¢":1740,"Ġáĭ¨áĭķ":1741,"ĠáĬłáĬķáĭ³áĬķáĭµ":1742,"Ġáĭ¨áīĢ":1743,"áĬ¨áĪ¨":1744,"ĠáĪĺáĪ¬áīµ":1745,"áĮ©":1746,"áĮħáīµ":1747,"Ġáĭ©áĬĴáī¨áĪŃáĪ²áī²":1748,"Ġáĭ¨áīĨ":1749,"áīĢáĭµáĪŀ":1750,"áīłáĪ°":1751,"áĪµáī°áĬĽ":1752,"Ġáĭ¨áĭĺ":1753,"áĮįáī£áĪŃ":1754,"áĪ³áĪ°":1755,"áĬ®áī½":1756,"áĬĹáĪį":1757,"ĠáīłáĮį":1758,"áįĪáĪ«":1759,"áĬłáīµ":1760,"áĪ±áĪĿ":1761,"ĠáĬłáīĭ":1762,"ĠáĬłáĬŃ":1763,"áĭ³áĪį":1764,"ĠáĬłáĪ¸":1765,"áī³áĭ°":1766,"Ġáī°áīĥ":1767,"Ġáĭ°áĪŃ":1768,"ĠáįķáĪ¬áĭļáĭ³áĬķáīµ":1769,"áĭĪáĮ¥":1770,"ĠáĪĪáĪĽáĪ³":1771,"áĭĬáīµ":1772,"ĠáĬłáĪµáī°áĭ«":1773,"ĠáĬłáĪįáī°":1774,"Ġáīłáįį":1775,"ĠáĭĵáĪĭáĪĽ":1776,"áĪĤ":1777,"Ġ12":1778,"áĬĵáĮĪáĪŃ":1779,"áĪĺáĪĪáĪµ":1780,"ĠáĪĺáĪª":1781,"áĭ¨áĪļ":1782,"ĠáĬłáĮ¥":1783,"áĪ³áī¸áĭįáĬķ":1784,"ĠáĪĺáĮ½áĪĲáįį":1785,"ĠáĬ¥áĪĿáĬĲáīµ":1786,"ĠáĪĺáĭµ":1787,"áĪĻáīµ":1788,"ĠáĭŃáī³áĭĪ":1789,"áĮĪáī£áĭį":1790,"áįĪáĪįáĮį":1791,"ĠáĬłáĪµáī°áĭĭ":1792,"Ġáĭ¨áĭ°":1793,"Ġáĭ°áĬķ":1794,"ĠáĬłáĪĿáĪµáīµ":1795,"Ġáī°áĮĪáī¢":1796,"áĭŃáĪħáĪĿ":1797,"áĪ³áī¢":1798,"ĠáīłáĬĲ":1799,"áĬĲáī±áĬķ":1800,"ĠáĮ«":1801,"ĠáĪĽáĬħ":1802,"áįĪáĮłáĪ¨":1803,"ĠáĭŃáĮĪáĬĽáĪį":1804,"áĮĪáĬĽ":1805,"ĠáĮ¸":1806,"áįĪáĮ¥áĪ®":1807,"áĪĪáĬĿ":1808,"áīłáĪįáĮ¥":1809,"ĠáīłáĭĪ":1810,"ĠáĪĺáĪĿ":1811,"áīłáĪ«áĭĬ":1812,"Ġáī£áĪį":1813,"ĠáĭĪáĮ£áī¶áī½":1814,"ĠáĭŃáĭŀ":1815,"ĠáĪļáĬĴáĪµáī´":1816,"Ġáĭ¨áĪĺáĮĢáĪĺáĪªáĭ«":1817,"áĪ®áįĵ":1818,"Ġáĭ¶áĪĭáĪŃ":1819,"áĮ«áĭĪ":1820,"áĭĿáī¦áī½":1821,"Ġáī°áĪ³áīµ":1822,"áĬ¨áī³":1823,"ĠáĮ¨áĪĿáĪ®":1824,"ĠáīħáĪŃ":1825,"ĠáĬ¥áĬĲ":1826,"ĠáĪ´áīµ":1827,"ĠáĬłáĪµáī³áĭį":1828,"áīłáĬłáĪ":1829,"ĠáĬĲáĮ¥áī¥":1830,"áĭįáĬĵ":1831,"áĮłáįĭ":1832,"Ġáĭ¨áĪļáĪĪáĭį":1833,"áīłáĪ¨áī³":1834,"ĠáĪ¨áĮĪáĭµ":1835,"Ġáĭ¨áĬłáĪĿ":1836,"Ġáīłáī°áĪĪáĭŃ":1837,"áĬ«áĪ«":1838,"áĭĪáĮ¡":1839,"áĬŃáĪįáĪī":1840,"áĪ¨áĮ¥":1841,"áĭ°áĪ¨áĪ°":1842,"áī¡áĬķ":1843,"áīµáĪį":1844,"Ġ15":1845,"áĭŃáĪģ":1846,"Ġáī¡áĭµ":1847,"áĪĪáĭŃáĪĿ":1848,"áĭ«áī¸áĭį":1849,"Ġáĭŀ":1850,"Ġáĭ«áĪįáī°":1851,"ĠáĪ°áĪĭáĪĿ":1852,"ĠáĪĺáĬĸ":1853,"áĪĽáī¸áĭį":1854,"ĠáĪĺáĮįáĪĪ":1855,"ĠáĬĸ":1856,"Ġáī°áĪ³":1857,"áĪ¶áī½":1858,"ĠáĮĪáĪĪ":1859,"áĭĺáĬķ":1860,"ĠáĪĺáī³":1861,"ĠáīłáīłáĬ©":1862,"áįĪáĬķ":1863,"ĠáĪķáĮį":1864,"áĭĿáĪĿ":1865,"áĮīáĪĿ":1866,"ĠáįįáīħáĪŃ":1867,"áī°áĬĵ":1868,"áĬłáĪĿáĪĭáĬŃ":1869,"áĪ¨áĪ°":1870,"áĪµáī±":1871,"Ġáī°áĪĺáĪį":1872,"áīĢáĪĿ":1873,"ĠáĬĲáīłáĪ©":1874,"ĠáĪĪáĪĿáĬķ":1875,"Ġáī¥áĭ¬":1876,"áĪ«áĮŃ":1877,"ĠáĬ¥áĪŃáĪĿáĮĥ":1878,"ĠáĪĿáĪµ":1879,"ĠáĬ¨áī£":1880,"áī¡áīµ":1881,"áĬ¨áĪĭáĬ¨áĪį":1882,"ĠáĬ¥áĬ®":1883,"áĬ¢áĭ¨áĪ±áĪµ":1884,"Ġáīłáĭµ":1885,"ĠáĪµáī³":1886,"ĠáīłáĭĵáĪĪáĪĿ":1887,"áī»áī¸áĭįáĬķ":1888,"áĪĭáĬķ":1889,"Ġ11":1890,"ĠáĪĿáĪĭáĪ½":1891,"ĠáĮĵ":1892,"áĪįáįį":1893,"áī¥áĭĽ":1894,"áĮĪáĪĪáĮ¹":1895,"áĭķáĪ«":1896,"áĪĻáĬķ":1897,"ĠáĪķáĭŃáĭĪáīµ":1898,"Ġáĭįáĭµáĭµ":1899,"ĠáĬłáįĪ":1900,"ĠáĪļáĬĴáĪµáī´áĪŃ":1901,"Ġáīłáĭĺ":1902,"áĪł":1903,"ĠáīłáīħáĪŃ":1904,"áĪµáĪĽ":1905,"áĪĿáĬŃ":1906,"áĭ³áĪļ":1907,"Ġáĭ¨áī°áĬĲáĪ³":1908,"áĮ¥áī³":1909,"áĭ±áĬķ":1910,"áĪµáī¥":1911,"áī£áī¸áĭįáĬķ":1912,"áĮ£áĬķ":1913,"ĠáĬ¥áĬķáĭ°áĬĲáīłáĪŃ":1914,"ĠáĭįáĪĥ":1915,"ĠáĬłáī£áĪĭáīµ":1916,"áĪ½áĬĳ":1917,"áī¾áī½":1918,"áĪĺáĮ¡":1919,"áī½áĪįáĪĿ":1920,"áĬ«áī£áī¢áĭį":1921,"Ġáĭ¨áī°áĪ»áĪĪ":1922,"áĭ³áīµ":1923,"áĭĭáĬĵ":1924,"áĭŃáĪ¬":1925,"ĠáĭŃáĬĸáĪŃ":1926,"áīłáĪµ":1927,"Ġáĭ¨áĪĻ":1928,"ĠáĬłáĮį":1929,"áĬķáįĪ":1930,"ĠáĭŃáĮĪáĪį":1931,"ĠáĪ²áĪī":1932,"ĠáĪĺáįįáīµ":1933,"áĭ°áī¥":1934,"áĬĸáĪĿ":1935,"Ġáĭ¨áĪįáĪĽáīµ":1936,"ĠáĭŃáī³":1937,"áĪ³áĭĬ":1938,"ĠáįĬáīµ":1939,"áĪ«áĭŃ":1940,"áĮ¥áĪ¨áīµ":1941,"áĪĪáĭ¨":1942,"áĮ£áĮ«":1943,"Ġáī°áĮĪáĪį":1944,"Ġáī¢áĪ®":1945,"áī£áī£":1946,"ĠáĭķáĭµáĪį":1947,"áĪ¨áĮĭáĮĪáĮ¥":1948,"áī¿":1949,"áĬ¨áįįáī°áĬĽ":1950,"áĭ«áĭŃ":1951,"áĪĥáĪį":1952,"áĬ«áīµ":1953,"áīģáīµ":1954,"Ġáī£áĪĪáĭį":1955,"Ġáĭ¨áĬ¤":1956,"áĬ«áĪĦáĭµ":1957,"áĪħáĬłáĭ´áĮį":1958,"áĭ³áĭ°":1959,"áĭ°áĪ¨áĮĥ":1960,"áĭŃáĪĦ":1961,"ĠáĪĿáĭµáĪŃ":1962,"áįĵáĪŃ":1963,"áī¨áĪµáīµ":1964,"ĠáįįáĪĭáĮİáīµ":1965,"áī½áĪĪáĭį":1966,"áĪĪáĭļáĪħ":1967,"áĬķáīĢáĪ³":1968,"áĭ²áĭ«áĭį":1969,"ĠáĭľáĮİáī½":1970,"ĠáĮłáīģ":1971,"ĠáĮįáĪį":1972,"ĠáĪĺáĪĨáĬĵáī¸áĭįáĬķ":1973,"áĭ«áĪĿ":1974,"áĭĪáīħáī±":1975,"áĬ«áĪĦáĭ°áĭį":1976,"ĠáĭįáĭŃ":1977,"áĮħáĪĿ":1978,"áĭµáĪµáīµ":1979,"áĬĵáĮĪáĪ©áīµ":1980,"ĠáīĭáĬķáīĭ":1981,"ĠáĪµáĪľáīµ":1982,"ĠáĪĺáĬĲ":1983,"ĠáĪĺáĭĿ":1984,"áĮ¦áĪŃ":1985,"ĠáĮĪáīłáĭ«":1986,"áĮłáĬĲ":1987,"ĠáĪĢáī¥áīµ":1988,"Ġáī°áĮįáī£áĪ«áĭĬ":1989,"ĠáĬłáĮĭáĮ£áĪļ":1990,"ĠáĪĿáĪŃáīµ":1991,"áĭ±áīµ":1992,"áĪįáĪĽáīµ":1993,"áī¸áĭįáĪĿ":1994,"ĠáįĮáĭ´":1995,"ĠáĪ¥áĪ«áĭİáī½":1996,"ĠáĬłáĭŃáĬĲáīµ":1997,"ĠáĭŃáĪģáĬķ":1998,"ĠáĭĵáĭŃ":1999,"áĭ°áīł":2000,"ĠáĪµáįĸáĪŃáīµ":2001,"áīłáī°áĪĪáĭŃ":2002,"ĠáĬ®áĪļáī´":2003,"ĠáĬ¥áĬķáĭ°áĪĽáĭŃ":2004,"áĪµáī°áĭĭ":2005,"Ġáĭ¨áĮİ":2006,"ĠáĬłáĬ«áī£áī¢áĭİáī½":2007,"ĠáĬ¨áĭĪ":2008,"Ġáĭ¨áĪļáī³":2009,"ĠáĭŃáĪĭáĪī":2010,"ĠáīłáĪļáĭ«":2011,"Ġáĭ¨áĪģ":2012,"ĠáĪ¦áĪµáīµ":2013,"ĠáīłáĪ¨":2014,"áĪ¸áĬĲ":2015,"ĠáĬĲáīłáĪ¨":2016,"áĪĺáĬķáīµ":2017,"ĠáĪ©":2018,"ĠáĮ¤áĬĵ":2019,"áĪĺáĭĭáĪį":2020,"áĮłáĪĪ":2021,"ĠáĬłáĪģáĬķáĪĿ":2022,"áĪŃáĪĿáĪŃ":2023,"ĠáīłáĪĨáĬĲ":2024,"ĠáĬŃáĪŃáĪµáī²":2025,"ĠáĪĲáĪ³áī¥":2026,"Ġáĭ¨áīµáĪĿáĪħáĪŃáīµ":2027,"Ġáī£áĪĪáĪĻáĭ«áĭİáī½":2028,"áĬ¥áĪµ":2029,"áĬĲáĮį":2030,"ĠáĬ¥áĬķáĭ²áĪĨáĬķ":2031,"ĠáĮĪáĬĵ":2032,"áĪģáĪĪáīµ":2033,"ĠáīµáĬŃ":2034,"Ġáĭ³áĭŃáĪ¬":2035,"ĠáĪŃáĭķ":2036,"ĠáīłáĬłáĭ²áĪµ":2037,"áĮĭáĪļ":2038,"áĪĪáĭįáĪĿ":2039,"ĠáĮįáĪĪ":2040,"Ġáĭ¨áĪĢ":2041,"áĪĨáĬĸáĪĿ":2042,"áĪįáĬĿ":2043,"ĠáĪļáĬĵ":2044,"áĪ©áĪĿ":2045,"ĠáĮīáĭ³áīµ":2046,"áĪģáĪīáĪĿ":2047,"áĭ³áĭ³":2048,"áĪłáĪ©":2049,"ĠáįįáĪŃáĭµ":2050,"ĠáĬłáĪ«áīµ":2051,"áĬ¨áįĭ":2052,"áī·áĬķ":2053,"áĪĿáĬŃáĬķáĭ«":2054,"Ġ14":2055,"ĠáĭĪáĮª":2056,"Ġáī£áĪĪáĪĺ":2057,"ĠáĭŃáĪĨáĬķ":2058,"áĭĺáĮĭáĮħ":2059,"áĪ°áĬķ":2060,"áĮĢáĪĺáĪ¨":2061,"áĮįáĬĵ":2062,"ĠáĬłáīħáĮ£áĮ«":2063,"ĠáīłáīĤ":2064,"ĠáĭµáĪŃáĮĬ":2065,"ĠáĪľáĭ³":2066,"áĭ¨áĬ¢áīµáĭ®áĮµáĭ«":2067,"ĠáįķáĪ®áĮįáĪ«":2068,"áĪ¬áĪ½áĬķ":2069,"ĠáĪłáĪ":2070,"Ġáī°áĮł":2071,"áĪĪáįį":2072,"ĠáĪĿáĪ³áĪĮ":2073,"Ġ13":2074,"áĭ«áĭĻ":2075,"Ġáĭ¨áĪĺáĬķáĮįáĪ¥áīµ":2076,"Ġáī°áĪ³áīµáįİ":2077,"áĪĺáĭĿ":2078,"Ġáĭ¨áĮ¤áĬĵ":2079,"áĭĭáĪļ":2080,"ĠáĪįáĮĨ":2081,"Ġáī³áĭį":2082,"áĮĪáĭĽ":2083,"áī¥áĪªáĬ«":2084,"ĠáĭĪáĮ£áīµ":2085,"áĪĽáĪį":2086,"áĮłáĬĽ":2087,"ĠáĭĪáĪ¨áĭ³":2088,"áī¶áī½áĬĵ":2089,"áĪµáī¶":2090,"áīłáīµáĪĿ":2091,"ĠáĪµáĪĭ":2092,"ĠáīłáĪ¥":2093,"ĠáĮ¥áĬĵáīµ":2094,"áĪįáĬ«áĪĿ":2095,"ĠáĭĭáĬķáĮ«":2096,"áĬ¦áĪ®":2097,"áĭįáĪįáĭµ":2098,"ĠáĭĪáĪ«áīµ":2099,"áī½áĪĭ":2100,"áĮ£áĭŃ":2101,"ĠáĮŃáĪĿáĪŃ":2102,"áĭ³áī³":2103,"áīĢáĪį":2104,"ĠáĬ«áĪĪ":2105,"Ġáĭ¨áĬ«":2106,"Ġáī¢áĪĬáĭ®áĬķ":2107,"Ġáī±":2108,"Ġáĭ¨áĪļáįĪ":2109,"ĠáĬ¢áĬ®áĬĸáĪļ":2110,"201":2111,"Ġáī°áĪ°":2112,"áĮĪáĪ¨":2113,"Ġáĭ¨áĪĭ":2114,"ĠáĬ¥áĪ±":2115,"ĠáĭŃáĬĸ":2116,"áĮĪáĪĪáĮ¹áīµ":2117,"áĭ³áī¸áĭį":2118,"ĠáĬłáī£áĪį":2119,"ĠáĭŃáīłáĪįáĮ¥":2120,"Ġáīłáī°áĪĺáĪĪáĬ¨áī°":2121,"ĠáĬłáĪĺáĪĪáĬ«":2122,"ĠáĪĽáĮįáĬĺáīµ":2123,"áĭĿáĪŃ":2124,"ĠáĮłáĬķáĬ«áĪ«":2125,"Ġáĭ¨áĬ®":2126,"áĮ¨áĭĭ":2127,"Ġáĭ¨áĬ¢áĬķ":2128,"Ġáĭ¨áī»":2129,"Ġáĭ´áĪŀáĬŃáĪ«áĪ²":2130,"áĭĽáī¤":2131,"ĠáĭŃáĪħáĬķáĬķ":2132,"áīłáĭļáĪħáĪĿ":2133,"ĠáĬĳ":2134,"ĠáĪĽáĭµáĪ¨":2135,"Ġáī¥áĪĶáĪ«áĭĬ":2136,"ĠáĪ°áĪŃ":2137,"áĭ«áĭ«áĭĺ":2138,"áīĢáĭĭáĪį":2139,"áĮĪáĭ°":2140,"ĠáĬ¨áĬĲ":2141,"áĭĺáĪ®":2142,"Ġáĭ¨áī°áīĢ":2143,"ĠáĪĺáĪįáĪµ":2144,"áĭĵáĪĺ":2145,"ĠáīłáĬłáĪģáĬĳ":2146,"áĪ»áĮĪáĪŃ":2147,"áĪ«áĪī":2148,"ĠáīłáĮįáĪį":2149,"áĬŃáĪ®":2150,"ĠáĬ¨áĪ°":2151,"áĪ°áĭµ":2152,"ĠáīĢáĮ¥":2153,"Ġáī¤áī°":2154,"áĪİáīµ":2155,"áĭŃáĪĽáĬĸáīµ":2156,"ĠáĭµáĪŃáĪ»":2157,"áĭĺáĪŃáįī":2158,"áĪ±áīµ":2159,"áī§áĪį":2160,"ĠáĬ¥áĬķáĭµáīµ":2161,"áĮĭáĪª":2162,"áī³áįĬ":2163,"ĠáĪĨáĬĹáĪį":2164,"ĠáīłáĪ½áī³":2165,"áĪŃáīħ":2166,"áĪĺáĪĪáĬ¨áīµ":2167,"ĠáĪĤáĭ°áīµ":2168,"áĭ°áĪŃáĮĪáĭį":2169,"áĭµáĪ©":2170,"ĠáĬ¥áĮįáĪŃ":2171,"áĬĽáĭįáĬķ":2172,"ĠáĬłáĬķáī°":2173,"ĠáĬ¬":2174,"áĪĿáįĴáĬŃ":2175,"áĭŃáĪģáĬķ":2176,"ĠáĪµáĪĪáĪĨáĬĲ":2177,"áīĨáĪĿ":2178,"ĠáĬłáĪįáĬĲáīłáĪ¨":2179,"ĠáĬħ":2180,"áįįáī³áīµ":2181,"áĮĪáĬĵáĬĽ":2182,"Ġáīłáīħ":2183,"Ġáī°áĮ«":2184,"ĠáĪ¥áĪŃáĭĵ":2185,"ĠáĪ®":2186,"Ġáī°áĬ¨áīµ":2187,"áĪĮáĪĭáĭį":2188,"ĠáīłáĬłáĬķ":2189,"áĭ«áīµ":2190,"Ġáĭ¨áĪĺáĮ£":2191,"áĪħáĪį":2192,"Ġáī°áĪ«":2193,"ĠáĭįáĮª":2194,"áī½áĮį":2195,"Ġáī£áĬķáĬŃ":2196,"ĠáĬłáĪľáĪªáĬ«":2197,"ĠáĭŃáĬĵáĮĪáĪ«áĪī":2198,"áī±áīµ":2199,"áīłáĪ¨áĪ°áī¥":2200,"áī£áĭĬ":2201,"Ġáĭ¶áĬŃáī°áĪŃ":2202,"áĬĲáĪŃ":2203,"Ġáīłáī¥":2204,"ĠáĬłáĪĭáī¸áĭį":2205,"áĪįáĪµ":2206,"Ġáĭ¨áĭĪáĮ£":2207,"áīĢáĪŃáī¥":2208,"ĠáĪ°áįĬ":2209,"ĠáĬłáĪŃáĪ¶":2210,"ĠáĪĺáĮįáĪĪáĮ«":2211,"Ġáĭ¨áĬ¢áĬ®áĬĸáĪļ":2212,"áĮĪáĪ©":2213,"áĬ¥áĬĽ":2214,"áĬŀáī½áĬķ":2215,"Ġáĭ¨áĪļáĭ«áĪµáī½áĪį":2216,"áįı":2217,"áĮłáĪĺ":2218,"áĪ°áĪ©":2219,"Ġáī»":2220,"áĭļáīĥ":2221,"ĠáĪĺáī°":2222,"Ġáĭ¨áĪŀ":2223,"áĬªáĭ«":2224,"áįįáĬĵ":2225,"ĠáĬłáĮĪáĪª":2226,"áīłáĭĭáĪį":2227,"ĠáĬłáĪįáįİ":2228,"Ġáĭ¨áĪļáī½áĪį":2229,"áĪĪáĪĿáĪ³áĪĮ":2230,"Ġáī´áĬŃáĬĸáĪİáĮĤ":2231,"áĪĨáĬķáĪĿ":2232,"ĠáĮ½áĪĳ":2233,"Ġáĭ¨áĬķáĮįáĭµ":2234,"ĠáĮīáĭŀ":2235,"ĠáīģáĮ¥":2236,"áĭ¨áĪģ":2237,"áĪŃáĮ«":2238,"áĮĢáĪĺáĪŃ":2239,"ĠáĬ¢áĬķáĭ±áĪµáīµáĪª":2240,"áī´áĬķ":2241,"áīłáĪĪáĮł":2242,"áĪ®áĪµ":2243,"Ġáĭ¨áīĢáĪ¨":2244,"áĪ«áĭį":2245,"Ġáĭ¨áĬłáĪĿáĪĭáĬŃ":2246,"ĠáĪĪáĪĽáĮįáĬĺáīµ":2247,"Ġáĭ¨áįį":2248,"ĠáĬĥáĪĭáįĬáĬĲáīµ":2249,"áįİáĪŃ":2250,"ĠáĪĺáĭĭ":2251,"áĪĥáĬķ":2252,"ĠáĪĺáĪ³":2253,"Ġáī°áįĪ":2254,"áĪµáįĴ":2255,"áĬ¥áĪŃáĮįáĮ¥":2256,"ĠáĮīáī£áĬ¤":2257,"áĬ«áĪģáĬķ":2258,"Ġáįħ":2259,"áĪ¨áĭ³áīµ":2260,"ĠáĬķáī¥áĪ¨áīµ":2261,"ĠáĭĪáĭ³":2262,"áĮĭáī¸áĭį":2263,"áĮĬáĭľáĭį":2264,"ĠáĪĪáĬłáĪ":2265,"áįĪáĪįáĮī":2266,"áĪĮáĬŃáīµ":2267,"áĮįáī£áīµ":2268,"áĪĽáĬĿ":2269,"áĮ£áĪª":2270,"áĮłáĪĭ":2271,"ĠáĭįáĮ¤áī³áĪĽ":2272,"áĪ·áĪį":2273,"ĠáĭįáĮŃ":2274,"ĠáĮ¥áīłáīĥ":2275,"2009":2276,"Ġáī°áĮĪáĪįáĮ¿áĪį":2277,"áĬ¨áī£":2278,"ĠáĪµáī¥áĪ°áī£":2279,"ĠáĪĿáĮįáī¥":2280,"ĠáįĸáĪĪáī²áĬ«":2281,"áĮĢáĬķ":2282,"áĪµáĪŃ":2283,"Ġáĭ¨áĪļáĪĨáĬĳ":2284,"ĠáĬ¨áĭį":2285,"áĪŀáīµ":2286,"Ġáĭ«áĪµáįĪáĪįáĮĭáĪį":2287,"áįįáĬķ":2288,"Ġáī¶":2289,"ĠáīµáĪ«áĬķáĪµ":2290,"áĬªáĬĵ":2291,"Ġáī¥áĪĦ":2292,"áĬķáĮī":2293,"áĬ¨áīłáĪŃ":2294,"ĠáĬĲáĬĿ":2295,"ĠáĪµáįįáĪ«":2296,"ĠáĬķáĮįáĭµ":2297,"Ġáįĵ":2298,"ĠáĬ¥áĭįáĬĲ":2299,"áĪĲáĬķáĪµ":2300,"ĠáīłáĪĺáĪĨáĬķ":2301,"ĠáĮ¥áĬĵ":2302,"Ġáĭķáīħáĭµ":2303,"ĠáĬĵáīµ":2304,"áįĪáĮ¸áĪĿ":2305,"áĪĺáĪ©":2306,"áī¦áī½áĬķ":2307,"ĠáĬłáĮįáĬĿ":2308,"áī£áī¸áĭĭáĪį":2309,"Ġ17":2310,"ĠáĪĢáĮĪáĪŃ":2311,"ĠáīłáĮī":2312,"ĠáĬłáĪµáī°áĭ«áĭ¨áīµ":2313,"áīłáĪ©áīµ":2314,"ĠáĪĺáĪµáĮłáīµ":2315,"áĪ³áĪ°áī¥":2316,"ĠáĬ¥áĭ«áĪĪ":2317,"áįĸáĪŃáī°áĪŃ":2318,"áĭįáĪ®áįĵ":2319,"ĠáĮ¥áĪŃ":2320,"áĪĺáĪĪáĬŃ":2321,"ĠáĬłáĪĺáĪįáĬŃ":2322,"ĠáĪĺáī¶":2323,"ĠáĬłáįį":2324,"áĭķáĬĸ":2325,"áĬĿáĪĿ":2326,"áĪįáĪĽ":2327,"áĪĬáĭĿ":2328,"áĮĭáĭĬ":2329,"áĭ©áīµ":2330,"áĮįáī£áī¡":2331,"ĠáĮ¥áĬķ":2332,"Ġáī£áĪĪáįĪáĭį":2333,"Ġáī¢áĭ«":2334,"áĮŃáīµ":2335,"áĪŁáĪį":2336,"áĮĭáī¢":2337,"áįķáĪ®":2338,"Ġ16":2339,"áīĭáīĭáĪĿ":2340,"áĮłáīģ":2341,"áĪĿáįĴáĭ®":2342,"ĠáĭĿáĮįáĮħáīµ":2343,"Ġáĭ¨áĪµáĪ«":2344,"áĬ¨áĬĵáĭĪáĬķ":2345,"ĠáĬłáĭµáĪŃáĮĪáĭį":2346,"Ġáĭ¨áĮįáĪį":2347,"ĠáĪĺáĮ£":2348,"Ġáĭ«áĭį":2349,"ĠáĪįáĬŃ":2350,"áĭ³áĬĵ":2351,"áĪ¨áī¥":2352,"áĮ¥áĪĿ":2353,"áĪĿáĬŃáĬķáĭ«áī±áĪĿ":2354,"Ġáĭ¨áĪĿáī³":2355,"ĠáĬ¥áĭļáĪħ":2356,"áįĬáĭ«":2357,"áĬ¨áįĪ":2358,"áĬ¥áĬķáĭ²áĪħ":2359,"Ġ18":2360,"áĪ«áĬŃ":2361,"áĭĶ":2362,"Ġáįİ":2363,"áĬĲáĪµáī°áĬĽ":2364,"áĪĺáĪįáĬ¨áīµ":2365,"ĠáīĢáĬĵáīµ":2366,"Ġáĭ¨áī¥":2367,"áĭ«áīĤ":2368,"áĮĢáĪį":2369,"Ġáĭ¨áĪĿáĬĵ":2370,"ĠáĪĺáĪĿáĪħ":2371,"Ġáī£áĪĪáī¤áīµ":2372,"ĠáĭŃáī½áĪĭáĪī":2373,"áĭ³áĪ´":2374,"áīłáĪī":2375,"ĠáįķáĪ®áĮĢáĬŃ":2376,"áĪŃáĬĵ":2377,"áīłáīµáĬĵ":2378,"ĠáĭķáĭµáĮĪáīµ":2379,"ĠáīłáīłáĬ©áĪĭáī¸áĭį":2380,"áĪĺáĪĿ":2381,"áĭ²áīµ":2382,"Ġáįįáīµ":2383,"áĮłáĬĵáĬ¨áĪŃ":2384,"ĠáĭµáĪį":2385,"áĪŃáĭ«áĪĿ":2386,"Ġáī£áĪ»áĮĪáĪŃ":2387,"Ġáī¥áĪį":2388,"ĠáĬªáĪİ":2389,"áĬĲáĬĽ":2390,"Ġáī°áĪĽáĪªáĭİáī½":2391,"áĭ°áĪ¨áĮīáīµ":2392,"áĮįáĭļ":2393,"áĬĲáīłáĪ¨áĭį":2394,"áī¤áī±":2395,"ĠáĪĪáĭļáĪħ":2396,"ĠáĪĺáĬķáĮį":2397,"ĠáįĪáīĥáĭµ":2398,"ĠáĬłáĪłáĪ«":2399,"áĪĪáĭ«áĭ¨":2400,"áĬłáĪĪ":2401,"áĬ¨áĭļáĭ«áĪĿ":2402,"áĬĲáī³áī¸áĭį":2403,"áī¥áĪ¨áī°áĪ°áī¥":2404,"áĪ°áī¡":2405,"áĪ«áĪĿ":2406,"áĮłáĬĿ":2407,"ĠáĭµáĪŃáĮħáī¶áī½":2408,"áĬĵáįĬ":2409,"ĠáĪµáĪįáĮłáĬĵ":2410,"ĠáĮłáīħáĪĭáĭŃ":2411,"ĠáĪµáĬ¬":2412,"ĠáĮīáĭµ":2413,"Ġáĭ¨áĭ«áĪħáĭĮ":2414,"áĪŃáĬŃ":2415,"ĠáĮ¥áīħ":2416,"Ġáĭ¨áī°áĭĪáĪ°":2417,"áĮĪáĬķáī£áīµ":2418,"áĭŃáĪģáĬķáĬĵ":2419,"ĠáĪĺáĭµáĪ¨áĬŃ":2420,"áī²áĬŃáĪµ":2421,"Ġáī°áīĭáĪĿ":2422,"ĠáĭĪáĭ²áĪħ":2423,"áĮĭáĮį":2424,"Ġáĭ¨áĪļáīĨ":2425,"Ġáī¥áĪıáĪį":2426,"áĪĨáĬĲáĭį":2427,"ĠáĭĪáĪ¨":2428,"ĠáĬ¨áī£áĭµ":2429,"áĮĪáĭĭáĪį":2430,"Ġáĭ¨áī´":2431,"ĠáīłáĮĭáĪ«":2432,"Ġáĭ¨áĮĭáĪ«":2433,"áĪĭáĪĭ":2434,"Ġáī¥áĪĭ":2435,"áĭįáĮ£áīµ":2436,"áĪ«áĪ½":2437,"áĪ°áĮ¡":2438,"áĮĪáĬĻáīµ":2439,"áĪĭáīĤ":2440,"ĠáĪĥáĪ³áī¥":2441,"áĪµáīµáĬĵ":2442,"áĪ«áī¸áĭįáĬķ":2443,"áĬ¨áī³áī°":2444,"áĭ¢":2445,"ĠáĪĮáĪĭáĭį":2446,"áĭĪáĪĪ":2447,"Ġáĭ¨áĪļáĭ«áĪ³":2448,"áī«":2449,"ĠáĮĨ":2450,"áĮĪáĪĿ":2451,"ĠáīłáĬ¥áĪŃ":2452,"áī½áĬĭ":2453,"Ġáĭ¨áĬŃ":2454,"ĠáĬłáī¥áĭĽ":2455,"ĠáĬłáĬ³":2456,"Ġáĭ«áĪĭ":2457,"ĠáīłáĪĢ":2458,"áĪ°áīµ":2459,"áĮĭáĭŃ":2460,"áī¶áĪµ":2461,"áĭ³áĬķáĭ±":2462,"áĮ®áī½":2463,"áĪĺáĬĵ":2464,"Ġáĭ¨áĪħáĭĿáī¥":2465,"áĪ°áĮłáĭį":2466,"Ġ25":2467,"áĪ¨áī°":2468,"áĪ£áĪªáĭ«":2469,"áĬ«áĪª":2470,"ĠáīłáĬłáĮĪáĪªáī±":2471,"ĠáĪĺáĮł":2472,"ĠáĪµáįĸáĪŃ":2473,"áĪħáĬĵ":2474,"ĠáĪµáĪĿáĪĿáĬĲáīµ":2475,"áĬ¨áĭ«":2476,"ĠáĭĪáĪµ":2477,"Ġáīłáī£":2478,"áĬ¨áĭį":2479,"ĠáĭįáĭŃáĭŃáīµ":2480,"ĠáĬłáĪĺáĪ«":2481,"ĠáīłáĬłáĮįáī£áī¡":2482,"áĪĢáī¥":2483,"Ġáĭ¨áĪ´":2484,"ĠáįĸáĪĬáĪ²":2485,"Ġáĭ¨áĪĥ":2486,"áīĢáĬķ":2487,"10":2488,"áĪĭáī½áĬķ":2489,"áĪģáĪĪ":2490,"µáī°":2491,"Ġáī°áĮ¨áĪĽáĪª":2492,"ĠáĮ¥áīłáī¥":2493,"ĠáĪ³áĪĿáĬķáīµ":2494,"áĮĪáĪįáĮįáĪİ":2495,"áįĮáĭ´áĪ«áĪį":2496,"ĠáĬ¨áĪµ":2497,"áĭ©áĬķ":2498,"áĪĿáĮ£áīµ":2499,"ĠáĭķáĭµáĪľ":2500,"ĠáĬłáĬķáįĥ":2501,"áĬĲáī¶áī½":2502,"áī²áīµ":2503,"áīłáī°áĮ¨áĪĽáĪª":2504,"15":2505,"áįĭáĭŃ":2506,"ĠáĪĪáĪħ":2507,"áĪįáīģ":2508,"ĠáĬ¨áī°áĪŀáī½":2509,"ĠáĮ¥áīĤáīµ":2510,"áįĪáįĢ":2511,"ĠáĬłáĭŃáīĢ":2512,"áĬłáĪį":2513,"áī¨áĪµáīµáĪĺáĬķáīµ":2514,"áĬ¼":2515,"áĭ°áĪį":2516,"Ġáĭ¨áĭµ":2517,"ĠáĬ¥áĬķáĭ°áĪļáĮĪáī£":2518,"áĪĽáĪ½":2519,"ĠáĪķáĮĪ":2520,"Ġáī°áĪ³áī³áįĬ":2521,"áīłáĪĮáĪĭ":2522,"ĠáĬŃáįįáĪİáī½":2523,"ĠáīµáĪĿáĪħáĪŃ":2524,"áĪ°áĭĭáĪį":2525,"áĮ½áĬ¦":2526,"Ġáī¥áĪĪáĬķ":2527,"áĮĢáĪĿ":2528,"Ġáĭ¨áĪļáĪĺ":2529,"áįĪáĪ¨":2530,"áĮ§áĪį":2531,"Ġáĭ¨áĬĲáīłáĪ¨áĭįáĬķ":2532,"áĪģáīµ":2533,"áĪľáĬķ":2534,"ĠáĬ¨áĪĿ":2535,"ĠáĮİáĬķ":2536,"ĠáĬłáīµáĪĮáī¶áī½":2537,"Ġáī°áĮ«áĭĭ":2538,"ĠáĭŃáĭĺ":2539,"ĠáĪĪáĪĺáīĢ":2540,"Ġáīłáī°áĪĪáĭŃáĪĿ":2541,"áĭŁ":2542,"áĪ¬áĪ½áĬĳ":2543,"ĠáĪĢáĮĪ":2544,"ĠáĭĪáĮĪ":2545,"ĠáĪĽáĭķáĬ¨áĪį":2546,"áīłáĪĭáĭŃ":2547,"ĠáĭŃáĮĪáĪįáĮ»":2548,"áĮ¥áĬĲáīµ":2549,"ĠáīłáĪĮáĪİáī½":2550,"ĠáĬ¨áĪļáĭ«":2551,"ĠáĭµáĪĿáįħ":2552,"áĬŃáĪ²":2553,"áī³áĭ²áĭ«":2554,"ĠáĮĲ":2555,"áīłáĪĿ":2556,"áĪ»áĪ»áĪį":2557,"ĠáĪ°áĬĲ":2558,"ĠáīłáĮİ":2559,"áī³áĪŃ":2560,"ĠáĬ¥áĪµáĬª":2561,"Ġáī°áĭĪáĬ«":2562,"áĭĳ":2563,"áĭ²áĪ±":2564,"Ġáĭ¨áĬłáĮĪáĪªáī±":2565,"Ġáįĭáī¥áĪªáĬ«":2566,"áĪ³áĪī":2567,"ĠáĭĪáī³áĭ°":2568,"ĠáīµáĪŃáĮīáĪĿ":2569,"ĠáīłáīħáĪŃáī¡":2570,"áįİáĪŃáĪľ":2571,"áĮłáīłáīĢ":2572,"áĪĮáĬŃáīµáĪªáĬŃ":2573,"áĮĪáīł":2574,"áįīáĬķ":2575,"áĮ¥áĬĵ":2576,"Ġáĭ°áĪĿ":2577,"áĮĪáĭįáĬķ":2578,"ĠáĪ²áī£áĪį":2579,"áĭĪáĭµ":2580,"áĮĪáĬĲáī£":2581,"Ġáī°áĪĺáĪ³áĪ³áĭŃ":2582,"áĬĸáĪ«áī¸áĭį":2583,"áĭĪáĮ£áīµ":2584,"áĮŃáĪŃ":2585,"ĠáĪĺáĬĲáĪ»":2586,"Ġáĭ¨áĪĪáĭįáĪĿ":2587,"Ġáī°áĪ¸":2588,"ĠáĬ¥áĬķáĭ°áĪļáĭ«áĪµ":2589,"áī³áĭĪáīĢ":2590,"ĠáĭŃáĬ¸":2591,"Ġ30":2592,"ĠáįĪáī°áĬĵ":2593,"áĭļáĭ«áĭį":2594,"áĭĽáĭĿ":2595,"áĬ¦áĪ®áĪļáĭ«":2596,"áĪŀáĬķ":2597,"Ġáīħáĭµ":2598,"Ġáĭ¨áī¤":2599,"Ġáĭ¨áĪļáĪĪáĭįáĬķ":2600,"ĠáĪģáĪĪáī°áĬĽ":2601,"Ġáī£áĪĪáĪ¥":2602,"áīłáī°áĮ¨áĪĽáĪªáĪĿ":2603,"áĪ®áĭį":2604,"áĭ´áĪŀáĬŃáĪ«áĪ²":2605,"Ġáĭ°áī¥":2606,"ĠáĪĺáĪ£áĪªáĭ«":2607,"áĮĢáĬķáĪ²":2608,"áī³áĪī":2609,"áĭ°áĮĭáĮĭáĪļ":2610,"Ġáĭ°áĪµ":2611,"ĠáĪ¥áĬĲ":2612,"ĠáĬłáĪµáī°áĭĭáĮ½áĬ¦":2613,"áīĨáĮ£áĮłáĪŃ":2614,"ĠáĪĺáĬķáįĪáĪµ":2615,"Ġáĭ¨áĬ¨áī°áĪĽ":2616,"áīłáĪ«áīµ":2617,"ĠáīĢáĭµ":2618,"áįĸáĪĬ":2619,"Ġáĭ¨áįĢ":2620,"Ġáĭ¨áīłáĪĪáĮł":2621,"ĠáĬłáĪĺáĪĪáĬ«áĬ¨áīµ":2622,"áī³áĬķ":2623,"ĠáĬ¥áĭįáĬĲáīµ":2624,"áĪ³áī°áįį":2625,"ĠáĬ¥áĪĿ":2626,"áĪĭáĪĽáĭĬ":2627,"Ġáī°áĬ¨áīµáĪİ":2628,"áĪįáĪħ":2629,"Ġáĭ¨áī°áĪĺ":2630,"ĠáĪ°áī¥áĪ³áī¢":2631,"on":2632,"ĠáĬ®áĬķ":2633,"ĠáīµáĭįáĪįáĭµ":2634,"ĠáĪĨáī´":2635,"áĮłáīĢáĪĻ":2636,"ĠáĬłáĬķáįĥáĪŃ":2637,"ĠáīłáĪĺáĪµ":2638,"ĠáĬłáĪįáĬĲáīłáĪ¨áĪĿ":2639,"áĪĪáĪį":2640,"áĪİáī¹":2641,"ĠáĪĺáĪĺáĪªáĭ«":2642,"áĬĲáĮĭáĮĪáĪŃ":2643,"Ġáĭ¨áĪ½":2644,"ĠáĬ¥áĭµáĮĪáīµ":2645,"áĬ¨áĪī":2646,"áĮĢáĪĺáĪ¨áĭį":2647,"ĠáĬłáĪĺáīµ":2648,"áĪªáįĸáĪŃáī°áĪŃ":2649,"áīłáĪŃáĬ«áī³":2650,"áĭİáī½áĪĿ":2651,"Ġáĭ¨áĬłáĮĪáĪŃ":2652,"ĠáĪĻáĭ«":2653,"ĠáĬłáĬķáīĢ":2654,"ĠáĪĺáīĨ":2655,"ĠáĪī":2656,"áī¶áĬķ":2657,"áī½áĪģáĬķ":2658,"ĠáĪĿáĭķáĪ«":2659,"áĮ»áĪļ":2660,"ĠáĪįáĪĿáĭµ":2661,"ĠáĪµáĪį":2662,"áĪĻáĪŃ":2663,"áīĢáĪŃáī¡":2664,"Ġáĭ¨áĪļáī£áĪį":2665,"Ġáīłáīģ":2666,"áĮ¥áĬķ":2667,"Ġáī£áĪĪáįīáīµ":2668,"ĠáĪĺáĮį":2669,"áĬķáī²":2670,"Ġáī¥áīµ":2671,"áī¡áĪŃ":2672,"ĠáĬłáĪĪáī£áī¸áĭį":2673,"Ġáĭ¨áĮįáĬķ":2674,"áĪĦáĭ±":2675,"ĠáĬłáĭĭáĮħ":2676,"áĬ¥áĭļáĪħ":2677,"áĭİáī¹áĬķ":2678,"ĠáīµáĬķáĪ½":2679,"Ġáĭ«áĪĪáīłáīµ":2680,"ĠáĬłáĪ°áĪįáĮ£":2681,"ĠáĬķáĮīáĪ¥":2682,"ĠáĬ¥áĮ¥áĪ¨áīµ":2683,"áīłáĪ³":2684,"ĠáĮħ":2685,"áĪ³áī°áįī":2686,"áĮłáī£":2687,"ĠáīłáĭĵáĪį":2688,"Ġáĭ¨áĪĨáĬĲáĭįáĬķ":2689,"Ġáĭ«áĪĭáī¸áĭįáĬķ":2690,"ĠáĪħáĭŃáĭĪáīµ":2691,"Ġáīłáĭķ":2692,"ĠáĬŃáĪĪáī¦áī½":2693,"áĪħáĬĲáīµ":2694,"áĪĨáĬĵáī¸áĭį":2695,"ĠáĪĺáĬĸáĪŃ":2696,"ĠáĬ¥áĬķáĭ°áĪļáī½áĪį":2697,"áĮĪáīµáĬĵ":2698,"ĠáĪĺáĪµáĪ«áīµ":2699,"ĠáĬĲáĮĭ":2700,"ĠáĬŃáĪįáĪİáī½":2701,"áĪŃáĪĽ":2702,"áĭĭáīµ":2703,"ĠáĪ«áĪ±áĬķ":2704,"Ġáĭ¨áĬłáĭ²áĪµ":2705,"áĭµáĪľ":2706,"áįİáĪŃáĪľáĪ½áĬķ":2707,"áĭĵáĭĬ":2708,"áī¥áĪĶáĪŃ":2709,"ĠáĪĽáĪħáīłáĪŃ":2710,"áĭµáĪŃáĮħ":2711,"Ġáī£áĪķ":2712,"áĪ°áĪį":2713,"Ġáĭ®áĪĲáĬķáĪµ":2714,"ĠáĪĢáī¥":2715,"Ġáĭ¨áĪļáĮĪáī£":2716,"ĠáĪ»áĪĿáįĴáĭ®":2717,"Ġáĭ«áĭ°áĪŃáĮĭáĪį":2718,"áī»áĪĪ":2719,"áĪĭáīģ":2720,"ĠáĪ«áĪµ":2721,"áįĪáĮłáĪŃ":2722,"ĠáĬ¥áĬķáĭ³áĪĪáĭį":2723,"ĠáĮ¥áīĥáīµ":2724,"Ġáĭ¨áĪĺáĬķáĮįáĪµáīµ":2725,"áĮīáĬķ":2726,"Ġáĭ¨áĪļáĮĪáĬĺáĭį":2727,"ĠáĬłáĪĽáĬ«áĬĿáĬĲáīµ":2728,"Ġ24":2729,"Ġáĭ¨áĪļáī½áĪī":2730,"Ġáĭ¨áī°áī£áĪĪ":2731,"áĭįáĪİ":2732,"áĪµáī°áĬ«":2733,"Ġáĭ³áĭŃáĪ¬áĬŃáī°áĪŃ":2734,"Ġáī³áĪĭáīħ":2735,"Ġáĭ¨áĪĺáĪįáĬ«áĪĿ":2736,"ĠáīłáĮĢáīµ":2737,"ĠáĪĽáĪĪ":2738,"Ġáĭ¨áĪĽáĪµ":2739,"ĠáĮ¦áĪŃáĬĲáīµ":2740,"áĪ³áĬĿ":2741,"Ġáīłáī°áĭ«áĭ«áĭĺ":2742,"ĠáĭŀáĬķ":2743,"ĠáĬ¥áĬķáĭµáĬķ":2744,"áī£áĪ¨":2745,"ĠáįĵáĪŃáī²áĭİáī½":2746,"ĠáĪ°áĬķ":2747,"ĠáĪĬáĮį":2748,"ĠáĬłáĪĺáĪ«áĪŃ":2749,"Ġáī°áĬĲ":2750,"áĬ®áĬĸáĪļáĭ«":2751,"ĠáīłáĮĪ":2752,"ĠáĭĪáĭŃáĭĺáĪ®":2753,"áĮĪáĪ«áī¸áĭį":2754,"áīĢáīħ":2755,"áĪĺáĪ³áĪ³áĭŃ":2756,"Ġáĭ¨áĮĪáĬķáĭĺáī¥":2757,"er":2758,"áīłáĬłáĪģáĬĳ":2759,"ĠáĬłáĪ«":2760,"áĮ¨áīµ":2761,"ĠáĭĺáĮĪáī£":2762,"ĠáĬłáĪµáī°áĪ³áĪ°áī¥":2763,"áĪªáĭį":2764,"ĠáĮ¥áĭ«áīĦáĭİáī½":2765,"Ġáī£áĪħáĪį":2766,"áĭ³áĮĬ":2767,"áĪ®áī¹":2768,"ĠáīłáĬłáĪĿ":2769,"áĭµáĪŃáĪ»":2770,"ĠáīłáĪĺáīĢ":2771,"ĠáĪ¥áĪįáĮ£áĬķ":2772,"Ġáĭ³áĪŃ":2773,"ĠáĪ°áĭİáī½áĬķ":2774,"áĭĭáĪĪáĪģ":2775,"Ġáī½áĪİ":2776,"ĠáĬłáĪĪáĬĿ":2777,"ĠáīłáĬŃ":2778,"áĪ¨áĪĿ":2779,"áįĶ":2780,"áĭĺáĪĺ":2781,"ĠáĪĽáĪŃ":2782,"áĪįáīłáīµ":2783,"Ġáī°áĮłáīħ":2784,"áĮĢáĪŃ":2785,"ĠáĪħáĮĪ":2786,"an":2787,"ĠáĭŃáįĭ":2788,"ĠáĮłáī¥":2789,"ĠáĬłáĬĲáĪµáī°áĬĽ":2790,"áī£áĪŃ":2791,"ĠáĭĺáĪĺáĬĵáĭĬ":2792,"Ġáĭķáīĥ":2793,"ĠáĬłáĭµáĪŃáĮĵáĪį":2794,"áĪĲáįĬ":2795,"Ġáĭ¨áĪķáĭĿáī¥":2796,"ĠáīĢáĪĭáĪį":2797,"ĠáĮįáĪįáĮ½":2798,"ĠáĬ¨áĬłáĬķáĭµ":2799,"áĬļ":2800,"ĠáĪĿáĬŃáīµáĪį":2801,"Ġáĭ¨áī°áĪĪáĭ¨":2802,"áĬĽáĪī":2803,"ĠáĬ¥áĪµáĬ«áĪģáĬķ":2804,"ĠáĮįáī¥áĪŃ":2805,"Ġáĭ¨áĪļáĪīáīµ":2806,"áĮįáĪĿ":2807,"áĪĪáĬĽáĪį":2808,"Ġáī°áįħ":2809,"Ġáĭ«áĬķ":2810,"áĪĮáĪĭ":2811,"áĭįáĭį":2812,"ĠáĪĪáĪķ":2813,"áĬ«áĪĦáĭ°":2814,"ĠáĮ£áī¢áĭ«":2815,"Ġáĭķáĭį":2816,"áīĥáī¸áĭį":2817,"ĠáĬłáīĭáĪĿ":2818,"ĠáĮłáīģáĪĺáĭĭáĪį":2819,"áĪ¬áī³":2820,"áĭĪáĮĪáĭµ":2821,"Ġáī¥áīĥáīµ":2822,"in":2823,"ĠáĬ¨áĪĮáĪİáī½":2824,"ĠáĪĺáĪĭ":2825,"ĠáīłáĬ¨áįįáī°áĬĽ":2826,"áĮĪáĪĪáĮ¸":2827,"áĭ¨áĬłáĪ":2828,"ĠáĬĥáĭŃáĪİáī½":2829,"ĠáĬłáĮłáĬĵ":2830,"ĠáĭŃáīĢ":2831,"áĭ¬áĬķ":2832,"ĠáĭŃáī³áĭĪáīĥáĪį":2833,"áĪµáī°áĪŃ":2834,"ĠáĮįáĬķáĭĽáī¤":2835,"Ġáī°áĮłáĬĵ":2836,"áĮłáĭ¨áīħ":2837,"ĠáĭĿáīħ":2838,"ĠáĬłáĪµáĪĺ":2839,"ĠáĮĪáĮ½":2840,"áĪ¡":2841,"áī¡áĬĵ":2842,"000":2843,"áĭĿáī¡áĬķ":2844,"Ġáī°áĭ°áĪ«":2845,"ĠáĪķáĭŃáĭĪ":2846,"Ġáĭ¨áĬłáĪľáĪªáĬ«":2847,"ĠáĪĺáĪįáĬŃ":2848,"ĠáįķáĪ®áĮĢáĬŃáīµ":2849,"ĠáįįáĪ¬":2850,"ĠáīłáĬłáįįáĪªáĬ«":2851,"áĭ³áĭį":2852,"Ġáĭ°áĪµáī³":2853,"áĮįáī£áī¥":2854,"ĠáĬ¥áĭµáĪį":2855,"áĭ£":2856,"áĬ¢áĬķ":2857,"áĪ°áĪĪ":2858,"áĭµáī¥":2859,"Ġáĭ«áĭ°áĪ¨áĮĪ":2860,"áĭĪáĪ°áĬķ":2861,"ĠáĭįáĭµáĭµáĪ®áī½":2862,"ĠáĪĺáĮ¨áĪ¨áĪ»":2863,"ĠáīłáĪµáī°":2864,"ĠáĬłáĬ³áĭ«":2865,"áĮ¦áī½":2866,"áĭ³áĭ³áĪª":2867,"ĠáĮĬ":2868,"áīĢáĮ¥áĪį":2869,"ĠáĪĿáĪ¥":2870,"Ġáĭ¨áĭĭ":2871,"áĬ¥áĬķáĮį":2872,"Ġ22":2873,"Ġáĭ¨áĪµáįĸáĪŃáīµ":2874,"ĠáįķáĪ®áĮįáĪ«áĪĿ":2875,"áĮĭáĮ¥":2876,"Ġáĭ¨áĬłáĭ¨áĪŃ":2877,"ĠáĮįáĪ«":2878,"ĠáīłáĭĪáīħáī±":2879,"ĠáĬłáĪĪáĪĽ":2880,"áĬłáĬķáĭ³áĬķáĭµ":2881,"ĠáĪĨáĪµáįĴ":2882,"Ġáĭ¨áĪļáĭ«áĭ°áĪŃáĮī":2883,"Ġáī°áĬ¨áī³":2884,"áĬ®áĬĸáĪļáĭ«áĭĬ":2885,"ĠáĮĪáī¥áĪ¨":2886,"ĠáĬłáĪµáī¸":2887,"áįĪáĪįáĮĭ":2888,"ªáĭ«":2889,"ĠáįĭáĭŃ":2890,"áįĪáĪįáĮĪáĭį":2891,"áĭĪáĭŃáĪĿ":2892,"ĠáĭĪáĪĭ":2893,"áĭ³áī¤":2894,"áĮ¾":2895,"áĭµáĪ¨áĪµ":2896,"Ġáī°áĭ«áĭŃ":2897,"áī»áĪī":2898,"Ġáīłáī³áī½":2899,"ĠáĬŃáĪŃáĪµáī²áĭ«":2900,"áī¥áĪİ":2901,"ĠáĪµáĭµáĪµáīµ":2902,"áī³áī½áĬķáĬķ":2903,"ĠáĬłáĭ°áĪŃ":2904,"áĪ«áī´":2905,"ĠáĭŃáīħáĪŃ":2906,"ĠáĭŃáĭĺáĭį":2907,"Ġ21":2908,"áĭĪáĮ£áĭį":2909,"ĠáĪĺáī¼":2910,"Ġáĭ¨áī°áī£áĪĪáĭį":2911,"áī´áĭİ":2912,"áī¥áī¶":2913,"ĠáīµáĬŃáĬŃáĪĪ":2914,"áī¥áī»":2915,"Ġáĭ¨áĭ³":2916,"áĬĴáīµ":2917,"áĮ£áĮ¥":2918,"áĭ·áĪį":2919,"áĪĪáīłáīµ":2920,"áĬĲáī³áī¸áĭįáĬķ":2921,"ĠáĭŃáĮĪáĬĽáĪī":2922,"áīŃ":2923,"Ġáĭ¨áī¤áīµ":2924,"ĠáĬŃáįįáĪĪ":2925,"ĠáĬ¥áĬĲáĪ±":2926,"áīłáĭ°":2927,"ĠáĬ¥áĭ«áĬķ":2928,"Ġáĭ¨áĬĲáīłáĪ©áīµ":2929,"áĮ»áĮ¸":2930,"ĠáĬłáĪħ":2931,"ĠáīłáĬłáĮĪáĪŃ":2932,"Ġáī°áĪ°áĮ¥":2933,"áĮłáĭĭáĪį":2934,"áĪŀáĬĳáĬķ":2935,"áĬĵáĬķáĪµ":2936,"ĠáīłáĪĮáĪĭ":2937,"áĭŃáĪħáĬķáĬķ":2938,"Ġáīµáĭķ":2939,"ĠáĬ¥áĬĲáĭļáĪħáĬķ":2940,"ĠáĬ¥áĬ©áĪį":2941,"ĠáĪĺáįįáīµáĪĶ":2942,"th":2943,"ĠáĬĲáĭĭáĪª":2944,"áīłáĬ¥áĪŃáĮįáĮ¥":2945,"ĠáĭŃáįĪ":2946,"ĠáĬĸáĪ®":2947,"Ġáĭ¨áĪĺáĬķ":2948,"áĭ¶áī¹":2949,"áĬķáĬĲáīµ":2950,"ĠáĬ¥áĬķáĭ°áĪĮ":2951,"ĠáĪĺáĪªáĭİáī½":2952,"áī±áĬĵ":2953,"áįĥáĬĵáīµ":2954,"ĠáĪµáĪŃáĭĵáīµ":2955,"ĠáĬ¢áīµáĭ®áĮµáĭ«áĭįáĭ«áĬķ":2956,"áĮĪáĪįáĮįáĪİáīµ":2957,"ĠáĬ¥áīħáĭµ":2958,"Ġáī°áĬķ":2959,"ĠáĬłáĪµáĪ¨áĭµ":2960,"áĮ¥áĪ¨":2961,"áĪĺáĬĲ":2962,"Ġáĭ¨áĪļáī°":2963,"Ġáĭ¨áĪĨáĬĳáīµ":2964,"ĠáĮĢáĪĺáĪŃ":2965,"ĠáĪĺáĬŃ":2966,"áīĢáĭ°":2967,"áĮłáĭįáĬķ":2968,"ĠáĪ°áĪĭ":2969,"áĭ¨áĪ©":2970,"ĠáĬ¨áĪį":2971,"áĪ°áī¦áī½":2972,"Ġáĭ«áĪµáī°":2973,"ĠáĬłáĬķáĭ³áĬķ":2974,"ĠáĪĪáĪĺáĪĨáĬķ":2975,"áĬ¨áĪĭáĬ¨áĭ«":2976,"ĠáĬ¥áĬĵáĬķáī°":2977,"ĠáĪļáĬĴáĪµáīµáĪ©":2978,"ĠáĪĪáĪĺáįįáī³áīµ":2979,"ĠáĪªáįĸáĪŃáīµ":2980,"ĠáĪĽáĪĪáīµáĪĿ":2981,"áĪŃáĪµáī¶áĪµ":2982,"áĭ°áĬĽáĭį":2983,"Ġáī³áĭįáīĭáĪį":2984,"ĠáĪĿáĮįáī£áĪŃ":2985,"ĠáĪįáĬķ":2986,"áĮĢáĪĺáĪªáĭ«áĭį":2987,"Ġáĭ¨áĪĿáĮįáī¥":2988,"Ġáī°áīĥáĭĭáĪļ":2989,"áī°áĬĵáĪį":2990,"áīłáĪ¬":2991,"áĮĭáĭľ":2992,"ĠáĪ³áĭ«":2993,"Ġáī°áīĭáĪĽ":2994,"ĠáĬŃáįįáĭ«":2995,"ĠáĮĪáĪįáįĢ":2996,"ĠáĪµáĪĪáĪĺ":2997,"Ġáī¤áī°áĪ°":2998,"Ġáĭ¨áĪļáĪī":2999,"ĠáīģáĪŃ":3000,"áĬ«áĪĤ":3001,"áĭĿáĮį":3002,"áī³áĪĿ":3003,"áĬłáĭŃ":3004,"ĠáĪĪáĪĿáĬķáĭµáĬķ":3005,"Ġáĭĺáĭ´":3006,"áīħáĬķ":3007,"ĠáĬ¥áĬķáĭ°áĪĽ":3008,"Ġáī¡áĬĵ":3009,"ĠáĪĿáĬķáĭµáĬķ":3010,"ĠáīłáĪµáįĭáīµ":3011,"áĮĭáĪĪ":3012,"ĠáīłáįĪ":3013,"áĬ¨áĬĵáĭĪáĬĳ":3014,"ĠáĮįáĭ´":3015,"áĪĺáĪĪáĬ¨áī°áĭį":3016,"ĠáīłáīĢáĪĭáĪī":3017,"ĠáĬŃáī¥áĪŃ":3018,"ĠáĬłáĪ¸áĬĵáįĬ":3019,"ĠáĪł":3020,"áĪ°áĪµ":3021,"áĪµáĪ«áĬ¤áĪį":3022,"ĠáīµáĮįáĪį":3023,"Ġáĭ´áĪŀáĬŃáĪ«áĪ²áĭ«áĭĬ":3024,"ĠáĪĿáī¹":3025,"Ġáī¦áī³áĭİáī½":3026,"ĠáĬłáĪĽáĪ«áĮŃ":3027,"ĠáĪĽáĭ¨áīµ":3028,"2008":3029,"áĭ©áĬĴáī¨áĪŃáĪ²áī²":3030,"áī£áī³":3031,"ĠáĪĺáĪ¸":3032,"ĠáĪĽáĪ«":3033,"ĠáĬłáĭŃáī½áĪįáĪĿ":3034,"ĠáĪĪáĪĺáĪµáĮłáīµ":3035,"ĠáĪĽáĪµáī³áĭĪ":3036,"ĠáĪµáĪħ":3037,"áĪ´áīµ":3038,"áĪŃáīµáĪ«":3039,"ĠáĬłáĪłáĪ«áĪŃ":3040,"áĮłáĭŃáīħ":3041,"ĠáĮłáĭŃ":3042,"Ġáĭ¨áĮ¦áĪŃ":3043,"ĠáĪĺáĬķáĮĪáĭ¶áī½":3044,"Ġáĭ¨áī°áī£":3045,"ĠáįĪáĮ¥":3046,"ĠáĬłáĪĿáī£":3047,"50":3048,"ĠáĪłáĪ«áī°áĬŀáī½":3049,"ĠáĬłáĭĪ":3050,"áĪ´áĬķ":3051,"ĠáĪĿáĬķáĮŃ":3052,"ĠáĪĨáĭŃ":3053,"Ġáĭ¨áĬłáĬķáĭµ":3054,"áĭĵáĪĺáī±":3055,"áĪ¥áĪ«áīµ":3056,"ĠáīłáĪĺáĪµáĮłáīµ":3057,"áĬķáįĥ":3058,"ĠáĪĺáĬķáĮįáĪ¥áī³áīµ":3059,"áĮįáĭļáĬł":3060,"Ġáī°áĮĭ":3061,"ĠáĭįáĬĥ":3062,"áĮ¨áī£":3063,"Ġáĭ«áīĢáĪ¨":3064,"ĠáĬ¥áĬķáĪµ":3065,"ĠáĪĪáĪĺáĪµ":3066,"ĠáĮĢáĪĿ":3067,"áĪĿáĬķáĪĿ":3068,"áī°áĬĿáĬĲáīµ":3069,"áįĲ":3070,"áĮĪáĪªáī±áĬķ":3071,"áīĢáĮ£":3072,"áĮłáĬĵáīĢáīħ":3073,"áĪ³áĬķ":3074,"³áĭįáĪİ":3075,"ĠáĭŃáĪĺáĪµáĪĭáĪį":3076,"ĠáĭĪáĪ³áĬĿ":3077,"áĪĿáĪ¨áīµ":3078,"áĬĵáĭŃ":3079,"Ġáī°áĭĭ":3080,"áĪ³áĬ«":3081,"áīłáĪĽ":3082,"áīĥáĪī":3083,"áĭ°áĪ°":3084,"áīłáī³":3085,"ĠáīłáĪ«áĪ±":3086,"Ġáĭ¨áĪļáĭĪ":3087,"áĮīáĭ³":3088,"Ġáĭ¨áīłáĪĭáĭŃ":3089,"ĠáĮĮáī³":3090,"ĠáĮłáĪĭ":3091,"ĠáĪįáīµ":3092,"áīħáĪŃáī¥":3093,"ĠáĭĲ":3094,"áĪŀáĪĭ":3095,"Ġ23":3096,"Ġáĭ¨áĭ«áĭĺ":3097,"ĠáĬŃáįī":3098,"áįĸáĪŃáī±":3099,"ĠáĬłáĪ¥":3100,"ĠáĬĳáĪ®":3101,"ĠáĬ¥áĪħ":3102,"áī¥áī¥":3103,"ĠáĪĿáĪģ":3104,"ĠáĪ«áĪ±":3105,"áĬĴáĬŃ":3106,"Ġáī°áĭ°áĪŃáĮİ":3107,"áĪµáī²":3108,"áĪĨáĬĲáĪĿ":3109,"áĭĪáĭŃ":3110,"ĠáĬĲáĭĭáĪªáĭİáī½":3111,"ĠáĬłáĮĪáĪªáī±":3112,"Ġáĭ¨áĪļáĪĨáĬķ":3113,"áĮłáĬĿáĬĲáīµ":3114,"ĠáīłáĪĽáĪ³":3115,"ti":3116,"Ġáī°áĮ½":3117,"ĠáĪĿáĪįáĬŃ":3118,"áĬ¨áĬķ":3119,"áĬŃáī°":3120,"ĠáĪĺáīħ":3121,"Ġáĭ¨áĪļáĮĪáĪį":3122,"ĠáĬŃáĪĪáī¥":3123,"ĠáĭĿáĪŃ":3124,"áįĨ":3125,"Ġáĭ«áĪīáīµáĬķ":3126,"ĠáĪĺáĭĽ":3127,"ĠáĬ¥áĬķáĭ°áĪĺ":3128,"199":3129,"ĠáīłáĪĺáĮłáīĢáĪĿ":3130,"áĭµáĭµáĪ©":3131,"áĭįáĪµ":3132,"ĠáĪĪáĪµ":3133,"ĠáĭŃáī£":3134,"áĭµáĭµáĪŃ":3135,"áĭ³áĪĽ":3136,"ĠáĪ°áĪ«":3137,"áĬ¨áī°áĪį":3138,"áĭ²áĭ®":3139,"áĭĺáĮĭáĮģ":3140,"áī³áĭĪáīħ":3141,"Ġáī°áĮłáĭ«áīĤ":3142,"áĪĿáĪ©":3143,"Ġáĭ«áĪĺáĪĪáĬŃ":3144,"áĮĵáĭĿ":3145,"ĠáĭĿáĪĿ":3146,"Ġáĭ°áĮĭ":3147,"ĠáĬ¥áĪŃáĪµ":3148,"ĠáĪįáĭ©áĬĲáīµ":3149,"ĠáĮįáĭµáī¥":3150,"áįĵáĪŃáī²":3151,"ĠáĬ¨áī³":3152,"ĠáĬŃáīµ":3153,"áīĢáĪĺáĮ¥":3154,"ĠáĭŃáĮłáīł":3155,"áī½áĪıáĪį":3156,"ĠáĬłáĭŃáīĢáĪŃáĪĿ":3157,"áīłáĪ«áī¸áĭį":3158,"áīģáĪĿ":3159,"áĪ¨áĭ±":3160,"áīĤáīĥ":3161,"áĮģáĬķ":3162,"áĪĬáĪĿáįĴáĬŃ":3163,"ĠáĬłáĮĢ":3164,"Ġáī£áĪĪáĪĢáī¥":3165,"ĠáĪĺáĪ³áĪªáĭ«":3166,"áĭ°áĪŃáĪ±":3167,"ĠáĪµáĪ«áĭİáī½":3168,"áĪ«áī´áĮĤ":3169,"ĠáĬĲáįį":3170,"ĠáĪĺáĮ»":3171,"Ġáĭ¨áīĢáĭµáĪŀ":3172,"ĠáĬ¢áĬ®áĬĸáĪļáĭ«áĭĬ":3173,"áĪĽáĪī":3174,"áĮ£áĬĿ":3175,"ĠáĭĪáĬķáĭ¶áī½":3176,"ĠáīħáĪ¬áī³":3177,"áĪħáįĪáīµ":3178,"áĪĪáīĢ":3179,"Ġáīłáĭļáĭ«":3180,"áĪ¨áī³":3181,"áĬ¨áĬĵáĭį":3182,"áĭī":3183,"Ġáīłáī°áĭ°áĮĭáĮĭáĪļ":3184,"ĠáĬłáĭ³áĭ²áĪµ":3185,"áī½áĪĭáĪĪáĬķ":3186,"áĮłáīħáĪĭáĭŃ":3187,"áĮĢáĪĺáĪ©":3188,"áĪĨáĬĹ":3189,"áĮīáīµ":3190,"ĠáĪ±áĭ³áĬķ":3191,"áĬ¨áĪĺ":3192,"Ġáī°áĮįáī£áĪ«áīµ":3193,"ĠáĬłáĪ¨áĮĭáĮį":3194,"ĠáĬ¥áĬķáī½áĪĭáĪĪáĬķ":3195,"ĠáĪĽáĪµáĪ¨áĮĥ":3196,"áĪ¸áĬĲáįį":3197,"ĠáĮĭáĭľáĮ£":3198,"áĪĭáī¸áĭĭáĪį":3199,"ĠáĭµáĪŃáĮĬáīµ":3200,"ĠáīłáĪĺáī°":3201,"Ġáĭ¨áĪ³":3202,"ĠáĭĪáĮĪáĬĸáī½":3203,"ĠáĬłáĭ¨áĪŃ":3204,"áĭµáĬĵ":3205,"áĬŃáī³áĪŃ":3206,"ĠáīłáĭļáĪģ":3207,"áĬĲáĪħ":3208,"ĠáĬ¥áĬķáĭ³áĪĪáīłáīµ":3209,"áī¥áĭĽáĬĽáĭį":3210,"ĠáĭĪáĪį":3211,"ĠáĭĿáĬĵ":3212,"ĠáīłáĪĿáĬķ":3213,"ĠáĪĽáĪħáīłáĪ«áĭĬ":3214,"áĪ«áī½áĬķ":3215,"ĠáĪĬáīĢ":3216,"áĪĽáĪ¨":3217,"áĬķáīĢáĪ³áīĢ":3218,"áī¥áĪ®":3219,"áĭ«áĬķáĪµ":3220,"Ġáī°áīĢáĪĿ":3221,"ĠáĪµáĭ°":3222,"ĠáĪĺáĪ¥áĪ«áīµ":3223,"áĮĪáĬĺáĭįáĬķ":3224,"ĠáĬłáĪ°áĪ«áĪŃ":3225,"áĪ¼":3226,"ĠáĪķáĭĿáī¦áī½":3227,"ĠáĬ¥áĬķáĭ°áĪĿáīµ":3228,"Ġáī¡áĭµáĬĸáī½":3229,"Ġáī°áĪŀáĬŃ":3230,"áīłáĪ½":3231,"ĠáĪĴ":3232,"áĮĪáĪĺ":3233,"Ġáĭ¨áĪĺáĪµ":3234,"ĠáĬ¢áīµáĭ®áĮµáĭ«áĭĬ":3235,"ĠáĭŃáĪħáĪĿ":3236,"Ġáĭ¨áĭļáĪħ":3237,"ĠáĬ¨áĭļáĭ«":3238,"áīĢáįį":3239,"ĠáĮĪáī£":3240,"Ġáĭ¨áĭ°áĪ¨":3241,"ĠáĬ¨áĮ¥":3242,"Ġáī½áĮįáĪ®áī½áĬķ":3243,"ĠáĬłáī¥áĪ®":3244,"ĠáĪĺáĮĢáĪĺáĪªáĭ«":3245,"áĪ«áĪµ":3246,"ĠáĬ¥áĪµáĪ«":3247,"áĮĭáĬĵ":3248,"áīĨáĮ¥":3249,"ĠáĪĺáįį":3250,"áīłáīł":3251,"Ġáĭ¨áĪĺáĪ³áĪ°":3252,"ĠáĬķáĮįáĮįáĪŃ":3253,"áĪĪáīħ":3254,"áĮįáĭµ":3255,"ĠáĭŃáĮłáīłáīĥáĪį":3256,"áĭĭáīĤ":3257,"ĠáĪĿáĪŃáĪĿáĪŃ":3258,"áĭįáĪŀ":3259,"Ġáĭ¨áĬ¥áĪŃ":3260,"áįıáĪį":3261,"ĠáĬ¥áĭ«áĪī":3262,"áĮįáĪĮ":3263,"áĪĮáīµ":3264,"ĠáĪħáĭĿáī¦áī½":3265,"ĠáĮĪáĪįáĮ¿áĪį":3266,"ĠáĬ¥áĬķáĭ²áĪģ":3267,"ĠáĬłáĪįáī»":3268,"ĠáĪĬáĭ«áĪµ":3269,"áĪªáĭĿáĪĿ":3270,"ĠáĪ°áĪĪ":3271,"ĠáĭŃáĪĺ":3272,"ĠáĪ¹":3273,"áĪĽáĪµ":3274,"ĠáĭĵáĪĺáī±":3275,"áĭŃáī³":3276,"ĠáĪĪáĪĽáĪ³áĭ°áĮį":3277,"áī´áĭİáĪµ":3278,"áīłáĬ¢áīµáĭ®áĮµáĭ«":3279,"ĠáĪĺáĬķáĮįáĪµ":3280,"Ġáĭ¨áĭĵ":3281,"áĭĭáĭķ":3282,"áĭ°áĬĵ":3283,"ĠáĪ«áĪ³áī¸áĭįáĬķ":3284,"ĠáĪĺáĮįáī£":3285,"ĠáĬĥáĭŃáĪĪ":3286,"³áĭįáĪİáĪµ":3287,"áīµáĬĲáīµ":3288,"áī¥áĪĶáĪ«áĭĬ":3289,"áĪ¨áĪ°áī¦áī½":3290,"áĪµáī°áĬĵ":3291,"áī»áĪįáĪĿ":3292,"en":3293,"áīĥáīĦ":3294,"ĠáīłáĪļáĮĪáī£":3295,"áĪİáī½áĬķ":3296,"ĠáĪĽáĬķáĪĿ":3297,"áĪĭáĪĪáī½":3298,"áĪĬáīµ":3299,"Ġáĭ¨áĮįáĭµ":3300,"ĠáĪĿáĪŃáĪĺáĪ«":3301,"ĠáĪŀáīµ":3302,"áĭĺáĭĭ":3303,"áĪĺáĪĪáĪ±":3304,"Ġáĭ¨áī±":3305,"áĭ¨áĬķ":3306,"Ġáĭ¨áĪĿáĪŃáĮ«":3307,"Ġáĭ¨áīħ":3308,"ĠáĬĭ":3309,"áĭĺáī°":3310,"ĠáīłáĮįáĪįáĮ½":3311,"ĠáĪĺáĪĨáĬĳáĬķáĪĿ":3312,"áĮįáĪ«áĭŃ":3313,"Ġáīłáī¤":3314,"ĠáĪĨáĬĵ":3315,"ĠáĬ©áī£áĬķáĭ«áĭİáī½":3316,"áĭĺáĮĭáĮĢáīµ":3317,"áĮĬáĭ«":3318,"áĮįáĪī":3319,"ĠáĬ¢áĬķáī°áĪŃ":3320,"ĠáĪħáĬŃáĪĿáĬĵ":3321,"áĮ£áĪī":3322,"áĪŁáĪĭ":3323,"ĠáĮīáī£áĭĶ":3324,"áįĪáī°":3325,"áĪ«áĪª":3326,"ĠáĬ¥áĬķáĭ°áĮĪáĪĪáĮ¹áīµ":3327,"Ġáĭ°áī¡áī¥":3328,"ĠáĬ¢áĪħáĬłáĭ´áĮį":3329,"ĠáĪ¦":3330,"áĮ£áī±":3331,"Ġáĭ¨áĭįáĪĥ":3332,"áĬ¥áĭį":3333,"áĪ»áĪį":3334,"ĠáĬ¥áĬķáĭ°áĮĪáĬĵ":3335,"ĠáĪµáĪĪáī°":3336,"áĬĵáĮĪáĪ©":3337,"Ġáī°áĪŃ":3338,"ĠáĭĭáĪµáīµáĬĵ":3339,"Ġáĭ¨áī°áīĢáĪĺ":3340,"áĭ®áĪŃ":3341,"ĠáĪĺáĪµáĪĺáĪŃ":3342,"Ġáī°áĮĪáĬĿ":3343,"ĠáĬ¥áĬķáĭ²áĪĨáĬĳ":3344,"ĠáīĢáīłáĪĮ":3345,"Ġáĭ¨áĪĽáĪħ":3346,"ĠáīłáĬłáĪĽ":3347,"áĪĥáī¥":3348,"ĠáĬłáĭŃáĭ°áĪį":3349,"ĠáĭĺáĪŃáįİáī½":3350,"Ġáī¥áĬķ":3351,"Ġáĭ¨áĪļáĮĪáĬĿ":3352,"áĪĪáĭļáĪħáĪĿ":3353,"Ġáī£áĪī":3354,"áīłáĭĽ":3355,"áįĭáĬķ":3356,"ĠáīłáĬ¨áī°áĪĽ":3357,"áīłáĭ¨":3358,"Ġáĭ¨áĮī":3359,"ĠáīłáĪĽáĬķ":3360,"áĭĪáĭ«":3361,"ĠáĪĺáįįáīµáĪĦ":3362,"Ġáĭ¨áĪļáĪĨáĬĲáĭį":3363,"ĠáĪĿáĬŃáĬķáĭ«áī¶áī½":3364,"Ġáĭ°áī¥áĭ³áī¤":3365,"ĠáĪĺáĮłáīĢáĪĿ":3366,"áĪĺáī»":3367,"áīłáĮ¥":3368,"ĠáĬ¥áĬķáĭ°áĪĨáĬĳ":3369,"ĠáīĢáĭµáĪŀ":3370,"ĠáīłáĪ³":3371,"ĠáĪĺáĪłáĪ¨áī³áĭĬ":3372,"áĭĭáī¸áĭį":3373,"ĠáĪ¥áĪįáĮłáĬĵ":3374,"áī½áĬĭáĪį":3375,"ĠáĭŃáĪ°áĪĽ":3376,"ĠáĬ¥áĬķáĭ³áĪīáīµ":3377,"ĠáĬ¤áĮĢáĬķáĪ²":3378,"áĬ¥áĬĵáĪĿ":3379,"ĠáīłáĬ®":3380,"áįĭáĪį":3381,"ĠáĪ»áĪĿáįĴáĭ®áĬĵ":3382,"ĠáĪ°áĪĽ":3383,"áī»áĪĪáĪģ":3384,"áĪĽáĮįáĪĮ":3385,"Ġáī³áĭ²áĭ«":3386,"áĬ¨áĭļáĭ«":3387,"áĪłáĪ¨áī°":3388,"ĠáĬ¥áĪŃáĭ³áī³":3389,"Ġáī°áĭ«áĭŃáĭŀ":3390,"ĠáĭŃáĪĺáĪµáĪĪáĬĽáĪį":3391,"áĭµáĮĪáīµáĬĵ":3392,"ĠáĪĺáĪ¨áĮĥáĭİáī½":3393,"Ġáĭ«áĭ°áĪ¨áĮĪáĭį":3394,"Ġáī¥áĪĦáĪ«áĭĬ":3395,"áĪ®áįķ":3396,"ĠáĪĪáĪĺáĬ¨áĪĭáĬ¨áĪį":3397,"ĠáĭĪáĭĺáī°":3398,"ĠáĪģáĪīáĬķáĪĿ":3399,"Ġáīµáī½":3400,"ĠáĭľáĬĵ":3401,"Ġáĭ¨áįķ":3402,"áĭ³áĪ¨":3403,"áĬĴáĪįáĬŃ":3404,"ĠáīłáĪģáĪĪ":3405,"12":3406,"áī£áĬ¤":3407,"áĬĳáīµ":3408,"áĮįáĭļáĬłáī¥áĪĶáĪŃ":3409,"áĭįáĪ°áĭµ":3410,"ĠáĮĥ":3411,"ĠáĪ°áī£áīµ":3412,"ĠáĪĺáĬ¨áĪ«":3413,"ĠáĭŃáī³áĭĪáĪ³áĪį":3414,"Ġáĭ±":3415,"áĪĭáĪ´":3416,"áĭµáĪŃáĮħáī±":3417,"áī¥áĪį":3418,"ĠáĬĲáĮĪáĪ®áī½áĬķ":3419,"áīģáĬķ":3420,"áĪ°áĪĽáĪ©":3421,"Ġ2008":3422,"ĠáĬłáĪµáĪĺáĪįáĬŃ":3423,"ĠáĪģáĬĶáī³áĭİáī½":3424,"Ġáī³áĪµ":3425,"áĬĵáĮĪáĪ¨áĭį":3426,"Ġáī°áĪ¨":3427,"áī½áĬĵ":3428,"Ġáī°áīĢáī£":3429,"áĭŃáī¶":3430,"áĬĴáĭ«":3431,"ĠáĬ¥áĭ«áĭ°áĪ¨áĮĪ":3432,"ĠáĪ¶áĪµáīµ":3433,"ĠáīµáĪ«áĬķáĪµáįİáĪŃáĪľáĪ½áĬķ":3434,"áī£áīłáĪŃ":3435,"ĠáĬĲáĬķ":3436,"áĮ¡áĬķ":3437,"ĠáįĪáĮ½":3438,"ĠáīłáĪŀ":3439,"áĬ¨áĪĿ":3440,"ĠáĬ¥áĪŃáĮį":3441,"ĠáĬłáĭŃáĪĺáĪµ":3442,"áĬĺáīµ":3443,"ĠáĮĪáĪįáįĢáĭĭáĪį":3444,"ĠáĬ¨áĬ¢áīµáĭ®áĮµáĭ«":3445,"áĭ³áĭ°áĪ©":3446,"ĠáĬ¥áĬķáĭ²áĭ«áĭį":3447,"áĪĽáī¸áĭįáĬķ":3448,"ĠáĪĻáĪµáĬĵ":3449,"ĠáĭŃáĭ°áĪ¨":3450,"ĠáĪĺáĬķáĮįáĪ¥áī±":3451,"ĠáĬłáĪµáĪ¨áĭµáī°áĭĭáĪį":3452,"ĠáĪĽáĮ£":3453,"Ġáĭ¨áī°áįĪáĮ¥áĪ®":3454,"ĠáĪ¬":3455,"ĠáĪŃáīĢáīµ":3456,"áĮ«áĭį":3457,"ĠáįķáĪ¬":3458,"áĪļáĬĴ":3459,"´áĮ¥":3460,"ĠáĮ¥áĪª":3461,"ĠáĭķáĪĪáīµ":3462,"áĪĭáĪĪáįį":3463,"áĪµáī°áĭį":3464,"Ġáĭ¨áĪĺáĮ¨áĪ¨áĪ»":3465,"áĭ³áĪĿ":3466,"ĠáīłáĭŃ":3467,"áī³áī½áĪģ":3468,"áĭµáĪĿ":3469,"Ġáī°áįħáĭķáĬĸ":3470,"ĠáĬĲáĮĭáĭ´":3471,"ĠáĪĺáĬªáĬĵ":3472,"ĠáĬ¥áĭ¨áĪ°áĪ«":3473,"áī³áĪĪáī½":3474,"Ġáĭ°áīĤáīĥ":3475,"ĠáīłáĪĥ":3476,"áīģáĪŃ":3477,"ĠáĬ«áĪĪáĭį":3478,"ĠáĬłáĭĿ":3479,"ĠáĪłáĪŃ":3480,"ĠáĬłáĮĢáĬķáĭ³":3481,"áĪĺáĬķáĮįáĪ¥áīµ":3482,"áĮ¨áī£áĮŃ":3483,"áī¥áī¥áĪŃ":3484,"ĠáĪ°áĭŃ":3485,"ĠáīłáĪĭ":3486,"ĠáĮĢáĪĺáĪ¨":3487,"áĪ¨áĮĭáĮį":3488,"ĠáĬ«áĪįáī°":3489,"ĠáĮ½áĪĳáįį":3490,"áĮłáĬŀáī½":3491,"Ġáĭ°áĪĺ":3492,"ĠáĬłáīµáĪĮáīµ":3493,"áĬķáĪ°áĪŃ":3494,"ĠáĮłáīĥ":3495,"ĠáĬĲáįĥáĬĲáīµ":3496,"ĠáīłáĪĪ":3497,"áĭ´áīµ":3498,"Ġ28":3499,"ĠáĭĪáĮĪáĬķ":3500,"ĠáĬłáĪĺáĪ«áĪ®áī½":3501,"Ġáī£áĪĪáĪµ":3502,"áįĭáī¸áĭį":3503,"áĬĲáĪ°":3504,"Ġ26":3505,"ĠáĮ¥áĪĭ":3506,"ĠáĬłáīħáĪŃáī¦áīµ":3507,"Ġáī²":3508,"áĭĪáĪ«":3509,"áĭ°áĪĽ":3510,"ĠáĬ¥áĬĵáīµ":3511,"ĠáĪĽáĭĪáīħ":3512,"Ġáī°áĭĪáĬ«áĭ®áī½":3513,"ĠáĬłáĪµáī¸áĮĭáĪª":3514,"Ġáī°áĪŀáĬŃáĪ®":3515,"áĪ½áĬ¨áĪŃ":3516,"Ġáī£áĪĪáįĪ":3517,"ĠáĬ¨áĭļáĭ«áĪĿ":3518,"Ġáī°áī¥áĪıáĪį":3519,"ĠáĬłáī£áīµ":3520,"áįĪáĮłáĪ©":3521,"ĠáĪĿáĪŃáĮ¥":3522,"Ġáī½áĮįáĪ©áĬķ":3523,"ĠáĪµáīµáĪ«áī´áĮĤ":3524,"áĭĽáĪ¬áĭį":3525,"áĬ¨áĪ©":3526,"áĬĵáĬķ":3527,"ĠáĪĺáĪĢ":3528,"áĭ«áĪĪáĪģ":3529,"áī½áĭįáĬķ":3530,"áĪĭáīĢ":3531,"ĠáĪĪáĪĽáĭĪáīħ":3532,"Ġáĭ¨áĬ¦":3533,"áī½áīłáīµ":3534,"ĠáĪľáĭ³áĪĬáĭ«":3535,"áĬĸáī½áĬķ":3536,"Ġáī°áĪĺáĪįáĬŃ":3537,"áī»áĪĪáĭį":3538,"ĠáĮįáĪĿáīµ":3539,"ĠáĬłáĬķáĪµáī¶":3540,"ĠáīłáīĢáĮ£áĭŃ":3541,"áīĥáĭĪ":3542,"ĠáĬ¨áĪħ":3543,"Ġáĭ«áĮĪáĬĺ":3544,"áīµáĪĮ":3545,"áĪĭáĭįáĭ«áĬķ":3546,"áĪ³áĭį":3547,"ĠáĪ°áĮª":3548,"al":3549,"áĪ°áĮ£áī¸áĭį":3550,"ĠáĬĭáĪĭ":3551,"ĠáĪĺáįįáĮłáĪŃ":3552,"áĬĸáĪŃáĪĿ":3553,"áĪįáĭµ":3554,"ĠáĬłáĭĽ":3555,"ĠáĪĺáĪ°áĪį":3556,"ĠáīµáĬŃáĬŃáĪĪáĬĽ":3557,"Ġáī½áĮįáĪ©":3558,"ĠáīłáĪģáĪīáĪĿ":3559,"Ġáĭ¨áĮįáī¥áĪŃáĬĵ":3560,"ĠáĬ®áĪļáĪ½áĬķ":3561,"ĠáīģáĮ¥áĮ¥áĪŃ":3562,"áĮĢáĪĿáĪŃ":3563,"ĠáĪĽáĬķáĬĽáĭįáĪĿ":3564,"ĠáīłáĪģáĪĪáīµ":3565,"áĪħáĪŃ":3566,"ĠáĪĪáĭĪ":3567,"Ġáĭ¨áĬĥ":3568,"ĠáĮłáīĥáĪļ":3569,"Ġáĭ«áĪµáĪ¨áĭ³":3570,"ĠáĬ¥áĬķáĭ³áĪī":3571,"áĪµáĪĿ":3572,"or":3573,"ĠáĬ¥áĭ«áĪµ":3574,"Ġáī°áī½áĪıáĪį":3575,"ĠáĮ¨áĪŃ":3576,"ĠáĮĬáĭľáĭ«áīµ":3577,"ĠáĪĺáĪįáĭķ":3578,"áĭ¥áĬķ":3579,"ĠáĬłáĮłáīĥáĪĭáĭŃ":3580,"ĠáĪĿáĬĵ":3581,"ĠáĭĪáĬķáĮĢáĪį":3582,"30":3583,"ĠáĪ²áĪĨáĬĳ":3584,"Ġáī°áĭ°áĪŃáĮĵáĪį":3585,"áĬłáĪµ":3586,"Ġ27":3587,"ĠáĪħáĮį":3588,"ĠáĭĭáĬĲáĬĽ":3589,"ĠáĬ¥áĭ¨áī°áĭ°áĪ¨áĮĪ":3590,"áĭ«áĪī":3591,"áĪ«áįĬ":3592,"áī½áĪĿ":3593,"áĪªáĪļ":3594,"Ġáī³áĪĽáĬĿ":3595,"ĠáĬĲáĭįáĬĵ":3596,"áĬĲáīħ":3597,"ĠáīłáĪ¶":3598,"ĠáĬ¢áīµáĭ®áĮµáĭ«áĬķ":3599,"áĪŃáī¶":3600,"Ġáĭ°áĪħáĬķ":3601,"ĠáĮłáĭ¨":3602,"Ġáĭ¨áĪļáīĢ":3603,"ĠáĭŃáĬĵáĮĪáĪ«áĪį":3604,"áĬķáĬ©":3605,"áĮĪáī£áīµ":3606,"áī°áĬŀáī½áĬķ":3607,"ĠáĪĺáĪĪáĪµ":3608,"áįįáī¶":3609,"ĠáĪµáĮĭáīµ":3610,"áĮłáĪĿ":3611,"ĠáįĪáĮ£áĬķ":3612,"áĪ³áĪ½":3613,"ĠáĬłáĭµáĪ«":3614,"ĠáīłáīµáĬŃ":3615,"áĮįáĪĪáĮ½":3616,"ĠáĬłáĬķáīĢáĮ½":3617,"áįķáĪİ":3618,"áĬłáĬķáĭ³áĬķ":3619,"Ġáī³áĪªáĬ«":3620,"ĠáĪħáĭŃáĭĪ":3621,"14":3622,"áĬ¨áī±":3623,"áĪ¬áĬķ":3624,"Ġáĭ¨áĪĲ":3625,"ĠáĬ¨áĮį":3626,"áĭįáĬķáĪĿ":3627,"áĭįáĮ£":3628,"ĠáįĮáĭ´áĪ¬áĪ½áĬķ":3629,"ĠáįķáĪ®áĮĢáĬŃáī¶áī½":3630,"áĪĺáĮ¥":3631,"áĪ¨áįį":3632,"áĬ«áī°":3633,"ĠáĮ¥áĪ«áīµ":3634,"ĠáĬłáĪµáĬªáĭ«":3635,"ĠáĪµáī´":3636,"áĭĿáī£áĭĬ":3637,"ĠáĪĽáĪħáīłáĪ¨áĪ°áī¥":3638,"áĬ¨áĬĵáĭĪáĬĲ":3639,"16":3640,"Ġáĭ¨áĭĪáĪŃáīħ":3641,"ĠáĪĪáĪĽáĪĪáīµ":3642,"áĬķáĬŃ":3643,"Ġáĭ¨áĪļáĬĸáĪ©":3644,"áĬĶáīµ":3645,"ĠáĬłáĪįáī£":3646,"Ġáī¤áī°áĪ°áī¥":3647,"áįĭáĭŃáĬĵáĬķáĪµ":3648,"ĠáĬłáĪĺáĪįáĬŃáī°áĭĭáĪį":3649,"Ġáī°áīĢáī£áĭŃáĬĲáīµ":3650,"áĮ«áĭĪáīµ":3651,"áī¥áĪŃáĪĥ":3652,"áĭĺáĮĭáĮĢáĭį":3653,"áĬ¬áīµ":3654,"áī³áĭĪáīĢáĭį":3655,"Ġáĭ¨áĪĺáĪ°":3656,"áĭ¨áĬ¥":3657,"ĠáĪĭáĭŃáĪĿ":3658,"ĠáĭŃáĮĪáĪįáĮ»áĪī":3659,"ĠáĪĨáī´áĪį":3660,"Ġáĭ¨áĮįáī¥":3661,"áĭ°áīłáĬĽ":3662,"áĪ«áīµáĬķ":3663,"áĬ¨áī°áĪĪáĭį":3664,"áĪµáī°áĬĽáĭį":3665,"áĪĽáĪĬáĭ«":3666,"Ġáĭ¨áĪ¥áĬĲ":3667,"ĠáīłáĬ¥áĮħ":3668,"áĬķáĮįáĪĬáĭĿ":3669,"áĪŃáįį":3670,"ĠáĪĪáĬ¢áīµáĭ®áĮµáĭ«":3671,"ĠáīĤ":3672,"ĠáĬłáĭĺáĮĭáĮħ":3673,"áĬĲáīłáĪ©":3674,"Ġáĭ¨áī¦":3675,"Ġáĭ¨áĪļáĪ°áĮłáĭį":3676,"ĠáĪ°áĪĿ":3677,"Ġáīłáĭ°áĬķ":3678,"áĪµáī°áĭĭáĪį":3679,"áĪĺáĮ£áĪį":3680,"áĪ³áĪµ":3681,"áįĪáĮłáĪ¨áĭį":3682,"ĠáīĢáĮ£":3683,"áĮİáĬķ":3684,"Ġáĭ¨áĪĺáĮ½áĪĲáįį":3685,"áĪķáĬłáĭ´áĮį":3686,"ĠáĪĺáĭµáĬĥ":3687,"áįįáĪ«áīµ":3688,"áĮ£áĭį":3689,"Ġáĭ¨áĪļáĭ«áĭį":3690,"áįĪáĪĪáĮĪáĭį":3691,"áĪ¨áĪŃ":3692,"ĠáĪĿáĪ¥áĪ«":3693,"Ġáĭ¨áĪļáĭ«áĭ°áĪŃáĮį":3694,"ĠáĭĺáĪĭáīĤ":3695,"áīłáī°áĪĪáĭŃáĪĿ":3696,"ĠáĪĲáĪ³":3697,"ĠáįĸáĪĪáī²áĬ«áĭĬ":3698,"áīĢáĭ°áĪĿ":3699,"áĪ¨áĮħáĪĿ":3700,"áī½áĮįáĪ©":3701,"ĠáĪĺáĪµáī°":3702,"ĠáĪĢáĪ³áī¥":3703,"Ġáĭ¨áĮł":3704,"áĮįáĭ³":3705,"áĪĽáĪ©":3706,"ĠáĪĻáĭļáīĥ":3707,"ĠáīłáĬ¤":3708,"áĭĪáĪ°áĬĲ":3709,"áĭ¶áī½áĬķ":3710,"ĠáĪĽáī¥áĪ«":3711,"áĪķáįĪáīµ":3712,"áĬķáĪµáĪ³áīµ":3713,"áĪ®áĬķ":3714,"ĠáĪĺáĪĨáĬĵáī¸áĭį":3715,"Ġáĭ¨áĬłáĪĺ":3716,"ĠáĮĵáĭ°áĬĽ":3717,"ĠáīłáĪ°áĭį":3718,"Ġáīłáī°áĮįáī£áĪŃ":3719,"Ġáĭ¨áĭ°áĪ¨áĪ°":3720,"Ġ]":3721,"Ġáī£áĪĪáī¤":3722,"áĭĭáĪ³":3723,"Ġáĭ¨áī°áĮłáīĢ":3724,"ĠáĭĪáĭ°áįĬáīµ":3725,"Ġáĭ«áĪĪáĪĺ":3726,"ĠáĪĪáĬ¢":3727,"ĠáĪµáĪĪáĬĲáīłáĪŃ":3728,"áĬķáĭµáĬĲáĭį":3729,"ĠáĬłáĬķáĮ»":3730,"áįĥáįĢ":3731,"ĠáĪĪáĬłáĬķáĭµ":3732,"Ġáīłáĭ¨áĮĬáĭľáĭį":3733,"áĪ³áī½áĬķ":3734,"áĪĪáĭµ":3735,"áī°áĬ®":3736,"áĪ¨áĮį":3737,"ĠáĪįáĪĿ":3738,"ĠáĪħáĭĿáī¡":3739,"ĠáĭŃáĬĲ":3740,"Ġáī¸":3741,"áĮ¥áįĭáīµ":3742,"ĠáĪķáĬŃáĪĿáĬĵ":3743,"áī¥áĬĵáĪį":3744,"áĪħáĪĿ":3745,"áĮ¨áĪĺáĪ¨":3746,"ĠáĪĨáĪµáįĴáī³áĪį":3747,"Ġáī°áĪį":3748,"ĠáĬłáĪĺáī³áīµ":3749,"áĬłáĪĿáĪµáīµ":3750,"ĠáĬĲáĮ¥":3751,"Ġáĭ¨áĪĽáĭ«":3752,"ĠáĪ°áĮ¥áī¶":3753,"ĠáĮįáĪĪáĪ°áī¦áī½":3754,"ĠáĬłáĭ«áĪµ":3755,"áĬ«áĭŃ":3756,"Ġáī¥áĭĽáīµ":3757,"Ġáī£áĪħáĪŃ":3758,"Ġáĭ«áĪ°":3759,"ĠáĬ¥áĬķáĭ°áĪļáĪĨáĬķ":3760,"ĠáĮłáīĢ":3761,"áįĪáĪĪáĮį":3762,"Ġáĭ¨áĪłáĪ«":3763,"áĬŃáī¶":3764,"ĠáĬ¥áĮį":3765,"áĪ¯áī¸áĭį":3766,"ĠáīłáīĢáĮ¥áī³":3767,"ĠáĪ°áĪŀáĬĳáĬķ":3768,"áĪ¸áīµ":3769,"ĠáĪĺáĪµáĬŃ":3770,"ĠáĬłáĮįáī£áī¥":3771,"áĭŀáĬĳ":3772,"áĬ¨áĭļáĪħáĪĿ":3773,"áĭľáĮİáī½":3774,"ĠáĮ¨áĭĭáī³áĭİáī½":3775,"áĪĭáĬķáĭµ":3776,"ĠáĭµáĬķáĮĭ":3777,"ĠáĭŃáī£áĪĭáĪį":3778,"áĪĭáĪļ":3779,"ĠáĪĥáĪ³":3780,"ĠáĬłáĭ°áĪ©":3781,"áĬ¨áĪ°áīµ":3782,"Ġáĭ¨áī£áĪĪ":3783,"áĬĵáĪ½":3784,"ĠáĪµáĪĭáĪį":3785,"áĬ¤áĪĭáĭįáĭ«áĬķ":3786,"ĠáĪµáĪħáī°áīµ":3787,"áī³áĭİáī½":3788,"ĠáĬłáĭŃáĮĪáī£":3789,"ĠáĬ¥áĬķáĭ³áĪįáĪĨáĬĲ":3790,"ĠáĭŃáĮłáĭŃ":3791,"Ġáīłáī¥áĭĻ":3792,"áĮĭáī¢áīµ":3793,"ĠáĬłáĪĬ":3794,"áĬĳáĪĿ":3795,"áī£áī£áĭŃ":3796,"Ġáī°áĬĲáĪµ":3797,"áĭ¨áĪĽ":3798,"ĠáĬłáĪµáįĪáĮ»áĪļ":3799,"ĠáĬ¨áĭįáĮŃ":3800,"áĪ¨áĭ³áĭį":3801,"ĠáīłáĬķ":3802,"ĠáīłáĪĺáĬķ":3803,"áĮĪáĪįáĮĪáĪį":3804,"ĠáīłáĭĭáĬĵ":3805,"áĬĸáĪ¨":3806,"áĭŃáī±":3807,"áĭ°áĪµ":3808,"áĭ°áīħ":3809,"ĠáĪĺáĬķáįĪáĪ³áĭĬ":3810,"18":3811,"Ġáĭ¨áĭĪáĬķ":3812,"áĬ³áĪŃ":3813,"áĮłáĪī":3814,"Ġ29":3815,"ĠáĪĪáĪĮáĪİáī½":3816,"ĠáĮįáĪĿ":3817,"áĪĽáĪªáĭİáī½":3818,"Ġáĭ¨áĮĪáĪĪáĮ¹áīµ":3819,"ĠáĬłáĮĪáĪįáĮĭ":3820,"ĠáĪģáĪĪáī±":3821,"Ġáĭ¨áĪĺáĮĢáĪĺáĪªáĭ«áĭį":3822,"ĠáĬ¥áĭ¨áī³":3823,"áĬ«áĪĦáĭ±":3824,"ĠáĭŃáĮłáīłáīħ":3825,"Ġáĭ¨áĪķáĮį":3826,"áįĪáĪĪáĮĪ":3827,"ĠáĬŃáĪµ":3828,"áįķáĪİáĪĽ":3829,"ĠáĪĺáĮ¨":3830,"Ġáĭ¨áĪļáī£áĪĪáĭį":3831,"ĠáĪļáĭ²áĭ«":3832,"ĠáĬŃáĪŃáĪµáī²áĭ«áĬķ":3833,"ĠáĬłáĪµáĪĺáĪįáĬŃáī¶":3834,"ĠáĪĺáĪįáĬ¥":3835,"ĠáĬłáĪĿáĪ«":3836,"áĪ´áī¶áī½":3837,"Ġ40":3838,"Ġáīłáĭĭ":3839,"áĪ²áĭ«":3840,"Ġáĭ¨áī¢":3841,"ĠáĬłáĪĪáī¥áĬķ":3842,"áĪ°áĮł":3843,"ĠáĪķáĭĿáī¡":3844,"áĬłáĬķáī°":3845,"ĠáĪİ":3846,"áĪĺáĮ½áĪĲáįį":3847,"ĠáīłáįĬ":3848,"Ġáĭ¨áĪ¶":3849,"ĠáĬ¥áĬĶáĪĿ":3850,"ĠáĮįáĬķáī¦áīµ":3851,"ĠáĬłáĬķáĭµáĪĿ":3852,"ĠáīłáīĨ":3853,"áīħáĭ±":3854,"Ġ2007":3855,"ĠáĪ£":3856,"Ġáī³áĪª":3857,"ĠáīłáĬłáĪµ":3858,"áĪĿáĪ¨":3859,"ĠáĬĴ":3860,"áĪ«áī¢":3861,"áĪĺáĭĿáĮĪáī¥":3862,"áĪµáīµáĪ«áĬŃ":3863,"ĠáĬłáĬĵ":3864,"Ġáī¥áĭµáĪŃ":3865,"ĠáįĸáĪĬáĪµ":3866,"ĠáĬłáĪµáī°áĭ«áĭ¨":3867,"áĪĪáĮĭ":3868,"ĠáĮĢáĪŃ":3869,"ĠáĬ¥áĬķáĭ³áĪĪáī£áī¸áĭį":3870,"ĠáīĢáĪŃáī¶":3871,"áĪ¦áĪµáīµ":3872,"Ġáī°áĪ°áĪĽ":3873,"áĬ³áĬķ":3874,"Ġáĭ¨áĪļáĪ°áĮ¥":3875,"ĠáĮ«áĬĵ":3876,"ĠáīłáĬłáĮłáīĥáĪĭáĭŃ":3877,"áįķáĪ®áĮĢ":3878,"áĮīáĪŃ":3879,"áīłáĬ¥":3880,"áĭ¨áĪ©áĪ³áĪĮ":3881,"áĪĽáĭį":3882,"es":3883,"áĬĳáĪ®":3884,"ĠáĬłáīµáĪĮáī²áĬŃáĪµ":3885,"áĭ«áī¸áĭįáĬķ":3886,"áĪªáīµ":3887,"áĬĺáĭį":3888,"áĭ¨áĪħ":3889,"áįĪáī³":3890,"áĬ¥áĪĿáĪ®":3891,"ĠáĪĪáĪĺáįįáĮłáĪŃ":3892,"áĪĪáĬł":3893,"ĠáĬłáĮł":3894,"ĠáĪĥáĪĭáįĬ":3895,"Ġáĭ¨áĬ¢áĬķáĭ±áĪµáīµáĪª":3896,"Ġáĭ°áĮĭáįĬ":3897,"ĠáĬ¥áĭįáīĢáīµ":3898,"Ġáĭ«áĪħáĭĮáĬķ":3899,"ĠáĬłáī³":3900,"Ġáĭ¨áĬ¥áĮįáĪŃ":3901,"áĪªáĬķáĮį":3902,"áī£áĪĪáįĪáĭį":3903,"áĪĬáĭ«áĬķ":3904,"ĠáĬ¨áĪģáĪĪáīµ":3905,"áĭ®áĪŃáĮĬ":3906,"áĪĮáīª":3907,"áĪĭáĪµ":3908,"ĠáĮłáī£":3909,"ĠáĪĺáĮ¥áįİ":3910,"ĠáĪµáĬĵ":3911,"ĠáĬ¥áĬķáĭ³áĪµ":3912,"Ġáįī":3913,"ĠáĬłáĭ°áĪ¨áĮĥ":3914,"ŃáĪ¶":3915,"ĠáĬłáĭįáĮ¥":3916,"ĠáĪĺáĮ»áĪķ":3917,"ĠáĪĺáĪµáĪªáĭ«":3918,"áĭ°áĮĪáįį":3919,"Ġáī£áĪĪáĪ¥áĪįáĮ£":3920,"áĭĪáĬķ":3921,"Ġáī°áįĪáĮ¥áĪ®":3922,"áĮĨáī¹":3923,"áĪĪáĪĺáĭ°":3924,"ĠáīµáĪµ":3925,"ĠáĬ¨áĪķ":3926,"Ġáĭ¨áĪļáī½áĪĪáĭį":3927,"ĠáīłáĪ°áĮ¡áīµ":3928,"áĪĪáĪ½":3929,"áĭ«áĬķáĭ³áĬķáĭ±":3930,"ĠáĬłáįĪáĮ»áĮ¸":3931,"ĠáĭĪáĭŃáĬķáĪĿ":3932,"ĠáĮłáīĢáĪľ":3933,"áĬĲáī¥":3934,"áĪĭáĪĪáĪĿ":3935,"Ġáī¥áĭĻáĪĿ":3936,"ĠáĬłáĬķáĭµáĬĲáīµ":3937,"ĠáĭĪáĪŃáīħ":3938,"ĠáīłáįįáĮ¥áĬĲáīµ":3939,"ĠáĪĺáĪ¥áĪªáĭ«":3940,"áĪ°áī¢áĭ«":3941,"ĠáĭĻáĪŃ":3942,"ĠáĬłáĭİ":3943,"ĠáĪºáĪķ":3944,"áĪĺáĪĪáĬ¨áī³áī¸áĭį":3945,"ĠáīĢáĭ³áĪļ":3946,"ĠáĭĭáĬĵáĭį":3947,"áįĥáĪļ":3948,"ĠáĭŃáĮłáīĢ":3949,"Ġáĭ¨áĪĮáĪĪáĭį":3950,"áĪ¨áĪ±":3951,"Ġ50":3952,"áĭļáĭ«áĬķ":3953,"áĪĬáĬŃ":3954,"ĠáīłáĪĺáĬķáĮįáĪ¥áīµ":3955,"ĠáĪŃáĭķáĪµ":3956,"ĠáīµáĪįáīģ":3957,"ĠáĪĺáĪ°áĪ¨":3958,"Ġáīłáī°áĮ¨áĪĽáĪªáĪĿ":3959,"áĮĪáĭĿ":3960,"áī³áĬĵ":3961,"ĠáĮĤ":3962,"ĠáĪĪáĪļáĭ«":3963,"áĬ¨áĬ¥áĬĲáĭļáĪħ":3964,"áĮĭáĪī":3965,"17":3966,"ĠáĪĺáįħ":3967,"Ġáī°áĪĺáĪ«":3968,"ĠáĪĺáĮĪáĪĪ":3969,"áīłáĬłáĬķáĭµ":3970,"áīłáĪģ":3971,"ĠáĬ«áĪŃ":3972,"ĠáĬ«áĪ³":3973,"ĠáĪĽáī¥áĪ«áĪªáĭ«":3974,"ĠáĬłáĭŃáī»áĪįáĪĿ":3975,"áĪªáĪµ":3976,"áĬ¨áĬł":3977,"Ġáĭ°áĬķáī¥":3978,"ĠáīłáĬĲáįĥ":3979,"áĪĿáī£":3980,"áĪ«áĬĴ":3981,"áĬĵáī¸áĭįáĬķ":3982,"áĮĪáĪĭ":3983,"ĠáĪĪáĪ°":3984,"áĬłáĭĬ":3985,"áĭ®áī½áĬķ":3986,"ĠáĪĪáĪĽáĪ¨áĮĭáĮĪáĮ¥":3987,"Ġáī°áĭĪáĭ³áĭ³áĪª":3988,"áĪ¨áĬĽ":3989,"ĠáĬłáĪµáī³áĭįáīĢáĭĭáĪį":3990,"ĠáĪĪáĭĺ":3991,"ĠáĬŃáįįáī°áīµ":3992,"áĪĺáĪĪáĬ¨áī±":3993,"is":3994,"Ġáīłáīĥ":3995,"ĠáīłáĬłáĬ«áī£áī¢áĭį":3996,"ĠáĬ¥áĬķáĮįáĭ²áĪħ":3997,"áįİáĬ«":3998,"Ġáī¥áĭĻáĬĥ":3999,"ĠáĭŃáĬ¼":4000,"ĠáĬłáĬķáĭ²áīµ":4001,"ĠáĬłáĭ°áĪ®áī½":4002,"Ġáĭ¨áĬķ":4003,"ĠáĮĵáĭ°":4004,"ĠáĭŃáĭ°áĪ¨áĮĭáĪį":4005,"áĪĪáī³áĪį":4006,"áįĪáĭĭáĪį":4007,"áįĪáĮ½":4008,"áĬ¨áīłáĪ¨":4009,"áĬ«áī½":4010,"ĠáĪĽáĭ³":4011,"ĠáīłáĪĺáĪĨáĬĵáī¸áĭį":4012,"Ġáī°áī¥áĪĪáĭį":4013,"áĬ¨áĪ¨áĪĿ":4014,"áīĢáĬĵ":4015,"ĠáĭĪáĭ³áĮħ":4016,"áīĥáĭĭáĪļ":4017,"áĪ½áīµ":4018,"Ġáīłáĭ¨áĭĵáĪĺáī±":4019,"áĬŃáĪ®áī½":4020,"áįĪáĪ©":4021,"ĠáĬĥáĮ¢":4022,"ĠáīłáĪ´":4023,"ĠáĭĪáĪ¬":4024,"ĠáĪĪáĪ«":4025,"áĪ»áĭį":4026,"áĪĪáĭĭ":4027,"áĪĭáīµáĬķ":4028,"áĮĪáĬĺáīµ":4029,"ĠáĪĦáĭ°":4030,"ĠáīĭáĪļ":4031,"ĠáīłáĪ¥áĪ«":4032,"ĠáĪµáĪĪáĪļáĭ«":4033,"ĠáĪĿáĬŃáĬķáĭ«áī±áĪĿ":4034,"áĬ¥áĬķáĭ²":4035,"Ġáĭ¨áĪļáĪĺáĮ£":4036,"ĠáįĪáĪŃ":4037,"Ġáīłáĭ«áĪħáĭĮ":4038,"Ġáĭ°áĬķáīł":4039,"áīĨáĪŃ":4040,"áĪĿáĪ«áīµ":4041,"ĠáĪļáĪµáīµ":4042,"áĭĽáĭį":4043,"ĠáĭĿáĮįáĮħ":4044,"ĠáĭŃáĪ¨áĭ³":4045,"áĮªáĭį":4046,"ĠáĬłáĭ«áĭį":4047,"ĠáĬŃáĪŃ":4048,"ĠáĮįáĭ´áī³":4049,"ĠáĪĽáīħáĪ¨áī¥":4050,"ĠáīłáĭĺáĪŃáįī":4051,"ĠáĬ«áĪī":4052,"ĠáĬłáĬķáĮ»áĪŃ":4053,"áĭµáĪ¶":4054,"áĪĿáĬĵáĪį":4055,"Ġáĭ°áĮį":4056,"áĪ·áĬķ":4057,"áī¥áĬĲáīµ":4058,"áĭĵáī±":4059,"ĠáĬłáĮĪáĪ«áĭĬ":4060,"áĬŃáĬĴáĬŃ":4061,"Ġáĭ¨áĪļáĭ«áĪ³áĭŃ":4062,"ĠáĬ¢áĬķáī¨áĪµáīµáĪĺáĬķáīµ":4063,"Ġáīª":4064,"ĠáĬłáĭŃáĭ°áĪīáĪĿ":4065,"áĬ¬áĬķáĭ«":4066,"ĠáĭŃáĬĸáĪŃáīłáī³áĪį":4067,"áĬķáīħ":4068,"ĠáĪĺáĮĪáĬĵáĬĽ":4069,"áĪĭáĪĪáĪħ":4070,"áĪĺáĭĺáĮĪáī¡":4071,"áĪĽáī½":4072,"Ġáĭ¨áĬłáĬķ":4073,"Ġáī¢áĭ«áĬķáĪµ":4074,"ĠáĪ½áĪĽáĮįáĪĮ":4075,"áĮ¹áĪĿ":4076,"áĬĲáĮĪáĪ©":4077,"ĠáĪĽáĪĺáĬķ":4078,"áĬ¥áĬĲáĪ±":4079,"ĠáĭķáĪŃáĪĿáĮĥ":4080,"Ġáī°áĬĵáĮįáĪ¯áĪį":4081,"ĠáĪ°áĪĭáĪĽáĭĬ":4082,"ĠáĬłáĮłáīĥ":4083,"ĠáīłáĪµáī°áīĢáĪŃ":4084,"ĠáīĨáĭŃáī·áĪį":4085,"ĠáĭŃáĭĪ":4086,"áĪŃáįĸ":4087,"áĪĺáĬķáĮįáĪµáīµ":4088,"ĠáĭµáĪ¨":4089,"áĬ¬áĪ½áĬķ":4090,"ĠáĪĺáĬĸáĪªáĭ«":4091,"ĠáīĢáĪ¨":4092,"ĠáīłáīµáĪĿáĪħáĪŃáīµ":4093,"áĪĪáī¥":4094,"áĭ¨áĬ¢":4095,"ĠáĬłáīĢáįī":4096,"áĪµáĪ«áīħ":4097,"ĠáĪĢáĮĪáĪ«áīµ":4098,"Ġáį¦":4099,"Ġáĭ«áĬĲáĪ³":4100,"áĬĲáĭįáĬķ":4101,"Ġáĭ¨áįĬ":4102,"Ġáī¥áĪĶáĪŃ":4103,"Ġáĭ«áĪĺáĪĪáĬŃáī³áĪį":4104,"áĮĪáĬķáĭĿ":4105,"Ġáĭ¨áĪļáīĨáĮłáĪ©":4106,"ĠáĬŃáĪµáī°":4107,"ĠáĬ¨áīĢ":4108,"ĠáĮīáĭ³áĭ©":4109,"ĠáĪĪáĪĻ":4110,"áī²áĬŃ":4111,"Ġáĭ¨áĪħáĬŃáĪĿáĬĵ":4112,"ar":4113,"áĮįáĪª":4114,"Ġáīłáī°áĪĺáĪ³áĪ³áĭŃ":4115,"áĪįáī¶":4116,"ĠáĮĪáī¥áī¶":4117,"ĠáĬŃáĪŃáĪµáī²áĭ«áĬĸáī½":4118,"ĠáĬłáĪ»":4119,"áĪµáĪĪáĪĨáĬĲáĪĿ":4120,"áīłáīħ":4121,"ĠáīµáĬŃáĬŃáĪį":4122,"áĭ³áĪī":4123,"ĠáĭľáĮĭ":4124,"ĠáĪĿáĭķáĪ«áįį":4125,"áĪ¸áĮĭ":4126,"áĮĪáĮ¥":4127,"ĠáĭŃáĪĨáĬĵ":4128,"ĠáĭĺáĬķáĭµáĪ®":4129,"Ġáĭ¨áĬ¤áĪĮáĬŃáīµáĪªáĬŃ":4130,"ĠáĪĺáĮ½":4131,"ĠáĮ¥áįĭáīµ":4132,"áĭµáīħ":4133,"ĠáĭĪáī³áĭ°áĪ«áĭĬ":4134,"áĭ®áī¹":4135,"ĠáĭŃáĮłáīģ":4136,"ĠáĬ¥áĬķáĭ°áĪļáĪīáīµ":4137,"áĬŃáī±":4138,"ĠáĪĭáĪĪ":4139,"áī£áī£áĪª":4140,"ĠáĭŃáĪģ":4141,"áĪŀáī½áĬķ":4142,"ĠáĪĺáĪĲ":4143,"Ġáĭ¨áī°áĬĵáĮĪáĪ©áīµ":4144,"áĬĲáĮĪáĪ¨":4145,"Ġáĭ¨áĭĪáĪ°":4146,"ĠáĬ¥áĬķáĭ³áĭ«":4147,"ĠáĪ½áĪįáĪĽáīµ":4148,"Ġáĭ¨áī°áĪ³":4149,"ĠáĬłáĪĪáī½":4150,"áĬ¨áįĬ":4151,"áĮ¥áįį":4152,"ĠáĪ¥áĪ«áĭį":4153,"áĮĪáīłáĭ«":4154,"áĭ²áĭ«áĭįáĪĿ":4155,"áĭ°áĭµ":4156,"ĠáĪĨáĬĸáĪĿ":4157,"ĠáĪĺáĭĺ":4158,"Ġáī£áĪĪáĭµáĪŃáĪ»":4159,"áĪİáĪĿáįĴáĬŃ":4160,"Ġáī¥áĪİáĪĿ":4161,"ĠáīĢáĬĵ":4162,"áĪĬáĬĵ":4163,"ĠáīłáĪĿáīµ":4164,"ĠáĬ¨áĬ¢":4165,"Ġáīłáī°áĬ«áĪĦáĭ°áĭį":4166,"áĪĲáĭŃ":4167,"ĠáĪĥáĭŃ":4168,"ĠáĪĺáĬķáĮįáĪ¥áī³áĭĬ":4169,"ĪáĪĿ":4170,"ĠáĬ¥áĪ±áĬķ":4171,"áĬ³áĭŃ":4172,"ĠáĪµáĪĿáĬķáīµ":4173,"Ġáĭ¨áĬª":4174,"áĪ¨áįĪ":4175,"Ġáĭ«áĪ³áĭ«áĪį":4176,"ĠáĮ´áĮ¥":4177,"áĪ¾áī½":4178,"áĬķáĭµáĪ®":4179,"áĬĵáĬķáī°":4180,"ĠáĪĺáĭ°áĪ¨áĮī":4181,"áī£áī½áĬķ":4182,"ĠáĪĽáĪħáīłáĪ«áīµ":4183,"Ġáĭ¨áī°áĪĺáĪ¨":4184,"ĠáĮĪáĪĪáĮ»":4185,"Ġth":4186,"Ġáĭ¨áĬŃáĪįáĪī":4187,"áĬŃáī¥":4188,"Ġáĭ«áĭ°áĪ¨":4189,"ĠáīłáĪĺáĪĨáĬĳáĪĿ":4190,"áĬŃáĪįáĪį":4191,"Ġáīłáĭ°áī¡áī¥":4192,"ĠáĪĨáĬĲáĭĭáĪį":4193,"ĠáĭŃáĪ°áĮ£áĪį":4194,"áīłáĪļ":4195,"ĠáĮĬáĭľáĪĿ":4196,"ĠáĭĺáĪĺáī»":4197,"áĪĬáĬķ":4198,"ĠáĪĦáĬŃáī³áĪŃ":4199,"ĠáĬ¬áĬķáĭ«":4200,"13":4201,"áīĨáĭŃ":4202,"áĪĪáĬĵáĪį":4203,"ĠáĪ¥áĮĭ":4204,"ĠáĪħáī¥áĪ¨áī°áĪ°áī¡":4205,"áĪĺáĭĺáĮĪáīł":4206,"Ġáī°áĮ¨áĭĭ":4207,"áĬķáī³":4208,"ĠáĬŃáĬķ":4209,"ĠáĭŃáĪĦáĬķ":4210,"Ġáī°áĪµáĪĽ":4211,"Ġáĭ¨áĬłáĭįáĪ®áįĵ":4212,"áĬĲáĪ³áīµ":4213,"Ġáĭ¨áĪļáĪĺáĪ«":4214,"ĠáĭĿáĮįáĮģ":4215,"Ġáĭ¨áī°áī£áĪī":4216,"ĠáīłáĪĲ":4217,"ĠáĬ¨áĪĭáĭŃ":4218,"áĮĪáĪªáī·":4219,"Ġáī¡áĭµáĬĳ":4220,"ĠáĭįáĪµ":4221,"ĠáĭĺáĮį":4222,"ĠáĬłáĪĪáĪĺáĪĨáĬĳ":4223,"áĬłáĪģáĬķáĪĿ":4224,"Ġáĭ¨áĮĪáī£":4225,"Ġáī½áĪıáĪį":4226,"Ġáī«":4227,"ĠáĬ¨áĪĨáĬĳ":4228,"áĭĿáĬĲáĪµ":4229,"áī¢áīµ":4230,"ĠáĬĲáĮĪáĪ¥":4231,"áĮ¨áĪŃ":4232,"ĠáĪĽáĪ³áĭ«":4233,"áĭķáĪĿáĪ®":4234,"ĠáĪ²áĭ«áĪµ":4235,"ĠáĬ¥áĭ¨áĪĨáĬĲ":4236,"ĠáĬ¥áĬķáĭ°áĪĿ":4237,"áĭ¨áĭįáĬķ":4238,"ĠáĪĨáĬĳ":4239,"áĮ¦áī³":4240,"Ġáī°áĬĲáĪ³":4241,"áĮįáĮįáĪŃ":4242,"áĬ©áĬķ":4243,"áĬŃáīłáĪŃ":4244,"ĠáįĴ":4245,"ĠáĪĺáĪįáĪ¶":4246,"ĠáĪĻáĬ¨áĪ«":4247,"ĠáĪĥáĭŃáĪĽáĬĸ":4248,"ĠáĭŃáĬĸáĪ«áĪį":4249,"áįĦ":4250,"ĠáĪĺáī£":4251,"áĬľ":4252,"áīĢáī½":4253,"ĠáįĢáĪ¨":4254,"11":4255,"Ġáĭ¨áī°áĬ¨áĪ°":4256,"áīµáĬķáĬĵ":4257,"ĠáĬłáĭŃáĪĨáĬķáĪĿ":4258,"ĠáĬłáĪĪáĪĿ":4259,"ĠáĮįáĭĽáīµ":4260,"ĠáĪµáĪĪáĭļáĪħ":4261,"ĠáīłáĬłáī¥áĭĽáĬĽáĭį":4262,"áĬ¥áĬĲ":4263,"ĠáĬ¨áĬłáĬķ":4264,"áĭ°áĪ©":4265,"ĠáīłáĬ¥áĪŃáĮįáĮ¥":4266,"Ġáĭ¨áĪĽáĭµáĪ¨áĮį":4267,"ĠáĬłáĬķáī¥áī¥":4268,"Ġáĭ¨áĬłáĬ«áī£áī¢":4269,"áĬ®áĬķ":4270,"ĠáĪįáĪĽáīµáĬĵ":4271,"áĪªáĪļáĭ¨áĪŃ":4272,"ĠáĪĽáĪ¨áĮĭáĮĪ":4273,"ĠáĭĽáĪ¬áĪĿ":4274,"ĠáĬ¤áĪį":4275,"198":4276,"áĪįáīĥ":4277,"ĠáĬ¨áĭ°":4278,"Ġáī°áĭ°":4279,"ĠáĬłáĪĪáĬķ":4280,"ĠáĪĺáĬĵáĮĪáĪŃ":4281,"áīĨáīµ":4282,"ĠáĪĶ":4283,"ĠáįĪáĪį":4284,"ĠáĪĤáĭ°":4285,"áĮĥáī¸áĭį":4286,"ĠáĬłáĬķáĭ³":4287,"áĭ«áī½áĬķ":4288,"áĮĪáĭ±":4289,"áĭ«áĪµáįĸ":4290,"áĬ¨áĪĪáĬĽ":4291,"ĠáĬŃáī¥":4292,"Ġáī°áĭ°áĪ«áĪ½":4293,"ĠáĪ³áĭŃáĬķáĪµ":4294,"ĠáĭĿáĬĵáī¥":4295,"ĠáīĢáĭŃ":4296,"áĪĿáĪ¨áĭį":4297,"Ġáĭ¨áī°áĪĺáĪ°":4298,"Ġáīłáī°áĪĪáĭ«áĭ¨":4299,"ĠáĬłáĪĽáĪ«":4300,"Ġáĭ¨áĮĪáīłáĭ«":4301,"ĠáĬ¨áīµ":4302,"ĠáĪµáĬĲ":4303,"ĠáīłáīĢáĮ£":4304,"ĠáįķáĪ®áįĮ":4305,"áĪ¬áĭļáĭ³áĬķáī±":4306,"áįįáĪ¬":4307,"áĪĭáī½áĬķáĪĿ":4308,"Ġáĭ¨áįĮáĭ´áĪ«áĪį":4309,"áĭ¨áĪµ":4310,"áĪĽáĭĬ":4311,"ĠáĬłáĬķáĭ°áĬĽ":4312,"áĭŃáĬ¼":4313,"áĬķáī¶":4314,"áĭ¨áīµáĬĽáĭįáĪĿ":4315,"Ġáī£áĪħáĪĭáĭĬ":4316,"áĮĪáĪĪáĮ¸áĭį":4317,"Ġáĭ¨áĪļáĮł":4318,"áĪ¨áĬķáĪ³áĭŃ":4319,"ĠáĬ¥áĭįáĬĲáī°áĬĽ":4320,"ĠáīłáĪ©":4321,"áĭ¨áĪ©áĪ³áĪĮáĪĿ":4322,"Ġáĭ¨áĭ´áĪŀáĬŃáĪ«áĪ²":4323,"ĠáĬłáī¥áĪ¨áĭį":4324,"ĠáīłáĬŃáĪįáĪī":4325,"ĠáĪĺáĭ°":4326,"áĬ©áĪĿ":4327,"ĠáĪłáĪ«áĭĬáīµ":4328,"ĠáĭŃáĪĨáĬĵáĪī":4329,"áĬŃáĪ©":4330,"Ġáĭ¨áĪ²":4331,"ĠáĪĪáĮ¥":4332,"ĠáīłáīµáĬŃáĬŃáĪį":4333,"áĪµáīµáĪ«áĬŃáĪ½áĬķ":4334,"áĪĪáĪĿáĬķ":4335,"áĭĪáĪµáĭµ":4336,"ĠáĪĽáĬħáīłáĪŃ":4337,"áĪįáĮĬáĭľ":4338,"áĭµáĪ®áĪµ":4339,"Ġáĭ¨áĭįáĭµáĭµáĪŃ":4340,"áī£áīµáĪĿ":4341,"áįħáĬ¦":4342,"Ġ[":4343,"ĠáĬ¥áĭ¨áī°áĪ°áĪ«":4344,"Ġáĭ¨áĬłáĪµ":4345,"áī£áĪĽ":4346,"ĠáĪĺáĪ«":4347,"ĠáĪĺáĪĦáĭµ":4348,"áįķáĪ¬áĭļáĭ³áĬķáīµ":4349,"ĠáīłáĪĽáĭŃ":4350,"ĠáĬ¥áĬķáĭ³áĪĭáī¸áĭį":4351,"áįĪáĪįáĮįáĪĿ":4352,"áĮĪáĬĲáĭĺ":4353,"ĠáīĥáĪĭáīµ":4354,"ĠáĪĽáĪ¨":4355,"Ġáī¥áĪŃáĪĥ":4356,"áĬķáī³áĪį":4357,"áĭ®áĪŃáĮĬáĪµ":4358,"ĠáĬłáĪµáī³áĭįáīĭáĪį":4359,"ĠáĮįáĭĻ":4360,"Ġáī¥áĪĶáĪ¨áĪ°áī¦áī½":4361,"áĮĪáĪĽ":4362,"áįģáīµ":4363,"áĪįáī¥":4364,"áĭĽáĪį":4365,"ĠáĪįáī¥áĪµ":4366,"ĠáĪ¥áĪ«áĭįáĬķ":4367,"Ġo":4368,"áīłáīĢ":4369,"ĠáĪĺáĪ¬":4370,"Ġáī¥áĪŃáĪĥáĬķ":4371,"áī¶áī¹áĬķ":4372,"ĠáĭĪáĭ°áĪļ":4373,"áīĥáĭŃ":4374,"ĠáĬłáĭµáĪŃáĮĪáĭĭáĪį":4375,"ĠáĬłáĭĺ":4376,"áīĢáīłáĪį":4377,"Ġáĭ¨áĭ²":4378,"ĠáīłáĬĥ":4379,"áī¢áĪ²":4380,"ĠáīłáĭįáĮŃ":4381,"ĠáĭįáĮ¤áī¶áī½":4382,"Ġáī°áĮłáīĥáĪļáĬĲáīµ":4383,"áįĪáįĢáĪĿ":4384,"áĭµáĮį":4385,"áĮ£áĪĬáĭ«":4386,"áĪŁáĪĭáīµ":4387,"Ġáĭ¨áī°áĭ°áĪ¨áĮĪ":4388,"ĠáĮįáĪŃáĪĽ":4389,"Ġáĭ°áĪ«áĪ²":4390,"áĪĻáĬĵ":4391,"Ġáīłáĭ°áĬķáī¥":4392,"Ġáĭ¨áĪ¸":4393,"ĠáĬłáĪ°áĪįáĮ£áĬĿ":4394,"Ġáĭ¨áįĭáĭŃáĬĵáĬķáĪµ":4395,"ĠáĬłáĪµáīĢáĭµáĪŀ":4396,"Ġáĭ³áĭĬáīµ":4397,"ĠáĬħáī¥áĪ¨áīµ":4398,"áīłáĪ»":4399,"ĠáīłáĪŃáĪµ":4400,"ĠáĪĺáĬĵ":4401,"ĠáĬ¨áĪĮ":4402,"Ġáī°áīĥáĭįáĪŀ":4403,"ĠáĪµáĬ¬áīµ":4404,"ĠáĪĺáĪĿáĮ£":4405,"ĠáĮ¡":4406,"áīĥáĪµ":4407,"ĠáĪĿáĪįáĬŃáīµ":4408,"áĪ¸áĬķ":4409,"áĭŃáī·áĪį":4410,"ĠáĪĺáĪĨáĬĹ":4411,"Ġáĭ¨áĪĽáĬķ":4412,"ĠáīłáĬĭáĪĭáĪĿ":4413,"áīłáĪªáĭ«":4414,"ĠáĮįáĮŃáīµ":4415,"Ġáĭ¨áĪĪáīłáīµáĪĿ":4416,"áĭŁáĪį":4417,"ĠáĮ¥áīĥ":4418,"áī¬":4419,"ĠáĪ°áĬĶ":4420,"ĠáĪ¥áįįáĪ«":4421,"Ġáĭ¨áĪ°áĪĭáĪĿ":4422,"ĠáĮ½áĪķáįĪáīµ":4423,"áī¥áīħ":4424,"áĬ¥áĪ±":4425,"áĪ´áįį":4426,"ĠáĪĮáĪİáī½áĪĿ":4427,"ĠáĬ®áĪĮ":4428,"áĪŃáĬķ":4429,"áīĢáĮłáĪį":4430,"Ġáīłáī¦":4431,"ĠáĭŃáī°":4432,"ĠáĬ¥áĬķáĭ²áĪ°":4433,"ĠáīħáĭµáĪļáĭ«":4434,"ĠáĪµáĪįáĮ£áĬķ":4435,"Ġáĭ¨áĬłáĮĪáĪªáī±áĬķ":4436,"áĪĺáĪµáĪį":4437,"ĠáĪĺáĪĺáĪŃ":4438,"áĪĮáīªáĭ¥áĬķ":4439,"ĠáīłáĭµáĬķ":4440,"áīłáĭĪáīħáī±":4441,"ĠáĬłáĪ³áĪį":4442,"ĠáĮ³áĭįáĪİáĪµ":4443,"áĪĭáī±":4444,"áĭ«áĭĺáĭį":4445,"ĠáĮ½áĪħáįĪáīµ":4446,"ĠáĭĿáĪŃáĭĿáĪŃ":4447,"Ġáī£áĪĪáĪĢáī¥áī¶áī½":4448,"ĠáīłáĬ¢áĬķ":4449,"áĬ¥áĬķáĮįáĭ²áĪħ":4450,"Ġáĭ¨áĪ½áī¥áĪŃ":4451,"áĬ«áĪªáĭİáī½":4452,"áįĵáĪŃáĪĭáĪĽ":4453,"áī£áī½áĪģ":4454,"ĠáĪłáĪ«áī°áĬĽ":4455,"ĠáĬłáĬ«áĪĦáĭµ":4456,"ĠáĬ¥áĬķáĭµáī³":4457,"áĪµáīłáĭį":4458,"ĠáĬ¡":4459,"áĭĽáĪª":4460,"Ġáī£áĪīáīµ":4461,"Ġáĭ«áĪµáī½":4462,"áĮłáĪĽ":4463,"áĮĪáīłáĭį":4464,"áįĪáĬĲ":4465,"ĠáĬ¥áĭ¨áĮ¨áĪĺáĪ¨":4466,"ĠáĬ¥áĬķáĭ°áĪļáĮĪáĬĿ":4467,"ĠáĮīáĭ³áĭ©áĬķ":4468,"ĠáĭĿáīħáī°áĬĽ":4469,"Ġáī³áĭ³áĮĬ":4470,"Ġáĭ¨áĪĺáĪ³áĪ°áĪī":4471,"ĠáĬ¥áĬķáĭ²áĭ«áĮĪáĬĻ":4472,"áĭ°áĮįáĪŀ":4473,"Ġáĭ¨áĬ«áī²áīµ":4474,"áĪ¸áĮ¥":4475,"ĠáĭĪáĭ²áĭ«áĭį":4476,"ĠáīµáĬ¥":4477,"Ġáī½áĪİáī³":4478,"Ġáĭ¨áĪ°áī¥":4479,"Ġáī°áĮ½áĭķáĬĸ":4480,"ĠáĬ¨áĮĬáĭľ":4481,"áĭµáĪ®":4482,"ĠáĪĺáĬķáĪµ":4483,"Ġáīłáĭ³":4484,"áĭľáĬł":4485,"áĬķáī£":4486,"ĠáĬłáĭ²áĪ±":4487,"áĮłáĪ¨áĭį":4488,"Ġáĭ¨áĪļáī³áĭŃ":4489,"áĭĿáĭ³áĬķ":4490,"áĭĸ":4491,"ĠáĪµáĪĻ":4492,"Ġáīłáī¥áĭĽáīµ":4493,"áĮĪáĪĺáīµ":4494,"áĪĺáĬĳ":4495,"ĠáīłáīĥáĪį":4496,"ĠáĪ¥áĪ«áĭİáī½áĬķ":4497,"áĬĲáī³áī½áĬķ":4498,"ĠáĪĿáĪŃáī¶áī½":4499,"áĮĦáĪªáĭ«":4500,"áī°áĬ©":4501,"ĠáĪĺáĪ¨":4502,"ĠáĪĽáĪ°áī¥":4503,"ĠáĬ¥áĭ«áĪ³":4504,"ĠáĪĪáĪĺáĮĢáĪĺáĪªáĭ«":4505,"áīĭáĪ¨áĮ¥":4506,"60":4507,"ĠáĮįáī¥áĪŃáĬĵ":4508,"Ġáĭ¨áĪļáĭ«áĪµáī°":4509,"ĠáĪĺáĮłáīłáīħ":4510,"ĠáĭĪáĬķáĭĿ":4511,"áĭµáĮĪáīµ":4512,"Ġáĭ¨áĪĺáĬķáĮįáĪ¥":4513,"áĪĮáĪĿ":4514,"ĠáĭĿáĪŃáĭ«":4515,"áĭ³áī¸áĭįáĬķ":4516,"ĠáĮįáĬķáī£áĪŃ":4517,"Ġáĭ¨áĪļáī½":4518,"ĠáĪĺáĬ¨áĪĭáĬ¨áĪį":4519,"ĠáĪħáĪį":4520,"ĠáĪĪáĪĺáĪµáĪ«áīµ":4521,"ĠáĬłáĪīáīµ":4522,"ĠáīłáĭįáĪµ":4523,"ĠáĬłáĪµáī°áĭĭáįħáĬ¦":4524,"Ġáĭ°áĪ¨":4525,"áĪ°áīł":4526,"ĠáĪ²áĬĲ":4527,"áī£áī¸áĭįáĪĿ":4528,"Ġáĭ¨áĮ½":4529,"áīłáīħáĪŃ":4530,"ĠáĪĪáī¥":4531,"áĪ«áĬķáĪµáįĸáĪŃáīµ":4532,"ĠáīłáīĢáĪŃ":4533,"ĠáĬ¨áī¤":4534,"áĭ¨áī±":4535,"ĠáĭŃáĮłáīħ":4536,"áĮĩ":4537,"ĠáĪĺáī»":4538,"ĠáĬ¥áĬķáĭ°áĪĨáĬĲáĪĿ":4539,"áĭĪáĪ©":4540,"áĭĪáĪ¨":4541,"ĠáĪĿáĬĵáĪį":4542,"ĠáīłáĮ½":4543,"áĪµáī°áĬ«áĬ¨áĪį":4544,"áĭ¨áĭļáĪħ":4545,"ĠáīłáĪĽáĪħ":4546,"ĠáĪ³áĪĪ":4547,"ĠáĮİáĭ³áĬĵ":4548,"ĠáįĪáĮ½áĪŀ":4549,"áĪĪáĬĿáĪĿ":4550,"áĬĲáĭĭáĪį":4551,"áī£áĪª":4552,"áĪŃáĭ«áīµ":4553,"áĭĬáĭį":4554,"ĠA":4555,"Ġáĭ¨áĬħ":4556,"ĠáįįáĪŃ":4557,"áĪ°áī¥áĪ°áī¥":4558,"áĪ³áīģ":4559,"áĬĴáĬ¬áĪ½áĬķ":4560,"ĠáĬ«áįĴ":4561,"áĮ¥áĮ¥áĪŃ":4562,"áĮĪáī£áī¸áĭį":4563,"áĬ«áĬķ":4564,"áĭ«áĮŃ":4565,"ĠáīµáĭĿ":4566,"áĮįáī¥áįħ":4567,"ĠáĮĦ":4568,"ĠáĬ¥áĪ«":4569,"áĬ¥áĬķáĭ²áĪģáĪĿ":4570,"áĪŃáĬĲáīµ":4571,"ĠáĮįáĪŃ":4572,"ĠáĬªáĪ«áĭŃ":4573,"áī»áī½áĬķáĬķ":4574,"áĮ¥áĪ©":4575,"ĠáĮĪáĬķáĭĺ":4576,"Ġáĭ¨áĪ«áĪ±áĬķ":4577,"áĮ¥áīħ":4578,"ĠáĪ©áĮ«":4579,"ĠáĪĿáĪį":4580,"ĠáĪ¥áĪįáĮ£":4581,"áĪµáįĭáįĭ":4582,"ĠáĭŃáī³áĭ«áĪį":4583,"ĠáīµáĪµáĪµáĪŃ":4584,"áĬ¸áĭį":4585,"ĠáĬłáĪµáĬªáĭ«áĮħ":4586,"áĬŃáĬŃáĪŃ":4587,"ĠáĬ¦áĪĬáĪĿáįĴáĬŃ":4588,"40":4589,"áĭŀáī½":4590,"áĮłáī¥áīħ":4591,"ĠáĬĲáī½":4592,"ĠáīħáĬķ":4593,"ĠáĬĲáĮ»":4594,"Ġáĭ¨áĪ«áĪ±":4595,"Ġs":4596,"áĪıáī¸áĭį":4597,"áĭ«áĪľ":4598,"ĠáĪĿáĬĴáĪįáĬŃ":4599,"ĠáĭŃáĬ¸áĭįáĪĿ":4600,"ĠáĭµáĪŃáīħ":4601,"Ġáīłáī´":4602,"áĬĲáīł":4603,"ĠáĬ¨áī°áĪĪáĭ«áĭ©":4604,"ĠáįĪáĮ£áĪª":4605,"Ġáī¦áĪŃáĭµ":4606,"ĠáįĬáĪį":4607,"Ġáĭ¨áĪļáĭ«áĭ°áĪŃ":4608,"áĪģáįį":4609,"áĪ¬áĭ³":4610,"ĠáĪ³áī¢áĭ«":4611,"ĠáįĪáīĥáĭ°áĬĽ":4612,"ĠáīħáĪŃáĬķáĮ«":4613,"áĭ³áĪľ":4614,"áīĥáī¤":4615,"áįįáī³":4616,"Ġáĭ«áĪįáĪĨáĬĲ":4617,"áīłáĪ¨áĪ°áī¡":4618,"ĠáĬ¨áĪĺáĪĨáĬĳáĪĿ":4619,"áįĪáĮ¸áĪĺ":4620,"ĠáĬŃáįįáī°":4621,"Ġáĭ¨áĪĭáīĢ":4622,"áĪĥáīµ":4623,"ĠáĭŃáĪħáĬķáĬĳ":4624,"Ġáĭ«áĭ°áĪ¨áĮī":4625,"áĭĪáĪ°áĭµ":4626,"áĬķáĮĵ":4627,"ĠáĪįáī¦":4628,"áĬ¥áĬķáĭ²áĭ«áĭįáĪĿ":4629,"áįįáĪ¨áīµ":4630,"ĠáĮĪáĭ¢":4631,"ĠáĪĿáĬĵáĪĿáĬķ":4632,"Ġáī³áĪªáĬ«áĭĬ":4633,"áī£áĬŃ":4634,"ĠáĬ¨áįĬ":4635,"Ġáĭ¨áīģ":4636,"ĠáĬĥáĪĭáįĬáĭİáī½":4637,"ĠáĮłáīħáĪĭáĪĭ":4638,"Ġáĭ°áĪħáĬķáĬĲáīµ":4639,"Ġáī°áĭŃ":4640,"ĠáīłáĪļáĮĪáĬĺáĭį":4641,"Ġáī¥áī¸":4642,"ĠáĭŃáīĨ":4643,"Ġáĭ¨áĪļáĭ«áĭ°áĪŃáĮĪáĭį":4644,"ĠáĪĺáĬ¨áĪĭáĬ¨áĭ«":4645,"ĠáĬłáĭįáĪ®áįĵ":4646,"áĬķáīĢáĪ³áīĢáĪµ":4647,"áĮĪáĪµ":4648,"áĪµáĪį":4649,"ĠáĬłáįĭ":4650,"Ġáī°áīĢáī¥":4651,"áĬ¥áĬĶáĪĿ":4652,"ĠáĬ«áĪįáĪĨáĬĲ":4653,"ĠáĪµáī´áīµ":4654,"Ġáĭ¨áĪļáĭ°áĪ¨áĮį":4655,"ĠáĬ¥áĭįáĬķ":4656,"ĠáĪĺáĭįáĪ°áĭµ":4657,"áĮĭáĭį":4658,"áĮĪáĭĻ":4659,"áĪİáĬķ":4660,"áĬŃáī°áĪ©":4661,"ĠáĬ¥áĭµáĪľ":4662,"ĠáĭĪáĪ°":4663,"áĭİáī»áī¸áĭį":4664,"ĠáīłáĪĿáĭµáĪŃ":4665,"áĭ¥áĪĿ":4666,"áĪĪáĭĪáĮ¥":4667,"ĠáĬłáī¥áĭ®":4668,"áĪģáĪī":4669,"áī¡áī²":4670,"ĠáĬŃáĪŃáĪµáī¶áĪµ":4671,"áĭķáīĨ":4672,"ĠáĪµáĪĪáĪĽáĭŃ":4673,"ĠáĭĪáĮ¥áī¶":4674,"áĬ©áĪ¨áīµ":4675,"áĪ«áīµáĬĵ":4676,"Ġáĭ¨áįįáīµ":4677,"áĭ°áĪ«áĮĢ":4678,"ĠáīłáĪ«áĪ³áī¸áĭį":4679,"ĠáĬ¥áĭįáīħáĬĵ":4680,"ĠáĬ¨áī¥":4681,"áĬĲáīłáĪ¨áīłáīµ":4682,"áīłáīħáĪŃáī¡":4683,"Ġáĭ°áĪ³":4684,"Ġáĭ³áĬķ":4685,"ĠáĪĿáĪ¥áĬŃáĪ®áī½":4686,"áĪŃáĭ³áī³":4687,"áī¥áĪħ":4688,"ĠáĬ¥áĭ«áĭ°áĮĪ":4689,"áī¡áĭµ":4690,"áĮįáĭĽáīµ":4691,"áĪĿáĪĮ":4692,"ĠáĬłáī¥áĪ¨":4693,"áĪĪáĪĽáĪŃáĭ«áĪĿ":4694,"ĠáīłáĪĽáīħáĪ¨áī¥":4695,"ĠáĪĺáĪµáĮł":4696,"áīµáĪĿáĪħáĪŃ":4697,"áĬķáĮĵáĭ´":4698,"ĠáĬŃáī¥áĪ¨":4699,"Ġáī°áĮ«áĭĭáī¾áī½":4700,"Ġáĭ¨áĮĪáī¢":4701,"áĮĢáĪ«":4702,"Ġáĭ¨áĭ°áī¡áī¥":4703,"ĠáĪĽáĪ«áī¶áĬķ":4704,"ĠáĪ½áī¥áĪŃ":4705,"áĬŃáĪ¨áĭį":4706,"áĬĸáĪªáĭ«":4707,"áĬĸáī¹":4708,"ĠáĮĪáįħ":4709,"áįĮáĭ´áĪ¬áĪ½áĬĳ":4710,"áĪĽáĪĺáĬķ":4711,"áī»áĭŃáĬĵ":4712,"áĭ©áĪĿ":4713,"ĠáīłáĪĺáĬ«":4714,"áĬ¥áĬĲáĭļáĪħáĬķ":4715,"ĠáĬłáĪ½":4716,"áĭ¶áĬŃáī°áĪŃ":4717,"áĭĺáĪ¨":4718,"áĪ¨áĮĭáĮĭáīµ":4719,"ĠáĭŃáĪĺáĪµáĪį":4720,"ĠáįĪáĮłáĪ«":4721,"áĮĪáĮį":4722,"áĭĭáĪŃ":4723,"áĭ°áĪ¨áĮĥáĭį":4724,"áĪ«áįĬáĬŃ":4725,"áĭ«áĬĳ":4726,"ĠáĬłáĪ³áĪµ":4727,"ĠáĪ°áĬĲáĭµ":4728,"ĠáĬ©áĬķáī³áĪį":4729,"ĠáĬĶ":4730,"ĠáĬłáĪłáĪ":4731,"ĠáīĨáĭŃáī³":4732,"Ġáĭ¨áīłáĬ©":4733,"Ġáĭ¨áĪĺáĬķáĮĪáĭµ":4734,"áĬĲáĪ½":4735,"áī¿áĬķ":4736,"ĠáīłáĬĲáīłáĪ¨áĭį":4737,"ĠáĭįáĪį":4738,"Ġáī°áĮĪáī¢áĭįáĬķ":4739,"áĬ¨áī³áī°áĪį":4740,"áĮįáīłáĪŃ":4741,"ĠS":4742,"ĠáĪĿáīµ":4743,"áĪ®áįķáĪĭáĬķ":4744,"áĬĵáī±":4745,"ĠáīłáĬłáĪľáĪªáĬ«":4746,"ĠáįĬáĪįáĪĿ":4747,"áĬķáīĢáĪ³áīĢáĪ±":4748,"áī½áĪīáĪĿ":4749,"ĠáĬłáĭµáĪŃáĮĭ":4750,"25":4751,"Ġáī°áĮ¨áī£áĮŃ":4752,"áī¶áī»áī½áĬķ":4753,"ĠáīłáĬłáĮĪáĪ«áī½áĬķ":4754,"ĠáĪĿáĬķáĭĽáĪª":4755,"ĠáĬłáĪµáī³áĭĪáīĢ":4756,"ĠáĪµáī³áĭ²":4757,"áī¥áĪµ":4758,"áĮĭáĬķáĭ³":4759,"áĪĲáĭĬ":4760,"ĠáĬ¨áĬłáĭ²áĪµ":4761,"ĠáĭĺáĪŃáįī":4762,"áĪ¨áĮĭáĮĪáĮł":4763,"áĪĪáĭ¨áīµ":4764,"áĬ¥áĭŃ":4765,"Ġáī£áĪĪáĪ¥áĪįáĮ£áĬķ":4766,"áīłáĬłáĮłáīĥáĪĭáĭŃ":4767,"ĠáĬłáīħáĪŃáī¦":4768,"áĮłáĮ¥":4769,"Ġáĭ«áĪĪáįĪ":4770,"ĠáīłáĬ¥áĮħáĮī":4771,"ĠáĪĪáĪĺáĮĪáĬķáī£áīµ":4772,"Ġáĭ¨áĪĿáĪŃáĪĿáĪŃ":4773,"ĠáĪĥáĭŃáĪĽáĬĸáīµ":4774,"Ġáĭ¨áĬłáĪµáī°":4775,"Ġáī°áĪĺáĪŃ":4776,"ĠáĪĪáĪĽáĭ¨áīµ":4777,"Ġáī°áī°":4778,"áīĢáīµáĬĵ":4779,"áĬ«áĪ¬":4780,"áĭĽáĬķ":4781,"ĠáĪŃáĭķáĪ°":4782,"Ġáĭ¨áĪĺáĪ¬áīµ":4783,"Ġáĭ¨áĭĪáĭ°":4784,"áīħáĬĵáīĦ":4785,"ĠáĪĺáĮĪáĪĪáĮ«":4786,"ĠáĪĽáĪŃáĭ«áĪĿ":4787,"Ġáī£áĪµ":4788,"Ġáīħáĭ±áĪµáĬķ":4789,"ĠáĬłáĪĪáīĥ":4790,"áĭĭáĪª":4791,"áĭķáĪį":4792,"Ġáĭ¨áĪļáĪ°áĪ«":4793,"ĠáĮįáī¢":4794,"áĬĵáīµáĬĵ":4795,"áĪĿáĪĿ":4796,"Ġáĭ¨áĬłáĪĿáĪĭáĬŃáĬķ":4797,"ĠáĭĪáĭŃáĪµ":4798,"ĠáĮ¥áĬķáīĥáīĦ":4799,"áĪ³áĭ°áĪŃ":4800,"ĠáĪħáī¥áĪ¨áīµ":4801,"ĠáĪĥáī¥áīµ":4802,"áĭ©áĬĴáī¨áĪŃáĪ²áī²áĭį":4803,"ĠáĪĺáĪ¨áĭ³áīµ":4804,"áĮ½áĬĵ":4805,"ĠáĮįáĪĪáĪ°áī¥":4806,"ĠáĬŃáīµáīµáĪį":4807,"áĭĭáĪĪáĬķ":4808,"áĮ¨áĪĿáĪŃ":4809,"ĠáīłáĬłáĪĿáĪĭáĬŃ":4810,"áĪ°áĬĵ":4811,"áĬ¡":4812,"áĮ¨áīł":4813,"áīłáĬķ":4814,"áĪŃáĬĽ":4815,"ĠáĮĪáĭ°áĪĽ":4816,"áĪĻáĪĿ":4817,"áĪ¨áĪĿáīµ":4818,"ĠáĪ³áĬķ":4819,"ĠáĪĺáĮĭáī¢áīµ":4820,"Ġáĭ°áĬ«":4821,"ĠáĭŃáĬ¸áĭį":4822,"ĠáĪĺáĮ»áĪķáįįáīµ":4823,"Ġáĭ¨áĪļáĮĪáī£áĭį":4824,"ĠáĪ²áī³áĭŃ":4825,"áĭĪáĭ³":4826,"áī¦áī¹":4827,"ĠáĬ¥áĪ±áĪĿ":4828,"áĬłáīµáĪŃ":4829,"áī³áĭįáĬķ":4830,"ĠáĪ°áī¥áĪ³áī¢áĬĲáīµ":4831,"Ġáī°áĭĺáĮĭáĮħ":4832,"ĠáīµáĬĵ":4833,"Ġáĭ¨áĪ´áī¶áī½":4834,"Ġáĭ«áĪĺ":4835,"ĠáįįáĪįáĪµ":4836,"ĠáĭµáĬķáĮĭáĭŃ":4837,"Ġáĭ°áĪ³áĪĪáĬĿ":4838,"áįĭáĪµ":4839,"tion":4840,"ĠáĬłáĭ°áĪ¨áĮĪ":4841,"Ġáī°áĪ«áĪ«":4842,"ĠáīłáĪ°áĪĭáĪĿ":4843,"Ġáī£áĪķáĪŃ":4844,"áĭ¨áĬłáĭ²áĪµ":4845,"áĮ»áĪľ":4846,"ĠáĪĺáīĥ":4847,"Ġáīµáī¥áī¥áĪŃ":4848,"ĠáĬŃáĪħ":4849,"ĠáĬ¥áĬĶáĬķ":4850,"Ġáĭ¨áī°áĪ°áĮłáĭį":4851,"Ġ,":4852,"áĪłáĪ«áĭį":4853,"ĽáĪ«":4854,"ĠáĪĺáĪĿáĪħáĪŃ":4855,"áĬķáīłáīµ":4856,"at":4857,"ĠáĮīáī¥áĬĿ":4858,"Ġáī°áĬ«":4859,"ĠáĮ¥áĪįáīħ":4860,"ĠáīĢáĮ¥áĪİ":4861,"Ġáĭ«áĭ°áĪ¨áĮīáīµ":4862,"ĠáĬłáĮ£":4863,"áĬłáī£":4864,"ĠáĬłáĭŃáĮĪáī£áĪĿ":4865,"áĭĲ":4866,"ĠáĬłáĭ³áĪ«áĪ½":4867,"áĭĪáĭĿ":4868,"ĠáĪĿáĬķáĭµáĬĲáĭį":4869,"Ġáĭ¨áī°áīĭáīĭ":4870,"ĠáĭĺáĮłáĬĿ":4871,"Ġáĭ¨áĮĪáĪĪ":4872,"áĮĢáĪĺáĪŃáĭ«":4873,"áįĮáĭ°":4874,"áĭķáīĨáī¥":4875,"ĠáĬ¥áĪŃáĪ»":4876,"áĮĪáĭ³":4877,"Ġáī¥áĭĻáĬĥáĬķ":4878,"áĮĪáĬĵáĬĿ":4879,"ĠáĬłáĭŃáī³":4880,"áĪ¨áĮĭáĮĭ":4881,"áīĨáĪµ":4882,"2007":4883,"ĠáĬ¤áĬŃáĪµ":4884,"Ġáīµáī½áĪĭáĪĪáĪħ":4885,"Ġáĭ¨áĭ¨":4886,"ĠáĭŃáĮĪáĪįáĮ»áĪį":4887,"Ġáĭ¨áī°áĮ£":4888,"Ġáĭ¨áĪĿáĪŃ":4889,"Ġáī¶áĪİ":4890,"ĠáīłáĪļáĭ«áĪµ":4891,"ĠáĪĽáĪ³áĭ°áĮį":4892,"Ġáĭ¨áĪļáĪ°áĮ¡":4893,"áī³áĭĪáīģ":4894,"Ġáī°áĭį":4895,"ĠáĬ¥áĬķáĭ²áĭ«áĪµ":4896,"ĠáĮĢáĪĺáĪ©":4897,"ĠáĬ¥áĬķáĭ°áĪĿáĬķ":4898,"áĪĭáĪĭáīħ":4899,"§áĪ¨":4900,"Ġáĭ¨áī°áĪĪáĭ«áĭ¨":4901,"Ġáĭ°áīĢ":4902,"ĠáĮ¸áĪĲáįĬ":4903,"ĠáĪ°áĪĽáĭŃ":4904,"ĠáĭĪáĬķáĭµáĪŀáī½":4905,"ĠáĮłáī£áīĤ":4906,"ĠáĪĺáĮįáī£áīµ":4907,"áĭĽáī¸áĭį":4908,"áįĵáĬķ":4909,"ĠáīłáĭĭáĬĵáĬĲáīµ":4910,"Ġáĭ¨áĪ©":4911,"ĠáĮ¥áĪ¨":4912,"Ġáĭ¨áĬ¥áĬĶ":4913,"Ġáī»áĭŃáĬĵ":4914,"áĭ°áĪĺ":4915,"ĠáĪĺáĬ®":4916,"ĠáĪĪáĪį":4917,"Ġáĭ¨áī°áĮĪáĬĺáĭį":4918,"áĭµáĪį":4919,"Ġáī³áĭĭáīĤ":4920,"áĬĲáĬ«":4921,"Ġáĭ°áĪŃáĪ¶":4922,"Ġ0":4923,"ĠáīħáĭµáĪĺ":4924,"ĠáĪĿáĬŀ":4925,"áĭ°áįį":4926,"ĠáĬ¥áĭ¨áīĢ":4927,"áī£áĭį":4928,"ĠáīłáĪķáĭŃáĭĪáīµ":4929,"Ġáĭ¨áĪļáįĪáĪįáĮī":4930,"áĬ¨áī°áĪī":4931,"áĪĪáĪĪ":4932,"ĠáĪĪáĪĽáĪ³áĬ«áīµ":4933,"ĠáĪĽáĪ¨áĮĭáĮĪáĮ¥":4934,"áīĤáīħ":4935,"Ġáĭ¨áįĸáĪĬ":4936,"ĠáĬłáĭ°áĪ«":4937,"ĠáĪµáĬ¬áī³áĪĽ":4938,"ĠáĪĪáĭ«áĪħáĭĮ":4939,"ĠáĪķáĮĭáĭĬ":4940,"áĪ¦":4941,"áĬŃáĪŃáĪµáī²":4942,"áĬ¥áĪµáĬ¨":4943,"áĪ°áĪĽáĭį":4944,"Ġáĭ¨áĪļáĪ¸":4945,"ĠáĬ¥áĪį":4946,"ĠáīłáĪļáĮĪáĬĻ":4947,"áī£áĪĪáįīáīµ":4948,"ĠáĮ¢":4949,"Ġáĭ¨áĪļáĮĪáī¡":4950,"ĠáĬłáĭµáĪĽ":4951,"Ġáĭ¨áī£áĪħáĪį":4952,"áĭ«áĬĶ":4953,"Ġáĭ«áĪµáī³áĭį":4954,"áī¡áĭµáĬķ":4955,"ĠáĪķáĬķáįĥ":4956,"Ġáĭ«áĭĪ":4957,"ĠáīłáĪĺáįįáĮłáĪŃ":4958,"ĠáĮĨáĪ®":4959,"áī³áĬĿ":4960,"ĠáĪµáĮ¦áī³":4961,"ĠáĪĪáĪĺáĪ¥áĪ«áīµ":4962,"ĠáĬłáĭµáĬĵ":4963,"áĮīáĭ³áĭ©":4964,"ĠáĬ¥áĬķáĭ²áīĢ":4965,"áĪ¬áĭ³áĭĭ":4966,"Ġáī°áĪµáįĭáĭ¬":4967,"ĠáĪĺáīĢáĮłáĪį":4968,"Ġáĭ¨áĪĥáĭŃáĪĽáĬĸáīµ":4969,"áĮłáĬĳ":4970,"ĠáĬ¥áĭ¨áĪłáĪ«":4971,"ĠáĮłáĪŃ":4972,"áīłáĭĵ":4973,"ĠáĬ¤áĪŃ":4974,"áĮłáĬķáīĢ":4975,"áĬłáĬķáĭ±":4976,"áĪµáĬŃ":4977,"ĠáīłáĮŃ":4978,"ĠáĪ³áīµ":4979,"áĪĽáĪĽ":4980,"ĠáĬ¥áĬķáĮįáĭ³":4981,"ĠáĪįáī³":4982,"ĠáĪĽáĪ¨áĮĭáĮĪáĮ«":4983,"áī£áĬķ":4984,"ĠáĮłáīĢáĪľáī³":4985,"ĠáĮįáĭĻáįį":4986,"ĠáĬ¨áĪ«":4987,"áįįáĪį":4988,"ĠáĪĿáĭµ":4989,"Ġáĭ¨áī°áĭĪ":4990,"ĠáĭįáĪµáĮ¥áĪĿ":4991,"ĠáĪĪáĪĺáī³":4992,"ĠâĢĭ":4993,"áĮłáīłáīģ":4994,"ĠáĬłáĪ¥áĪŃ":4995,"áĬ¨áīµáĬĵ":4996,"ĠáĬłáĪµáĪŃ":4997,"ĠáĪµáĪĿáĪĿ":4998,"ĠáĪĺáĮĭ":4999,"ĠáĪĪáĪĽáĪµáī°":5000,"ĠáĬłáĪįáī»áĪĪáĪĿ":5001,"ĠáĪĺáĭ«áĭĿ":5002,"áĪĽáī½áĬķ":5003,"ĠáĪĿáĪŃáī³áĪĽ":5004,"Ġáĭ¨áī°áĮĢáĪĺáĪ¨áĭį":5005,"ĠáĭŃáīĢáĮ¥":5006,"áĭįáĬķáĬĵ":5007,"ĠáĪģáĪįáĮĬáĭľ":5008,"Ġáĭ¨áĬ¢áīµáĭ®áĮµáĭ«áĬķ":5009,"ĠáĪĺáīĢáĪĺ":5010,"ĠáĪĽáī³":5011,"ĠáĪµáĬķáīµ":5012,"ĠáĪĪáĪĽáīħáĪ¨áī¥":5013,"áīªáĪį":5014,"ĠáĬĲáĮį":5015,"Ġáĭ¨áĪģáĪĪ":5016,"ĠáįĭáĭŃáĭ³":5017,"Ġáī°áĪ°áĮ¥áī¶":5018,"áĪĭáī¸áĭįáĪĿ":5019,"ĠáĬłáī£áī£áĪį":5020,"áĬĵáĮĪáĪ¨":5021,"áĪ¨áī¤áīµ":5022,"ĠáĪĺáĭ°áīłáĬĽ":5023,"ĠáīłáĪĽáĪµáī°":5024,"Ġáĭ«áĮĭ":5025,"ĠáĪµáĭ«áĪľ":5026,"ĠáĬķáī¥áĪ¨":5027,"ĠáĪ¥áĪŃáĭĵáī±":5028,"ĠáīħáĮ£áīµ":5029,"ħáĮī":5030,"áĪįáĬ®":5031,"Ġáĭ¨áĪļáĮĪáĬĺáĭįáĬķ":5032,"ĠáĭĪáĬķáĭµáĪĿ":5033,"áĮĪáĬĲáī¡":5034,"ĠáĬłáī¥áĭĽáĬŀáī¹":5035,"Ġ35":5036,"Ġáĭ¨áĪĻáĭ«":5037,"áĪªáī±":5038,"áįĬáĭį":5039,"Ġáĭ¨áĪļáĭ°áĪ¨áĮĪáĭį":5040,"áīĨáī½":5041,"Ġáĭ°áĪŃáĪ·áĪį":5042,"Ġáĭ¨áĪĻáĭļáīĥ":5043,"ĠáīłáĮįáĬķ":5044,"ĠáĬ«áĪĭ":5045,"Ġáĭ«áĪĪáī£áī¸áĭį":5046,"ĠáĭŃáĮĪáĬĻ":5047,"ĠáĬ¥áĪµáī²":5048,"Ġáī°áĪ½áĬ¨áĪŃ":5049,"ĠáĪĪáĪĽáĬķ":5050,"Ġáĭ¨áĪĽáĪµáī°":5051,"ĠáĪĪáĪĽáĪµáĭĪáĮĪáĭµ":5052,"Ġthe":5053,"ĠáīµáĬĵáĬķáīµ":5054,"áĬ¤áĬł":5055,"ĠáĬ¥áĬķáĭµáĬĵ":5056,"ĠáĬ¥áĬķáĪµáĪ³áīµ":5057,"ĠáĭŃáĮłáĭŃáīĥáĪį":5058,"ĠáĪĥáĭ«":5059,"ĠáĪĺáĬķáĭ°áĪŃ":5060,"Ġc":5061,"Ġáĭ¨áĪļáĬĵáĮĪáĪ©áīµ":5062,"áĬ«áĪŃ":5063,"áĪģáĪĪáī±":5064,"áĪĿáī¤":5065,"Ġáĭ¨áĪļáĮłáīĢ":5066,"áĮĮáī³":5067,"Ġáĭ¨áī°áĭĪáĪ°áĬĲ":5068,"ĠáĬłáĮĪáĬĺ":5069,"ĠáĪĿáĪħ":5070,"áĬłáĪŃ":5071,"áĮłáĪ®":5072,"ĠáĬ¥áĮĪáĭĽ":5073,"Ġáĭ¨áī³áĪªáĬŃ":5074,"ĠáĬłáĪĿáĪĭáĬŃáĬķ":5075,"ĠáĪ°áĪĭáĪĿáĬĵ":5076,"ĠC":5077,"ĠáĬ¥áĬķáĭ²áĬĸáĪŃ":5078,"áīħáĪ¨áįį":5079,"áįĪáĮ¸áĪĻ":5080,"ĠáĪĺáĬĸáĪ©áĬķ":5081,"ĠáĬĲáĪħ":5082,"áīĥáĪĪáĪģ":5083,"ĠáĪĿáĪģáĪ«áĬķ":5084,"ĠáĬ¨áĮİ":5085,"Ġáĭ²áĮįáĪª":5086,"ĠáĬłáįĪáĮ»áĮ¸áĪĿ":5087,"áĬĵáīµáĬķ":5088,"Ġáī°áĪĪáĭŃ":5089,"ĠáĬłáĪµáīĢáĪĿ":5090,"ĠáĮĪáīł":5091,"áī¸áīµ":5092,"Ġáī°áįĪáĮ¥":5093,"áĭŃáĭĿ":5094,"ĠáĪ¨áĮħáĪĿ":5095,"áįĪáĪĪáĮī":5096,"áĬ«áī¤":5097,"áĪ¬áĪ½":5098,"ĠáīłáĬ¥áĬĲáĭļáĪħ":5099,"Ġáĭ¨áĭķáĭµáĮĪáīµáĬĵ":5100,"ĠáĬ®áĪŃáįĸ":5101,"Ġáĭ¨áī°áĭ°áĪ¨áĮĪáĭį":5102,"ĠáīµáĮį":5103,"ĠáĬ¨áĬķ":5104,"áī¶áī½áĪĿ":5105,"áĭĪáĪ°áĬĳ":5106,"ĠáĪĽáĪ³áĭ¨áīµ":5107,"ĠáĪģáĪĪáī°áĬĽáĭį":5108,"áĪ»áĪ»áĭ«":5109,"áĭ°áĭĭáĪį":5110,"ĠáĪĺáįĪ":5111,"Ġáĭ¨áĬłáĪį":5112,"áīłáĪ¨áī³áī½":5113,"ĠáīłáĪĿáĪŃáĮ«":5114,"Ġáĭ¨áĮ¸":5115,"áĪĽáĪĽáĬĿ":5116,"ĠáĪĲáĬª":5117,"ĠáĪ°áĭĵ":5118,"ĠáĪĥáĭŃáĪį":5119,"áĭ¨áĪķ":5120,"ĠáīłáĪļáĪĺáĪĪáĬ¨áīµ":5121,"ĠáĮłáīħáĪ°áĭĭáĪį":5122,"Ġáĭ«áĪµáĪ¨áĭ³áĪī":5123,"Ġáĭ¨áĮĢáĪĺáĪ¨áĭį":5124,"áĪĪáĮ¥":5125,"áĬłáĭ«":5126,"Ġáĭ¨áĪļáĭ«áĪµáī½áĪī":5127,"áĪĮáĬķ":5128,"ĠáĭĪáĪĭáĮĨáī½":5129,"Ġáĭ¨áĬ¥áĬĽ":5130,"ĠáīłáĪĨáĬĲáĭį":5131,"ĠáĪĽáĬķáĬĲáīµ":5132,"Ġáĭ¨áįĪáĮłáĪ«":5133,"ĠáĬ¢áĬķáĮĤ":5134,"ĠáĭĪáĪ¨áĭ³áĭİáī½":5135,"Ġáī°áĪįáĭķ":5136,"áĪ¨áįįáīµ":5137,"áĭ¨áĪĻ":5138,"Ġáĭ«áĪĭáīµ":5139,"áĭĺáĭĿ":5140,"áĭĪáĪį":5141,"Ġáī¥áīħ":5142,"Ġáī£áĭ°áĪ¨áĮīáīµ":5143,"áĬķáĪµáī²áīµ":5144,"Ġof":5145,"Ġáĭ¨áī°áĮĪáĬĺ":5146,"áĪ¶áī½áĬķ":5147,"ĠáĪ²áĪĺáĮ£":5148,"ĠáīłáĭĪáĬķ":5149,"áįĪáĪįáĮĪáĭįáĬķ":5150,"ĠáīłáĪĺáĮĢáĪĺáĪªáĭ«":5151,"ĠáĪĽáĮ¥":5152,"ĠáĪĪáĪĽáĪĿáĮ£áīµ":5153,"ĠáĪĪáĬłáĮĪáĪŃ":5154,"ĠáĬ¥áĬķáĭ°áī°áĬĵáĮĪáĪ©áīµ":5155,"ĠáĪħáĭ³áĪ´":5156,"Ġáĭ¨áĭµáĪŃ":5157,"áĮİáīµ":5158,"Ġáĭ«áĪįáĪĨáĬĳ":5159,"Ġáĭ¨áĪĺáĮ£áĭį":5160,"áīłáĭįáĬķ":5161,"Ġáī¥áĪĪáĪħ":5162,"áĬĸáĪµ":5163,"áĬķáĭµáĪ®áĭį":5164,"ĠáĭµáĪŃáĮħáī±":5165,"ĠáĬ¥áĬķáĭ°áĪļáī½áĪī":5166,"áĬķáĪµáĬĵ":5167,"ĠáĮ¥áįĭ":5168,"áĮĵáĭĻ":5169,"Ġáĭ¨áĭĭáĮĭ":5170,"áĪĭáĮŃ":5171,"áī¶áī»áī¸áĭį":5172,"ĠáĪĺáĮ¥áī·áĪį":5173,"áĭŃáĪģáĭ³":5174,"áī¸áĬ³áĭŃ":5175,"Ġáĭ¨áĪļáĮłáīłáīħ":5176,"áĭĭáĪĭ":5177,"áĪĭáĪĪáĪģ":5178,"Ġáĭ¨áĮ£":5179,"áĪļáĭİáī½":5180,"ĠáĬłáĭµáĪŃáĮĪ":5181,"áĪģáĪĪáī°áĬĽáĭį":5182,"ĠáĮĬáĭ®áĪŃáĮĬáĪµ":5183,"áįĭáĭį":5184,"Ġáĭ¨áĮįáĬķáī£áī³":5185,"áī¥áĪŃáĪĥáĪĿ":5186,"ĠáĭŃáĪ»":5187,"áĬĿáĬķ":5188,"Ġáĭ¨áĪħáĭ³áĪ´":5189,"áĭ°áīłáīµ":5190,"Ġáĭ°áĪ¨áĪ°":5191,"ĠáĭµáĬķáĮĪáīµ":5192,"ĠáĪĺáĭĿáĪĻáĪŃ":5193,"áĭ«áĪµáįĸáĪ«":5194,"ĠáĬ¥áĪ·":5195,"áĪĺáĬĽ":5196,"ĠáĪĺáĬķáĪµáĬ¤":5197,"it":5198,"áĬ©áī£áĬķáĭ«":5199,"ĠáĬ«áĪµ":5200,"áĪĪáĭįáĮ¥":5201,"áĬĲáĮĭáĮį":5202,"áĪµáįĭáįĭáīµ":5203,"ĠáĪĺáĪįáĭķáĬŃáīµ":5204,"áĮłáįī":5205,"áĮ¨áĭį":5206,"ĠáīģáĪįáįį":5207,"áĪªáĭ«áĭį":5208,"Ġáī³áĪĭáīģ":5209,"Ġáĭ¨áĬłáĪŃ":5210,"ĠáĪĺáī¥áī¶áī½":5211,"áĭįáīĢáīµ":5212,"áĪĿáĮ£":5213,"ĠáĪĪáĪĺáĪĺáĪĪáĪµ":5214,"ĠáīłáĪĨáĬĳ":5215,"ĠáīłáĪ«áĪµ":5216,"Ġáįįáīĥ":5217,"ĠáĪ°áī¥áĭĵáĭĬ":5218,"áĬĽáĭįáĬķáĪĿ":5219,"ĠáīłáĪĺáĮ¥":5220,"áī»áī½áĪģ":5221,"Ġáĭ¨áĬłáĮĪáĪįáĮįáĪİáīµ":5222,"ic":5223,"áĭ²áĬĵ":5224,"Ġáĭ¨áĪħáĮį":5225,"áĬĴáī¨áĪŃáĪµáī²":5226,"ĠT":5227,"áĬĲáīĥ":5228,"Ġáī£áĪħáĪª":5229,"áĪģáĪĪáī°áĬĽ":5230,"ĠáĭŃáĭ°":5231,"ĠáīłáĪĺáĬķáįĪ":5232,"ĠáĬłáĪĬáĭ«áĪĿ":5233,"ĠáĪ¾":5234,"ĠáĬłáĬķáĭ·":5235,"ĠáĬ¥áĮįáĭļáĬłáī¥áĪĶáĪŃ":5236,"Ġáī°áįĭ":5237,"ĠáĮĪáĭ¥":5238,"Ġ31":5239,"áĬķáĮīáĪ¡":5240,"ĠáĪĺáĪ°áĪ¨áī³áĭĬ":5241,"áī°áĪ¨":5242,"Ġáī¤áī±áĬķ":5243,"áĪºáĪħ":5244,"áī¸áĮį":5245,"ĠáĮįáĮ¥":5246,"áįĭáĪŃ":5247,"ĠáīłáĬłáĮŃáĪŃ":5248,"áĪĬáĭĿáĪĿ":5249,"áĭķáĭµ":5250,"ĠáĬ¥áĬĽáĪĿ":5251,"áįĲáī¥":5252,"áĪĺáĬĵáĪį":5253,"ĠáĪĺáĮ¥áī¶":5254,"ĠáīłáĬłáĬķáĭ³áĬķáĭµ":5255,"Ġáĭ¨áĪĦ":5256,"áĪīáĬĵ":5257,"Ġáĭ°áĮįáĪŀáĪĿ":5258,"ĠáīµáĪŃáįį":5259,"ĠáĬ¨áĭµ":5260,"ĠáĬłáĪĭáĭį":5261,"ĠáĬ¥áĭ«áĬķáĭ³áĬķáĭ±":5262,"Ġáī¥áīĥ":5263,"áĪĺáĪįáĪµ":5264,"ĠáĪµáĭ°áī°áĬŀáī½":5265,"ĠáĮįáĮŃ":5266,"áĮĬáĭľáĪĿ":5267,"Ġáĭ¨áĪļáĪĨáĬĳáīµ":5268,"ĠáĪ½áĮįáĮįáĪŃ":5269,"áĬ¨áĪ°áī±":5270,"ĠáĬłáĭ¨":5271,"áīłáī£":5272,"ĠáĪĪáĪĿáĪ³áĪĮ":5273,"áĪ¨áĮ¡":5274,"áĪłáĪŃ":5275,"ĠáĪĺáĮįáī¢áĭ«":5276,"Ġáĭ¨áĪ¨":5277,"ĠáĬ¨áĪ¥":5278,"Ġáīłáĭ¨áĭ°áĪ¨áĮĥáĭį":5279,"áĮįáĪ«áī¸áĭį":5280,"Ġáĭ¨áī°áĪĪáĪĺáĭ°":5281,"Ġáī£áĪĪáīłáīµ":5282,"ĠáĬ¨áĬ¥áĬĲáĭļáĪħ":5283,"ĠáīĢáĭįáĪµ":5284,"Ġáī¥áĭĻáĭİáī½":5285,"ĠáīĨáĪŃ":5286,"ĠáĬ¦áī£áĪĽ":5287,"ĠáĬ¥áĪ³áīµ":5288,"áīłáĪ®":5289,"ĠáīłáĪĺáĬķáĮįáĪµáīµ":5290,"áīĢáĮ¥áĪĪáĭį":5291,"Ġáĭ¨áĪ«áĪ³áī¸áĭįáĬķ":5292,"ĠáĪ°áĪ«áī°áĬŀáī½":5293,"ĠáĬ«áĪĭáī¸áĭį":5294,"áĪĪáĬĽ":5295,"ĠáĬłáĭ°áĪ¨":5296,"ĠáĮ£áĪįáīĥ":5297,"Ġáī°áĪ»":5298,"ĠáĪĺáĪįáĬ¥áĬŃáīµ":5299,"Ġáĭ¨áĭ°áĪĿ":5300,"Ġáĭ¨áĮĭ":5301,"ĠáīłáĪĺáĮ¨áĪ¨áĪ»":5302,"áīĭáĬķáīĭ":5303,"ĠáĬłáĬķáīº":5304,"ĠáĮ´áĮ¥áĪ®áĪµ":5305,"Ġáĭ°áĪŀ":5306,"áįķáĪİáĪĽáĪ²":5307,"áĬĲáĬķ":5308,"ĠáĪĺáĭµáĪ¨áĬ®áī½":5309,"Ġáī°áĮłáĪŃ":5310,"ĠáĪĪáī³":5311,"ĠáĮĭáĭľáĮłáĬĽ":5312,"Ġáī°áĪĺáĪįáĬ¨áīµ":5313,"ĠáĬ¨áĭĵáĪĪáĪĿ":5314,"Ġáĭ«áĭĺ":5315,"ĠáĭįáĪµáĬķ":5316,"ĠáĮįáĪĽáĪ½":5317,"ĠáīµáĪį":5318,"ĠáīłáīłáĬ©áĪī":5319,"ĠáįķáĪ¬áĭĿáĭ³áĬķ":5320,"Ġáĭ¨áĪĺáĮ¡":5321,"Ġáī°áĪĿ":5322,"ĠáĭµáĪĿáĮ½":5323,"ĠáĬ¥áĭ«áĬķáĭ³áĬķ":5324,"áĭĭáĭķáīµ":5325,"Ġáīłáī£áĪĪ":5326,"áī£áīłáĪ©áīµ":5327,"ĠáįįáĪĪáĮĭ":5328,"Ġáī°áĮłáĬĵáĬŃáĪ®":5329,"Ġáĭ°áĬ«áĪĽ":5330,"áīłáĭĿ":5331,"ĠáĪĽáĮįáĬĺ":5332,"ĠáĪķáĭĿ":5333,"áįįáĪŃáĭµ":5334,"ĠáĬłáĪ°áįĭ":5335,"Ġáĭ¨áĬĥáĭŃáĪį":5336,"Ġáī°áĬĲáĪµáī¶":5337,"ĠáīĢáĪĪáĪĿ":5338,"ĠáĬ¢áĬķáī¨áĪµáīµ":5339,"ĠáĪĪáĪģáĪĪáīµ":5340,"áīĢáĬĳ":5341,"ĠáīĢáĪµ":5342,"ĠáĭĪáĬķáĮĢ":5343,"ĠáĪ½áįĭáĬķ":5344,"áīµáĪĮáī²áĬŃáĪµ":5345,"áī°áĪħ":5346,"ĠáįķáĪ®áįĮáĪ°áĪŃ":5347,"áīłáĪĺáĮ¨áĪ¨áĪ»":5348,"Ġáĭ«áĭĪáĮ£":5349,"Ġw":5350,"ĠáĬłáĪ°áĮ£áĮ¥":5351,"Ġáĭ«áĭ°áĪŃáĮĭáĪī":5352,"ĠáīłáįĢ":5353,"áīħáĪį":5354,"áīłáĭļáĪģ":5355,"áī¤áĬķ":5356,"Ġáĭ¨áī´áĬŃáĬĸáĪİáĮĤ":5357,"Ġáĭ¨áĮĪáī¡":5358,"ĠáĬłáī¤áī±":5359,"Ġáī°áĮĪ":5360,"ĠáĪĪáīµ":5361,"áĬ³áī¸áĭį":5362,"Ġáĭ¨áĬĶ":5363,"áĪµáĪĬ":5364,"áĭ¨áĪį":5365,"ĠáĪĪáĪĺáīĢáĬĲáĪµ":5366,"áĭŃáĭŃáīµ":5367,"ĠáĬ¥áĬķáĭ°áĭļáĪħ":5368,"ĠáĪįáĮĦ":5369,"ĠáĪ³áĭŃáīĢáĪŃ":5370,"ĠáīłáĪĺáī°áī£áīłáĪŃ":5371,"ĠáĪ¦áĪµáī°áĬĽ":5372,"Ġáĭ¨áĬ¨":5373,"áĭµáĭĭ":5374,"ĠáĭŃáĮ¨":5375,"áĪĥáĭµáĪ¶":5376,"ĠáĬķáīħáĬĵáīĦ":5377,"áĭĪáĪŃáīħ":5378,"ĠáīłáĭĵáĪĺáīµ":5379,"áĮĪáĪĪáĮįáĪį":5380,"Ġáī°áĭĪáĪµ":5381,"áĪĦáĪ«áĭĬ":5382,"Ġáĭ¨áĬ¥áĪµáĪ«áĬ¤áĪį":5383,"Ġáĭ¨áīłáĪĭáĭŃáĬĲáīµ":5384,"ĠáĭµáĬķáĮĭáĮĮ":5385,"Ġáĭ¨áĬ¨áįĭ":5386,"áĮ£áī¸áĭįáĬķ":5387,"Ġ100":5388,"ĠáĬłáĪ³áĪ³áī¢":5389,"ĠáīłáĪĺáĪĭáĭį":5390,"Ġáī£áĬķáĬ®áī½":5391,"Ġáĭ¨áī°áĪĪ":5392,"áĬ©áīłáīµ":5393,"áĮłáĪ«áĭį":5394,"ĠáĭĽáįį":5395,"áīĢáĭįáĬķ":5396,"áĪ³áī½áĪģ":5397,"áĮ¦áīµ":5398,"áĬĵáĭįáĭ«áĬķ":5399,"Ġáĭ¨áĪĮáĪĭáī¸áĭį":5400,"Ġáī°áĬ¨áī³áī³áĭŃ":5401,"áĭĺáĬĲáĮĭ":5402,"ĠáĪįáĬĵ":5403,"áīĭáĪĻ":5404,"ĠáīłáĭµáĪŃ":5405,"áīłáĭļáĭ«":5406,"ĠáĬĲáĮĪáĪ©":5407,"áĭ°áĪŃáĮīáīµ":5408,"Ġáĭ¨áĪĿáĬķáī½áĪĪáĭį":5409,"áĭĪáīģ":5410,"áįĭáī¥áĪªáĬ«":5411,"áĪµáĪĽáĪĽ":5412,"Ġáī¤áī°áĪ°áī¦áī½":5413,"ĠáĬĥáĭŃáĪĪáĪĽáĪŃáĭ«áĪĿ":5414,"Ġáĭ¨áĭ°áĬķ":5415,"áĪ³áī½áĬķáĬķ":5416,"ĠáīłáĬłáĪĺ":5417,"áĭ°áĪ«áĮĢáīµ":5418,"Ġáī±áĪªáĭĿáĪĿ":5419,"ĠáĪµáĪĭáĪĪ":5420,"áĪĺáĪĪáĬ¨áī±áīµ":5421,"ĠáĬ¥áĬķáĭ³áīµ":5422,"ĠáĭĿáĭįáĭį":5423,"áĪĺáĪįáĬ¨":5424,"ĠáĬłáĪĺáĪįáĬŃáī·áĪį":5425,"ĠáĪļáĪĬ":5426,"Ġp":5427,"áī¢áĭ«áĭį":5428,"áįįáĪŃ":5429,"Ġáĭ²áĪŀáĬŃáĪ«áĪ²":5430,"Ġáĭ¨áĮİáĪĭ":5431,"ĠáĬłáĭŃáĪĺáĪµáĪĪáĬĿáĪĿ":5432,"áīłáĪħ":5433,"Ġ32":5434,"áĪµáī¶áī½":5435,"ĠáĪ°áĮ¥áī·áĪį":5436,"ĠáĪ°áĮ¥áī°áĭĭáĪį":5437,"ĠáĮłáĪ¨":5438,"ĠáĮĪáĭ°áī¥":5439,"ĠáĭŃáĮĪáĪįáįĥ":5440,"Ġáĭ¨áĪļáī³áĭ©":5441,"ĠáĪĺáĪĿáĪħáĪ«áĬķ":5442,"Ġáĭ¨áĪłáĪ":5443,"ĠáĪĺáĪŀ":5444,"ĠáīłáĬ¥áĬķ":5445,"Ġ60":5446,"ĠáĭŃáįĪáĮ¥":5447,"áĬ©áĬĿ":5448,"Ġáĭ¨áĪĺáĪ¨áĮĥ":5449,"áĬ®áĪį":5450,"ĠáĪĺáĪµáĬ®áī½":5451,"ĠáĬłáīłáīł":5452,"ĠáĬłáĪĭáīµ":5453,"Ġáĭ¨áī¥áĪŃ":5454,"áĮĪáĪī":5455,"áīĭáĪļ":5456,"Ġáĭ¨áĬłáĬ«áĪį":5457,"áĪĪáī²áĬ¨":5458,"ĠáĪĺáĭµáĪĥ":5459,"ĠáĮĪáĭĿ":5460,"áĭ´áĬķ":5461,"ĠáīłáĪļáĪĪáĭį":5462,"áĭĭáĬĵáĭį":5463,"áĬ®áīµ":5464,"ĠáĭĪáĭµ":5465,"áĭĺáĪĿ":5466,"ĠáĬłáĪĭáĪµ":5467,"ĠáīłáĪķáĮį":5468,"ĠáĪĬáīĢáĪĺáĬķ":5469,"ĠáĪ°áĪĪáĪŀáĬķ":5470,"ĠáĪĽáĪµáī³áĭĪáīĤáĭ«":5471,"áĬłáĭİ":5472,"áĪĪáĪĽáī½áĬķ":5473,"áĬŃáĪĪáī¡":5474,"áĮłáĪªáĭ«":5475,"áĮłáĪ«áĪį":5476,"ĠáīµáĭķáĭĽáĭĿ":5477,"áĪĪáĪĻ":5478,"ĠáĪĬáĬĸáĪŃ":5479,"Ġáĭ¨áĮłáīĨ":5480,"re":5481,"Ġáĭ¨áĬĳáĪ®":5482,"áĪ°áĪ¨":5483,"Ġáĭ¨áĪĺáĮĪáĬĵáĬĽ":5484,"ĠáĮĪáĪįáĮ¸áĭį":5485,"Ġáī£áĪĪáĪµáĪįáĮ£":5486,"áīĥáĪĪáĬķ":5487,"ĠáĪĪáīĢ":5488,"ĠáīłáĬ¦áĪ®áĪļáĭ«":5489,"áī³áĭĪáĪµ":5490,"ĠáĮįáĮ¥áĪĿ":5491,"ĠáĬłáĪĽáĬ«áĭŃáĬĲáīµ":5492,"ĠáĬłáĪīáī³áĭĬ":5493,"²áį":5494,"áĮ³":5495,"Ġáĭ¨áī°áĭĺáĮĭáĮĢ":5496,"ĠáĭĪáī³áĭ°áĪ®áī½":5497,"ĠáĬłáĪĪáĪĺáĪĨáĬĳáĬķ":5498,"Ġáī°áĪįáĭķáĬ®":5499,"áĬ«áĬ¤áĪį":5500,"áĭİáī»áī½áĬķ":5501,"áī£áĪīáīµ":5502,"Ġáĭ¨áĬłáĬ«áī£áī¢áĭį":5503,"ĠáĬłáī¥áĪ«áĪŃ":5504,"Ġáī£áĪįáī°":5505,"áĬ¨áĪµ":5506,"áīĢáĬĿ":5507,"áĬ¥áĪ±áĪĿ":5508,"áĬ¤áĪµ":5509,"ĠáīłáĪľ":5510,"Ġáĭ¨áĪļáĪłáĪ©":5511,"ĠáĪµáĪįáĬŃ":5512,"áĭĿáĬķ":5513,"ĠáĬ¨áĪĽáĭµáĪ¨áĮį":5514,"áĪ°áĭįáĬķ":5515,"ĠáĭĵáĭŃáĬķ":5516,"áĪŃáĪ±":5517,"áĪ«áī±":5518,"áīłáī±":5519,"áįģáĪĿ":5520,"áĭ°áĭ°":5521,"áĭĪáīµ":5522,"áĪ°áī£áĪ°áī¥":5523,"áįĭáįĭáīµ":5524,"ĠáĮįáĪĿáĮĪáĪĽ":5525,"áī²áĬķ":5526,"ĠáĬłáīħáĪ«áī¢":5527,"ĠáĬłáĮłáīĥáīĢáĪĿ":5528,"áĪ¨áĮł":5529,"áĪ°áĪĻ":5530,"ĠáĪĽáĭį":5531,"ĠáīłáĪĺáī³":5532,"áĮİáĭ³":5533,"áī·áī¸áĭį":5534,"áī¾áī½áĬķ":5535,"áĭ°áĮī":5536,"ĠáĬ¥áĬķáīħáįĭáīµ":5537,"Ġáĭ°áĪµáī°áĬĽ":5538,"Ġáī¢áĬĸáĪŃ":5539,"ĠáĪ³áĪį":5540,"áĪĭáĪįáīħ":5541,"áĪµáī°áĬĵáĮĪáĭµ":5542,"ĠáīłáīĢáĬķ":5543,"áĮĢáĪŃáĪĺáĬķ":5544,"ĠáĪĪáĪĻáĪī":5545,"ĠáĬ¥áĬ¤áĬł":5546,"áĪĺáĮ£áĭį":5547,"ĠáĪķáįĥ":5548,"áĮłáĪ©áīµ":5549,"ĠáĮĭáĭľáĮłáĬŀáī½":5550,"áĪ³áĪ³":5551,"áĬ¨áĪĭáĭĬ":5552,"ĠáĪĺáĮłáĭ¨áīħ":5553,"Ġáī°áĮłáīĥáĪ½":5554,"áĪŀáī¹":5555,"áīĢáĪĺáĮ¡":5556,"áīłáĭĵáĪĪáĪĿ":5557,"ĠáĪĺáĬķáĮįáĪµáī³áīµ":5558,"áĭĿáĮĪáī£":5559,"Ġáīłáī°áĪ»áĪĪ":5560,"áĮłáĭ¨áīģ":5561,"áįĭáĪª":5562,"áĮ»áĬĵáīµ":5563,"áĬĵáĪ½áĬĵáĪį":5564,"ĠI":5565,"áĭ°áĪŃáĮĭ":5566,"ĠáĪĿáĬķáĮ®áī½":5567,"ĠáĪĺáīĢáĬĲáĪµ":5568,"áĭĺáĬĵ":5569,"áĬ¨áī°áĪŀáī½":5570,"ĠáīłáĭŃáįĭ":5571,"Ġáĭ¨áĪĬ":5572,"Ġáī°áĪ¨áĮĭáĮį":5573,"áĭ²áĬķ":5574,"áĬĸáĪ©áīµ":5575,"áīĢáĪŃáīłáĭį":5576,"áĪįáĬĵáĪį":5577,"ĠáĬ¨áĬĲáīłáĪ¨áĭį":5578,"Ġáī°áįİáĬ«":5579,"ĠáĪĪáĮİáĬķ":5580,"Ġáī½áĪĪáĭĭáĪį":5581,"ĠáīłáĮ¥áĬķ":5582,"ĠáĪĺáĭµáĬĥáĬĴáīµ":5583,"ĠáĬ¥áĭļáĭ«":5584,"Ġáĭ¨áī°áĪ¨":5585,"ĠáĭŃáīħáĪŃáī³":5586,"Ġáĭ«áĪĪáĬķ":5587,"Ġáĭ¨áĪļáĮĪáĬĻáīµ":5588,"ĠáĬ¥áĪµáĪ«áĬ¤áĪĭáĭįáĭ«áĬķ":5589,"ĠáĬ¢áĭ®":5590,"ĠáĬłáĮĪáĪ«áī½áĬķ":5591,"ĠáĬ¨áĬłáĮĪáĪŃ":5592,"ĠáĮĪáīłáĪ¬":5593,"ĠáĮīáĭ³áĭ®áī½áĬķ":5594,"ĠáĪīáīĥáĪµ":5595,"áĭ«áĭ«":5596,"ĠáĪĺáĮĢáĪĺ":5597,"Ġáĭ¨áĪļáī£áĪī":5598,"áĭ«áĪĪ":5599,"ĠáĬ¨áīłáĭ°":5600,"ĠáĪĪáĪģáĪīáĪĿ":5601,"ĠáĬłáĪĿáĪĭ":5602,"áĪĥáĭĬ":5603,"áĮĪáĪ«áĪį":5604,"ĠáĪĽáĪ½":5605,"áĬ¥áĬĸ":5606,"áĮĪáĪĪáĮįáĪī":5607,"ĠáĭŃáĪłáĪ«":5608,"ĠáĭŃáĪĺáĮ£áĪį":5609,"áĬ«áī¸áĭį":5610,"áĬłáĪĺ":5611,"áĮĪáĬĵáĬĻ":5612,"ĠáĭŃáįĪáĪį":5613,"Ġáĭ¨áĪļáĭ°áĪŃáĪµ":5614,"áīĥáĪ«áĬĴ":5615,"ĠáīģáĮŃ":5616,"ĠáĬłáĭ°áī£áī£áĭŃ":5617,"Ġáĭ¨áĭįáĪµáĮ¥":5618,"ĠáīµáĪ«áĬķáĪµáįĸáĪŃáīµ":5619,"ĠáĬłáĪµáī°áĭ³áĭ°":5620,"áĪĪáī½áĭį":5621,"ĠáĭµáĬķáīħ":5622,"áīłáĬŀáī½":5623,"áĮħáĬĲáīµ":5624,"áīµáĬĵáĬķáīµ":5625,"ĠáĭŃáĬĸáĪŃáī¥áĬĵáĪį":5626,"áī£áī±":5627,"áĭĪáīµáĪŃ":5628,"ĠáĪĪáĪħáĭĿáī¥":5629,"ĠáĬłáĪµáĭ°":5630,"áĬŃáī¸":5631,"Ġáĭ¨áĪļáĬĸáĪŃ":5632,"áįķáĪ«áĭŃ":5633,"ĠáĬ¥áĬķáĭ²áĭ«áĭ°áĪŃáĮī":5634,"áĪĽáĪĮ":5635,"áįĪáĬĵ":5636,"ĠáĪĿáĪ½áīµ":5637,"áīłáĬłáĭ²áĪµ":5638,"áĪĪáīµáĬķ":5639,"Ġáĭ¨áĬ¢áĬķáī¨áĪµáīµáĪĺáĬķáīµ":5640,"ĠáĬ¥áĬĲáĪ±áĪĿ":5641,"áĬĲáįį":5642,"Ġáĭ¨áī°áĭĭ":5643,"ĠáĪ²áī³":5644,"ĠáĬłáĪµáįĪáĪĭáĮĬáĭįáĬķ":5645,"ĠP":5646,"ĠáĪĺáĭĽáĪĻáĪŃ":5647,"áĪĺáĬĵáĭĬ":5648,"Ġáĭ¨áī°áĪ°áĪĽáĪ©":5649,"ĠáĪ³áĪĻ":5650,"ĠáĪģáĪīáĬķ":5651,"ĠáĪĺáĪĢáĪį":5652,"Ġáī¼":5653,"Ġáĭ¨áĭ«áĭĻ":5654,"ĠáĮĪáī¥áī°áĭį":5655,"ĠáĬłáĬŃáī¥áĪ®":5656,"ĠáĬ¨áī£áĪĪ":5657,"ĠáĪµáĪĪáĪĿ":5658,"áĪĥáĪĪáĪģ":5659,"áĭĪáĮ£áī¶áī½":5660,"ĠáĬ¥áĬķáĪµáĪ³":5661,"áĭ³áĭµáĪŃ":5662,"ĠáĭŃáĬĸáĪ¨áĭĭáĪį":5663,"áīĢáĬĲ":5664,"°áĪįáĮ£":5665,"áĪįáīĢáīµ":5666,"ĠáĪĺáĭ³":5667,"ĠáĪĺáĮ½áĪĲ":5668,"áĪĭáīµáĬĵ":5669,"Ġáĭ¨áĪ°áĮłáĭį":5670,"áĮ«áĭĪáī±":5671,"ĠáĪĪáĪĢ":5672,"ĠáĬ¥áĬķáĭ°áĬĲáīłáĪ¨":5673,"áĮĪáĬĻáīłáīµ":5674,"áĮĲáī½":5675,"áĪ«áĪĿáįķ":5676,"om":5677,"Ġáī°áĬŃ":5678,"ĠáįįáĪĭáĮĲ":5679,"Ġáĭ¨áī°áī£áīłáĪ©áīµ":5680,"Ġáĭ¨áĬ¥áĪŃáĪ»":5681,"áĬĲáĪ³áĭį":5682,"ĠáĪĪáĪ°áĭį":5683,"Ġáĭ«áĪĪáĪĿ":5684,"Ġáī£áĪĭáī¸áĭį":5685,"áĮİáī¥":5686,"áī¥áĪ¨áī°áĪ°áī¡áĬķ":5687,"áĭ°áĪĪ":5688,"ĠáīłáĪ¬":5689,"Ġáīħáĭ±":5690,"ĠáĬ¨áĪĽáĪµ":5691,"ĠáĪĺáĪ°áĪĭáī½áĪģ":5692,"ĠáįĮáĭ´áĪ¬áĪ½áĬĳ":5693,"ĠáīłáĪĺáĭ«áĭĿ":5694,"ĠáĪħáĮĭáĭĬ":5695,"ĠáĮ¥áīģáĪŃ":5696,"ĠáĬłáĮĪáĪ«áī¸áĭį":5697,"áī·áī¸áĭĭáĪį":5698,"Ġáĭ¨áī¥áĭĻ":5699,"áīłáīģ":5700,"Ġáī³áĪĭáĪĭáīħ":5701,"Ġáī°áĪĺáĪįáĬŃáī·áĪį":5702,"Ġáĭ¨áĪ°áĪĽ":5703,"áīĢáĪ¨áīł":5704,"ĠáĪĺáĭįáĮ£áīµ":5705,"Ġáĭ¨áĬ¦áĪ®áĪļáĭ«":5706,"ĠáĪĽáī´áĭİáĪµ":5707,"ĠáĬłáī¥áĭ±":5708,"áĭ¨áī£":5709,"áĬ¥áĬķáĭ´áīµ":5710,"ĠáĪĺáĬ®áĬķáĬķ":5711,"ĠáĬłáĭµáĪŃáĮĪáĬķ":5712,"ĠáīĥáĪĪ":5713,"ĠáĪĦáĭ¶":5714,"ĠáĮĪáĮ½áī³":5715,"áī³áīµáĬķ":5716,"áįĪáĮ¥áĪŃ":5717,"áī¦áī³áĭį":5718,"ĠáīłáĭµáĮĭáĪļ":5719,"ĠáĬĲáĮ¥áī¦áī½":5720,"áĭ«áĭįáīħ":5721,"Ġáĭ¨áĬ®áĬķ":5722,"ĠáĪĴáĭ°áīµ":5723,"Ġ34":5724,"áĮĪáĬĿáĪĿ":5725,"ĠáĪµáĪŃáĭĵ":5726,"áĭĵáĪĺáī³áīµ":5727,"ĠáĬłáĭµáĪŃáĮĮ":5728,"áĪµáī¡":5729,"áĮįáĪµáīµ":5730,"ĠáĬ¨áīĨ":5731,"Ġáĭ¨áĪļáī³áĭ¨áĭį":5732,"ĠáĪħáĪĺáĪĿ":5733,"ĠáĬłáĪµáī°áī£áī£áĪª":5734,"Ġáĭ¨áī°áĪ°áĬĺ":5735,"ĠáĬ¥áĬĲáĪĨ":5736,"ĠáĬ¥áĬķáĭ°áĪĮáĪĪ":5737,"áĪĺáī±":5738,"Ġáĭ¨áī°áįĪáĮłáĪ¨":5739,"áīłáī°áĪĺáĪ³áĪ³áĭŃ":5740,"ĠáĪĺáĬķáĮįáĪµáī±":5741,"áīłáĬ¥áĬĲáĭļáĪħ":5742,"áĪĿáĪŃáĮ«":5743,"áĭ«áĭĿáĭ«":5744,"áĪĵ":5745,"ĠáĪĺáĪĺáĪįáĬ¨áīµ":5746,"áī¥áĬĵ":5747,"Ġáĭ¨áĪ±":5748,"ĠáīłáĪĺáĪĺ":5749,"Ġáĭ¨áįĵáĪŃáī²":5750,"Ġáĭ¨áĬ¥áĬķáĪµáĪ³áīµ":5751,"ĠáĭµáĬķáīłáĪŃ":5752,"áī½áĮįáĪŃ":5753,"ĠáīłáĪ»":5754,"ĠáĬłáĪ¨áĮĭáĮįáĮłáĭĭáĪį":5755,"ĠáĪĺáĮĪáĬķáī£áīµ":5756,"áĪŀáī±":5757,"Ġáĭ¨áĪļáĬĸáĪ¨áĭį":5758,"Ġáĭ¨áī°áĬ¨":5759,"ĠáĪ²áĭ°áĪŃáĪµ":5760,"Ġáīłáī°áĭ°áĪ¨áĮĪáĭį":5761,"ĠáĬķáĮ¹":5762,"áī¼áĬķ":5763,"áĭ«áĭ«áĭĻ":5764,"Ġáī¢áī£áĪį":5765,"ĠáĬ¥áĬĵáī¶áī½":5766,"áī±áĬķáĬĵ":5767,"áĬŃáĪįáĪİáī½":5768,"ĠáĪĺáĭ³áĪ¨":5769,"ĠáĬ¥áĬķáĪĺáĪįáĬ¨áīµ":5770,"áĮĨáī»áī¸áĭį":5771,"ĠáĬłáĭĭáĮģ":5772,"Ġáĭ¨áĭĽáĪ¬":5773,"áīĢáĪ©":5774,"ĠáĪĪáĭĵáĪĪáĪĿ":5775,"Ġáĭ¨áĪļáĭĪáĪµ":5776,"áĮ£áĪ¬":5777,"ĠáĬŃáĪŃáĬŃáĪŃ":5778,"áĬĲáī·":5779,"áĭĵáĪĭáĭĬ":5780,"áĮłáĬĵáīĢáīģ":5781,"Ġáĭ«áĬķáĬķ":5782,"áĮĵáĭµ":5783,"ĠáīłáīĢáĪĪ":5784,"ĠáĮ«áĪĽ":5785,"ĠáĪĺáīħáĪ¨":5786,"áĮīáī£áĬ¤":5787,"Ġáīłáī°áĪĪáĭ¨":5788,"áĮĪáĪ¬":5789,"áĮłáĪĻ":5790,"ĠáĪĺáĪµáĪİ":5791,"áĭ¬áĭį":5792,"áĮłáĬķáīĢáīĤáĭ«":5793,"Ġáĭ¨áĮłáīĢ":5794,"ĠáĪµáĮĭ":5795,"ĠáĪĺáĬ«áĬ¨áĪĪáĬĽ":5796,"áĬĲáĬĽáĭį":5797,"áĪ°áĭİáī½":5798,"áĬĲáīµáĪĿ":5799,"ĠáĬłáĭµáĪŃáĮĲ":5800,"áĪ«áĪ«":5801,"ĠáĭŃáĭĽ":5802,"ĠáĬ¥áĭ«áĭ°áĪ¨áĮī":5803,"áįİáī½áĬķ":5804,"Ġáĭ¨áĪ°áī¥áĭĵáĭĬ":5805,"áĬĵáĭŃáīµ":5806,"ĠáīłáĭĿ":5807,"ĠáĭŃáĪī":5808,"ĠáĪĪáĪĽáĭµáĪ¨áĪµ":5809,"áĭķáĪĪáī±":5810,"ĠáĪĽáĪµáī°áĪĽáĪŃ":5811,"ĠáīłáĮ¤áĬĵ":5812,"áįĪáĪŃáīµ":5813,"ĠáĬłáĪįáīĢáĪ¨":5814,"ĠáĬ®áĪļáī´áĭį":5815,"áĭ°áĬĵáīĤ":5816,"ĠáīłáĬ¦":5817,"ĠáĬłáĪįáĮĭ":5818,"ĠáĪµáĪĪáĪĽ":5819,"Ġ33":5820,"Ġ500":5821,"ĠáĪĪáĪķáĭĿáī¥":5822,"ĠáĪĪáĬ¢áĭľáĬł":5823,"áĬĿáĬĵ":5824,"Ġáī£áĪĪáĪĽ":5825,"áĮĪáĪĪáĮį":5826,"ĠáīłáĮĬáĭľ":5827,"ĠáīłáĪī":5828,"áĬŃáĪĿ":5829,"ĠáīłáĪķáĮĪ":5830,"ĠáĭĪáĪ¨áīĢáīµ":5831,"ĠáĪĪáĪĺáĮįáī£áīµ":5832,"ĠáĬ®áĬ¨áī¥":5833,"ĠáĬĥáĮ¢áĬłáīµ":5834,"Ġáĭ«áĪµáī½áĪĭáĪį":5835,"ĠáĭŃáĭĪáĪµ":5836,"ĠáĪĽáī¥":5837,"áĪĭáįĬáĬĲáīµ":5838,"Ġáĭ¨áīµáĪ«áĬķáĪµáįĸáĪŃáīµ":5839,"áįĢáĭį":5840,"áīĤáĭİáī½":5841,"áīłáĪ¨áī³áī³":5842,"áĭ«áĭįáīģ":5843,"Ġáī¥áĪŃáī±":5844,"Ġáĭ¨áĪļáĭ«áĪµáī½":5845,"Ġáĭ¨áīĨáĭ¨":5846,"ĠáīłáĪ¨áĬ¨áīµ":5847,"áĪ¨áīĥ":5848,"ĠáĬłáĪĽáĬ«áĪª":5849,"ĠáĬ¥áĬķáĭ°áĪļáī»áĪį":5850,"áĬ¨áīµáĪį":5851,"Ġáĭ¨áī°áĪĺáĪłáĪ¨áī°":5852,"áĭįáĪī":5853,"áįĭáĭĬ":5854,"áĮłáĬĵáīĢáīĢ":5855,"ĠáĬłáīħáĪŃáīłáĭĭáĪį":5856,"áĭĿáĬĵáĬĽ":5857,"Ġáĭ¨áĪļáĭ«áĭ°áĪŃáĮīáīµ":5858,"ĠáĪĺáĮįáī£áī£áīµ":5859,"áĬĿáīµ":5860,"áī³áī¸áĭįáĪĿ":5861,"ĠáĬ®áĬķáīµ":5862,"ĠáĬ¨áĬłáįįáĪªáĬ«":5863,"ĠáĪĭáĪĪáįīáīµ":5864,"áĭķáĪĪáīµ":5865,"ĠáĪįáĮģ":5866,"and":5867,"ĠáĬ®áĪĮáĮħ":5868,"ed":5869,"ĠáīłáĬ«":5870,"áĪµáī°áĭĭáĭĪáīħ":5871,"Ġáĭ«áĭįáīĥáĪį":5872,"áī¸áĭĭáĪĪáĪģ":5873,"ĠáĬłáĭŃáĬĸáĪŃáĪĿ":5874,"ĠáĪĺáĪµáĬ¨áĪ¨áĪĿ":5875,"ĠáĬ¨áĬ¥áĪ±":5876,"ĠáĮ»":5877,"áĬ¥áĬĵáĬķáī°":5878,"áįĪáī±":5879,"áĪĻáĭ«áĭį":5880,"ĠáĬ¨áĪĺáĪĨáĬĳ":5881,"áĭ°áī¡áī¥":5882,"ĠáĪĽáĪ»áĪ»áĭ«":5883,"áĮłáĪª":5884,"Ġáĭ¨áĪħáī¥áĪ¨áī°áĪ°áī¥":5885,"ĠáĪĪáĪĽáĮłáĬĵáĬ¨áĪŃ":5886,"ĠáĪĺáĮłáĮ¥":5887,"Ġáĭ¨áĪļáĭ«áĪ°":5888,"ĠáĪĨáĬľ":5889,"ĠáĭĵáĪĺáī³áĭĬ":5890,"áĮĪáī¢áĭį":5891,"áĪĭáĮĨáī½":5892,"ĠáĬłáĬķáĭ±áĬķ":5893,"ing":5894,"áī¡áĭµáĬĳ":5895,"áĪģáĭµ":5896,"ĠáĭŃáĮĪáī£áĭĭáĪį":5897,"Ġáī´áĭİ":5898,"Ġáĭ«áī¥áĪ«":5899,"ĠáĬłáĪŃáī²":5900,"70":5901,"áĭ¨áī³":5902,"áĪªáĬķ":5903,"áĬ¢áĬķáĭ±áĪµáīµáĪª":5904,"áĪŃáĭ³áīµ":5905,"ĠáĪĿáĭµáī¥":5906,"Ġáī¥áĪ«":5907,"ĠáĪĺáī¼áĪĿ":5908,"ĠáĬŃáĪµáī°áīµ":5909,"áĭ¨áĬłáĪĿáĪĭáĬŃ":5910,"áįĭáĪī":5911,"ĠáĪģáĪĮáĪĿ":5912,"ĠáĪĬáĪĨáĬĳ":5913,"áĮĪáĬķáĭĺ":5914,"ĠáĮįáĬķáī£áī³áĭį":5915,"ĠáĬłáĪ¸áĬķ":5916,"áī¥áĪ©":5917,"áīłáĪķ":5918,"Ġáĭ¨áĭ«áĪħáĭĮáĬķ":5919,"áĬĲáĪ±áīµ":5920,"Ġáĭ¨áĪįáĪĽ":5921,"ĠáĪµáī³áĭ²áĭ¨áĪĿ":5922,"áĬķáĪ°":5923,"áī°áĮĪ":5924,"áĬ¥áĬĽáĪĿ":5925,"áĪĿáĪ³":5926,"Ġáĭ¨áĬłáĮĪáĪ«áī½áĬķ":5927,"ĠáĪ«áĭķ":5928,"áĬĲáī°áĬĽ":5929,"Ġáī°áīĭáīģ":5930,"ĠáĪĪáĬ¥áĬĶ":5931,"Ġáī¶áĬķ":5932,"áĪµáĬ®":5933,"áĮĥáī¸áĭįáĬķ":5934,"ĠáĪĺáĬķáĮĪáĭ±":5935,"ĠáĬ¥áĪŃáĮįáĮłáĬĽ":5936,"áī°áĭįáĬķ":5937,"áĪ«áī½áĪģ":5938,"ĠáĭŃáĪ¸":5939,"Ġáī³áĭįáīĥ":5940,"áĪĿáī¤áĪĭ":5941,"áĪĺáī¼":5942,"ĠáīłáįĸáĪĪáī²áĬ«":5943,"áīłáĬŃ":5944,"Ġáĭ¨áĪļáĪĺáĮ¡":5945,"ĠáĬłáĭįáī¶":5946,"áĭĺáĪĺáĬĵáīµ":5947,"áĮįáĪ¥":5948,"áĬłáĬŃ":5949,"áĭĺáĬķáĭµáĪ®":5950,"Ġáī¥áĭĻáĪĥáĬķ":5951,"ĠáīłáīħáĪŃáī¥":5952,"ĠáĬ¥áĭ¬":5953,"áīĢáī±":5954,"Ġáĭ¨áĬłáī£":5955,"ĠáĮ¥áĬķáĬ«áĪ¬":5956,"ĠáįĵáĪŃáĪĭáĪĽ":5957,"ĠáĬ¨áĪ°áĭį":5958,"áĪĺáĪĪáĪ°":5959,"ĠáĬłáĪµáī°áĪĽáĪĽáĬĿ":5960,"Ġáĭ¨áĪļáĪ°áĪ©":5961,"áĮİáĬĵ":5962,"ĠáĪĽáĭµáĪ¨áĮī":5963,"Ġáĭ¨áĮĬáĭľ":5964,"áĪĺáĭ°":5965,"áĪ«áīħ":5966,"áĪĪáīµáĪĿ":5967,"Ġáĭ¨áĪģáĪĪáīµ":5968,"áĪĪáī³":5969,"ĠáĭŃáįĪáĪįáĮĭáĪį":5970,"Ġáĭ¨áĮĢáĪĺáĪ¨":5971,"ĠáĬ¨áĪĥ":5972,"ĠáĪ«áĪ³áī¸áĭį":5973,"áīĢáĪ³áīĢáĪµ":5974,"ĠáĪĺáĮĪáĬĺ":5975,"áīłáĬłáĬķ":5976,"áĮ¸áĬķ":5977,"ĠáĬ¥áĭ¨áī°áī£áĪĪ":5978,"ĠáĪĽáĪµáī°áĬ«":5979,"ĠáĬķáĮīáĪ¡":5980,"áĪįáīµ":5981,"áĮĪáĬĽáĪį":5982,"ĠáĬ¤áĪĮáĬŃáīµáĪªáĬŃ":5983,"Ġáĭ¨áĪµáĬĲ":5984,"Ġáī¥áĪ©":5985,"Ġáī£áĪªáĭ«":5986,"ĠáĬłáĪĿáī£áĪ³áĭ°áĪŃ":5987,"ĠáĬ¨áĪģáĪīáĪĿ":5988,"ĠáĪ³áĪĿáĬķ":5989,"ĠáĬłáĪµáįĪáįĥáĪļ":5990,"Ġáĭ¨áĪľ":5991,"áĬĿáī³":5992,"áĪ®áī½áĬĵ":5993,"áįĮáĭ´áĪª":5994,"ĠáīģáĪ³áīģ":5995,"áĬĹáĬĹ":5996,"Ġ2009":5997,"ĠáĬłáĪŃáī¥áī¶":5998,"ĠáĮĮáī³áī¸áĭį":5999,"ĠáĭŃáĬĸáĪŃáī£áī¸áĭĭáĪį":6000,"ĠáĬ¥áĭįáĬĲáī³":6001,"ĠáĬłáĭ«áĭįáīħáĪĿ":6002,"Ġáĭ¨áĮłáīłáīĢ":6003,"ĠáĬ¥áĬķáĭ°áĪĺáĪĨáĬĳ":6004,"ĠáĬ¦áĪ®":6005,"áĬ¨áī°áĪĽáĭĭ":6006,"Ġáīłáĭ°áĪµáī³":6007,"Ġáĭ¨áī°áĭĪáĪ°áĬĳ":6008,"áĪĽáĪħ":6009,"áĮ¥áĪ¨áĭį":6010,"ĠáĭĺáĪĺáĬĳ":6011,"Ġáįİáī¶":6012,"áĪ¨áĬĵáĪį":6013,"Ġáĭ³áĬķáĬ¤áĪį":6014,"áĭ°áĬĲ":6015,"ĠáĭįáĭŃáĭŃ":6016,"ĠáĬ«áįĴáī³áĪį":6017,"ĠáĬ¥áĪħáĪį":6018,"ĠáįįáĮ¹áĪĿ":6019,"ĠáĮ£áī¢áĭ«áĭİáī½":6020,"ĠáĬ¥áĬķáĮįáĪĬáĭĿ":6021,"Ġáĭ¨áī°áĬĲ":6022,"80":6023,"áĭ°áĪĭ":6024,"áĪ¨áīł":6025,"Ġáī³áĪĽ":6026,"Ġáī°áĮ«áĭĭáī½":6027,"ĠáĬłáī»":6028,"ĠáĪĽáĬĲáĪµ":6029,"ĠáĭĪáīħáī³áĭĬ":6030,"áīĢáĪĺáĮłáĭį":6031,"áĪ°áĪ«áĭį":6032,"Ġáĭ¨áįĢáĪ¨":6033,"áĭĪáĭŃáĭĺáĪ®":6034,"Ġáīłáīħáĭµ":6035,"áĮ£áĮ£":6036,"ĠáĪĺáĪ°áĪ¨áī°":6037,"ĠáĪĺáĪĺáĪĪáĪµ":6038,"Ġa":6039,"ĠáīłáĪĺáĪĿ":6040,"áĬ¢áĪħáĬłáĭ´áĮį":6041,"ĠáĪķáįĥáĬĵáīµ":6042,"ĠáĪĺáĮ¥áī°áĭį":6043,"Ġáĭ¨áī°áĪ°áĪĽ":6044,"áĮłáīłáīĢáĭį":6045,"áĭĿáĪŃáĭĿáĪŃ":6046,"Ġáĭ³áĮįáĪĿ":6047,"ĠáĭĬ":6048,"áīłáĬĲ":6049,"ĠáĬĥáĭŃáĪĮ":6050,"áĪ¨áĮĭáĮįáĮ¥":6051,"ĠáĮłáĪĭáīµ":6052,"Ġáī£áĪĪáĪµáĪįáĮ£áĬķ":6053,"áī°áĪĿ":6054,"ĠáĭµáĬŃ":6055,"áĬ®áĪŃ":6056,"ĠáĮŃáĪĽáĪª":6057,"áĬ¨áĪĪáĬĽáĭį":6058,"ĠáĮīáī¥áĬĿáīµ":6059,"áĬ¨áĬĵáĭĪáĬĲáĭį":6060,"ĠáĪĺáīĢáĪĺáĮ«":6061,"ĠáĪĪáĬķ":6062,"áĪľáīµ":6063,"áĪĲáĪ´":6064,"áĪļáĭ«áĪµ":6065,"áĬĸáĪ©áĪĿ":6066,"ĠáĭŃáĮĪáĬĻáīłáī³áĪį":6067,"Ġt":6068,"Ġáĭ«áī°áĬ®":6069,"ĠáĬĲáīłáĪ¨áī½":6070,"ĠáĭŃáĮłáī¥":6071,"ĠáĬłáĪĿáĪ«áī½":6072,"ĠáĬłáĪĭáĭįáīħáĪĿ":6073,"Ġáĭ¨áī°áīĥ":6074,"ĠáĪĬáīĢáĪĺáĬķáīłáĪŃ":6075,"áĭ¨áĪ°":6076,"ĠáīłáĪĺáĭįáĪ°áĭµ":6077,"Ġáīłáĭļáĭ«áĭį":6078,"Ġáī³áīħ":6079,"Ġáĭ¨áĪķáĭŃáĭĪáīµ":6080,"ĠáĪĽáĬħáīłáĪ¨áĪ°áī¥":6081,"Ġáĭ¨áĪĽáĭķ":6082,"áĪįáĬ©":6083,"áĪĺáĪĭáĪĪ":6084,"áī´áĪį":6085,"Ġáĭ¨áĪĿáĪŃáīµ":6086,"ĠáĪĺáĪŃáĪħ":6087,"áĮ¢áĪŃ":6088,"ĠE":6089,"ĠáĪĺáĮĵ":6090,"ĠáĪĽáĪĿáĮ£áīµ":6091,"ĠáīłáĭļáĪħáĪĿ":6092,"ĠáīĢáĪŃáī¦":6093,"áĪĿáĪ¨áī»":6094,"ĠáĭĵáĭŃáĬĲáī±":6095,"ĠáĪĪáī£":6096,"áĬ«áįĪáĪį":6097,"ĠáĭĪáĪ°áĬķ":6098,"áĮĵáĭ³":6099,"ĠáĭĵáĭŃáĬĲáī¶áī½":6100,"ĠáĪ¼":6101,"áĭµáĪµ":6102,"áĪ¨áĭ±áīµ":6103,"áĭĽáĪĿ":6104,"áĮłáĬĵáĬ¨áĪ¨":6105,"ĠáĬłáĭ°áĮĪáĬĽ":6106,"ĠáīłáĮĭ":6107,"áĭ¨áĪ°áĭį":6108,"áĬłáī¥áĭĽ":6109,"ĠáįįáĮ¥áĬĲáīµ":6110,"áī¥áĪ¨áī±":6111,"áĭĿáĬĵáī¥":6112,"áĭ³áĪįáĭ«":6113,"ĠáĭĪáĪįáĭ°":6114,"ĠáĪµáīµáĪį":6115,"áįķáĪ®áĮĢáĬŃáī±":6116,"Ġáĭ¨áī°áĮĪáĬĻ":6117,"Ġáĭ¨áĪķáĬŃáĪĿáĬĵ":6118,"ĠáĪįáĪĽáĭµ":6119,"ĠáĭķáĮ£":6120,"ĠáĭĪáĮ£áī±":6121,"áĭ°áĬĿáĬĲáīµ":6122,"ĠáīµáĬ©áĪ¨":6123,"áīĢáĪ°":6124,"ĠáĪįáĭįáĭį":6125,"ĠáĭķáĪŃáĭ³áī³":6126,"ĠáĬłáĪĭáĪĽ":6127,"ĠáĬłáĮłáĬĵáĬŃáĪ®":6128,"Ġáĭ¨áĪļáĮłáĭŃ":6129,"ĠáĪĽáĪĪáįį":6130,"ĠáĮįáī¦áī½":6131,"ĠáīłáĪĺáĪĦáĭµ":6132,"ĠáįĸáĪĪáī²áĬ¨":6133,"Ġáĭ¨áī»áĭŃáĬĵ":6134,"áĪ¨áī¡":6135,"ĠáĬ¨áįĪ":6136,"áĬ¥áĪµáĬ«áĪģáĬķ":6137,"ĠáĬĲáįįáĪµ":6138,"ĠáĭŃáĮłáīģáĪĽáĪī":6139,"ĠáĪĺáĪŃáĪĥ":6140,"ĠáįįáīµáĪĲáĭĬ":6141,"ĠáīłáĪĽáĪ°áī¥":6142,"ĠáīłáĪģáĪĪáī°áĬĽáĭį":6143,"ĠáĬĲáĮĭáĭ´áĭİáī½":6144,"áĭİáī½áĬķáĬĵ":6145,"ĠáĪģáĪĪáī±áĪĿ":6146,"áĪīáīłáīµ":6147,"Ġáī¥áĪĭáĪĪáī½":6148,"áĪĿáī£áĪ²":6149,"áĭ°áĪĪáĭį":6150,"ĠáĪĿáĬķáĮĬáĭľáĪĿ":6151,"ĠáīģáĪĿ":6152,"ĠáĭŃáĬĲáĮĪáĪ«áĪį":6153,"áĭŃáĪµ":6154,"ĠáĬ¨áĮĢáĪĺáĪ¨":6155,"Ġáĭ¨áĬ¥áĬķáĮįáĪĬáĭĿ":6156,"ĠáĪµáĪįáĮ£":6157,"ĠáĪĻáĪ´":6158,"ĠáĪ½áĭ«áĮŃ":6159,"Ġ199":6160,"ĠáĬ¥áīĥ":6161,"áĪ«áĪĪáĬķ":6162,"ĠáĪĪáįĬáīµ":6163,"ĠáĪĬáī£áĪį":6164,"Ġáĭ¨áĪĭáī¸áĭįáĪĿ":6165,"ĠáīłáĪħáĮĪ":6166,"Ġáī£áĭ°áĪ¨áĮĪáĭį":6167,"Ġáĭ²áĭĽ":6168,"áĮĪáĬĲáī£áĭį":6169,"áĮĪáįĭ":6170,"ĠáĭĺáĮĪáī£áĭį":6171,"ĠáīĨáĪ»áĪ»":6172,"Ġáĭ¨áĮįáĬķáĭĽáī¤":6173,"ĠáĭŃáīĢáĮ¥áĪĭáĪį":6174,"ĠáĬ¥áĬķáĬŃáī¥":6175,"ĠáīłáĪĺáĮįáĪĪáĮ½":6176,"ĠáįįáĮ»áĪľ":6177,"Ġáĭ«áĭ°áĪŃáĮĪáĭĭáĪį":6178,"áĬłáī¸áĭį":6179,"áįĭáĬŃáī¸":6180,"ĠáĪĪáĪĺáī°":6181,"ĠáĪĺáīĢáīłáĪį":6182,"áĪĪáĪµ":6183,"áĭ¨áĭ«áĪħáĭĮ":6184,"ĠáĬ¥áĬķáīħáĪµáīĥáĪ´áĭİáī½":6185,"ĠáĭĪáĪµáĭ¶":6186,"Ġáī«áĭŃ":6187,"Ġáī°áĪ°áī¥":6188,"áĮłáīĢáĪĻáīłáīµ":6189,"Ġáĭ¨áĭľ":6190,"áĪŃáĭ±":6191,"ĠáĬ¨áĪŀáīµ":6192,"ĠáĭŃáĭĪáĮ£":6193,"ĠáĪķáĮī":6194,"ĠáīłáĪĤ":6195,"ĠáĪĪáī¥áĭĻ":6196,"áĬ¨áĬĲ":6197,"ĠáĪĺáī¥áĪ«áīµ":6198,"Ġáī¥áĪĶáĪ¨áĪ°áī¦áī½áĬĵ":6199,"ĠáĭŃáĮĢáĪĿ":6200,"áĪĲáĪµ":6201,"ĠáĪĺáĬĸáĪ«áī¸áĭįáĬķ":6202,"ĠáĬłáĭ°áĪ¨áĮĥáĮĢáīµ":6203,"áī¤áĪį":6204,"Ġáĭ³áĬĽ":6205,"Ġáīłáĭ¨áĬł":6206,"ĠáĪĺáĪĽáĪŃ":6207,"áĭĺáĪ¨áĮĭ":6208,"ĠáĬłáĬķáĭ°áĬĽáĭį":6209,"áĬŃáĪ°":6210,"áĮ¥áĪį":6211,"Ġáĭ«áĬĲ":6212,"áĮ£áĬĶ":6213,"ĠáĪ¨áīĤáīħ":6214,"áĪĺáĬĿ":6215,"áīłáĬĽ":6216,"áīĢáīłáĪī":6217,"ĠáīłáĬ¥áĪ±":6218,"ĠáĬłáĬķáĭ´":6219,"áĪ³áĭŃáĭ«áĪµ":6220,"ĠáĪ°áī£":6221,"Ġáįįáīħ":6222,"áĮĪáĪĪáĮ½":6223,"áĪĺáĪįáĬ«áĪĿ":6224,"ĠáīłáĪª":6225,"ĠáĬ¨áĪĺáī¶":6226,"áĭĪáĪ°áĭ±":6227,"ou":6228,"áīłáĮ£áĪĿ":6229,"Ġáĭĺáĭį":6230,"ĠáĬ¥áĭ¨áī°áĬ«áĪĦáĭ°":6231,"ĠáĪĪáĭĺáĪĭáĪĪáĪĿ":6232,"ĠáīłáĮ¦áĪŃ":6233,"áĮĪáĪŃáĪĿ":6234,"ĠáĪĪáĪĺáĪ¨áĭ³áīµ":6235,"áī³áĭĪáīĤáĭ«":6236,"ĠáĪ´áī¶áī½áĬķ":6237,"áĭĪáĬķáĭµ":6238,"Ġáĭ¨áī°áĭįáĮ£":6239,"ĠáįķáĪĭ":6240,"ĠáįĵáĪŃáĬŃ":6241,"ĠáĬłáĮĪáĪįáĮĭáĭ®áī½":6242,"ĠáĬĲáī£":6243,"Ġáī³áĭĽ":6244,"ĠáĪļáĭ«áĭĿáĭ«":6245,"áĮ´":6246,"ĠáĪĪáĪ¨áĮħáĪĿ":6247,"ĠáĮłáīħáĪ°áĭį":6248,"áīĢáĪĭ":6249,"áĬ®áĪļ":6250,"áī¥áĪŃáī¥":6251,"ĠáĪµáĪ«áĭį":6252,"ĠáīłáīµáĬ©áĪ¨áīµ":6253,"Ġáĭ¨áī°áĭĪáĪĪ":6254,"Ġb":6255,"ĠáĭĺáĪĺáĬĵáīµ":6256,"ĠáĭŃáĭ°áĪŃ":6257,"ĠáĬŃáįįáīµ":6258,"ĠáīłáĪ°áĪĽáĭŃ":6259,"áįĪáĪĪáĮĪáĭįáĬķ":6260,"ĠáĪĽáĭķáĬ¨":6261,"ĠáĮįáĪįáįħ":6262,"ĠáĮ¥áĬĵáī¶áī½":6263,"¥áĪŃ":6264,"Ġáĭ¨áĪļáĬ¨áī°":6265,"ĠáĪĪáĪĺáĮłáīĢáĪĿ":6266,"ĠáĮŃáĬķ":6267,"ĠáĪĿáĪµáĬŃáĪŃ":6268,"áĪ¨áĪ³":6269,"Ġáī¥áīģ":6270,"ĠáīłáĬłáĬ«áī£áī¢":6271,"ĠáĭĺáĭŃáīµ":6272,"ĠáĪ«áĬ¥áĭŃ":6273,"ĠáĭĪáĮ£áī¶áī½áĬķ":6274,"ĠáįķáĪ¬áĭĿáĭ³áĬķáīµ":6275,"ĠáīłáĪĬ":6276,"ĠáĬ¥áĭļáĭ«áĭį":6277,"ĠáĭŃáīłáĪį":6278,"ĠáĪĮáĪĬáīµ":6279,"áĭ¬áĪĿ":6280,"áĬ¥áĪŃáĪ³áī¸áĭį":6281,"áĪŃáī°áĭį":6282,"Ġáī°áīĨáĮ¥":6283,"Ġáī¤áī¶áī½áĬķ":6284,"ĠáĬ¨áĪļáĮĪáĬĻ":6285,"ĠáĬłáĭµáĪĽáĪµ":6286,"ĠáĪĪáĬ¥áĬĽ":6287,"ĠM":6288,"ĠáĬ¨áĪĿáĬķ":6289,"Ġáī°áĬ«áĪĤ":6290,"ĠáĭŃáĬĸáĪ«áĪī":6291,"100":6292,"Ġáīłáī¢":6293,"áĪ²áĪį":6294,"áĮĪáĬĵáĬĺ":6295,"áĮįáĭ³áĪ®":6296,"áĮħáī°áĭį":6297,"ĠáĭĺáĭŃ":6298,"ĠáĮįáī¥áįħ":6299,"Ġáī°áĪĽáĪªáĭİáī½áĬķ":6300,"áīĢáĪ¨áī¡":6301,"ĠáĪłáĪĭ":6302,"áĪ¨áī¤":6303,"ĠáĭįáĪŃ":6304,"ĠáĪ²áĮĪáĪį":6305,"ĠáĭµáĪħ":6306,"áĮłáīĢáĪĿáīłáīµ":6307,"ĠáĬłáīłáĪ¨áī³áī½":6308,"Ġáīµáī½áĪĭ":6309,"ĠáĮīáĪįáĪħ":6310,"ĠáĬªáĭ³áĬķ":6311,"Ġáĭ¨áī°áĪĺáĪ°áĪ¨áī°":6312,"ĠáīĢáĮ£áĭŃ":6313,"ĠáĪĪáĪĺáīħáĪ¨áįį":6314,"ĠáĬ®áĪĻ":6315,"ĠáĬłáĪłáĪį":6316,"Ġáī°áĭĭáĬĵ":6317,"ĠáĬ¥áĬķáĭ²áĬĸáĪ¨áĭį":6318,"áĪİáĪĿ":6319,"Ġáĭ¨áĪĿáĪĪáĭį":6320,"Ġáī¥áī»áĭįáĬķ":6321,"Ġáĭ¨áĪĨáĬĳáīµáĬķ":6322,"ĠáīłáĪĺáĮĢáĪĺáĪªáĭ«áĭį":6323,"ĠáĬłáĬ«áĭ³áĪļ":6324,"Ġáĭ¨áĬ¥áĪŃáĪµ":6325,"ĠáįĢáĪĲáįĬ":6326,"ĠáĪĺáĭ³áĪ¨áĪ»":6327,"áĪĿáĪ«áĪį":6328,"áĮ»áįĪ":6329,"ĠáĬłáĭįáĪ«":6330,"ĠáīłáĪĺáĪµáĪ«áīµ":6331,"áĬĵáĮĢ":6332,"Ġáĭįáīłáīµ":6333,"Ġáĭ¨áī°áī£áĪĪáĭįáĬķ":6334,"Ġáĭ¨áĪĽáĪ³":6335,"áĭĭáĪĪáī½":6336,"ĠáĭµáĪħáĬĲáīµ":6337,"Ġáĭ¨áī¤áī°áĪ°áī¥":6338,"ĠáīµáĬ¥áĭĽáĭĿ":6339,"áĭ³áī½áĬķ":6340,"áĮ¥áĪ®":6341,"Ġáĭ¨áĪļáĪĺáĪµ":6342,"ĠáĪĽáĪ°":6343,"áĪĪáĪĺáĭ°áĭį":6344,"áĭķáĪ«áī¥":6345,"ĠáĬ¨áĬŃ":6346,"áĪ½áĪĿ":6347,"ĠáĬ¢áĬķáĪµáī²áīµ":6348,"ĠáĪħáĭĿáī£áĭĬ":6349,"áĪįáĮ£áĬĳ":6350,"áĭįáĭ°":6351,"Ġáĭ¨áīħáĪŃáī¥":6352,"ĠáĬ¨áĮĪ":6353,"ĠáĬ¨áīł":6354,"ĠáĬ¨áĭ¨áīµ":6355,"ĠáĬ¨áĪĢ":6356,"ĠáīłáĬ¥áĬĽ":6357,"ĠáĪĺáĬĸáĪ©":6358,"ĠáīłáĪĺáĬĲáĪ³áīµ":6359,"ĠáīĢáĬĿ":6360,"áĮ¨áĪĺáĪŃ":6361,"áĮĪáĬĽáĪĪáĬķ":6362,"ĠáĬĲáĮŃ":6363,"áĭ¨áĭĵáĪĪáĪĿ":6364,"ĠáīłáĬ¢áĬ®áĬĸáĪļ":6365,"ĠáĬ¥áĬķáĬŃáī¥áĬ«áī¤":6366,"ĠáĪħáī¥áĪ¨áī°áĪ°áī¥":6367,"ĠáĪĺáĪĨáĬĹáĬķ":6368,"ĠáĬłáĭ²":6369,"ĠáĬłáī¡":6370,"Ġáī¢áĪĨáĬĳ":6371,"áĪĪáĬłáī¥áĬĲáīµ":6372,"Ġáĭ¨áī°áĭ«áĭ«áĭĺ":6373,"áĮ§áī¸áĭį":6374,"ĠáĬłáĬ¥áĪĿáĪ®":6375,"Ġáĭ¨áĪļáĪłáĪ«":6376,"ĠáĭķáĭįáīĢáīµ":6377,"Ġáĭ¨áīµáĪĿ":6378,"ĠáĮ®":6379,"ĠáĬłáĪ°áĪ«":6380,"ĠáĬłáĮłáĮĪáī¥":6381,"Ġáĭ¨áī¡áĬĵ":6382,"áīĥáīħ":6383,"Ġ37":6384,"áĬĢ":6385,"áīłáĭĻ":6386,"ĠáīłáĬłáĪŃ":6387,"ĠáĬłáĭ«áĭ«áĭĿ":6388,"ĠáĪµáĪĪáĪĺáĪĨáĬĳ":6389,"áĪĺáī½":6390,"áĬŀáī¹áĬķ":6391,"Ġáĭ¨áĬ¥áĬķ":6392,"áĪ¥áĪ«áīħ":6393,"áĭ²áĪģ":6394,"ĠáĪ°áīłáī¥":6395,"ĠáĪĬáī³":6396,"áĪ¶áĪµáīµ":6397,"ĠáĬ®áĪļáĪ½":6398,"ĠáĭŃáĭĺáīµ":6399,"ĠáĬ¥áĭ¨áĪ°":6400,"ĠáĭŃáįĪáĮ¥áĪ«áĪį":6401,"áĮĪáī±":6402,"áĭ³áĭĬ":6403,"ĠáĭĪáĭ²áĭ«":6404,"Ġáĭ¨áī°áĪ¸":6405,"áĪ®áī¹áĬķ":6406,"ĠáĬłáĪĿáĬĵ":6407,"ĠáĪĺáĪ°áĬĵ":6408,"áīłáĪ½áī³áĭį":6409,"ĠáįįáĪįáĪµáįįáĬĵ":6410,"Ġf":6411,"áĭ°áĪ®áī½":6412,"Ġáĭ¨áī°áĬķ":6413,"Ġáīłáĭ°áĪį":6414,"ĠáĪĪáĪĺáĮłáīłáīħ":6415,"ĠáĮĬáĭľáĭį":6416,"ĠáĪĺáĪĪáĪ°":6417,"ĠáĪ°áĪŃáīª":6418,"ĠáĪ¥áĮĭáīµ":6419,"áĪ¨áĬŀáī½":6420,"áĪ«áī¶áĬķ":6421,"áĪĭáīµáĪĿ":6422,"áĬĴáĪµáīµ":6423,"ĠáĮłáīģáĪĺáĭį":6424,"Ġáĭ¨áīĢáĭµáĪŀáĭį":6425,"ĠáīłáĬ¥áĬĶ":6426,"áī£áĭŃáĪį":6427,"Ġáĭ¨áīĨáĭ¨áĭį":6428,"áįĭáĬŃáī¸áĪªáĬķáĮį":6429,"ĠáĬłáĮ¥áī¥":6430,"áĪ«áĬĵ":6431,"ĠáĬłáĪ®":6432,"ĠáĪĿáĮį":6433,"ĠáĬ¥áĬķáĭ°áĪļáĮĪáĬĻ":6434,"áĭŃáĪĦáĬķ":6435,"áĪ¸áĮĭáĮĪáĪŃ":6436,"áĪłáĪį":6437,"le":6438,"Ġáī¥áī³":6439,"ĠáĪ¥áĪĭáĪ´":6440,"áī½áĬĭáĪĪáĪģ":6441,"áĭ³áĭŃ":6442,"áĭĪáĪ°áĭ°":6443,"ĠáĬłáĬķáĭ³áĬķáĭ¶áī¹":6444,"Ġáīłáī°áĪ°":6445,"Ġáĭ´áĬ¤":6446,"ĠáĪĽáĭµáĪ¨áĮĭ":6447,"ĠáĪĺáĭĭáīħáĪŃ":6448,"áĪµáīĢáĪ³":6449,"áī°áĬŀáī¹":6450,"ĠáĬ¨áĪĺáĬķáĮįáĪ¥áīµ":6451,"ĠáĪµáĪ«áĭİáī½áĬķ":6452,"Ġáĭ¨áĮĪáĮłáĪŃ":6453,"ĠáĮ¤áĬĵáĪĽ":6454,"áĪĪáĭ°":6455,"áĭŃáĭĻ":6456,"Ġáī³áĭ°áĪ°":6457,"Ġáĭ¨áĪĢáĮĪáĪŃ":6458,"áįĲáĪŃ":6459,"áīłáĪģáĪĪ":6460,"ĠáīłáĪ´áī¶áī½":6461,"Ġáī°áĬĲáĮį":6462,"ĠáĬłáĭŃáī½áĪīáĪĿ":6463,"ĠáĬłáĮŃáĪŃ":6464,"Ġáī°áĮĪáĬķáĭĿ":6465,"áĪ³áī½":6466,"ĠáįĪáĪĪ":6467,"áī³áĭĪáīģáīµ":6468,"áīµáĪĺáīµ":6469,"áĭįáĬķáīµ":6470,"áĪĭáĪĪáįī":6471,"Ġáĭ©áĬĴáī¨áĪŃáĪ²áī²áĭİáī½":6472,"áĪĿáĬĵáĪįáī£áīµ":6473,"ĠáīħáĪŃáĬķáĮ«áįį":6474,"áĬķáĭ°áĪŃ":6475,"áįĳ":6476,"ĠáĪĽáĭŃ":6477,"Ġáĭ°áĪħáĬĵ":6478,"Ġáĭ¨áĭįáĬĥ":6479,"ĠáĭľáĪĽ":6480,"áĭ¨áĪļáĪį":6481,"áīĢáĪ¨áīµ":6482,"áĪµáĪĪáĭļáĪħáĪĿ":6483,"áīłáĪ¨áī³áī»":6484,"áĮįáĪ©":6485,"áĪ°áĮ£":6486,"ĠáīłáĪ°áĮłáĭį":6487,"áīłáĬłáĮĪáĪªáī±":6488,"ĠáĪ°áĮ¥áī°áĭį":6489,"ĠáĪĺáĪ¥áĪ«":6490,"ĠáīłáĪļáĭ°áĪ¨áĮĪáĭį":6491,"Ġáĭ¨áĪ°áĮ¡áīµ":6492,"ĠáĪĿáĪµáĮĭáĬĵ":6493,"ĠáĬłáįĪáįĥáįĢ":6494,"áįĭáī¸áĭįáĬķ":6495,"áįĬáī±":6496,"áĭ¨áĬłáįįáĪªáĬ«":6497,"ĠáįīáĬŃáĬŃáĪŃ":6498,"ĠáĬ¨áĬķáī²":6499,"áĭ³áĭµ":6500,"áĪļáĬķáī¶":6501,"áĮ¸áĭį":6502,"ĠáĪĨáĬĲáĬķ":6503,"ĠáĮīáĭµáĪĪáīµ":6504,"Ġáī°áĭĪáĬ«áĭŃ":6505,"Ġáįĭáī¥áĪªáĬ«áĭİáī½":6506,"ĠáīłáĮĪáĬķáĭĺáī¥":6507,"áĪ°áĬĵáĪį":6508,"áĮĪáĪ«áĪļ":6509,"áĪĺáĭĺáĮĪáīłáĭį":6510,"ĠáĮ«áįį":6511,"ĠáĬłáĪ³áĪµáīłáĭĭáĪį":6512,"ĠáĭŃáĪ»áĪĭáĪį":6513,"Ġáī´áĭİáĭµáĪ®áĪµ":6514,"áĪĪáī°":6515,"ĠáĪĪáĮĪáīłáĭ«":6516,"ĠáĪĪáĪĽáĬ¨áĬĵáĭĪáĬķ":6517,"ĠáĬłáĮĭáĪŃ":6518,"áĪĭáĪĪáĬķ":6519,"áĬĴáĭį":6520,"ĠáĪ³áĬķáī²":6521,"áĪ¶áĬķ":6522,"áĪĺáĪ¨áĮ¡":6523,"ĠáīłáĭĻ":6524,"Ġáĭ¨áī³áĭĪáīĢ":6525,"ĠáĮ©":6526,"Ġáī°áĮįáĭ³áĪ®":6527,"áĬ©áĪµ":6528,"ĠáįįáīµáĪķ":6529,"ĠáĪĪáĬĲ":6530,"áĬ¨áĪĽ":6531,"Ġáĭ¨áĪļáī»áĪĪáĭį":6532,"ĠáĪĽáī´":6533,"Ġáī£áĪĭ":6534,"ĠáĪļáĪµ":6535,"ĠáĬĥáĭŃáĪī":6536,"ĠáĬ¥áīħ":6537,"áīłáĭĺ":6538,"ĠáĪĪáĬłáĪĿáĪĭáĬŃ":6539,"ĠáĪ²áĮĪáī£":6540,"ĠáĮ¥áīĤ":6541,"ĠáĮīáĪį":6542,"áĪĢáĪį":6543,"ĠáĬĲáīłáĪ¨áĭį":6544,"áĪįáĭ«":6545,"áĪ°áīłáĭį":6546,"Ġáĭ«áĮĪáĬĻ":6547,"áĬ®áī½áĬķ":6548,"áī½áĪģáīµ":6549,"ĠáĪĺáīĨáĭ¨":6550,"áĪļáĬĴáĪµáīµ":6551,"áĪĭáĪļáĬŃ":6552,"Ġáĭ¨áī°áĮĭ":6553,"ĠáĬłáĪµáĭ°áĬĵáīĤ":6554,"ĠáĬ«áĪīáīµ":6555,"áĬ¥áĪµáī²":6556,"ĠáĮłáī¥áīĨ":6557,"ĠáĬ¥áĪ´áīµ":6558,"áĪ«áĪ¨áī¥":6559,"ĠáĬ®áĪªáĭ«":6560,"ĠáĬ¦áĪİáĪĿáįĴáĬŃ":6561,"ĠáĬ¥áĪµáĪ«áĬ¤áĪį":6562,"Ġáĭ¨áĭĪáĬķáĮĢáĪį":6563,"áĪ«áĪ¹":6564,"áī¤áī°áĪ°":6565,"Ġáī°áĪĺáĭĿáĮį":6566,"ĠáīłáįįáīħáĪŃ":6567,"ĠáĪĪáīħ":6568,"áĪªáī³":6569,"áĬĶáĬķ":6570,"Ġáīłáī°áįĪáĮ¥áĪ®":6571,"áĪĦáĭ°":6572,"Ġáĭ¨áī£áī¡áĪŃ":6573,"ĠáĬ¨áįĭ":6574,"áĭĪáĭ³áĭ°áĪŃ":6575,"ĠáįĢáĪĲáĭŃ":6576,"ĠáĪ¸áĭĭ":6577,"ĠáĪĺáīĨáĮ£áĮłáĪŃ":6578,"áī²áĭ«":6579,"ĠáĬ¥áĬĵáĭį":6580,"áĮĪáĪįáĮĭ":6581,"áĬĶáĪ«áĪį":6582,"ĠáīłáĬ¥áĪŃáĪµ":6583,"ĠáīłáĪįáĭ©":6584,"he":6585,"Ġáĭ¨áĪ»":6586,"ĠáĬ¨áĭĪáĭ²áĪģ":6587,"ĠáīłáĪ½áī³áĭİáī½":6588,"ĠáĬ¥áĬķáĭ²áī³":6589,"Ġáī°áīĢáī¥áĪİ":6590,"ĠáĪĽáĬħáīłáĪ«áĭĬ":6591,"24":6592,"ĠáĪĽáĭµ":6593,"áĭĺáĮį":6594,"ĠáĬłáĭŃáĪģ":6595,"ĠáĬ«áĬķáĪ°áĪŃ":6596,"ĠáĪķáĭĿáī¡áĬķ":6597,"ĠáĪĮáĪİáī½áĬķ":6598,"ĠáĭĪáĬķáīłáĪŃ":6599,"Ġáĭ¨áīĢáĪ¨áīłáĭį":6600,"áĭ«áĭ«áĭ¥":6601,"ĠáĮįáĭ¥":6602,"Ġáī³áĬŃáĪ²":6603,"ĠáĪķáĪĺáĪĿ":6604,"ĠáĭķáĮ©":6605,"áĬ¨áįĭáįĪáĪį":6606,"áĬ¨áįĪáĪį":6607,"áįĪáĪµ":6608,"Ġáĭ¨áĪĿáĬŃáĪŃ":6609,"áī½áĪİ":6610,"ĠáĪĺáĬª":6611,"áĭİáī»áī¸áĭįáĬķ":6612,"ĠáĬ¨áĬ¥áĬĶ":6613,"ĠáīłáĪģáĭĭáĪĭ":6614,"ĠáīłáĭĿáĪŃáĭĿáĪŃ":6615,"ĠáĪĪáĮį":6616,"ĠáīłáĪĺáĮ½áĪĲáįį":6617,"ĠáįĪáĪ¨áĬķ":6618,"ĠáĬłáĪµáī°áĬĵ":6619,"áĭİáī¹áĪĿ":6620,"Ġáī°áīĢáĬĵ":6621,"áĭ³áĭ³áĪªáĭİáī½":6622,"Ġáĭ¨áĬªáĪ«áĭŃ":6623,"áĭŃáĭŃáī±":6624,"áĮ¸áī£áĪ¨":6625,"áĮĪáĬĿáīłáīµ":6626,"ĠáĬ¥áĭ¨áī³áĭ¨":6627,"áĪªáĪµáīµ":6628,"áĮįáī£áī£áīµ":6629,"áīłáĪĭáī¸áĭį":6630,"Ġáĭ¨áĭĪáĮ£áĭį":6631,"ĠáĭĪáĮį":6632,"ĠáĬłáĪµáĪ«":6633,"Ġáĭ¨áĬłáĪ¨":6634,"ĠáĪĪáĪĽáĪ³áĭ¨áīµ":6635,"ĠáĪīáĭĵáĪĭáĭĬ":6636,"Ġáĭķáīĥáĭİáī½":6637,"áįĮáĭ°áĪ«áĪį":6638,"ĠáĪĺáįįáī³áīµ":6639,"ĠáĪģáĪĭáī½áĬķáĪĿ":6640,"ĠáĪĪáĪĽáĪ»áĪ»áĪį":6641,"áĭ´áĪį":6642,"Ġáĭ¨áĬ¢áĭ¨áĪ±áĪµ":6643,"Ġáĭ³áĭŃáĪ¬áĬŃáī°áĪ©":6644,"ĠáīģáĪŃáĮłáĬĿáĬĲáīµ":6645,"áīłáĪĢ":6646,"Ġáĭ¨áĪĺáįįáīµ":6647,"ĠáĬłáī¥áĭĽáĬĽáĭį":6648,"ĠáĬ¥áĪĺ":6649,"áĬŃáįĪáĪį":6650,"ĠáĭŃáĪµ":6651,"áįĪáĪĭáĮĬ":6652,"Ġáī¤áī³áī¸áĭį":6653,"ĠáĬ¥áĪµáĬ«":6654,"ĠáĬłáĮĪáĪįáĮįáĪİáī¶áī½":6655,"ĠáĬłáĮĪáĪįáĮįáĪİáī±áĬķ":6656,"ĠáĬ¨áĪĺáĬķ":6657,"ĠáĬ¥áĬķáĭ°áĪļáĬĸáĪŃ":6658,"áĮ»áįĪáĭį":6659,"áĮĪáĪ«áīµ":6660,"áĭ°áīĢ":6661,"áĭ±áĪĿ":6662,"ĠáĬłáĬķáīłáĪ³":6663,"áĭĺáĪŃáĮĭáīµ":6664,"ĠáĬ¥áĬķáĭ°áĪļáĭ«áĪ³":6665,"ĠáĪ°áĭŃáĮ£áĬķ":6666,"áĬķáī³áĭĬ":6667,"Ġáĭ¨áī°áĪĭ":6668,"Ġáĭ¨áī°áĪŀáĪĭ":6669,"áĮŃáīłáĪŃ":6670,"áĬŃáĪįáĬĵ":6671,"áĪ©áĬĵ":6672,"áĭ±áĪµáīµáĪªáĭİáī½":6673,"ĠáīłáĪŀáīµ":6674,"ĠáīĦ":6675,"Ġáĭ¨áĭľáĮİáī½":6676,"áĬĲáī´":6677,"áĪĺáĮ£áĪĿ":6678,"Ġáĭįáī¥":6679,"ĠáĪĽáĪµáĮłáĬķáīĢáīĤáĭ«":6680,"áĬłáĬķáĭ°áĬĽáĭį":6681,"Ġáĭ¨áĪ«áĪµ":6682,"ĠáĮĢáĪŃáī£":6683,"ĠáĮ¢áĪŀ":6684,"Ġáĭ«áĪĪáĪĿáĬķáĪĿ":6685,"áĪĪáįī":6686,"áĪĬáĭµ":6687,"Ġáī°áĮ¨áĭĭáī¾áī½":6688,"ĠáĪĺáĪĿáĮ£áī±áĬķ":6689,"áĪµáĪĭáĪļáĬŃ":6690,"áĪ«áĪĪáī½":6691,"áĪ¯áĬķ":6692,"ĠáĬ¢áĬķáī°áĪŃáĬĵáĪ½áĬĵáĪį":6693,"áĪ¨áĬ¨":6694,"áĪ«áī¢áĭ«":6695,"ĠáĬŃáĪĬ":6696,"áįĪáī°áĪ½":6697,"ĠáĬłáĭ°áĪ¨áĮĥáĮĢ":6698,"Ġáĭ³áĮį":6699,"Ġáī°áĪĭ":6700,"ĠáĪĢáĪ³":6701,"500":6702,"Ġáĭ¨áĪļáī»áĪį":6703,"áįĪáĮ¸áĪĺáĭį":6704,"áĮĪáĬĽáĪĪáī½":6705,"ĠáĬłáĮĪáĪªáī±áĬķ":6706,"áīĥáĭĪáĪĿ":6707,"áĪµáīµáĪ«":6708,"áĬ¦áĪ®áĪŀ":6709,"ĠáĭķáĭįáīħáĬĵ":6710,"ĠáĮłáĭŃáīĢáĭĭáĪį":6711,"ĠáĭŃáĪģáĬķáĬĵ":6712,"ĠáīłáĪĺáĮįáī£áīµ":6713,"áĪ½áĬĲáīµ":6714,"áī±áĬķáĪĿ":6715,"Ġáĭ¨áī´áĬŃáĬĴáĬŃ":6716,"ĠáĪĪáĭ¨áīµ":6717,"ĠáĪĪáĪĺáĬĸáĪŃ":6718,"ĠáĪ½áĪįáĪĽ":6719,"ĠáĪĪáĪªáįĸáĪŃáī°áĪŃ":6720,"áĮ¥áĭ«áīĦ":6721,"áĪ³áĪ«":6722,"ĠáīłáĪĺáĪįáĬ«áĪĿ":6723,"áĮħáī¶":6724,"ĠáĭĪáĭ°áī°":6725,"Ġáĭ¨áĬĲáįĥ":6726,"áĬ¨áī³áī³áĭŃ":6727,"ĠáĪĽáĪĺáĬķáĮ«":6728,"Ġáĭ¨áĮŃ":6729,"áĮĭáĭ¬":6730,"ĠáĪŃáī¥áĪŃáī¥":6731,"ĠáĬ¥áĬķáĭ²áĭ«áĭįáĪĿ":6732,"ĠáīłáĭĽáĪ¬áĭį":6733,"áĬĳáįĭáĬŃáī¸áĪªáĬķáĮį":6734,"áĮİáĪįáīłáīµ":6735,"Ġáī°áįİáĬ«áĬ«áĪª":6736,"áĪ°áĪĽáĪ«áīµ":6737,"áī¥áĬķáĪĿ":6738,"áīłáīĢáĮ£":6739,"Ġáī°áĪ°áĪĿ":6740,"áĮ«áīµ":6741,"ĠáĪĺáĮ½áĪĶ":6742,"ĠáĬ¨áĬłáĪĿáĪĭáĬŃ":6743,"áīºáĬķ":6744,"áĬĲáĪŃáĪ±":6745,"áĭĪáĪŃáĭµ":6746,"Ġáī¢áĪ«":6747,"ĠáĬłáĬķáĭ³áĬķáĭ´":6748,"ĠáĬłáī¥áĪ«áĪŃáī°áĭĭáĪį":6749,"áĮłáī½":6750,"ĠáĪ«áĪµáĬķ":6751,"áĬ¥áĬĲáĪ±áĪĿ":6752,"ĠáĪĺáīģ":6753,"áīµáĪ®":6754,"ĠáĪĪáĪĺáĭµáĪ¨áĪµ":6755,"Ġm":6756,"ĠáĭĪáĭ°áĬĭáĪĭ":6757,"Ġáī³áĬŃáĪµ":6758,"ĠáĪ¨áĭµ":6759,"Ġ45":6760,"ĠáĬ¥áĬķáĭ³áĪįáī°":6761,"ĠáĮįáī¥áĪ¨":6762,"Ġ70":6763,"ĠáĭĪáĭ²áĭ«áĭįáĬĳ":6764,"Ġáĭ¨áĭ±":6765,"ĠáĮīáĪįáīłáīµ":6766,"Ġáī½áĪİáīµ":6767,"ĠáĬĵáĭŃ":6768,"Ġáĭ³áī¦":6769,"áīłáī°áĪĪáĭ«áĭ©":6770,"Ġáĭ¨áĭĺáĪŃáįī":6771,"áī³áĭ°áĪŃ":6772,"áĭ®áĪĲáĬķáĪµ":6773,"ĠáĮ¨áĪŃáĪ¶":6774,"Ġáĭ¨áĪĽáĬħ":6775,"ĠáįķáĪªáĪļáĭ¨áĪŃ":6776,"Ġáī£áĪĪáĪĺáĪĨáĬĳ":6777,"áĭĪáĪĪáĭµ":6778,"ĠáĮĬáĭľáĭ«áĭĬ":6779,"ĠáĬ¥áĪ³":6780,"áĪ¶áī¹":6781,"Ġáī£áĪĪáĪ¥áĪįáĮ£áĬĵáīµ":6782,"áĬĲáī¶áī½áĬķ":6783,"áĭ°áĪ¨áĪ±":6784,"áĮİáīł":6785,"áī¥áĪ°áī£":6786,"ĠáīłáĪ®":6787,"áĬ¨áī¥áĪŃ":6788,"Ġáĭ«áīĢ":6789,"áĪ¬áĪµ":6790,"áĬĵáī¸áĭįáĪĿ":6791,"áĬ½":6792,"áĭµáĪ¨áĬ©":6793,"ĠáĪĽáĪµáĬ¨áīłáĪŃ":6794,"ĠáĬ§áĪ¨":6795,"ĠáĬ¥áĪº":6796,"ĠáĬ¨áĭĺ":6797,"áįĪáīĢáĭ°":6798,"ĠáĬ¤áĪŃáīµáĪ«":6799,"ĠáĬ®áĪŃáįĸáĪ¬áĪ½áĬķ":6800,"Ġáī°áĪ¾":6801,"áĭ¨áĬ¤":6802,"Ġáī£áĭ¶":6803,"áĭ°áĪ«áĮģ":6804,"áĪĳáįį":6805,"ĠáĬ¥áĬķáĭ²áĪ°áĮ¥":6806,"ĠáīĢáĪª":6807,"ĠáĪµáĪĪáĪĮ":6808,"ĠáĬ¨áĬ¥áĬĲáĪ±":6809,"áī°áĪ«":6810,"áĬĿáĪĽ":6811,"ĠáīµáĪ«áĪĿáįķ":6812,"ĠáĮĭáī¥áī»":6813,"ĠáĬłáĭįáĪ®áįķáĪĭáĬķ":6814,"áĬŃáĪĪáĭį":6815,"áĭ³áĭ©":6816,"ĠáĬ¥áĬķáĭ°áĮĪáĪĪ":6817,"áĭİáīµ":6818,"ĠáįĪáĮĪáĮį":6819,"ĠáĬłáĪµáī°áĪĽáĪª":6820,"áĭĪáĮ£áī±":6821,"ĠáĬłáĪ¨áĮĭ":6822,"ĠáĬłáĪħáĮī":6823,"áĪĺáĪĭ":6824,"áĮ¡áĪĿ":6825,"ĠáīłáĬłáĪį":6826,"ĠáĪĺáĪ¥áĭĭáĭķáīµ":6827,"Ġáĭ¨áĭĺáĪŃ":6828,"Ġáĭ¨áĪļáĮłáĭŃáīħ":6829,"ĠáĪĪáĪĺáīĨáĮ£áĮłáĪŃ":6830,"ĠáĬłáĬķáĮĪ":6831,"ĠáĪĽáĬķáĬĽáĭįáĬķáĪĿ":6832,"ĠáĬ¥áĬķáĭ°áĪļáĭ«áĭ°áĪŃáĮį":6833,"áįĲáī¥áĪĬáĬŃ":6834,"Ġáīłáĭ²":6835,"ĠáīĢáĮłáĪĪ":6836,"Ġáĭ¨áĬłáĭį":6837,"ĠáĬ¥áĮ¥áįį":6838,"áĬŃáĬķ":6839,"ĠáĭŃáĭŁáĪį":6840,"Ġáĭĺáįį":6841,"ĠáĪĬáĮī":6842,"ĠáīłáĪ¦áĪµáīµ":6843,"áĭĪáīĢ":6844,"áĬłáĪľáĪªáĬ«":6845,"ĠáĪĿáĪ¥áĪ«áīħ":6846,"áĭ³áĮį":6847,"Ġáī³áĪ³áī¢":6848,"ĠáĪģáĬĶáī³áĭİáī½áĬķ":6849,"Ġáĭ¨áĬĲáīłáĪ©áīµáĬķ":6850,"ĠáĪĺáĭµáĬĥáĬĴ":6851,"áĪĪáĪĭ":6852,"áī³áĪĪáĪģ":6853,"áĪ¥áĪŃ":6854,"áĮ»áįį":6855,"áĭĳáĭ²":6856,"Ġáī¥áī¸áĬĽ":6857,"Ġáĭ«áīĢáĪŃ":6858,"áĬłáĪµáī°":6859,"Ġáī°áīĨáĮ£":6860,"Ġáĭ¨áĪļáĭ«áĬķ":6861,"áĬ«áįĪ":6862,"ĠáĪ°áĪľáĬķ":6863,"áĭĭáĪŃáĭ«áĭį":6864,"ĠáĪ²áĪīáĪĿ":6865,"Ġáĭ¨áĪĨáĬĲáī½áĭį":6866,"ĠáĪĿáĬĵáĪįáī£áīµ":6867,"áĭŃáĮ£áĬķ":6868,"ĠáĬ¥áĬķáĭ°áĬĲáīłáĪ©":6869,"áįĭáīµáĬĵ":6870,"ĠáĪĪáĪĺáĪ¸":6871,"ĠáīłáĪĽáĪ³áĭ°áĮį":6872,"Ġáĭ¨áī°áĬĵáĮĪáĪ¨áĭį":6873,"áĬ¨áī°áĪĪ":6874,"ĠáĮįáī¥áĭĵáīµ":6875,"ĠáīłáĪķáĭĿáī¥":6876,"áĭĭáĭķáīµáĬĲáīµ":6877,"Ġáī¥áĪŃáĪĥáĬĳ":6878,"ĠáĬłáĪµáĬ¨áįĬ":6879,"áĭįáĬĲáīµ":6880,"áĭ°áĭ±":6881,"Ġáī£áī¡áĪŃ":6882,"ĠáĬłáĮĪáĭĽáĭĿ":6883,"ĠáĬ¨áĭ«áĪħáĭĮ":6884,"áĮĢáĪĺáĪ©áīµ":6885,"ĠáĬ¢áĬķáī°áĪŃáįķáĪ«áĭŃ":6886,"Ġáī°áĭ«áĭ«áĭ¥":6887,"Ġáĭ¨áī°áĪŁáĪĭ":6888,"ĠáīĢáĮłáĪ®":6889,"ĠáĬ¥áĮģáĬķ":6890,"ĠáĬłáįĪáĪŃ":6891,"ĠáĬ¨áĬ¤":6892,"áĮ¥áīĤáīµ":6893,"áĪ°áĪĽáĭŃ":6894,"Ġáĭ¨áĪļáĪµáī°áĭĭ":6895,"Ġáĭ¨áĪļáĭ°áĪŃáĪ±":6896,"áī¡áĪĿ":6897,"ĠáįįáĪį":6898,"ĠáĪĽáĬħáīłáĪ«áīµ":6899,"ĠáĪµáĪĭáĪĪáĭį":6900,"ĠáīµáĪįáĪįáīħ":6901,"Ġáī°áĮįáī£áĪ«áīµáĬķ":6902,"áĬĵáĭŃáīµáĭµ":6903,"Ġáĭ¨áĪļáĪ°áĪĽ":6904,"ĠáĬ¢áĪķáĬłáĭ´áĮį":6905,"Ġáĭ¨áī°áĭįáĮ£áĮ¡":6906,"ĠáĬłáĪµáĮĪáĬķáĭĿ":6907,"ĠáĪįáĭĳ":6908,"Ġáĭ¨áĪļáįĪáĮ¥":6909,"ĠáĬłáīĭáĪŃ":6910,"ĠáĪĺáī³áĭ¨áīµ":6911,"ĠáĬłáĪįáīĢáĪ¨áĪĿ":6912,"ĠáīłáĪ²":6913,"áĭ¨áĭĪ":6914,"Ġáĭ¨áĪĺáĭµ":6915,"ĠáĪĻáĭļ":6916,"ĠáĪķáĮĪáĭĪáĮ¥":6917,"Ġáĭ¨áĭµáĬķ":6918,"áĭĭáĮģ":6919,"ĠáĬŃáĪįáĪĭáĭĬ":6920,"ĠáĬ¢áĭ¨áĪ±áĪµáĬķ":6921,"áī¤áī°":6922,"Ġáī£áĪĪáĪĥáī¥":6923,"ĠáĪĦáĭ°áĭį":6924,"áĬĸáĪ¨áĭįáĪĿ":6925,"áĮĭáįĭ":6926,"Ġáīµáĭ³áĪŃ":6927,"ĠáĮ¨áĪ¨áī³":6928,"áīłáĪĪáĭį":6929,"ĠáīłáĪģáĪĪáī±":6930,"áĪģáĪĪáī±áĪĿ":6931,"Ġáĭ¨áī°áī£áĪīáīµ":6932,"ĠáĪĢáĭŃ":6933,"ĠáĪĺáĪĺáĪŃáĭ«":6934,"áĭĪáĮį":6935,"ĠáĪĪáĬłáįįáĪªáĬ«":6936,"áĬ¨áī°áĪĽáĭį":6937,"áĮĢáĬķáĪ²áĭį":6938,"áįĸáĪĬáĪµ":6939,"ĠáīłáĬķáĮįáĭµ":6940,"áīłáĪ±":6941,"ĠáĪĺáĪĿáĮ£áīµ":6942,"Ġáĭ¨áī»áĪĪáĭį":6943,"ĠáīłáīģáĮ¥áĮ¥áĪŃ":6944,"áĮĭáĪĪáĪģ":6945,"ĠáĪĽáĬĶ":6946,"Ġáĭ«áĮĪáĬĽ":6947,"áĮłáįį":6948,"ĠáīłáĪĺáĪĭ":6949,"ĠáĬłáĪµáĬ¨áī£":6950,"ĠáĪĮáĪİáī¹":6951,"áĭĺáĮĭáĮĥ":6952,"áĬķáī°áĬķ":6953,"ĠáĪĽáĮłáĬĵáĬ¨áĪŃ":6954,"Ġáīłáī°áĮĪáī¢áĭį":6955,"ĠáĭĭáĬĲáĬĽáĭį":6956,"áĮ³áĭįáĪİáĪµ":6957,"áĮĪáī°áĬĽ":6958,"áĪĽáĬķáĬĽáĭįáĪĿ":6959,"ĠáĬłáĪįáī»áĪīáĪĿ":6960,"áĪĽáĪªáĭ«":6961,"ĠáĪĪáĬ«":6962,"ĠáĪ°áĪŀáĬķ":6963,"ĠáīłáĬłáĭįáĪ®áįĵ":6964,"Ġáĭ¨áĪ°áĮ¡":6965,"ĠáīĨáĭŃáī°áĭĭáĪį":6966,"áīĥáĬķ":6967,"ĠáĪĪáĪĺáĬĵáĮĪáĪŃ":6968,"ĠáĬłáĪĿáĪįáĬ®":6969,"Ġáĭ«áĪħáĪī":6970,"áĬķáī£áĪĮ":6971,"ĠáĮ¥áĪ«":6972,"ĠáĬłáĬķáĭµáĬķ":6973,"ĠáīłáĬ¨áī°áĪĽáĭĭ":6974,"Ġáĭ¨áĪĺáĬĲ":6975,"áĪĺáĪ«áĭį":6976,"ĠáĪĺáĭ°áĪ¨áĮīáĬķ":6977,"ĠáĭŃáĪį":6978,"ĠáĪĺáĪĨáĬĳáĪĿ":6979,"áĬķáįĪáĬĽ":6980,"ĠáĪĺáĭĭáīħ":6981,"Ġáĭ¨áĪª":6982,"Ġáĭ°áĮĥ":6983,"áīĨáĬĵ":6984,"áĪµáī²áĬŃ":6985,"ĠáīłáĭĽ":6986,"ĠáĭŃáĬķ":6987,"áĭ°áī£áī£áĭŃ":6988,"Ġáĭ¨áĪļáĭ«áĪĺ":6989,"ĠáĪĺáĪŃáĪĲ":6990,"áĬ¨áĪ°áī°áĭį":6991,"ĠáĬłáī¥áĭ®áīµ":6992,"áĭĭáĪŃáĭ«áīµ":6993,"Ġáī¥áĬŃ":6994,"ĠáĬłáĪĺáīº":6995,"ĠáĭĪáīħáīµáĪĿ":6996,"ĠáĪ³áĭŃáĬķ":6997,"áĬħáī¥áĪ¨áī°áĪ°áī¡":6998,"ĠáīłáĪħáĭĿáī¥":6999,"ĠáīµáĪĭáĪĪáī½":7000,"áĪĻáĪµ":7001,"áīĨáĮłáĪŃ":7002,"áĪĪáĪĺáĪĨáĬĳ":7003,"ĠáĪįáĪĽáī³áĭĬ":7004,"ĠáĪħáĪįáĭįáĬĵ":7005,"ĠáĬ¨áĪŀ":7006,"ĠáĭŃáĪµáī°áĭĭ":7007,"Ġáĭ¨áī°áĪ»":7008,"ĠáīµáĬķáī¢áīµ":7009,"ĠáĭįáĪİ":7010,"ĠáīłáĪĽáĭµáĪ¨":7011,"ĠáįķáĪĭáĬķ":7012,"Ġáĭ¨áĪī":7013,"ĠáĬ¨áĭ¨":7014,"áĬ«áĪĶ":7015,"áĪªáĬĲáīµ":7016,"ĠáĮ¥áĬĵáīµáĬĵ":7017,"ĠáĬłáĬķáĭ³áī½":7018,"Ġáĭ¨áīłáĪĪ":7019,"áĬ¨áĪĭáī¸áĭį":7020,"Ġáĭ¨áĪļáĭįáĪį":7021,"Ġáĭ©áĬĴáī¨áĪŃáĪµáī²":7022,"áĭĿáĮįáĮħáīµ":7023,"ĠáįĶ":7024,"áĪ¨áĬĿ":7025,"ĠáĪľáĭ³áĪįáĭ«":7026,"ĠáĮ¥áĪŃáĮ¥áĪŃ":7027,"ĠáĪ³áĪĻáĬ¤áĪį":7028,"ĠáįĨ":7029,"áĮ¥áīłáī¥":7030,"Ġáĭ¨áĪļáĬķ":7031,"ĠáĬ¥áĬķáĭ²áĭĪáĮ¡":7032,"ĠáĪĪáĪĺáĬķ":7033,"áĮ®áī½áĬķ":7034,"Ġáī°áĪµáĪĽáĪĿ":7035,"ĠáĪĽáĪ¨áįĬáĭ«":7036,"áĬķáĬĽáĭįáĪĿ":7037,"áī¶áī»áī¸áĭįáĬķ":7038,"áĬ¥áĪ·":7039,"ĠáĬ¥áĪµáĪŃ":7040,"ĠáĪĺáīĭáīĭáĪĿ":7041,"ĠáĬ«áĪĿ":7042,"ĠáĪįáī¦áĬĵ":7043,"ĠáĪĪáĭĺáĪĺáĬĵáīµ":7044,"áįįáĪµ":7045,"ĠáĬ¥áĬķáĭ²áī°":7046,"ĠáĮ¨áĪŃáīħ":7047,"áĬĵáĪµ":7048,"áĬłáĬł":7049,"ĠáĪħáįĥáĬĵáīµ":7050,"áī½áĪģáĪĿ":7051,"Ġáĭ°áĪĺáĭĪáĭĿ":7052,"áĬ¨áīłáĪ©":7053,"Ġáī£áĪĪáĪĻáĭ«áĭİáī½áĬķ":7054,"áįĪáĪ«áĪ¨":7055,"ĠáĭľáĮİáī½áĬķ":7056,"ĠáĪĪáĭŃáī¶":7057,"áĪŀáĬĳ":7058,"áīĨáĭ¨áīµ":7059,"ĠáĬ«áĪħ":7060,"áįĥáĪľ":7061,"Ġáī´áĪĮ":7062,"Ġáĭ¨áĪļáĮĪáĪįáĮ¹":7063,"Ġd":7064,"ĠáĬ¥áĬķáĭ²áĬĸáĪ«áī¸áĭį":7065,"áĮłáī¥áīģ":7066,"ĠáĬ¨áĪįáī¥":7067,"ĠáĬ¥áĪħáīµ":7068,"ĠáĪĺáĮłáĬĲ":7069,"áī¸áĭįáĬĵ":7070,"áĬĽáĭİáī¹":7071,"ĠáĪ°áįĭ":7072,"Ġ38":7073,"ĠáīłáĪĽáĬķáĬĽáĭįáĪĿ":7074,"ĠáĬłáĭįáĮ¥áī¶":7075,"ĠáĬ¨áĭĵ":7076,"ĠáĪĭáĪĪáĭį":7077,"ĠáīłáīħáĬķ":7078,"ĠáĬłáĪħáĪĺáĭµ":7079,"Ġáī°áīĥáĭĭáĪļáĭİáī½":7080,"áĬªáĬķ":7081,"Ġáĭ¨áĭ¶":7082,"áĪĪáįĪ":7083,"áĮłáĮ£":7084,"ĠáĪĿáĭĿáĮĪáī£":7085,"Ġáī¥áĭĿ":7086,"ĠáĬ¥áĬķáĭ²áĪ°áĮ¡":7087,"áĮİáĪį":7088,"ĠáīłáĬ¥áĮįáĪŃ":7089,"ĠáĬłáĪµáī°áĭ³áĭ°áĪŃáĬĵ":7090,"ĠáĪ½áĪĽáĮįáĪĮáĭİáī½":7091,"ĠáīµáĪĭáĪįáīħ":7092,"áĪŀáĬŃáĪ«":7093,"Ġ80":7094,"Ġáĭ¨áī»áĪĪ":7095,"Ġáĭ¨áīĢáĪ¨áīł":7096,"áĬķáĮīáĪ¥":7097,"ĠáīłáĭĺáĪĭáīĤ":7098,"Ġand":7099,"áĮ¼":7100,"áĪĭáĮħ":7101,"Ġáī°áīł":7102,"ĠáĪ²áĪĦáĭµ":7103,"áĭµáĪ¨áĭį":7104,"ĠáĪħáįĥ":7105,"ĠáĪĪáĪĺáīĢáīłáĪį":7106,"áĭįáĭ«áĬķáĬķ":7107,"áīĢáĭµáĪŀáĭį":7108,"Ġáĭ¨áįįáīħáĪŃ":7109,"ĠáĭĿáĭįáĭįáĪŃ":7110,"ation":7111,"ĠB":7112,"ĠáīłáīµáĬķ":7113,"Ġáī´áĬłáīµáĪŃ":7114,"Ġáĭ¨áĪĪáĬĿáĪĿ":7115,"áĭŃáĪįáīģ":7116,"ĠáĬłáī¤áī±áī³":7117,"áĮłáīĢáĪ°áĭį":7118,"áĮĪáĬĲáĭĺáī¥":7119,"Ġáī£áĭŃáĪĨáĬķáĪĿ":7120,"ĠáīłáĬłáĪĿáĪµáīµ":7121,"ĠáĪĺáĪĪáĭ«":7122,"ĠáĪĺáĮĪáĬķáĭĺáī¥":7123,"Ġáī¢áĭĿáĬĲáĪµ":7124,"áĪłáĪĪ":7125,"áī£áī¸áĭįáĬĵ":7126,"áĬĴáĪµ":7127,"Ġáĭ¨áĭĪáĮ¡":7128,"ĠáĪĽáĬķáīłáī¥":7129,"ĠáĪįáĮĨáī¹":7130,"áĭ°áĮįáĪŀáĪĿ":7131,"ĠN":7132,"áĬħáĬķáĬĲáīµ":7133,"2006":7134,"áīħáĭµáĪĺ":7135,"áĮ¨áĭĭáī³":7136,"Ġáĭ¨áĪ³áĭŃ":7137,"ĠáĬ¥áĬķáĭ°áĪĿáī³":7138,"¸áĬĵáįĬ":7139,"áĪ¿":7140,"ĠáĪĪáĪĽáĭ³":7141,"áĪµáĪ«áĬ¤áĪĭáĭįáĭ«áĬķ":7142,"ĠáĭŃáĪĦáĭ³áĪį":7143,"áĪ®áįķáĪĭ":7144,"ĠáīłáĪĺáĮ¥áīĢáĪµ":7145,"áĪ®áĪĿ":7146,"Ġáĭ«áĮį":7147,"Ġáĭ«áĭķáīĨáī¥":7148,"Ġáĭ¨áĬłáīħáĪĿ":7149,"ĠáįķáĪ¬áĭļáĭ³áĬķ":7150,"ĠáĬłáĬŃáĪ«áĪª":7151,"áĪĺáĬķáĮįáĪ¥":7152,"Ġáīłáĭ¨áīµáĬĽáĭįáĪĿ":7153,"ĠáīģáĮ£":7154,"ĠáĪĺáĪĪáĭĪáĮ¥":7155,"Ġáĭ¨áįĢáĮ¥áī³":7156,"ĠáĪĺáĮ¨áĪĺáĪŃ":7157,"áĮ£áĭĬ":7158,"áīĥáīĤ":7159,"áĭĿáĪĽáī½":7160,"áįĭáĮłáĬķ":7161,"áī¦áī»áī¸áĭį":7162,"ĠáĪĽáĭµáĪ¨áĮīáĬķ":7163,"áĭ°áĪ¨áĪ°áĭį":7164,"áĮĭáĮ£áĪļ":7165,"áīĨáĪ«":7166,"ĠáīłáīĢáĪį":7167,"ĠáīĢáĮ£áĭŃáĬĲáīµ":7168,"ĠáīłáĪĺáĪŃ":7169,"áĪİáī½áĬĵ":7170,"ĠáĬłáĪµáī°áĭ³áĭ°áĪ©":7171,"ĠáįķáĪ¬áĭļáĭ³áĬķáī±":7172,"196":7173,"ĠáĪĽáĭįáĮ£áīµ":7174,"ĠáĭĪáĮ¥áī°áĭį":7175,"ĠáĪĺáĪįáĭķáĬŃ":7176,"ĠáĭŃáĮĪáĪįáįĥáĪī":7177,"Ġáĭķáīħ":7178,"Ġáĭ¨áĬ¥áĭµáĮĪáīµáĬĵ":7179,"ĠáĪµáĪŃáĮŃáīµ":7180,"Ġáĭ¨áĪģáĪīáĪĿ":7181,"áĪ®áĬķáī¶áĪµ":7182,"ĠáĬŃáįįáī°áī¶áī½":7183,"¥áĪ«":7184,"ĠáĭŃáĬĲáĪ³":7185,"áĭĭáĪĿ":7186,"Ġáī³áĬķ":7187,"Ġáī°áĪĺáĪįáĪ¶":7188,"ĠáīłáĮīáĭ³áĭ©":7189,"áĬŃáĪŃáĪµáī²áĭ«áĬķ":7190,"ĠáĬ¥áĬķáĮĢáĪ«":7191,"áįĪáĪįáĮĭáī¸áĭį":7192,"ĠáīłáĬ¥áĬķáĮįáĪĬáĭĿ":7193,"Ġáĭ³áĬŀáī½":7194,"ĠáĬ¨áĭļáĪħáĪĿ":7195,"ĠáĪįáĮĨáī½áĬķ":7196,"Ġáĭ¨áī¤áī°":7197,"áĭķáĪĪ":7198,"ĠáĪ°áĪĪáī£":7199,"ĠáĪĪáĪĺáĪĦáĭµ":7200,"Ġáĭ¨áĪĿáĪµ":7201,"Ġáĭ¨áĬĲáĮĪ":7202,"ĠáĪĿáĪŃáī¶áī½áĬķ":7203,"ĠáĪĽáĪµáī°áĭĭáĪį":7204,"ĠáĬ¨áĬłáĪµ":7205,"ĠáĮ¥áĬĵáī±":7206,"áĭ°áī°áĬŀáī½":7207,"áĭ¤":7208,"ĠáīłáĪĦ":7209,"áĪ°áĪŀáĬĳáĬķ":7210,"ĠáĭĿáĬķáī£áĪĮ":7211,"Ġ36":7212,"áĮ¨áĭĭáī³áĭį":7213,"Ġáĭ«áĪĭáīµáĬķ":7214,"áĪµáī²áī«":7215,"ĠáĬ¨áĪ¦áĪµáīµ":7216,"Ġáĭ¨áĪļáĬ«áĪĦáĭ°áĭį":7217,"áĮĭáĬķ":7218,"ĠáĭįáĮ£":7219,"Ġáĭ¨áĪĺáĪĨáĬķ":7220,"ĠáĬ¥áĬķáĭ²áīĢáĮ¥áĪį":7221,"ĠáĪħáĭĿáī¡áĬķ":7222,"ĠáĮįáī¥áĭ£":7223,"ĠáĭįáĭµáĭµáĪ©":7224,"ĠáĪĺáĬķáĮįáĪµáī³áĭĬ":7225,"ĠáĪĺáĭĺáĮĭáĮĢ":7226,"áĪĽáĪĿ":7227,"Ġáī¥áĪ¨áīµ":7228,"ĠáĪĺáĭµáĪ¨áĪµ":7229,"áĬłáĪĪáĪģ":7230,"Ġáī°áĪ³áī³áįĬáĭİáī½":7231,"ĠáīłáĬĲáįĥáĬĲáīµ":7232,"21":7233,"ĠáĬ¥áįĪáĪįáĮĭ":7234,"áī£áĪĪáĪģ":7235,"ĠáĬ¥áĬķáī£":7236,"ĠáĪĽáĬĲ":7237,"áĭ®áĬĸáī½":7238,"áĬ©áī£áĬķáĭ«áĭį":7239,"Ġáĭ¨áįĭ":7240,"áĭ°áī±":7241,"áĭ³áĭĬáīµ":7242,"áĬ«áĭį":7243,"Ġáĭ¨áĬ¢áĪħáĬłáĭ´áĮį":7244,"Ġáĭ®áĪ´áįį":7245,"Ġáĭ¨áĪĺáĪ³áĪ°áĪīáīµ":7246,"ĠáĪ«áĭķáĭŃ":7247,"ĠáīłáĬ©":7248,"áĪ¨áĬŃ":7249,"ĠáĪĪáĪĺáĮį":7250,"ĠáĪļáĬ«áĬ¤áĪį":7251,"áīĢáĪ¨áī¡áīµ":7252,"ĠáĪĺáĪ¨áĮĥáĭİáī½áĬķ":7253,"Ġáĭ¨áĪĻáĪµáĬĵ":7254,"ĠáĬłáĪ½áĬ¨áĪŃ":7255,"áīĨáĮłáĪ©":7256,"áĪµáī°áĬķ":7257,"ĠáĪ°áĭİáī½áĪĿ":7258,"ĠáĪĪáĭįáĮ¦áī½":7259,"ĠáĪļáĭĽ":7260,"Ġáīłáįķ":7261,"ĠáīłáĪ±":7262,"ĠáĬ¨áī¤áīµ":7263,"ĠáĪĪáī£áĪĪ":7264,"ĠáĪµáĪ«áĭįáĬķ":7265,"áįĨáī½":7266,"áī®":7267,"áĭ«áĬĵ":7268,"ĠáĪĺáĭĪáĮ£áīµ":7269,"ĠáĪĺáĮĪáĬĺáīµ":7270,"Ġáĭ¨áĪļáĭĺ":7271,"ĠáįįáĪ«":7272,"ĠáĪĺáĪłáĪ¨áī°":7273,"Ġáĭ¨áĪļáĪĪ":7274,"ĠáĪĽáĬ¨áĬĵáĭĪáĬķ":7275,"ĠáĭµáĪŃáĭµáĪŃ":7276,"ĠáĬłáĪ³áĭŃáī·áĪį":7277,"ĠáĭŃáī³áĪĺáĬĵáĪį":7278,"ĠáīłáĮ¥áĬķáīĥáīĦ":7279,"ĠáīłáĬĲáīłáĪ¨áīłáīµ":7280,"Ġáĭ«áĪĪáĪĽ":7281,"ĠáĪľáĮĭ":7282,"ĠáīĭáĬķáīĭáĭİáī½":7283,"Ġáī°áĬŃáĪĪ":7284,"áĮĵáĭ°":7285,"áĮįáĬķáī¦áīµ":7286,"Ġáĭ¨áī¥áĭµáĪŃ":7287,"áĮ¾áī½":7288,"ĠáīµáĮĪáĬĽáĪĪáī½":7289,"áĬ©áīµáĬķ":7290,"áīłáĪ¨áĬ¨áī°":7291,"ĠáĪħáĭĿ":7292,"Ġáī°áīĭáĪĻ":7293,"Ġáĭ¨áĪħáĭŃáĭĪáīµ":7294,"ĠáĪĺáĪĲáĪĺáĭµ":7295,"áĬĲáĭĺ":7296,"ĠáīłáĪĺáĮł":7297,"ĠáĬłáĪŃáī£":7298,"áĭĽáĬĿ":7299,"áĮİáĭ±":7300,"áĪ¯áĭĬ":7301,"ĠáĮİáĪ«":7302,"ĠáĪĺáĭĽáĪĻáĪŃáī±":7303,"áĭµáĪĽ":7304,"Ġáĭ«áĭ°áĪ¨áĮį":7305,"áĮĪáĪ«áī½áĬķáĬķ":7306,"áĪıáīµ":7307,"Ġáī°áĭĪáĭ³áĮħ":7308,"ĠáĪĪáĭįáĮŃ":7309,"áĮłáĭŃáīĢáĭį":7310,"Ġáĭ¨áĭķáĭµáĪľ":7311,"ĠáīłáĬª":7312,"ĠáĬłáĪŁ":7313,"Ġáī°áĮĪáĬķ":7314,"áįĪáī»":7315,"áĮīáĪį":7316,"áīģáĪŁáĪį":7317,"Ġáīħáĭ³áĪľ":7318,"Ġáĭ¨áĬĲáĭ³áĮħ":7319,"Ġáī¥áĭĻáĭİáī¹":7320,"ĠáīłáĮįáī¥áĪŃáĬĵ":7321,"ĠáĪµáī³áĭµ":7322,"il":7323,"Ġáī°áĪ°áĪŃ":7324,"ĠáĪĪáĮĬáĭľáĭį":7325,"Ġáī°áī£":7326,"ĠáĪĽáĪĿ":7327,"Ġáĭ¨áĪļáĭ«áĮį":7328,"áĬ®áĪĿ":7329,"ĠáįĪáĪĭáĮĬ":7330,"áĬĲáī·áĬķ":7331,"ĠáĪĪáĪĺáĪŃáĭ³áīµ":7332,"áĪĻáīłáīµ":7333,"Ġáī¢áĪĨáĬĳáĪĿ":7334,"ĠáĪķáĮİáī½":7335,"Ġáĭ¨áī°áīĢáĬĵáĮĢ":7336,"áĮįáĭµáī¡":7337,"áī³áī½":7338,"Ġáĭ«áĪĪáīłáīµáĬķ":7339,"ĠáĪĮáĪĭáĭįáĬķ":7340,"ĠáĬłáĭ«áĪĮ":7341,"áīłáĬ¥áĪŃáĮįáĮ¥áĪĿ":7342,"ent":7343,"22":7344,"áīĢáĪ¨áĭį":7345,"áĪ½áĬĵ":7346,"ĠáįĪáĬķáī³":7347,"ĠáĭįáĭµáĭµáĪ©áĬķ":7348,"áĬ¨áī£áĬ¨áī¥":7349,"áĭĪáĭŃáĪµ":7350,"áĭ¨áīµáĬĵ":7351,"ĠáĬłáĪµáĮĪáĪ«áĪļ":7352,"ĠáīłáĬłáĪµáī°":7353,"áĬ¥áĭįáĬĲáīµ":7354,"áĬ¾":7355,"ĠáĪĺáĭ°áĪ¨áĮį":7356,"ĠáĬ¨áĪ¨":7357,"ĠáĪĪáĪĺáĭįáĪ°áĭµ":7358,"ĠáĬłáĬķáī£áī¢":7359,"ĠáĪĺáĪµáĪĽáīµ":7360,"áīłáĪįáĮ¡":7361,"197":7362,"Ġáī°áĪ¨áĭµ":7363,"Ġáĭ¨áī°áĮĢáĪĺáĪ¨":7364,"ĠáĪ²áĪ°":7365,"ĠáĮĪáĬĲáīµ":7366,"áĮ¦áī½áĬķ":7367,"ĠáĬ¥áĪŃáĪ±":7368,"Ġáĭ¨áīµáĪ«áįĬáĬŃ":7369,"ĠáĬłáĬĲáĮĭáĮĪáĪŃ":7370,"áĪĺáĪĪáĬŃáīµ":7371,"áĪ³áī°áįĪ":7372,"ĠáĬ¥áįĪáĪįáĮĭáĪĪáĪģ":7373,"Ġáī°áīĭáĪĽáīµáĬķ":7374,"áĮ¨áĬĲ":7375,"ĠáĪĽáĬķáĪ³áīµ":7376,"Ġáĭ¨áĬłáĪĺáĪ«áĪŃ":7377,"ĠáĭŃáīĢáĪŃ":7378,"áįĭáī±":7379,"ĠáĪ³áĭŃáĪĨáĬĳ":7380,"ĠáĬ¨áĪĺáĪµ":7381,"áī½áĮįáĪ©áĬķ":7382,"áįĶáĬķ":7383,"Ġáĭ«áĪĺáĪĪáĬŃáī³áĪī":7384,"áĮĪáĬĵáĪį":7385,"ĠáĬłáĭ°áĪ¨áĮī":7386,"ĠáĪĽáīħáĪ¨":7387,"Ġáī¢áĭ«áĪµ":7388,"Ġáī°áĪĺáĪ«áĮŃ":7389,"Ġáĭ¨áī¥áĪĶáĪ«áĭĬ":7390,"ĠáĬ¨áĭĭ":7391,"áīĢáĭ°áĭį":7392,"Ġáĭ¨áĪļáĪĺáĪĪáĬ¨áī³áī¸áĭį":7393,"Ġáĭ¨áĪļáī½áĪīáīµ":7394,"áĪ¨áĪ°áī¥":7395,"áįįáĪĪ":7396,"áĮ¨áĬķ":7397,"ĠáīłáĪĢáĮĪáĪªáī±":7398,"Ġáĭ¨áĪļáĪĺáĪ«áĭį":7399,"áĪįáĮħ":7400,"áī£áīłáĪį":7401,"ĠáĪĪáĬłáĬķ":7402,"ĠáĪĺáĪ£áĪªáĭ«áĭİáī½":7403,"ol":7404,"áĪµáī¦":7405,"áī£áī³áĭį":7406,"ĠáīłáĪ¸":7407,"áĮ¥áĪİ":7408,"ĠáĬ¥áĬķáĭ²áĮĪáī¡":7409,"Ġáīłáī°áĭ°áĪ¨áĮĪ":7410,"ĠáĮĪáĪĪáįĥ":7411,"áĪĺáī»áī¸áīµ":7412,"áĬĵáĭ³":7413,"ĠáĪĪáĪ¥áĪ«":7414,"ĠáĪģáĬĶáī³áĭį":7415,"ĠáĪĮáĪĭáĬĽáĭį":7416,"áī¥áĬĽáĪį":7417,"áī£áīµáĬĵ":7418,"ĠáĭµáĪ«":7419,"ĠáĪĪáĪĺáīĭáīĭáĪĿ":7420,"ĠáīłáĪļáĬ«áĪĦáĭ°áĭį":7421,"ĠáĬ¨áĬ¥áĬĽ":7422,"ĠáĬ¥áĬķáīħáĪįáįį":7423,"ĠáĬłáĭķáĪĿáĪ®":7424,"áĪĽáī±":7425,"ĠáĬ¥áĬķáĭ²áįĪáĮłáĪŃ":7426,"áĪ»áĪĪáĪģ":7427,"áĮĪáĬĵáĬĺáīµ":7428,"ĠáĭŃáĮłáīĢáĪ³áĪī":7429,"Ġáĭ¨áī°áĪ³áĪ³áī°":7430,"áĪįáĮ¥":7431,"áĬŃáĪİ":7432,"Ġáĭ¨áĪļáĮłáīģ":7433,"Ġáī£áĪ³":7434,"Ġáīłáī°áĭĪáĪ°áĬĲ":7435,"ĠáĪ³áĭ«áĪµ":7436,"áĮĵáĮĵ":7437,"ĠáįįáīµáĪĥáĭĬ":7438,"áĭĳáĪµ":7439,"ĠáĪĪáĮĪ":7440,"ĠáĭŃáĭį":7441,"ĠáĮįáįĬáīµ":7442,"łáĪ«áĪŃ":7443,"ĠáĬ¬áĪļ":7444,"ĠáĬ¥áī£áĬŃ":7445,"ĠáĪĺáīµ":7446,"áīĥáī¸áĭįáĬķ":7447,"ĠáīłáĪĺáĮĪáĬķáī£áīµ":7448,"ĠáĮįáĬķáī¥":7449,"áĮ«áĭĭ":7450,"Ġáĭ¨áī°áĪłáĪ«":7451,"áĬķáĮĭ":7452,"ĠáĬ¥áĬ©":7453,"ĠáĪĺáĮłáīĢ":7454,"áĬ®áĪ«":7455,"ĠáĪ¨áĭ³áīµ":7456,"áĬłáĮĪáĪªáī±":7457,"áī»áĪĭáī¸áĭį":7458,"ĠáīµáĭįáĪį":7459,"ĠáĬ¥áĬĲáĪ±áĬķ":7460,"áĪµáĮĭ":7461,"áĬĲáĪªáĬķáĮį":7462,"áĮĭáī½":7463,"áĭŀáĪŃ":7464,"Ġáī£áĪħáĪįáĬĵ":7465,"Ġáī°áĮĭáĪĭáĮŃ":7466,"ĠáĮĢáĪĿáĪ¯áĪį":7467,"ĠáĪĺáĪĭáĭį":7468,"áĮĪáĪ¨áĭį":7469,"Ġáĭ¨áĬ¥áĪĿáĬĲáīµ":7470,"Ġáĭ¨áĬ¤áĪŃáīµáĪ«":7471,"ĠáīłáĮįáĪįáįħ":7472,"ĠáĬ¥áĬķáĭ²áī½áĪī":7473,"Ġáĭ¨áĪĺáī°":7474,"ĠáĪĺáĪµáĪ«":7475,"ĠáĬłáĭįáīĥáĪĪáĪģ":7476,"ĠáĮįáī¥áĭĵ":7477,"áĮłáĪĭáīµ":7478,"ĠáĪĢáĮĪáĪ®áī½":7479,"Ġáīłáī¤áī°":7480,"ĠáĬ¨áĬłáĪĿáĪµáīµ":7481,"ĠáĬłáĮĭáĪĽáĪ½":7482,"áĬĲáī³áī½áĬķáĬķ":7483,"áī³áĭ¨áĭį":7484,"áĬ«áĪļ":7485,"Ġáĭ¨áī°áĭ«áĭ«áĭĻ":7486,"Ġáĭ¨áĮ¥áīłáī¥":7487,"Ġáĭ«áĪµáĪ¨áĭ³áĪį":7488,"ĠáĬ¨áīħáĪŃáī¥":7489,"áī»áĪĪáĪĿ":7490,"áĮħáĪĽ":7491,"ĠáĮĪáĪĭ":7492,"ĠáĬ¥áĬķáĭ³áĭŃáĪĨáĬķ":7493,"ĠáĮĪáĪĪáĪį":7494,"Ġáī°áĪĺáĪ«áĪĽáĪª":7495,"Ġáī°áĪĥáĭµáĪ¶":7496,"áĭŃáĪħáĬķáĬķáĪĿ":7497,"Ġáī°áĮłáīħáĪĺáĭį":7498,"áĪĺáī¼áĪĿ":7499,"áĪ°áī¡áĬķ":7500,"ĠáĪµáĭµ":7501,"Ġáĭ¨áī°áįĪáĮłáĪ¨áĭį":7502,"ĠáĬłáĭ³áĪĿ":7503,"ĠáĪłáĪ«áĭĬ":7504,"ĠáĬłáĭµáĪŃáĮİáī³áĪį":7505,"ĠáĪĪáĪĮáĪĭ":7506,"áĭµáĪŃáĮį":7507,"áĭ¨áĪĺáĮĢáĪĺáĪªáĭ«áĭį":7508,"ĠáīłáĪĽáĪµáĮĪáī£áīµ":7509,"ĠáĪįáĭįáĭįáĮ¥":7510,"Ġáĭ¨áĬ©":7511,"Ġáī°áĮİ":7512,"áĭ¨áĪ¨":7513,"ĠáĪĪáĪĺáĪĿ":7514,"áĪĺáĪ¨áĮ¥":7515,"ĠáīłáĮ¥áĪ©":7516,"ĠáĬłáĪ¨áĬķáĮĵáĭ´":7517,"ĠáīłáĪħáĮį":7518,"ĠáĬłáĪ¨áĮĭáĮįáĮ§áĪį":7519,"ĠáĪĺáĬķáīĢáĪ³áīĢáĪµ":7520,"ĠáĪĪáĬłáĮĪáĪªáī±":7521,"ĠáĮłáīģáĪŁáĪį":7522,"ĠáĬłáĪŃáĪ¶áĬł":7523,"áĮĢáĪŃáī£":7524,"áīłáĬĭáĪĭ":7525,"áĪ°áĪ±":7526,"Ġáī¥áĪĭáī½áĪģ":7527,"áī³áĭĪáīħáĪĿ":7528,"Ġáĭ¨áĪļáĭ«áĪµáĬ¨áīµ":7529,"Ġáĭ¨áī£áĪħáĪŃ":7530,"áĬĵáĭŃáĮĦáĪªáĭ«":7531,"áĭĪáĭ«áĭ¨áīµ":7532,"ĠáĪ°áįĪáĪŃ":7533,"áĭ«áĬķáĭ³áĬķ":7534,"ĠáĬ¤áĪĿáī£áĪ²":7535,"áĪµáī¥áĪµáī¥":7536,"ĠáĪ²áĬĵáĮĪáĪŃ":7537,"áĪķáĭĿáī¡":7538,"2015":7539,"áī°áĪ®áī½":7540,"áĭĺáįį":7541,"áĭ«áĬķáĬķ":7542,"ĠáĬłáĪĿáĮ¥":7543,"ĠáīłáĪµáī²áĭ«":7544,"ĠáĪµáĪįáīµ":7545,"ĠáĪĽáĪĪáī´":7546,"ĠáĬķáĮ¹áĪķ":7547,"Ġáĭ¨áĬĵ":7548,"ĠáĪĪáīłáĪŃáĬ«áī³":7549,"Ġáĭ¨áĪĺáĬĸáĪŃ":7550,"áĪĪáī½áĪĿ":7551,"Ġáĭ¨áĪĮáĪİáī½":7552,"Ġáīłáī£áĪħ":7553,"ĠáĪĺáĪĥáĪį":7554,"Ġáĭ¨áĬ¥áĬĵ":7555,"áĪ¹áĪ«áĬķáĪµ":7556,"áĮĭáĪĪáĮ¡":7557,"ĠáĬłáĭĿáĪĽ":7558,"ĠáĬłáī¥áĪ¨áĬķ":7559,"ĠáĬłáĪµáĭ°áĪ³áī½":7560,"23":7561,"Ġáī°áĬłáĪĿ":7562,"áĮħáĬĵ":7563,"áĪ»áī¸áĭį":7564,"ĠáīłáĬłáĪĽáĪ«":7565,"Ġáĭ¨áĪĺáĬĸáĪªáĭ«":7566,"áĬŃáĪī":7567,"ĠáĭŃáĪĺáĮ£":7568,"Ġáĭ¨áĪļáĭ²áĭ«":7569,"ĠáĪ°áĪįáįį":7570,"Ġáĭ°áī¥áĪ¨":7571,"ĠáĪ®áĪĿ":7572,"ĠáĮ¥áĪŃáĮ£áĪ¬":7573,"ĠáĬłáī¥áĭĽáĬĽáĭįáĬķ":7574,"Ġáī£áĪĪáĪĻáĭ«áĭį":7575,"áĬĵáĪįáĭµ":7576,"Ġáĭ¨áĪ°áĪĪ":7577,"ĠáīłáīĢáĪµ":7578,"Ġáī°áĪĺáĪįáĬ«áī½":7579,"áĮįáĪ®":7580,"ĠáĪĺáįĥ":7581,"ĠáĪĽáĪ°áĪį":7582,"ĠáīĨáĭŃáī¶":7583,"áįĪáĪ«áĭį":7584,"ĠáĬłáĪĺáĪĪáĬ«áĬ¨":7585,"ĠáĬ¨áĬĲáĪĽ":7586,"ĠáĭĪáĭ³áĮĦ":7587,"Ġáĭ«áĬĶ":7588,"ĠáĬłáĪīáĪĭ":7589,"áĬĲáĮĪáĪ¨áĭį":7590,"ĠáĬłáĪ«áī°áĬĽ":7591,"Ġáĭ¨áįĵ":7592,"ĠáĪĺáĪ»áĪ»áĪį":7593,"áīłáī¡":7594,"Ġáĭ«áĪĺáĮ£":7595,"Ġáī£áĬķáĭµ":7596,"ĠáĪĭáĪĪáĪĺ":7597,"ĠáĭŃáĮłáīłáīħáī£áī¸áĭĭáĪį":7598,"áīłáĪĺáĮ¨áĪ¨áĪ»áĪĿ":7599,"ĠáĬłáĬŃáī¥áĪ®áīµ":7600,"ĠáĬ¨áĪ³":7601,"ĠáĪĽáĪĿáĪ¨áīµ":7602,"áĭĭáĬķáĭ³":7603,"Ġin":7604,"Ġáĭ¨áĬłáīµáĪĮáī²áĬŃáĪµ":7605,"áĪįáī³":7606,"áĪĪáīĨ":7607,"ĠáĬĲáĭ³áĮħ":7608,"Ġáĭ¨áĪįáī¥":7609,"ĠáĬ¨áĬķáī²áī£":7610,"28":7611,"ĠáĬ¥áĪģáĭµ":7612,"ĠáĪĪáĪĺáĭĪáĮ£áīµ":7613,"áĭķáĭµáĪľ":7614,"ĠáĮĪáĪĪáĮ¸":7615,"Ġáīłáī±":7616,"ĠáīłáĬłáĪ«áīµ":7617,"ĠáīłáĪµáĪ«":7618,"ĠáĮ¥áĭ«áīĦáĭİáī½áĬķ":7619,"áī°áĬĵáĭĬ":7620,"áĭ°áī£":7621,"ĠáĪĺáĭ°áĪĿ":7622,"áĪĭáī³áĪį":7623,"áĬĸáĪ¨áĬķ":7624,"ĠáĬ¥áĬķáĭ²áĭ«áĮĪáĬĿ":7625,"Ġáĭ¨áĮ¥áĪ«áīµ":7626,"ĠáĪĥáĭŃáĪĽáĬĸáī³áĭĬ":7627,"áĪİáĬĵ":7628,"áĪĿáĬķáī±":7629,"áĮĵáī¸áĭį":7630,"ĠáĬłáĭĽáĭ¥":7631,"Ġáĭ¨áĪļáī½áĪĪáĭįáĬķ":7632,"ĠáĪĽáĪħáīłáĪ©":7633,"ĠáĭµáĪĿáįĥ":7634,"ĠáĪįáĪĽáīµáĬķ":7635,"ĠáĪ²áĭ°áĪ¨áĮį":7636,"áĮĥáįĵáĬķ":7637,"Ġáĭ¨áĪļáĭ«áĮĭáĮ¥":7638,"Ġ39":7639,"ĠáĭŃáĪ°áĪ«áĪį":7640,"Ġáī£áĪįáĭ°áĪ¨":7641,"ĠáĪįáĮĨáī»áī¸áĭįáĬķ":7642,"Ġáĭ¨áĪ´áīµ":7643,"ĠáĪĽáĭķáĬ¨áĪĭáīµ":7644,"áĬ¨áĪĭáĭŃ":7645,"ĠáīłáĪĺáĪ°":7646,"áĭķáĬĵ":7647,"ĠD":7648,"áĪĪáīģ":7649,"ĠáĪĺáĪ¨áĮĭáĮĭáīµ":7650,"Ġáĭ¨áĪ®":7651,"ĠáĮįáĪ©áĪĿ":7652,"ĠáĭŃáĪĪáĭ«":7653,"Ġáĭ¨áī°áĬ«áĪĦáĭ°áĭį":7654,"ĠáĪģáĬ¨áīµ":7655,"ĠáīħáĪµáīĢáĪ³":7656,"ĠáĬ¨áĪŃ":7657,"ĠáĪĪáĪĺáĪĨáĬĳ":7658,"Ġáī¤áī°áĪ°áī¡":7659,"ĠáįĪáī³áĬĿ":7660,"ĠáĬ«áĪĪáįĪáĭį":7661,"ĠáĬ¥áĪ³áī¸áĭį":7662,"áīłáĪ¶":7663,"áĪµáī°áĬĵáĮĪ":7664,"ĠáĬłáĪĿáī£áĮĪáĬĲ":7665,"áĭĴ":7666,"áĬĲáĮ¥áī¥":7667,"Ġáī°áĮį":7668,"Ġáīłáī°áī£áĪĪáĭį":7669,"áīĭáĪŃ":7670,"áĬ¨áĬĵáĭįáĬķ":7671,"áī¥áĪ«áīµ":7672,"áįĪáīħáĭµ":7673,"ĠáīłáĪĺáĮ£":7674,"ĠáĪªáįĸáĪŃ":7675,"ĠáĬ¥áĬĽáĬķ":7676,"ĠáĪĺáĬĲáĪ³":7677,"áĮĭáī¸áĭĭáĪį":7678,"ĠáĪĿáĬĲáĭį":7679,"Ġáī¥áĬĵ":7680,"ĠáĮįáĭ¢":7681,"Ġáīłáī°áīĥáĪ«áĬĴ":7682,"áī¨áĪŃ":7683,"áĮłáĪĺáĭį":7684,"ĠáĮģ":7685,"ĠáĬ¨áĪĮáĪĭáĭį":7686,"Ġáī³áī½":7687,"áĪĭáĪĪáįĪ":7688,"Ġáĭ¨áįįáĪŃáĭµ":7689,"áįķáĪ®áĮįáĪ«":7690,"Ġáī°áĭĭáĮĬ":7691,"Ġáĭ°áĮĭáįĬáĭİáī½":7692,"ĠáįįáĪĭáĮĲáīµ":7693,"ĠáĭĪáī°áīµ":7694,"Ġáĭ¨áĪĺáĮ¡áīµ":7695,"ĠáĬłáĪįáĭ«áĪĿ":7696,"Ġáĭ¨áĭĪáĬķáĭµ":7697,"ĠáĬ¢áĬķáĭ±áĪµáīµáĪªáĭİáī½":7698,"áįĮáĭ´áĪ¬áĪ½áĬķ":7699,"ĠáĪµáĪħáī°":7700,"Ġáĭ¨áĪļáĬĲ":7701,"áĬ¥áĪĿ":7702,"ĠáīłáĪĺáĮªáĭį":7703,"Ġáĭ°áĪ¨áĮĥáĭįáĬķ":7704,"ĠáĬłáĭ°áĮĭáĭİáī½":7705,"ĠáĭĺáĮĪáī£áĭİáī½":7706,"Ġáī°áĪ¾áĪĺ":7707,"Ġáĭ¨áĪĪáĭįáĮ¥":7708,"áĭ°áĪªáĭ«":7709,"áĭµáĪ¨áĬŃ":7710,"ĠáĬĥáĪĭáįĬáĭį":7711,"Ġáĭ²áī£áī£":7712,"ĠáĮ©áĬ¸":7713,"ĠáĪĿáĪķ":7714,"ĠáīłáĪĺáĪ¥áĪ«áīµ":7715,"áĬłáĪĭ":7716,"Ġáĭ¨áĪĺáĬ¨áĪĭáĬ¨áĭ«":7717,"Ġáī³áĭŃ":7718,"Ġáī³áĭŃáī¶":7719,"Ġáĭķáĭ³":7720,"ĠáĪŀáĮĪáĪµ":7721,"ĠáĬ¥áĪŃáĬ«áī³":7722,"áīĢáĮ¥áĪī":7723,"Ġáĭ¨áī°áĪ°áĮł":7724,"ĠáĬ¨áĪ¥áĪ«":7725,"áĭ®áĪ½":7726,"ĠáįĪáĬķ":7727,"ĠáĪĺáĪµáīĢáĪį":7728,"ĠáīłáĪķáĭŃáĭĪ":7729,"Ġáĭ¨áīłáĮİ":7730,"Ġáī°áĮłáīħáĪŀ":7731,"áīłáĪĽáĪĪáīµ":7732,"ĠáĪĺáĬĸáĪ«áī¸áĭį":7733,"ĠáĬ¢áĬķáĭ±áĪµáīµáĪªáĭį":7734,"áĮĪáĪ«áĭĬ":7735,"áīĢáįī":7736,"ĠáĭľáĬĵáĭĬ":7737,"Ġáĭ¨áĭ«áĭĺáĭį":7738,"Ġáī£áĪķáĪŃáĭŃ":7739,"ĠáīłáĭĺáĪĭáīĤáĬĲáīµ":7740,"ĠáīłáĪĽáĭįáĮ£áīµ":7741,"áĭŃáĬĲ":7742,"Ġáĭ¨áĪļáĬ«áĪĦáĭµ":7743,"áĮŃáĬķ":7744,"ĠáĪ°áĭįáĭ¨áĭį":7745,"Ġáĭ¨áĪĮáĪĭ":7746,"áī«áĭŃ":7747,"áĬłáĬķáĭ³áĬķáĭ¶áī½":7748,"ĠáĪµáĬ³áĪŃ":7749,"áīĨáĪĻ":7750,"ĠáĬ¥áĬķáĭ³áĬķ":7751,"ĠáĮĪáĪĪáĮ¹":7752,"ĠáĪĺáīħáĭ°":7753,"Ġáī°áī°áĬª":7754,"áī£áī³áĪį":7755,"ĠáĪĪáĮĭ":7756,"Ġáĭ¨áĪļáĬĲáĪ±":7757,"ĠáįĭáĭŃáĬĵáĬķáĪµ":7758,"ĠáĪįáĮĥ":7759,"áĪ¸áī£áī¥":7760,"Ġáĭ¨áī±áĪªáĭĿáĪĿ":7761,"ĠáīłáĬłáĪĽáĬ«áĭŃ":7762,"ĠáĮĵáĭ°áĬŀ":7763,"áĪķáĪŃ":7764,"áĮįáĪµ":7765,"áīłáĬ¢":7766,"áĪĿáĭµáĬĵ":7767,"ĠáĬłáĭ°áĪŃáĮĭáĪĪáĪģ":7768,"ĠáĬłáĬĲáĪ³":7769,"áĮ¥áĬĵáīµ":7770,"áĬ¦áĪį":7771,"ĠáĭŃáī³áĭ«áĪī":7772,"Ġáĭ¨áĪŀáīµ":7773,"ĠáĭĪáĭ³áĭµ":7774,"ĠáĬłáĮįáĬĿáī¶":7775,"Ġáĭ¨áįĸáĪĬáĪ²":7776,"áĮ£áĪĬáĭ«áĬķ":7777,"ĠáĬ¢áīµáĭ®":7778,"ĠáĪµáĪŃáĬłáīµ":7779,"Ġáĭ¨áĬŃáī¥áĪŃ":7780,"áįįáĪ®":7781,"ĠáĬ¥áĬķáĭ³áĪĭ":7782,"ĠáĭĪáĬķáĭµáĪŀ":7783,"Ġáī°áĪĺáĪįáĬ«":7784,"op":7785,"áĮĪáĭĺ":7786,"Ġáīłáįįáīµ":7787,"áīĢáĭ±":7788,"Ġáĭ«áĮ£":7789,"áĮĨáī¼":7790,"ĠáĪĽáĪµáĭĪáĮĪáĭµ":7791,"Ġáĭ¨áīłáĮĢáīµ":7792,"ĠáīłáĭĺáĪĺáĬĵáĭĬ":7793,"ĠáįĮáĭ´áĪ¬áĪ½":7794,"Ġáĭ¨áĮĪáī£áĭį":7795,"áīłáĭµ":7796,"ĠáĪĪáĪĽáĬ«áĪĦáĭµ":7797,"áĮ¡áīłáīµ":7798,"ĠáĮłáīħáĪ¶":7799,"ĠáĪµáĬķáĪį":7800,"ĠáīłáĮ¸":7801,"Ġáĭ¨áĪļáĭ°áĪŃ":7802,"áĭĺáĪĺáĬķ":7803,"ĠáĬ¥áĬķáĭ°áĪļáĬ¨áī°áĪĪáĭį":7804,"áĮ¬":7805,"áĪ³áĪĪáī½":7806,"ĠáĬ¥áĬķáĭ²áĭĪáĮ£":7807,"ĠáįĲ":7808,"áĪŃáī¥":7809,"ĠáĬłáĬĲ":7810,"áĬĶáĪį":7811,"ĠáĭĺáĪŃáįīáĬķ":7812,"ĠáĬłáĮįáĬĿáī°áĭĭáĪį":7813,"Ġáī°áĬ¨áī³áĭ®áī½":7814,"áĭµáĮī":7815,"áīĥáĪĪáī½":7816,"ĠáĬłáĪµáīĢáĭµ":7817,"áĮ¤áĬķ":7818,"áĪĪáĬķáī°áĬĵáĭĬ":7819,"ĠáĭŃáĭŀáī³":7820,"ĠáīłáĪĢáĮĪáĪŃ":7821,"el":7822,"áĪĪáĭĪ":7823,"áĭļáĪį":7824,"ĠáĮłáĬķáīħ":7825,"áĪĿáĬĲáĭį":7826,"Ġáī°áĪ¨áīµ":7827,"ĠáĪĪáĬłáĭ²áĪµ":7828,"Ġáī¥áĪĦáĪ¨áĪ°áī¦áī½":7829,"ĠáĬłáĪ°áĪįáĮ£áĬŀáī½":7830,"ĠáĬ¥áĬķáĭ°áĪĽáĭ«":7831,"ĠáĬłáĭµáĪ«áĮİáīµ":7832,"áĪĭáĪĿáĬĵ":7833,"Ġáĭ¨áĪļáĪ³áī°áįī":7834,"ĠáĬ¥áĭ¨áī°áĬ¨áĬĵáĭĪáĬĲ":7835,"ĠáĪĭáĪī":7836,"áīĢáĪ¨áīłáĭį":7837,"ĠáįĪáĮ¥áĪ¯áĪį":7838,"áĪ¨áī±":7839,"ĠáĭŃáĪŀ":7840,"Ġáĭ¨áĬłáĪĽ":7841,"áī¢áĭį":7842,"ĠáĬ«áĪŃáĭµ":7843,"áĬ¤áĪĿ":7844,"áĭİáĬķ":7845,"ĠáīĨáĬķ":7846,"2003":7847,"ĠáĬłáĭĭáīĤ":7848,"ĠR":7849,"áīłáĪĻ":7850,"ĠáĬ¥áĬĵáĪµ":7851,"ĠáĪ¥áĪ«áī¸áĭįáĬķ":7852,"ĠáĪŀáĬŃ":7853,"ĠáĪĿáĭķáĪ«áī¥":7854,"áĪĺáĪĻ":7855,"áĭµáĪŀ":7856,"áĪĽáīħ":7857,"áīłáĬłáĮĪáĪ«áī½áĬķ":7858,"ĠáįĮáĭ°":7859,"ĠáīµáĪŃáĮī":7860,"ĠáĬ¢áĬķáĪµáī²áīµáĭ©áīµ":7861,"ĠáĬ¨áĪĺáĬķáĮįáĪµáīµ":7862,"Ġáĭ¨áīµáĬĽáĭį":7863,"áīłáĪ¨áī³áī³áīµ":7864,"Ġáī°áĮłáĪª":7865,"áī³áī¸áĭįáĬĵ":7866,"ĠF":7867,"ĠáĪĪáĪĽáĮ¥áįĭáīµ":7868,"áĮİáĪĿ":7869,"ĠáīłáĪĿáĪ³áĪĮ":7870,"áĮįáĪĪáĪ°áī¥":7871,"ĠáĭĺáĮįáī§áĪį":7872,"ĠáĬ¤áĪįáĭ«áĪµ":7873,"st":7874,"áĮłáīħáĪĭáĪĭ":7875,"áĮŃáĪ©":7876,"ĠáĪķáĭĿáī£áĭĬ":7877,"áĪŀáĬŃáĪŃ":7878,"áĭįáĭµ":7879,"Ġáī°áĬ¨áĪĭ":7880,"ĠáĬ¥áĭ¨áĪ°áĪ©":7881,"ĠáĪĺáĪµáįĪáĪŃáīµ":7882,"ĠáīłáĮ¥áĪįáīĢáīµ":7883,"ĠáīłáĭįáĭµáĭµáĪ©":7884,"ĠáĪ³áĬķáī²áĪĿ":7885,"Ġáĭ¨áĬŃáĪįáĪį":7886,"ĠáĭŃáĮįáī£":7887,"ĠáĪĿáĪµáĪ«áīħ":7888,"ĠáĪ²áĬĵáĮĪáĪ©":7889,"áīłáĪŃáĬŃ":7890,"áĭ©áĬĴáĬ¬áĪ½áĬķ":7891,"ĠáĪ¶áĪµáī°áĬĽ":7892,"áĮĭáĭľáĮłáĬŀáī½":7893,"Ġáĭ¨áĬłáĪµáī°áĭ³áĭ°áĪŃ":7894,"áĪĿáĪµ":7895,"ĠáĪĭáĪį":7896,"ĠáĪ½áĬķ":7897,"ĠáĬ®áĬķáĪµáīµáĪ«áĬŃáĪ½áĬķ":7898,"ĠáĮ¥áĪĭáī»":7899,"Ġáīħáĭ±áĪ³áĬķ":7900,"áĪĺáīłáīµ":7901,"áī£áĪĪáĬķ":7902,"áĪħáĭĿáī¡":7903,"ĠáĪµáĭ°áīµ":7904,"ĠáĮłáĭĭáīµ":7905,"195":7906,"áīµáĪįáĬĵ":7907,"ĠáĬłáī¥áĪŃáĪĥáĪĿ":7908,"áī¦áĬķ":7909,"Ġáĭ¨áĬłáįĪáĪŃ":7910,"áĮłáĬĵáīĢáīĢáĭį":7911,"ĠáĬłáĬŃáĪ²":7912,"ĠáĪµáįĸáĪŃáī°áĬŀáī½":7913,"ĠáĬ¥áĮ¦áīµ":7914,"áĭ³áī½áĪģ":7915,"áĭĭáĭŃ":7916,"ĠáīĢáĪį":7917,"Ġ300":7918,"áĪłáĪ¨áī±":7919,"áīłáĬłáįįáĪªáĬ«":7920,"ĠáĭŀáĬĸáī½":7921,"ĠáįķáĪ®áĮįáĪ«áĪŀáī½":7922,"ĠáĬ¥áĬķáĭ°áĪļáĭ«áĪµáįĪáĪįáĮį":7923,"ĠáĪĽáĪ¸áĬĲáįį":7924,"áĭ¨áĪļáĭ«":7925,"ĠáĭįáĪµáī¥áĪµáī¥":7926,"áĬªáĪĿ":7927,"ĠáĬłáĬķáī°áĪĿ":7928,"ĠáĭµáĪįáĭµ":7929,"ĠáĬłáĭŃáĪĺáĪµáĪįáĪĿ":7930,"ĠáĪĺáĮĪáĪĺáīµ":7931,"áĪ¬áĭµ":7932,"ĠáĬķáĮ¥áĪ¨":7933,"ĠáĪĽáĪµáī°áĪŃ":7934,"ĠáĮ½áĪĳáįİáī½":7935,"ĠáīłáĬ¥áĪŃáĮį":7936,"Ġáī°áĪ¸áĪĭáĪļ":7937,"Ġáĭ¨áĪĺáĪµáĬĸ":7938,"90":7939,"ĠáĪĽáĭ°áĮį":7940,"ĠáĭįáĪµáĮ¥áĬĵ":7941,"ĠáĬłáĪįáįĪáĭį":7942,"áĭ°áĪ¨áĪ°áīłáīµ":7943,"ĠáĬŃáĪħáĪİáīµ":7944,"áĪ¨áĬ«":7945,"áĬ¨áĪªáĭ«":7946,"áĭĬáĭ«áĬķ":7947,"ĠáįĪáĬķáĭµ":7948,"ĠáĪĺáĬ«áĬ¨áĪįáĪĿ":7949,"ĠáĪŃáĭĿ":7950,"áĮ¨áĪ¨áī³":7951,"áĮĭáĮŃ":7952,"áĪĺáĪµáĪ¨áīµ":7953,"áĪĪáĬ«áĬ¨áīµ":7954,"áĪµáįĴáī³áĪī":7955,"ĠáĪµáįįáĪ«áĭİáī½":7956,"ĠáĮħáĪĽ":7957,"Ġáī°áĬĲáĪµáī°áĭį":7958,"ĠáĬĲáīħ":7959,"áĭ¨áĭĭ":7960,"Ġáĭ«áĪĿáĬĵ":7961,"ĠáĬ«áĪľ":7962,"ĠáĬ¥áĭ«áĭ¨":7963,"ĠáĬłáĪŃáĬłáĭ«":7964,"áĭĺáĭĭáĭĭáĪª":7965,"áį»":7966,"áĪ³áĪĪáĪģ":7967,"ĠáĪĽáīłáĪ¨áī³áī»":7968,"ĠáĪĪáĪĺáĭįáĮ£áīµ":7969,"Ġáī°áĮłáĭ«áīĤáĬĲáīµ":7970,"Ġáī°áīĢáĪĿáĮ¦":7971,"Ġáī°áĪŃáī³":7972,"ĠáĪĺáĪµáĪĺ":7973,"áĬ¥áĬĵáĪĭáī½áĪģ":7974,"áĭ³áĭ°áĪªáĭ«":7975,"ĠáīłáīħáĭµáĪļáĭ«":7976,"áĬŃáĪ°áĬŀ":7977,"áįįáĭ«":7978,"ĠáĪĿáĮ£áĬĶ":7979,"áįīáĪĿ":7980,"ĠáĮłáĮħ":7981,"ĠáĭįáĮ¤áī±":7982,"ĠáīłáįĮáĭ´áĪ«áĪį":7983,"ĠáĬ¨áĮĪáī£":7984,"Ġáĭ¨áī°áĮĪáĬĻáīµ":7985,"áĪģáĬĶáī³":7986,"ĠáĭĺáĭĪáīµáĪŃ":7987,"áīĭáīĭáĪĻ":7988,"ĠáĪĽáĮ£áĪªáĭ«":7989,"ac":7990,"Ġáī°áĮĢáĪĿ":7991,"Ġáĭ¨áī°áĬĲáĮĪáĪ¨":7992,"Ġáī³áĭŃáī·áĪį":7993,"ĠáĬłáĪ¸áī£áĪª":7994,"ĠáīłáĮįáī¥":7995,"ĠáĪĺáĪµáĮ«":7996,"ĠáīłáįįáĪŃáĭµ":7997,"áĪŃáĪ³":7998,"Ġáĭ¨áī°áĪ°áĪ«":7999,"ĠáĬķáįģ":8000,"Ġáī¦áī³áĭį":8001,"ĠáĬłáī£áī´":8002,"Ġáĭ¨áĪļáĭ«áĪ³áĭ¨áĭį":8003,"áįįáīħáĪŃ":8004,"ĠáīłáĪĽáĭĺáĮĭáĮĢáīµ":8005,"ĠáĬ¢áĪ³":8006,"ĠáĪĥáī¥":8007,"ĠáĬ¥áĬķáĭ°áĪĨáĬĲáĬĵ":8008,"ĠáĬ¨áĪĲ":8009,"áįįáī±":8010,"ĠáĮ¥áĪİ":8011,"áįĭáĬĵ":8012,"áĮ¤áīµ":8013,"áĬŃáĪįáīµ":8014,"Ġáīłáī³áĪªáĬŃ":8015,"ĠáĬłáįįáīĥ":8016,"ĠáĭĪáĭ³áĮħáĬĲáīµ":8017,"Ġáĭ¨áĪļáĪ¨áĭ³":8018,"áīĥáĪ½":8019,"ĠáĪĪáī°áĪĪáĭ«áĭ©":8020,"áĬ¨áī£áīłáĪŃ":8021,"ĠáįĪáĮ¥áĪ®":8022,"áī°áĪªáĭ«":8023,"áĭ¨áĪĢ":8024,"ĠáĭŃáĬĸáĪ©":8025,"áĭĪáĪĵ":8026,"ĠáĬ¨áī°áī£áĪĪ":8027,"áĬ¦áīµ":8028,"áīłáĪĺáĮĢáĪĺáĪªáĭ«":8029,"ĠáĪ²áĭ«áĭ°áĪŃáĮį":8030,"ĠáĪĺáĬķáĮįáĪ¥áīµáĬĵ":8031,"ĠáīĢáĮ¥áĪıáĪį":8032,"ĠáīłáĪģáĪĪáī±áĪĿ":8033,"ĠáĬĲáī£áĪ«áĭĬ":8034,"ĠáĭŃáĭĺáĬķ":8035,"áī¶áīµ":8036,"áīĥáĪĪáĪį":8037,"ĠáĬłáĪ°áī£":8038,"áĪ¾áī¹":8039,"áĪŃáĪ½":8040,"ĠáīłáĪĺáĪĪáĭ¨áīµ":8041,"ĠáĭĵáĪĪáĪĽ":8042,"áĪŁáĪī":8043,"Ġáī°áĭĪáĪį":8044,"ĠáĪµáī¥áĪ°áī£áĭİáī½":8045,"ĠáĬĥáĮ¢áĬł":8046,"ĠáĪĺáĬ¨áī°áĪį":8047,"áīłáĬĵáĪį":8048,"ĠáĪįáĮģáĬķ":8049,"áĭ±áĬĵ":8050,"áĭ¨áī°áĪĪáĭ«áĭ©":8051,"Ġáĭ³áĪŃáī»":8052,"Ġáĭ¨áįįáīµáĪħ":8053,"áĭįáĪŃ":8054,"Ġáĭ¨áĭŃ":8055,"áī½áīµ":8056,"Ġáīłáĭ©":8057,"áĮĭáī£":8058,"ĠáĮįáĭĽ":8059,"Ġáĭ°áĮĭáĮį":8060,"Ġ42":8061,"ĠáĮ¥áĬķáī³áĭĬ":8062,"ĠáĪĨáī´áĪİáī½":8063,"ĠáĪĿáĬĵáĪįáī£áīµáĪĿ":8064,"ĠáĬĲáĬŃ":8065,"Ġáĭ«áĭ¨":8066,"Ġáĭ«áĮĪáĬĺáĭį":8067,"Ġáĭ«áĪµáīĨ":8068,"ĠáĬ¤áī½":8069,"Ġáĭ²áįķáĪİáĪĽáĪ²":8070,"ĠáīłáĮĢ":8071,"áĪ¨áĭ³áĬķ":8072,"Ġáĭ¨áĪļáĭ°":8073,"áĬłáĮĪáĪŃ":8074,"Ġáĭ¨áī°áīĥáĭĭáĪļ":8075,"Ġáī£áĪŃ":8076,"ĠáĪĪáĪĺáĮįáĭĽáīµ":8077,"Ġáī¢áĪį":8078,"ĠáĮİáĬķáĭ°áĪŃ":8079,"áīłáĮį":8080,"ĠáĭŃáĮ¥":8081,"ĠáĪĽáįįáĪ«áīµ":8082,"Ġáĭ¨áĬĲáĪĲáĪµ":8083,"Ġáĭ¨áĪ°áĪ«":8084,"Ġáĭ¶áĪ®":8085,"ĠáĪµáĪŃáĭĵáī±":8086,"Ġáĭ«áĪĿáĬĵáĪī":8087,"ĠáĬ¨áīµáĬĵáĬķáīµ":8088,"áįĪáĪ°":8089,"Ġáĭ¨áī°áĭ°":8090,"Ġáĭĵáīĥáī¤":8091,"áĮİáĪĪ":8092,"áĭĪáĭ°áĭį":8093,"áĬłáĪĽ":8094,"áĪµáī°áĪĿ":8095,"ĠáĪĺáĪµáįįáĬķ":8096,"Ġáĭ¨áī£áĬķáĬŃ":8097,"ĠáĬ¥áĬķáĭ°áĪĽáĭŃáī½áĪį":8098,"ĠáĬłáĬķáĭ³áĬķáĭ¶áī½":8099,"Ġáĭ¨áī°áĬ¨áĪ°áī°áĭį":8100,"áĮ´áĭĽ":8101,"Ġáĭ¨áĪļáī³áĭĪáīĢáĭį":8102,"ĠáĪļáĪµáĮ¥":8103,"Ġáĭ¨áĬłáĪĪáĪĿ":8104,"Ġáīłáĭ¨áīĢáĬĳ":8105,"Ġáĭ¨áĪļáĭ«áĪ³áĭ©":8106,"áĪįáĭ©":8107,"áī¥áĪĭ":8108,"áī³áĪª":8109,"áī¶áī³áĪį":8110,"ĠáĪĽáĭ¶":8111,"ĠáīĢáĪĪ":8112,"áĪ¥áĪ¨áīµ":8113,"ĠáīłáĪļáįĪáĪĪáĮĪáĭį":8114,"Ġáĭ¨áĪĿáĬķáĪĪáĭį":8115,"áĪįáĮłáĬĵáĭį":8116,"ĠáīĢáĪŃáīłáĭį":8117,"ĠáīĢáĮ¥áī°áĬĽ":8118,"áįĪáĮ½áĪĿ":8119,"ĠG":8120,"áĪįáī°áĭį":8121,"ĠáĬ¥áĬķáīģ":8122,"áī¢áĭİáī½":8123,"Ġáĭ¨áĪĽáīµ":8124,"ĠáĭķáĭµáĮĪ":8125,"ĠáĬ¦áĭ²":8126,"Ġáĭ«áĭ°":8127,"ĠáĮ¥áĪ¬":8128,"ĠáĬ¥áĭ«áĭ°áĪ¨":8129,"áĪ£áĬ¤":8130,"áįķáĪ®áįĮ":8131,"ĠáĬ¨áĪĨáĬĳáīµ":8132,"áĭ°áĭįáĬķ":8133,"ĠáĪĪáĪįáĪĽáīµ":8134,"ĠáĪĺáĪµáĭĭáĭķáīµáĬĲáīµ":8135,"ĠáīłáĪŃáĬ«":8136,"ĠáĭµáĪŃáĮĬáī¶áī½":8137,"ĠáīłáĭįáĪµáĮ¡":8138,"áĮĵáĭ³áĬĿ":8139,"ĠáĬłáĪµáĮĪáĬķáĭĿáīłáĭĭáĪį":8140,"áįĪáīħ":8141,"áĪŁáī¸áĭį":8142,"áįįáĪ«áĭį":8143,"Ġáĭ¨áĮ¥áĬĵáīµ":8144,"áĬ«áī°áī±":8145,"ĠáĪĲáĪ³áī¦áī½":8146,"Ġáĭ¨áĮłáīĨáĪĻáīµ":8147,"ĠáĬ¨áĪĿáīµ":8148,"ĠáĪĿáĪŃáĪĿ":8149,"ĠáĪħáĬķáįĥ":8150,"ĠáīħáĪŃáī¥":8151,"ĠáĬłáīłáĪ«":8152,"ĠáĪĺáĭ°áī¥":8153,"Ġáĭ¨áĪļáĮłáīħ":8154,"ĠáĪĽáĮ£áīµ":8155,"áĪ½áĬķáĬĵ":8156,"Ġáĭĭáīµ":8157,"Ġáī´áĪĮáīªáĭ¥áĬķ":8158,"ĠáĪ¥áĪŃáĭĵáī¶áī½":8159,"Ġáĭ¨áĭµáĪŃáĮħáī±":8160,"áĪĽáĭįáĭ«áĬķ":8161,"ĠáĪ²áī°":8162,"Ġáĭ¨áĬłáĪ°":8163,"ĠáĭĺáĪŃáįĪ":8164,"áĭ´áĪŀáĬŃáĪ«áĪ²áĭ«áĭĬ":8165,"ĠáĬ¨áī¦":8166,"áĬĴáĪµáī´":8167,"âĢĭ":8168,"ĠáīłáĪļáĮĪáĬĿ":8169,"áĪĲáįį":8170,"ĠáīĨáĭ³":8171,"áĬ¨áįįáĪį":8172,"Ġáĭ¨áĪģáĪĪáī±":8173,"áĭ°áĬŀáī½":8174,"áĭ¨áĪ«":8175,"Ġáĭ¨áĪļáĭĪáĮ¡":8176,"áĭķáĬ¨áĪī":8177,"Ġáĭ¨áĪļáĪĺáĮ£áĭį":8178,"áĪĽáĭĿ":8179,"Ġáĭ«áĪĿ":8180,"ĠáĭĪáĭ°áĭļáĪħ":8181,"Ġáĭ¨áĬĲáīłáĪ«áī¸áĭį":8182,"Ġáĭ°áĪ¨áĮĥáĬķ":8183,"Ġáĭ¨áĪµáĬ³áĪŃ":8184,"áĬļáĭİáī½":8185,"ĠáĪĺáĭ«":8186,"áĮłáĭ«áīĤ":8187,"Ġáĭ¨áī°áįĭ":8188,"ĠáĬłáĪĺáĪ°":8189,"ĠáĪĢáĮĪáĪªáī±":8190,"ĠáĪ²áĭ«áĭ°áĪŃáĮī":8191,"ĠáĬłáĮĭáĮ£áĪļáĭİáī½":8192,"ĠáĬłáī°":8193,"áī¥áĪĪáĭį":8194,"áĪļáĬķ":8195,"ĠáĮ¥áīħáĪĿáīµ":8196,"ĠáĮĢáĪŃáĪĺáĬķ":8197,"ĠáĪĪáĪĨáĬĳ":8198,"ĠáĪĬáĪ°":8199,"áĮĤáĬķáĮį":8200,"áĮĪáĪ«áī¸áĭįáĬķ":8201,"ĠáīłáĮĲ":8202,"ĠáĪĿáĪĭ":8203,"ĠáĪĪáĪĺáĭ«áĭĿ":8204,"áĮĭáĪĪáĮ¥":8205,"áįĬáīµáĪĿ":8206,"ĠáīłáĬłáĭ¨áĪŃ":8207,"Ġáī½áĪĭ":8208,"Ġáĭ¨áĪ°áĮł":8209,"ĠáĪĽáĭķáĬ¨áĪī":8210,"ĠáĪĺáĮ¥áīĢáĪµ":8211,"ĠáĪĺáĪ³áĪªáĭ«áĭİáī½":8212,"Ġáĭ¨áĬ¨áįįáī°áĬĽ":8213,"ĠáĬ¥áĬĵáĭ°áĪŃáĮĭ":8214,"ĠáĬłáī£áī¶áī½":8215,"Ġáĭ¨áĭ°áĪ¨áĪ°áĭį":8216,"ĠáĪ³áĪĿáĬķáī³áīµ":8217,"áīĥáīħáĬķáĬĵ":8218,"ĠáĬ¨áī¥áĭĻ":8219,"ĠáĪµáĪĪáĬĲáīłáĪ¨":8220,"ĠáīĨáĪŀ":8221,"ĠáĪĲáĪĿáĪĮ":8222,"Ġáĭ¨áĭķáĪĪáīµ":8223,"áĮłáĪĽáī¸áĭį":8224,"áĭĭáĮħ":8225,"Ġáĭ¨áĪĺáĪ¨":8226,"áīłáĪ«áĪį":8227,"áĭŃáĪįáīģáĬķáĪĿ":8228,"áĪ³áīµáĬĵ":8229,"ĠáīµáĪĨáĬĵ":8230,"ĠáĬ¢áĭ¨áĪ©áĪ³áĪĮáĪĿ":8231,"Ġáī¢áĬĸáĪ©áĪĿ":8232,"ĠáĬ¥áĬķáĭ°áĪļáĮłáīłáīħ":8233,"ĠáĬ¥áĬķáĭµáīµáĪĨáĬķ":8234,"áĬłáĭŃáīª":8235,"áįĨáī³":8236,"áĬĵáįį":8237,"áīĥáĮłáĪį":8238,"ĠáīłáĪ°áįĬáĭį":8239,"áĪĿáįĴáĭ®áĬķ":8240,"Ġáĭ¨áįĪáĪ¨áĬķ":8241,"áĬ¨áī³áī°áĪī":8242,"áī¥áĮ¥":8243,"áīĥáĬĿ":8244,"ĠáīĨáĪ®áĬķáī¶áĪµ":8245,"áĪıáĬķ":8246,"Ġáĭ«áĪ³áĭ¨":8247,"Ġáĭ¨áĪļáĮĪáĪįáĮ½":8248,"Ġáĭ¨áĮįáī¥áįħ":8249,"ĠáĪĺáĪµáī°áĭ³áĭµáĪŃ":8250,"áĬĹáĬĹáĪŃ":8251,"áĪĽáĪŃáĭ«áĪĿ":8252,"Ġáĭ¨áĪļáĭ«áĬ¨áĬĵáĭį":8253,"ĠáĬĲáīłáĪŃáĬĵ":8254,"áĮĤáĭİáī½":8255,"ĠáĪ°áĭįáĬĲáīµ":8256,"ĠáīłáĬłáĪĪáĪĿ":8257,"Ġáĭ¨áĪ¥áĪįáĮ£áĬķ":8258,"áī¥áĭĽáĪĿ":8259,"ĠáīłáĮĪáĮłáĪŃ":8260,"Ġáī°áĮĪáĪĿ":8261,"ĠáĭŃáīł":8262,"ĠáĪ²áĬ«áĪĦáĭµ":8263,"ĠáĪĪáĪĽáĮĪáĪįáĮĪáĪį":8264,"ĠáĬłáįįáĪªáĬ«áĬķ":8265,"Ġáī³áĪµáī¦":8266,"áĮįáĬĲáīµ":8267,"áĬŃáĪĭ":8268,"áĬ«áī°áīµ":8269,"ĠáĬ¥áĬķáĭ²áĪī":8270,"áĮłáīĢáĪµ":8271,"ĠáĬ¨áĬłáĪľáĪªáĬ«":8272,"ĠáĬ¨áĬłáĪ«áīµ":8273,"Ġáĭ¨áĭķáĭµáĮĪáīµ":8274,"ĠáĭŃáĮłáīģáĪĽáĪį":8275,"ĠáĬ¥áĪĪáīµ":8276,"ĠáĬłáĭĪáĮ£":8277,"Ġáĭ¨áĪĿáĭµáĪŃ":8278,"ĠáĬ¥áĬķáĭ²áĭ«áĭ°áĪŃáĮį":8279,"Ġáī°áĮłáīģáĪŁáĪį":8280,"ĠáĬłáīĨáĮ£áĮłáĪŃ":8281,"áĪ»áĪ½":8282,"ĠáĬħáī¥áĪ¨áī°áĪ°áī¥":8283,"ĠáĪĿáĬŀáīµ":8284,"ĠáĭĮ":8285,"Ġáĭ¨áĪļáĪĨáĬĲ":8286,"áĮłáĬĵáĪį":8287,"áįĸáĬķáĪ°áĪŃ":8288,"ĠáĭĪáĮ£áī¶áī½áĬĵ":8289,"ĠáĬłáĭµáĬĵáīĨáīµ":8290,"áīłáĬ¥áĭļáĪħ":8291,"ĠáĪµáįĭáīµ":8292,"Ġáī³áĪĿ":8293,"áĮĪáĬĻáĪĿ":8294,"ĠáĬ¨áĬ¥áĬķáĮį":8295,"ĠáĪĪáĪļáĮĪáĬĻ":8296,"ĠáĮ¸áĪİáīµ":8297,"ĠáĪĪáĪĽáĭįáĮ£áīµ":8298,"ĠáīłáĪĽáĮłáĬĵáĬ¨áĪŃ":8299,"Ġáī¤áīµáĬĵ":8300,"ĠáĬłáĮĪáĪĭáĪĪ":8301,"ĠáīħáĪŃáĪµ":8302,"ĠáĮĪáĪĿ":8303,"áī°áĪŃáĬĶáīµ":8304,"Ġáĭ¨áįĪáĮłáĪ¨":8305,"Ġáĭ¨áĪĺáĪ°áĪ¨áī°":8306,"Ġáī°áĪ½áĬ¨áĪŃáĬ«áĪª":8307,"Ġáĭ¨áĪĺáĮłáĮ¥":8308,"áīģáĬĵ":8309,"ĠáĬłáĪįáī»áĪį":8310,"ĠáĪľáīµ":8311,"ĠáĬłáĪ³áĭŃ":8312,"2002":8313,"ĠáĬłáĪµáī°áĭ³áĭ°áĪŃáĬķ":8314,"Ġáī°áĬ¨áī³áīµ":8315,"ĠáĪĽáĭķáīĢáįį":8316,"áĬ¸áĬĿ":8317,"áĬłáĭ´áĮįáĬķ":8318,"Ġáĭ®áĪĲ":8319,"ĠáĬ¨áĬķáī±":8320,"áĭĿáīĥ":8321,"ĠáĬłáĪ³áĭĽáĬĿ":8322,"ĠáĬ¨áĪģáĪī":8323,"ĠáĮĪáĪĺ":8324,"áīĨáĭ©":8325,"ĠáĮłáįį":8326,"ĠáĮ¨áĪĪáĪĽ":8327,"Ġáĭ¨áī³áĭ¨":8328,"ĠáĪĿáĪ¥áĬŃáĪŃ":8329,"ĠáĪĨáĬĵáĪĪáī½":8330,"ĠáĭŃáĮĢáĪĿáĪ«áĪį":8331,"Ġáĭ¨áĪļáīĢáĪŃáī¡":8332,"ĠáīłáĪ°áĪľáĬķ":8333,"ĠáĮŃáĬķáīħ":8334,"áĪ¨áĮĭáĮĪáĮ¡":8335,"Ġáĭ¨áĪĢáĮĪáĪªáī±":8336,"ĠáĮīáĭµáĮĵáĭµ":8337,"áĭįáĭ«áĬĳ":8338,"áĪĺáī³":8339,"ĠáĪĻáĪµáĪĬ":8340,"ĠáĬłáīħáĪĻ":8341,"ĠáįĮáĭ´áĪ«":8342,"ĠáįķáĪ¬áĪµ":8343,"ĠáĭŃáĮłáīłáīħáīłáī³áĪį":8344,"ĠáĪĺáĬŃáįĪáĪį":8345,"áĬłáĬķáĭ³áĬķáĭ´":8346,"áĮįáĪ¥áīµ":8347,"ĠáĬ¥áĮ¥áĪ¨":8348,"ĠáĪĺáĮĢáĪĺáĪŃ":8349,"Ġáī°áĪµ":8350,"Ġáī³áĮį":8351,"áĮłáĬķáĬ«áĪ«":8352,"ĠáĬłáĭµáĪ«áĮĬ":8353,"ĠáĬ¨áĪ©":8354,"áīĭáī¸áĭį":8355,"ĠáīłáĮīáī£áĬ¤":8356,"ĠáīłáĭĪáĪŃ":8357,"áĬĸáĪŃáīłáīµ":8358,"ĠáĬĶáīµ":8359,"Ġáī°áĪ½áĬ¨áĪŃáĬ«áĪªáĭİáī½":8360,"ĠáĪĽáĪĪáī±":8361,"ĠáĪĽáĮĪáĪįáĮĪáĪį":8362,"áĬ¥áĭ«áĬķáĭ³áĬķáĭ±":8363,"áįĥáĪ©":8364,"ĠáĬłáĪĪáĪĺáĬĸáĪŃ":8365,"áĮ¢áĬłáīµ":8366,"ĠáĪĺáĮįáĭĽáīµ":8367,"ĠáĭŃáĬ¨":8368,"ĠáĭŃáĬ«áĪĦ":8369,"ĠáĪĺáĪ°áĪĪáĬĿ":8370,"Ġáĭ¨áĪļáĪ°áĮłáĭįáĬķ":8371,"Ġáĭ«áīĢáĪ¨áīłáĭį":8372,"ĠáĬ¥áī¥":8373,"ĠáĬłáīĥ":8374,"ĠáĬ¥áĪµáĬ¨áĪļ":8375,"ĠáĪģáĪĪáī±áĬķ":8376,"áĮłáī¥áīĢáĭį":8377,"ĠáĬ¥áĬķáĮįáĭ¶áī½":8378,"ĠáĬ¨áĭĪáĬķ":8379,"ĠáĮĢáĪĿáĪ¨áĭĭáĪį":8380,"áĮ¨áĪŃáīĥ":8381,"ĠáīµáĬĵáĮĪáĪ«":8382,"ĠáĪĪáĪĺáĪĺ":8383,"ĠáĪĺáĪµáįĪáĪŃ":8384,"Ġáĭ¨áĭĪáĮª":8385,"ĠáĭŃáĪ°áĮ£áĪī":8386,"Ġáĭ¨áĪĺáĮĢáĪĺáĪªáĭ«áĭįáĬķ":8387,"ĠáĮ³":8388,"áįįáĪĿ":8389,"ĠáĬķáĭĳáĪµ":8390,"ĠáĪ³áĭŃáĬķáĪ³áĭĬ":8391,"ĠáĪĪáĭŃ":8392,"ĠáĮīáĭ³áī°áĬŀáī½":8393,"Ġáī£áĪħáĪŃáĭŃ":8394,"Ġáī°áĮī":8395,"ĠáĬłáĪ³áĭµ":8396,"ĠáĬłáįĪáįĥáįĢáĪĿ":8397,"ĠL":8398,"áī°áĭĪ":8399,"ĠáĬ¥áĬķáĭ°áĪĨáĬķ":8400,"ĠáĮ¥áī¥áīħ":8401,"Ġáī¥áĪĶáĪ®áī½":8402,"áī³áĪĪáĬķ":8403,"ĠáĪ°áĪļ":8404,"Ġáī£áĪįáĬķ":8405,"ĠáĪ²áĮĢáĪĿáĪŃ":8406,"ĠáĪģáĪĪáĬķáī°áĬĵáĭĬ":8407,"ĠáĪĬáĬĸáĪ¨áĭį":8408,"áĬĲáĮĭáĮĪáĪ©":8409,"ĠáīłáĪĺáĬķáĮĪáĭµ":8410,"ĠáĪļáĭ²áĭ«áĭİáī½":8411,"Ġáĭ¨áĮĪáĪĪáįģáīµ":8412,"áĪįáīĨ":8413,"Ġáīłáī¤áīµ":8414,"ĠáĭŃáĮĪáĬĿ":8415,"Ġáĭ¨áĪļáĭĪáĮ£":8416,"Ġáī¥áĮ¥áī¥":8417,"áĮĪáĪĪáĮĪáĪī":8418,"Ġáĭ¨áĮ¥áįĭáīµ":8419,"Ġáĭ«áī°áĬ®áĪ¨":8420,"áĭ³áĮĥ":8421,"ĠáįĵáĪŃáĬ®áī½":8422,"ĠáīµáĪĿáĪħáĪŃáī³áī¸áĭįáĬķ":8423,"áĬ«áī°áī°":8424,"ĠáĬ¥áĬĵáĭ°áĪŃáĮĭáĪĪáĬķ":8425,"áĪĺáĭįáĬķ":8426,"Ġáĭ¨áĪĺáĬªáĬĵ":8427,"Ġáĭ¨áĪ°áĭİáī½":8428,"ĠáīłáĬĲáīłáĪ©":8429,"ĠáĬłáĪı":8430,"áĮłáīĢáĪ±áīµ":8431,"ĠáĬ¥áĪŃáĪ³áī¸áĭį":8432,"áĮįáĪĪáįħ":8433,"ĠáĬłáĮĭáĮ¥":8434,"ĠáīłáĬłáĬķáĭµáĬĲáīµ":8435,"áĭĺáĭįáī°áĪªáĭ«":8436,"Ġáĭ«áīĢáĪ¨áī¡áīµ":8437,"ĠáĭĿáĪŃáĭ«áĭİáī½":8438,"Ġáį²áį":8439,"ĠáĪĺáĮ¡":8440,"Ġáĭ¨áī°áĭ«áĭĺ":8441,"Ġáīłáī°áĮ¨áī£áĮŃ":8442,"ĠáĪĪáĪĽáįįáĪ«áīµ":8443,"ĠáįĪáĮ£":8444,"áĭįáĪįáīµ":8445,"ĠáĬķáĮįáĮį":8446,"ĠáīłáĬ¥áĪŃáĮįáĮ¥áĪĿ":8447,"ĠáĪĿáĪįáĪįáĪµ":8448,"áĭĺáĭĻ":8449,"áĪŀáĬĵ":8450,"ĠáĪĺáĪįáĬ«":8451,"ĠáĬłáĪ°áĮ£":8452,"2014":8453,"áĬłáĬķáĭ³áĬķáĭ¶áī¹":8454,"ĠáĮĪáįħáī³":8455,"áĬ°":8456,"áĭ¨áĬŃáĪįáĪī":8457,"ĠáĮįáĪ«áĪĿ":8458,"ĠáĪĿáĬŃáĬķáĭ«áī³áĭĬ":8459,"áĪµáī°áĬĵáĮį":8460,"áī¥áĭ®":8461,"Ġáĭ¨áĪļáįĪáĪįáĮį":8462,"ĠáĬŃáĪĿ":8463,"Ġáĭ¨áĪħáĭĿáī¡áĬķ":8464,"áī§áī¸áĭį":8465,"ĠáĬħáī¥áĪ¨áī°áĪ°áī¡":8466,"ĠáĬ¨áĮ¥áīĤáīµ":8467,"ĠáĪĺáĮĵáĭĿ":8468,"áĪ¨áīµáĬĵ":8469,"Ġáĭ«áĪ¸áĬĲ":8470,"ĠáĬłáī£áī±":8471,"áīłáīĥáĭį":8472,"ĠáĪĺáĭĿáĮĪáī¥":8473,"Ġáī°áĮĪáĬĿáī°áĭį":8474,"ĠáĬĲáī¢":8475,"áĪ±áĬĵ":8476,"ĠáĭµáĪ®":8477,"ĠáĬ¨áĪĽáĪ³":8478,"áī§áĬķ":8479,"áĪįáĬĽáĪį":8480,"áĭ°áĪļáĭ«":8481,"ĠáĬĲáīłáĪ«áī¸áĭį":8482,"ĠáĭĪáī³áĭ°áĪŃ":8483,"ĠáīłáĬ©áĪįáĪĿ":8484,"35":8485,"áĪ¨áĭ°":8486,"áĭ³áĭįáĭ«áĬķ":8487,"ĠáĬłáĬķáī°áĬķ":8488,"Ġáī°áĭŃáĭŀ":8489,"áĭ¨áĬ«":8490,"Ġáĭ¨áĪļáīĢáĪŃáī¥":8491,"Ġáĭ³áĭ«áĪµáįĸáĪ«":8492,"2005":8493,"ĠáīĢáĪŃáī§áĪį":8494,"ĠáĪĺáĪĿáĪ«áīµ":8495,"áĭĺáĬĲáĮĭáĪĿ":8496,"ĠáĬ¥áĬķáĭ°áĮĪáĪĪáįģáīµ":8497,"ĠáĭŃáĭŃ":8498,"áįĪáĪ¨áĭį":8499,"áĮ£áĪ«":8500,"ĠáĬłáĪµáĬ¨":8501,"ĠáĮĬáĭľáĬĵ":8502,"áįĢáĬķ":8503,"ĠáĪłáĪį":8504,"ĠáĪµáįĸáĪŃáī¶áī½":8505,"áĬ¨áīł":8506,"áĭ±áīłáīµ":8507,"ĠáīłáĬłáīħ":8508,"ĠáĬłáĬ«áī£áī¢áĭį":8509,"áī½áĪĭáĪĪáĪģ":8510,"ĠáīģáĮ¥áĪ«áī¸áĭį":8511,"Ġáĭ¨áĮĢáĪĺáĪ©áīµ":8512,"ĠáĪĺáī»áĪį":8513,"áĭĽáī£":8514,"ĠáĬłáĮĪáĪįáĮį":8515,"áĬ«áĪĦáĭ±áīµ":8516,"Ġáĭ©áĪ®":8517,"Ġáĭ¨áī°áīĭáīĭáĪĺáĭį":8518,"ĠáĭŃáĮ¨áĪĿáĪ«áĪį":8519,"Ġáĭ«áĪ¨":8520,"ĠáĭįáĭĿ":8521,"áĭĽáĪī":8522,"ĠáĬłáĭµáĪŃáĮĵ":8523,"ĠáīłáīµáĮįáĪ«áĭŃ":8524,"ĠáĬ¨áĬĲáīłáĪ©áīµ":8525,"ĠáĬ¥áĬĵáĭįáīĥáĪĪáĬķ":8526,"áĮ¥áīłáīµ":8527,"ĠáĪĿáĪ½":8528,"áĪ¥áĪĭáĪ´":8529,"áĭĵáĭĽ":8530,"ĠáĬ¥áĬķáĭ°áĪļáĪ°áĮ¥":8531,"áĪĦáĭ³":8532,"ĠáĪµáĪĪáĪĨáĬĳ":8533,"Ġáĭ«áĪĪáī½":8534,"áĭ°áī¡":8535,"áĭ°áĪ°áīµ":8536,"áĮłáĮ¡":8537,"áīĨáĪĽ":8538,"áĬ¤áĬķ":8539,"Ġáī°áĬĵáĮĪáĪ¨":8540,"áįĥáįĢáĪŃ":8541,"áĭ«áĬĸáī½":8542,"áī¢áĬĶ":8543,"ĠáĪĥáĮĪáĪŃ":8544,"ĠáīĨáĪ®":8545,"áĭł":8546,"ĠáĬ¥áĬķáĮ¨áīµ":8547,"áĭĭáĪŃáĭ«":8548,"ĠáĪĪáĪĺáĮįáĪĪáĮ½":8549,"Ġ44":8550,"Ġáĭ¨áĪĽáĭŃáī³":8551,"ĠáĬłáĮįáĬĿáī·áĪį":8552,"ĠáīłáĪº":8553,"áĪªáĬĵ":8554,"ĠáīłáĬłáĬ«áĪį":8555,"áĪĦáĪŃ":8556,"ĠáĮłáī£áī¥":8557,"ĠáĪĺáĪµáįĭáįĭáīµ":8558,"ĠáĬłáĭµáĪŃáĮī":8559,"ĠáĪŀáĭ´áĪį":8560,"áĭĪáĭ°áįĬáīµ":8561,"Ġáĭ©áĬĴáī¨áĪŃáĪ²áī²áĭį":8562,"ĠáĬĲáīłáĪ¨áīłáīµ":8563,"áĮĪáĮ£":8564,"áĭµáĬ«":8565,"ĠáĭŃáĪĺáĪĪáĬ¨":8566,"ĠáĬ¥áĭ¨áī°áĬķ":8567,"ĠáĭĺáĪĺáĭµ":8568,"ĠáĪµáīµáĪĨáĬķ":8569,"áĪĺáĪĪáĬŃáī°áĭį":8570,"ĠáĭĪáĪµáĭ°áĭį":8571,"ĠáĬĴáĭį":8572,"ĠáĬ¨áīµáĪĿáĪħáĪŃáīµ":8573,"ĠáĪĨáĬķ":8574,"ĠáĬłáĪįáĬ©":8575,"ĠáĬłáĬ«áĪĭáīµáĬķ":8576,"Ġáī°áĬ¨áįį":8577,"áĪµáī³áĬķ":8578,"Ġáĭ¨áĬłáĪĿáĪµáīµ":8579,"ĠáĪ°áĪ«áī°áĬĽ":8580,"áĭ«áĪĪáĬķ":8581,"áī£áĪĪáī½":8582,"áĬ¥áĬŃáīµ":8583,"ĠáĬłáĪµáĪĺáĭĿ":8584,"ĠáĮĢáĮįáĬĵ":8585,"Ġáĭ¨áĪ«áĪ³áī¸áĭį":8586,"ĠáĬ¨áĪļáĭ«áĪµ":8587,"Ġáĭ¨áĪļáĮĪáī£áĭįáĬķ":8588,"ĠáĪĨáĪµáįĴáī³":8589,"ĠáĬ¦áĪ®áĪļáĭ«":8590,"ĠáĬ¥áī½áĪĭáĪĪáĪģ":8591,"ĠáĮĪáĮ¥":8592,"Ġáĭ²áĭ«":8593,"ĠáĪĽáĭ³áīłáĪªáĭ«":8594,"ĠáīłáĪĤáĭ°áīµ":8595,"Ġáĭ¨áĮĲ":8596,"Ġáĭ¨áįĵáĪŃáĪĭáĪĽ":8597,"áĪ³áī±":8598,"Ġáī£áĭĪáĮ£áĭį":8599,"áīĢáĪŃáī¡áīµ":8600,"ĠáĬªáĪ³áĪ«":8601,"ĠáīłáĪ¥áĬĲ":8602,"Ġáĭ¨áĪĽáĪħáīłáĪ«áĭĬ":8603,"ĠáĬłáĪµáī°áĭ«áĭ¨áī³áī¸áĭįáĬķ":8604,"áĭŃáĬ¸":8605,"áĬŃáįĪáīµ":8606,"Ġáĭ«áĭµ":8607,"ĠáĬ¢áĭ«":8608,"ĠáĪ³áĪĿ":8609,"ĠáĭĵáĪĺáī³áīµáĬķ":8610,"ĠáĬłáĬ«áĪĤ":8611,"áīĢáĪĺáĮł":8612,"Ġáĭ¨áĪļáĪ°áĮ¡áīµ":8613,"ĠáĪĺáĬķáĮįáĪ¥áīµáĪĿ":8614,"ĠáĮ¥áīħáĪµ":8615,"Ġáĭ¨áĬ¨áī°áĪĽáĭĭ":8616,"ĠáĪ¬áĭ²áĭ®":8617,"áī¸áĪŃ":8618,"áīĢáĬĽ":8619,"Ġáĭ¨áĪĽáĮįáĬĺáīµ":8620,"ĠáĪĺáĪĨáĬĳáĬķáĬĵ":8621,"ĠáīłáĪįáĪĽáīµ":8622,"Ġáĭ°áĬķáīłáĬŀáī½":8623,"ĠáīłáĪĽáĬħ":8624,"ĠáĪĺáīĨáĪ«":8625,"áĪįáįī":8626,"áĪ°áĪĭáĪĿ":8627,"Ġáĭ¨áī£áĪħ":8628,"ĠáĭŃáĪĺáĪ¨":8629,"Ġáĭ¨áī°áīĭ":8630,"áĬłáĪī":8631,"ĠáĬ¥áĬķáĭ°áĪļáĭ°áĪ¨áĮį":8632,"ĠáĬłáĪµáī°áĭ³áĭ³áĪª":8633,"áĬ³áīµ":8634,"áĮĪáĪ«áī±":8635,"áįķáĪ¬áĭļáĭ³áĬķáī±":8636,"ĠáĬĲáĮĪáĪ©áĬķ":8637,"ĠáīłáĪħáĭŃáĭĪáīµ":8638,"Ġáĭ¨áĬĸáĪ¨":8639,"ĠáĬłáĭĺáĮĭ":8640,"ĠáĬłáĪª":8641,"Ġáĭ¨áĪĺáĬ¨áĪĭáĬ¨áĪį":8642,"áīłáĪ¨áĬŃ":8643,"ĠáĬłáĭ³áĪĽ":8644,"áĭĸáĬķ":8645,"ĠáĭŃáĬĲáĮį":8646,"áĬ«áī½áĪģ":8647,"áīĨáĪĺ":8648,"áĪĪáĬĲáĮĪáĪ©":8649,"ĠáĭĪáĬª":8650,"áĭ¨áĭįáĮŃ":8651,"ĠáįĢáĮ¥áī³":8652,"ĠáĬ¥áĬķáĬ©":8653,"ĠáĪĽáĬ¥":8654,"ĠáĪĽáĬŃáīłáĪŃ":8655,"áĪ®áī»áī¸áĭį":8656,"áĮłáĬĵáīħ":8657,"áĮĪáĪįáĮĪ":8658,"ĠáĪĺáĭµáĪĥáĬĴ":8659,"Ġáĭ¨áĭĪáĪŃ":8660,"Ġáī°áĭĪáĭ³áĭ³áĪªáĭİáī½":8661,"ĠáĪĬáĭ«áĭ°áĪŃáĮį":8662,"ĠáīłáĭįáĪĥ":8663,"ĠáīłáĬĥáĭŃáĪį":8664,"ĠáĬĢ":8665,"áĬķáĮ»":8666,"ĠáĪ°áĮł":8667,"Ġáī³áĮĭ":8668,"áĭĻáĬķ":8669,"áĪĭáĭŃáī³":8670,"ĠáĬłáīµáĪĮáī¶áī½áĬķ":8671,"áīłáĪĭáĪ¸":8672,"ĠáĭŃáĪĦáĭį":8673,"ĠáĪįáĮĨáī»áī¸áĭį":8674,"áĭ¨áĬłáĪľáĪªáĬ«":8675,"ĠáĬłáĬķáī½áĪįáĪĿ":8676,"ĠáĭĭáĬķ":8677,"ĠáĬłáįįáĪªáĬ«áĭįáĭ«áĬķ":8678,"áĮłáī£áīłáīħ":8679,"ĠáĬ¥áĬķáĭ°áĪĮáĪĪáĭį":8680,"áīłáīĢáĮ£áĭŃ":8681,"ĠáĬŃáĬķáĭµ":8682,"áĮłáĪ«áī¸áĭį":8683,"áĭ³áĪļáĭį":8684,"áĪ«áī½áĬķáĬķ":8685,"áī£áīµáĬķ":8686,"áįįáĪ¨áĪµ":8687,"áĪĻáĪĭáīµ":8688,"áĮĥáĪĿ":8689,"ĠáĪģáĬĶáī³áĭįáĬķ":8690,"Ġáī°áĭĪáĭ«áĭŃ":8691,"Ġáįİáīħ":8692,"Ġáĭ«áĮĪáĬĽáĪī":8693,"ĠáĬĲáĪĲáĪ´":8694,"áĪģáīłáīµ":8695,"Ġáī£áĪ«áĬŃ":8696,"ĠáĪ²áĭĪáĮ£":8697,"áĮĥáĬķ":8698,"ĠáīłáĪĽáĭ«":8699,"ĠáīłáĪĽáĮįáĬĺáīµ":8700,"Ġáĭ¨áĪĽáĮ£":8701,"ĠáĪĻáĭ«áĭĬ":8702,"Ġáĭ°áĬķáīłáĬĽ":8703,"ĠáĪĺáī»áĪīáĬķ":8704,"ĠáĭŃáĪµáī°áĭĭáĪĭáĪį":8705,"ĠáīµáĬĵáĮĪáĪ«áĪĪáī½":8706,"áĪ°áĪĽáī¸áĭį":8707,"Ġáĭ¨áĪĮáĪĪ":8708,"ĠáĪ°áĬķáĭ°áīħ":8709,"ĠáĬ¢áĬķáī¨áĪµáīµáĪĺáĬķ":8710,"ĠáĪĽáĪĽ":8711,"áī¦áĪį":8712,"ĠáĬ«áĪ¬":8713,"ĠáĬłáĪĺáĮ£":8714,"ĠáĪŀáī°":8715,"Ġ43":8716,"ĠáĬłáĮ½":8717,"áĭĭáĪĪáĪħ":8718,"ĠáĮĢáĮį":8719,"Ġáī«áĭŃáĪ¨áĪµ":8720,"áĭĪáĬ¨áĪį":8721,"áī½áĬķáĪĿ":8722,"áī¡áĭķ":8723,"áĮħáĪĺáĬķáīµ":8724,"ĠáĬ¥áĭ¨áī°áĪłáĪ«":8725,"ĠáĪĿáĬŃáĬķáĭ«áī±":8726,"ĠáīłáĪĿáĪŃ":8727,"áĭĽáĪ¬áĪĿ":8728,"ĠáĪĿáĪŃáĮ«áĭį":8729,"ĠáīłáĪĽáĪ¸áĬĲáįį":8730,"Ġáī¥áī»áĪĿ":8731,"Ġáī°áĪĺáĭµ":8732,"Ġáĭ¨áĪĽáĭŃáī½áĪį":8733,"ĠáĬ¥áĬķáĭ°áĪļáĮĪáī£áĪĿ":8734,"ĠáĬłáĪ³áĪįáįİ":8735,"ĠáĪĽáĪĺáĪįáĬ¨":8736,"ĠáĪ²áīĢ":8737,"ĠáĪ²áī²":8738,"ĠáĪļáĭĽáĬķ":8739,"ĠáĬ¨áĪĺáĪĨáĬķ":8740,"ĠáĭŃáĮłáīħáĪ³áĪī":8741,"ĠáĮĪáīłáĭ«áĭį":8742,"áį»áį":8743,"ĠáĭĺáĪĪ":8744,"áī¥áĪŃáĪĥáĬķ":8745,"ĠáīłáĬ¥áĪµáĪ«áĬ¤áĪį":8746,"ĠáĪ«áĪ³áī½áĬķáĬķ":8747,"áĮĪáī¡áīµ":8748,"áĭĺáĭĭáĭĪáĪŃ":8749,"ĠáĪįáĪĿáĪĿáĭµ":8750,"ĠáĬłáĪµáĬ¨áī£áĪª":8751,"Ġáĭ¨áĪ¨áĮħáĪĿ":8752,"ĠáĭŃáī½áĪį":8753,"ĠáĮĪáī¡":8754,"ĠáĪĪáĪĽáĪµáįĭáįĭáīµ":8755,"ĠáĬłáĭµáĪŃáĮį":8756,"ĠáĬłáīĢáįĭáĭĬ":8757,"Ġáĭ¨áī°áĪ°áĮłáĭįáĬķ":8758,"Ġáĭ¨áī°áĪ°áĬĺáĭį":8759,"ĠáĬŃáī¥áĪ¨áĭĪáĪ°áĬķ":8760,"ec":8761,"áĬŃáĬĵ":8762,"áĭ¶áĪļáĬĴ":8763,"ĠáīłáĪĿáĬķáĪĿ":8764,"áĭ°áĮĪáįĪ":8765,"ĠáįĪáī°áĬĵáĭİáī½":8766,"áī¸áĮĪáĪ©":8767,"áĭĵáī¥":8768,"áĪľáĭ³":8769,"áĮĢáĪĿáĪ©":8770,"ĠáĮĢáĪĺáĪŃáĬ©":8771,"ĠáĬ¨áĮįáĪĿáīµ":8772,"áĮīáī£áĬ¤áĭį":8773,"ĠáĪĪáĪ½":8774,"Ġ90":8775,"áĬ¨áįĭáįĪ":8776,"Ġáĭ²áĭĽáĭŃáĬķ":8777,"ĠW":8778,"áĪĽáī½áĪģ":8779,"ĠáĬ¨áĬĥ":8780,"Ġáĭ¨áĪµáĪįáĮ£áĬķ":8781,"ĠáĬłáĪĿáĪ«áī¾áī½":8782,"ĠáīłáīłáĪŃáĬ«áī³":8783,"ĠáĪĺáĪĿáĪªáĭ«":8784,"ĠáĪĺáī°áĪĽáĪĺáĬķ":8785,"ĠáĬłáĮįáĬĿáī°áĭį":8786,"áĬ¨áįĪáĪĪáĭį":8787,"ĠáĭĿáĮįáĮħáī¶áī½":8788,"áĪĪáĪŃ":8789,"ĠáĬ¥áĪ°":8790,"áĪĭáĪ³":8791,"ĠáĪ²áĪ°áĮ¥":8792,"áĮħáĮį":8793,"ĠáĪĪáĪĺáĬķáĮįáĪ¥áīµ":8794,"ĠáĬłáĬķáī¥":8795,"áĭİáī¿":8796,"2004":8797,"ĠáĬ¦áįį":8798,"áĪĿáįĴáĭ©":8799,"áĭ¨áĪļáĪĪáĭį":8800,"Ġáĭ¨áī¢áĭĿáĬĲáĪµ":8801,"ĠáĬ¨áĭµáĪħáĬĲáīµ":8802,"Ġáĭ³áĮįáĪĺáĬĽ":8803,"ĠáĪĪáĮī":8804,"áĭ¨áĪĿáĬķ":8805,"Ġáĭ¨áĪļáĭ«áĬĲáĪ³":8806,"ĠáĬłáĪįáĬĲ":8807,"áĮĪáĬĺáĪĿ":8808,"Ġáĭ¨áĭĪáĮ£áī¶áī½":8809,"ĠáĪĺáĪĥ":8810,"ĠáĬ¥áĬķáĭ²áĮĪáī£":8811,"Ġáĭ¨áĬ¨áī°áĪĽáĭį":8812,"Ġáĭ¨áĬħáī¥áĪ¨áī°áĪ°áī¥":8813,"áĪµáĬŃáĪĮáīµ":8814,"áįĭáī¥áĪªáĬ«áĭį":8815,"Ġáī°áĪ¨áĮĭáĮįáĮ§áĪį":8816,"áĭĪáĪĵáīµ":8817,"Ġáĭ¨áĮ¨":8818,"áĪĺáī°":8819,"áĪĺáĬķáĭµ":8820,"áĪĬáī²":8821,"ĠáīłáĮ¥áĬĵáīµ":8822,"ĠáĪĬáĭ«áĪ³":8823,"ĠáīłáĪĺáīĢáĮłáĪį":8824,"ĠáĪ°áĪĽáĭ«áĭĬ":8825,"Ġáĭļ":8826,"Ġáĭ¨áī¡áĭµáĬķ":8827,"áĭ¨áĮį":8828,"áĪīáīµáĬķ":8829,"Ġáĭ¨áĬłáī¶":8830,"ĠáĪ°áĭįáĭ¬":8831,"ĠáīłáĪĽáĪµáĪĺáĭĿáĮĪáī¥":8832,"Ġáĭ¨áĪĿáĪŃáĪĺáĪ«":8833,"áĭįáīĢáĭį":8834,"áĮłáīħáĪĿ":8835,"ĠáīłáĪĺáĬķáĮįáĪ¥":8836,"ĠáĬłáĪĪáī¥áĬĿ":8837,"ĠáīłáĬłáĭ²áĪ±":8838,"ĠáĬłáĪµáī°áĪ³áĪ°":8839,"áĮ¦áĪ½":8840,"ĠáĮĪáī¥áī°áĭĭáĪį":8841,"Ġáĭ¨áĪļáīĨáĮłáĪŃ":8842,"ĠH":8843,"áĮĢáĭį":8844,"Ġáĭ¨áĪĺáīĢ":8845,"ĠáĭĿáĪĿáĭµáĬĵ":8846,"ĠáĪĽáĪµáĮ¨áīł":8847,"ĠáīłáīĢáĭµáĪŀ":8848,"ĠáĪĺáĪĿáĮ£áī±":8849,"áĮĢáĪĺáĪŃáĭ«áĭį":8850,"áĭ¦":8851,"áīłáĭĽáĪ¬áĭį":8852,"ĠáĬ¨áĭĪáĮ£":8853,"áįĪáĬĳ":8854,"ĠáĪĬáīĥ":8855,"áĪħáĬķáĬĲáīµ":8856,"ĠáīłáĬ¥áĬ©áĪį":8857,"ĠáĮ¨áĪĿ":8858,"ĠáĬłáī£áī£":8859,"ĠáĪ¥áĪŃáĭĵáī±áĬķ":8860,"áĬļáĪħ":8861,"ĠáĪĽáĪ°áĪįáĮłáĬĽ":8862,"áĭ¨áĬĲ":8863,"Ġáĭ¨áĪļáĭ°áĪ¨áĮī":8864,"áĮĪáĪŃáĪĺáĭį":8865,"ĠáĪĪáĪĺáįĪáĮ¸áĪĿ":8866,"áīĨáĪ¨":8867,"ĠáĬłáĬķáĭµáĭ¬":8868,"ĠáĬłáĮĪáĪįáĮĭáĭŃ":8869,"Ġ400":8870,"ĠáīłáĮ¥áĪ«áīµ":8871,"ĠáĪĺáī¥áīµáĬĵ":8872,"áĪłáĭĬ":8873,"áĮ¥áĬĵáī±":8874,"Ġáĭ¨áĭ°áĪ¨áĪ±":8875,"ĠáįĪáįħ":8876,"áĪĿáįħ":8877,"áīĢáīµáĬķ":8878,"áĬ¥áĪ³áī¸áĭį":8879,"ĠáĪ°áĭįáĬķ":8880,"ĠáĭĺáįĪáĬķ":8881,"Ġáī°áĪĺáĮ£":8882,"ĠáĭįáĮ¤áī¶áī½áĬķ":8883,"ĠáĪ»áĪĿáįĴáĭ®áĬķ":8884,"áĮłáĪĪáĭ«":8885,"áĭĺáĪĺáĬĵáĭĬ":8886,"Ġáĭ«áĪµáī³áĭįáĪ³áĪī":8887,"ĠáĪĺáĬ¨áīłáĪŃ":8888,"ĠáĬĲáī£áĪŃ":8889,"ĠáĪ°áĬŀ":8890,"ĠáĬ¥áĭ«áĬ¨áĬĵáĭĪáĬĲ":8891,"áĮłáĭ¨áīĢ":8892,"ĠáĪħáĭĿáī¥áĬķ":8893,"ĠáīłáĪĽáĪ³áĭ¨áīµ":8894,"26":8895,"33":8896,"áĪĽáĬķáĪĿ":8897,"áĬ¨áĪĻ":8898,"áĪ°áĪĿ":8899,"Ġáīłáī°áĬ¨áī³áī³áĭŃ":8900,"áĮ¨áĪŃáĪµ":8901,"Ġ198":8902,"Ġáĭ¨áĮİáĭ³áĬĵ":8903,"Ġáĭ´áĬ¤áī³":8904,"áī°áĭĭ":8905,"áĪ«áĪĪáĪģ":8906,"áĪĭáīĢáĪį":8907,"ĠáįĪáīµ":8908,"ĠáĪĮáĪĭáĪĿ":8909,"ĠáĪģáĬĶáī³áĪĿ":8910,"Ġáĭ¨áĮįáī¥áĪŃ":8911,"ĠáĬ¢áĬķáī¨":8912,"ĠáĮŃáĬķáīĢáīµ":8913,"Ġáīłáī¥áĪĶáĪ«áĭĬ":8914,"Ġáī°áĮĪáĬĵáĬĿ":8915,"áĭ³áĪª":8916,"Ġáīµáī¶":8917,"áĮłáĭŃáīģ":8918,"Ġáī¥áĪįáĮ«":8919,"Ġáĭ¨áī°áīĢáĪĺáĮł":8920,"áĪĭáĪĭáĭį":8921,"áī²áīŃ":8922,"áī¤áī°áĪ°áī¥":8923,"ĠáĪĺáĬķáĮĪáĪ»":8924,"ĠáĬ¥áĬķáĮįáĪĬ":8925,"ĠáĭŃáĮłáīĢáĪ³áĪį":8926,"Ġáĭ¨áĪģáĪĪáī°áĬĽ":8927,"ĠáĬ¥áĬłáĬł":8928,"Ġáĭ¨áĪļáĪĦáĭµ":8929,"áĬ¥áĪ«":8930,"ĠáĪĬáĪ°áĮłáĭį":8931,"áĪĪáįĪáĭį":8932,"ĠáĮ¾":8933,"áīłáĬŃáĪįáĪī":8934,"ĠáĮ¥áĮĪáĬĵ":8935,"áĭ·áī¸áĭį":8936,"ĠáĪĽáĪŃáīĨáĪµ":8937,"ĠáĬ¢áĬķáĮĤáĬĲáĪŃ":8938,"Ġáĭ¨áĭĿ":8939,"ĠáīłáĮĪáĭĽ":8940,"áĪĽáĬĵ":8941,"áĭ³áįĬ":8942,"ĠáĪĬáĭ°áĪŃáĪµ":8943,"ĠáįįáĮ¡":8944,"ĠáĪĽáĪħáīłáĪ«":8945,"áĬ¨áīłáĪ¨áĭį":8946,"ĠáĭµáĪħáĬĲáīµáĬķ":8947,"Ġáĭ¨áĬŃáĪĪ":8948,"áĪ«áĮ®áī½":8949,"áĮİáĪ«":8950,"ĠáĬłáī£áĭŃ":8951,"áĪ»áĪ»áĪĪ":8952,"Ġáī°áĪĺáĮ£áĮ£áĬĿ":8953,"ĠáĪ²áĪĺáĮ¡":8954,"ĠáīłáĪĺáī£áĪį":8955,"Ġáīµáĭį":8956,"áĭ°áĭįáĪĿ":8957,"ĠáīłáĪĿáī³":8958,"ĠáĬĥáĪĭáįĬáĬĲáī±áĬķ":8959,"Ġáĭ¨áĪĽáĪħáīłáĪ¨áĪ°áī¥":8960,"ĠáĬłáĮ¥áĪŃ":8961,"Ġáī°áī£áī¥":8962,"áĭĺáĬĲ":8963,"ĠáĬłáĪµáĪĺáĪµ":8964,"ĠáĪļáĪµáī°áĪŃ":8965,"Ġáĭ¨áĪ¥áĪŃ":8966,"Ġáī¥áĪįáĪ¹":8967,"áī°áĪª":8968,"ĠáĪĺáĪĺáĭĺ":8969,"ĠáĪĽáĪ»áĪ»áĪį":8970,"ĠáĪįáī¡":8971,"ĠáīłáĬłáĮĪáĪįáĮįáĪİáīµ":8972,"ĠáĪħáĪįáĪĿ":8973,"ĠáĭľáĮĲáī½":8974,"Ġáī°áĬ¨áĬĵáĭį":8975,"áīĢáĮ¥áĪīáīµ":8976,"Ġáĭ¨áĪļáįĪáĮ¥áĪŃ":8977,"Ġáīłáī¥áīĥáīµ":8978,"áĪįáĭįáĬĵ":8979,"ĠáĬłáīģ":8980,"ĠáĬłáĬĲáĮĭ":8981,"áĪļáĭį":8982,"ĠáĪ°áĪ«áĭĬ":8983,"áįĬáĭİáī½":8984,"ĠáīłáīłáīĤ":8985,"Ġáĭ¨áĮĪáĭĽ":8986,"ĠáĪĿáĪµáĪį":8987,"Ġáī£áĪīáīłáīµ":8988,"ĠáĪĥáĪ³áī¦áī½":8989,"ĠáĪĺáĭĪáĪ°":8990,"ĠáĬ¢áĪ³áĭŃáĭ«áĪµ":8991,"Ġáĭ¨áĬłáĪĽáĪ«":8992,"ĠáĮ¨áĪĿáĪ¨áĭį":8993,"ĠáĭĵáĪĪáĪĿáĬķ":8994,"áīµáĪŃáįį":8995,"ĠáĬŃáĪĪáī¡":8996,"Ġáī£áĪĪáĪµáĪįáĮ£áĬĵáīµ":8997,"áīłáĭļáĭ«áĬķ":8998,"áīħáĪĪ":8999,"ĠáĬłáĭŃáĭĺáĬĲáĮĭáĪĿ":9000,"ĠáĬ¥áĬķáĭ°áĪļáĪĪáĭį":9001,"ĠáĬłáĪįáī³":9002,"Ġáĭ¨áĪļáĭ«áĪµáįĪáĪįáĮĪáĭį":9003,"ĠáĬłáīħáĪ«áī¢áĭ«":9004,"Ġáĭ¨áī°áīĢáĪĺáĮ¡":9005,"45":9006,"ĠáĪĺáįĪáĮ¸áĪĿ":9007,"áįĭáįį":9008,"ĠáĮĪáī¥áī·áĪį":9009,"ĠáīłáĪĮáĪİáī½áĪĿ":9010,"ĠáĪ°áĪŃáīªáĪµ":9011,"ĠáĬ¥áĪ¨áįįáīµ":9012,"ĠáĬ¨áĬ¥áĬķ":9013,"áĪĻáĪĽáĬķ":9014,"Ġáĭįáĭµáīħ":9015,"Ġáī°áīĭáĪĽáīµáĬĵ":9016,"ĠáĮĪáĪŃ":9017,"ĠáĭŃáī³áĭŃ":9018,"áĬ«áĭĬ":9019,"Ġáĭµáī¥":9020,"áĭ©áīłáīµ":9021,"Ġáĭ¨áīµáĭ³áĪŃ":9022,"áĬ¥áĬķáĭ°áĪļ":9023,"ĠáĭŃáĪĦáĬķáĬķ":9024,"ĠáīłáĪĺáĬķáįĪáĪµ":9025,"ĠáĬ¥áĪĭáĪĪáĪģ":9026,"ĠáĭįáĪĢ":9027,"áĪŀáĬ¨áĪŃ":9028,"ĠáīĢáĬĲ":9029,"áĬłáĪĿáī£":9030,"ĠáĭµáĬķáĮĪáī°áĬĽ":9031,"Ġáĭ«áĪ³áĪµ":9032,"Ġáī£áĪĪáĪĺáĬĸáĪ©":9033,"ĠáĬłáĬŃáĪ²áĭ®áĬķ":9034,"Ġáīłáįħ":9035,"ĠáĮ¥áĮį":9036,"ĠáĪĽáĭķáĬ¨áĪĭáĭĬ":9037,"ĠáįįáīµáĪħ":9038,"Ġáĭ¨áīłáĬ©áĪīáĬķ":9039,"Ġáĭ¨áĭĽ":9040,"ĠáĬ¨áĪĮáĪĭ":9041,"Ġáī°áĭķáĪĪáīµ":9042,"ĠáĭŃáįĪáĪįáĮĭ":9043,"áĪŃáĪĿáĭ«áĪµ":9044,"áĪĭáĪĪáįīáīµ":9045,"ĠáĪĺáĬķáĮĪáĭ±áĬķ":9046,"áĮįáĭļáī¢":9047,"Ġáī°áīĢáĪĿáĮ§áĪį":9048,"Ġáĭ¨áĪļáĬ¨áī°áĪĪáĭįáĬķ":9049,"ĠáĪµáįĶ":9050,"Ġáĭ¨áĬłáĭŃ":9051,"ĠáįįáįģáĪĿ":9052,"ĠáīłáĪ°áĪĭáĪĽáĭĬ":9053,"ĠáĪĺáī³áĪ°áī¢áĭ«":9054,"2012":9055,"ĠáĬŃáįīáĬĽ":9056,"Ġáĭ«áĭ°áĪŃáĮī":9057,"Ġáĭ«áĪ³áĭ«áĪī":9058,"Ġáĭ¨áīĢáĪ¨áī¡":9059,"ĠáĬ¨áĪĻ":9060,"Ġáī°áĮ£":9061,"áĭĭáĮĭ":9062,"áĭĭáĪ½":9063,"ĠáĬŃáĪ¨áĪĿáīµ":9064,"ĠáĭĪáĭ°áī¥":9065,"áįīáīłáīµ":9066,"ĠáĪĻáīĢáīµ":9067,"áĪłáĪ¨áīµ":9068,"ĠáĪĺáĪĪáĬªáĭ«":9069,"Ġáī°áĪĺáĪįáĪ°áĭį":9070,"Ġáī°áĭ°áĪ«áĮħáī°áĭį":9071,"ĠáĭŃáĪ¨áĭ³áĪį":9072,"Ġáī°áĪµáĪĽáĪļ":9073,"Ġáī°áĭ³":9074,"Ġáĭ¨áĪļáĬĵáĮĪáĪ¨áĭį":9075,"Ġáĭ¨áī°áĬĵáĮĪáĪ¨":9076,"ĠáĪ°áĬłáīµ":9077,"Ġáī£áĪįáĬĵ":9078,"áĪ°áĪĽáĪ«":9079,"áī¾áī¹":9080,"ĠáīµáĮįáĪ«áĭŃ":9081,"Ġáĭ¨áĪĺáĪ°áĪĪ":9082,"ĠáĬªáĭ³":9083,"ĠáĪĽáĪµáī³áĭĪáĪ»":9084,"ĠáīµáĮįáĪī":9085,"áĪ½áĬĵáĪį":9086,"áĬķáĮįáĪµ":9087,"ĠáĪĽáĪµáĪĺáĭĿáĮĪáī¥":9088,"ĠáīłáĪ°áĭİáī½":9089,"Ġáĭ¨áįĪáĮłáĪ¨áĭį":9090,"áĬ¨áī¥áĪ©":9091,"áĭ°áĪ¨áĪ°áī£áī¸áĭį":9092,"ĠáĭŀáĪŃ":9093,"ĠáĬ¥áĪŃáĪĿáĮĥáĭİáī½":9094,"ĠáĬłáĪĪáĪĽáĭ¨áĪģ":9095,"Ġáī°áĮĢáĪĿáĪ¯áĪį":9096,"áĪĺáĮĢáĪĺáĪªáĭ«":9097,"áĪ«áĬķáĬĵ":9098,"áĮ¥áĪ¬":9099,"áĪ²áĬ«":9100,"ĠáĮİáĪįáī¶":9101,"áĮ½áĪĲáįī":9102,"ĠáĭľáĮİ":9103,"ĠáĪĦáĭ±":9104,"ĠáĪĢáĮĪáĪ«áĭĬ":9105,"ĠáīłáĪĽáĪħáīłáĪ«áĭĬ":9106,"as":9107,"Ġáĭ¨áī°áĪĽáĪ¨":9108,"áĬłáĪŃáĪ¶":9109,"Ġáīłáī°áĪ«":9110,"ĠáĬ¤áĪĿ":9111,"ĠáĬ¨áī°áĪĽáĭĭ":9112,"Ġ41":9113,"ĠáĪĺáĪĪáĭ¨áīµ":9114,"ĠáĬłáīħáĪŃáī§áĪį":9115,"Ġáī°áīĭáĪĽáī±":9116,"ĠáĬĲáĮĪáĪ¥áī³áīµ":9117,"ĠáĭŃáĮłáįĭ":9118,"Ġáĭ¨áī°áĪ³áī°áįī":9119,"áĪªáĭ«áī¸áĭį":9120,"áĮłáīłáīĤáĭ«":9121,"áī¶áī½áĬķáĬĵ":9122,"ĠáĬ¨áĪĨáĬĲáĭį":9123,"ĠáįħáĪģáįį":9124,"ĠáīłáĭķáĭµáĪľ":9125,"áĪ¨áĪĻ":9126,"Ġáī°áĬķáīĢáĪ³":9127,"Ġáĭ¨áĪĺáĮĢáĪĺáĪŃáĭ«":9128,"ĠáĬ¥áĬķáĭ°áĪļáĪ°áĪ«":9129,"Ġáĭ¨áĭĪáĭŃáĬķ":9130,"ĠáĪĪáĪĽáĪµáīĢáĮłáĪį":9131,"Ġáĭ¨áĭ¨áĪ«":9132,"Ġáĭ¨áĪļáĪĺáĪĪáĬ¨áīµ":9133,"áīłáĪ´":9134,"ĠáĬłáīħáĮ£áĮ«áĭİáī½":9135,"Ġáī£áĪĪáī¤áī¶áī½":9136,"áĪ®áĮ¥":9137,"ĠáĪĿáĮįáī£":9138,"áĬĸáĪ«áīµ":9139,"ĠáĪģáĪ´áĬķ":9140,"áĪ»áĬķáĮī":9141,"Ġáī°áĪĺáĪµáĪŃ":9142,"Ġáī¤áī¶áī½áĬĵ":9143,"áĪįáĪį":9144,"ĠáĪĪáĪĺáĮĢáĪĺáĪŃ":9145,"áĭ¶áĪĿ":9146,"ĠáĮłáįĭ":9147,"áĬłáĬķáĭ°áĬĽ":9148,"ĠáĮĨáĬķ":9149,"ĠáĪĺáĮ½áĪĶáīµ":9150,"áĪĿáīĢáīµ":9151,"áĪĭáĬĵ":9152,"ĠáĪĽáĬĲáĭį":9153,"ĠáĪĽáĬ«áĪĦáĭµ":9154,"ĠáĪĽáĭĺáĮĭáĮĢáīµ":9155,"ĠáĬ¥áĬķáĭ²áĪ°áĪ©":9156,"áĪĭáĪĪáįĬáĭ«":9157,"ĠáįİáĪ¨áĪĿ":9158,"ĠáĬ¥áĪĿáī¥áĭĽáĪĿ":9159,"ĠáįĬáĪįáĪŀáī½":9160,"ĠáĪĺáīħáĪ¨áī¥":9161,"ĠáĪ²áĬĲáĪ³":9162,"ĠáīłáĪĺáĪ³áĪ°":9163,"ĠáĬ¥áĭ¨áĪ°áĮł":9164,"ĠáĪĺáĭµáĪ¨áĬ©":9165,"áīłáĪ°áī¡":9166,"ĠáĪĺáĮĢáĪĺáĪ©áĬķ":9167,"áīłáĮİ":9168,"áīĢáīģ":9169,"áĬłáĪ«áīµ":9170,"Ġáī¢áĪµ":9171,"áīµáĬĵáĬķ":9172,"áĬĭáī¸áĭį":9173,"áĪŁáĬķ":9174,"ĠáįĮáĪµáī²áī«":9175,"áĭ°áĪµáīµ":9176,"ĠáĪĺáĮĪáĬķ":9177,"Ġáī°áĮ¨":9178,"áī¶áĪª":9179,"ĠáĬ¥áĬķáĭ°áĬĲ":9180,"ĠáĮĪáĭµ":9181,"ĠáĬ¥áĬĵáĮĪáĬĽáĪĪáĬķ":9182,"áĪĺáĪįáĪ±":9183,"ĠáĪĺáĬķáĮįáĪ¥áī±áĬķ":9184,"áĭ«áĬķáĪĿ":9185,"áĬŃáĪ«áĪī":9186,"áĭ®áĪŃáĬŃ":9187,"áī´áĮĮ":9188,"Ġáĭ«áĪĪáī¥áĬķ":9189,"áĬĲáĪŃáĮĤ":9190,"áĪŃáĮĭ":9191,"áĪ«áĭįáĬķ":9192,"ĠáĭŃáĭ°áĪ¨áĮį":9193,"Ġáī£áĭ«":9194,"ĠáĬłáĪĪáĬĵ":9195,"Ġáĭ«áĪĪáī½áĭį":9196,"áĭ°áĪ¨áĮĪáĭįáĬķ":9197,"2013":9198,"Ġáĭ¨áĮīáī£áĬ¤":9199,"ĠáĭµáĪ¨áĮĪ":9200,"ĠáĭŃáĪłáĪ«áĪį":9201,"ĠáĬłáī³áĭį":9202,"ĠáīħáĮ¥áĪŃ":9203,"ĠáĪĺáĬķáĮįáĪ¥áīµáĬķ":9204,"Ġáī°áįĪáĮ»áĪļ":9205,"ĠáĬ¢áĬ®áĬĸáĪļáĭ«áĭĬáĬĵ":9206,"áĭ«áĭķáīĨáī¥":9207,"ĠáĭŃáĪĪáĬĽáĪį":9208,"áĮĭáī¥":9209,"áĪĽáĪªáĭį":9210,"áįĢáī£":9211,"áĭĭáĬķáĮ«":9212,"ĠáĪĺáīĢáĭ¨áĪŃ":9213,"Ġto":9214,"áĬłáĭ²áĪ±":9215,"ĠáīħáĬĿ":9216,"áĪĭáī¸áĭįáĬĵ":9217,"áĭ³áĮħáĬĲáīµ":9218,"ĠáĭįáĭµáĭµáĪ®áī½áĬķ":9219,"áĪĪáĭ©":9220,"áĪ¬áĭį":9221,"ĠáĪħáĮİáī½":9222,"Ġáĭ¨áĮįáĪĪ":9223,"áī³áĭ°áĪ«áĭĬ":9224,"áįĵáĪŃáī²áĭį":9225,"ĠáīłáĬ¨áī°áĪĽáĭį":9226,"ĠáīµáĮįáīłáĪ«":9227,"Ġh":9228,"Ġáĭ¨áĪŃ":9229,"áĪĿáĬĳ":9230,"Ġáī°áĭ°áĪ¨áĮĪ":9231,"ĠáĭŃáĮĪáĪĪ":9232,"áĮĭáįį":9233,"ĠáĪĽáĬŃáĪ°áĬŀ":9234,"áĬĴáĪ³":9235,"ĠáĪĺáĪĺáĪªáĭ«áĭİáī½":9236,"áīłáĬĲáĮĪáĪ«áī½áĬķ":9237,"ĠáĬłáĪĿáĬĵáĪĪáĪģ":9238,"áĬ¹":9239,"áĬķáĬ¦áīµ":9240,"ĠáīłáĮįáī¥áįħ":9241,"áĬ«áī½áĬķ":9242,"Ġáī³áĪĿáĪ«áīµ":9243,"Ġáĭ¨áĬłáĪĪ":9244,"Ġáĭ¨áĪįáĮħ":9245,"ĠáĪ¶áĪĽáĪĬáĭ«":9246,"ĠáīłáĭµáĬķáĮĪáīµ":9247,"áī£áīłáĪªáĭ«":9248,"Ġáĭ¨áī°áĭĺáĮĭáĮĢáĭį":9249,"áĭľáĪĽ":9250,"áĪĢáī¥áīµ":9251,"Ġáĭ¨áĭįáĭŃáĭŃáīµ":9252,"ĠáĭŀáĪ®":9253,"ĠáīłáįĪáīĥ":9254,"ĠáĪĺáĪįáĬ¥áĬŃ":9255,"29":9256,"Ġáĭ¨áĭ©":9257,"áī°áĬĿ":9258,"Ġáīłáįĵ":9259,"ĠáĪĺáĭĿáĬĵáĬĽ":9260,"Ġáī¥áĪ®":9261,"ĠáĪ²áĬĸáĪŃ":9262,"Ġáĭ¨áĪĺáĪµáĮłáīµ":9263,"Ġáĭ«áĪĪáĬķáĬķ":9264,"ĠáĬ¥áĭ¨áī°áīĢ":9265,"áĪįáĬŃáīµ":9266,"Ġáĭ¨áĪļáĭ«áĪµáįĪáĪįáĮī":9267,"áĪĺáĭĺáĮĪáī¥":9268,"ĠáĬ«áĪŃáī³":9269,"Ġáī°áīĢáī¥áĪĪáĭį":9270,"ĠáĪĽáĪµáĮ¨áīłáĮ«":9271,"ĠáĪĺáī¸":9272,"áĪĭáī½áĬĭáĪį":9273,"áĬłáĪ³":9274,"Ġáĭ¨áĪĺáĮłáīĢáĪĿ":9275,"ĠáĪĪáĪĽáĪŁáĪĭáīµ":9276,"áĬĴáĬķ":9277,"ĠáĪĺáĪµáĬĸ":9278,"ĠáĪĲáĭŃ":9279,"áĪĺáĪŃáĪĺáĪŃ":9280,"ĠáĭµáĮĭáįįáĬĵ":9281,"ĠáĭµáĬķáĬ³":9282,"áĬ¨áĪ°áī°":9283,"Ġáī°áįĪáĪĭáĮĬ":9284,"27":9285,"áīłáĭĪ":9286,"Ġáī°áī£áĪĪ":9287,"áĬ¨áĪ³":9288,"áĬ¨áĭĪ":9289,"Ġáĭ¨áĪĺáĪĭ":9290,"ĠáĪĪáĪĺáĪ³áī°áįį":9291,"ĠáĭĵáĪĺáī±áĬķ":9292,"Ġáĭ«áĪĪáī£áī¸áĭįáĬķ":9293,"ĠáĬłáĪµáī°áĪĭáĪį":9294,"ĠáīłáĮ¥áīĤáīµ":9295,"ĠáĪĽáĭķáĪ¨áĮį":9296,"ĠáīłáĮīáĮīáīµ":9297,"ĠáĪĪáĪķáĭĿáī¡":9298,"ĠáīłáĪģáĪĪáī°áĬĽ":9299,"ĠáĭŃáįĪáĪįáĮĭáĪī":9300,"ĠáĭŃáĪµáĪĽ":9301,"Ġáī¥áĪµ":9302,"ĠáĮ¥áīł":9303,"áīłáĪ¨áĬ¨":9304,"ĠáįĪáĪ¨áĬķáĪ³áĭŃ":9305,"áĪ¯áī¸áĭįáĬķ":9306,"Ġáĭ¨áīµáĮįáĪ«áĭŃ":9307,"ĠáĭįáĪµáĮ£áĭĬ":9308,"ĠáįįáĪ«áįįáĪ¬":9309,"Ġáĭ¨áĭĿáĬĵáī¥":9310,"áĮ¥áĬĳ":9311,"áĭįáĬķáĭµ":9312,"áī¦áī¿":9313,"ĠáīłáĬ¥áĬĲáĪ±":9314,"áĭ°áĪŃáĮįáĪĿ":9315,"ĠáīµáĪĿáĪħáĪŃáī±áĬķ":9316,"ĠáĬłáĪµáī°áĬĵáĮĭ":9317,"áĪ¨áĬ¨áī¥":9318,"ĠáĬłáĪŀ":9319,"ĠáĬłáīłáī£áĬĵ":9320,"ĠáĪªáįĲáī¥áĪĬáĬŃ":9321,"ĠáĪ©áĪ²áĭ«":9322,"áĭ«áĭ¨":9323,"áī£áĭĶ":9324,"ĠáīłáĪłáĪ":9325,"Ġáī°áĬ®áĪŃ":9326,"ĠáĬłáĪįáī½áĪįáĪĿ":9327,"áĪ¸áĪ«":9328,"ĠáĬķáīģ":9329,"áĬªáĭİáī½":9330,"áĭ¨áĪĺáĬķáĮįáĪ¥áīµ":9331,"áĭ¨áĪģáīµ":9332,"ĠáĪħáĮĪáĭĪáĮ¥":9333,"Ġáĭ¨áĪĺáĮ¨áĪ¨áĪ»áĭį":9334,"Ġáĭ¨áĪįáĪĽáīµáĬĵ":9335,"áĮŃáīłáĪŃáīłáĪŃ":9336,"áĬķáĭ´":9337,"Ġáįĳ":9338,"áĮįáī¶":9339,"áī£áĪªáĭİáī½":9340,"ĠáĬłáĪµáīĨáĮ¥":9341,"áĮĪáĪ«áī½áĪģ":9342,"áīłáĭįáĭµáĭµáĪ©":9343,"Ġáī°áĭĺáĮĭáĮħáī¶":9344,"Ġáī³áĭįáīĥáĪĪáĪħ":9345,"Ġáĭ¨áĬ¦áĪ®áĪŀ":9346,"áĪĽáĪ¨áĭį":9347,"áĮĭáĪŃ":9348,"ĠáĬłáĪĺáĪĭ":9349,"áī°áĪŃáĪµ":9350,"áīłáĪ°áīł":9351,"áĪĮáĬŃáīµáĪ®":9352,"áĮłáįĪ":9353,"ĠáĪĽáĪµáįĭ":9354,"áĪĺáĭĿáĪĻáĪŃ":9355,"Ġáīµáī½áĪĭáĪĭáī½áĪģ":9356,"Ġáī£áīµ":9357,"ĠáĬ¨áĪļáĮĪáĬĺáĭį":9358,"Ġáĭ¨áī³áĪĭáīģ":9359,"ĠáīłáĮįáĭµ":9360,"áĭ¨áĪļáĪĪáĭįáĬķ":9361,"ĠáĪĿáĪķáĪ¨áīµ":9362,"ve":9363,"ĠáĬłáįĦ":9364,"Ġáī°áĭĺáĪŃ":9365,"áĮ¨áīłáĮ¥":9366,"ĠáĪķáĪĬáĬĵ":9367,"áĪıáī¸áĭĭáĪį":9368,"áĪĭáī½áĪģáĪĿ":9369,"ĠáĪĺáĪŃáĬ¨":9370,"Ġáī°áĭ°áĪŃáĮĪáĭį":9371,"Ġáī°áĮ½áĬ¥áĬĸ":9372,"Ġáĭ¨áĬŃáĪį":9373,"áįĪáīĢáĭµ":9374,"ĠáĪ°áĪįáĮ£":9375,"áĪĺáĬķáĮĪáĭ±":9376,"áĪ¨áĭ³áī¸áĭį":9377,"ĠáĮįáī¥áĭŃáīµ":9378,"ĠáįķáĪ®áĮĢáĬŃáī±":9379,"ĠáĪ½áī¥áĪŃáī°áĬĿáĬĲáīµ":9380,"áīłáĭĵáĪī":9381,"áĮĭáĮ¥áĪĿ":9382,"ĠáįįáĮĨ":9383,"Ġáī½áĪĭáĪĪáī½":9384,"ĠáĬĵáī½áĪģ":9385,"ĠáĪĺáĪªáĬĲáīµ":9386,"ĠáĪĿáĪµáĮ¢áĪŃ":9387,"áĬ¨áįĬáĪį":9388,"Ġáĭ¨áĬłáĪµáī¸áĬ³áĭŃ":9389,"ĠáįĸáĪĪáī²áĬ¨áĬŀáī½":9390,"áĪ«áĪĺáĭµ":9391,"ĠáĬ¥áĬķáįĪáĪįáĮĭ":9392,"áĬ¨áĮĬáĭľ":9393,"Ġáīµáī°áĭį":9394,"ĠáĮĪáĮłáĪĺ":9395,"ĠáĪĿáĪŃáīµáĬĵ":9396,"Ġáī°áĭ°áĮĭáĮĭáĪļ":9397,"Ġáĭ¨áĪļáĪĺáĪĪáĬ¨áī°áĭį":9398,"ĠáĬ¨áĬ¥áĬĵáĬķáī°":9399,"ĠáĪĽáĭµáĪ¨áĪµ":9400,"ĠáĪĺáī°áĮįáīłáĪŃ":9401,"ĠáĪĺáĭµáĪĥáĬĴáīµ":9402,"ĠáĬ¨áĪĺáĮ£":9403,"Ġáĭ¨áĭĪáīħ":9404,"ĠáĮĪáĪįáĮ¾":9405,"ĠáīĢáĪŃáī·áĪį":9406,"ĠáĬłáĪĽáĪ«áĮ®áī½":9407,"áĪµáĭ«":9408,"áĪ»áĪ»áĪī":9409,"ĠáīłáĭµáĪĿáĪ©":9410,"áĭ«áī½áĪģ":9411,"áīĢáĭĿ":9412,"áĮĭáī³":9413,"ĠáĪĽáĭ°":9414,"áĭ°áĮĭáĭį":9415,"ĠáĪĺáĭĭáĮ®":9416,"Ġáĭ¨áįķáĪ¬áĭļáĭ³áĬķáīµ":9417,"ĠáīłáīĢáĮ£áĭ©":9418,"ĠáĪĲáĬªáĪŀáī½":9419,"ĠáĬłáĬĲáĮĭáĮį":9420,"Ġáī°áĪłáĪŃ":9421,"ĠáĪĪáĮİ":9422,"Ġáĭ¨áī°áĪ«":9423,"ĠáĬ¥áĬķáĭ²áĪĺáĮ£":9424,"áĭĵáĬķ":9425,"ĠáĬķáĭµ":9426,"Ġ46":9427,"áī¤áīµáĬĲáīµ":9428,"ĠáĪµáĬķáĭ´":9429,"áįĸáĪĬáĪ²":9430,"Ġáī°áįħáĬ¥áĬĸ":9431,"ħáĮīáĪªáī±":9432,"ĠThe":9433,"ĠáĬ¨áīħ":9434,"Ġáĭ¨áī°áĪĺáĭĺáĮĪáī¡":9435,"ĠáĪĨáĭµ":9436,"áĭķáĪĿ":9437,"áī´áĭį":9438,"áĮİáĭµ":9439,"Ġáī°áĬĵáĮĪáĪ©":9440,"áĭ¨áĪĺáĮĢáĪĺáĪªáĭ«":9441,"áīłáĪ°áī¥":9442,"Ġáīłáī£áĪħáĪŃ":9443,"áĪĺáĮł":9444,"Ġáīłáĭ¨áīµ":9445,"áī¥áī°áĭį":9446,"áĬŃáĬķáĭ«":9447,"ĠáĪĪáĬŃ":9448,"ĠáĪ²áĮĪáī¡":9449,"Ġáīłáī°áī£áĪĪ":9450,"ĠáīłáĬłáĪ«":9451,"áĬĻáĬķ":9452,"áĬŃáīµáĪį":9453,"ĠáĪĻáĪīáĮĮáī³":9454,"Ġ2015":9455,"Ġáī£áĬķáĬ©":9456,"ĠáĮīáĭµáĪĪ":9457,"ĠáĮ¥áĪĭáĪģáĬķ":9458,"ĠáĬ¨áĭ°áī¡áī¥":9459,"ĠáĪĿáĪŃáī³áĪĽáĬĲáīµ":9460,"Ġáĭ¨áĮĭáĭľ":9461,"Ġáĭ¨áĪļáī³áĭĪáīħ":9462,"áĪ»áĭįáĬķ":9463,"áĪ¹áĬķ":9464,"áĭĪáĪµáĭ±":9465,"ĠáĪĺáīħáĭ°áĪµ":9466,"Ġáī°áĮĪáĬĿáī°áĭĭáĪį":9467,"ĠáĪĪáĪ«áĪ³áī¸áĭį":9468,"ĠáīłáĭĪáĬķáĭ¶áī½":9469,"ĠáĬ¥áĪĽ":9470,"Ġáĭ¨áĪ¬":9471,"áĪĽáī´áĭİáĪµ":9472,"ĠáĬ¨áĭµáĪŃ":9473,"áĬ¨áĪģáĪīáĪĿ":9474,"áī»áīµ":9475,"ĠáĬ¥áĭ«áĪįáĬķ":9476,"áĮįáĬķáī£áī³":9477,"ĠáĪªáįĸáĪŃáī°áĪŃ":9478,"Ġáĭ¨áīĨáĭ©":9479,"ĠáīłáĪĢáĮĪáĪ«áī½áĬķ":9480,"ĠáĪĺáīĥáī¥áĪŃ":9481,"ĠáĭĺáĭŃáī¤":9482,"ĠáīłáĬĲáīłáĪ¨":9483,"ĠáĪĽáĭĪ":9484,"Ġáī°áĪĺáĪµ":9485,"ĠáĪĺáĪŃáĪĨ":9486,"áĪªáĪĿ":9487,"ĠáĮĪáĮ£áĪļ":9488,"áĪĪáīµáĬĵ":9489,"ĠáĬłáĭŃáī¶":9490,"áĭ´áįĵ":9491,"Ġáī¢áĬĸáĪŃáĪĿ":9492,"áīµáĬķáĪ½":9493,"ĠáĪ³áĭŃáīĨáĭŃ":9494,"áĮĪáĪįáĮ½":9495,"ĠáįĵáĪŃáī²áĭį":9496,"Ġáī°áĮłáīĥáĪļáĭİáī½":9497,"Ġáĭ¨áĪ°áĭįáĬĲáīµ":9498,"Ġáī£áĪĪáĪĥáī¥áī¶áī½":9499,"ĠáĭŃáĬ«áĪĦáĭ³áĪį":9500,"áĬ¨áĬĿ":9501,"ĠáĬłáĭįáĪ®áįķáĪĭ":9502,"áīłáĪĪáīµ":9503,"áĭĺáĮĭáĮģáīµ":9504,"áĪ»áĬķáĮīáĪį":9505,"ĠáĪ²áĬķ":9506,"áīłáĪ©áĬķ":9507,"ĠáĪĭáĪµ":9508,"ĠáĭŃáĮĪáĪĺ":9509,"ĠáīħáĪŃáĪ¶áī½":9510,"ĠáīģáĪŃáĮ¥":9511,"ĠáĮĭáĭľáĮ£áĭĬ":9512,"ĠáĬłáĭµáĪŃáĮĪáĪħ":9513,"Ġáĭ¨áĬ¨áįĪ":9514,"ĠáĭŃáĭ¤":9515,"Ġáĭ«áĮĪáĬĻáīµ":9516,"áĮ£áĬĵ":9517,"áīłáĪŃáĬ¨áīµ":9518,"Ġáĭ¨áĪĪáĪ½":9519,"ĠáĬłáĪµáįĪáĪĭáĮĬáĬĲáīµ":9520,"áĭĪáĭµáīħ":9521,"áĪµáī¡áĬŃ":9522,"áī½áĬĿ":9523,"Ġáīłáī³áĪĽ":9524,"áĬĲáī±áĪĿ":9525,"ĠáĪĺáī¥áĪ«":9526,"ĠáĪĺáĮ«áĭĪáīµ":9527,"áĬŃáĪ«áĪ²":9528,"áĭ³áĭµáĪ©":9529,"áĪ²áī¥":9530,"ĠáĪ¥áĪ«áī¸áĭį":9531,"Ġáĭ¨áĬ¥áĮħ":9532,"ĠáīłáĪĻáĪµáĬĵ":9533,"Ġáĭ¨áĪļáįĪáĮ½":9534,"ĠáĪĪáīµáĪĿáĪħáĪŃáīµ":9535,"ĠáĪħáĮ»áĬĵáīµ":9536,"áī½áĪįáīłáīµ":9537,"ĠáīłáĪĿáĮįáī¥":9538,"ĠáĪĪáĪ«áĪ±":9539,"Ġáĭ¨áĬªáĬĲ":9540,"áĬķáĮĢ":9541,"Ġáĭ¨áīħáĪŃ":9542,"ĠáĬ¥áĭļáĪģ":9543,"áī°áĪĺ":9544,"Ġáĭ¨áĪļáĪĺáĪ¨":9545,"áī´áĬŃáĬĸáĪİáĮĤ":9546,"áĬ¨áī£áĭµ":9547,"Ġáĭ¨áīħáĭµáĪĺ":9548,"ĠáĬ¨áĭļáĪģ":9549,"Ġáĭ«áįĪ":9550,"ĠáīłáĪĽáĮ£":9551,"ĠáīłáĪļáīĢáĮ¥áĪĪáĭį":9552,"ĠáĬłáĪ¨áī¢áĭ«":9553,"Ġáī°áĮ«áĭį":9554,"áĬŃáĪ²áĭ®áĬķ":9555,"áī°áĬ®áĪŃ":9556,"ĠáĬ¥áĬķáįĪáĪįáĮĭáĪĪáĬķ":9557,"ro":9558,"ĠáĬ¥áī£":9559,"áĮĪáĪªáĭ«":9560,"áĭµáĪ¬":9561,"áĭ®áī°":9562,"Ġáĭ«áĪµáĭ°":9563,"ĠáĪ¨áĭ¥áĪĿ":9564,"Ġáī°áīĢáĭŃ":9565,"áĭ¨áĬłáĮĪáĪªáī±":9566,"ĠáĭķáĭµáĪľáĭ«áī¸áĭį":9567,"Ġáī°áĮłáĬĵáīĨ":9568,"ĠáĪĿáīµáĬŃ":9569,"áĭŃáĭĺáĭį":9570,"ĠáĪĺáĮłáĭ¨":9571,"áī³áĬĶ":9572,"áĭ¨áĪĥ":9573,"áĬłáī¥":9574,"ĠáĮĭáĭĿ":9575,"ĠáĪķáĭ«áĭį":9576,"áĪľáĬĵáĭĬ":9577,"ĠáīłáĬ¥áĭį":9578,"áĭ³áĪĽáĭĬ":9579,"ĠáīłáĪ¦":9580,"áĪ³áĭ©":9581,"áĪ®áīµ":9582,"áĮ¨áĬĵ":9583,"áī¤áī¶áī½":9584,"ĠáĬ¥áĭµáĮĪ":9585,"ĠáĪ°áī¥áĬłáĭĬ":9586,"ĠáĬłáĪįáī°áī»áĪĪáĪĿ":9587,"Ġáĭ¨áĭļáĪħáĬķ":9588,"Ġáĭ¨áįĮ":9589,"áĪ»áĬĵ":9590,"ĠáīłáĬłáĭį":9591,"ĠáĪ¨áĪĥáī¥":9592,"áĪłáĪ«áīµ":9593,"ĠáĭŃáĮĪáī£áī¸áĭĭáĪį":9594,"ĠáįİáĪŃ":9595,"Ġáī°áĮ«áĭĭáī¾áī½áĬķ":9596,"ĠáīłáĬ¢áĬķáĭ±áĪµáīµáĪª":9597,"Ġáįįáīĥáĭµ":9598,"ĠáĬ¨áĬ¥áĬķáĮįáĭ²áĪħ":9599,"ĠáīłáĬŃáĪįáĪį":9600,"áīĢáī¥":9601,"Ġáĭ«áĮĪáĬĽáĪį":9602,"áįįáĪī":9603,"ĠáĪµáĪĽáī¸áĭį":9604,"áĮ¨áī¥":9605,"ĠáĪĿáĬķáĭĽáĪ¬":9606,"Ġáĭ¨áĪ°áĮłáĭįáĬķ":9607,"ĠáĪĪáĭļáĪħáĪĿ":9608,"ĠáīłáĬ®áĬķ":9609,"ĠáĪĪáĪĺáī³áĭ°áĮį":9610,"Ġáĭ¨áĬ®áĬķáĪµáīµáĪ«áĬŃáĪ½áĬķ":9611,"ĠáĬłáĪŃáī²áĪµáīµ":9612,"áĮ´áĮ¥":9613,"ĠáĬ¨áĪ±":9614,"ĠáĪĪáįįáĪŃáĭµ":9615,"Ġáĭ¨áĪĽáĪ«áī¶áĬķ":9616,"áįĢáī£áĪ¨":9617,"ĠáīłáĬ¢áĭ¨áĪ©áĪ³áĪĮáĪĿ":9618,"ĠáįķáĪ®áĮĢáĬŃáī¶áī½áĬķ":9619,"ĠáĭŃáĭ°áĪŃáĪ³áĪį":9620,"Ġáĭ¨áīłáĪ¨":9621,"Ġáĭ¨áįħ":9622,"áĭ¨áĭĺ":9623,"ĠáĭĪáĪ«":9624,"ĠáĪ°áĪį":9625,"áĪ¥áĪįáĮ£áĬĳ":9626,"ĠáįįáĮ¥áĪ¨":9627,"ĠáīģáĪįáīģ":9628,"ĠáĮ½áĪģáįį":9629,"áĮĪáĪĿáĮĪáĪĿ":9630,"Ġáĭ¨áĪļáĪĺáĬĲ":9631,"áĪ¦áĪµáī°áĬĽ":9632,"ĠáĬłáįħ":9633,"áīĢáĭŃ":9634,"ĠáĭĪáįį":9635,"ĠáĭįáĮĬáĭ«":9636,"ĠáĪįáĮĩ":9637,"áĬ¥áĬĲáĪĨ":9638,"ĠáĪĤáĭ°áī±":9639,"ĠáĬłáįĭáĮ£áĬĿ":9640,"ĠáĪĺáīĨáĪ«áĪ¨áĮ¥":9641,"áĪĺáĪ¨áĮĥ":9642,"áĭ¨áĭĽáĪ¬":9643,"ĠáĪĽáĮįáĪµáīµ":9644,"ĠáĭįáĬŃáĪįáĬĵ":9645,"ĠáīłáĪĺáĪį":9646,"áįĭáĪĪáī½":9647,"ĠáĬłáĪµáĮĪ":9648,"ĠáīłáĪĽáĬ¨áĬĵáĭĪáĬķ":9649,"ĠáĬ¥áĬķáĭ°áĪļáĪĨáĬĳ":9650,"ĠáĮ½áįıáĪį":9651,"ĠáĪµáī¥áĪµáī¥":9652,"ĠáīłáĪĺáĬķáįĪáĪ³áĭĬ":9653,"Ġg":9654,"ĠáĬ¥áĪ¸":9655,"ĠáĬłáĪµáĮĪáī¥":9656,"Ġáĭ¨áĪĺáī³":9657,"áĭ¥áĭį":9658,"ĠáĪįáĪĽáī¶áī½":9659,"áĪµáī¥áĪ°áī£":9660,"ĠáĪļáĭĽáĬĵáĭĬ":9661,"Ġáĭ¨áĬ¬áĬķáĭ«":9662,"ĠáīłáĭŀáĬĳ":9663,"ĠáĭŃáĬĳ":9664,"Ġáĭ«áĬŃáĪį":9665,"áĪ³áĪ°áĪŃ":9666,"áĬłáįįáĪªáĬ«":9667,"ĠáĬ¢áĪħ":9668,"ĠáĪĺáĮ¥áįĭáīµ":9669,"ĠáĪªáįĸáĪŃáī±":9670,"Ġáī£áĭŃáĪĨáĬķ":9671,"ĠáĬłáĭµáĬķ":9672,"áī£áĭįáĭ«áĬķ":9673,"áĪ°áī°áĬĽ":9674,"ĠáĭŃáĪĪ":9675,"Ġáĭ¨áĪļáĭ°áĮį":9676,"áĭĭáĪµ":9677,"ĠáĬ¥áĬķáĭ°áī³":9678,"Ġáĭ¨áĪļáĭ«áĪ¨áĮĭáĮįáĮ¥":9679,"ĠáīłáĪĽáĬ«áĪĦáĭµ":9680,"ĠáĪĬáīµáĪŃ":9681,"áĪĺáĬķáĮĪáĭµ":9682,"áĭĪáĪµáĭ°áĭį":9683,"2011":9684,"Ġáĭ¨áĮĢáĪĺáĪŃ":9685,"áīĢáĪĪ":9686,"áįĪáĪ¨áĬķ":9687,"Ġáīłáī°áĮĵáĭ³áĬĿ":9688,"Ġáĭ¨áĪļáĭ«áĮĪáĪĪáĮįáĪī":9689,"ĠáĬłáĬķáĮĭáįĭ":9690,"áĮ«áĬķ":9691,"ĠáĬłáĮĪáĪįáĮįáĪİáī±":9692,"ĠáīłáīħáĪŃáīłáīµ":9693,"ĠáĬłáĬķáīĢáįħ":9694,"Ġáīłáī¡áĭµáĬķ":9695,"áĪ°áĪ³":9696,"ĠáĭŃáīłáĪĭ":9697,"Ġáĭ¨áĪļáĭ°áĪ¨áĮĪáĭįáĬķ":9698,"Ġáĭ«áĪĺáĮ£áĪį":9699,"ĠáĪĽáĮ¥áįĭáīµ":9700,"ĠáīµáĬĵáĬķ":9701,"áĪİáī¹áĬķ":9702,"ĠáĪĪáĪĺáĪĪáĭĪáĮ¥":9703,"ĠáĬłáĬ«áĪĭáĭĬ":9704,"ĠáīģáĮłáī£":9705,"ĠáĪĪáĬ¥áĪ±":9706,"ĠáĬ¨áĪµáĭµáĪµáīµ":9707,"ĠáĬ¥áĭ«áĬķáĭ³áĬķáĭ³áī¸áĭį":9708,"áĮ¸áī£áĪ¨áīħ":9709,"Ġáĭ¨áĭŀáĬĳ":9710,"Ġáĭ¨áī°áĬ«áĪĦáĭ°":9711,"ĠáīłáĪĺáĭĿ":9712,"ĠáīłáĪĺáĪĭáĬŃ":9713,"Ġáĭ¨áī°áĪ°áĮ£áī¸áĭį":9714,"ĠáĮįáĬķáī£áī³áĭİáī½":9715,"Ġáĭ¨áīĨáĭ³":9716,"áīłáĪ°áīłáĭį":9717,"Ġáĭ¨áĭĵáĪĪáĪĽáī½áĬķ":9718,"ĠáĪĽáĪµáī°áĬ«áĬ¨áĭ«":9719,"áīĥáī½áĪģ":9720,"áĬķáĮįáĭ¶":9721,"Ġáĭ¨áĬ¥áĬĲáĭļáĪħ":9722,"áī£áĪįáĪĿ":9723,"ĠáīĨáĪĿ":9724,"ĠáīłáĪĿáĬĵ":9725,"ĠáĮįáī¥áĪ©":9726,"áĮĭáī±":9727,"ĠáĪ²áĪĺ":9728,"ĠáĪĢáĮĪáĪ«áī½áĬķ":9729,"áįįáĪ«áĪ½":9730,"áīłáīĢáĮ£áĭŃáĪĿ":9731,"áīħáĪī":9732,"Ġáĭ¨áĪĺáĪĽáĪŃ":9733,"ĠáĪĪáĪĺáĭ°áĮĪáįį":9734,"Ġáī¢áī³":9735,"ĠáįįáįĥáĪľ":9736,"áĬ³áĬķáĬķ":9737,"ĠáĬłáĬ³áĬĭ":9738,"ĠáĪĺáĮłáĬĲáĬĽ":9739,"ĠáĭµáĪ«áĪĽ":9740,"Ġáīłáĭ°áĪĿ":9741,"ĠáĪĺáĪĦ":9742,"áīłáĬĵ":9743,"Ġáī°áī£áī£áĪª":9744,"Ġáĭ«áĮĭáĮ¥":9745,"áĭĭáĮĭáīµ":9746,"Ġáī¥áĪ¶":9747,"Ġáĭ¨áī°áī°":9748,"ĠáīłáĪĺáĪ³áī°áįį":9749,"áĭĽáĬĴáĭ«":9750,"Ġáīłáī°áĬ«áĪĦáĭ°":9751,"Ġáĭ¨áĬłáĬŃ":9752,"ĠáĪĻáĪ½":9753,"Ġáĭ¨áĬ¥áĭį":9754,"ĠáĪ«áĪ·áĬķ":9755,"áĪ°áĮ¥áĪĿ":9756,"ĠáĭĵáĭŃáĬĲ":9757,"Ġáĭ¨áī±áĪªáĪµáīµ":9758,"áĮĪáĬĲáĭĺáī¡":9759,"ĠáĬ¥áĭ¨áīĢáĬĲáĪ°":9760,"Ġáĭ¨áĮłáįĭ":9761,"ĠáīłáĪĽáĭ¨áīµ":9762,"áĬłáĭ´áĬķ":9763,"áįĪáĮ½áĪĻ":9764,"Ġáĭ¨áįįáīµáĪķ":9765,"áĬłáī¥áĭĽáĬŀáī¹":9766,"áĪįáĪĻ":9767,"áī¸áĭĭáĪĪáĬķ":9768,"Ġáī°áĮĪáĭ°":9769,"áīĨáĭ¨":9770,"Ġáĭ¨áī³áĬŃáĪµ":9771,"ĠáĪĪáĪħáī¥áĪ¨áī°áĪ°áī¡":9772,"áĪªáĪµáī¶áī½":9773,"ĠáĪĽáĭµáĪ¨áĮĭáī¸áĭįáĬķ":9774,"ĠáĬ¥áī£áĬŃáĪħ":9775,"ce":9776,"áĬ¨áĬ¥":9777,"Ġáĭ¨áī°áĪłáĪ©":9778,"áĭĬáī·":9779,"ĠáīłáĬłáĭ°áī£áī£áĭŃ":9780,"ĠáĬłáĭĻ":9781,"ĠáĪĺáĮłáĪªáĭ«":9782,"áĪ¨áīħ":9783,"ĠáĬ«áĪ£":9784,"ĠáĬŃáįįáĪī":9785,"ĠáĬ¤áįį":9786,"ĠáĬ¤áĬķáĭµ":9787,"ĠáīłáĪ°áĪĽ":9788,"áīłáĪĺáĮĢáĪĺáĪªáĭ«áĭį":9789,"ĠáĪĪáĪĽáĪµáĬ¨áīłáĪŃ":9790,"ĠáĪįáĪĽáī±":9791,"Ġáĭ³áĭŃáĪ¬áĬŃáī¶":9792,"áĪĿáĪĿáĬĲáīµ":9793,"Ġáī°áīĨ":9794,"áĬ¨áĬķáĭµ":9795,"Ġáĭ¨áĪļáĬķáīĢáĪ³áīĢáĪ±":9796,"áĬ«áī¶":9797,"áĮ¡áĪ¨áī³":9798,"ĠáĬłáĪįáĪĨáĬĲáĪĿ":9799,"ĠáĬłáĪ³áĭį":9800,"ĠáīłáĪĽáĬķáĪ³áīµ":9801,"Ġáīłáī´áĬŃáĬĸáĪİáĮĤ":9802,"áĬ§áĪ¨":9803,"áĬķáĮĥ":9804,"áĪįáī¦":9805,"ĠáĪ²áĪ³áĭŃ":9806,"ĠáĪĪáĪĽáĪµáī°áĬ«áĬ¨áĪį":9807,"ĠáĮĭáĪ«":9808,"áĪĿáĪħáĪŃáīµ":9809,"Ġáĭ¨áīĢáīłáĪĮ":9810,"ĠáĬłáĭİáĬķáī³áĭĬ":9811,"ĠáĬłáĭĿáĪĽáĪļáĭ«":9812,"ĠáĪĺáĮĪáĭ°":9813,"ĠáĮĪáĭĽ":9814,"Ġáĭ¨áĪĺáĪŃ":9815,"áĭĽáĭ¥":9816,"Ġáĭ¨áĬłáĭķáĪĿáĪ®":9817,"áĭĪáĮ£áĪĿ":9818,"Ġáĭ¨áĪĺáĮ£áĭįáĬķ":9819,"ĠáĬŃáīµáīµáĪįáĬĵ":9820,"áĪ°áĬĲ":9821,"ĠáĭŃáĪĺáĪŃ":9822,"áĮĭáĭµ":9823,"áĮ£áĪĪáī½":9824,"Ġáĭ¨áĪĺáĪłáĪ¨áī°":9825,"ĠáĬĲáīłáĪŃáĬ©":9826,"ĠáĬ¨áĪĺáĪµáĮłáīµ":9827,"Ġáĭ¨áī³áĭ¨áĭį":9828,"ĠáĪĺáĭįáĮ£":9829,"ĠáĪĽáĬĲáīĨ":9830,"Ġáĭ¨áīĥ":9831,"ĠáĬ¥áĬķáĭ²áĭ°áĪ¨áĮį":9832,"Ġáī£áĪįáĪĨáĬĲ":9833,"Ġáī£áĪķáĪŃáĭ«áīµ":9834,"Ġáī°áįĪáĮ¥áĪ¯áĭĬ":9835,"Ġáĭ¨áĪļáĪ¨áĭ±":9836,"ĠáĮįáī£":9837,"áī´áĪŃ":9838,"Ġáī¥áĭĻáĭįáĬķ":9839,"áīłáĪ½áī³":9840,"ĠáĬłáĭĺáĭį":9841,"áĪİáĪĿáįĴ":9842,"áĪĮáĪİáī¹":9843,"áĪĬáĪµáīµ":9844,"Ġáĭ¨áĭ°áĪĺ":9845,"ĠáĬłáĪįáī£áĪ³áīµ":9846,"Ġáĭ¨áĪļáĭ«áĭ°áĪŃáĮĪáĭįáĬķ":9847,"ĠáĬłáĪªáįį":9848,"áĪĿáī¥":9849,"ĠáĬ¥áĮĥáī¸áĭįáĬķ":9850,"áī¥áīĥáīµ":9851,"Ġáī°áĬĿ":9852,"Ġáī°áĬ©áĪį":9853,"ĠáīłáĪĺáĮį":9854,"ĠáĪĪáĪĺáīĢáĭ¨áĪŃ":9855,"ĠáĬ¢áĭ®áī¥":9856,"ĠáīłáĮİáī½":9857,"Ġ48":9858,"áĬ¥áĬķáĭ°áĭļáĪħ":9859,"Ġáīłáīµáĭķ":9860,"áĬ¥áĬķáĮįáĪĬáĭĿ":9861,"áĪĭáīĢáĪī":9862,"ĠáĬ¥áĭ«áĪµáī°":9863,"ĠáĬ¨áįįáī³":9864,"ĠáĪĺáĪŃáĭ³áīµ":9865,"ĠáĮ¥áĬĵáī³áĭĬ":9866,"ĠáīĢáīłáĪĮáĭİáī½":9867,"ĠáīłáĬ¨áī°áĪŀáī½":9868,"ĠáĪĪáĪ¦áĪµáīµ":9869,"ĠáĮīáĪĿáĪ©":9870,"ĠáīłáĬ¥áĪ³áīµ":9871,"ĠáīłáĭĵáĪī":9872,"Ġáī°áĪ¸áĬŃ":9873,"ĠáĬŃáī¥áĭ°áīµ":9874,"Ġl":9875,"ĠáĭŃáĬ¨áįį":9876,"áĮłáĬĽáĭį":9877,"Ġáĭ°áĪĭ":9878,"Ġáĭ¨áĪļáĭ«áĮĪáĬĻ":9879,"áĮ¡áĬĵ":9880,"ĠáĬ¤áĪµ":9881,"áĮįáĬķáī£áī³áĭį":9882,"ĠáĪ°áĪŃáī¶":9883,"ĠáĬ¢áĬķáĮĤáĬĲáĪªáĬķáĮį":9884,"ĠáĬ¨áĪ¶":9885,"ĠáĭŃáĪĪáĭĭáĪį":9886,"ĠáĭĪáĭ´áīµ":9887,"ĠáĪĽáĪĿáĪ¨áī»":9888,"Ġáĭ¨áī°áĭ°áĪ«áĮĢ":9889,"ĠáĪĪáĪĺáĪĪáĭ¨áīµ":9890,"áīĭáĪĿ":9891,"áī¦áĪ«":9892,"áĪķáĮĪ":9893,"Ġ55":9894,"ĠáĬłáĭµáĪ®":9895,"Ġáĭ¨áĪĪáĬķáĪĿ":9896,"ĠáĪ©áīħ":9897,"Ġáĭ¨áĪļáĭ«áĭ°áĪŃáĮīáīµáĬķ":9898,"áĪ½áĬ¨áĪŃáĬ«áĪª":9899,"Ġáī°áĪĺáĪ«áĪĽáĪªáĭİáī½":9900,"áīłáĪģáĪĪáī°áĬĽáĭį":9901,"ĠáĮĪáĪĪáĪįáī°áĬĽ":9902,"ĠáĪĪáĪĽáīĭáīĭáĪĿ":9903,"ĠáĪ´áĪ«":9904,"áīĢáĭįáĪĿ":9905,"ĠáĮİáĪįáĪĽ":9906,"Ġáĭ«áĭįáīĥáĪī":9907,"áĭ¶áĪļáĬĴáĭ¨áĪĿ":9908,"Ġáĭ¨áĭµáĪŃáĪ»":9909,"áĭ³áĮįáĪĿ":9910,"ĠáīłáĪĺáĮĪáĬķáĭĺáī¥":9911,"áī¢áĬĲáīµ":9912,"áĪĻáĪŃáīµ":9913,"ĠáīłáĪļáĪĬáĭ®áĬķ":9914,"ĠáįĢáĮĭáĭ¬":9915,"Ġáĭ°áĪŃáĮį":9916,"ĠáĪĿáĭµáĪŃáĬķ":9917,"áĭ°áĬķáīµ":9918,"áĭ³áĪ©":9919,"ĠáĭŃáĪ°áĮ¥":9920,"áĭĭáĭĪáīħ":9921,"Ġáĭ¨áī°áĬĲáĪ±":9922,"Ġáīłáĭ¨áĭķáĪĪáī±":9923,"áĪĻáĭ«áĭİáī½":9924,"ĠáĪĪáĪĽáĪµáįĪáĬķ":9925,"ĠáīłáĪĮáĪĭáĭį":9926,"ĠáīµáĪĿáĪħáĪŃáīµáĬĵ":9927,"ĠáĪĿáĪģáĪŃ":9928,"ĠáĪĿáĪįáĬŃáī¶áī½":9929,"ĠáĮĪáĮłáĪŃ":9930,"ĠáĪĺáĭĿáĪĻ":9931,"Ġáĭ¨áĮİáĭ°áĪĪáĭį":9932,"ĠáĬ¥áĬĵáĬķáī°áĪĿ":9933,"Ġáĭ¨áī°áīĢáĪĺáĮłáĭį":9934,"ĠáĬłáĭŃáĪģáĭ³áĭįáĭ«áĬķ":9935,"áį²áį":9936,"áīłáįį":9937,"ĠáĬ¨áīģ":9938,"áĪ©áīµáĬķ":9939,"ĠáĬłáĪĿáĪµáī°áĬĽ":9940,"Ġáī´áĬŃáĬĴáĬŃ":9941,"ĠáĬķáĮīáĪł":9942,"2016":9943,"áīµáĪĿáĪħáĪŃáīµáĬĵ":9944,"ĠáĬ¥áĪ³áī¤":9945,"Ġáĭ¨áĪļáĪĨáĬĲáĭįáĬķ":9946,"Ġáīłáĭļáĭ«áĬķ":9947,"áĬ¨áĬłáĬķáĭµ":9948,"áĭ¨áĬĿ":9949,"ĠáĪ²áĪ°áĪ«":9950,"ĠáīĢáĪįáī¥":9951,"Ġáĭ©áĬĵáĭŃáīµáĭµ":9952,"áī¥áĪ«áĭįáĭ«áĬķ":9953,"31":9954,"ĠáĪĪáĬłáĪĿáĪµáīµ":9955,"Ġáĭ¨áĪļáĬĲáĮĪáĪŃ":9956,"ĠáĪ²áĪĦáĭ±":9957,"ĠáĪĪáĪĽáĭĺáĮĭáĮĢáīµ":9958,"áĪ²áĬķ":9959,"Ġáī´áĬŃ":9960,"áĪµáĪĭáĪ´":9961,"áĭµáĬ©":9962,"ĠáĪĪáĪģáĪĪáī°áĬĽ":9963,"áĭ³áĪ½":9964,"áĬłáĭį":9965,"áīħáĪĿáīµ":9966,"áĪ°áĭįáĭ¨áĭį":9967,"ĠáĮ½áĬĳ":9968,"ĠáĮ¨áĭĭáī³áĭį":9969,"ĠáĮįáĭµáī¡":9970,"ĠáīłáĪ¶áĪĽáĪĬáĭ«":9971,"ĠáĬĲáĮĪáĪ¥áīµ":9972,"Ġáī³áĪĽáĬĿáĬĲáīµ":9973,"áĬ®áĪļáĪ½áĬĳ":9974,"ĠáĬ¨áĮī":9975,"ĠáĭŃáĬ¨áī¥":9976,"ĠáĭįáĪ¨áĭµ":9977,"áĬķáĮįáĮįáĪŃ":9978,"ĠáĪĪáĪĺáĭį":9979,"ĠáĬ®áĪĿ":9980,"Ġáĭ¨áĬ¥áĭµáĮĪáīµ":9981,"ĠáĪ«áĪ´áĬķ":9982,"áĪĭáĪĪáįĪáĭį":9983,"Ġáī¢áĪ®áĭį":9984,"Ġáĭ¨áĪĢáĮĪáĪ«áī½áĬķ":9985,"ĠáīłáĭĺáĪŃ":9986,"ĠáīłáĪļáī£áĪį":9987,"Ġáĭ«áĪµáī³áĭĪ":9988,"Ġáĭ°áĪ¨áĮĥáĭİáī½":9989,"áĮįáĬĵáĪĪáĪģ":9990,"ĠáĬ¥áĬ©áĪįáĬĲáīµ":9991,"Ġáīµáī½áīµ":9992,"Ġáĭ¨áīłáĬ©áĪĭáī¸áĭįáĬķ":9993,"áĮĪáĪ°":9994,"Ġáĭ¨áĪĽáĭ«áĪµ":9995,"Ġáĭ«áĪµáīĢáĪĿ":9996,"ĠáīłáĪµáįĸáĪŃáī±":9997,"ĠáĬłáĪīáĬĿ":9998,"Ġáĭ¨áĬ¢áįĮáĭ´áĪª":9999,"ĠáĪ²áĭ«áĮĭáĮ¥":10000,"áĮłáĪ«áĮłáĪŃ":10001,"áĪ·áī¸áĭį":10002,"ĠáįĭáĬķáī³":10003,"ĠáĮ©áĬ¸áīµ":10004,"ĠáĪ²áīªáĪį":10005,"áĪµáī°áĪĭáĪį":10006,"ĠáįĪáĪ¨áĪµ":10007,"Ġáĭ¨áĬłáĪģáĬĳ":10008,"áī£áĪĪáĭįáĬķ":10009,"ĠáĪĽáĪħáĮ¸áĬķ":10010,"áĪĺáĪ°áĪį":10011,"áī³áī±":10012,"ĠáĪĪáĪĮáĪĭáĭį":10013,"áĭĿáĭ«":10014,"áĭķáī¢áĭ«":10015,"áĪĪáĪģáĪĿ":10016,"áĪįáĮ£áĬĶ":10017,"ĠáĬ¥áĬķáĭ°áĪĨáĬĲáī½":10018,"ĠáĬłáĪĽáĪŃáĬĽ":10019,"ĠáĪĺáĭĽáĪĻáĪŃáīµ":10020,"Ġáĭ¨áĬĽ":10021,"áĬĵáĮłáĪį":10022,"ĠáĪĺáĪ³áī°áįį":10023,"áĬŃáĪĮ":10024,"ĠáĬ¥áĬķáĭ°áī°áĪ°":10025,"ĠáĬ¥áĬķáĭ²áĭįáĪį":10026,"áĭ°áĪŃáĮĭáī¸áĭį":10027,"ĠáĬ¥áĬĲáĪĽáĬķ":10028,"Ġáī°áĬĲáĪ³áĪ½áĬĲáīµ":10029,"áĪ«áĬķáĬķ":10030,"Ġáĭ¨áĪļáī£áĪīáīµ":10031,"áĮĭáī½áĪģ":10032,"ĠáĪ¥áĪ«áĬķ":10033,"áĪĿáĪŃáĮ«áĭį":10034,"áĭ¨áĬłáĬķáĭµ":10035,"300":10036,"áĭ«áĭİáī¹":10037,"áīĢáĮ¦áī½":10038,"ĠáĬ¥áĬķáĭ²áĬĸáĪ©":10039,"áīģáīłáīµ":10040,"áĪªáĭ«áī¸áĭįáĬķ":10041,"áĪ¸áĪ½":10042,"áĮĢáĪĿáĪ¨áĭį":10043,"ĠáĬłáĮłáĪ«":10044,"áīłáĮħ":10045,"Ġáĭ¨áī°áĮĪáĪĪ":10046,"ĠáĬ¥áĬķáĭ²áĭ°áĪŃáĪµ":10047,"áĭ¶áī¹áĬķ":10048,"ĠáĮłáįįáī¶":10049,"ĠáĬłáī£áĪĭáīµáĬķ":10050,"Ġ75":10051,"Ġáĭ¨áĪĢáī¥áīµ":10052,"ĠáīłáĪłáĪ«":10053,"áĪ©áīłáīµ":10054,"ĠáĬŃáī¡áĪŃ":10055,"ĠáĮ¤áĬķáĬĲáīµ":10056,"ĠáĬłáĪµáī³áĭįáĪ°áĭĭáĪį":10057,"Ġáī»áĭŃ":10058,"áĬķáīĢáĪ³áīĢáĪ°":10059,"áĪ¸áĬķáįį":10060,"Ġáīłáī¦áī³áĭį":10061,"ĠáĮ¢áĪŀáī´áĭİáĪµ":10062,"ĠáĬ¥áĬķáīłáĪį":10063,"ĠáĭŃáī£áĪį":10064,"Ġáĭ¨áī°áĬ¨áĪĪ":10065,"Ġáĭ¨áī°áĪ¨áĮĭáĮĪáĮł":10066,"ĠáįįáĪ«áĬķ":10067,"áĪĿáĪħáĪ«áĬķ":10068,"2000":10069,"ĠáīłáĪĮáĪĪáīłáīµ":10070,"ĠáĪ°áĬĲáĭ¶áī½":10071,"ĠáĪ°áĪĭáĪĿáĬķ":10072,"Ġáĭ¨áįĸáĪĬáĪµ":10073,"ĠáĪĲáĬªáĪĿ":10074,"ĠáĪĺáĭ«áĭĻ":10075,"áĭ³áĭ²áĪµ":10076,"ĠáĪĪáĪĽáĪµáĮłáīłáīħ":10077,"ĠáĪĤáĪ³áī¥":10078,"ĠáĪ¸áĪĽ":10079,"ĠáĬ¨áĪĿáĬķáĪĿ":10080,"Ġáī°áīĢáĪĿáĮłáĭį":10081,"Ġáĭ¨áĬłáĪĺáĪĪáĬ«áĬ¨áīµ":10082,"Ġáī°áįĪáĮ¥áĪ¯áĪį":10083,"ĠáĬ®áĪļáĪ½áĬĲáĪŃ":10084,"áĪĿáĮįáī£áĪŃ":10085,"ĠáĪĪáįį":10086,"ĠáīłáĪĺáīħáĪ¨":10087,"ĠáĮ¥áĪ°áīµ":10088,"ĠáĬ«áĮĪáĬĺ":10089,"ĠáĬłáĮĪáĪ©":10090,"ĠáĬłáīłáī£áĬķ":10091,"Ġáĭ¨áĬĲáīłáĪ¨áī½áĭį":10092,"Ġáĭ¨áī´áĪĮáīªáĭ¥áĬķ":10093,"Ġáī°áĪŃáįİ":10094,"áĪĪáĪļ":10095,"áĪĺáĭ±":10096,"ĠáĬ¥áĬķáĭ²áĪĺ":10097,"Ġáĭ¨áĪļáĭ«áĪĺáĪĪáĬŃáīµ":10098,"ĠáĬ¨áĬłáĭįáĪ®áįĵ":10099,"áīłáĬłáĮĪáĪŃ":10100,"ĠáīłáĭĵáĪīáĬķ":10101,"Ġáī°áĭ°áĪŃáĮĲ":10102,"áĪµáī°áĬĵáĮįáĭµ":10103,"ĠáĪĺáĭ°áĪĿáĭ°áĪļáĭ«":10104,"ĠáĬ¥áĮģ":10105,"áĮįáī¡":10106,"ĠáĬłáĬ¨áĪ«":10107,"áĪµáī°áĪ®áī½":10108,"Ġáī°áĬ¨áĪ³":10109,"ĠáĪĺáĮįáĪĪáĮ½":10110,"Ġáī°áĬ¨áīµáĪĪáĭį":10111,"áĪįáĪĽáī±":10112,"Ġáī°áįĭáĪ°áĪµ":10113,"Ġáī°áĭĭáĬĵáĭŃ":10114,"Ġáĭ¨áĬłáĪ°áĪ«áĪŃ":10115,"ĠáĮīáĪĿáĪ©áĬŃ":10116,"áĬĵáĬĵ":10117,"ĠáĪĺáĭĪ":10118,"Ġáī°áĮĵ":10119,"áĬ¨áĭįáĬķ":10120,"Ġáĭ¨áĪļáĬĸáĪ©áīµ":10121,"áĭĭáĪĪ":10122,"áĪģáĪĭáī½áĬķáĪĿ":10123,"ĠáĬ¥áĭ¨áĬĲ":10124,"ĠáĬłáĪĪáī½áĭį":10125,"ĠáĬ¥áĭ«áĪįáĬ©":10126,"áĪĪáĭ«áĭŃ":10127,"ĠáĬ®áĪļáĪ½áĬĳ":10128,"ĠáįįáĪŃáĪĥáīµ":10129,"ĠáĮįáĮŃáī¶áī½":10130,"Ġáĭ¨áĪĤ":10131,"ĠáĪĽáĪŀ":10132,"ĠáĬłáĪµáī¥":10133,"ĠáĬłáĮĪáĪŃáĬķ":10134,"ĠáĪ¨áĭ³":10135,"ĠáĬłáĪĺáĪįáĬŃáī°áĭį":10136,"ĠáĪĺáĮ¨áĪ¨áĪ»áĭį":10137,"ĠáĭµáĬŃáĪĺáīµ":10138,"áĬĵáĮĪáĭµ":10139,"áĭ«áīµáĪŃ":10140,"ĠáĬ¨áĬĭáĪĭ":10141,"Ġáī°áįĪáĪ«":10142,"áĪ³áĬĵ":10143,"áĬłáĮĪáĪ«áī½áĬķ":10144,"áĭĺáīł":10145,"ĠáįĪáĪª":10146,"áĪłáĪĽ":10147,"ĠáĬŃáįįáįįáĪį":10148,"ĠáĬĲáĮĪáĪ¨":10149,"ĠáĪĽáĪ³áĬ«áīµ":10150,"ĠáĪĪáĬ¥áĬĲáĪ±":10151,"áīłáĪĭáĪ½":10152,"Ġáĭ¨áĬłáĬ«áī£áī¢áĭįáĬķ":10153,"ĠáĪĪáĭķ":10154,"áĮłáī±":10155,"áīłáĪŃáīµ":10156,"ĠáĪĮáĪĬ":10157,"Ġáĭ«áĪµáĪĺáĭĺáĮĪáīł":10158,"áĬłáĬķáĭ²áīµ":10159,"Ġáĭ¨áĬ¢áīµáĭ®":10160,"ĠáīłáīħáĮ¡":10161,"us":10162,"áĪĿáĪ³áĪĮ":10163,"ĠáĬ¥áĪ´":10164,"áĪĺáĪ³áĪ³":10165,"áī¥áīĥ":10166,"áī¥áĪĥáĪį":10167,"áĪ°áĮ¡áīµ":10168,"ĠáĭįáĪ¸áīµ":10169,"áĭ©áī±":10170,"Ġáĭ¨áĪ°áĭįáĬķ":10171,"áĭĪáĪŃáĬŃ":10172,"ĠáĭĪáĪĭáĮħ":10173,"Ġn":10174,"áĪĴ":10175,"ĠáĬłáĪµáĬ¨áīµ":10176,"áĪ»áĭ¬":10177,"áī¤áī³áī¸áĭį":10178,"ĠáĬ¥áĪµáĬ¨áĪĺ":10179,"áĭĺáĪŃáĪĭáĬķáĭµ":10180,"áĮįáĮ¥áĪĿ":10181,"ĠáĪĺáĪ¥áįĪáĪŃ":10182,"ĠáīłáīħáĬķáĮħáīµ":10183,"ĠáĬłáĬ³áĬĭáĬķ":10184,"ig":10185,"ra":10186,"ĠáĬłáĬ©":10187,"ĠáĬ¨áįĬáīµ":10188,"Ġáĭ¨áĪļáįĪáĪĪáĮĪáĭįáĬķ":10189,"áįĪáĪĭáĪĪ":10190,"Ġáīłáī°áĪ°áĮłáĭį":10191,"Ġáī³áĭ³áĪļ":10192,"ĠáĬ¥áĬĵáī´":10193,"áĮĨáī½áĬķ":10194,"ĠáĬŃáĪįáĪī":10195,"Ġáĭ¨áĪĪáī¥áĬķáĪĿ":10196,"ĠáĬ¤áĪŃáĪļáĭ«áĪµ":10197,"et":10198,"áįģáĬķ":10199,"ĠáĪĺáĮ¸":10200,"ĠáīłáĪĺáĮłáīłáīħ":10201,"áĬłáĪ«":10202,"ĠáīłáĬłáĮĪáĪªáī·":10203,"áĮ»áĪĪáī½":10204,"áĬ¬áĪļ":10205,"Ġáī¥áĪĶáĪ¨áĪ°áī¥":10206,"Ġ150":10207,"Ġáī°áĬ«áĪĤáĭ·áĪį":10208,"áĭ¨áįĮáĭ´áĪ«áĪį":10209,"Ġáĭ«áĪ¨áĮĭáĮį":10210,"ĠáīµáĪĭ":10211,"áĪ°áī¥áĭĵáĭĬ":10212,"áĮłáĬĵáĬŃáĪŃ":10213,"Ġáĭ«áĪĪáĭįáĬĵ":10214,"ĠáĮ¥áīħáĪŀáī½":10215,"Ġáī°áĪŀ":10216,"ĠáĭĪáĪĪáĭµ":10217,"áĭĬáĬĲáīµ":10218,"ĠáĪĪáĪĺáĪĽáĪŃ":10219,"ĠáĬ¥áĬķáĭ°áĪļáīĢáĮ¥áĪį":10220,"ĠáĬłáīĢáī£áīłáĪį":10221,"ĠáĭĪáĭŃáĬķ":10222,"Ġáĭĺáĭ´áĭİáī½":10223,"áĮİáī¥áĬĺáīµ":10224,"Ġáĭ¨áĮĢ":10225,"Ġáĭ¨áī°áĭ«áĭĻ":10226,"áĭĺáĮĪ":10227,"áĪ½áĭį":10228,"áĮĨáĪ®":10229,"Ġáī°áĬĵáĮįáĪ«":10230,"Ġáĭ¨áĪĿáīµáī½áĪĪáĭį":10231,"ĠáĪĿáĪ¥áĪ«áī½":10232,"áįķáĪ®áĮĢáĬŃ":10233,"ĠáĬłáīłáĪŃáĬŃ":10234,"ĠáĪ²áĪļáĬķáī¶":10235,"ĠáĬ¥áĭ«áĪĪáī½":10236,"Ġáīłáĭ¨áī¦áī³áĭį":10237,"Ġáī°áĮłáīħáĪ·áĪį":10238,"ĠáĮłáĭ¨áīĢ":10239,"ĠáĪµáĪĻáĬĿáĪĽ":10240,"ĠáĪĿáĮįáī¦áī½":10241,"Ġáĭ¨áĪĺáįįáīµáĪĶ":10242,"Ġáĭ¨áĭ±áĪŃ":10243,"ĠáĪĬáĭ°áĪ¨áĮį":10244,"áī¦áĪŃ":10245,"áĪĦáĭ°áĭį":10246,"Ġáĭ¨áīµáĮįáĪį":10247,"áĭ¨áĬłáĮĪáĪŃ":10248,"ĠáĭĪáĪ¨áĪ«":10249,"áĭ³áĪ¨áĮī":10250,"ĠáĮłáĪ¨áĮ´áĭĽ":10251,"ĠáīłáĬ¨áįĬáĪį":10252,"ĠáĪĺáĪ°áī¥áĪ°áī¥":10253,"ĠáĪĪáĭĵáĪĺáī³áīµ":10254,"áĭ¨áĭ°":10255,"áĭ¨áĬŃ":10256,"ĠáĪĽáĭĭáĪį":10257,"ĠáĪĽáĪįáĪĽáīµ":10258,"áĬ¥áĭļáĭ«":10259,"ĠáīłáĪĺáĭį":10260,"ĠáĪĪáĪĺáĪĿáĪ«áīµ":10261,"ĠáĪĽáĪħáīłáĪ¨":10262,"ĠáĪĪáĪĽáĪµáĮĪáī£áīµ":10263,"ĠáĬ¤áĮĢáĬķáĪ²áĭį":10264,"ĠáĭµáĬŃáĪĺ":10265,"Ġáī°áĬĲáĮįáĪ¯áĪį":10266,"ĠáĬ¨áĮįáī¥áįħ":10267,"áīĢáīłáīµ":10268,"Ġáĭ¨áī°áĪĺáĪĪáĬ¨áī°":10269,"áĭĵáī°":10270,"áĪĪáĪĿáĭ¶":10271,"áįīáīµáĬķ":10272,"ĠáīħáĮ½":10273,"áī³áī¸áĭįáĬķáĪĿ":10274,"Ġáĭ©áĬĴ":10275,"ĠáĬłáĬŃáĪĪáĭĭáĪį":10276,"ĠáīłáĬŃáī¥áĪŃ":10277,"ĠáĬłáĪ¥áĪ«":10278,"ĠáĭŃáĭĪáĪ°":10279,"ĠáĬ¤áĬķ":10280,"Ġáĭ¨áĪļáĭ«áĪµáįĪáĪįáĮĪáĭįáĬķ":10281,"Ġáĭ¶áĬĵáĪįáĭµ":10282,"ĠáĪĺáĭµáĪ¨áĪ±áĬķ":10283,"ĠáĬ¨áĬłáĪį":10284,"áĬĸáĪ«áī¸áĭįáĪĿ":10285,"ĠáīłáīĢáĮ£áĭŃáĪĿ":10286,"Ġáĭ°áĪŀáĭĿ":10287,"ĠáĪĺáīĨáĪĿ":10288,"áĬ¨áĪģáĪĪáīµ":10289,"áīĢáĪ±":10290,"áĭ®áī¹áĬķ":10291,"ĠáīĢáĬķáĭµ":10292,"ĠáĪĪáĪĽáĭĭáĪį":10293,"Ġáĭ¨áĪļáĭ«áĭĪ":10294,"ĠáĪĽáĪµáī°áĬĵáĮĪáĭµ":10295,"áĭ¨áĪĺáĮ½áĪĲáįį":10296,"ĠáĮīáī£áĬ¤áĭį":10297,"áįįáĪ¬áĪĿ":10298,"Ġáĭ¨áī°áīĥáĭįáĪŀ":10299,"ĠáĪĺáīħáĭ°áĪ±":10300,"ĠáīĨáĬķáĮĨ":10301,"Ġáī°áĭĺáĮį":10302,"áĪ°áĬĿ":10303,"áįĪáĪŃáĪµ":10304,"ĠáĬ¥áĭ¨áĪłáĪ©":10305,"ĠáĪĪáĬłáī¥áĬĲáīµ":10306,"ĠáĪĦáĮĦ":10307,"ĠáīµáĬķáĪ£áĬ¤":10308,"ĠáĪķáĭĿáī¥áĬķ":10309,"Ġáĭ¨áĭ°áĪħáĬķáĬĲáīµ":10310,"ĠáīłáīłáĪĭáĭŃ":10311,"ĠáĪĪáĪ¨":10312,"Ġáĭ¨áĪļáĭĪáĮ£áĭį":10313,"áĪĻáīµáĬķ":10314,"ĠáĬłáĭŃáĬķ":10315,"áĮĥáī½áĬķ":10316,"ĠáĬłáĪĺáĪĪ":10317,"Ġ65":10318,"ĠáĪ¸áĪĪáīĨ":10319,"Ġáī°áĪ°áĬĵ":10320,"ĠáĪµáĭ°áī°áĬŀáī½áĬķ":10321,"Ġáī³áĪªáĬ®áī½":10322,"Ġáĭ¨áĬĲáįĥáĬĲáīµ":10323,"áĭ¨áĪĲ":10324,"ĠáĭµáĪĥ":10325,"ĠáĬ«áĭ°áĪ¨":10326,"ĠáĬłáĪįáĮĪáī£":10327,"ĠáĬ¨áī°áĮĢáĪĺáĪ¨":10328,"Ġáĭ¨áĬ¥áĬĲ":10329,"áī³áĭįáīħ":10330,"Ġáĭ¨áĭįáĮª":10331,"Ġáĭ«áĪ³áĭ¨áĭį":10332,"ĠáĬłáĮĪáĪªáī·":10333,"ĠáĬłáĭ«áĭįáīģáĪĿ":10334,"ĠáĬ¥áĪįáī£áīµ":10335,"Ġáĭ³áĭŃáĪ¬áĬŃáī¶áĪ¬áīµ":10336,"áĪµáĪĲ":10337,"ĠáĪĺáī»áĪī":10338,"áĮ¥áĪ«áīµ":10339,"Ġáĭ¨áĪļáīĢáĪŃ":10340,"ĠáĪĽáīĨ":10341,"Ġáĭ¨áī°áĭ°áĪ¨áĮī":10342,"áĪģáĬĳ":10343,"ĠáīłáĪĺáĬ¨áĪĭáĬ¨áĪį":10344,"áĪªáĭ«áĪį":10345,"ĠáĬłáĮĪáĪ®áī½áĬķ":10346,"ĠáĬ¥áĬķáĭ°áī°áĮłáīłáīĢ":10347,"ĠáīµáĬķáī³áĬĶ":10348,"áĪ«áī¸áĭĭáĪį":10349,"áįĭáįĭ":10350,"ĠáĭµáįįáĪ¨áīµ":10351,"ĠáīłáĪĽáĪĿáĪ¨áīµ":10352,"Ġáī¤áī´":10353,"ĠáĬĥáĭ«áĪį":10354,"áįĴáī³áĪį":10355,"ĠáĪĺáĭįáĪ°":10356,"ĠáīµáĪįáīģáĬķ":10357,"áĪĿáįĴáĭ©áī°áĪŃ":10358,"áĪªáĭ«áĬĵ":10359,"Ġáĭ¨áĪĽáĭŃáī½áĪī":10360,"áĬĹáĬķ":10361,"ĠáĪĽáĪ³áĪ°áī¢áĭ«":10362,"Ġáĭ¨áī°áĬĲáĪ³áĭį":10363,"ĠáĬłáĪĺáĪĭáĬ«áī½":10364,"áĭ«áĭİáī½":10365,"áĬĽáĪĪáĪģ":10366,"ĠáĭĺáįĪ":10367,"áīªáĭµ":10368,"áĭĺáĪĺáĬĳ":10369,"Ġáĭ¨áĭĪáĭ°áįĬáīµ":10370,"400":10371,"áĮįáī¦":10372,"ĠáĬ¨áįĢ":10373,"ĠáĭŃáĪ°áĪ«":10374,"Ġáĭ¨áĪļáĮłáīłáīĢáĭį":10375,"áĭĪáĭ²áĭ«áĭį":10376,"áįĪáįħ":10377,"ĠáĭµáĪ¬áĭ³áĭĭ":10378,"áĮĥáĪį":10379,"ĠáĬ¥áĭ¨áĪĨáĬĳ":10380,"áī¤áī´":10381,"ĠáĬłáĪįáĬĲáīłáĪ©":10382,"Ġáī½áĮįáĪŃáĬķ":10383,"ĠáĪµáĪŃáĬł":10384,"áĬłáīµáĪĮ":10385,"ĠáĬłáīĭáĪ«áĮŃ":10386,"áĬŃáĪ²áĬ®":10387,"ĠáīģáĪŃáĮłáĬĽ":10388,"ĠáīµáĬ¥áĭĽ":10389,"ĠáĬłáĭµáĪŃáĮĪáĬĵáĪį":10390,"ĠáĬłáī¡áĬĲ":10391,"Ġáĭ¨áīłáĪŃáĬ«áī³":10392,"áĪµáī²áĬŃáĪµ":10393,"ĠáīłáĮł":10394,"ĠáĪĺáĪŃáĪĿ":10395,"ĠáĭŃáĮ«áĭĪ":10396,"áĬĽáĬĵ":10397,"ĠáĬ¥áĬķáĭ°áĪĿáĬĵ":10398,"Ġáĭ¨áĬłáīµ":10399,"áįİáī¹":10400,"Ġáĭ¨áĬłáĪŃáĪ¶":10401,"Ġáĭ¨áĪ´áī¶áī½áĬķ":10402,"ĠáĬŃáĪµáī°áī¶áī½":10403,"ĠáĪ²áĬĲáįĥáįĢáĪŃ":10404,"Ġáĭ¨áĭ°áĪŃáĮį":10405,"áĭ¨áĬ¥áĬĽ":10406,"áĬłáĭµ":10407,"Ġáĭ¨áĪĽáĬķáĬĲáīµ":10408,"ĠáĬ¨áĬłáī£":10409,"ĠáĬłáīħáĪĽáī¸áĭį":10410,"áĮłáįĭáĪĿ":10411,"áĭĪáĪĪáĭ±":10412,"Ġáĭ°áĪ¨áīħ":10413,"em":10414,"áĬ¨áĬĲáĭļáĪħ":10415,"áĬ«áĬ«":10416,"ĠáĪ²áĪįáĪĿ":10417,"áĭ³áĪļáĬĲáīµ":10418,"ĠáĬ¨áĪ«áĪ±":10419,"Ġáīº":10420,"áī°áĪ©":10421,"ĠáĪĺáĭ²áĬĵ":10422,"áĬ¨áĪ¨áĭį":10423,"áĭ¨áįĸáĪĪáī²áĬ«":10424,"áī²áĬķáĮį":10425,"áĬ®áī¹":10426,"áī³áī¸áĭįáĬķáĬĵ":10427,"2010":10428,"Ġáĭ¨áī°áĮ£áĪĪ":10429,"áĪĪáĬŀáī½":10430,"áīłáĪ¥":10431,"áĬ©áĬĵ":10432,"áĬĴáĪĽ":10433,"ĠáĪĥáĮĪáĪ«áīµ":10434,"ĠáĬłáĬ«áī£áī¢áĭįáĬķ":10435,"Ġáĭ¨áīłáĭĽ":10436,"Ġáī°áĮłáĬĵáīĭáĪį":10437,"ĠáĪĥáĪĭáįĬáĬĲáīµ":10438,"áĭĪáĬķáĭ¶áī½":10439,"áĭ«áĪ³":10440,"ĠáĪĺáĮłáĪĪáĭ«":10441,"ĠáĭĺáĪ¨":10442,"ĠáĪĬáĪ°áĮ¥":10443,"ĠáĬłáĪĪáĪĺáĪµ":10444,"áĪ£áĪ¥":10445,"ĠáĬ¥áĬĲáĪŃáĪ±":10446,"ĠáĬłáĪµáī¸áĬ³áĭŃ":10447,"áĬ¨áĬķáī±":10448,"Ġáī¥áī¸áĬĽáĭį":10449,"ĠáĭįáĪµáĬķáĬĲáīµ":10450,"ĠáįĮáĭ´áĪ¬áĪ½áĬĸáī½":10451,"Ġis":10452,"áĪŃáĭĵáīµ":10453,"áĪµáĪĻ":10454,"ĠáĬ¥áĮ©":10455,"áĪĺáĬĶ":10456,"áīłáĮī":10457,"ĠáĪµáĪĽ":10458,"ĠáĬ¥áĬķáĭ²áĪ³áī°áįī":10459,"áĮ¨áĪĪáĪĽ":10460,"ĠáĪĿáĬķáĬĽ":10461,"áįĥáįį":10462,"ĠáĪĢáĭŃáĪį":10463,"Ġáĭ¨áįĬáĪįáĪĿ":10464,"Ġáī¬":10465,"Ġáīłáĭ±":10466,"Ġáī°áĭĵ":10467,"Ġáĭ¨áĪļáĮłáīĢáĪĻ":10468,"áĭ®áī¥":10469,"áĪĶáĭµ":10470,"ĠáĬłáī¥áĭĽáĬĽáĭİáī¹":10471,"Ġáĭ¨áĮįáĬķáī¦áīµ":10472,"Ġáĭ¨áī°áįĪáĮłáĪ¨áĭįáĬķ":10473,"áĪµáīµáĪ«áĪĬáĭ«":10474,"ĠáĬŃáĪĿáī½áīµ":10475,"áĮ´áĮ¥áĪ®áĪµ":10476,"áĪĺáĪ³áĪ³áĭŃáĪĿ":10477,"ĠáĪĪáĮįáĪį":10478,"ĠáīłáĪļáĭ°áĪ¨áĮį":10479,"ĠáĬ¨áĪĺáĬ«":10480,"ĠáĬ¨áįįáī°áĬĽáĭįáĬķ":10481,"ĠáĭįáĮ¤áī³áĪĽáĬĲáīµ":10482,"ĠáīłáĪĺáĪµáĬĸ":10483,"ĠáĬ¥áĭ«áĪ³áĭ¨":10484,"ĠáĬłáĭįáī¶áī¡":10485,"ĠáĪĽáĪµáī°áĬ«áĬ¨áĪį":10486,"ur":10487,"áīµáĪµ":10488,"áīµáĪ¨":10489,"Ġáīłáĭ°áĪ¨áĮĥ":10490,"ĠáĪĺáĪ¨áī¥":10491,"ĠáĬ¨áĭĽ":10492,"Ġáĭ«áĭĪáĮ£áĭį":10493,"áįįáĪĭ":10494,"áĭ®áĪ´áįį":10495,"ĠáĪĺáĪįáĬłáĬŃ":10496,"áĪķáīµáĬĵ":10497,"ĠáĪ«áĪ´":10498,"ĠáĪĽáĪµáĮĪáī£áīµ":10499,"áĪĺáĮ£áĮłáĬĲ":10500,"ĠáĮ¥áĭ«áīĦáĭį":10501,"áĪŀáĬŃáĪ©":10502,"ĠáīłáīģáĪŃ":10503,"Ġáī°áīĭáīģáĪŀ":10504,"ĠáĬłáī¤áīµ":10505,"áī£áī½":10506,"áĭ¨áīµáĪĿáĪħáĪŃáīµ":10507,"áĭĵáĪī":10508,"ĠáĬłáĪĿáĬĸ":10509,"ĠáĪĪáĪĽáĪµáīĢáĪ¨áīµ":10510,"ĠáĭĪáĬķáĭµáĪĻ":10511,"áīłáĪīáīµ":10512,"ĠáĪµáįĸáĪŃáī³áĭĬ":10513,"ĠáīµáĪĿáĪħáĪŃáī¶áī½":10514,"1997":10515,"áĪŃáĭ³":10516,"ĠáĬ¥áĭŃáī³":10517,"Ġáĭ¨áĪļáĪĦáĭ±":10518,"áĭĿáīħ":10519,"Ġáĭ¨áĪĺáĪĿ":10520,"ĠáįįáĪ³áĪ½":10521,"Ġáĭ¨áĪµáĪįáĮłáĬĵ":10522,"ĠáĭµáĪŃáĮħáī¶áī½áĬĵ":10523,"áīĭáīĭáĪĺ":10524,"ĠáĪĪáĪ°áĭİáī½":10525,"ĠáĬłáĪĺáĪ°áĮįáĬĵáĪĪáĪģ":10526,"Ġáĭ¨áįĨáī³":10527,"ĠáĬ¨áĪ°áĪĽáĭŃ":10528,"ĠáĪĪáĪĥ":10529,"Ġáĭ°áįĭ":10530,"ĠáĬłáīĢáī£áĭŃ":10531,"ĠáĪĪáĬłáĭ°áĮĭ":10532,"ĠáĬ¥áĭįáĬĲáīµáĬķ":10533,"ĠáĮ£áĪĬáĭ«áĬķ":10534,"ĠáĪħáī¥áĪ¨áī°áĪ°áī¡áĬķ":10535,"ĠáĬłáī¥áĭ±áĪį":10536,"áĪļáĬĴáĪµáīµáĪ©":10537,"áĪµáī±áĬķ":10538,"áīłáĭŀáĬĳ":10539,"áĬłáī¸áĭįáĬķ":10540,"ĠáĬ¥áĬķáĭ²áĪłáĪ©":10541,"ĠáĬłáĪµáī£áĪĪáĪģ":10542,"áī¢áĪ®áĭį":10543,"ĠáĬłáĪįáįĪáĪįáĮįáĪĿ":10544,"ĠáĭŃáīĢáĪ«áĪį":10545,"ĠáĬłáĮłáīĥáīĢ":10546,"áį©":10547,"áī³áīµáĬĵ":10548,"áī³áīµáĪĿ":10549,"áī£áĬķáĭµ":10550,"áĪħáĪ³áĪµ":10551,"ĠáĬ¨áĭķ":10552,"áĬŃáĪ½áĬķ":10553,"ĠáĪĪáĪŀáīµ":10554,"áįįáīµáĬķ":10555,"ĠáĪĽáĪŁáĪĭáīµ":10556,"ĠáĬ¥áĬķáĭ°áĬĲáīłáĪ¨áĭį":10557,"ĠáīĢáĪįáĭµ":10558,"áĮįáī£áī£":10559,"áĪĺáĬķáĮ¨áīµ":10560,"ĠáĮİáĪŃáįį":10561,"ĠáĪ¨áī¡áĭķ":10562,"ĠáĪ°áī¥áĪį":10563,"Ġáīłáī³áĪĭáīħ":10564,"ĠáīłáĬ¢áĭ¨áĪ±áĪµ":10565,"ĠáĪĺáĭįáĮ«":10566,"Ġáī¡áĭµáĬĳáĬķ":10567,"áĮĪáĪ¨áĪĿ":10568,"Ġáĭ¨áĬ®áĪļ":10569,"Ġáī£áĪĪáī¤áīµáĬĲáīµ":10570,"ĠáĪĥáĭŃáĪİáī½":10571,"Ġáīłáī³áĪĽáĬĿáĬĲáīµ":10572,"áĪ¨áī£":10573,"áĬŃáĪ«áĪį":10574,"áįįáĬĸ":10575,"Ġáī£áī¢":10576,"Ġáīłáī°áĮĪáĬĻáīłáīµ":10577,"ĠáĪ³áĪĭ":10578,"ĠáĪļáĪµáī±":10579,"Ġáī°áĪ³áīµáįĪáĭĭáĪį":10580,"ĠáĬ¥áĪ´áī¶áī½":10581,"ĠáĬ¨áī¥áīµ":10582,"áīĥáī½áĬķ":10583,"Ġáįįáīº":10584,"ĠáĬ¥áĪµáĬŃ":10585,"Ġáī¦áĪĮ":10586,"ĠáĭĽáįİáī½":10587,"áĬ¨áĬĵáĭįáĬĳ":10588,"Ġáī³áīħáĭ¶":10589,"Ġáĭ¨áĮ«":10590,"áĪįáĭŃ":10591,"áĪŃáįī":10592,"Ġáīłáī°áī£áīłáĪ©áīµ":10593,"ĠáĪļáĭ«":10594,"Ġáĭ¨áĪµáĭ°áī°áĬŀáī½":10595,"Ġáĭ¨áĭĪáĪ¨áĭ³":10596,"ĠáĬĥáĪĭáįĬáĬĲáī³áī¸áĭįáĬķ":10597,"Ġáĭ¨áĪ¶áĪĽáĪĬáĭ«":10598,"Ġáĭ¨áī°áĪĪáĭ©":10599,"áī£áĪħ":10600,"Ġáī°áĪĪáĭĭ":10601,"ĠáĪĪáī¥áī»":10602,"ĠáĭįáĪħ":10603,"ĠáĪħáĪĬáĬĵ":10604,"Ġáĭ¨áĬĲáīłáĪ«":10605,"Ġáĭ«áĪµáįĪáĪįáĮĪáĬĵáĪį":10606,"ĠáĭĭáĭŃ":10607,"áĭŃáĪĺáĬķáĭµ":10608,"ĠáĬłáĪĥ":10609,"Ġáī°áĪĽ":10610,"áĪīáĬķáĪĿ":10611,"áĮĭáī¡":10612,"ĠáĪ²áĭĪáĮ¡":10613,"Ġáī£áĪĪáĪĢáī¥áīµ":10614,"Ġáĭ°áĪ¨áĮĥáĪĿ":10615,"ĠáīħáĪŃáĮ½":10616,"ĠáĮĪáĬķáĭĺáī¡áĬķ":10617,"ĠáĬĵáĭŃáĮĦáĪªáĭ«":10618,"ĠáĮĪáī¥áĪŃ":10619,"ĠáīłáĪĽáĮįáĬĺ":10620,"Ġáĭ¨áīµáĬŀáī¹":10621,"áĭ°áĮĭáĮĪ":10622,"ĠáĬ«áĪĪáīłáīµ":10623,"Ġáĭ¨áįķáĪ¬áĪµ":10624,"ĠáĪĺáĪĢáĪĺáĭµ":10625,"ĠáĮĦáĬĶáĪ«áĪį":10626,"Ġáĭ¨áĪļáĮĪáĪįáĮ¹áīµ":10627,"ĠáĮ³áĮ³":10628,"ĠáĬ¥áįİ":10629,"ĠáĪµáĪĻáĬķ":10630,"Ġáĭ¨áī°áĭĺ":10631,"ĠáĭĵáĪ£":10632,"Ġáĭ«áĪĪáĬĲáĭį":10633,"áĮ¤áĬĵáĭį":10634,"ĠáĮİáĪ¨áī¤":10635,"ĠáĬ¨áĬ¥áĪŃ":10636,"Ġáĭ«áĪ³áĭµ":10637,"ĠáĮ¨áĭĭáī³áĭİáī½áĬķ":10638,"áĬ¥áĪŃáĪ±":10639,"Ġáĭ°áĪŃáĪ°áĭĭáĪį":10640,"áĬĲáĬĽáĬĲáīµ":10641,"Ġáĭ¨áĪĺáĪ³áĪ°áĪīáīµáĬķ":10642,"ĠáīłáĮĭáĭľ":10643,"Ġáĭ¨áī°áĪ¨áĮĭáĮĭ":10644,"áĬ¢áĪķáĬłáĭ´áĮį":10645,"ĠáĬ©áĪ«áīµ":10646,"ĠáĪĽáĪħáīłáĪ«áĭĬáĬĵ":10647,"ĠáĬ¨áĪħáĭĿáī¥":10648,"áĪ¨áĬķáĪµ":10649,"Ġáī°áĮłáĪĿ":10650,"áĭ¬áĪŃ":10651,"ĠáĮİáĮĤ":10652,"Ġáī¤áī°áĬŃáĪŃáĪµáī²áĭ«áĬķ":10653,"ĠáĪĢáī¥áī³áĪĿ":10654,"ĠáĮłáī¥áīĢáĭį":10655,"Ġáĭ¨áĭµáĪŃáīħ":10656,"ĠáĪķáįĥáĬķ":10657,"ĠáĬłáĪµáī°áĭ³áĭ°áĪ®áī½":10658,"Ġáĭ¨áĪįáĪĿ":10659,"áīĢáĮ½":10660,"ĠáĪįáĮĥáī¸áĭį":10661,"ĠáĪ³áī³":10662,"áĮİáĪµ":10663,"ĠáĬķáĮ½":10664,"Ġáĭ«áĪįáī³":10665,"ĠáĬ¨áĪļáĪĺáĪĪáĬ¨áī³áī¸áĭį":10666,"ĠáĬ¥áĭįáĬĲáī±áĬķ":10667,"ĠáĪĺáĪĺáĭĿ":10668,"ĠáĬ©áī£áĬķáĭ«áĭį":10669,"ĠáĪ¥áĪŃáĭĵáīµáĬķ":10670,"Ġáī°áĪ°áĮ¥áī·áĪį":10671,"Ġáĭ¨áĪľáĭ³":10672,"Ġáĭ¨áīĭáĬķáīĭ":10673,"áī°áĪĽáĪª":10674,"ĠáĪĺáĬ©":10675,"ĠáĪĪáĪ´áī¶áī½":10676,"ĠáĪĪáĪĺáīħ":10677,"Ġáī½áĪĪáĬĵáĪį":10678,"áĬªáĪ«áĭŃ":10679,"Ġáī¥áĪĶáĪ«áīµ":10680,"ĠáĪ¶áĪĽáĪĮ":10681,"áĭŁáī¸áĭį":10682,"ĠáīłáīµáĬŃáĬŃáĪĪ":10683,"Ġáĭ¨áī°áĮłáīĢáĪ°áĭį":10684,"áĪªáī³áĬĴáĭ«":10685,"ĠáĪĺáĬªáĬĸáī½":10686,"áĪŀáĬŃáĪ«áī²áĬŃ":10687,"áĬĵáĪī":10688,"áĭĿáĬĲáĭį":10689,"ĠáĬłáĪŃáīłáĬŀáī½":10690,"Ġáĭ«áĪīáīłáīµ":10691,"áĪłáĪ«áīłáīµ":10692,"ĠáīµáĪŃáĭĴ":10693,"ĠáĮĭáĭľáĮ¦áī½":10694,"ĠáĬķáĮīáĪµ":10695,"Ġáĭ¨áĭĺáĪĭáĪĪáĪĿ":10696,"Ġáĭ¨áĪļáī³áĭ¨áĭįáĬķ":10697,"ĠáĬłáĭĽáĭįáĬķ":10698,"Ġáĭ¨áī¦áĪŃáĭµ":10699,"áįª":10700,"Ġáĭ¨áĬĳ":10701,"ĠáĪĺáĬĿáī³":10702,"Ġáĭ¨áĪļáĬĲáĪ³":10703,"áĪĻáĪī":10704,"Ġáĭ¨áĪļáĭ«áīĢáĪŃáī¡":10705,"Ġáĭ¨áĬłáįĪ":10706,"ĠáĬ¥áĬĵáĪĭáī½áĪģ":10707,"ĠáįĵáĭįáĬķáĭµ":10708,"Ġáĭ°áĪĺáīĢ":10709,"Ġáī°áĪĪáĭŃáī¶":10710,"ĠáĬłáī¢":10711,"ĠáĪĺáĬĲáĮĭáĮĪáĪŃ":10712,"ĠáĬ¨áĭĪáĭ°":10713,"ĠáĬĲáĪ½":10714,"Ġáī°áĪ°áī£":10715,"áĬŃáĪ«":10716,"áĬ¨áĭļáĪģ":10717,"ĠáĪ¥áĭķáĪį":10718,"áĮłáīħáĪĭáĪĭáĭį":10719,"ĠáĬ«áĪĪáįīáīµ":10720,"áĬ«áĪĤáĭµ":10721,"Ġáĭ°áīĤáīĥáĭİáī½":10722,"ĠáĭŃáĪ¨áĭ³áĬĵáĪį":10723,"Ġáĭ¨áĪļáĭ«áĪĺáĪĭáĬŃ":10724,"Ġáĭ¨áĪīáĪĿ":10725,"Ġáī¥áĮ¥áī¥áĮ¥":10726,"áĪĭáīĢáīħ":10727,"áī£áī½áĬķáĬķ":10728,"Ġáī°áĮĪáĭµ":10729,"áīĢáīĢ":10730,"áīĢáī±áĬķ":10731,"áĮłáī¡":10732,"ĠáĭįáĪ»":10733,"ĠáĮĪáĭ³":10734,"Ġáī³áĮ¥":10735,"ĠáĬ¥áĬĵáĪĿ":10736,"Ġáĭ²áĪŀáĬŃáĪ«áĪ²áĭ«áĭĬ":10737,"ĠáĪĽáĪį":10738,"Ġáĭ°áĪ´":10739,"áĭĽáī¸áĭįáĬķ":10740,"ĠáīłáĭĵáĭŃ":10741,"ĠáĬłáĪµáĬªáĭ«áĮģ":10742,"Ġáĭ¨áĪļáĮłáĮī":10743,"ĠáĪĺáĪŀáĬ¨áĪŃ":10744,"áī«áĭŃáĪ¨áĪ±":10745,"ĠáīłáīĭáĪļ":10746,"áĬĲáĬĲ":10747,"áīħáĪĽ":10748,"áĮłáĪħ":10749,"ĠáĪ¥áĪ«áĪĿ":10750,"Ġáĭ«áĪµáĬ¨áīµ":10751,"Ġáĭ¨áī³áĭ³áĮĬ":10752,"ĠáįĢáĮīáĪŃ":10753,"áĮĦáĬķ":10754,"ĠáįįáīħáĪŃáĬĵ":10755,"ĠáĪķáĭŃáĭĪáī³áī¸áĭįáĬķ":10756,"ĠáĭŃáĪ°áĪĽáĪį":10757,"ĠáĬŃáĪħáĪİ":10758,"Ġáĭ¨áĮĢáĪĺáĪ©":10759,"áĬĲáī´áĬķ":10760,"áĬ¥áĪŃáĪµ":10761,"ĠáīłáĪĺáĭįáĮ£áīµ":10762,"ĠáīµáĬ¨":10763,"áĪ½áĬ¨áĪ¨":10764,"ĠáĮĪáĭ°":10765,"Ġáĭ¨áĪļáĭ«áĮĪáĬĻáīµ":10766,"Ġáī¤áīµáĪĿ":10767,"ĠáīłáĬłáĬĲáĪµáī°áĬĽ":10768,"ĠáĬ¨áī°áīĢ":10769,"Ġáĭķáī¥":10770,"ĠáĪĺáĪįáĪ°áĭį":10771,"ĠáĬ¨áĪļáĪĪáĭį":10772,"áĪµáī°áĭĭáĭį":10773,"ĠáĬłáĪµáī°áĭ«áĭ¨áī¶áī½":10774,"ĠáīłáĭĪáĮ£":10775,"ĠáĪĺáĮĢáĪĺáĪ©":10776,"áĬ¨áīħáĪŃáī¥":10777,"Ġáĭ¨áĪļáĬĵáĮĪáĪ©":10778,"ĠáĪĿáĭĺáĬĵ":10779,"ĠáĪ²áĭĪ":10780,"ĠáĬ¥áĬķáĭ²áĭĪ":10781,"ĠáĬ¥áĬķáĭ°áĪļáĬĸáĪ¨áĭį":10782,"ĠáĬ¥áĪµáĬªáĭ«":10783,"ĠáĪĺáĪµáĬ®áīµ":10784,"áĬ³áĪµ":10785,"áĪłáĪ¨áī°áĭį":10786,"ĠáĬłáĭįáĮª":10787,"ĠáīłáĬłáĬķáĭ±":10788,"ĠáĪĺáĪĺáĪŃáĪĺáĪŃ":10789,"Ġáī¥áĪĦáĪ¨áĪ°áī¦áī½áĬĵ":10790,"áĬĵáī½áĬķ":10791,"áīłáĮĢ":10792,"ĠáĬ¥áĭ¨áĪĺáĮ£":10793,"ĠáīłáĬłáĭŃ":10794,"áĮįáī£áī¸áĭį":10795,"ĠáĬ¨áĪĺáĪ¬áīµ":10796,"áĪŃáĪµáī¶":10797,"Ġáĭ¨áĪĿáīµáĪĪáĭį":10798,"áĭ¨áĬłáĬ«áī£áī¢áĭį":10799,"ĠáĮħáĪĿáĪŃ":10800,"32":10801,"Ġáī°áĮĪáĬĺ":10802,"áĮ¥áĪĭ":10803,"ĠáĬłáĪµáĪŃáīµ":10804,"ĠáĬłáĮĪáĪ«áī¸áĭįáĬķ":10805,"ĠáĭĵáĪĺáī·":10806,"ĠáĭķáĭµáĮĪáīµáĬĵ":10807,"Ġáĭ«áīĢáĪŃáī£áĪį":10808,"ĠáĪĺáĬ¨":10809,"Ġáī°áīĨáĪŃ":10810,"áĪ³áĪĿ":10811,"Ġáī£áĭ°áĪ¨áĮĪ":10812,"ĠáĮ¥áĪĪáĭį":10813,"áĮĢáĪªáĭ«":10814,"ĠáĪĪáĪĽáĪµáī°áĭĭáĭĪáīħ":10815,"Ġáĭ¨áĬłáĭ°áĮĭ":10816,"ĠáĬ¥áĬķáĭ³áĪ³":10817,"Ġ47":10818,"ĠáĮĥáĬķ":10819,"ĠáīłáįĬáīµáĪĿ":10820,"Ġáī°áĪ°áĪĽáĪŃáī°áĭį":10821,"Ġáĭ«áĪĺáĪĭáĬŃ":10822,"ĠáĪĺáįĪáĮłáĪŃ":10823,"ĠáĬłáĪļ":10824,"Ġáĭ¨áĪļáĪĺáĪµáĪį":10825,"Ġáĭ«áĬ«áī°áī°":10826,"Ġáĭ¨áĪĺáĪ¸":10827,"áĭ«áĭįáīĢáĭį":10828,"ĠáĬ¨áĬłáĬķáī°":10829,"ĠáĪĺáī¥áīµáĬķ":10830,"ĠáĭŃáĪ°áĮ£":10831,"ĠáīłáĪ½áī³áĭį":10832,"ĠáįĸáĪĬáĪ¶áī½":10833,"ĠáĬ®áĪĻáĬĴáĬ¬áĪ½áĬķ":10834,"áīµáĪ¨áįį":10835,"Ġáĭ¨áĮłáĭ¨":10836,"ĠáīłáįĮ":10837,"áĪ«áĪ©":10838,"ĠáĬ¨áĭĽáĪ¬":10839,"ĠáĪĪáĪ«áĪµ":10840,"áĭ¨áĬ®":10841,"áĪ®áĪ®":10842,"áĪİáĬĶáĪį":10843,"ĠáĬłáĪµáĮĪáĭµ":10844,"áīłáĪŃáĮį":10845,"áĬ¤áįį":10846,"Ġáĭ¨áĭĪáĪ¨":10847,"áįĪáĮ¥áĪ©":10848,"ĠáĬłáĪĪáĪĺáĮįáī£áī£áīµ":10849,"áĮ«áĭĪáī°":10850,"Ġáī°áĮĪáĬĿáī·áĪį":10851,"ĠáīłáĬłáĪµáī¸áĬ³áĭŃ":10852,"ĠáĪĨáĪµáįĴáī³áĪİáī½":10853,"áĬĲáī³":10854,"ĠáĪĪáĭ°":10855,"áīĢáĪī":10856,"áĭĭáĭĪ":10857,"ĠáĬ¥áĬķáĭ°áĭļáĪģ":10858,"ĠáĮĪáĮ¹":10859,"ĠáĬ¨áįįáī¶":10860,"Ġáīłáĭ¨áĭĪáĪ©":10861,"áĭ°áĪ«áĭ°áĪŃ":10862,"Ġáĭ«áĪµáįĪáĪįáĮĪáĭĭáĪį":10863,"ĠáīłáĪĺáīĢáīłáĪį":10864,"ĠáĬ¥áĭĪáĭ³":10865,"áī°áī±":10866,"áĭŃáĬ¸áĭį":10867,"Ġáīłáĭ¶":10868,"ĠáĪĺáĭ°áĮĪáįį":10869,"áīłáī½":10870,"ĠáĭŃáĮĭ":10871,"áĪªáĭµ":10872,"Ġáĭ°áĬħáĬķáĬĲáīµ":10873,"Ġáīłáī°áĭĺáĭĭáĭĭáĪª":10874,"áīĭáīĭáĪĺáĭį":10875,"áįĮáĭ´áĪ«":10876,"ĠáĬ¨áĬĲáīłáĪ©":10877,"áĪĪáĬŃ":10878,"ĠáĬ¨áĪįáĬŃ":10879,"Ġáĭ¨áĪļáĬ¨áĬĵáĭĪáĬķ":10880,"Ġáĭ¨áĪļáĭįáĪī":10881,"ĠáĪĪáĪĽáĪµáī°áĬĵáĮĪáĭµ":10882,"áī£áī¢áĪİáĬķ":10883,"Ġáĭ¨áĪ°áĪľáĬķ":10884,"ĠáĭĪáĪŃáĭ¶":10885,"ĠáĪĺáĪ¨áĮĥáĭį":10886,"ĠáĪĢáī¥áīµáĬĵ":10887,"Ġáĭ¨áĪĺáĬķáĮįáĪ¥áīµáĬķ":10888,"Ġáĭ¨áī½áĮįáĪ©":10889,"áĪĨáĭŃ":10890,"Ġáĭ¨áī°áįĪáĪ¨":10891,"Ġáĭ¨áĪĺáĬ«":10892,"Ġáī£áĪĪáĬķ":10893,"ĠáīłáĬłáĪĪ":10894,"áĬĵáĭįáīĢáĭį":10895,"Ġ49":10896,"Ġáī°áīĥáĪ«áĬĴ":10897,"Ġáĭ¨áĪļáįĪáī³":10898,"Ġáĭ¨áĪļáī½áĪįáīłáīµ":10899,"ĠáĬ¢áīµáĭ®áĮµáĭ«áĭĬáĭ«áĬķ":10900,"Ġáī°áĪ¨áįĪ":10901,"ĠáĪĪáĪĺáī°áĮįáīłáĪŃ":10902,"ĠáĭŃáĭĪáĮ£áĪį":10903,"áĮłáĭ«áīĤáĬĲáīµ":10904,"ĠáĪ°áĪ«áĭĬáīµ":10905,"ĠáīłáīłáĪĪáĮł":10906,"áĪ³áī¡":10907,"áĪªáĭİáī¹":10908,"áĪµáīµáĪ®":10909,"ĠáīłáĪĽáĪ¨áĮĭáĮĪáĮ¥":10910,"ĠáĮĭáĪŃáĪĿ":10911,"ĠáĬłáĪįáįıáĪį":10912,"áĬŀáī»áī¸áĭį":10913,"ĠáĬłáĪĺáĪį":10914,"ĠáĬ¨áĬłáĮĪáĪªáī±":10915,"ĠáīħáĪŃáįħ":10916,"ĠáĪĽáĭµáĪ¨áĮĭáī¸áĭį":10917,"Ġáī»áĪŃ":10918,"Ġáĭ¨áī°áī£áĪĪáī½":10919,"Ġáĭ¨áĭľáĮİáī½áĬķ":10920,"ĠáĪĽáĬĶáĮħáĪĺáĬķáīµ":10921,"áĭ®áĪµ":10922,"ĠáĬłáĭŃáĬĲáī¶áī½":10923,"ĠáĬ¥áĬķáĭ°áĪļáĬĵáĮĪáĪ©áīµ":10924,"áĮĤáī¡áī²":10925,"ĠáīłáĬ¥áĮģ":10926,"194":10927,"áĭĺáĬķáĮĭáīµ":10928,"Ġáī°áįĪáī³":10929,"ĠáĪĺáĮłáĬĳ":10930,"ĠáĪĪáĪĺáīĢáĮłáĪį":10931,"áīłáĭ°áī¡áī¥":10932,"ĠáīĢáĮ£áĬĵ":10933,"Ġáĭ¨áīģáĮ¥áĮ¥áĪŃ":10934,"áĬĵáīħ":10935,"áĭŃáĭŀ":10936,"ĠáĬłáĪĮ":10937,"ĠáįįáĮ¥":10938,"ĠáĭĪáĪŃáīģ":10939,"Ġáĭ¨áī£áĬķáĬ©":10940,"ĠáīłáĭĺáĪĪáĪĪ":10941,"áĭ¢áĭį":10942,"ĠáĬ¨áĪĮáĪĪ":10943,"Ġáĭ«áī¥áĪ«áĪ«áĪī":10944,"ĠáīłáīłáĪĭáĭŃáĬĲáīµ":10945,"Ġáī°áĮĢáĪĺáĪ¨":10946,"áĭ¨áī¥":10947,"áĮĪáĪįáĮ¹":10948,"áī³áĭįáĪµ":10949,"áĪ¯áīµ":10950,"ĠáīłáĮ¥áī¥áīħ":10951,"ĠáīłáĪĺáīĢáĬĲáĪµ":10952,"ĠáĬ¦áĭ²áī°áĪŃ":10953,"áī°áĬ«":10954,"ĠáĪĺáĬĲáĪ³áīµ":10955,"áīłáĬłáĬķáĭ³áĬķáĭµ":10956,"áĬ¨áįĪáĪĪ":10957,"áĬĽáī¸áĭį":10958,"ĠáĪĪáĪĽáĪ¸áĬĲáįį":10959,"áĭ°áĪ¨áĪµ":10960,"ĠáĮłáīłáīĥ":10961,"Ġáĭ«áĪĪáĪħ":10962,"ĠáĪĻáĪĭáī±":10963,"ĠáīłáĬ¥áĭ«áĬķáĭ³áĬķáĭ±":10964,"Ġáĭ¨áĬłáĪłáĪ«áĪŃ":10965,"áīłáĬłáĬ«áī£áī¢áĭį":10966,"ĠáĪĺáī¥áĪĭáīµ":10967,"ĠáīłáĪħáī¥áĪ¨áī°áĪ°áī¡":10968,"ĠáĪĺáįįáĮłáĪ©":10969,"ĠáĪĺáĭĺáĮį":10970,"Ġáĭ¨áĮłáīĢáĪ±áīµ":10971,"ĠáĭµáĪįáĭµáĭŃ":10972,"áĪĿáĬŃáĪŃ":10973,"ĠáĬ¨áī¶":10974,"Ġáĭ¨áĪļáįĪáĪįáĮĪáĭįáĬķ":10975,"ĠáĪĽáĭĺáĭįáī°áĪªáĭ«":10976,"ĠáĬłáĬķáĮĪáīµ":10977,"ĠáĬ¤áįĮ":10978,"áĪ©áĬķáĭ²":10979,"ĠáĬłáĪīáĬķ":10980,"Ġáī°áĮ¨áĭĭáī½":10981,"Ġáĭ«áĮįáĭĽáĪį":10982,"Ġáĭ¨áĮłáīħáĪĭáĭŃ":10983,"áĪĪáīĥ":10984,"ĠáĬ¨áĪ«áĪµ":10985,"Ġáī°áĪŁ":10986,"áĬ¨áĮ¥áīĤáīµ":10987,"áĬ¥áĭ«":10988,"ĠáĬ¥áĬķáĭ²áĪĺáĪĪáĪ±":10989,"ĠáīĢáĪįáĮ£":10990,"ĠáīĢáĮ¥áī³":10991,"áĬ¨áī°áĪīáīµ":10992,"ĠáĬ¥áĬķáĭ²áĪ°áįįáĬķ":10993,"ĠáĬłáĪ®áĮĮ":10994,"ĠáįįáĪįáĪļáĭ«":10995,"áĬķáĭ²":10996,"ĠáĪĪáĭµ":10997,"áĮłáīĨ":10998,"ĠáīłáĪĺáĭĪáĬ¨áĪį":10999,"áįīáĬĵ":11000,"áĪķáĭĿáī¥":11001,"ĠáĪŀáĪį":11002,"Ġ2016":11003,"ĠáĭįáĪ³áĬĶáĭİáī½":11004,"ĠáĪµáĪĪáĪļáĭ«áĪµ":11005,"ĠáĪĽáĪ¨áĪļáĭ«":11006,"Ġáī°áĪĿáĪ³áĪĮ":11007,"800":11008,"áĪ°áī¦áī½áĬķ":11009,"áįįáĪ©":11010,"ĠáĬ¥áĬķáĭ°áĪĺáĮ£":11011,"ĠáīłáĪĺáĮĪáĬĵáĬĽ":11012,"ĠáīłáĪĺáĬ¨áī°áĪį":11013,"ĠáĪĪáĪĺáĪ°":11014,"áĭµáĪ¨áĪ±":11015,"áīĦáīµ":11016,"áĪ¯áī¸áĭĭáĪį":11017,"ĠáīłáĮ¥áĪįáīħ":11018,"Ġáĭ«áĭ°áĪ¨áĮĪáĭįáĬķ":11019,"ĠáīłáĪ¶áĪµáīµ":11020,"ĠáĪĺáįħáĪĲáįį":11021,"ĠáĮĵáĭ°áĬŀáī¹":11022,"áĪĪáĪī":11023,"áī³áĪªáĬŃ":11024,"áĭļáī½":11025,"áĮ¨áĪ¨áĪµ":11026,"áĪĲáĭĭáĪŃáĭ«áĭį":11027,"ĠáĬ¨áĪĺáī¼":11028,"ĠáĬ¨áī°áĪĽáĭį":11029,"ĠáĬ¨áĪĽáĬķ":11030,"ĠáĬ¥áĬĶáĬĵ":11031,"Ġáĭ²áįķáĪİáĪĽ":11032,"ĠáīłáĪ¨áĪĥ":11033,"Ġáī³áĪªáĬ©":11034,"ĠáĬłáĭ«áĪĮáĭį":11035,"un":11036,"áĭª":11037,"áĭįáĭµáĭµáĪ©":11038,"áĭ°áī½":11039,"ĠáĪĽáĪ½áĬķ":11040,"ĠáĬ¥áĬķáĭ°áīĢ":11041,"ĠáĪ°áĬ¨áĬķáĭµ":11042,"ĠáīłáĪĺáĭ°áĮĪáįį":11043,"áī¡áī£áĭĬ":11044,"ĠáĪĬáĬĸáĪ«áī¸áĭį":11045,"áĭ´áĭµ":11046,"áĭ«áĭįáīģáīµ":11047,"ĠáĬłáĭįáĭ°":11048,"ĠáĬłáĪħáĮīáĪŃ":11049,"áĪĿáĬĵáĪįáī£áīµáĪĿ":11050,"Ġáĭ¨áĭ©áĬĴáī¨áĪŃáĪ²áī²":11051,"ĠáĬłáĮ«":11052,"ĠáĪĺáĮłáĬĵáĬ¨áĪŃ":11053,"Ġáĭ¨áĪł":11054,"ĠáĬłáĪ¶":11055,"áĬŃáĪħ":11056,"áĬĸáī¹áĬķ":11057,"áįĭáĪ½":11058,"áī¢áĭ«áĬķ":11059,"ĠáĬ¢áĮ£áĪĬáĭ«":11060,"Ġáĭ«áĪĪáĬĿ":11061,"Ġáīħáī¡":11062,"ĠáĬłáĪĺáĪĭáĬŃ":11063,"ĠáĬłáĭ°áĪ©áĬķ":11064,"áī¥áĪ«áĭŃ":11065,"ĠáĬłáįįáĪŃ":11066,"ĠáĪłáĪĭáĪĿ":11067,"Ġáī°áĬĵáĮįáĪ«áĪĪáī½":11068,"ĠáĬłáĮĪáī£":11069,"ĠáīłáĬ¬áĬķáĭ«":11070,"Ġáī°áĪĪáĭį":11071,"ĠáĭŃáĪĪáĬĵáĪį":11072,"ĠáĮįáĪ©":11073,"áĭľáĪŃ":11074,"ĠáĬ¥áĬķáĭ°áĪļáī£áĪĪáĭį":11075,"ĠáĪĽáĪµáįĭáįĭáīµ":11076,"ĠáĪĬáĭ«áĭ°áĪŃáĮī":11077,"ĠáĬ¥áĬķáĭ°áĪļáĭ«áĭ°áĪŃáĮī":11078,"ĠáĭŃáĪĦáĭ³áĪī":11079,"ĠáĪ°áĪĭáĪĿáī³":11080,"áīĢáĬĵáĮĢ":11081,"ĠáĪĪáĬķáī£áī¥":11082,"Ġáĭ¨áĪĺáĬĲáĮ¨":11083,"ĠáĬłáĪįáĬĲáīłáĪ©áĪĿ":11084,"áī°áĪ»":11085,"ĠáīłáĮįáĪĪáĪ°áī¥":11086,"ĠáĪĺáĪ°áī¥":11087,"áĮ£áī½áĪģ":11088,"áī¢áĪĨáĬķáĪĿ":11089,"Ġáī¤áī¶áī¹":11090,"ĠáĬłáĪįáĪĽáĭĿ":11091,"ĠáĬ¥áĭ¨áī°áĪ°áĮł":11092,"ĠáīĨáĪĺáĭį":11093,"ĠáīłáĪµáĭµáĪµáīµ":11094,"ĠáĭįáĭµáīĢáīµ":11095,"ĠáīłáīµáĮĭáīµ":11096,"ĠáĭµáĪĿáĭ³áĪľ":11097,"ĠáīµáĬķáīłáĭ«":11098,"ĠáĪĺáĪĨáĬĵáī¸áĭįáĬķáĪĿ":11099,"áĮ»áĮ¸áĪŃ":11100,"ĠáĪ¦áĪµáī°áĬĽáĭį":11101,"ĠáĮīáĪįáīł":11102,"ĠáĭĺáįįáĮ¥áĪ¨áīµ":11103,"áĪµáī±áĪĿ":11104,"ĠáĬ¨áĪ²":11105,"ĠáĬĲáįĭáĪµ":11106,"ĠáĪĪáĪĮ":11107,"áĭ¨áī±áĬķ":11108,"Ġáī¢áĭ°áĪ¨áĮį":11109,"ĠáīłáĬłáĮĪáĪ«áī¸áĭį":11110,"ĠáĪĺáĬķáĮĭ":11111,"Ġáĭ¨áĬ¥áĪ±":11112,"ĠáĪĺáī³áĮĪáĪį":11113,"ĠáĭŃáĪ°áĪĽáĬĽáĪį":11114,"áįķáĪ®áĮįáĪ«áĪĻ":11115,"36":11116,"ĠáĪĺáįĪáī°áĪ½":11117,"áīłáĮĢáīµ":11118,"Ġáĭ«áĪĿáĬĵáĪį":11119,"áĬłáĮįáī£áī¥":11120,"Ġáīłáī°áĭ«áĭĺáĭį":11121,"ĠáĬłáĭŃáĭ°áĪĪáĪģáĪĿ":11122,"áĮ«áĭĪáī»":11123,"áĮħáĪĿáĪĭ":11124,"áĬ¨áī£áĬ¨":11125,"Ġáī¥áĪĦáĪŃ":11126,"ess":11127,"ĠáįįáĮ¡áĪŃ":11128,"Ġáĭ¨áĭĪáīħáī±":11129,"ĠáĭŃáĭĪáĭµ":11130,"áīħáĪ¶":11131,"áĪīáĬĿ":11132,"ĠáĪ²áĮĭáĪ«":11133,"ĠáīłáĪĺáĪĨáĬĹ":11134,"ĠáĬ¥áĬķáĭ²áĪį":11135,"áĬķáĮįáĪĬ":11136,"áĪ¥áĬĲ":11137,"áīłáĪ¨áĭį":11138,"ĠáĬ«áįķ":11139,"ĠáĮłáĭ«áīĤ":11140,"áĪ¸áĪ¸":11141,"ĠáĬłáīħáĪĽáī¸áĭįáĬķ":11142,"Ġáĭ¨áĪļáĮĪáĬĻáīµáĬķ":11143,"áīłáĪ°áĭį":11144,"ĠáīłáĬĲáĮ»":11145,"Ġáī°áįĪáĮ½":11146,"ĠáĮ¥áīłáīĥáĬĵ":11147,"ĠáĪłáĪŃáī¶":11148,"ĠáĬłáĭĽáĭįáĬķáīµ":11149,"ĠáĬ¥áĬķáĮįáĪį":11150,"áĪĨáī´":11151,"ĠáĪµáĭĬ":11152,"Ġáĭ¨áĪĺáįįáĮłáĪŃ":11153,"Ġáīłáī°áī»áĪĪ":11154,"ĠáĪĲáĭĺáĬķ":11155,"Ġáī°áĬĵáĮĭáĪª":11156,"ĠáĮĨáĪŃ":11157,"ĠáĮĲáĬķ":11158,"áĪ°áĪįáĮłáĬķ":11159,"Ġáĭ«áīĢáĪ¨áī¡":11160,"ĠáĪ¾áįĮ":11161,"ĠáīłáĪŃáĬ«áī¶áī½":11162,"Ġáīłáī»áĭŃáĬĵ":11163,"áĪħáĭŃáĭĪáīµ":11164,"ĠáĭĪáĬŃáĪĪáĭį":11165,"Ġáī¥áĭĽ":11166,"Ġáĭ¨áī°áĪ³áĬ«":11167,"ĠáĬłáĪµáĬĲáī¥":11168,"áĭ°áĪŃáĮĪáĭįáĬķ":11169,"ĠáīłáĬłáĭ³áĪĽ":11170,"ĠáīħáĬĵáĪ½":11171,"áĮłáīĢáĪ±":11172,"2001":11173,"áĮįáĬķáĬĲáīµ":11174,"ĠáĭŃáĮįáī£áĬĿ":11175,"áĪħáĭĿáī¥":11176,"ĠáĬ¨áĬ«":11177,"Ġáī°áĪĺáĪĪáĪ°":11178,"áĬłáĪ¨":11179,"ĠáĪħáī¥áĪ¨":11180,"ĠáĭĵáĪĺáīµáĪĿ":11181,"áĬħáĬķ":11182,"ĠáĬ¨áĪĽáĪħ":11183,"áī¥áĭĻáĭİáī¹":11184,"ĠáĬłáĪĺáĪ«áĪ©":11185,"Ġáī°áĪĪáĭŃáī°áĭį":11186,"ĠáĬ¨áīĢáĪ¨":11187,"áĬ¥áĭ¨":11188,"ĠáĮ¥áīĨáĪĽ":11189,"áĪ¸áĪŃ":11190,"Ġáĭ¨áĬ¥áĪ±áĬķ":11191,"áįĵáĪŃáīµ":11192,"áī³áī½áĬķáĪĿ":11193,"áī¥áĭĻáĭİáī½":11194,"ĠáīłáĭįáĬĥ":11195,"ĠáĬ¨áĬłáĪŃ":11196,"Ġáĭ¨áĬķáĮįáĭµáĬĵ":11197,"ĠáĪĪáĬłáĪŃáĪ¶":11198,"Ġáĭ«áĮĪáĬĺáĬĲáĭį":11199,"Ġáī¸áĪį":11200,"ĠáĬłáĪħáĮīáĪ«áĭĬ":11201,"ĠáĬłáĪįáĬĲáīłáĪ«":11202,"Ġáĭ¨áī¥áĪĶáĪŃ":11203,"ĠáĬ¥áĮ£":11204,"áĮĪáĪ®áī½":11205,"Ġáĭ¨áĪ¦áĪµáīµ":11206,"ĠáĬ¨áĮįáī¥":11207,"áīĢáĬĵáĪį":11208,"ĠáĪĿáĪ°":11209,"Ġáĭ¨áī°áĮĪáĭ°":11210,"Ġáĭ¨áī°áĮłáĬĵáĬ¨áĪ¨":11211,"ĠáĬłáĪµáī½áĪıáĪį":11212,"ĠáĬłáĭŃáī°áĭį":11213,"ĠáīłáĪĿáĪŃáĪĿáĪŃ":11214,"áĬĸáĪ©áīłáīµ":11215,"ĠáĬłáīħáĪĿáĬĵ":11216,"ĠáīłáĭµáĪį":11217,
[...]
