#version: 0.2 - Trained by `huggingface/tokenizers`
▁ የ
▁ በ
▁ አ
▁ እ
▁ ።
▁ መ
▁እ ን
▁ ከ
▁ ነ
▁ ለ
▁ ይ
▁ ተ
ቸ ው
▁የ ሚ
▁ ያ
▁ ፣
▁ ወ
▁ "
▁ ማ
▁ ስ
▁ነ ው
▁ ም
ዎ ች
▁ ብ
ላ ይ
▁እን ደ
▁የ ተ
ነ ት
▁ ሰ
▁ ፤
▁ ው
▁ ግ
▁ ላይ
▁ ባ
▁በ መ
▁ ደ
ለ ው
▁እን ዲ
▁ ሲ
በ ት
ች ን
▁ ት
▁አ ን
ዋ ል
ው ን
▁ ጥ
ሆ ን
ዚ ህ
▁ ል
ሆ ነ
▁በ አ
▁አ ስ
. .
▁ ሁ
ገ ር
▁ ዓ
▁በ ተ
ሆ ኑ
▁የ መ
▁የ አ
በ ር
▁ ገ
ን ግ
▁ ድ
▁ ቀ
ቶ ች
ስ ት
▁ ክ
▁ ዘ
▁ለ መ
ደ ር
▁ ኢ
▁ወ ደ
ቸው ን
▁ ?
▁ለ ማ
ለ ት
▁አ ይ
▁ግ ን
▁ ሥ
▁በ ማ
ለ ም
ደ ረ
▁ ጋ
▁የሚ ያ
ን ድ
▁እ የ
ጊ ዜ
▁ 1
ስ ጥ
▁ይ ህ
▁ ሊ
▁ ታ
▁ ቢ
ተ ኛ
ራ ት
▁ ቤ
ሪ ያ
▁ ጉ
▁ው ስጥ
ረ ት
▁ ሳ
ን ም
ድ ር
ት ዮ
▁እንደ ሚ
▁ስ ለ
▁ ጊዜ
▁አ ለ
ጵ ያ
ትዮ ጵያ
▁እ ና
ር ት
▁የ ማ
▁ባ ለ
▁ጋ ር
ድ ረ
በ ረ
▁ )
▁እን ዳ
▁ ጠ
▁አ ገ
▁የ ም
▁ነ በር
▁ (
▁ ካ
ት ን
ስ ተ
ሮ ች
▁ 2
▁ ሚ
▁ ..
▁.. .
ገ ባ
▁ ሕ
▁አ ል
▁ ፍ
ላ ል
▁በ ሚ
ት ና
▁ ህ
▁ከ ተ
ቱ ን
▁ ች
▁ደ ግ
ሁ ን
▁ !
ላ ቸው
▁ደግ ሞ
መ ለ
▁ዓ መ
▁ ፈ
ግ ባ
ሎ ች
▁መ ንግ
▁ ሆ
▁አን ድ
ረ ጃ
▁ ዕ
▁ '
ና ል
▁መ ን
▁ ቅ
▁እ ስ
▁ነ ገር
ና ቸው
▁እ ያ
ጀ መ
ን ያ
▁ም ን
▁ ሌ
▁ም ክ
ሪ ካ
▁ወ ይ
▁ሥ ራ
▁ጉ ዳ
▁ሁ ሉ
▁አ ካ
▁ች ግ
ታ ል
▁አስ ተ
0 0
▁ ዋ
ገ ድ
ት ም
ሰ ብ
ረ ው
ራ ዊ
ማ ት
▁የ ኢ
መ ን
▁ ኃ
ያ ን
ዲ ስ
▁በ እ
▁መ ሆኑ
ዳ ን
ድረ ግ
▁ያ ለ
▁ሳ ይ
ከ ል
ታ ት
▁አ ም
▁ሰ ው
▁ያ ለው
ች ሁ
▁እየ ተ
ተ ው
ብ ር
▁መ ስ
▁ከ መ
ፈ ል
▁የ ነ
▁ያ ህ
▁ከ አ
ሉ ት
▁መ ል
ባ ቸው
ጠ ና
▁የ እ
▁ ሀ
▁ ፕ
▁ብ ቻ
▁በ ዚህ
ዎች ን
ኋ ላ
ላ ት
ም ን
▁ድ ር
ቅ ር
▁ ሙ
ን ስ
▁አ ቶ
▁ቤ ት
ማ ሪ
ለ ያ
▁ ኮ
ታ ቸው
ኛ ው
ሥ ት
▁ብ ዙ
▁ ቁ
ና ት
ኔ ታ
▁ ናቸው
ር ም
ለ ሁ
ከ ተ
▁ያ ስ
▁የ ሰ
ባ ቢ
▁ከ ፍ
▁ይህ ን
ገ ል
▁ ሆነ
ዝ ብ
▁ሁ ኔታ
▁ምክ ንያ
▁ወይ ም
ለ ን
ያ ው
ገ ኘ
▁እ ነ
በ ሩ
▁በ ኋላ
▁አ ባ
ገ ው
▁ ዝ
ል ጣ
ለ ች
ከ ት
ቅ ም
ጠ ቀ
▁ ን
▁አ መ
ፊ ት
ች ል
▁ሰ ዎች
ተ ር
ላ ክ
▁ ጨ
ገ ኙ
ቃ ል
ብ ረ
ታ ወ
▁ደ ረጃ
▁ኢ ትዮጵያ
ሠ ራ
▁ ቦ
▁የ ወ
▁ክ ፍ
▁አ ድር
ታ ው
▁ ሃ
ገ ራ
▁ለ አ
ሚ ያ
▁እንዲ ሁ
ኞ ች
ር ስ
ቦ ች
▁ ራ
▁አ በ
የ ት
▁ተ መ
▁በ ላይ
ጣ ት
ም ህ
ሽ ን
ረ ዳ
ረ ጋ
▁መሆኑ ን
▁አይ ደ
▁ተ ጠ
ዎ ቹ
ም ና
▁ 3
▁ ዳ
▁ሆ ኖ
▁ዓመ ት
ታ ዊ
▁ሲ ሆን
▁መ ካ
▁እስ ከ
ገ ለ
ይ ወ
ኖ ር
ቀ ር
▁ብ ር
ቷ ል
ዚ ያ
ዮ ን
ገ ን
▁የ ግ
ያ ስ
ፍ ሪካ
▁ ኤ
▁እንዲሁ ም
ለያ ዩ
ነ ሳ
▁የ ሆነ
▁ ቆ
ድ ን
ጥ ር
ነ ው
▁ወ ቅ
ል ቅ
ሰ ራ
ጠ ር
ዓ ት
ጠ በ
ባ ል
▁እንደ ሆነ
ሰ ማ
▁ሌ ላ
▁በ ቀ
▁ቀ ን
ግ ሎ
▁መን ገድ
ም ሮ
▁አገ ል
▁ማ ስ
ባ ት
▁ከ ዚህ
▁ ሴ
▁ነ ገ
ረ ስ
▁ስ ራ
▁ከፍ ተኛ
ፓ ር
▁አ ሁን
▁እንዲ ህ
▁ኃ ይ
▁በ ር
ራ ል
▁ ሐ
▁ችግ ር
▁ብ ሎ
▁የሚያ ስ
ጠ ው
ዘ ጋ
▁ተ ቋ
▁አ ብ
▁እ ኔ
▁ማ ለት
▁ ቡ
ክ ል
መ ስ
▁አበ ባ
ሰ ው
▁በ የ
▁የ ስ
▁በመ ሆኑ
▁ም ር
ለ ይ
▁የ ው
▁መካ ከል
▁ ዶ
ገ ኝ
ሳ ይ
ል ክ
▁የኢ ትዮጵያ
▁አ ደ
▁ ጀ
▁መ ሰ
ስ ፋ
ኛ ል
ሪ ቱ
▁ጉዳ ይ
▁መንግ ሥት
ን ና
▁እን ዴ
ደ ው
ሩ ት
ሊ ዮን
ሥ ራ
ላ ፊ
ያ ቄ
▁አ ዲስ
ሳ ት
▁አ ቀ
ቶ ችን
▁ከተ ማ
ቀ ው
▁ው ጤ
ብ ት
▁አ ት
መ ጣ
ሩ ን
▁ወቅ ት
▁ ጎ
ዛ ሬ
▁እን ጂ
▁በ ኢ
▁ ላ
▁ተ ግባ
▁ዘ ር
▁ሚ ኒ
▁ከ እ
▁ጥ ያቄ
ታ ቸውን
▁ቢ ሆን
ኩ ል
ዓ ለም
ዘ ብ
▁አ ገር
ተ ዋል
▁የ ህ
ወ ጣ
ሞ ክ
▁በ ም
በ ል
ኖ ች
ካ ሄ
▁ያ ል
▁አይደ ለም
▁አካ ባቢ
▁ይ ች
ፖ ርት
ራ ቸው
▁አገል ግሎ
▁ዓ ይ
ሪ ክ
▁እ ር
▁ት ምህ
▁ዕ ድ
ቱ ም
▁ ሜ
ወ ሰ
ፈ ው
ኝ ነት
▁ው ድ
▁ምክንያ ት
▁በ ግ
▁ቦ ታ
▁በተ ለይ
ጀመ ሪያ
ቸ ዋል
▁ኢ ን
▁ ሽ
ቢ ያ
▁ፕ ሮ
▁መ ጠ
▁ገ ል
▁የነ በረ
▁ሥ ር
. ም
መ ው
▁ከ ሚ
ደ ም
▁የ በ
▁ያህ ዌ
ና ው
▁ድር ጅ
ላ ሉ
▁ 4
ግ ር
ቀ ረ
▁ያህ ል
በ ው
ፍ ት
ሉ ም
ላ ማ
▁ማ ን
▁እ ው
▁ ሞ
ደረ ገ
ሳ ብ
ለ ዋል
▁አ ው
ዮ ች
▁ ፓር
▁ተ ና
▁እንዲ ያ
ካ ታ
ሱ ን
ሰ ቡ
▁አ ር
▁ተ ቀ
▁እነ ዚህ
▁እንዴ ት
ሱ ስ
ር ድ
▁አ ሉ
▁ ፖ
▁ ረ
▁የማ ይ
ጨ ማሪ
ወ ቅ
ገ ና
▁አ ማ
ዶ ች
▁ ጽ
ል ም
ው ያን
▁ዓ .ም
ለ ቲ
ክ ት
ቤ ት
▁ ሺ
ረ ዋል
ዳ ደር
▁በ ፊት
▁የሚ ል
▁መ ሠ
ጽ ሐ
መ ር
▁ ዜ
ቀ ት
▁ሳይ ሆን
ሳ ሌ
ይወ ት
ሪ ዎች
ኮ ኖ
▁ ር
▁ይ ሁን
የ ሱስ
▁ዓ ለም
▁ዓመ ታት
▁ሲ ያ
ም ር
▁ማ ህ
▁ይ ሆ
▁ 5
ሏ ል
ከ ር
ነ ስ
▁ትምህ ርት
▁የ ት
▁ ጭ
▁ያ ሉ
▁ከ ማ
ን ን
▁ዘ መን
ካ ም
▁ሌ ሎች
▁ድ ረስ
ገ ሪቱ
▁ክ ል
ፈ ጠ
▁ል ጅ
ጣ ም
▁ተ ወ
ና ገ
▁እን ኳ
▁ሁ ለት
▁በ ስ
▁የ ታ
ላ ለ
▁ተ ብ
▁ኃ ላፊ
ጋ ል
ላ ም
ች ው
2 00
ነ በረ
ራ ሲ
ለቲ ካ
▁ ኦ
▁ለ ው
ሞ ች
▁ይ ሄ
ጆ ች
▁ማ ድረግ
▁አ ሳ
ደረ ጉ
ግ ኘ
▁በ ሰ
▁በ ሌ
▁ቅ ዱ
ው ም
ችን ን
ሙ ያ
ፌ ዴ
ር ያ
▁ለ ም
ግ ብ
ከ ላ
ን ት
▁አን ዱ
▁ይች ላል
▁አገልግሎ ት
መ ራ
ከ ና
▁ሁ ለ
የ ር
ዲ ያ
▁በ ጥ
ም ነት
▁ግን ባ
ፖ ር
▁አም ላክ
ጤ ና
ባ ለ
▁ል ማት
▁በ ኩል
ሳ ቸው
▁ይ ገባ
▁አ ቅ
▁ተና ግ
ገ ት
ፋ ት
▁የ ሕ
▁ ኪ
ፈ ለ
▁ስ ም
▁ባ ህ
ጽሐ ፍ
▁ወ ጣ
ክ ስ
▁ ቴ
▁መ ረጃ
ዩ ኒ
▁ይሆ ናል
▁ወ ር
▁ሚ ሊዮን
ት ር
▁ ኩ
ዝ ቡ
▁ይ ገ
▁ገ ን
ህ ን
ጦ ር
▁ወ ን
▁በ ጣም
▁እንደ ተ
ቅ ድ
ገኘ ው
መ ረ
ቃ ሚ
ሬ ት
▁ፕ ሬ
▁የ ል
▁ቅዱ ስ
▁በር ካታ
ጠ ት
▁ ዛሬ
▁ፓር ቲ
ል ና
▁ዋ ና
በት ን
ሜ ሪካ
ረ ብ
▁ኢ የሱስ
▁ም ንም
▁ ቃል
ላ ችሁ
ገ ቡ
▁እ ጅ
▁በ 1
▁መ ሆን
ከና ወ
ሰ ባ
▁ል ዩ
▁ለ እ
▁የሚ ሰ
ግ ራ
ያ ዘ
ቀ መ
▁ድ ጋ
ብረ ተ
ዚ ዳን
ደ ግ
▁ዘ መ
▁እንዳ ይ
ጀ ት
ቃ ት
ሳ ተ
የ ው
▁በ ው
▁በማ ለት
▁የም ት
ጡ ት
ሄ ድ
▁ተ ከ
ነ ቱ
ደ ት
▁እን ቅ
▁በ ሁ
▁ ፋ
ቻ ቸው
ፈ ጥ
ረ ን
ጨ ረ
▁ ሪ
ብ ረት
▁መንግ ሥ
▁አን ዳ
▁ከ ዚያ
▁የመ ንግ
▁አቀ ፍ
▁ቤ ተ
ክ ር
▁ግ ብ
▁እ ድ
ደር ግ
▁በ ደ
ም ፒ
ኮኖ ሚ
▁ለ ሚ
▁ጠ ቅ
▁አስተ ዳደር
▁መ ር
▁ ጣ
ላ ው
▁በ በ
▁አ ጋ
▁ሚኒ ስት
ተኛ ው
▁የተ ለያዩ
▁ሊ ያ
ታ ይ
▁ት ኩ
መ ል
▁ስለ ዚህ
▁ብ ሔ
▁አስ ፈ
▁ስ ር
ረጋ ገ
▁መንግ ስት
▁አለ መ
ጋ ት
ንግ ድ
ዘ ር
▁አ ሰ
▁ ሠ
ልጣ ን
ይ ት
ን ተ
ል ን
ዩኒ ቨ
ፉ ት
▁ስ ት
ትም ህ
▁በተ ጨማሪ
▁ ዲ
▁የሚ ለው
▁ከ ሆነ
ግኘ ት
መለ ከ
▁የ ቀ
▁በአ ንድ
ኖ ሩ
ን ዳ
▁ 6
▁ለማ ስ
▁ለ ተ
ገ ነ
▁የ ሆኑ
▁ብ ለዋል
▁ጨ ዋ
ስ ና
ክ ተር
▁በ ሙ
ው ል
ሮ ችን
▁እንዳ ለ
ባ ይ
ያ ህ
ን ቀ
ጠ ቃ
ግ ለ
▁በ ዓ
▁ድ ን
▁አ ያ
ተ ኞች
በ ብ
▁ዓይ ነት
▁በ ት
ሁ ኑ
▁አ ድ
▁ሲ ል
▁እን ድ
ያ ዊ
▁መ ሆ
▁ብ ለው
ሞክ ራሲ
▁በኢ ትዮጵያ
▁ቁ ጥር
▁ማ ዕ
▁ያለው ን
▁አት ሌ
ደረ ግ
▁ ፀ
ደረ ገው
ር ሲ
በ ያ
ጠቀ ም
ና ዊ
ታ ችን
▁ኮ ሚ
ነ ጋ
▁አ ዳ
▁ለማ ድረግ
▁ድጋ ፍ
▁ ዙ
ደ ራ
ፈ ጸ
▁የም ን
▁ዘ ንድ
ትምህ ርት
ጠበ ቅ
ማ ር
▁መ ጥ
▁ ሄ
▁ተ ገ
ማ ይ
▁ተ ስፋ
▁ማ ሳ
ያህ ዌ
▁የተ ሰ
▁ጥ ረት
▁ባለ ሙያ
▁እ ኛ
ጋ ራ
▁በመ ቶ
▁ይ ጠ
ሊ ያ
▁ጥ ሩ
▁መሠ ረት
ድ ሞ
ዛ ት
ኤ ል
ባ ለው
ኑ ን
▁ ሂ
ቹ ን
▁የ ራ
ም ላክ
ሉ ን
ርሲ ቲ
▁የ ገ
▁አገ ሮች
ታ ማ
ይ ና
ች ሉ
ሯ ል
▁ጀ ምሮ
▁ውጤ ት
▁እን ግ
▁የ ባ
ስ ቃ
▁ትኩ ረት
▁እንደሚ ያ
ቀ ጥ
▁ይገባ ል
ጥ ብ
ዋ ን
ሻ ሻ
▁ተናግ ረዋል
በ ታል
▁ፕሬ ዚዳን
▁ለ ዚህ
ካ ባቢ
▁ቀ ደም
ፈ ር
▁ፍ ላ
ዩኒቨ ርሲቲ
ከ ራ
ዱ ስት
▁ግንባ ታ
ጨረ ሻ
ሰ ጥ
▁ሙ ሉ
ላ ጊ
ክ ምና
▁በማ ድረግ
▁የ ጥ
▁ ፊ
ደር ጉ
▁በ ሕ
▁ያ ሳ
▁ምክ ር
▁መ ድረ
▁በ ወ
▁የ ፖ
▁ቢሆን ም
▁ገል ጸ
ብ ራ
ስቃ ሴ
▁አ ፍሪካ
ፍ ራ
ዲ ህ
▁ 7
ነት ን
ከ ፍ
▁ተጠ ቃሚ
ከተ ማ
ሱ ም
▁የ ደ
በ ቃ
ነ ዚህ
ቋ ቋ
ም ት
አ ዴ
ከ ሰ
▁ኃይ ል
▁2 0
▁ግን ኙ
▁የ ለም
▁ገን ዘብ
ገ ብ
▁ጨዋ ታ
▁አንዳ ንድ
ቻ ል
▁ሰ ብ
▁ነገ ሮች
ለ ማ
▁እንቅ ስቃሴ
▁በመሆኑ ም
▁ይህ ም
▁ወ ንድ
2 0
▁አ ላ
▁ባ ን
▁ቤ ቱ
▁ ኳ
መ ት
ያ ዝ
ል ጠና
▁ ሶ
▁ ዴ
▁ተ ማሪ
ግ ጥ
▁ስ ን
▁ት ን
▁ለው ጥ
▁ት ልቅ
▁አ ቅም
ሦ ስት
▁በ ብ
▁መ ቀ
ፈ ት
▁ተቋ ማት
▁ሁሉ ም
ነ በር
▁መ ለ
▁ቤ ቶች
▁ታ ሪክ
▁አለ በት
▁ድ ም
▁አ ዋ
▁ተብ ሎ
▁ ሸ
ሎ ጂ
▁ባ ይ
ቅ ና
▁2 00
▁ያ ሉት
ጠ ራ
▁ዝ ግ
ርስ ቲ
▁ክፍ ል
▁ዘር ፍ
▁አ ለው
ሳ ል
ነ ሱ
ጎ ች
ተ ን
ስ ታ
▁ ቋ
▁ ዮ
▁ክ ለ
▁የ ለ
ና ቸውን
ደ ኛ
▁ችግ ሮች
▁በተ ለያዩ
▁መ ጽሐፍ
ሻ ለ
▁የ ሌ
ርም ጃ
ብ ን
መ ድ
ና ገራ
ስ ራ
▁በ ራ
▁በሚ ል
አዴ ግ
ስ ን
▁ 8
▁አደ ጋ
ዘ ው
▁ስ ሜ
▁ዋ ጋ
ላ ቸውን
ስ ቴ
▁በሙ ሉ
ዱስት ሪ
ለ ጠ
ገራ ችን
▁ል ብ
▁ጉዳ ዮች
ቡ ብ
▁በ ህ
ሳ ኔ
ነት ና
▁ይ መስ
ዚ ሁ
▁ት ር
▁ምር ጫ
▁ .
ደር ስ
ጠና ቀ
መ ዘ
▁ሥር ዓት
▁ካ ል
▁በ ታ
▁የነ በሩ
▁የሰ ው
▁በ ነ
ተ ት
▁ድርጅ ት
▁ል ማ
▁በአ ሁኑ
▁መ ብ
ምን ት
▁የ ብ
▁አገ ራት
▁ፍላ ጎ
ባ ንያ
▁ከ 1
▁ያ ላቸው
▁የነበረ ው
▁የ ዓለም
▁ክል ል
▁በ ል
▁ጥ ቅም
▁ነ ፃ
ን ጫ
▁ል ጆች
ላ ዊ
ኛው ም
ማ ኖ
▁የሚ ጠ
▁ፕሮ ጀ
▁ገልጸ ዋል
▁ቡ ድን
▁ሕ ዝብ
▁ግ ድ
▁ይህን ን
ቋ ል
▁የአ ፍሪካ
ራ ንስ
ለ ህ
▁ነ ዋ
▁ማ ስተ
▁የ ሥራ
▁1 0
ባ ሉ
▁የው ጭ
ሳ ሳይ
▁ቆ ይ
ን ካ
ሰ ር
▁መን ገ
▁የመ ጀመሪያ
▁ይ ላል
▁ን ጉ
▁በ ቅር
▁መል ካም
ይ ማኖ
▁ሰ ዓት
ራ ን
▁በ ሽ
ዳ ር
▁ ሻ
▁ 9
▁ጉ ባ
▁ፖ ሊ
▁ወ ጥ
▁የ ዘ
▁ህ ዝብ
ብረተ ሰቡ
ጀመ ር
▁መ ሥ
▁ ጦር
ረ ድ
▁ይ ልቅ
ብ ኝ
ሁ ንም
ጀመ ረ
▁ፈ ቃ
▁አመ ራ
▁በእ ር
▁ ቃ
ቦ ት
▁ከ ወ
ረ ተ
▁አድር ጎ
ክ ለ
▁ገ ብ
ላ ሽ
ደ ጋ
▁ጋ ዜ
▁እጅ ግ
▁ቀ ር
▁1 9
▁ኳ ስ
ክ ኖ
▁አካ ል
▁ፕሬዚዳን ት
▁ውድ ድር
▁ው ሳኔ
ሰ ቦች
▁ስ ብ
▁ተ ደር
▁ሰ ጥ
▁አካ ላት
▁ስለ ሚ
▁ግንኙ ነት
ቶ ቹ
▁መ ዝ
▁የፖ ለቲካ
ን ቋ
▁ያ ደር
▁በ ፍ
ጣ ሚ
ጠ ል
ብር ና
▁እንኳ ን
▁ተግባ ር
▁ ዩኒቨርሲቲ
ቆ ጣ
▁መጠ ን
▁ሴ ቶች
▁ታ ላ
ዎች ና
ነ ገ
▁አ ቅር
▁ ጌ
ጿ ል
▁አ ክ
ገን ዘብ
ጣ ል
▁ሺ ህ
▁ኩ ባንያ
ጣ ይ
ፈ ራ
▁የ ዕ
▁አስፈ ላጊ
▁የሚ ገኙ
ከ ለ
▁መን ፈ
ቤ ተ
ቂ ት
▁መሰ ረት
▁አ ሁንም
ደ ገ
▁ሆኖ ም
▁በ ዓለም
ዳ ጅ
▁መ ው
ቂ ያ
ወ ስ
▁ተ ቃ
▁ለ ምን
መ ሰ
ከ ብ
▁መል ኩ
ስ ጠት
▁በማ ስ
▁ዓ.ም .
▁ሜ ትር
ኞ ቹ
▁መ ብት
ኩ ት
▁መ መ
ክኖ ሎጂ
▁አል ተ
▁ /
▁ከ ሌ
▁ይ ናገራ
▁ ጫ
▁ሌላ ው
▁በ1 9
ጠቃ ላይ
▁በሌ ላ
▁1 2
ች ለው
▁ሚኒስት ር
▁በ ዘ
▁መ ሬት
▁ይ ቻ
▁የ ቆ
ኖ ረው
ቅ ረብ
▁እንዳ ል
▁ ጸ
▁ሆነ ው
ባ ብ
ፌዴ ሬ
ዘጋ ጀ
▁ደ ር
መለ ከተ
ላ ር
▁አ ሸ
▁ ሠራ
ማ ቸው
▁ያስ ፈል
▁ገ ቢ
▁ዙ ሪያ
▁አማ ካ
▁የሆነ ው
ጓ ል
▁ደ ን
ቻ ችን
▁ዓ ላማ
▁ሊ ሆን
▁ይቻ ላል
▁በ ሆነ
ጣ ቸው
▁ወጣ ቶች
▁አስተ ያ
ል ጽ
▁ሴ ት
ጠ ን
▁መ ድ
▁ያል ተ
▁ባ ል
▁አ ጥ
ሙ ት
▁ሚኒ ስቴ
ንድ ን
▁ማ ኅ
▁ሕ ግ
ረ ም
▁ይ ሰ
▁መ ሪ
▁ ና
▁ ሱ
ፍ ጠር
ግ ል
ደ ን
ጅ ት
ስ ተኛ
▁አም ስት
ፎ ች
▁አ ቋ
▁ስለ ሆነ
▁እ ምነት
▁ሰ ላም
ግባ ር
ኗ ል
ኮ ች
ሳ ቸውን
ለ ኝ
▁ለማ ሳ
ል ፍ
ሳ ቀ
▁ከዚያ ም
▁ተገ ቢ
▁1 5
▁አስተ ዋ
▁የተ ለ
ታ ደ
▁ቅ ር
▁የ ኤ
ና ገር
▁1 1
ም ድ
. አ
▁ይ ታወ
ፈል ግ
▁በ ድ
▁ውድ ድ
▁በአ ዲስ
▁ከ ሁ
ሳ ቢ
▁ቡ ድ
ገባ ው
▁እ ሱ
▁መ ም
▁ፍ ቅር
ዳ ል
ገ ኛ
መለ ስ
ይ ል
ነ ቱን
▁ም ስ
ረ ጥ
▁ይገ ኛል
ካ ል
▁ይ ዞ
▁ ዞ
በል ጥ
ፈጥ ሮ
በ ራዊ
▁ም ርት
▁ከ ባ
▁ተ ሳት
▁የ ሁ
ወ ጥ
▁ ጓ
▁ዶ ላር
▁ተ ሳ
ጫ ወ
ዝ ቦች
ሮ ፓ
▁አስ ታው
▁ጨ ምሮ
▁አን ተ
▁ታ ዲያ
▁ነ ጥብ
▁ብ ዬ
ሶ ች
ሊ ዝ
▁ምክንያ ቱም
በረ ታ
▁ረ ገድ
▁መ ግለ
▁መ ኖ
▁ባለ ፈው
ለ ቱ
ላ ቀ
ደረ ሰ
ቆ ጠ
▁መ ታ
▁ተመ ል
▁የ ትምህርት
▁የ ጠ
▁በበ ኩ
ፈ ን
▁ገ ለ
▁እ ዚህ
▁ስ ታ
▁ው ሃ
ጥ ረት
ጥ ታ
▁እ ርምጃ
ሞ ት
ክል ሉ
▁ሕ ይወት
▁ሲ ሉ
▁በተለይ ም
ህ አዴግ
ጉ ም
ት ል
ላ ን
▁እ ኮ
ዘ ን
ሙ ን
ር ቅ
▁ገ ና
▁ነ በሩ
▁የ ሀ
ሳ ሰ
ስ ቱ
ቀ ም
▁በዚህ ም
ከላ ከል
▁ዶ ክተር
▁ም ላሽ
▁የተ ሻለ
መለ ካ
▁ሚኒስቴ ር
ው ና
ወ ጡ
ያ ቸው
ቻ ቸውን
ስ ማ
▁ለም ሳሌ
ራ ጭ
▁መ ፍት
/ 200
ከ ታ
ገለ ጹ
ዕ ራ
▁ቢ ሮ
▁ል ጆ
▁ከ ኢ
▁ዳ ይ
▁ ኖ
▁አ ፈ
▁የተ ነሳ
ጣ ን
▁ካ ለ
ዳ ሚ
▁ስ ፖርት
ዝ ና
▁የ ኮ
▁አባ ላት
▁የል ማት
▁የ ጎ
መ ጡ
▁ለ ኢ
▁እንደ ነበር
ደ በ
▁ም ድር
▁ው ይ
ሽ ኑ
ራ ይ
ቾ ች
ችል ም
ያ ል
▁አ ግ
ሩ ም
ጅ ም
▁ ፊት
▁የ ካ
▁መ ነ
ይ ን
▁ይ ኖር
▁በተጨማሪ ም
▁የአ ምላክ
▁አን ዳን
ን ባ
▁ይ ገል
▁ተ ገል
▁የመንግ ሥት
ሃ ል
ዱ ን
▁ክ ርስቲ
ሳ ዊ
▁ ንግ
ንካ ራ
ር ና
▁ከ ሰ
▁ወ ጣት
ነ ግ
▁ይ ታ
▁ፍ ርድ
ረጋገ ጥ
ዳ ደ
▁ዕድ ል
▁ቋ ንቋ
ጣ ጫ
▁ባ ለው
▁ግ ለ
ተ ና
ካ ት
▁አጋ ጣሚ
ቁ ት
ስ ብ
▁ም ሳሌ
▁ ሦስት
▁ት ክ
▁እስ ካ
▁ ጤና
▁ፍላጎ ት
ባ ቸውን
▁በሚ ያ
ካባቢ ው
▁ገ በያ
ካሄ ድ
ቨ ስት
▁አ ራት
▁1 4
▁ ሩ
ን ፈ
▁ኮሚ ቴ
ያ ይ
▁ስሜ ት
▁ጠ ቁ
▁ሀ ብት
▁መሆ ናቸውን
▁አብ ዛ
ድ ስት
▁ተግባ ራዊ
ካሄ ደው
ቅ ረ
▁የ ጤና
ናገ ሩት
አ ት
▁1 3
ስተ ዋ
▁አ ሜሪካ
▁የኢ ን
▁በ ጉ
ማ ን
▁ር ዕ
▁አይ ነት
ደ ብ
ረዳ ት
▁የሚ ታ
ል ካም
ደረ ጃ
ዱ ት
▁ይ ላሉ
▁የ ሥ
▁ሐ ሳብ
▁ዳይ ሬ
▁ ሮ
▁ሥራ ዎች
ሎ ችን
▁በ ወቅ
ባ ባ
▁እንደ ማይ
▁ባለሙያ ዎች
▁አካባቢ ዎች
ል ኝ
▁በ ቂ
▁በ 200
▁ቀ ጥ
▁ነ በረ
ለው ም
መን ት
መ ዋል
ሸ ነ
▁በቅር ቡ
▁ድር ጊ
▁ፕሮ ግራ
▁እንዲ ሆን
ስ ር
▁በ ገ
▁የ ኦ
▁ጉዳ ት
▁ጠቅ ላይ
ዳ ዳ
▁ወ ጪ
ቡ ት
▁ብሔ ራዊ
▁ከ ነ
ጋ ሚ
ቡ ን
ኑ ሮ
▁የ ያህዌ
▁የ ፈ
ል ማት
▁ ቱ
ረጋ ግ
▁የ ቻ
▁አር ሶ
▁ባለ መ
▁ሜ ዳ
ሰ ን
ቷ ን
▁እው ነ
▁ዴ ሞክራሲ
ፎ ር
▁ ኬ
▁ይ ሆን
▁ወ ራት
▁አቅ ጣጫ
ራ ሉ
▁የተ ቀ
ዘጋ ጅ
ከ ፋ
መ ቱ
▁ጠ ንካራ
ነ ኛ
▁ጥ ናት
▁ወ ረዳ
▁ል ክ
▁ተሳት ፎ
▁በ ረ
▁ታ ው
ገ ሪ
▁ይሁን ና
▁ስ ላ
ያ ዙ
▁ኢ ኮኖሚ
▁ዋ ንጫ
▁ከ ው
ዋ ሚ
▁ሚ ና
ብ ሪካ
▁ ኅ
ል ቁ
ጠ ኛ
▁የ ፍ
▁መል ስ
ዋ ና
ከፍ ተኛ
▁በ ቅ
▁ይ በልጥ
▁በአ ገሪቱ
▁ተ ሰ
ለ ፍ
▁ሰ ር
በት ም
ቶች ና
▁የአ ዲስ
ማ ል
▁ተ ራ
ውል ድ
ች ላ
▁ጭ ምር
▁ቢ ሊዮን
ወ ር
ዳ ታ
▁ባለ ፉት
▁አ መለካ
▁እ ግር
▁ጥ ና
▁አል ፎ
▁በ ሀ
ጣ ው
▁ይ ኖ
20 1
ገለጹ ት
ል ስ
ሰ ድ
▁በወቅ ቱ
ቶ ን
▁ማ ግኘት
▁በእር ግጥ
▁ዜ ጎች
ግ ና
▁የ ንግድ
ሱ ት
▁ተ ጫ
▁የኢ ኮኖሚ
▁ዮ ሐ
ሻ ገር
ዛ ቤ
▁በሽ ታ
▁ማ ድረ
▁ሥር ዓ
ያ ያዘ
ርም ር
▁ ፌዴሬ
▁በተ መለከተ
ዘ ሮ
ጋ ቸው
▁ ቻ
ር ጫ
▁ይ ኸ
ዳ ቸው
ቧ ል
▁ወ ዳ
▁በመ ንግ
ሰ በ
▁በ ዚያ
▁ድር ሻ
▁እንድ ት
ሎ ት
▁ ፅ
ይማኖ ት
▁ን ብረት
▁ ፓ
ሟ ል
▁ጉባ ኤ
▁ቴ ክኖሎጂ
ታ ፊ
▁ሆ ኗል
▁አባ ል
▁ሰ ፊ
ቀ ዋል
▁ቁ ጥ
ጠ ፋ
መለ ከት
ማ ኝ
▁ሂ ደት
ደር ገው
ጋ ሪ
▁መ ተ
▁1 7
▁ፕሮጀ ክ
▁መግለ ጫ
ምፒ ክ
ጠ ይ
▁ጉ ዞ
▁አል ነበረ
ዝ ር
▁ያ ው
▁ም ግብ
▁ው ጪ
ገና ኛ
▁ጽ ሑ
▁ተ ከት
▁ባን ክ
▁ስብ ሰባ
ፍ ታት
▁ኢን ዱስትሪ
▁የ ቀረ
ቆ ም
ጠ ብ
▁ፖ ለቲካ
ገ ሩ
▁እ ግ
▁መ ሳ
ራ ቸውን
ክ ሮ
▁አ ላቸው
ኛ ውን
▁ይናገራ ሉ
ሰ ሩ
ንቀ ሳቀ
▁መ ምህ
ኪ ያ
▁የ ሙ
በረ ሰብ
▁1 6
▁ብ ሄ
/ ር
▁አ ፍ
ያ ት
የ ም
ዳ ት
▁መ ዋ
ቀር ብ
▁በ ባ
ኞ ችን
▁የሚያስ ችል
▁የ ክ
ረ ታዊ
▁እነዚህ ን
▁ጥ ር
▁እያ ለ
ስ ቶ
ዚ ቃ
ሠ ሩ
▁የግ ል
▁ውጤ ታማ
▁የሚ ፈ
▁ኃላፊ ነት
▁የሚ ችል
በ ራት
▁ው ጭ
▁ ንግድ
▁ሀ ገር
ቴ ን
ከ ረ
በ ዋል
ጋ ይ
▁1 8
ሴ ቶች
▁የ ፕ
ጨ ዋ
▁በመ ሆን
ሮ ስ
▁ለማ ግኘት
ሁ ት
▁ጥ በቃ
▁ፍ ት
ሃ ን
▁ ጆ
ሌ ክት
ስ ፒ
▁ት ራንስ
ህ ል
▁ቢ ያ
ዘር ፉ
▁ከ ም
ፈጠ ረ
▁የሚ መ
▁ጉዳ ዩ
ጣ ሪ
ቱ ት
ሷ ል
ፍ ና
ፈል ጉ
ግባ ት
▁የስ ራ
▁ከ ስ
▁ስ ፍራ
▁ተገል ጿል
▁የ ሃ
▁እው ነት
▁ሪ ፖር
▁የሚ ሆኑ
▁የ ቴ
▁ ናት
▁አስተያ የት
▁ያስፈል ጋል
▁ነ ኝ
ባ ዊ
ጀ ን
▁መ ቶ
▁የተ ወሰ
▁ዕ ቅድ
▁የ ከተማ
ስት ና
▁ተማሪ ዎች
▁የህ ዝብ
ፈጸ ም
▁የ ድ
▁በቀ ጣይ
▁አግ ኝ
▁ሁለ ተኛ
▁በ ዕ
▁የም ና
ቦ ችን
▁ስ ልጠና
▁የ ዚህ
ኪ ና
▁መስ ጠት
▁እስካ ሁን
▁እንዲ ያው
ዕ ኖ
ከ በር
መለ ክ
ራ ክ
ፍ ን
▁ወይ ዘሮ
▁የም ታ
ሮ ሚያ
ባ ቸዋል
▁ሕ ገ
ዝ ም
ኝ ም
ራ ው
ሳ ሰብ
▁ለ ሁ
በሩ ት
▁ብ ላ
▁ዝግ ጅት
▁አመ ልክ
ራ ም
▁መ ጣ
▁ጥ ቅ
ዩ ት
ር ክ
ግባ ቡ
ጭ ት
ጥ ም
ገ ረ
▁ጉ ድ
ቋቋ ም
▁ጥ ቂት
ሰ ጠው
▁የአ ገሪቱ
▁ድ ል
▁የተ ባለው
ምፒ ዮ
ፊ ያ
▁አድር ገው
ጋ ቢ
ላ ላ
▁የ ጋራ
ከናወ ን
ል ህ
▁መድረ ክ
▁ስ ኬ
▁ባለ ቤት
▁ቀ ናት
▁ወ ረ
▁ተ ፈ
ጀመ ሩ
▁ዕድ ሜ
▁ከባ ድ
ከ ፈ
▁ፈቃ ድ
ፌዴ ራል
ድ ሩ
ጊዜ ው
ብ ዛ
ነስ ተኛ
▁ ሉ
▁አ ሠራ
▁በተ መ
▁ዕድ ገት
መል ከት
▁ለ ሌ
▁ያ ላ
▁የሚያ ሳ
ያ ቂ
ው ሮፓ
▁በ ጋራ
▁ይች ላሉ
ዳ ሴ
▁በበኩ ላቸው
ርያ ም
▁ባ ሻገር
ጠና ከር
▁ኪ ሎ
መ ም
ዲ ት
▁በ ጎ
ገ ዛ
ጀ ል
ቀ በ
▁2 5
ዳ ና
ደረጉ ት
ለያ የ
▁በሌ ሎች
ደ ል
▁ወ ዲህ
▁የ ሞ
ል ማ
ነ ታቸው
ብረተ ሰብ
▁ተ ጨማሪ
▁መ ቼ
▁ድርጅ ቶች
ነበረ ው
ነ ር
ጠ ኝ
ና ፊ
በት ና
▁ለ ብ
ን ዳን
▁ጥ በብ
ራ ሽ
▁ሃ ሳብ
▁ተቋ ም
▁የሚለው ን
▁ብ ሏል
ቲ ክስ
ገን ባት
▁ለ ህ
ሥ ር
▁ሰ ሞ
ጠ ቅ
ገ ዋል
▁የአ ገር
▁ብ ለን
▁በ ዚሁ
ጠ የ
▁እስ ኪ
ሜ ን
ው ጣት
▁ፖሊ ሲ
ዊ ት
▁ጎ ን
ከታ ተ
ሰ ጡ
▁አ ኳ
ከ ባ
ች ኋ
▁ሀ ገ
▁ ጐ
ች ሁን
ቤ ቱ
ሰ ት
▁ፋ ብሪካ
ቶ ስ
▁በአ ግባቡ
ጮ ች
▁ራ ስ
ሆነ ው
▁ዮሐ ንስ
▁ስም ምነት
ሣ ሪያ
▁አን ቀ
▁ውይ ይት
▁ወ ስ
▁ስ ፖር
▁ተመ ሳሳይ
▁ተጫ ዋ
▁አስ መ
▁ለመ ቀ
ላ ችን
▁በአ ፍሪካ
ላ ቂ
ከ ያ
ሆን ም
▁ሳ ምንት
ገኙ ት
▁በአ ን
ሄ ዱ
▁የ ፀ
▁ተሳ ታፊ
▁እና ንተ
▁ከተ ሞች
▁ትን ሽ
▁ቅ ድ
ካ ሪ
ወ ለ
ጋ ዊ
ሆ ናቸው
▁ዶ /ር
መ ና
▁አሰ ልጣ
▁አን ፃ
ም ጣት
ባ በ
▁ወ ታደ
ቲ ት
▁ሰ ነ
▁ ፎ
ነ ቶች
▁አ ሰራ
▁ደ ም
▁ከ በ
▁ከ ሚያ
▁ም ዕራ
▁ሕ ዝቡ
▁የአ ሜሪካ
▁ኢ ህአዴግ
▁ባለ ሥ
ቨስት መንት
▁ደ ስ
▁በመ ስ
▁አትሌ ቶች
▁በ ክ
▁ወ ላ
▁ወ ገ
▁ድም ፅ
ር ማ
ፈ ፀ
▁እ ጥረት
▁እንደሚ ገባ
ህ ና
▁ደ ብ
▁እ ም
▁ከአ ንድ
መ ደ
▁ህ ዝቡ
ሰ ዋል
▁ይ ዘ
▁የነበረ ውን
▁ስ ል
ጽ ኦ
ን ቃ
ጧ ል
▁ንጉ ሥ
ላማ ዊ
▁በመ ቀ
▁መነ ሻ
▁3 0
ን ቅ
ሆኑ ም
▁ይ ኼ
▁በ ቁ
ስፋ ት
ሳ ሉ
ጀ ም
በ ሌ
ጥ ነት
▁ማዕ ከል
▁ማ ር
▁ይገል ጻ
▁አይ ቀ
▁ሆ ቴ
▁በአ ጠቃላይ
▁ኮ ን
ፉ ን
▁ከ ጥ
ሻሻ ል
ሀ ብ
▁ህ ገ
▁ተወ ካ
▁ትር ጉም
▁ሲ ባል
▁ተ ሸ
ማ ሽ
ገ ደ
▁ሥ ነ
▁ ዛ
▁ፈ ተና
ሜ ሽን
▁የመ ልካም
በ ላ
▁ህ ይወት
▁አገ ሪቱ
▁ነ ጋ
▁ተግባ ራት
▁ያ ን
ታ ር
▁በመ ጀመሪያ
ገ በ
▁ደ ጋ
ዲ ሱ
▁የበ ለጠ
▁የ ዓ
▁መ ሣሪያ
▁መስ ራት
ሌክት ሪክ
▁መንፈ ስ
ገ ውን
ቀ ል
ክ ሲ
▁የሕ ዝብ
ታወ ቀ
/200 9
ሽ ከር
▁ሙ ያ
▁መመ ሪያ
ገነ ባ
ጠበ ቀ
▁የ ለውም
ኖ ራቸው
▁እኔ ም
▁እንደሚ ያስ
ዚ ያው
ዛ ዝ
▁ራ ሱን
ጭ ር
ን ብ
ሴ ት
▁የ ሽ
▁የመንግ ስት
▁የሚ ወ
▁አስተዋ ጽኦ
ሪ ው
▁ት ውልድ
ፈ ረ
ጀን ሲ
▁አመለካ ከት
ደጋ ጋሚ
▁ሰብ ሳቢ
ታ ሉ
▁ብ ት
▁ፓርቲ ዎች
▁በተመ ሳሳይ
▁በአ ገር
▁መ ግ
ሎ ቹ
▁እድ ገት
ለው ን
ሳተ ፍ
▁ሀ ብ
▁ተከት ሎ
ዲ ያው
o n
▁ል ምድ
ን ነት
▁አልነበረ ም
ጀመ ረው
ጠቀ ሙ
▁አንፃ ር
▁አመ ት
▁2 4
ፎር ሜሽን
ነጋ ገር
▁አዋ ጅ
ን ቲ
ቆጣ ጠር
▁የተ ባ
▁የ ገንዘብ
▁ብ ል
ም ስት
▁ ቶ
▁ዘመ ናዊ
▁ታላ ቅ
ከ ሉ
▁ማ ለ
. ኤ
ለ ል
▁ክለ ቦች
ጻ ሚ
ገል ግሎ
▁ለ ወ
▁የሚ ባል
▁በተ ያያዘ
▁ባ ሕ
ቀር ቡ
▁ከ ግ
▁የ ድር
▁እንግ ዲህ
▁አለ ባቸው
▁በሁ ለ
▁ለ ሕ
▁መ ኖር
▁ደ ረ
▁ከሌ ሎች
▁ ጅ
▁የወ ጣ
ሙ ር
ሮ ቹ
▁ግ ራ
▁በዓ ል
▁እያ ንዳን
ዎቹ ን
▁የ ፋ
ቡ ር
▁የ ዳ
▁ያለ በት
▁የሆነ ውን
▁ያ ላቸውን
▁ሻ ምፒዮ
▁ሊ ግ
ቀ ስ
▁ጦር ነት
▁ጥያቄ ዎች
ሳተ ፉ
▁ሰ ዎችን
ሔ ር
ሬ ታ
▁መ ጀመሪያ
▁እንደሚ ችል
ገ ትና
▁ምክ ትል
▁የአ የር
ን ጉ
▁ግ ብር
▁የመ ን
▁ገ ጽ
ዋ ት
▁የቀ ድሞ
▁ማህ በር
▁የአ ንድ
ዓ ዊ
ሎ ስ
ሮ ው
▁የሚ ገባ
▁ጥ ቃት
ር ቶ
▁ሥ ልጣን
▁ዕ ው
▁ ጳ
▁በ ስተ
▁በ ጀት
▁ሕ ይወ
▁በ 201
▁ተ ነ
▁እን ድን
▁እንዳ ለው
▁በ ከፍተኛ
▁ክል ሎች
▁የሚ ሉት
▁አም ባ
▁የማ ስ
▁2 1
▁ከ ል
▁ዘ ገባ
ገራ ቸው
በ ራ
▁የ ዋ
▁ያደር ጋል
ቻ ለ
ሰ ል
▁ባህ ል
▁አለ ኝ
▁ግ ልጽ
▁ክፍ ሎች
▁አማካ ኝነት
▁ቀ ላል
▁ዳይሬ ክተር
▁የሚ ችሉ
▁የተ መ
▁ከ ብ
▁ች ሎ
▁አ ነስተኛ
ቃ ቸው
▁ዞ ን
ሳ ኝ
የ ሁ
▁አኳ ያ
ስተ ካ
▁ተቃ ዋሚ
▁የሚ ገኘው
ኮኖ ሚያ
▁ይ ቅር
▁ዕ ቃ
▁ተ ደራ
▁ዳ ር
▁ለ ዘ
▁አስተ ሳሰብ
▁የስ ፖርት
e r
▁2 2
▁መ ላ
▁አ ወ
ጨ ት
▁ጠ ብ
▁የተለ የ
▁ክርስቲ ያ
▁በ ከተማ
▁የሚ ሉ
▁ ጊ
▁ኢትዮጵያ ውያን
ከ ው
ዴ ሞክራሲ
▁ከእ ነዚህ
▁ፍ ሬ
▁የ ቤት
▁ሆ ስፒ
ዳ ጊ
▁መ ጨረሻ
▁የመ ጣ
▁ይ ቀ
▁እንደ ሌ
▁ይ ፋ
ነ በ
ዋ ለሁ
▁የ ጉ
▁የ ቅ
▁ብ ቃት
▁ተጠ ቅ
▁ዝ ቅ
▁ትክ ክለ
ገ ም
a n
▁ተ ፅ
ል በት
▁ደ ስታ
ለ ቀ
ጣ ጥ
▁አድር ጓል
ሐ ፊ
▁አ ዎ
ራ ቴ
▁በ ኦ
ኛ ሉ
ለ ኛል
▁አ ህ
▁ግን ዛቤ
ዝ ግ
ህ ነት
ጉ ን
▁ጣ ቢያ
▁ያ ደረገ
▁ገ በ
ው ው
▁ ሦ
▁አስ ቸ
ካሄ ደ
▁ሚኒስት ሩ
ፈ ጠር
▁ጠቁ መዋል
▁እ ርስ
▁የዕ ድ
▁አ ራ
i n
▁ትምህ ር
▁ከ ታ
▁አለ ማ
▁ት ዕ
ገለ ጸ
▁ተ ጠና
▁አ ጠና
▁አቋ ም
▁መል ክ
▁ስ ድስት
ዬ ን
▁መ ክ
▁ይታወ ቃል
ር ባ
▁ነዋ ሪ
00 0
ዎች ም
▁ፕሮጀ ክት
▁ም ሥ
▁ማ ንም
▁ሰ ላ
▁ተከ ታ
▁የም ግብ
ለ በት
ወ ገድ
▁ለ ስ
▁መፍት ሔ
ቁ ም
▁እድ ል
ግባ ብ
▁ውድድ ሮች
ራ ችን
▁ክ ፉ
▁ቡ ና
መለከ ተው
ቀ ድ
▁ገ ብረ
▁ ኑሮ
▁ችግ ሩ
አ ብ
▁መ ቆ
▁አመራ ር
ሥ ራት
ጦ ች
ስተ ር
▁ፕሮግራ ም
ጋ ጥ
ዳዳ ሪ
ር ሶ
ድ ብ
▁የሚያ ደርጉ
▁ተቋ ማ
ረ ታ
▁ተ ያይ
ኮኖሚያ ዊ
▁ክፍ ለ
5 0
▁ይ ባ
▁ም ናል
▁በታ ች
ፈል ገው
▁ለዚህ ም
ዳ ቤ
▁ዝ ም
▁ይ ዘው
▁ማለት ም
▁ላ ለ
▁ሪ ፖርት
▁እ ህ
▁እ ኩል
ድረ ስ
▁የ ጦር
▁ጌ ታ
ቻ ሉ
ቀጥ ል
▁ ዩ
▁ተ ጋ
▁ው ኃ
ዷ ል
▁ተ ሰጥ
▁ጥ ራት
▁የነበሩ ት
▁ይገ ኛሉ
ዳ ው
▁ሳ ያ
▁በቀ ላሉ
▁አሸ ናፊ
▁የ 1
▁እስ ራ
▁በ ኮ
ጠ ረ
ጻ ጸ
▁አ ደር
ነ ታቸውን
ጠ ዋል
ራዊ ት
▁ፈ ጥ
▁ሁለ ቱ
ም ረት
▁ስ ህ
ረ ቱ
መ ዝ
ሳ ን
▁ክፍ ያ
▁እንደ ማ
▁የሚ ተ
▁ምን ጭ
▁መ ሪዎች
▁ማስ ታወ
▁ዴሞክራሲ ያዊ
▁ኖ ሮ
t h
▁ግ ዴ
ዶ ቹ
▁ ዐ
▁እን ስ
ፈል ጋ
▁እ ቅድ
▁ስር ዓት
ይና ንስ
▁ክ ብር
▁ያ ስተ
▁2 3
ፃ ናት
▁ጠ ይ
▁ ፌ
▁ም ንድን
▁አስ ረድ
▁ም ሁ
ወጣ ው
▁ለም ንድን
▁እና ም
▁ከ ቀ
▁ስለ መ
▁የሆኑ ት
▁ ጀመር
▁ቁ ር
ከላ ከያ
ብ ብ
▁መ ሸ
▁ለመ ስ
▁ነ ፍ
ደ ኛው
ተ ናል
▁የእ ር
▁ለመ ሆን
▁አማ ራጭ
▁ዘ ዴ
ባ ረ
▁ለመ ፍታት
▁ሰሞ ኑን
ዎ ስ
▁ከዚህ ም
▁ም ግባር
ርስ ቶስ
▁ማ ራ
▁ሪፖር ተር
ራ ር
▁ታው ቋል
▁በ ስፋት
ኒ ት
ታ ን
▁የመ ስ
▁በ ይ
▁በ ምን
▁ማ ቴ
ች ግ
ጠ ውን
▁ማ የት
▁ገል ፀ
▁ተ ዋ
ቀመ ጥ
ደ ሰ
▁ም ቹ
ታ ችንን
ካ ሂ
▁ል ን
▁እ .ኤ
ሰ ስ
▁መንገ ዶች
ኔ ት
ወ ድ
ከናወ ኑ
▁ራ ሱ
▁የበ ላይ
▁ሠራ ተኞች
▁ኢትዮጵያ ዊ
▁የማ ህ
▁በራ ሱ
▁እ.ኤ .አ
▁ሰ ን
▁ዝ ር
▁ሰ ይ
▁የመ ሰ
▁ቦታ ዎች
▁በተ ደጋጋሚ
▁ባለ ሀብ
▁አዳ ዲስ
▁ቅ ሬታ
ለ ጥ
▁ተ ን
ርት ራ
ሞ ላ
▁መንግሥ ታት
ቡ ና
▁አሠራ ር
ቆ ጥ
▁ያ ቀረ
▁የ ቱ
▁ለመ ስጠት
▁አይ ችልም
ሴ ን
▁ጀ ም
▁ል ት
ጠናቀ ቅ
▁የመጀመሪያ ው
ን ፃ
▁ወን ዶች
▁መሥ ራት
▁ስ ደ
▁ሰ ራ
▁ሆ ይ
ብ ቶ
▁በመ ስጠት
▁አ የር
▁ኃይ ሎች
ፈጠ ረው
ዚ አብ
▁በ ፈ
▁ቀ ድሞ
▁ወ ሳኝ
▁የም ርጫ
▁ተጠ ያቂ
ገልግሎ ት
▁ዝ ና
ወሰ ን
መ ነ
ተ ኝነት
▁ም ልክ
▁መ ቅ
▁ደ ቡብ
ግ ም
▁ይመስ ላል
ቱ ና
▁የግ ድ
▁ዋ ናው
▁በማ ሳ
▁ሁሉ ንም
▁የ ያዘ
▁ሰ ለ
▁ወ ል
ላ ቅ
ኒ ክ
▁ ጃ
▁ነዋ ሪዎች
ሳ ካ
▁ይሄ ን
▁ክ ት
▁አ ጀ
▁ከኢ ትዮጵያ
ጨ ባ
▁ችግ ሩን
▁ተ ጽ
▁እንደ መ
▁በ ቃ
▁ያሉ ትን
▁ ሹ
ጁ ን
▁ኤ ጀንሲ
ቲ ክ
▁መሳ ሪያ
▁የሚ ችለው
▁ተደር ጎ
ጠ ሩ
▁ክለ ብ
▁መ ዛ
▁ሞ ት
▁የሚ ሆን
▁ልዩ ነት
ጠ ኝነት
t i
▁ሱ ዳን
▁የው ሃ
▁የሚ ገል
ክ ተ
▁መ ጻ
▁ማህ በራዊ
ለ ቅ
ና ይ
▁በመ ጠቀም
▁ኢ ኮኖሚያዊ
▁እንደ ገና
▁ይ ጠበ
ገሪ ቱን
ረ ፍ
ታወ ቅ
ከተ ል
▁ማን ኛውም
▁እያ ሉ
▁ግድ ብ
ዘጋ ጁ
▁ማስ ረጃ
▁ያ መለክ
ሳ ው
▁አብ ሮ
ጓ ዝ
▁የ ሐ
▁20 1
ዲ ዮ
▁አትሌ ት
ኒ ያ
▁አይቀ ርም
ረ ዱ
ጡ ን
▁ስለ ተ
▁ኢን ተር
ች ሏል
▁ገ ባ
▁የ ደረ
▁የ ቤተ
▁ራ ሳቸውን
▁ ሒ
▁በማ ን
ድ ድር
ቂ ቃ
ሊ ምፒክ
▁መ ፍ
▁ስራ ዎች
▁ያ ገኘ
ማ ሉ
▁ችግ ሮችን
ራቴ ጂ
▁በ ሥራ
▁ይ በ
ደር ሱ
▁ሊ ቀ
▁በመ ተ
ድር ሻ
▁ንግ ግር
▁ት ግል
▁በ ሃ
▁ሰ ማ
ታ ም
▁መረጃ ዎች
▁እና ት
ሞ ን
ህ ፈት
ታ ለች
▁ሕ ዝቦች
▁በ ሶ
ም ሩ
ከ ናው
▁አ ጠ
ችላ ለን
▁እ ሱም
ንግ ሊዝ
ላ ቸዋል
▁ተ ሞክ
▁የመ ጽሐፍ
▁እን ችላለን
ቁ ን
▁አ ረጋግ
▁ሙ ስና
ጉ ት
ሸነ ፍ
▁ድርጊ ት
▁ተቀ ም
የ ሩ
▁ታ ይ
▁ወገ ኖች
ማ ራ
ድ ና
▁የ ጋ
▁ጉባ ዔ
▁እንደ ምት
▁እንዳለ በት
ፋ ል
ጠ ነ
ስተ ና
ክ ታር
▁በግ ልጽ
መ ቻ
▁ተቀ ባይ
ያን ስ
▁ኃይ ለ
▁ዘንድ ሮ
ላቸው ም
ታ ችሁ
▁ያ ም
▁ቡድ ኖች
▁መንግ ስ
▁ምር መራ
▁ደብ ዳቤ
ት ነት
ቆጠ ሩ
▁አድ ማ
ላ ስ
▁የመ ጨረሻ
▁ህ ዝቦች
ከ ን
▁ለ ራ
▁ብሄ ራዊ
▁ህ ክምና
▁ካል ተ
▁የመ ሳሰ
▁ሥ ልጠና
▁ከ ህ
▁ይጠበ ቃል
▁እር ግ
ፏ ል
▁በሚ ገባ
ሯ ቸው
▁አባ ት
▁ሊ ያስ
▁ዓመ ቱ
▁ተቀ ብ
ው ሞ
ው ስ
▁መ ግባ
▁ጳ ው
ሮ ን
ቅር ብ
▁በሁ ሉም
▁እነ ሱ
▁መሠ ረታዊ
▁አል ቻ
▁ገል ጿል
ሪ ዝም
▁የተ ፈጥሮ
▁መፍት ሄ
ሊ ት
▁ ዱ
▁ለማሳ ደግ
ሰ ጣቸው
ላ ለች
ረ ፈ
▁ወ ዘ
▁ደ መ
ሰ ጠ
▁በ ኤ
ማ ቸውን
▁ጋዜ ጣ
▁ከ ላይ
ም ባ
▁ተ ር
ዋ ዕ
ቀ ደ
ቀ ፍ
ዋ ቸው
▁በመ ጨረሻ
ረ ሰቦች
▁አ ዛ
▁ ኋላ
ረ ግ
e n
ግራ ይ
ቻ ልም
ጊ ያ
▁ኩባንያ ዎች
▁እር ዳታ
▁በ ሰው
ሁ ዳ
ነ ህ
ሟ ላ
ማ ረ
ዘ ዋ
መለ ሱ
ማ ግ
ዋ ቂ
▁ነጋ ዴ
▁ዜ ና
ሻ ል
▁ቀ በሌ
▁ ቲ
▁የተ ቀመ
▁መሆኑ ንም
▁ሰ ባት
▁ባለ ስ
▁ሆ ና
ጠ መ
▁መ ከራ
ራ ሪ
ዘጋ ጀት
▁በእ ነዚህ
▁ሶ ስት
▁ባ ሉ
ንቃ ቄ
▁እንዲያው ም
▁ወደ ፊት
▁መስ መር
ጣ ቱ
▁እንደ ገለጹት
ናገ ሩ
ት ሌ
▁መ ኪና
▁ኢትዮጵያ ን
▁ ሬ
▁ተ ገኝ
▁ወዘ ተ
▁አይደ ል
▁እንዲ ሆኑ
▁የግ ብርና
▁ከሁ ለት
ፈ ተ
▁የሚ ባለው
▁አ ዝ
▁የሚ ገኝ
▁ነገ ሮችን
▁የ ባለ
ደ ና
▁ም ርምር
▁ህ ግ
▁በሁ ለት
▁ፈ ጽ
ሮ ፕ
ፋ ን
ጣ ሉ
ቃ ሉ
ዮ ር
▁ብ ን
▁እ ሷ
▁የሚ ሆነው
▁2 6
▁የግ ብ
▁ሁኔታ ዎች
ቻ ለሁ
▁መ ጠቀም
▁ት ች
▁ም ና
▁ለአ ንድ
▁የ ቦ
▁ምክንያ ቶች
ፈጠ ሩ
▁ሻምፒዮ ና
▁ይ ሰማ
▁የ ክልሉ
▁እንደ ሆኑ
▁እንዳ ሉት
▁በ ትምህርት
ሃ ብ
▁ታ ስ
ችኋ ል
▁ምር ጥ
▁ዋ ስትና
▁ይመስ ለኛል
▁አሰራ ር
▁ተያይ ዞ
ፋ ቸው
ማግ ሌ
▁2 8
▁ይ መ
▁ያ ደረገው
በር ካታ
▁ለመ ከላከል
▁አ ጠቃላይ
ዳ ማ
▁የ ኃ
▁ታ ማኝ
ሠ ረተ
▁ከ 3
▁ባለ ቤ
▁200 8
, 000
▁ሁለ ተኛው
ዚአብ ሔር
▁የ ቢ
ላለ ፍ
ኒ ልክ
▁መንግሥ ቱ
ው ሰድ
ቀ ን
▁ት ና
▁ይታወ ሳል
▁ትራንስ ፎርሜሽን
ላ ሴ
▁መ ሀ
▁እያ ደረገ
ሰማ ሩ
▁ጥ ላ
▁አይ መስ
▁አስመ ልክ
▁ጥ ሪ
ናገ ረው
ር ፍ
▁በብ ዙ
▁አጀ ንዳ
ስተ ው
▁የ ሶ
▁ተፅ ዕኖ
ን ክ
▁መ ወ
የ ን
ጅ ቱ
▁ነ ን
▁ማ ጣ
ባ በር
▁ትክክለ ኛ
▁ነፃ ነት
ኘ ት
▁ጳው ሎስ
▁ባህ ር
▁ገልፀ ዋል
▁በ ሥ
ዳደ ሩ
▁አስቸ ጋሪ
▁ቀ ጠ
▁ዕ ለት
ገለ ግ
▁ካ ለው
ስራ ኤል
▁ር ቀት
▁አን ዲት
▁በአ ካባቢው
▁አስረድ ተዋል
ሕ አዴግ
ደ ድ
▁በየ ጊዜው
ነ ሰ
▁ስት ራቴጂ
ና ሉ
▁በ ዋና
ጴ ጥ
▁የሥ ነ
▁መሰ ል
▁ደ ቂቃ
▁መል ዕ
▁እየ ሰራ
▁ወ ገን
▁ያህዌ ን
▁መ ዳ
▁ይ ፈ
ፈለ ግ
▁ኮሚ ሽን
▁ማ ወቅ
▁ጽሑ ፍ
▁ለኢ ትዮጵያ
ጨባ ጭ
ብ ብር
▁ ቂ
▁2 7
▁በ ክልሉ
ቆ ይ
▁ሕ ዝ
▁በት ክ
ጠ ኞች
▁ወ ዲያው
▁ዘር ፎች
▁ ጀመረ
▁አመራ ሮች
ዓ መቱ
ሔ ራዊ
ች ና
ረ ገ
▁መለ ስ
▁እስ ቲ
ኒ ው
▁አቅር ቦት
▁ይ ደረ
▁ህ ይወ
ባ ር
▁ዋ ነኛ
▁ባለ ፈ
▁ቤተ ሰብ
መ ጥ
▁ግን ቦት
▁ጠ የ
▁ተወካ ዮች
▁ከ 2
▁የኢን ዱስትሪ
▁ተብ ሏል
ሬ ን
ጋ ና
▁ለማ ወቅ
▁ጠ ቃሚ
▁ሜዳ ሊያ
▁ሙ ዚቃ
▁መሆ ናቸው
ን ሰር
▁ከው ጭ
▁ታ ሪካ
ገኘ ውን
ድ ድሩ
▁እያ ስ
▁ወይ ስ
ንዳ ንድ
▁እኛ ም
ደ ማ
ዛሬ ው
▁ዛሬ ም
ም ራት
▁የማ ያ
▁በአ ብዛ
ነ ቅ
▁በ ፊ
▁ግ ምት
ቻ ለው
ያ ለሁ
▁ተመ ልክ
▁ተሞክ ሮ
ች ውን
ኖ ችን
▁ብዙ ም
▁አን ስቶ
▁እንደ ም
▁ሰ ጪ
▁በተ ግባር
በ ሳ
▁ሐ ሳ
ፍ ራት
▁ወን ጀል
▁ፈ ጣን
▁ት ግ
ላ ውያን
ፓር ቲ
▁ቁጥ ጥር
ቃ ወ
▁አንቀ ጽ
ች በት
▁የወ ን
a l
▁የተ ባለ
ብ ሮ
▁አንድ ም
▁የወ ርቅ
ቁ ር
ኖ ርም
▁ከ ሕ
▁በመንግ ሥት
ጀ ምር
▁እንዳ ሉ
▁ይ ወ
▁ም ሥራ
▁በመ ን
▁ዘ ላቂ
▁በእ ጅ
▁በ ፕ
▁ፌዴሬ ሽን
▁በደ ቡብ
▁ያስ ረዳ
ል ድ
▁እየተ ደረገ
o r
▁በ ዋ
▁ጓ ደኛ
▁ተ ችሏል
▁በአ ገራችን
▁ጊዜ ያት
▁ሲ ሆኑ
▁ተደር ጓል
▁መድ ኃ
▁አን ደኛ
▁ደ ህን
▁ለ ጥ
ዥ ን
▁የ ፌዴራል
▁መንፈ ሳዊ
▁የተ ጠቀ
▁ማህ በራት
መ ኑ
ከ ሩ
ራ ፊ
▁አድ ራ
መ ሩ
▁ስ ቴ
▁የሕ ግ
ሪ ሚ
▁ስ ጋት
ሬ ዚዳን
▁ ጴጥ
▁ነው ና
▁መ ፍጠር
▁ከመ ንግ
▁ይናገራ ል
ማ ሩ
▁ይ ነ
ህ ም
ተ ኞችን
ፍ ቶ
▁እንዳል ሆነ
▁ለማ ለት
▁በየ ዓመቱ
▁ፕሮጀክ ቶች
▁አል ባ
▁አ ዲሱ
▁ከ ጊዜ
▁ፖለቲካ ዊ
ፕ ሎ
ግለ ጽ
ሳ ሽ
ላ ሚ
ገባ ት
▁ፖሊ ስ
▁የ ሰብ
ሏ ቸው
▁ሰ ም
▁የሚ ኖሩ
▁ለሌ ሎች
▁በ ዘርፉ
▁ት ልቁ
▁ሀ ሳብ
▁የሚያ ደርግ
▁ማህ በረሰብ
▁አስ ኪያ
▁ሆቴ ል
ከናወ ነ
▁በ ፖ
▁የ ፊ
▁ታ ሪ
ባ ኤ
▁ሃ ሳ
▁ይጠ ይ
ካ ተ
▁የሚያ ው
▁የሚሰ ጠው
ሳ ችን
ው ጣ
▁ዳ ዊት
▁አመልክ ተዋል
▁አ ዘጋጅ
ጫወ ት
ጨ በ
ቢ ው
▁ህ ብረተሰቡ
ዘጋጀ ው
ይ ታ
ች ም
ረ ር
▁የእ ግር
ከተ ለው
ታወ ቀው
▁የ ሠ
▁በቀ ጥታ
ንባ ታ
▁መ ስተ
▁ላይ ም
ውን ም
▁ይገልጻ ሉ
▁የ ዜ
▁ለ ሰ
▁ሕ ክምና
▁መጥ ፎ
▁ግ ል
▁ባለሥ ልጣ
ደበ ኛ
ስ ተኛው
▁ል ም
▁ [
ማ ሊያ
ይ ቱ
▁ኤ ል
▁ያለ መ
መጣ ል
▁ነ ጥ
▁ድን ጋ
▁ተመ ራ
▁የ ደረሰ
▁ሽ ማግሌ
ሳ ስ
▁ ]
▁ግለ ሰቦች
ፈለ ገው
ኬ ት
▁ማ ብራ
▁ቢ ያንስ
▁2 9
▁ተ ል
▁ደግሞ ም
▁በግ ል
ነ በሩ
በ ራቸው
▁አስ ቀ
▁በ ያህዌ
▁የአ ውሮፓ
▁ ሣ
▁አ ና
▁መ ፅ
▁ ጂ
▁ክርስቲ ያን
ደ ቅ
ረ ኛ
ዶ ችን
▁አለ ች
ሕ ፈት
ደ ስ
ብ ቅ
▁አስተያ የ
▁ስህ ተት
ላ ንድ
▁ሆስፒ ታል
▁አን ጻ
▁4 0
▁አ ያስ
▁መል እ
▁ብ ዛት
▁ስለ ነበር
ኘ ው
ፃ ፀ
▁አ ግባብ
ንድ ነው
ግ ዳ
▁ሚ ዲያ
▁ተ ፈጥሮ
▁እ ሱን
▁ቡድ ኑ
▁ጓ ደ
▁እ ዚያ
▁በ ሐ
ላ ትን
▁አስፈ ጻሚ
ዋ ሳ
ጀ ር
▁ክ ስ
▁ጠ ቀ
▁አመ ታት
▁ሰጥ ቶ
▁አም ራ
▁ፕሮ ፌ
ጨ መረ
▁ተ ነስ
ዳ ም
ጣ ኝ
▁አ ለም
ይ ነት
ብ ናል
ተ ኮ
▁እንደሚ ሆን
ለ ድ
ረ ጅም
▁ስ ሙ
ለ ጋ
▁ግ ም
ባ ባይ
▁በ ን
▁ስለሆነ ም
▁ስ ላል
ንስ ሳት
▁መስ ክ
ወ ራ
▁አይ ገባ
▁ጨዋታ ዎች
ቅ ዱ
▁ይባ ላል
▁ከ ራ
▁የሚሰ ጥ
▁ደን በ
ስተ ዋል
ታ ዎች
ሆ ና
ሸ ት
▁ጫ ና
ኤ ላውያን
▁አደ ሩ
ከሰ ት
ለ የ
ክ ቶ
ገ መ
▁እየ ታ
▁ብ ድር
▁በአብዛ ኛው
ጋቢ ት
▁ወር ቅ
ጫ ው
▁ደጋ ፊ
ገል ገል
ሰ ቦ
▁በ ድር
▁አንድ ነት
▁ማ ጥ
▁ካ ር
▁ሃ ላፊ
ረዳ ው
▁ ዳን
ኖ ረ
▁ኃ ጢ
ለ መ
▁በፍ ጥነት
ከ ቱ
ና ሽ
▁ቋ ሚ
ለ ብ
ኳ ር
▁ምዕራ ፍ
▁ሚ ስት
ብር ሃ
ና ንተ
▁ፋ ይ
▁ይ ጠበቅ
▁የ ገለጹት
▁ወይ ንም
▁እው ቀት
መለከ ቱ
▁200 7
▁ወ ሬ
▁የሚ ቀ
▁አትሌ ቲክስ
▁እውነ ተኛ
ዞ ኑ
▁ኬ ንያ
ዛ ው
ድ ሜ
▁አ ደረጃ
▁እነ ሱም
ፕሎ ማ
▁ደ ራሲ
ፈለ ገ
▁በነ ፃ
▁ከ1 9
▁አስመልክ ቶ
▁ ሎ
▁አ ታ
▁ጠ ባ
ካ ይ
▁ስ ና
▁ቀ ዳሚ
▁አለ ብን
ሪ ስ
በ ስ
▁ክርስቲያ ኖች
▁ተቀባይ ነት
▁ሥራ ው
ሬ ሽን
▁አ ረ
▁ከ ደ
▁በ ቆ
ካሄ ዱ
▁የ ኪ
▁ሀገ ራት
ኑ ት
▁መጻ ሕ
▁5 0
▁አፈ ጻጸ
ሊ ያን
ስት ራክ
▁ተ ሰማ
ዳ ዩ
▁እንዳ ስ
▁ቀር ቶ
▁እንዳለ ባቸው
ቅ ን
ያ ቸውን
▁ ቫ
▁መስ ሪያ
▁መሥ ሪያ
▁ይኸ ውም
e s
▁ተወ ዳዳሪ
▁የ ሲ
ያ ሉ
እ ምሮ
▁ከ ት
▁የአ ካባቢ
መዝ ገብ
የሩ ሳሌ
ለ ታል
ሪ ንግ
ሪ ት
▁ ቪ
▁ት ስ
ታ ና
ሰ ቢያ
▁መ ገናኛ
በረ ሰቡ
▁በኋላ ም
▁አው ጥ
ዮር ጊ
▁ወ ዳጅ
▁ሰ ላማዊ
▁የህ ክምና
▁መ ጨ
ቃ ሽ
▁ው ስ
▁ድርጅ ቱ
ሌ ቪ
▁ጠቀ ሜ
▁ማ ዳ
▁ ​
▁አገ ራዊ
▁ካ ሳ
ደገ ፍ
▁በሰ ጡት
▁የደ ቡብ
ኬ ሽን
ጉ ር
ፖር ቱ
▁ሠ ር
▁የሌ ለው
▁ተብ ለው
▁መ ጽ
▁ቀ ና
▁ያ ሰ
▁የተ ቃ
ላ ለም
▁ቀ ጣይ
▁በም ት
▁የኤ ሌክትሪክ
▁ርዕ ስ
▁ሺ ሕ
▁በመ ሆናቸው
▁የ የ
ህ ር
▁ለ ግ
▁ለ ሚያ
▁በ ጋ
መለከ ታቸው
▁ዙ ር
ን ቶ
▁የሚጠ ይ
ፃ ሚ
▁ይ ጠቀ
ሊ ክ
▁መ ገለ
▁ደን ብ
ል ቃ
▁በው ጭ
▁ብዙ ኃ
ሌ ት
ነ ብ
▁መ ሐ
ዚ ያን
▁ለመ ፍጠር
ላለ ህ
▁ማብራ ሪያ
ሸ ጋ
▁ይህን ኑ
▁ጉዳዩ ን
▁ሲ ነ
▁ለ ሙ
▁አይ ቻልም
▁ፈ ር
▁ክፍ ተት
▁የተ ሳ
▁ገን ዘ
▁ህ ዝ
ያን ዳን
ማ ማ
▁ክ ር
▁ትክ ክል
▁መጠ የ
▁የግ ን
▁ለ ገ
▁ለማ ረጋገጥ
▁ማ ቅረብ
▁ሥ ጋ
ገ ማ
ረ በ
▁ይኸ ው
ለ ሽ
▁በ ቦ
▁ ጤ
ወሰ ነ
▁መኖ ሪያ
ዮ ችን
▁የሚ መጣ
▁አስታው ቀዋል
ን ታዊ
አ ዊ
ከ ም
▁ ፒ
i s
ሻ ው
▁ም ሽ
▁በኢ ን
ፎ ካ
ጋ ሉ
▁አደ ሮች
▁ይደረ ጋል
ሲ ያ
ዛ ል
ፈ ዋል
▁ካ ሉ
▁ወታደ ራዊ
▁ም ኒልክ
▁ስለ ሚያ
▁እንዳ ያ
▁ሄ ደ
ከ ረም
▁ኮ ር
ካ ች
▁ኢን ቨስትመንት
ኑ ም
ጣ ዩ
▁አብዛ ኞቹ
▁በየ አ
▁በአ ሜሪካ
ነ ውን
▁ዕ ርምጃ
▁የ ዲ
▁ግዴ ታ
ሊ ና
ክ ሮች
▁መ ገኘ
▁የተ ወ
▁የመንግ ሥ
ቸው ም
▁በተ ለያየ
▁ክ ስተ
▁ሃ ይ
ድ ሶ
▁የ ን
▁ማ መን
ከ በረ
▁ ኑ
▁አ ያው
▁ብሔ ር
▁ስር ዓ
▁ይ ረዳ
▁ፀ ረ
ኩ ን
▁የአ ን
ና ቱ
ድ ቅ
▁በ ድን
▁የሚያ ሳይ
ሾ ች
▁መ ዘ
▁ጥ ፋት
▁ከአ ዲስ
▁ስ ምንት
▁ቀ ይ
▁አንጻ ር
▁ሃ ይማኖ
▁መዝ ሙር
ስትራክ ሽን
ፈ ሩ
▁ፊ ል
▁የ ጽ
▁አይደ ሉም
ጥ ን
ቆ ር
ክ ኒክ
ለ ዋ
▁መንግሥ ታዊ
▁ይኖር በታል
▁አን ደኛው
▁ ፉ
▁ባለ ድርሻ
▁ሌሎች ም
መዘ ገቡ
ጹ ም
▁መቼ ም
▁ያ ነሳ
▁የአ ገሪቱን
▁አሰልጣ ኝ
▁ለ ቀ
▁ ፦
▁የ ዴሞክራሲ
▁ተናግ ሯል
ጪ ው
▁የ ሸ
▁የተ መረ
▁እያንዳን ዱ
▁በስተ ቀር
▁ለ ጎ
▁የወ ሰ
▁ቆይ ቷል
▁የእ ኛ
ወስ ድ
▁ዘመ ቻ
ብ ነት
▁አቀ ፉ
ስራ ቅ
▁ገብ ቶ
▁ሰ ኔ
ማሪ ዎች
▁ዜ ጋ
▁ያመለክ ታል
ሞ ችን
ገን ዝ
▁ኅ ብረት
▁ሽ ልማት
a r
▁ብሎ ም
▁እንደሚ ሉት
▁ምናል ባት
▁አ ጠቃ
▁አገል ጋ
▁ክ ን
ፈ ታ
▁አ ሳይ
ከ በ
▁ብር ሃ
ሊ ን
▁አማ ራ
ፈ ጽ
▁ክ ብ
▁ሂ ደ
መዘ ገበ
▁በ ቴ
▁መ ሬ
ዮ ቹ
▁ሁ ል
▁በ ዳ
▁አቅ ራ
ብ ቻ
▁አ ሻ
▁የተ ናገሩት
▁አገ ሪ
ደ ሩ
▁ካል ሆነ
▁ተ ጨዋ
▁በተ ካሄደው
▁ሥራ ውን
▁ሳይ ንስ
ዳ ሉ
▁በማ ህ
ባባ ሪ
ር ሱ
▁ዘ ግ
▁የገ በያ
▁ባህ ላዊ
▁ለመ ጀመሪያ
▁የካ ቲት
ሎ ምፒክ
▁በ ጽ
▁ይጠ ቁ
▁የ ገባ
▁ዝና ብ
▁ተ ስማ
▁እኔ ን
ሐ ይ
▁ ጄ
ላ ቱ
▁የተ ከሰ
ር ነት
▁መል ሶ
ጋ ጠ
▁ግ ርማ
▁የሚ ገ
▁አብ ረው
ሠራ ው
▁ቀጥ ሎ
▁በትክ ክል
ኳ ይ
▁በ19 9
▁ል ጃ
▁ታ ዳጊ
▁ th
▁ስ ጦ
▁በመ ካ
▁ያሳ ያል
▁እ ራ
▁መ ደረጉ
▁ማሳ ያ
▁በ ኃ
▁ጊዜ ም
▁ገለ ጻ
ለ ናል
▁ ሔ
▁የማ ን
▁የ ላ
▁የሚ ቆጠሩ
▁እየ ሆነ
▁የ ሆ
▁መ ገ
▁የሰ ላም
▁ይሰ ጣል
ጎ ችን
▁ሆነ ዋል
▁ሙ ከራ
▁ዝግ ጁ
▁ኮ ሌ
▁ሄ ክታር
▁ለ ይ
▁የሚ መራ
▁በው ስ
ን ታ
▁በደ ንብ
ል ኮ
▁የ ሴ
▁መ ናገር
▁ሲ ያስ
▁የተ ባሉ
▁ጥ ቃ
▁ከተ ለያዩ
▁መ ባ
ነሳ ት
ግ ሪ
▁ተ ነሳ
ሰማ ይ
ክል ል
▁ ሆኑ
▁ከ ሆኑ
▁አለመ ሆኑ
ጥ ፍ
▁አይ ሆንም
▁የእ ኔ
▁ ኡ
▁አ ሠ
▁ች ሏል
▁የፋ ይናንስ
▁በ 2
▁አስቀ ድሞ
ዝ ነስ
▁መ ኮ
▁ግ ዙ
▁ፈ ል
ዕ ምሮ
▁መ ራ
▁ልብ ስ
ነገ ረ
▁በማ ይ
▁አለ ን
▁አምባ ሳ
ቢ ት
የ ውን
▁ፈ ረን
▁ልማ ትና
▁ይኖ ራል
▁ተደራ ሽ
▁በ ቤተ
▁የው ድድር
▁ፍ ር
▁ብር ሃን
▁በም ድር
ረጋገ ጠ
ግ ግር
ክ በር
▁ከ ፊ
▁ግ ዛት
ጆ ቹ
▁የ ፍት
▁የ ፈጠ
▁እር ግጥ
▁ማ ረጋገ
▁የአምላክ ን
ቶ ቹን
▁ተቃ ውሞ
▁ቅድ ሚያ
▁አን ብብ
▁የማ ድረግ
▁የተ መሰ
▁ጽ ህፈት
ሪሚ የር
▁ማ ረ
▁ለማ ን
ም ረ
▁ስ ነ
ቆ ት
▁መ መር
▁አ ዘ
▁በአ ንዳንድ
ከለ ኛ
▁ግ ብርና
ያስ ፖ
▁የሽ ብር
▁በአ ምላክ
ፍ ረት
▁ ቸ
▁ለ ል
▁የ ኅ
ዮርጊ ስ
ኩ ም
▁ሠ ራዊት
ላችን ም
ስ በው
▁መ ና
▁ጽ ሕፈት
▁ቃ ላት
የሩሳሌ ም
▁መ ሄድ
▁ወደ ሚ
▁እድ ሜ
▁ኪ ራይ
ገለጸ ው
▁መ ደ
▁ይሆ ናሉ
▁ማኅ በር
▁ከአ ን
▁እየተ ሰራ
ያ ችን
▁በ 3
▁በ የት
▁ሠራ ተኛ
▁ስ ልጣን
ሽከር ካሪ
ሸ ጥ
ፅ ኦ
▁በ ርስ
▁በተ ቃ
▁ገ ዢ
ሸ ን
ሙ ና
▁ግ ጭት
▁ፈ ጣሪ
▁ስኬ ት
ባ ማ
▁የም ር
ፈልግ ም
▁የተ ደረገ
ገነ ዘ
▁ባለሀብ ቶች
ክ ብ
ን ታል
▁ት እ
▁የሁ ለ
▁በብ ዛት
▁አስታው ቋል
▁ማቴ ዎስ
ጠ ባ
▁ A
▁ o
ን ዶች
ፁ ት
▁ብሔ ረሰቦች
ድ ሮስ
▁ዘር ፉ
▁ከ ድ
ራንስ ፖርት
▁ካ ፒ
▁አ የ
▁አድር ገዋል
▁ተጠቃሚ ነት
ሴ ፍ
▁ዝር ዝር
ም ረው
▁ምልክ ት
ቢ ሲ
▁ውጤ ቶች
ፈፀ ም
ሟ ላት
▁ቻ ይና
ረ ሱ
▁ሥ ፍራ
▁ወላ ጆች
▁ስ ለም
▁መም ጣ
▁የመን ገድ
ዊ ው
▁ዝቅ ተኛ
ባ ትም
▁ያ ደረ
▁ግ ር
▁ት ዝ
▁ክ ርስቶስ
▁ለመስ ራት
ና ትና
▁እነ ሆ
ድ ግ
▁ያ ኔ
ሊ ስ
ል ቶ
ሰ ና
ቃ ስ
▁ይ ተ
▁ድር ቅ
▁አሳ ል
▁ህ ል
ር ን
▁የ ቁ
▁በ ሳ
▁መ ጋቢት
/ ቤት
▁አ ብረ
▁ከ ጎ
▁መሆ ኗ
▁ትና ንት
▁የ ሩ
▁የለ በትም
ዟ ል
▁ፈጽ ሞ
▁ተ ደ
▁ብዙ ዎች
▁በዋና ነት
▁ሁ ሌ
▁የራ ሱን
ስ ቲ
▁አው ሮፓ
ስ ቸ
▁የ ዛሬ
▁መን ስ
▁ዝግ ጅ
ሌቪ ዥን
ስተ ዳደር
▁በም ርጫ
▁ባ ሉት
መስ ል
ሎ ን
▁አካ ሄድ
▁ማ ሰብ
▁የራ ሱ
▁ተጽ ዕኖ
▁የ ቡ
▁በ ቃል
ያዘ ው
▁ከ ዘ
▁ሥ ልጣ
▁እየ ጨመረ
ሉ ትን
▁በ ካ
▁ከ 4
6 0
▁የሚ ታይ
▁ብ ቸ
ሊያ ም
▁ችሎ ታ
ካ ሪዎች
▁ያስ ች
ሄ ደ
▁አ ሉት
▁መ ከላከያ
ዛ ሪ
▁ቅ ን
▁ወ /
▁እንደሚ ገኝ
▁ዝ ርያ
▁አብ ዮ
▁ጠቅ ላላ
▁ጴጥ ሮስ
▁ሰ ማይ
▁ወን ዝ
▁የሚያ ስተ
▁እንዲያ ገኙ
▁እንድ ታ
▁የመ ሬት
▁አገ ራችን
▁ስም ም
ወሰ ድ
▁ግንባ ር
ገ በው
በ ለ
▁ሰ ዓ
▁መ ቻ
▁መ ጋ
▁ኢ ዮ
▁እያ ሳ
ኬ ንያ
ፈ ነ
▁መ ከላከል
▁እንደ ዚህ
▁ሽ ብር
▁የገ ቢ
▁የሚ ነ
▁ማ ርያም
▁ህ ብረት
▁ምር ቶች
▁ሥራ ዎችን
▁ክፍ ተ
▁ጎ ዳና
▁ቅር ንጫ
▁ነ ጻ
ዝ ዳን
▁መ ጠበቅ
▁ከሁ ሉም
በ ዛ
ነ ታችን
▁የሚ ደረግ
ከ ፊ
ጄ ሪያ
ገሪ ቷ
▁ፌዴሬ ሽኑ
▁ሩ ጫ
▁የ ላቀ
ጊዜ ም
ትን ና
▁ሁለ ቱም
▁ጸ ሐፊ
▁በ ሆኑ
ቋ ረጥ
ን በት
▁አ ፋ
▁እ ውን
▁የወ ደ
ጥ ረ
▁ም ል
ዳ ቸውን
▁አስተዋ ፅኦ
▁ታሪካ ዊ
ዜ አ
▁ደ ቀ
▁ኦ ሊምፒክ
▁በ ቀር
▁ሐ ዋ
▁ይጠ ቅ
▁የ ሴቶች
ባቸው ም
ቀረ በ
ለማ ችን
▁አለ ቃ
▁በራ ሳቸው
▁እንደሆነ ም
ቀ ች
▁ሳ ለ
ጣ ሊያ
▁ፈቃ ደኛ
ንቀሳቀ ስ
▁የኢትዮጵያ ን
▁ሉ ቃስ
ስተካ ከል
▁ያ ወ
ቃ ይ
ገ ዝ
ነ ዋል
▁በ ጭ
▁አን ቺ
ርያ ት
▁ምና ምን
ባ ሪ
▁አምላክ ን
▁ርዕ ሰ
ክ ክር
▁ል ቦ
▁ S
ያ ጭ
ቻ ችንን
ሰብ ሰብ
▁ይታ ያል
▁እንዳ ላቸው
ሳ ቁ
▁ s
▁ተ ይ
ስፋ ፋ
▁በሕ ይወት
▁አስኪያ ጅ
ሰራ ው
ል ት
ዞ ች
▁ ኧ
ገባ ቸው
▁የሃ ይማኖት
▁ተ ተ
▁ው ል
▁ቦ ርድ
ቀ በል
ጥ ጥር
▁ነ ች
▁ለ ያህዌ
▁ያል ሆነ
▁ተ ረ
▁በመ ጠ
▁ም ድ
▁ታ ዋቂ
ለኝ ም
ለ ወጥ
▁ስታ ዲ
▁ከ ገ
▁ፍ ልስ
▁ያለ ፈ
▁አንዳን ዴ
ሬ ዳ
▁ሳ ቢያ
ሁ ፍ
ሃ ት
ቃ ቤ
ፍ ሬ
ሮ ጀ
▁እ ባ
▁ያ ደረጉ
▁መምህ ር
ያ ሜ
▁እያ ደገ
▁ከመ ሆኑም
ፈጸ መ
▁ደህን ነት
▁ለመ ሆኑ
▁በሰ ላም
▁ነገ ሩ
ፍ ታ
▁እው ቅና
ክ ሩ
▁ኃላፊ ዎች
ማ ው
▁ሰነ ድ
ሉ ና
▁ም ንድነው
▁የሚያ ደርገው
▁በሚ ገኘው
▁ደ ሳ
▁ተጫዋ ቾች
▁ወጥ ቶ
▁ስቴ ት
ዳ ሜ
ብ ስ
▁መስ ጠ
▁መው ሰድ
▁ስ ንት
▁አው ሮፕ
ዎ ቻቸው
▁ወንድ ም
▁በሁለ ተኛው
ጓ ዴ
▁አንዳን ዶቹ
▁ወ ሰ
ገ ስ
▁ማራ ቶን
ክተ ሩ
▁በ ላ
ዥ ም
ቡ ቲ
ዕ ቆ
▁ለመ ግ
▁ፊ ልም
ር ዳታ
▁ስለ ማይ
ወ ሩ
ደራ ጀ
ብ ህ
▁ሃ ይማኖት
ጠየ ቅ
▁ተ ጨባጭ
▁ምሥ ክሮች
ቀ ና
ነበረ በት
▁ተገቢ ውን
ም ሌ
▁ጥ ልቅ
▁ገ ፅ
ደ ዋል
▁ድን ገት
ወ ያ
▁በማ ቅረብ
▁የባ ህል
▁ም ት
ለማ ርያም
▁ክ ብረ
▁ወንድ ሞች
▁መ ረ
▁ቀ ረ
▁የበ ኩ
ሷ ን
ጀ ራ
ገ ዱ
▁የሚያ ደር
ረን ጓዴ
▁ይመስ ል
ዛ ን
ኖ ቹ
▁ቆይ ታ
▁ፕሮፌ ሰር
▁ደ ካ
▁አድር ጋ
ረጋ ጋት
ዓ .ም
▁በ ነበረው
▁ሲ ታይ
ጠይ ቅ
▁በ ዛሬው
▁ታላ ቁ
▁ ጢ
▁በ ሞ
መ ናዊ
▁አሳ ስ
▁የተባ በሩት
▁በኦ ሮሚያ
ራፊ ክ
▁ኩ ንታል
ቶ ቻችን
ገ ግ
▁አቅር ቦ
▁በመጀመሪያ ው
▁ቀ ስ
▁ፈ ጠራ
▁የቀረ በ
ባ ችሁ
▁ተመ ር
▁በእጅ ጉ
▁እንግ ዳ
▁ቶ ሎ
▁ጉ ብኝ
ንቀሳቀ ሱ
▁መ ቃ
▁3 1
ች ሉም
▁ማ ታ
ቿ ን
▁ባለሥ ልጣን
ቆ ጠር
▁አ ደረገ
▁ጥ ንቃቄ
▁ጆ ሮ
ቤ ን
ም ም
ጠ ላ
ደረጃ ው
ያ ኑ
ግ በር
▁ድን ጋይ
▁የኦ ሮሚያ
ከታተ ል
ተ ኩ
▁የተ ለያየ
ክ ቱ
▁ባ ስ
▁ኤ ር
▁ሐ ኪ
▁እ .አ
▁ምን ዛሪ
▁ጠ ላ
▁የእ ድ
ጽ ና
ነ ሽ
▁አስ ታወቀ
ጋ ንዳ
ሐ ዊ
▁የታ ሪክ
▁እስራ ኤላውያን
▁ለማ የት
ረጋ ጋ
ሰባ ሰብ
ባ ችን
▁እንዲ ሰ
▁ዘ ጠኝ
/200 8
▁ተ ው
▁የተ ጋ
▁ለመ ገንባት
▁ንጉ ሡ
▁መገለ ጫ
▁ግለ ሰብ
▁ሌ ሎችን
ማ መን
▁እንደ ምን
ፓር ላማ
ፋ ስ
▁የ ኔ
▁ያ ንን
▁ኤ ክስ
▁አደ ራ
ራ ቱ
▁በ ሩ
▁እ.አ .አ
▁ሃ ብት
▁ቅድ መ
▁ትስ ስር
ሜ ዳ
▁ከ 200
ቅና ቄ
▁ ሽን
እ ይ
▁ተራ ራ
▁ቅዱስ ን
ኩ ረት
▁የሚ ከተ
▁ሕ ጋዊ
ካ ን
▁የተሰ ጠው
ሰ በው
▁የ ሳ
▁ክት ትል
▁መ ረዳት
▁እር ሻ
▁የሙ ዚቃ
▁ሕ ንፃ
▁ክ ህ
ቆ ስ
ፋ ው
▁እግ ዚአብሔር
በ ታ
▁የተ ጣ
▁በግ ብ
▁መጻሕ ፍት
ሺ ህ
▁ኢ ሕአዴግ
▁በ ሆ
▁ሃ ያ
▁ w
▁ወጣ ቱ
▁ባሕ ር
▁ገ ዥ
▁የ ሠራ
▁ም ኞ
▁ደሳ ለኝ
ኒ ስት
ድ ም
ጨ ምር
▁ገ ደማ
ማ ች
▁የሚ ገባው
ረ ምት
▁ለአ ብነት
ኖ ሪያ
ሙ ም
▁አ ጣ
▁ተ ዘጋጅ
▁የተ ቋቋ
ላ ቁ
▁በሚ ያስ
▁ስኬ ታማ
▁ጠባ ቂ
ዋ ለን
▁ኢን ጂ
▁ተስፋ ዬ
▁በ ባለ
▁ኮር ፖ
ለ የት
▁የአ ካባቢው
▁ት ብብር
▁በእርግጥ ም
▁ተ ካ
▁ሰብሳቢ ነት
▁ተከታ ታይ
በ በ
▁የ ሙያ
▁በአ ጭር
ያ ም
▁አ ሥር
ን ቱ
▁ ,
ti on
▁ከ ባለ
▁የህ ዳሴ
▁የ ገለ
አ ትር
▁እ ል
▁የዋ ጋ
ጻ ሜ
ታ ኝ
ወ ጣት
▁አስ ር
ለ ለ
▁ያ ደረጉት
▁የ ይ
▁አዳ ራሽ
a t
▁የተ ገኘው
▁ጋዜ ጠኛ
▁ T
▁አይገባ ም
▁ለመ ሥራት
▁እየ ቀ
▁የሚሰ ጡ
▁በመ ላው
▁ያ መ
▁ረ ጅም
▁አድ ና
▁ስጦ ታ
ስ ቀ
▁የሚ ፈልጉ
ዩ ም
ፐ ብ
▁ል ጄ
ጀመ ርያ
▁ለአ ገር
ዕቆ ብ
▁እር ሳቸው
▁ 0
▁ደር ሶ
▁ሥርዓ ቱ
▁ብዙኃ ን
▁በእ ን
▁የሚ ሸ
▁የግ ንባታ
▁የ ኩ
▁ትች ላለህ
▁መ ደበኛ
ገና ኝ
ወ ዝ
▁ይገልጻ ል
▁ላለ ፉት
▁የ ጣ
▁ጥ ፋ
▁ማሳ ደግ
ሮ ም
▁መ ግባት
▁በመ ንፈ
▁ለማ ጥ
▁በራ ስ
▁እንዲ ያስ
▁በየ ደረጃው
▁ ጀመሩ
▁ሳ ት
▁ጠቀሜ ታ
▁ ሾ
ታወ ቁ
▁3 5
ነገ ሩ
ጨ ር
ዛ ቸው
▁የተ ጀመረው
▁ምር ታማ
ሰማ ው
▁ግዙ ፍ
ዩ ን
▁ለሁ ለት
▁ኧ ረ
▁ ሞክ
▁ደ ሞ
▁የተወሰ ነ
ቢ ያው
▁መ ቀመ
▁ማ ረጋገጥ
▁ግ ጥ
▁ C
▁ል ጁ
8 0
ዕ ል
▁የህ ግ
▁ነ ግ
▁ለማሳ ካት
ቂ ቅ
ሰ ለ
▁ሰላ ምና
ጠ ንቀ
▁አ ሊያም
▁ካ ላ
▁የ ጸ
▁ስ ያሜ
ደ ደ
▁መ ጽሐ
▁ለመ ታ
ፓ ን
▁የሚ ገቡ
ለው ጥ
▁ኦ ባማ
▁ከ የት
▁ያስ ታው
▁ል ታ
▁በሚ ገኙ
▁ከ ዓለም
▁ግ ጭ
▁እየ ሠራ
▁አሰ ጣጥ
▁ምሁ ራን
▁እንስ ሳት
ረ ጠ
▁ሰለ ሞን
▁ይ ቀጥ
▁ከ ዓ
▁ም ህ
▁ሦ ስተኛ
▁የም ርምር
ሬዳ ዋ
ሪያ ው
አ ል
▁ሙ ሴ
▁አንዳን ዶች
▁ወ/ ሮ
▁ማረጋገ ጫ
ክ ህ
▁ሰብ ዓዊ
ችግ ሩ
ረ ሻ
▁አ ላማ
▁የአ ገልግሎት
▁ብ ለህ
ነጋ ግ
ኤ አ
ደ ፍ
▁ውስጥ ም
▁ፕሬ ዝዳን
ስ ክ
▁ከ ፋ
▁አልቻ ለም
▁መ ያዝ
▁ቅ ጣት
▁በዓ መት
ፌ ደ
ላ ለሁ
ሬ ው
▁ፋይ ዳ
▁አባ ባል
ያንዳን ዱ
▁ለማ ቅረብ
▁አገ ኘ
▁መን ደር
▁ነ ህ
▁የሚ ደረገው
▁እንድ ና
▁የ ደም
▁ተሰጥ ቶ
መ ታት
▁ተ ፈጥ
ስተ ማር
ናገ ረ
▁በ ፀ
▁በእ ኛ
ረ ቤት
ቪ ል
▁አዋ ጁ
▁የሚ ገኘውን
▁ይጠይ ቃል
▁ ኒ
▁ያ ዘ
▁በመ ፍጠር
▁ለ ታ
▁ኢ ንስ
ሉ በት
▁በ ዚያው
ገነ ቡ
▁th e
ቀ ትና
▁እ ገዛ
ራ ለች
▁ያለ ባቸው
▁የዕድ ገትና
▁መልዕ ክት
▁የሚ ጠቀ
▁የሚ ናገሩት
▁ሳ ሙ
ጠበ ቁ
▁ደር ሷል
ቆ ች
▁አ ብርሃ
▁ለ ት
▁በእ ኔ
▁ት ል
▁ c
▁ይ ገኙ
▁በመ ጥ
▁እንዲ ቀ
▁ለማስ ወገድ
▁ዲ ግሪ
ዎ ድሮስ
ና ትን
▁ተ በ
▁አን ዷ
▁ተ ለይ
ስ ም
▁ለ 1
▁ተ ም
▁የተ ገኘ
▁የተ ደረገው
▁እንዲ ኖር
መል ከ
▁የአ ገራችን
▁ማን ነት
▁ጊ ዮርጊስ
▁አፈጻጸ ም
ጥ ቅ
▁መኖ ሩን
▁ባለስ ልጣ
▁ተል ዕ
▁ ሆን
▁ሳ ን
ፈጸ ሙ
ቀ ሳቀ
▁አስ ቀም
▁ጨ ር
▁መቀ ጠል
▁ግ ቢ
ውን ና
▁የተለ መደ
ቅረ ፍ
▁መሰ ረታዊ
▁ፍ ቃ
ሪ ፖር
ቸ ት
ይ ዝ
▁ሃ ይል
▁ከ የ
▁የመ ገናኛ
ፈለ ጉ
▁በቀ ን
ጣ ጠ
▁ቤ ቱን
▁ትር ፍ
ሌ ን
▁ህ ዳሴ
▁ለሁ ሉም
▁ግም ገማ
▁ማሳ የት
▁አ በረታ
ቶ ቻቸው
ለት ን
▁በእ ው
ሳይ ንስ
▁አር ቲ
▁የራ ሳቸውን
ሻሻ ያ
ቸ ግ
▁የመ ጣው
▁የኃ ይል
▁ብ ቅ
▁የአ ባ
▁ቁ ልፍ
▁እውነ ታ
▁በመንግ ስት
ማ ማኝ
ዝ ን
▁የ ጀመረው
▁እ ሳት
▁ያ ላት
▁ይ ደ
ራት ና
▁በሚ መለከት
▁ጠቅ ሰዋል
▁ያስረዳ ሉ
▁እ ኤአ
▁የ ኑሮ
ፎ ችን
▁ወን ጀ
▁በ ሻ
▁ግ ማሽ
▁ባ ደረጉት
ኖ ስ
▁የሚ ጠበቅ
▁ሲ መጣ
▁መንስ ኤ
▁የኮ ን
▁ወረዳ ዎች
ረ ፍት
ኝ ን
▁ድ ረ
▁o f
ገ ጥ
ዋ ሪ
ጠ ጥ
▁ተ ፋ
▁3 2
▁ይቅር ታ
▁የ ፓርቲ
ፈል ገውን
▁መብ ቶች
▁በሚ ለው
▁አምባሳ ደር
▁ለማ ምጣት
▁አድር ገ
▁እንደተ ናገሩት
▁ስደ ተኞች
ሁ ድ
ላ ጭ
▁ያል ሆኑ
▁ለእ ኔ
ካ ቤ
▁ከ ዕ
ሽከር ካሪዎች
▁ዲ ሞክራሲ
▁የመ ረጃ
▁እንደሚ ችሉ
▁የማ ዕ
▁ሕ ፃ
▁መግ ቢያ
▁በሕ ግ
▁የቴ ክኖሎጂ
ጋ ው
ንድ ሮው
▁አም ላ
▁መጥ ቷል
▁አ ላት
ዘ ረ
▁የብ ዙ
ፊ ው
▁አ ቤቱ
▁ትራንስ ፖርት
ጓ ዙ
▁የአ ካል
▁ሁሉ ን
▁ብ ቃ
ቃ ለሁ
▁ይ ሻ
▁አበ በ
ፐ ር
▁ቀ ለም
▁ሚ ስ
▁ሰይ ጣን
▁ከአ ገር
▁የሚያስ ችሉ
መ ኛ
▁መ ፈ
ያስፖ ራ
▁ደካ ማ
▁አ ላው
▁ኢን ቨስት
i t
ሰ ኝ
ስፋ ፋት
ዋ ላ
▁ለመ መለስ
▁ቀ ል
▁የምን ችለው
▁በሕ ገ
ያዝ ያ
ወ ረ
▁በ ጠ
▁ግንባ ታው
▁ባህ ሪ
▁ባን ኮች
▁አሰ ፋ
▁ሁሌ ም
i c
ሶ ችን
መ ናት
ም ቤ
▁ተጠ ር
▁በ ሴቶች
▁ለ ፍ
▁ካ ስ
▁እ ሳቸው
▁መጥ ቶ
ኛውን ም
▁በው ድድሩ
▁የ ብር
▁ባል ተ
▁ተ ሻ
▁ሰ ባ
▁የቀድሞ ው
▁ዘ ፍ
ጎ ት
▁ሁ ላችንም
ዩኒቨ ርስቲ
▁መንገ ዱ
መ ናል
ማ ዊ
ረ ጡ
ነ ን
ዲ ና
▁መስ ከረም
▁ሰራ ተኞች
▁ሽ ግግር
▁ባለ በት
▁የት ራንስፖርት
▁ጣ ልቃ
▁ድም ጽ
▁መድ ሃ
▁ሁል ጊዜ
ራ ራ
▁የሚሆኑ ት
▁ ቼ
▁ግ ጥም
ጨ ው
ቻ ችሁ
▁ቀ ውስ
▁ፍ ለጋ
▁የ ቤ
▁1 00
▁አብዛ ኛው
ስቸ ኳይ
▁የ ከፋ
ከሰ ቱ
▁መልእ ክት
ል ናል
የ ቱ
▁ካ ላቸው
▁የእር ሻ
▁ጥ ቁር
ትሌ ቲክስ
ደ ለ
▁ው ስን
▁የመ ጡ
▁ተልዕ ኮ
▁ዓይ ን
▁ተመል ከት
▁መምህ ራን
▁ማስታወ ቂያ
▁ሊቀ መን
▁ቆ ር
▁ነገ ሥ
▁ይ ልቁ
▁ስ ልክ
▁የሰ ማ
ህ ጉ
▁በሆነ ው
▁የፈጠ ራ
▁ተነስ ቶ
ፕሎማ ሲ
▁ለ ጋ
▁ለ በ
▁መድረ ኮች
▁ለ ሀ
▁እንዳ ት
▁ተጠና ክሮ
▁የ ገቡ
▁ቤተ ሰቦች
ሊዝ ም
▁ድንጋ ጌ
ኩ ኝ
▁በበኩ ሉ
ታ ሰብ
▁ይ ጨ
▁በመ ም
▁ዛ ፍ
ለ ኛ
▁በአ ማ
▁ን ቅናቄ
ዋዕ ት
▁ማ ግኘ
▁ለመ ንግ
▁ I
▁ጋዜ ጠኞች
▁በቅር ብ
▁ያ ወጣ
▁የው ስጥ
▁አሳ ሳቢ
▁6 0
▁ል ና
▁በፖ ለቲካ
▁የፈ ረን
▁ቱ ሪዝም
▁ሚ ሊ
▁ሽ ፋን
▁የእ ው
ሳ ችሁ
▁መ ሞ
▁የያህዌ ን
መ ንግ
ለ ስ
▁በመ ጽሐፍ
ቶች ም
▁ሳ ል
ተ ህ
▁ከአ ፍሪካ
▁ብዙ ዎቹ
▁ፕሬዚዳን ቱ
▁ያደር ጋሉ
▁ውድድ ሩ
ኩ በት
▁በ ጤና
▁በመ ታ
ንካ ሬ
ጌ ታ
ኳ ቸው
▁ይ ሰራ
▁ቢ ባል
▁በ ቅድ
▁የቻ ይና
▁እ.ኤ.አ .
ሊ ሲ
▁የበላይ ነት
ስ ል
▁ደ ስተኛ
▁በሚ ቀጥ
▁የእ ንግሊዝ
▁እንግ ሊዝ
▁ለመቀ ነስ
ጣ ቸውን
▁ገ ደብ
▁በመተ ባበር
ፋ ር
▁ለ ሰው
▁ሳይ ቀር
▁ተወ ስ
ድ ል
ሃ ድሶ
ሮ ሞ
ስ ሊ
▁በ ሂ
▁ብ ራ
▁ሌ ሎቹ
ሪፖር ተር
▁በ ጊዜ
ፉ ም
▁ን ጹ
▁ከ ሃ
▁ኮሚቴ ው
ሳ ችንን
▁ከ ቅርብ
▁ስ ላለ
▁የሚታ ዩ
ድ ዋ
▁ p
▁የኢ የሱስ
▁ዝ ውው
ስማ ማ
▁አይመስ ለኝም
ማ ሌ
▁የ ረ
ናው ያን
▁የሌ ላቸው
▁አሉ ታዊ
▁ወ ድ
▁ኃይ ለማርያም
▁ፓር ላማ
▁ያ ለም
▁ራ እይ
▁አንዱ ን
ቀ ቅ
ዘ ዝ
▁ያ ደ
▁ሕ ጉ
መለከ ቱት
▁አን ዴ
▁ኃይ ሌ
▁ለ ጉ
ደርጉ ት
▁የጎ ላ
ደራ ጀት
ነ ቃ
ስ ፈ
ለች ው
▁3 4
▁አመልክ ቷል
ቀ ውን
ወ ቁ
▁ገ ዝ
▁የእ ንስሳት
ስ ቡ
ጦ ት
▁ማ ሽ
▁አስተ ዳደ
▁ለህ ዝብ
▁ትዕ ዛዝ
ረ ሰ
▁ከእ ሱ
▁ሰጥ ቷል
▁ሰጥ ተዋል
ዘ ነጋ
▁ይገል ፃ
▁አ ዲ
▁ተ ፎካ
▁የእ ስራኤል
▁ከ ሰው
▁መስ ኮች
▁ቁ ጭ
▁ወታደ ሮች
▁እንስ ሳ
▁ይ ፈጥ
▁በህ ገ
ዳ ይ
ፋ ሉ
ለቲ ከ
▁ምን ጮች
▁ምሽ ት
ተ ረ
ፋ ፋት
▁ቃ ለ
▁ታላ ላቅ
▁የተወሰ ኑ
▁ድን ቅ
▁ P
▁3 3
ጠራ ው
▁የተ ዘጋጀ
▁ሊ ኖር
ቲ ን
▁ማ ው
▁አስ ደ
▁እና ቶች
ኳ ን
ይ ይት
ግ ድ
▁ለ ካ
▁ህ ጋዊ
▁ገልጸ ው
ዘ ም
ፍ ል
▁የጠ ቆ
▁የኢን ቨስትመንት
ች ሉት
ጃ ቸው
ንቲ ባ
r e
▁ ጻ
ላል ቅ
ም ሳ
ቃ ለን
ዎ ቻችን
▁መንግስ ታት
▁ን ብረ
ያ ያ
አ ይ
ካ ቸው
ገለ ግል
▁እንቅ ፋት
▁መድኃ ኒት
▁አለመሆኑ ን
ን ደር
▁አደ ባባይ
ጠ ለ
▁ከ ክ
▁የም ክር
▁አማካ ይነት
ገ ላ
ጥ ና
▁የደ ን
▁ከማ ድረግ
ሞ ቹ
ፁ ም
▁በ ቢ
▁አብ ዱ
▁መሀ ል
▁ለ ባ
▁ቢ ኖር
▁ጠ ላት
ታወ ስ
▁ያለ ን
ዴ ን
▁በ ቡ
▁ከ ቤተ
▁በድ ጋሚ
ራ ኒ
▁በ ጦር
▁የተ ዋ
▁ለማስ ቀ
▁አጠቃ ቀም
ቾ ችን
ቷ ቸው
▁በተ ሻለ
▁የህ ዝቡ
▁ደጋ ግ
▁የሰብ ዓዊ
▁ለሙ ሉ
▁ጊዜ ው
▁በይ ፋ
ክ ረው
▁አገ ራቸው
ጣ ና
ስተና ገድ
ጠ ቁ
ር ያው
▁ተ ረጋግ
▁ባለ ማ
▁ተጠ ቃሽ
ከላ ዊ
▁በ ዝ
▁ይ መጣል
ሰ ሙ
▁ከ ዛ
▁አል ጋ
▁ይህን ንም
በ ን
▁ከ ነበረው
ዝ ገባ
▁ስ ጋ
▁ዳን ኤል
▁መጠየ ቅ
ዳ ድር
▁ኮ ንት
▁ስት ል
ኮ ት
ጻ ናት
ደ ዱ
▁የሚ ደርስ
▁ስለ ማ
▁የሚ በ
▁መቀ ነስ
▁አስፈላጊ ውን
▁የሁ ለት
ወሰ ኑ
▁ውይ ይ
ባ ሉት
እ ኖ
ፋ ሪ
መ ኝ
▁የል ማ
▁ጫ ማ
▁ከበ ደ
ኖ ሩት
▁ብር ቱ
▁የሚገኙ ት
▁ ጦ
▁ች ለዋል
▁ጉዳ ዮችን
▁ድን በር
▁መ ጀመ
▁የሚ ባሉ
▁ህ መም
▁ይ ሠራ
▁በአ ካባቢ
▁ሚ ያዝያ
▁የፀ ረ
▁እርግ ጠኛ
ሱ ዳን
▁የ ያዙ
ቀር በው
ቀመ ጡ
▁አክ ብሮ
▁መካ ከለኛ
▁ፍላ ጐ
ጠብ ቅ
▁ለ ዓለም
▁ባ ላቸው
▁እና ላችሁ
ገራ ል
▁ይ ፈል
▁ዘ ገባው
▁የቆ የ
▁ኃጢ አት
▁የሚ ኖር
ገና ኙ
ሃ ዊ
▁ታ ማ
▁ለብ ዙ
▁ለሕ ዝብ
▁ገጽ ታ
▁በተ ደረገው
▁አብ ራር
ፈ ርት
▁ ሼ
▁ይኖር ብናል
▁የመሳሰ ሉ
ወ ትር
▁አው ቶ
▁እንዲያ ደርጉ
▁ገብ ተው
ክ ቸ
▁በ ዛ
ላ ትና
ረ ቃ
ካ ው
▁ፎ ቶ
▁ለጎ ን
ዴ ት
▁እ ሺ
▁የተ ሰማሩ
ደር ጋ
▁ምን ጊዜም
መጣ ው
▁በከተማ ዋ
ናሽ ናል
▁ብ ሩ
▁ቁ ም
▁ፀ ሐፊ
ከ ትና
▁በ ሬ
▁የም ርት
▁ጀ ር
ገ ዙ
▁ዘመ ኑ
▁ኮ ከብ
▁አም ና
▁የሰ ጠው
ሃ ለሁ
ል ኩ
▁ለ ነ
▁ሄ ዶ
▁ይኖ ረዋል
▁መኮ ንን
ከ በሩ
ል ቀት
ዲ ን
▁እንደ ነበረ
ጫወ ቱ
ቅ ል
▁ቴ ዎድሮስ
ራም ፕ
/ 1
ጎ ዳ
ጐ ች
▁ተ ክ
o m
ዘ ና
ብ ል
▁መው ጣት
▁በተ ለየ
▁አድር ገን
ም ራ
ረ ዱት
ቷ ቸዋል
▁ይ ሉ
▁መንግ ስቱ
▁አስተ ባባሪ
▁መሰ ላችሁ
ጅ ነት
▁ከ ዋ
▁በመ ያዝ
ገኙ በት
▁የሕ ይወት
ቆጣ ጠ
ለ ሙ
▁ከ ቆ
▁በመ መ
▁የስ ነ
▁ምናል ባትም
▁ነጥ ቦች
▁ተመልክ ቷል
▁ዓመ ታዊ
▁ሒ ደት
ፈ ጥር
▁የ ጊዜ
ረ ናል
▁ም ድብ
▁አድር ጌ
▁5 00
▁መዛ ሙር
ል በ
በ ዝ
ኸ ው
ያው ቅ
▁የተሰ ኘ
▁ንግ ግ
▁የሚታ የው
ፕ ራይ
▁ራ ሳቸው
ነሳ ው
ገኝ ም
ን ሰ
▁የሚ ኖረው
▁እንደሌ ለ
ድ ሮ
▁መ መልከት
▁የሚ ወስ
▁ማ ይ
▁ራ ዕ
▁ቤተ ሰቦ
ነ ቀ
ና ን
▁ግብ ፅ
▁ክር ክር
ግ ስት
▁የ ጠቀ
▁መ ገንባት
▁አማካ ሪ
▁የቤተ ሰብ
▁ ጡ
▁አር ብቶ
▁በሁ ለቱ
▁ወረ ቀት
▁መጠ ጥ
▁በረ ከት
▁በቀ ለ
▁በደ ስታ
▁ሲ ደርስ
▁አረጋግ ጠዋል
▁ሕ ፃናት
▁እ ዚያው
▁ማ ብ
ቱን ና
ስ ኮ
ያ ያዙ
▁እን መልከት
▁ማስተ ማር
ሏ ት
▁ ዊ
▁በ ሰማይ
▁መስ ሎ
▁የተመ ሠረተ
ቼ ን
▁ገበ ሬ
7 0
ነ ቷ
ዓ ላዊ
ጠናቀ ቁ
▁የተ ፈጠረ
▁እያ ደረጉ
▁በእ ሱ
ፌዴ ራ
▁ይ ዛ
▁ብ ረት
▁ቦ ር
▁እ ህል
▁ድ ህ
▁በመጨረሻ ም
ር ተው
ከተ ሞች
▁አድር ጐ
▁መግባ ባት
ነ ኛው
ክ ም
ዬ ው
▁ኮሌ ጅ
ጠንቀ ቂያ
ቋ ንቋ
ተ ውን
▁ለማ ድረስ
▁ፍ ጹም
▁የኢ ህአዴግ
▁ወቅ ታዊ
▁ለኢ ዜአ
▁የ ሊ
▁አ ደረ
▁ይ ወስ
▁ለእ ኛ
ና ይት
ደና ቂ
ጀር መን
▁አስተ ማማኝ
▁ዳ ግም
▁መቀመ ጫ
▁ለመ ግባት
▁ከ ሀ
▁ኤ ሌክትሪክ
ብረተሰቡ ን
ቂ ዎች
▁በ ዚያን
▁የተ ወለ
▁ማህ በሩ
▁መብ ራት
▁ያስች ላል
ቋ ሚ
▁መ ቅረ
ከት ል
▁ሴ ቶችን
▁ተቋ ሙ
▁የሕ ክምና
ፀ ው
ፈ ቱ
▁ሌላ ኛው
▁በኢ ኮኖሚ
▁የ ትም
▁ጉድ ጓ
▁ለ ረጅም
▁ቀ ሪ
▁ነፍ ስ
ገ ዳ
▁ማ ሻሻያ
▁እንደሚ ቻል
ሪ ን
▁ለ ን
▁ረ ቂቅ
▁የሚያደርጉ ት
▁አ ቡ
▁የህ ብረተሰብ
መል ስ
ጠናቀ ቀ
▁አቅር በዋል
▁ጌ ታቸው
ራ ቅ
▁ለ ዓ
▁ከ 5
▁ከ ሞት
▁በመ ሰ
▁አይ ኖርም
ሮች ና
▁በእ ዚህ
▁ባ ሪያ
▁ሰው የው
ክ ን
▁ ፲
▁ያው ቃል
an d
e d
▁ከጥ ቂት
▁ጥና ቱ
ኝ ት
▁ሳ ምን
▁አካ ዳሚ
ር ዳት
ካ ኤል
ፋ ዊ
▁ከመ ሆኑ
ስተዋ ወቅ
ል ጥ
ቸ ዋለሁ
▁ለማ ጠናከር
ድ ስ
▁ይ ሸ
▁ሆ ኜ
▁ይገባ ዋል
▁ክስተ ት
▁ታው ቃ
in g
በ ኞች
▁ያ ብራ
ገር ም
ታቸው ም
▁ኢንስ ቲት
ያው ቁ
▁ቫ ይ
▁ስታዲ የም
▁ፍ ቅ
▁እየተ ባለ
▁መር ሃ
ደ ቀ
▁ E
▁እ ዬ
▁የአ መራ
▁ድ ህነት
▁አንድ ን
▁አሸ ን
▁በየት ኛውም
▁ ቶን
▁አ ረጋ
▁ሊ ሆኑ
▁ፖ ለቲከ
▁ማስተ ካ
ዕ ድ
▁ተቋ ቁ
ዩኒቨርሲቲ ው
ሰ ውን
ነሱ ት
▁የሚ መጡ
▁አስፈ ፃሚ
▁ከመንግ ሥት
▁ስራ ው
▁መሰ ረተ
▁አንተ ም
▁አዛ ውን
ብ ና
ታ ትን
▁ቆ ሻሻ
▁ካፒ ታል
▁የሚሰ ሩ
▁የ ጀመረ
▁የሚ ሰራ
ሄ ራዊ
ገ ሉ
ጣ ሬ
▁ብዙ ሃን
ምቤ ላ
ፌዴ ሪ
▁ፍት ሐዊ
ን ዛ
▁ከእ ኔ
▁ስ ልጣ
▁ፍት ሕ
ረ ከ
▁ታ ክሲ
▁አል ቀረ
▁የአ ር
▁ድ ክ
▁የ ጠበቀ
▁በ ቤ
▁ከ ሞ
▁ቁ ሳቁ
▁ዳ ኛ
▁እር ሱ
▁ማድረ ጉ
▁ባለስ ልጣን
▁ጭ ማሪ
▁200 9
▁ከአ ምላክ
▁ይፈል ጋል
▁የ ዶ
▁በ 4
▁አል በ
▁የእ ን
▁የ ቅርብ
▁በ ዙ
▁ከ ንቲባ
▁ተጫዋ ች
ጎ ና
ፈ ና
▁በ ጠቅ
▁የተ ሰማ
▁ፀ ሐይ
በረታ ታ
▁ከ ሶ
▁ዕ ጣ
ገኘ ት
ላፊ ነት
▁ሽ ልማ
▁አምራ ች
▁መ መለስ
▁በአ ማራ
▁ስለዚህ ም
▁የሀ ገር
ገ ኛል
▁አ ቻ
▁ከ ያህዌ
▁ም ነው
▁አያው ቅም
▁ይኖር ባቸዋል
ኗ ኗ
▁ነ ባ
▁የተ ነ
ሬዚዳን ት
መ ች
▁መ ኪ
▁ዲ ዛ
▁መጥ ተው
በ ተ
▁እንደመ ሆኑ
ኮ ር
▁ a
▁የ ቡና
▁እን ክብ
መለ ሰ
ግ ዚ
▁አደ ገኛ
▁የእ ርስ
▁አን ገ
▁ዕ ርዳታ
ጸ ን
▁ጣቢያ ዎች
▁አላው ቅም
ኝ ታ
▁ከ ምን
ርስቲ ያን
▁ጥና ቶች
▁ጉብኝ ት
በ ሪያ
▁ነ ጭ
▁ዳ ግ
▁ለዘ ላለም
▁ማ ነስ
▁ወል ደ
▁ይልቁ ንም
▁ወ ሰን
▁ሌ ሊት
▁የው ኃ
በ ሻ
▁አ እምሮ
▁ከመ ቶ
▁ለአ ምላክ
▁የባ ቡር
ገለግ ሉ
▁ሊቀመን በር
ተ ገ
▁ታ ዛ
▁ቢ ራ
▁ወጣ ቶችን
▁በተ ፈጥሮ
▁የግን ዛቤ
▁ደ ህና
▁የአ ይ
ጠበ ቀው
ሙ ያው
▁ t
ረጋ ግጥ
▁ዮ ሴፍ
▁ማኅ በራት
. 5
▁መ ማር
▁ተ ሰብ
▁በአ ውሮፓ
ፌዴሬ ሽኑ
ከለ ኛው
▁ነጋዴ ዎች
▁ግል ፅ
3 0
▁መ ጓ
▁ያ ተኮ
▁የተ ገኙ
▁ሁኔታ ው
ከናወ ነው
ኖሩ ም
▁ማኅ በረሰብ
▁የተባለው ን
ጆ ቻቸው
▁የአ ው
▁መር ህ
▁ቀር ቦ
▁19 9
▁ጤና ማ
▁ነበረ ች
ቻ ይና
ጣ ጣ
▁ጀ ግ
▁ልማ ድ
▁ፕሬዝዳን ት
▁ይገኙ በታል
ቀ ሩ
▁ታ ቅ
▁ፍ ጻሜ
▁እ ቃ
▁ፍ ጥነት
▁ህዝ ባዊ
▁አው ራ
ቀመ ጠው
▁ያ ዕቆብ
▁ጥ ንካሬ
▁ይጠ ብ
▁ M
ጋ ለ
▁ከ ሥ
▁በመ ውሰድ
▁ቀ ኝ
ደ ለው
ፍ ስ
▁የ ክለ
▁ከ መን
▁ግ ቦች
▁ዓይ ነቱ
ሐ ሴ
ጢ ር
▁ከ ኤ
▁የተ ቋ
ና ጀ
▁ማ ምጣት
▁ው ር
ምረ ቻ
▁ልጆ ቹ
▁ማ ለፍ
▁ዓይ ነቶች
▁ ቄ
▁በ ገንዘብ
ጠና ከረ
ዳል ያ
ረ ሳ
ሜ ት
▁ማዕ ከ
▁ዘ ው
▁አጠና ክሮ
▁በ ዝር
▁ል ውው
▁የራ ስ
▁በ 5
▁ይ ቆ
▁ተማሪ ዎችን
ጎ ብ
▁በመ ሄድ
ካ ፈል
▁የ ዱ
▁ከ ፈ
▁ራ ስን
▁ብላ ለች
▁ይቀጥ ላል
▁የ ሻ
▁ዩኒቨርሲቲ ው
▁ይጠቁ ማሉ
▁ሊ ባል
ቀ ቱ
ጣ ኔ
▁ጥ ቂ
▁ዘ ይ
▁በማ ሰብ
▁ና ይ
▁በጉ ዳዩ
ምባ ሲ
ደ ኝነት
ጓ ዳ
ፐብ ሊክ
▁ሽ ያጭ
▁የ 2
▁ለመ ተ
▁ብቻ ውን
▁ዳይሬ ክተሩ
▁አበረታ ች
መ ላለ
▁ከ ጀመረ
▁ው በት
▁በእ ንግሊዝ
ብረ ቱ
▁ይነ ገራል
▁በ ኩ
▁በ ዲ
▁መቀ በል
▁በፍ ቅር
ድ ኑ
▁በ ሲ
▁ባ ደረገው
▁እየተ ካሄደ
▁በቀጣይ ም
ቀ ኑ
▁የ ላቸውም
▁ለ ፊት
▁ም ግ
▁በት ኩረት
ው ሉ
▁ለ የት
▁ይ ወጣ
▁የሰ ጠ
▁ከማ ስ
▁እንቅስቃሴ ዎች
ገነባ ው
▁የተመሰ ረተ
ዲ ሁ
▁ዕው ቀት
▁አደረጃ ጀት
አ ቸው
▁3 7
▁ወስ ዶ
ሮ ቹን
▁ብ ቁ
▁በመ ግለጽ
▁የማ ሳ
▁ያደር ገዋል
▁እንዳል ተ
ፋ ክቸ
▁ከ ግብ
▁የማ ኅ
▁ b
▁ከ ዚሁ
▁በል ዩ
ኝ ና
▁ማ ክ
▁ዘ ይት
▁ምክንያ ቱ
ክል ሎች
▁መኖ ራቸውን
ጠቀሙ በት
▁አቅራ ቢ
ታ ለሁ
▁በተ ገ
ቴ ል
ሩ ና
ራ ችሁ
▁ለመ ረዳት
▁የገ ጠር
ቀበ ሉ
ለጠ ነ
▁ብሔረሰቦች ና
ሐ ስ
ካ ሚ
▁እ ቅ
▁ይ ጀም
▁አገልጋ ዮች
ጥ ረው
▁ምስ ክር
▁በ ዞኑ
▁ከ ሦስት
ዎችን ና
▁ክፍ ት
ላ ለን
▁ተ ዋና
▁1 ,
▁ጉ ልህ
▁ኤ ርትራ
ሳይ ያስ
▁በእ ግር
▁የኪ ራይ
ሙ ኒ
▁ ጮ
ገለ ጽ
o u
▁ከ ጉ
▁የተ ውጣ
ረ ቡ
ደ በት
▁አብዛ ኛውን
▁ማ ቀ
▁ባ ላ
▁አስ ራ
▁ዘመ ናት
▁ወ ዲያ
▁በመ ግ
ብር ብ
▁የወን ጀል
▁በ ንግድ
▁ቤ ቶችን
▁ጠቅ ሰው
▁ዩኒቨርሲቲ ዎች
በ ሉ
▁ተ ቆጥ
▁ያ ነ
ቤ ል
ፆ ታ
▁አስተ ና
▁ኮሚ ሽ
▁በሕ ዝብ
▁አ ጭር
▁ሕዝቡ ን
▁በመ ልካም
▁ሀ ሳ
ወሰ ዱ
ቀሳቀ ስ
ሯ ን
ቦ ቹ
▁ ጩ
▁ለመ ጠቀም
▁ፍልስ ፍና
▁ይ ደር
▁የተ ጠ
ፈለ ገውን
▁ተደራ ጅ
▁ጢ ሞ
▁ማቴ .
▁የተ ሸ
▁ዕድ ገ
▁የኤ ርትራ
▁ወዲያው ኑ
ዘ ረጋ
▁ያ ቀ
▁የም ለው
▁በማን ኛውም
▁ዓይ ነ
▁የአ ል
▁በ ሪ
▁ተ ካሂ
▁አስተ ማሪ
ዬ ም
▁የ ጭ
▁ሲ ገል
▁ከሚ ገኙ
▁ይኖ ራሉ
▁መዳ ረሻ
ን ቀት
▁በ ሦስት
▁ትእ ዛዝ
▁የ ዘርፉ
▁ው ሎ
▁ት ዳር
▁አባ ቴ
▁ከ ሳ
ንድ ሮ
ገና ኘ
▁አድማ ስ
ግዳ ሮ
▁ት ችላ
▁አስ ደናቂ
▁ኪ ዳን
▁በደ ል
▁በህ ዝብ
▁በሀ ገሪቱ
▁ሉ ዓላዊ
ጠቀም በት
▁ሰር ቪ
ረ ቤ
▁በመስ ራት
▁አ ጥብ
▁የሚ ሠራ
▁ለመ ቅረፍ
▁ዜ ማ
▁እንዲ ኖረው
▁የሆኑ ትን
▁ያ የ
▁አገሪ ቱን
▁የሚ መስ
▁ሮ ም
▁ቅርንጫ ፍ
ጻ ፈ
▁ይ ስ
▁የሚ ለ
▁ሰ በብ
▁አጠ ገብ
ም ቶ
ራ ረብ
ደ መ
ጥ ሮ
▁ህ ብረተሰብ
▁የነ ፃ
▁ከ 20
▁ለአ ን
▁አገልግሎ ቱን
ወ ል
ዙ ት
▁የእ ነዚህ
▁ከሁ ሉ
▁ጉድ ለት
▁በ ሞት
▁መ ኖሩ
▁ጥ ረ
ከ ፈል
▁ጋ ብቻ
ትና ንት
▁ማኅ በራዊ
▁የቴ ክኒክ
ሰ ጣ
▁ማ ሰ
▁በመ ነሳት
▁እን ባ
▁ደረ ሰ
▁ሳሙ ኤል
▁ተ አ
▁መሰ ና
▁አፈ ፃፀ
▁ያለም ንም
ጧ ቸው
ጨ መር
▁ደ ጃ
▁ቢ ሆኑ
ገኛ ለን
▁መሆኗ ን
▁በ ትን
▁የመ ፍት
▁ወደ ተ
▁ሸ ዋ
▁የተ ያያዘ
▁ማን ኛውንም
▁ተቃዋሚ ዎች
▁በ ሠ
▁ሰ ሜን
▁ታ ደሰ
▁ለዘ መናት
ላ ትም
▁ማ ም
▁በእ ርስ
▁ኢየሱስ ን
▁አያ ያዝ
▁ሕ መም
▁ጀ ርባ
ንቀ ሳ
▁በጉ ባኤ
ኞ ቹን
▁ሥ ላሴ
▁አጋ ር
▁አዳ ም
▁አህ ጉ
▁ f
▁ት ራምፕ
▁ሳ ንቲ
▁ይሄ ንን
▁ይዘ ት
▁እንክብ ካቤ
▁ሥ ጋት
▁ስለመ ሆኑ
▁ለገ በያ
ወ ት
▁ው ብ
ቃ ቅ
▁እ መ
▁ፓር ክ
▁ከወ ዲሁ
▁ለ ሥራ
▁ተወካ ይ
▁ይፈጥ ራል
ን ሳዊ
▁እ ሳ
▁ክ ሊ
ቀረ ቡ
▁መለ ሰ
ገ ራት
▁ወ ግ
▁ብ ታ
▁ካ ንሰር
▁በ200 7
ተ ም
ዋ ለች
ደ ሮች
▁ለ ጊዜው
▁ለመ ጠበቅ
▁ክለ ቡ
ዕራ ብ
▁ፋብሪካ ዎች
ራ ና
▁ቤ ታቸው
▁ፕ ሪሚየር
▁ዳ ቦ
▁ኦ ሎምፒክ
▁አደረጃ ጀ
ረ ኞች
ጎ በ
▁ማ ድ
▁ማ በረታ
▁የቀረ በው
ኒ የም
ወ ዳ
▁ኮ ሪያ
▁ተቀ ና
▁ጠቁ መው
▁ሕገ ወጥ
▁እንደሚ ገኙ
▁ፈ ገግ
▁ኃይ ሉ
ፋክቸ ሪንግ
ተ ኞቹ
▁ከእ ነሱ
▁የብ ሔራዊ
▁የሁ ለቱ
▁መዋ ቅር
ሸጋ ገር
▁ፈ ለ
▁የሰ ጡት
ባይ ል
▁ኢንተር ናሽናል
l e
▁ከ ሥራ
▁አይ ችሉም
▁ካ ሉት
▁ስራ ዎችን
▁ዴ ኤ
▁ብርሃ ኑ
▁እ ሴት
▁ተ ነግ
▁ዕ ጩ
▁ጫ ፍ
ችኋ ለሁ
ካ ር
▁የ ዘር
▁ተ ግዳሮ
▁ስለ ሌ
▁ቅ ዳሜ
▁ያ ገኙ
▁ግ ብረ
ሞክ ራ
▁የ ታወቀ
▁ተ ገንዝ
ጠ ም
▁በሰ ጠው
▁መጽ ሔ
ራ ሹ
ብ ሰባ
▁የተ ላ
▁ባ ዶ
▁ል ዑ
ታወ ቁት
▁የቆ የው
ዝና ብ
ት መት
ፍ ር
▁ካ ህ
▁በ ሊ
▁4 5
▁አቤቱ ታ
ሶ ን
▁ለ ቅ
▁እና ው
▁በሚ ደረገው
▁ኢን ዱስት
▁ወን በር
▁ሰጥ ተው
▁የሁ ሉም
▁ፉ ክክር
ቲ ያ
ፋ ቸውን
▁ግ ዥ
▁ሆነ ን
ሰ ናል
▁ሲ ገባ
▁ቀ ድ
ለት ም
ሥራ ቅ
▁ህ ፃ
በል ጡ
▁መንግሥ ትም
▁ልማ ታዊ
ፈተ ሽ
▁አሠ ልጣ
▁ይሻ ላል
ሚ ንቶ
ጸ ው
▁ከ ቦ
▁በአ ምስት
▁ጊዜ ያዊ
ገራ ሚ
ላለ ፉ
▁መድኃ ኒ
ማ ችን
ና ችን
ታወ ቂያ
▁በሁ ዋላ
▁ኢንተር ፕራይ
ባ ቱ
ብ ሩ
ወሰ ደ
▁ፀ ጋ
መዘ ገበው
▁አሳስ በዋል
ኩ ስ
▁የ ድን
▁የሚ ቻለው
▁ለማ ከናወን
ሳ ች
▁በ ጀ
ኮ ችን
▁በ ሉ
▁ወደ ኋላ
▁ተመ ዝግ
▁መቆ የ
ነት ም
▁አስተ ዳደሩ
▁ተፎካ ካሪ
ሆ ኗ
ላ ምና
▁ ዋል
▁ሙ ዚ
▁አር ባ
▁ነበረ ው
▁አብርሃ ም
▁የመ ድ
ፋ ፋ
ላሚ ክ
▁እየታ የ
▁ተ ላ
▁በመ ላ
▁ከአ ምስት
▁የወ ጣው
▁ማዕ ከሉ
▁ጠብ ቆ
ደ ጉ
ናቸው ም
ለ ደ
ሞ ቱ
ራ ቶን
ኔ ን
▁ተ ዘ
▁ሲ ሉም
▁ፕ ላ
▁በሽታ ዎች
▁ዕቃ ዎች
▁ቁር ጠኝነት
ጋ ቸውን
▁ጨ ርሶ
▁ለአ ፍሪካ
▁ማስ ጠንቀቂያ
ኔ ራል
ዎ ቻቸውን
▁የድር ጅቱ
▁ተጨዋ ቾች
h e
አ ያ
▁የሚ ሠሩ
▁ጉ ልበት
▁ተቀብ ሎ
ቀ ሰ
▁ሽማግሌ ዎች
▁ኮርፖ ሬሽን
ያያ ዥ
▁የሚ ቻል
▁በመ ር
▁ባለ ሃብ
ከፋ ፈል
▁እነ ሱን
▁7 0
▁ምስ ጋና
▁በ 20
▁መ ቆጣጠር
ቀ ኝ
▁መ ፍታት
▁ባ ሳ
▁ለማ ሻሻል
ዳዳ ሪዎች
▁ትል ልቅ
ሬ ሽኑ
ጸ ባረ
▁ታ ክስ
ሪ ስት
▁ለማሳ የት
▁አውሮፕ ላን
ገኝ በት
ም ራል
ደ ላ
▁ተ ፈራ
▁ለመ ኖር
▁ጨ ረታ
▁በመ ጪው
▁አገልግሎ ቶች
▁በ1 0
▁በዝር ዝር
ቱ ንም
▁አ ፈር
▁ዕው ቅና
ጻ ፈው
▁የተ ሞላ
▁እንደሚ ኖር
▁ዋ ነኛው
ዘር ጋት
ጭ በር
መረ ጡ
▁ብቸ ኛ
ዱ ም
ስት ራ
ስ ላሚክ
ችሁ ት
▁እ ጁን
▁መምጣ ቱን
ፌደ ራል
ቶ ቻቸውን
▁ጥ ራ
ሪ ነት
▁መ ላው
መጣ ም
ለ ላ
▁አን በሳ
ማር ኛ
ሀ ል
ሪ ፍ
▁የ ሴት
ግ ዚአብሔር
▁ከ ቤት
▁ለ ሪፖርተር
▁አንዳ ች
▁ጠይ ቀዋል
▁ሀ ይ
▁አገል ጋይ
ፈጸ መው
ነ ቴ
▁ ፔ
ሰቡ ን
ቃወ ም
ሊ ድ
▁በመ ግባት
ከተ ሉ
ሰማ ራት
ገኛ ለች
▁የተ ሟላ
▁በተ ባ
▁ሊ ጉ
▁ጠ ር
▁የፍ ቅር
ከታ ታይ
ክ ፈል
▁የሚ ሰማ
▁እንደሚያ ደርግ
▁ m
▁ ዩኒቨርስቲ
▁መ ቁ
▁ባ ቡር
▁ደ ብረ
ግባ ባት
ፈል ጋቸው
▁ውድድ ሩን
▁ማመን ጫ
▁ሲ ታ
▁ች ሎት
▁ር ብርብ
▁እንደሚያ ሳ
ብ ንም
ኑ ፋክቸሪንግ
ጎ ልበት
▁ሀ ገሪቱ
ክል ና
▁ኤል ያስ
ሶ ቹ
ዴ ል
▁ለ በርካታ
▁አም ልኮ
▁ከእ ኛ
▁ከል ብ
ኤ ስ
▁በግ ብርና
▁ረ ድ
▁በ ቱ
▁በ ኪ
▁የተ ን
▁እንዲ ታ
▁ት ላልቅ
▁አስ ከፊ
▁አዳ ማ
▁ምሥራ ቅ
▁ባለሥልጣ ናት
▁አብራር ተዋል
▁ተ ሾ
ባ ን
ወ ርድ
▁አን ጋ
▁ለመ ድረስ
ሪ ታ
ታ ደር
ክ ለው
ነ ገር
ግ ን
▁በ ፋ
▁በወ ን
▁መሥ ዋዕት
▁የአ ቅም
ስ ቶች
▁ያለ ማ
▁ባለመ ሆኑ
▁በቁ ጥጥር
▁በ ወጣ
▁የእ ና
ንተ ን
ሽ ም
▁የተ ናገረው
▁ቴ አትር
▁መር ሐ
▁በተገ ቢው
ለ ታ
▁ት ላለች
▁እስ ር
▁አክ ራሪ
ዳ ችን
▁ካለ ፈው
ጀመ ሩት
▁ሁኔታ ዎችን
▁ማስ ከበር
ፈ ቀደ
▁አ ሮ
▁ብ ዝ
▁በአ ዋ
▁ኢ ትዮ
▁በ19 8
▁የት ራፊክ
▁የ ከ
▁እ ጥፍ
▁እንደ ገለ
▁እንዲ ሰጥ
ደራ ጁ
ዎ ት
▁የ ና
▁ዮ ና
▁የነበሩ ትን
▁የሚጠይ ቅ
ሬ ስ
ሳ ራ
ቺ ን
የ ሙ
▁ፍ ል
▁ዜ ጎችን
▁ህዝቡ ን
▁አን ባቢ
▁ኢ ሳይያስ
ዘጋ ጃ
▁ቴ ሌ
ባ ው
▁እን ጀራ
▁ድ ሮ
▁ከመ ስ
▁መዋ ቅ
▁ይ ዟል
▁የሰ ጡ
ሁዳ ውያን
ሽ ነት
ጥ ል
▁ከብ ዙ
▁ቢ ዝነስ
▁ከማ ን
▁እህ ት
ሑ ፍ
▁የተ ሻ
▁የመ ነ
▁ታ ሳቢ
▁ማስተ ዋል
ካ ፈ
ዑ ዲ
▁በ ሜ
▁ይ ል
ደረ ሱ
▁በባ ህ
▁ያ ቀር
▁ማ ኔ
▁ግብ ዓት
▁ህ ፃናት
▁ዳ ኞች
▁የፀ ጥታ
ኝ ማ
▁እየ ሰ
▁3 6
▁በሁለ ቱም
ኳ ንን
ወ ቀ
▁የ ንጉ
▁ለ ነገሩ
▁ዕ ቅ
▁3 8
▁የሆነ ችው
▁በማሳ ደግ
▁ B
▁እንደ ነበሩ
▁እስራ ኤል
▁ተ ያያዥ
▁የም ስ
▁የባ ህር
ዋዕ ትነት
ጻ ፍ
▁የሚ ስተዋ
▁አገ ዛዝ
▁ማን በብ
▁የሙ ስና
ቨ ር
▁ለ ቤተ
▁የሚ ደርሱ
▁ካ ም
▁ሄ ደው
▁ፕሮጀክ ቱ
▁መመር ያ
ች ግር
▁የነ ገ
▁ክል ላዊ
▁ N
▁ ረዳት
▁የ ፓ
▁ስ ድ
▁ም ርም
▁ስላ ለው
▁አብዮ ት
▁በ ፌዴራል
▁መታ የት
▁ወዳ ጄ
▁የተባ ሉት
▁የሚ ፈጥ
▁አስ ገራሚ
ቧ ን
▁ተ ቆጣ
▁ማረ ፊያ
▁የተውጣ ጡ
▁ት ውል
▁ሠ ራዊ
▁ጥና ትና
▁አልቀረ ም
ኛ ዎቹ
ዋ ንዳ
▁ያ ደረግ
▁አስ ገንዝ
ናይት ድ
▁የአ ሁኑ
▁ለመ ሸ
▁አቋ ር
▁ለመ ናገር
▁የሚያ መ
ው ደ
▁ለ ባለ
▁ያ ገኛ
▁የህ ይወት
ኖረው ም
ከ ብር
▁ልጆ ችን
ንባ ሌ
በ ሰ
▁8 0
ዓ ቱ
▁ሰ ፋ
▁በስ ራ
▁በሀ ገር
▁ም ዝገባ
▁የአ ለም
▁ትን ቢት
▁መም ጣት
▁ተግባራት ን
▁ለመ ቆጣጠር
▁ጠ ን
▁ለአ ገሪቱ
▁ስራ ውን
▁ተወ ላ
▁ቀጠ ሮ
ላ ሳ
▁እ ሁድ
ከተ ለ
▁በቅ ን
▁የፍ ርድ
▁የ 200
ቃ ን
▁የተሰ ጠ
▁ከ1 0
▁የቻ ለው
▁የ ለውጥ
▁አስ ከባ
▁ባለ ሙያው
▁ሚ ዛ
▁የጠ የ
ጋ ለሁ
▁ማ ጠናከር
▁ብ ክ
▁አመ ቺ
▁በሕ ይወ
▁የብ ድር
▁ሰሞ ን
▁ጎን ደር
▁አህ መድ
▁መሐ መድ
▁ንጹ ሕ
ዳ ድ
▁የነ ዳጅ
▁አርሶ አ
ረ ኝ
ች ሎ
ገ ተኛ
▁ሌላ ውን
▁ባለሙያ ዎችን
▁አልቻ ሉም
ፊ ቱ
▁በተ ወሰነ
▁ፕ ላን
▁ቆይ ተዋል
▁ከ ድር
▁ተ ጎ
▁የመ ከላከያ
▁ጠ ዋት
▁ያህ ሉ
▁ደመ ወዝ
ረ ተው
ቆ ና
▁ሰ ጠ
▁በማ ስተ
▁መሆኑ ም
▁ከእ ንግ
▁መደረጉ ን
ዱ ስ
▁የሚ ዘ
▁የሚያ ን
▁በዘ ላቂ
▁የጥ በብ
ን ኩ
ጫ ት
ንፈ ኛ
▁የተቀ ናጀ
ረ ጉ
ሽ ኖች
ቀመ ጠ
▁እኛ ን
ከ ላቸው
▁ወቅ ትም
▁ግብ ዣ
▁ለሌ ላ
▁ራዕ ይ
▁ቦ ታው
▁እ ኩ
▁ተመል ሶ
ደ ውን
▁ d
▁ይ ስተዋ
▁በማ ድረ
▁መልዕ ክ
ወ ግ
▁መ ለያ
▁መ ቋቋም
▁ጨ ርቅ
▁ተ ባ
▁ሰዎች ም
በ ቱ
ካ ሔ
▁የበ ጎ
▁የዕድ ሜ
▁ከአ ራት
▁ሜ ዳልያ
▁በት ግራይ
▁መስ ማት
▁የወ ንድ
▁አሉ ላ
▁ጥር ጥር
▁በነፃ ነት
▁ለይ ቶ
ጮ ችን
▁እንዲ ተ
▁እንዲ ወጡ
▁ላ ለው
▁የጋ ዜ
ዋ ም
▁ ጁ
ሎ ም
ጠ ፉ
▁ከ ሐ
▁ገ ላ
▁እንደም ታ
▁ተመራ ማሪ
▁አውጥ ቶ
▁አ ዕምሮ
▁ተ ክለ
▁የተ ከ
▁መሠ ረተ
▁ለው ጭ
▁በጥ ንቃቄ
ረ ክ
▁የወ ጡ
▁እንቅ ልፍ
▁የሚ ዲያ
▁ማስ ቀ
▁በየ ቀኑ
▁አሳ ዛ
▁የሌ ሎች
ለመ ደው
▁በቅድ ሚያ
▁የት ኛው
▁ጅ ማ
ቡ ም
ፃ ሜ
▁አ ረንጓዴ
▁የሚ መለከታቸው
▁እንዲ ኖራቸው
▁በሀ ገራችን
▁የሚገል ጹ
ስቀ ሳ
▁ሲ ሄድ
▁በአ ራት
ሙ ስ
ነ ካ
▁ለማ ዳ
▁ፍ ራ
▁መለ ወጥ
▁ድም ፃ
▁የቻ ለ
▁ለመቀ በል
አ አ
▁የተ ጀመረ
▁ጠ ረ
ሎች ና
▁ዝ ንባሌ
▁አብረ ን
ቆ ሙ
ነ ቁ
▁ተ ገን
▁እንዲ ሰጡ
▁ገ ነት
ራቸው ም
▁በሰ ሜን
▁አስተዳደር ና
▁የለ ኝም
▁የእድ ገትና
▁ and
▁በ ፍት
▁መ ደም
▁በእር ግ
▁ዝውው ር
▁ባይ ሆንም
▁ልቦ ና
ይ ይቱ
▁የሚ ውል
ድረ ው
▁ይሄ ዳል
▁መንግስ ታዊ
▁ኢዮ ብ
ደ ባባይ
▁በ ሸ
▁የእ ምነት
▁አያ ሌ
ከሰ ተው
▁ባን ኩ
a tion
▁የአ ስተ
ዎቹ ም
▁የል ብ
ነ ዘ
▁መ ገንዘብ
ገነ ዘብ
▁ክፍተ ቶች
ግ ቶ
▁ማ ነ
▁ሲ ቀ
ድር ግ
ባቸው ና
▁ተወ ዳጅ
▁በዓ ይ
▁ስታ ድ
▁በቀ ል
▁የከተማ ው
ኅ ንነት
▁ያ ግ
ላለ ፈ
▁ህል ውና
ኒ ስ
ን ጋ
▁ኃላፊ ው
▁በመጥ ቀስ
ቴ ዎስ
▁ኢ ያ
ቆ ራ
ዊ ያን
▁በጥ ሩ
▁በዘ መናዊ
▁መጨ መር
ቃ ቂ
ኩ ትን
ፋ ይ
▁ማ ምረት
▁የመ ተ
▁በም ሳሌ
▁ቆይ ቶ
▁ተሳታፊ ዎች
▁የተሳ ሳተ
ማ ሪያ
▁ከ ር
▁አካባቢ ው
▁ማድረ ጉን
▁በተ ሰ
▁የመ ኖሪያ
▁ድ ራ
▁ወጥ ተው
▁ለመ ሄድ
▁ምር ቶችን
▁ያላ ትን
▁አ ጉ
▁የተ ፈጠረው
▁ኢ ሳ
▁ቁ ጣ
▁ቅዱ ሳን
ጨዋ ታ
▁ለሁ ለ
ዝ ማች
▁ማ ውጣት
▁ድር ድር
▁መረጃ ዎችን
▁ስር ጭት
▁የግብ ፅ
▁ይገልፃ ሉ
ኪ ን
ፋ ጠን
▁የ ሳይንስ
▁ብ ና
▁የሌ ላ
▁ኅ ብረተሰቡ
▁ሰለ ባ
ሮን ቶስ
▁ይ ነሳ
▁ውጤ ቱ
▁በህ ግ
▁የከተማ ዋ
▁ስ ፔ
▁እንደ የ
መራ ው
▁ማለ ቴ
▁ተ ጨ
▁የሚ ካሄደው
▁ለው ጦች
▁የሕ ዝቡ
▁አራ ተኛ
▁ስህ ተ
▁ጥ በ
▁የአ ትሌቲክስ
▁የኢ ፌዴሪ
▁ማስተ ር
▁ኬ ሚ
ባ ለሁ
ዓ ሉ
▁ሜ ጋ
▁ተ ሠ
▁ብ ላችሁ
▁ባ ንድ
▁የመ ሆን
▁መድረ ስ
ስቲ ቫ
ሚ ን
▁ ኔ
▁በአ ዲሱ
▁ፍት ሃዊ
ረ ሙ
▁መ ዘጋጀ
▁እንዲ ቀጥል
ደረ ሰው
ወለ ድ
▁የመሳሰ ሉት
ጣ ዊ
▁እ ፈልጋ
▁ሳ ያስ
▁ገለ ል
ዮ ኖች
▁ከ ትናንት
▁በሁለ ተኛ
ፈ ስ
▁ው ጣ
▁ጎ ራ
▁በታ ሪክ
▁የሚያ ግ
▁ስን ል
▁የፕ ሮጀ
▁የጥ ራት
▁በአን ፃ
▁በመን ገድ
▁ጓደ ኞ
4 0
▁ተ ሰር
▁የአ ቶ
▁ፈ ላጊ
▁እያ የ
ድሞ ው
▁ልጆ ቻቸውን
▁መገኘ ት
▁ሐዋ ርያው
ፆ ች
▁ይላል ፦
▁ቋንቋ ዎች
▁መወ ጣት
ባ ትና
▁በ ነበረበት
ስተ ን
▁መ ደረግ
▁ማ ከናወን
▁በፍ ርድ
▁ይታ መናል
▁አሳይ ቷል
ሪ ና
ጾ ች
▁አ ሥ
ድረ ኩ
▁ያለ በትን
ሯ ዊ
▁ት ገኛለች
ዝግ ጅት
ገ ረው
▁ኤ ምባሲ
▁ባህ ልና
▁አዛ ዥ
▁ስሙ ኝማ
▁በውስ ጡ
አ ለሁ
▁ም ሕ
▁ዘ ወትር
▁በግ ለ
ረጋገ ጡ
▁ቀጣይ ነት
▁በ ጸ
▁እ ጃ
▁እ አአ
▁ወንድ ሞ
▁አምባ ገነ
▁መዛሙር ቱ
ት ሮ
ፈ ቻ
▁ይ ው
▁በተ ደረገ
▁ተመ ራጭ
▁በግል ፅ
ብ ኛል
▁ለመ ርዳት
▁ቢ ሆኑም
▁አል ያም
▁4 2
▁በነ ገራችን
9 0
i l
ማ ስ
ቁ ሟል
▁በ200 8
▁ኢንዱስትሪ ው
ሎ ና
ታ ች
▁አ ነጋገር
▁ተ ረት
ቆ የት
ጠ ሉ
▁ተ ረድ
▁የመ ቀ
▁የአ ማራ
▁የበ ለ
▁ሃይማኖ ታዊ
▁ነ ዳጅ
en t
ራ ስ
▁ከ ረ
▁ቢ ያስ
▁ፈ ንታ
ከባ ከብ
ሙኒ ኬሽን
ገ ሬ
▁ለመ ውሰድ
ጎ ዱ
▁ ላል
▁የሚ ን
▁በቀ ጣዩ
▁ተቋማ ትን
ጦ ችን
▁ተ ሃድሶ
መለ ክት
▁የፖ ሊሲ
▁እፈልጋ ለሁ
መ ዱ
▁የ ቅድ
▁ይሄ ው
ሳተ ፈ
▁ጥቅም ት
▁የሚመራ ው
ና ዳ
▁ይ ቀር
▁የሚ ደ
▁የተ ሠራ
▁በመ ገንባት
▁ዘር ፉን
▁ማን ሳት
▁አው ቃለሁ
▁ይዞ ታ
▁ለኢ ን
▁የቱ ሪዝም
ረ ሰብ
ሻ ለሁ
▁አ ደረጉ
▁የሚ ችሉት
▁ሳይ ሆኑ
▁ለአ ዲስ
▁ያመለክ ታሉ
▁የ ሞት
▁ስ ደት
▁በአ ል
▁በአ ለም
▁መስ ቀል
▁ቆ ን
▁ገለ ፃ
▁አመለካ ከ
▁ዘገባ ዎች
ገ ናል
▁የተቃ ዋሚ
▁ለመ ቋቋም
▁ተመል ካ
▁ተጋ ላጭ
ቀ ደው
በ ውን
▁የ ከፍተኛ
▁በ ጅ
▁መ ፃ
▁ግ ሩም
▁በሚ ካሄደው
ጠቀ ሰው
▁ግብ ዓ
▁የክ ብር
▁መሣሪያ ዎች
መቻ ቸት
▁አዝ ማ
o l
ሦ ስተኛ
ነ ቷን
▁መ ት
▁እንዲ ገቡ
▁መስ ራ
▁የፍት ህ
▁አስደ ሳች
▁ጩ ኸ
ለ ፉ
ባ በል
▁ተ ከላ
▁በመ ሠ
ለያ ይ
ሚያ ስ
▁ጎ ል
ስ ቦ
▁ከ ወጣ
▁የመ ኖር
▁ሐ ምሌ
▁የበ ጀት
▁ይጠቀ ሳሉ
ማ ውያን
▁መ ጠቀ
▁ግ ፊት
ገና ኘት
ል ፉ
ሟ ቸው
ሽ ታው
▁የ ዛ
▁መ ሻሻል
▁ግን ብ
▁የም ድር
ቀረ ቡት
▁ D
▁በማ ዕ
▁ፈ ታኝ
▁ሀገ ሮች
▁አስ ቀድ
▁ሁለ ቱን
ሻ ቸው
ኮ ራ
▁ወ ተት
▁በመ ሥራት
▁ካ ሜ
▁ደረጃ ውን
▁ኮን ስትራክሽን
ዑ ስ
ጓ ጓ
▁የ ጀ
▁መ ሃል
▁በአ የር
▁ሰ ፈር
▁እና ስ
▁ትር ጉ
▁ኩባንያ ው
▁ተመል ካች
ነ ሪንግ
▁ሰ ልፍ
▁ሁ ከት
▁ዓ ቃቤ
▁የሚያ ጋጥ
▁ጠ ጅ
▁ከሌ ላው
▁ፌ ደ
▁ጀም ሯል
▁በወ ንዶች
▁በ ዜ
▁ዕ ዳ
▁እንዳይ ሆን
▁ልማ ትን
▁ኃጢ አ
▁ተተ ኪ
▁የ ዞኑ
▁ስ ኳር
▁እንዲ ችሉ
▁ኤ ች
▁ሶ ስተኛ
▁የተ ያያዙ
ለች ም
▁አጋ ማሽ
▁ከነ ማ
▁በከተማ ው
በ ሬ
ነ ታችንን
ኮ ል
▁ሚ ካኤል
ችሁ ም
▁እድ ገ
ላቀ ል
▁ተጠቅ መው
▁ያስረዳ ል
ለ ቆ
ሰ ሱ
ሽ ና
▁ሲ ናገር
▁በአማ ካይ
ሰ ልጣ
ቻ ላቸው
▁አድርጎ ታል
▁ኢንዱስት ሪዎች
ክ ሉ
▁ከ ኦ
▁በተ ባለው
▁አም ጥ
▁አዋ ቂ
▁በሚቀጥ ለው
ቻ ለም
ደ ተኞች
▁መ ሥራ
▁ማ ሰል
▁የሚያስ ከት
▁ሞ ገስ
▁ምርጫ ው
▁በማስ ገባት
▁መፅ ሐ
▁ልውው ጥ
ቃ ቸውን
ጋ ች
▁ይ መጣ
▁ያ መጣ
▁ለመ ም
▁ለመ ን
▁አል ሆነ
▁ፈ ን
▁በር ካ
▁አረጋግ ጧል
▁አን ተን
▁የስ ኳር
▁መዝ .
ፈራ ው
▁ጠቁ ሟል
▁አክብሮ ት
ጓ ቸው
▁ሥራ ቸውን
ታወ ቅም
▁3 9
▁መንግሥ ትና
▁የዚህ ን
ሬ ድ
▁መ ገን
▁በወ ር
ስብ ስብ
▁ስል ት
▁የመስ ኖ
መ በት
ተ ሮች
▁የ ሪ
▁ታ ች
▁የ ክልል
ስተ ናገ
▁ጥያቄ ዎችን
▁በስ ቲያ
▁የመጀመሪያ ውን
▁ጥር ጣሬ
ሹ ራንስ
ለን ደን
▁ሕዝ ባዊ
በ ኛ
ቢ ዎች
ክ ሎ
▁ ዲያ
▁ in
▁እን ቁ
▁እንዲ ፈጠር
ገራ ችንን
▁ባል ደረ
▁ሲ ደረግ
▁የሰ ራ
▁በጥ ልቀት
ናል ድ
▁ከአ ሜሪካ
▁በቀ ስ
▁ዓ ለማ
▁የአ ፈር
▁ማስ ጨበ
▁አላ ስ
▁ተዋ ጊ
▁መ ረጋጋት
▁ግ ዢ
▁መን ቀሳቀስ
▁ተወ ል
▁ደጋፊ ዎች
▁ይጠበቅ ባቸዋል
ሽ ታ
ቆ ዩ
▁ከ ትምህርት
▁ወደ ዚህ
▁የጥ ናት
▁ሚ ስተር
▁መስ ፈርት
▁የባ ንክ
▁አክ ሲ
▁የተቀመ ጠ
▁ጀር መን
ወ ዳደር
▁ጥ ንታዊ
ለን ተ
▁ከተማ ዋ
ና ኛ
▁አ ፄ
▁የተ ካሄደው
▁የመ ጡት
ሪያ ል
መስ ረት
▁እር ካታ
▁አፍ ቃ
▁ነ ቢ
▁ለመ ወጣት
▁ኢ የሩሳሌም
▁አይ ታ
▁ኮሚ ሽኑ
▁ገለ ጸ
▁ፍላጐ ት
ላ ታል
▁ R
▁ይ ግባ
▁የት ግራይ
ዩኒ ኬሽን
ቅ ራ
ኖ ረን
ጥ ሎ
▁ከ ፖ
▁ብዙ ውን
▁አባ ቱ
▁እንዲያ ገኝ
▁ኤጀንሲ ው
ነ ቶችን
▁መ ነሳ
▁ም ላ
መረ ጥ
▁ማዕከ ላት
▁በዘላቂ ነት
▁በመ ጣ
▁አፍሪካ ውያን
▁አሰልጣ ኞች
▁ F
▁ከ ከተማ
▁አል ሸ
▁አንድ ዬ
▁ነገ ሩን
▁የባ ህ
▁ባሕር ይ
▁ተሾ መ
▁ይ ን
▁በማ ጥ
ቋቋ ሙ
▁በሥ ነ
ሸ ናፊ
▁ን ፁ
▁የሀ ገሪቱ
ደ ኞች
▁አ ነሳ
▁አደጋ ዎች
▁አሸ ባሪ
ኮ ም
ደ ሪያ
▁ዶ ሮ
ሻ ውን
የ ትና
▁ማ ቅረ
▁የአ ስተዳደር
▁ፋ ይናንስ
▁የሚችለው ን
▁ከ ምር
▁ሲ ሰ
ምን ቱ
ከና ውን
▁ከመንግ ስት
ማ ም
ጋ ቸዋል
▁ያ በረ
▁ል ጁን
▁ለተ ለያዩ
▁ታይ ቶ
▁ያ በ
▁የሚያስ ች
▁ተጠያቂ ነት
▁ጥላ ቻ
ሞ ኑ
ረ ካ
▁በ ጐ
▁በ ቤት
▁ዲ ባባ
▁እንደማ ያ
▁የያዘ ው
▁ነ ቅ
▁ጨ ለማ
▁ጭ ንቅ
▁የጠ ቅ
▁ድል ድ
ጠየ ቁ
ቋ ር
▁የ ችግ
▁የሚ ነሱ
▁እንደሚ ከተለው
▁4 1
ዮ ሽ
ደ ቱ
ፌዴሬ ሽን
▁ተጠቅ ሞ
▁ላለ መ
ለ ፈ
ም ቷል
ዕ ና
ፈ ቅድ
ቦ ታው
▁እ ብ
▁በሂ ደት
ግ ስ
▁የ ገባው
▁ማ ፍራት
▁ዜ ናዊ
▁ምዕራ ብ
▁ቀጠ ለ
ሳ ለሁ
ነ ጥብ
ጥ ሩ
▁የሚ ካሄድ
▁ም ስራቅ
▁በማ ውጣት
▁በገ ጠር
ድ ቡ
▁የኮ ሚ
ሥ ረት
▁በአ ር
▁ገለ ጹ
▁ተሸ ላሚ
▁መቅ ደ
▁የሚ ደር
▁ያ ጋጠ
▁አግኝ ቶ
ሳ ለች
▁አር አያ
▁የሚያ ሰ
▁ዳ ያስፖራ
▁ስር አት
▁ሩ ሲያ
▁አደር ጋለሁ
▁ሚ ስጥ
▁ሀ ገራችን
▁ይሰራ ል
መ ሙ
ዚ ል
▁ጥ ሬ
▁ቢ ል
▁በዓ ሉ
▁ይታ ያሉ
▁ወዳ ድ
ባ ታል
▁ይ ሞ
▁እንዳ ን
ፍ ለ
▁በአ ስተ
▁ካ ርድ
▁መስ ፍን
▁ሙ ስሊ
ዕ ለት
▁እንዲ ወጣ
▁መል አ
▁ማስ ወገድ
▁ር ዝ
ቀጥ ሉ
▁በህ ይወት
ነገ ረው
▁ተከታ ዮች
o p
ተ ራ
ጅ ና
ግ ሮ
▁ለ ልማት
▁ለማ ካሄድ
▁ሃ ብ
▁ጠቅ ሶ
▁ከ1 5
▁የአመራ ር
▁የ ጃ
▁መ ቸ
▁ከ ሩ
▁ው ስብስብ
▁ጠ በ
▁የወ ጪ
▁3 00
▁ጸ ሎት
▁ማር ቆስ
▁የሚ ጋ
▁ጠ ንቅ
▁ከተ ባለ
▁እየተ ከናወነ
▁ጭ ብ
ትምህ ር
▁የሚጠ ብ
ድ ጉ
ፍ ሮ
▁ያ ጣ
▁ቀ ጣዩ
▁አግኝ ተዋል
▁ሳንቲ ም
ዎ ን
▁የሚ ሳተፉ
ለንተ ናዊ
e l
ማ ቅ
ም ግ
▁ለማ ስተ
▁ላ ሉ
▁ብሄ ረሰቦች
ክ ንያ
ዳ ግ
ጠ ጣ
▁ከ ገባ
▁የዕ ለት
▁አድራ ጎት
▁ማበረታ ቻ
▁ፈጥ ሯል
▁ G
▁ማ ሸነፍ
▁ኢንስቲት ዩት
ግ ሩ
▁በአ ም
▁በአ ይ
▁የመ ጠጥ
▁የት ዳር
▁ስፖር ተኞች
▁የተ ፋ
▁ሲ ናገሩ
▁ዘፍ ጥረት
መ ውን
ጡ በት
▁ከ ነዚህ
▁ሰ ኞ
▁በተ ጨባጭ
ያ ና
▁ ዌ
▁አል ፈው
▁ህ ንፃ
ይ ዙ
ጡ ም
▁ም ጣኔ
▁አፍሪካ ን
▁ማ ደግ
▁በተ ቋ
ታቸው ና
▁ቆ ዳ
▁ሌላ ም
▁ዘግ ቧል
▁ለማጥ ፋት
▁የተ ረ
▁ጥ ሎ
▁የማ ስተ
▁ፈ ንድ
▁ቆ ሮንቶስ
ሞክ ር
s t
ጭ ሩ
▁ነ ሐሴ
▁ግ ዛ
▁እየ ሰሩ
▁እንዳ ላ
ር ሽ
ከ ነ
ጎ ም
▁ ኒው
▁ሁኔታ ውን
▁ኦ ዲ
▁መዝ ሙ
▁መላ እ
ፋ ና
▁ ፌዴራ
▁በብ ሔራዊ
ሕ ር
▁መ ኳንን
▁ከ ኮ
▁የተ ሰራ
▁ስብሰባ ዎች
▁ክህ ሎት
ሠ ል
ሾ ቹ
▁ለ ፕ
▁ሰው ነት
▁ዞ ኖች
▁ቀጥ ተኛ
▁ፕሮግራ ሞች
▁ዮሐ .
ባበ ቅ
▁ሦ ስተኛው
▁ሰማ ያዊ
ሰ ኞ
ት ልና
▁የመ ኪና
▁ለመ ውጣት
▁የሰ ዎች
ልጣ ኑ
▁ን ጥረ
▁በም ር
ጠናቀ ቀው
▁በመንግ ሥ
▁አይመስ ልም
ወ ጠ
▁እ ጦት
ጨረ ታ
▁እንደሚያስ ፈልግ
▁የተከሰ ተው
ሚ ዎች
ዞ ር
▁አት ክል
▁ዲ ፕሎማሲ
▁ተቀም ጦ
▁ስርዓ ቱ
▁ነባ ራዊ
▁የተ ገኙት
በር ክ
▁የማ ት
▁2 .
▁መስ መ
▁ተከ ሳ
ነር ሱ
▁ተነ ስተው
▁ማጣ ሪያ
▁መገ መት
▁የህዝቡ ን
▁የ ፓርላማ
▁ተ ጀም
▁የተ ነገረ
▁ሆቴ ሎች
▁ተር ታ
▁ወዳጅ ነት
ር ብ
ኦ ል
▁የ ያ
▁ውስጥ ና
ምድ ና
▁ስፍራ ዎች
ናይ ጄሪያ
▁ከእንግ ዲህ
▁የ ጐ
▁ከ ምት
▁እንደ ታ
▁በአ ገልግሎት
▁መካከል ም
▁በማ ኅ
ቀ ፉ
ኔ ል
▁የ ጨ
▁አ ተ
▁ያ ጋ
▁ራ ሳችንን
▁ፋ ሲ
ዘዋ ዋሪ
▁ኢንጂ ነር
ከ ሪያ
▁ያ ምና
▁ባ ር
▁ኦ ሮሚያ
▁ግድ ቡ
▁የሥ ልጣን
▁ወላ ጆ
▁ለ ክ
▁በአ ካል
▁አባ ቶች
ዳደ ሪያ
ሰ ረ
ከ ስ
▁ሲያ ደርግ
ደረሰ በት
ለ ቁ
ራ ኒው
ኒ ስቴ
▁በ በርካታ
▁ይ ጥ
ቸው ና
▁የመሰ ረተ
▁ታይ ቷል
ቃ ለል
▁የሚ ረዳ
▁በአ ስ
ክ ና
▁መስ ጫ
5 00
a c
ም ች
ጤ ን
▁ይ ኖሩ
▁የነ ሐስ
▁መል ካ
▁ቅር ብ
▁ጽሑ ፎች
▁ፈጥ ሮ
ሏ ን
▁የ ንግ
▁አ ሽ
▁ሰ ውን
▁በማ ዘጋጀት
▁አመ ሰ
▁እንደሆነ ና
▁ዘር ፈ
ቡ ዕ
ኤ ልን
▁አ ሊ
▁ይ ዘን
▁ፈ ጣ
▁ሳይ ንሳዊ
▁የቡ ድን
ሟ ሉ
▁በመ ለየት
▁ልጆ ቻቸው
▁ቀጥ ሏል
ከባ በር
ወ ሓ
▁ቴ ሌቪዥን
▁ትኩ ረ
▁ዳር ቻ
ሣ ኤ
ቃ ለች
ጎ ለ
ጴ ዛ
▁መ ከተል
▁ማ ዶ
▁እንዲያ ደርግ
▁የጥ ፋት
ተ ሪያ
▁በሚ ፈለገው
▁በሰ ፊው
▁በው ሃ
▁በል ማት
▁ለመግ ዛት
ኦ ት
▁በ ፓ
▁ተ ሽከርካሪ
▁መስ ዋዕትነት
▁የሚጠ ቅ
ሄ ዳ
ም ጣ
ው ያኑ
▁የ ኬንያ
▁የአ ምስት
▁እና ቴ
▁ምክንያ ታዊ
▁ሐሳ ቦች
መ ሠ
ን ጀ
▁የምን ለው
▁ቀር በው
▁የሚመጣ ው
ረ ዳን
▁በ ጣ
▁የሚ ታወቀው
▁ሲ ተ
▁በዕ ድሜ
▁የኮን ስትራክሽን
ነ ጥ
ዛ ሉ
▁መ ደብ
▁ከ ንቱ
▁እንደማይ ችል
▁የዕድ ገት
▁ያምና ሉ
▁ዋ ት
▁የወ ር
▁የገ ዛ
▁ያሳ የ
መለካ ከት
▁አስተያየ ታቸውን
▁ከ ኃ
▁ለ ወጣ
▁የሚ ገር
▁ማ ጣት
▁ሰ ሚ
▁ባ ልን
▁1 .
▁የታ የ
መ ጠ
ጎ ል
▁በዚያ ም
▁የሚያሳ ዩ
▁የጉ ባኤ
▁ማዳ በሪያ
ፈጽ ም
▁የሁለ ተኛ
▁ ኔት
▁ከ 6
▁የነ በራቸው
▁ደንበ ኛ
በ ናል
ወ ርቅ
▁በ ሴ
▁የሚ ወጡ
▁አስ ከ
ለ መደ
የ ስ
▁መ ያ
▁ቆ ሞ
▁ፓርቲ ው
▁ድርጊ ቶች
▁ትምህር ታቸውን
▁ከሆኑ ት
ብ ኚ
▁አል ማ
▁አቅ ሙ
ዳ ጃ
ፋ ቱ
▁አ ነ
▁ጠ ፍ
▁የወጣ ቶች
▁ገበ ያው
ጓዳ ኝ
▁አስገንዝ በዋል
▁ያ ገኘው
▁ሳ ም
▁ች ላ
ምፒ ዮን
▁እንግ ዶች
ካተ ቱ
▁የጠቆ ሙት
▁ L
▁የሥ ር
▁ሥርዓ ቶች
▁የደረ ሰው
▁አርቲ ስት
ያ ዎቹ
▁የ ሮ
▁ቀ ለ
▁ለማ ፍራት
▁ሊ ታ
▁እና ደርጋ
▁የታ ላቁ
▁የማህ በራዊ
▁ሰን ደቅ
▁ዳግ መኛ
ል ቆ
ሙ በት
ቫ ይ
▁በአ ው
▁አሳዛ ኝ
▁በሚ ገኝ
▁አገል ግ
▁በ1 8
▁በዘ ንድሮው
▁ማ ነው
▁አባ ይ
▁ደረጃ ን
▁ዞ ሮ
ላ ና
▁ይ ታይ
ጠቀ ስ
▁ሲያ ደርጉ
▁ደር ግ
▁አጋጣሚ ዎች
ሱ ና
ሳ ትና
▁የሚ ቀርቡ
▁አባ ባ
▁ወጣቶች ና
▁የፕ ሮ
▁ሆስፒ ታ
▁ተቋማ ቱ
ስተና ግ
ሮ ቻቸው
▁ጆ ን
▁ከ3 0
▁ምኞ ት
▁አድና ቆት
▁መድሃ ኒ
▁ነ ክ
▁ለ ሶ
▁ለ ሆኑ
▁ለመ ያዝ
▁ቢ ኖሩም
▁ቅ ርስ
ታይ ም
▁መጥ ቀስ
ከፍ ል
▁ሳምን ታት
ጂ ንግ
▁የተ ደ
▁ታ ም
▁በም ንም
▁መሳሪያ ዎች
▁ጉድጓ ድ
▁እ ለት
▁መኖ ራቸው
ዙ ን
▁የሚያ ከናው
▁ጥያቄ ው
▁በአንድ ነት
▁ምሥ ክር
▁ድህ ነትን
ዱ ና
▁ቀ ነ
▁ስለ ነበረ
▁ታስ ቦ
▁አ ቃ
▁ባ ልና
▁እንዲ ሉ
▁ት ሆና
ሮ ድ
▁ማ ለቱ
▁ቤ ትና
▁እንደሚ ጠበቅ
▁ተከ ታት
▁እንድት ሆን
▁መስተ ዳድር
ማ ችሁ
ባ ለን
ታ ለን
ወ ደው
ፈ ቅ
▁አ ወጣ
▁የሚ ሆነ
▁አል ኩ
▁መሰ ለኝ
▁ብሔ ሮች
▁ጨዋ ታው
▁ኅ ብረተሰብ
▁ብሏል ፦
ሳ ቱ
ፈ ሰ
▁ከ ጠ
▁ለማ ገልገል
▁የኢ ትዮ
▁ፕሬ ስ
▁የሚገል ጽ
▁በግብ ፅ
አይ ቪ
ኗኗ ር
ም ፅ
ቦ ን
▁ነበር ና
▁እስከ ሚ
▁እኔ ና
ብዛ ም
▁የሚያሳ የው
▁መክ ፈል
ስ ጋ
ፍ ያ
▁አ ዘጋ
▁ከ ሙ
▁ሲ ካሄድ
▁ጥ ብቅ
▁አገ ላለ
ሁ ም
ጂ ዎች
▁በባ ህር
▁ባህር ይ
▁ይጠቁ ማል
ሄ ደው
▁ W
▁የ ሜ
▁አ ቆጣጠር
▁እንደ ዚሁ
▁የአ ስቸኳይ
▁ቅ ስቀሳ
▁ተጠ ቁሟል
▁ሚዲያ ዎች
▁ለ ሽ
▁ስ ፋት
▁አል ቻል
▁ጀ ግና
▁4 4
▁ዘመ ድ
▁በተቃ ራኒው
▁ምሕ ረት
ራ ችንን
ካ ተት
ኸ ኝ
ፍ ም
ፖ ንሰር
▁የግ ብር
▁እናንተ ም
ቁ ና
ባ ትን
▁መ ጀመር
▁ጠ ባብ
▁የወ ረ
▁ሜ ት
▁ለሚ ገኙ
▁ህዝብ ን
▁ተ ግ
▁ተ ሽከርካሪዎች
▁በተ ከታታይ
▁ለማ ውጣት
▁በማ ጠናከር
▁ን ዑስ
▁አ ነጋ
▁ማ እ
▁ት ቶ
▁የመ ረ
ገኙ ም
ቀረ በው
▁አስተዳደር ን
▁አብዛ ኛዎቹ
ከታተ ሉ
▁ማክ ሰኞ
ም ቀት
▁በ ኅ
▁ባ ራክ
▁ማዕ ቀፍ
▁ለ ደ
▁ብ ጥብ
▁ታ ግ
▁ከድ ህነት
ና ፍ
▁አሳ ድ
▁ሆና ለች
▁አድራ ጊ
▁ይጀም ራል
ማ ቱ
ሽ ት
▁እን ጨት
▁ሲ ጀምር
▁መግ ዛት
▁ያቀረ በው
▁ይጠበቅ በታል
ብ ራት
ጋ ባ
ጤ ት
▁በ ምና
▁ለመ መ
▁ያስ ደ
ፈራ ረ
▁እሷ ም
▁ደንበ ኞች
ሰ ባቸው
ዝ ቃ
ግ ሥት
▁ወ ታደር
▁እንደ ውም
▁የተ ያዘ
▁የሚሰ ጠውን
▁ቁጥ ራቸው
▁በዕ ለቱ
▁በኃ ይል
ወ ደ
ገ ዘ
ግ ነት
▁ ኀ
▁የ ደርግ
▁ማ ገልገል
▁ጊዜ ና
ንስ ና
▁በሰ ዎች
▁የራ ሳቸው
▁መድረ ኩ
ል ኛል
የ ረ
▁ው ዝ
▁ይህ ች
▁ሕ ጎች
▁አለመ ኖር
▁የጎ ዳና
▁ፈረን ሳይ
ዋ ለህ
▁የ ሱ
▁ተ ጉ
▁የወ ቅ
ጋ ለጥ
▁የ ዝ
▁ይ ካሄ
▁ያ ሸነ
▁ት ናገራ
▁ገ ጣሚ
▁የግ ለ
▁4 3
▁ጀም ረዋል
▁በፈ ረን
▁ኢንቨስት መን
ን ቦት
ገ ፋ
▁ድ ብ
ገራ ቸውን
▁ሬ ዲዮ
ቃቅ ንና
▁ይ ነግ
▁ይሰ ጣሉ
▁ሰራ ተኛ
▁የመጨረሻ ው
▁በማህ በራዊ
ደ ባ
▁ሁ ለንተናዊ
ኖር በት
▁ከማ ሳ
▁መዝ ገብ
▁መም ራት
ላቀ ቅ
▁አፈፃፀ ም
ፊ ትም
▁እንደ ቀ
▁ግ ራም
▁ፍ የ
▁ጉዳ ተኞች
▁ፀ ጥታ
▁የምር መራ
ኪ ም
▁ይ ለያ
▁የሚ ፈልግ
▁አማ ር
▁ክል ሉ
▁አጋ ጥ
▁ሊያ ደርግ
ቆጠ ብ
▁ያቀረ ቡት
▁ገፅ ታ
▁የተቋቋ መው
▁የሚ ወጣ
▁እንደ ሆን
▁የተ ተ
▁ል ቡ
▁ዘ ለ
▁ሊ ኖረው
▁ካ ሣ
▁መስ ፈር
▁ሃ ገር
▁ፓር ኮች
▁የሀ ገራችን
▁የኦ ሮሞ
▁በመቀ ጠል
▁ትምህር ቱን
▁መ ጡ
▁ይ ገኝ
▁ት ው
▁በእ ስራኤል
▁ቢሮ ው
▁የገለ ፁት
▁T he
▁በመንፈ ስ
▁ ዩኒ
▁መ ጓዝ
▁እን ኩ
▁በጥ ቂት
▁ያተኮ ረ
ፍ ቱ
▁ይ ይ
▁ሞ ዴል
▁የሚሰ ጡት
ካተ ተ
▁እናደርጋ ለን
ሻ ሽ
ጠ ናል
▁ተ ጣ
▁በማ ያ
ሰቡ ት
▁በነ በሩ
▁ከሌ ላ
▁ዝርያ ዎች
ጥ በት
▁የ ረጅም
▁በአ ገሪቷ
▁ገ መ
▁እነ ርሱ
ዘው ተሪያ
▁ምል ልስ
▁ለመንግ ሥት
▁ H
▁ለ ድር
▁ክ ረምት
▁ሚ ዛን
▁ሙ ያዊ
▁በግ ንባ
▁በጥ ናት
▁ለእ ነዚህ
ውል ት
▁እንግ ሊ
▁ከም ንም
▁ሪፖር ቱ
▁የ1 9
ጨር ቃ
▁በአንፃ ሩ
ጋ ጣሚ
▁በ ለ
▁በ ዩ
▁በተ ራ
▁በኮ ን
ዕ ለቱ
▁የ ር
▁የ ጀመሩት
ፍራ ው
▁ከደ ቡብ
ሠ ሩት
ቧ ቸው
ደ ሚያ
▁ከ ጋ
▁የሚ ቀርብ
▁ያለ ች
▁ሰው ዬ
ግለ ፅ
▁9 0
▁ዩ ሮ
▁እናው ቃለን
ዳ ዊ
ድ ማ
▁መ ቻል
▁ተ ዳ
▁ታ ጋ
▁ተገኝ ተው
ዋ ይ
▁ነ በራቸው
▁ሰ ልጣ
▁የአ ም
▁ተይ ዞ
ዓ ዛ
ጅ ቶ
▁የ ኛ
▁የአ ክ
▁አለ ና
▁ቆ ሮ
▁በኩል ም
▁ቀር ቧል
▁የቢ ዝነስ
ቋ ቸው
▁ነ ባር
▁ከነ በሩት
ጨዋ ታው
▁የስ ልጣን
▁ኪ ሳራ
ዘነጋ ም
▁እንደገለ ፁት
ፀ ን
ፈ ረው
▁መ ሃ
▁የሚ ቀር
▁የተ ማረ
▁የመ ከላከል
▁አድር ግ
▁የል ጅ
▁በገ ዛ
▁ስፖር ቶች
ም ኑ
▁መንገ ዱን
▁ይጨ ምራል
▁ት ግራይ
▁የማ ጣ
▁አድር ጓ
ካሄ ዱት
▁በሽ ታው
▁ፍት ህ
▁ጥቅ ስ
▁ተስማ ም
ሰ ም
▁በ ከተሞች
▁ሞ ተ
ችላ ለሁ
ቢ ኔ
▁ከ 7
▁እንደሚ ሰጥ
▁ስለ ሆኑ
▁ዓመ ታትን
▁አበ ራ
▁ተና ገረ
▁የሚገባ ውን
ስክ ሌት
ሊ ቲ
ደ ሰት
▁ሊ ቃ
▁ሙ ሽ
▁አድር ጉ
▁ጭ ንቀት
▁ተወ ዳዳሪዎች
▁በሶ ማሊያ
ፃፀ ር
ሞ ና
▁የ ክል
▁የመ ጀመርያ
▁ለመ ግለጽ
▁መስ ፋፋት
መለክ ተው
ው ቀት
▁ ጾ
▁ይ መለከ
▁የሚያስ ችለው
▁ዓለም ን
▁ተከ ፍ
▁ጸ ጋ
▁አግኝ ቷል
▁ወስ ደው
ዛ ባ
▁የ ፌ
▁አስተ ዳዳሪ
▁ነበረ በት
▁ጉባኤ ው
▁እ ችላለሁ
▁ገ ጥ
▁ኢን ቨ
▁ዜ ጐች
▁ስት ሆን
ጨ ብ
▁ ገር
▁ከ ን
▁እና ማ
▁አካ ላትን
▁የእ ነ
▁ሞ ል
ር ጋ
▁ለ ትምህርት
▁ባ ወጣው
▁እያንዳን ዳቸው
▁መቆ ራ
ሄ ር
▁አን ብ
▁አስተና ጋ
▁ቆሮ .
▁የ 3
▁በ ፅ
▁አይ ሁዳውያን
▁የእ ጅ
ተር ኔት
▁ተመ ድ
▁በሰ ላማዊ
▁አገሪ ቷ
ሁ በት
▁ማ ክበር
▁ማ መልከ
▁ሊ ሰ
▁እንደሚ ደረግ
▁አካ ሂ
▁ከሚያ ስ
▁የ ከፈ
▁ወ ኪ
▁ሲ ቲ
▁የማ ግኘት
▁አስተ ሳ
▁መሆኑን ና
▁አትሌ ቶችን
▁የ ኖረ
▁ይ መረ
▁ማ ማ
▁ታ ምራት
▁ዋ ን
▁ሶ ማሊያ
▁ፎ ቅ
ን ጻ
ው ር
▁ይ ደረግ
▁የተሰ ጠውን
▁መምህ ራ
▁ከስ ድስት
▁ልም ምድ
ቀ ዱ
ኳ ት
▁ተመ ጣ
▁እው ነቱን
▁በኢን ዱስትሪ
ሥ ላሴ
ክ ፈት
ዖ ን
ዳ ችሁ
ዶ ሚ
▁አ ቤት
▁የወ ይን
▁በም ታ
▁ድን ገተኛ
ስታ ን
▁አሳል ፎ
ቆ ማ
▁ያ ድ
▁ክ ንድ
▁ማዕ ከላዊ
▁ሥርዓ ቱን
▁ሲ ወጣ
▁አን ችልም
▁የሌ ለ
▁መተ ማመን
▁በድን ገት
▁አክሲ ዮን
ት ክል
ካ ችሁ
ጠ ፍ
ላይ ታ
ስተ ም
ጠና ቅ
▁በጥ ራት
▁ዞ ር
▁እባ ክህ
ለ ር
ላ ላው
ሙ ላት
▁በ ዴሞክራሲ
▁ከ ፕ
▁ፈ ፅ
ክ ላ
▁ህ ልም
▁ተወ ያይ
▁እንደሌ ለው
▁ትግ ሉ
▁አገልግሎ ቱ
▁4 00
▁አምራ ቾች
▁በጋ ዜ
ላችሁ ም
▁ያገኛ ሉ
▁ትናገራ ለች
ገ ራዊ
ፋ ትና
▁ክ ምች
▁የበ ቃ
ከፋ ፈ
▁ፈተና ዎች
▁የማህ በረሰብ
▁ተመጣ ጣኝ
▁በማ ግኘት
▁እየ ሰጠ
▁አላ ገኘ
▁መቻ ሉን
▁ይስተዋ ላል
▁የ ቃ
▁የ 201
▁እየተ ሠራ
ሰማ ቸው
▁ህገ ወጥ
▁ቫይ ረስ
▁ዲዛ ይን
ሯ ቸውን
ፍ ረስ
▁ዘ ፈን
▁ካ ሬ
▁ለእ ዚህ
▁የተሰ ኘው
▁አለማ የሁ
▁ክብረ ወሰን
▁የ ፅ
▁ብ ስ
▁ብቻ ም
▁በም ግብ
▁ፌ ስቲቫ
ለ 0
ቦ ል
ጅ መንት
▁ፍ ፁም
▁የማይ ችል
▁ዜ ጎ
ደረግ ን
ይ ቅ
▁በማ ሸነፍ
▁ሻ ምፒዮን
▁እንደሚገባ ም
▁ከመ ሆን
▁በሌሎች ም
▁ይጠቅ ሳሉ
▁አስከባ ሪ
ቆ ረ
▁የ ቅር
▁አ ጥር
▁ስ ማቸው
▁ገ ቡ
▁ለማ ስፋፋት
▁ተጠ ሪ
▁ኤ ም
ቆጠ ረ
▁በ ሰማ
▁ይ ችል
▁አል ታ
▁ከመ ጀመሪያ
ገል ገ
▁አቀ ፋዊ
▁ኃላፊ ነቱን
▁ከግ ምት
▁ጀመር ኩ
e c
▁እ ዚሁ
▁ም ግባ
▁ው ሀ
▁የመ ር
▁እስከ መ
▁በሙ ስና
▁19 8
▁ብል ሹ
▁የኅ ብረተሰብ
▁የሚያ ነሳ
▁ፍ ጥ
▁ፈ ት
▁መብ ትና
ጀም ሩ
▁መልእ ክ
▁ማሰል ጠኛ
ዓ ብ
▁ጥ ገና
▁አይ ቶ
▁ኦ ፍ
▁አግኝ ተው
▁የደረ ሱ
▁አውሮፕ ላ
ሻ ንጉ
ጃ ም
▁የ ጅ
▁ሲ ሰጥ
▁መም ሪያ
▁ዝግጅ ቶች
ቃ ጠል
▁እ ቴ
▁በእ ኩል
▁ሊያ ሳ
ሽ ናል
ኤ ም
ዎ ቿ
ጫ ዋ
▁የ በረ
▁የ ዝናብ
▁ተ ባብ
▁እንዲ ገባ
ምፒ ዩ
▁ሽብር ተኝነት
▁እ ረፍት
▁ዝ ምድና
▁በየ ዕለቱ
▁በበ ቂ
▁ካር ታ
▁የሚከተ ለውን
ቆ መ
▁አለ ብኝ
ላቸው ና
▁ዶ ናልድ
በላ ሸ
▁ለማን ኛውም
▁ተረጋግ ጧል
ወሓ ት
መ ንድ
ኚ ህ
ከ መ
▁ተ ንቀሳ
▁የመ ሠ
ሪያ ቸው
▁ብሔ ራት
▁መንገ ሻ
▁በማስ መዝገብ
▁በተባ በሩት
ይ ስ
▁አ ሞ
▁በብ ቃት
▁ተስማ ሚ
ደ ሉ
▁የሚ ደረጉ
▁ማ ወ
▁ገብ ተዋል
ል ውና
ቲ ቭ
ኖ ራት
ጀ ው
ጦ ሽ
▁መ ከበር
▁ከ 50
▁ተ ገናኝ
ጠቀ ሱት
▁ከእ ነ
▁በጥ ቅ
ገቡ ት
▁መም ጣቱ
▁ሀገ ራዊ
▁የሚ ቆጠር
▁የተ ራ
▁ለመ ፈጸም
▁በድ ምሩ
▁በቡ ድን
ራ ጮች
▁መንግሥ ትን
▁ብል ጫ
▁ማስታወ ሻ
▁የፍት ሕ
▁ዴኤ ታ
ሪ ም
▁ሲ መጡ
▁በተ ያዘው
▁ሊ ደርስ
▁ፍ ጡ
▁እው ቀ
ነጋ ገሩ
▁ጥላ ሁን
▁ያስታው ሳሉ
▁እ ሰ
▁እያ ከናወነ
▁የሚያስ ፈልገው
▁ውጤ ቶችን
▁ከእ ናንተ
ሻሻ ለ
ስፒ ታሉ
▁በማሳ የት
▁ባሉ በት
▁ውስ ጣዊ
በ ዙ
▁ ፩
▁የ ፈጠረ
▁የ ፈጠረው
▁መ መዘ
▁አስ መስ
ጀመር ያው
▁ዕድሜ ያቸው
ር ግ
ጨ ርስ
ፈ ኑ
▁እ ላለሁ
▁ታ ዳሚ
▁ሕ ሊና
▁ኪ ዳ
▁በ19 7
▁​ 1
▁ባለስልጣ ናት
ሩ ትን
ጢ አት
ጸ ል
▁የሚ ሄድ
▁የሚ መለከተው
▁ያ ረ
▁አለ ችው
▁ቅ ኝ
▁ሁኔታ ም
▁ባይ ሆን
ው ቀው
▁ሆ ድ
▁ን ቁ
▁የዘ ንድሮ
▁ተመል ሰው
▁ግለ ሰቡ
ሙ ትን
ን ሽ
ዳ ፊ
ዷ ቸው
▁ለ ዜ
▁ሊ ሰጠው
▁ፈ ሪ
▁ይጠቀ ሳል
▁በመንፈ ሳዊ
ስ ያ
▁ ፎር
▁አ ቁ
▁ከ ዛሬ
▁ወደ ብ
▁ውድ ቅ
ህን ነት
▁ሃሳ ቦች
▁የየ ራ
▁ሂደ ቱ
▁ተደራጅ ተው
▁ማ ሻሻል
▁የተ ናገረ
▁የመ ላ
▁እንደሚ ለው
ድረ ክ
▁እያ ልኩ
ሰማ ራ
▁መለ ኪያ
▁የተቀመ ጡ
▁አ ሪፍ
▁በመ ባል
▁ክ ቡር
▁አመ ጣ
▁የው ይይት
▁መታ ሰቢያ
▁የቀረ ቡ
▁ክፉ ኛ
ከበረ ው
▁ከ ቁ
▁ጥ ግ
▁በእ ያንዳንዱ
▁ሙ ቀት
▁በስ ፖርቱ
▁ምስ ል
▁በኢ የሩሳሌም
▁ላ ስ
▁በፈ ቃ
▁ነገሥ ታት
▁በመ ዝ
▁የመ ግ
▁ጨ ምረው
▁ተመ ስ
▁ተከ ናው
ደገ ፈ
ል ታ
ፔ ን
▁በ ክልል
▁የሚፈ ጥር
▁ለሕ ዝቡ
ዘዋ ወር
▁ቤተ ክ
▁አቅራ ቢያ
▁የሚ ናገረው
▁በእ ነሱ
▁ያሳ ስ
▁እም ብዛም
ፋ ፍ
▁ ፑ
▁ያ ገለ
▁አይ ዘነጋም
▁ታ ን
▁ጎ ልማ
▁ገብ ቷል
▁ፊል ሞች
▁ሰርቪ ስ
▁መ በ
▁መ ፈጸም
▁የተ ዘጋጀው
▁ሰ አት
▁ሸ ቀ
▁ጋዜ ጠ
▁በ19 6
▁ተቋማ ትና
ሙ ማን
ተ ሪ
▁ከ ዳ
▁ድ ረገ
▁ዓመ ቱን
ጀንሲ ው
▁የጠቅ ላይ
▁የቀ በሌ
▁የዓ ለማችን
▁ለወ ደ
▁ል ጇ
▁ጎ ልቶ
▁ባለመ ኖሩ
▁ምሁ ራ
▁ለዓ መታት
ካ ዊ
▁አ ጎ
▁እ ማ
▁መ ወሰ
▁ይ ገለ
▁በጉ ጉት
▁የበኩ ሉን
ዋ ወቅ
ፉ በት
▁ይ ፈልጋ
▁ተ ዕለት
▁ጠ ፋ
ሰብ ኩ
ርም ያስ
▁ራ ሴን
▁ረ ዥም
▁ስን ዴ
▁ተቀም ጧል
▁ለ የ
▁ያ ደርጉ
▁ያለ ንን
▁መለ የት
ግዚ ቢ
ያ ለን
▁በ ደም
▁ይ ለኛል
▁ባ ያ
▁ያሳ ያሉ
▁የቆ ዩ
▁መመሪያ ዎች
ቁ በት
ቸ ገሩ
▁ሄ ዱ
▁ይረዳ ል
ቀ ኛ
ቾ ቹ
▁መ ቅረብ
▁ሁ ሴን
▁መንግሥ ቱን
▁የገ ጠ
▁ፅ ሁፍ
▁ተጀም ሯል
ደ ቡ
▁ h
▁በ ንግ
▁የመ ታ
▁ገ ድ
▁ሌ ሊ
▁ያለ ችው
▁4 6
▁እርምጃ ዎች
ባ ውያን
▁በሚ ሊዮን
▁ከመ ካ
▁ማስ መዝገብ
▁የሰው ነት
▁የቅድ መ
ሞ ከር
▁በ ሺ
▁አ ሥራ
▁ከ ፊት
▁ለ ሦስት
▁ለመ ጀመር
▁ቢ ስ
▁መስ ኖ
▁በየ መን
▁ድን ኳ
▁ማዕ ረግ
▁መዝ ናኛ
ደረሰ ባቸው
▁ፎ ረም
▁የመሰ ለ
a s
ሟ ን
ያ የ
▁የተ ሳተፉ
▁ባ ት
▁እንደሚ ሰራ
ሰብ ዓዊ
▁ከሆነ ው
▁በዓ ሉን
▁አቅር ቧል
▁ወላ ጅ
▁ለ ፖ
ጠበ ቂያ
ቶችን ና
▁አቅጣጫ ዎች
▁ተፈ ላጊ
▁ለራ ሱ
▁ባለቤ ቶች
ሩ በት
▁ ንድ
▁አ ታው
▁የሚ መለከት
▁ሲ ነሳ
▁እያ ልን
▁እነ ር
ቀው ም
▁ር እ
▁ፖለቲከ ኞች
▁መጽሔ ት
ይ ም
▁ተ ደረገ
▁ተ ደጋጋሚ
▁ያ ውም
▁በመ ል
▁የአ ደጋ
▁ተመ ስር
ረዳ ቸው
▁ኤ ፌ
▁ቤቶች ና
▁የቆ ዳ
▁ውድድ ሮችን
▁ምርት ና
▁ኢኮኖሚያዊ ና
ጡ ና
▁አ ጽ
▁ማ ዘጋጀት
▁ገ ብር
ለት ና
▁ቅ ጥር
▁የልማ ትና
2 5
ኋ ቸው
ያ ንም
ጣ ራ
▁እንዲ ሰሩ
▁እና ገኛለን
▁የሚያስ ፈልጉ
▁ጢሞ ቴዎስ
▁ጉ ልበ
ሰራ ር
ላለ ፊያ
ላ ችኋል
▁ ዚ
▁ለ ምር
▁ወ ራ
▁ማ ካሄድ
▁በመ ሳሰ
▁የአ ዕምሮ
▁ተፈ ጻሚ
▁ሐኪ ሞች
▁መጀመ ሩን
▁ይሠራ ል
ሮ ጥ
ዶ ም
▁ያለ ብን
▁መቀ የር
▁ይኼ ን
▁መቃ ብር
▁t o
▁ፍራ ፍሬ
▁በቦ ታው
▁አማር ኛ
ክ ራሉ
▁በ ብር
▁ካለ ፉት
ነር ጂ
ባበ ሪያ
▁እርስ ዎ
ቸ ር
ዮ ርክ
▁ይ ስማ
▁አስ ቆጥ
▁በስ ብሰባ
ሮፕ ላን
ስፈ ላጊ
▁ሚዛ ናዊ
ከ ማ
▁አካ ላዊ
▁ለእ ሱ
/ ሚ
▁ድ ፍረት
▁አንቀ ፅ
▁ለራ ሳቸው
9 7
ካ ችን
▁ከ ኋላ
▁አል ችልም
▁ለአ ምስት
▁ድጋፍ ና
▁በ ዶ
▁ተ ባለ
▁ያለ ባቸውን
▁ሸ ማ
▁መዋ ጮ
▁አምና ለሁ
ቅ ለ
ደ ነ
▁የ ችግሩ
▁በ ታማ
▁ከ 8
▁የመ ጠቀም
▁ስለ አ
▁ሥራ ቸው
▁ነገ ሥት
▁ረ ሃብ
▁ማኅ በሩ
▁ምስ ጢር
▁ተቀብ ለው
▁ታውቃ ለህ
ን ዴ
ን ኦት
▁ወ ፍ
▁ወ ዴት
▁የመ ማር
▁የሰ ሜን
▁አለው ፦
ጠብ ቁ
ኒ ሳ
ን ቁ
▁አስ ገ
▁የማ ራቶን
▁ክፍ ሉ
▁የስ ልጠና
ደረገ ውን
▁ሙሉ ጌታ
▁የቱ ሪስት
▁ተጽ እኖ
ሏ ቸዋል
ቶ ሪ
ወ ከል
ጧ ት
ፊ ዎች
▁ሰ ል
▁ሲ ኖር
▁የመ ስጠት
▁የአ ዋ
▁ለማ ሟላት
▁ጨ ም
▁በ200 6
▁መደም ደሚያ
▁ማስጨበ ጫ
ፀ ባ
▁ደ ሴ
▁ለመ ሳተፍ
▁ሰብ አዊ
▁ልማ ቱ
ሌክት ሮ
ጀ ርባ
ጋ ታ
▁የ ጀመር
▁ተ ዘር
▁ቢ ኖርም
▁አስተ ላል
▁ቆ ም
መዘ ገብ
ወስ ዱ
▁ጉድ ለ
▁ይፈልጋ ሉ
ለ ዩ
ጋ ጭ
▁የተ መዘገቡ
▁በአ ራ
▁በአ ደባባይ
▁ጠ በቃ
▁ህ ጻናት
▁ከአ ውሮፓ
▁በቴ ክኖሎጂ
▁መድሃ ኒት
ብ ተው
▁በ ከፊ
▁ራ ሷን
ከሰ ተ
▁መቅ ደስ
▁ተዘጋጅ ቶ
▁ተ ኮር
ውን ድ
▁በማ ጣ
▁አበባ ና
▁የታ ክስ
▁ሪ ፐብሊክ
▁ድም ፁ
ሮድ ካ
ማ ረው
ረ ከብ
ተር ስ
▁በየ ቦታው
▁ግብ ይት
▁መሪ ነት
ጭበር በር
ባ ሪዎች
▁የመ ሠረተ
▁ከመ ጣ
▁አመ ላ
▁መጠ ነኛ
መር መር
▁ተፅ እኖ
▁ቁር ጥ
▁ባለሃብ ቶች
ኒ ን
ገል ጋ
▁ከሚ ገኘው
▁201 5
▁አማራ ጮች
ኪ ዎች
ዋ ርያት
▁አ ነጋግ
▁የሚ መረ
▁ብ ሶ
ራ መድ
ር ዱ
▁ከ ቤ
▁ሲ ገቡ
▁ድ ሬዳዋ
▁ቀ በ
▁ሕ ያው
ገራ ችሁ
▁ለፍ ርድ
v e
ረ ቅ
▁የ ሂ
▁በ ነበረ
▁እን ፈልጋ
▁ፍ ጆ
▁የሰ ውን
▁ተደር ገው
▁ትችላ ላችሁ
ራ ውን
▁ባ ሻ
▁ት ተው
▁መር ከ
▁ንጉ ሠ
▁ና ችሁ
▁ቅር ሶች
▁ጋዜጣ ዊ
ቻ ው
ኮ ን
▁ ፆ
▁ወደ ፊትም
▁ች ላለች
▁በሌ ላው
ዳጅ ነት
▁መተ ግበር
▁ሰላ ምን
▁ተመራ ማሪዎች
▁ምርታማ ነት
ሯ ት
ጠ ቅም
▁ያ ገኙት
▁ማ ል
ሻሻ ሉ
▁ተጠቃሚ ዎች
▁ምድር ን
▁ማድረ ስ
ሳ ዩ
▁አ ቢ
▁ይ ዤ
▁የሚ ታወቅ
▁እየተ ን
▁ቁ ልቁ
▁ቀር ቷል
ሹ ን
▁ት ላ
ደረ ጋቸው
▁ገል ጾ
▁የፖ ሊስ
▁ቻ ይ
▁አዎ ንታዊ
▁የግን ቦት
▁ፀጋ ዬ
ፈ ቀድ
▁እንዲ መጣ
▁ኤ ፍ
▁በት ዕ
ወስ ደው
▁ዘይ ቤ
▁ለሁለ ተኛ
ማ ና
▁የ ሬ
▁በተ ጓዳኝ
▁አም ስተኛ
ልክ ት
▁መጠ ሪያ
▁ሩ ቅ
. 1
ጓ ጉ
▁እ ሸ
▁ማ ደ
▁በተ ባለ
▁ገ ጠመ
▁አገር ን
▁ተና ገሩ
ከፈ ለው
▁ኤር ሚያስ
ኤ ን
ወ ን
▁ከ ፀ
▁ህ ሊና
▁ቁ ጠባ
ልጣ ል
▁መጠ ለያ
▁ተቀ ይ
▁ፋብሪካ ው
▁የአካባቢ ውን
▁አፋ ጣኝ
ኙ ን
ዓ ን
▁ ንስ
▁በ ዘር
▁ው ክልና
▁ረ ቡዕ
ቤት ነት
▁መር ሆ
▁በቅር በት
▁የዱ ር
ሰ ቦችን
ተ ኝ
ቶ ታል
ች ኝ
ጋ ችሁ
▁ው ሸት
ደርግ ም
▁ተገኝ ተዋል
ደ ስት
ጋ ጥም
ጨ ና
▁አ ዘው
▁ሳይ ቆይ
▁ከአ ባ
ሠራ ር
ገራ ቱ
▁ቱ ሪስ
ክ ራሲ
▁የአ ርሶ
▁በእ ሳት
▁የማህ በሩ
▁ምት ክ
ሳ ና
ዴ ፓ
ገል ጽ
ከብ ሩ
▁ከእነዚህ ም
▁ፍቃ ድ
▁ይካሄ ዳል
▁በ ንጉ
▁መ ጫወት
▁ይገ መ
ዘጋጁ ት
ሻንጉ ል
ከ ኝ
ዘ መን
▁ፕሮጀክ ቶችን
▁የሚፈ ጽ
▁ለህ ብረተሰቡ
▁አድርገ ህ
▁አቡ ነ
▁አልማ ዝ
▁ው ጊያ
▁ምን ዛሬ
▁በኢ የሱስ
▁ግብ ሩ
▁የተሰ ጣቸው
▁የለ ሽ
▁አስፈላጊ ነት
▁ተጫዋ ቾችን
ስ ቱን
ነ ቱም
ዳ ድሩ
▁በአ ህጉ
▁በበ ጀት
▁ተጫ ው
▁መጽሐ ፉ
▁እንፈልጋ ለን
ማ ኒ
ሸ ራ
ቻ ት
▁በ ጨ
▁አ ሶ
▁አ ፅ
▁ዕ ብ
ችል በት
▁የደ መ
▁አረ ቢያ
▁የሴ ቶችን
ስቡ ክ
▁ማስተካ ከያ
ሮ ት
በ ጥ
▁በ ጃ
▁የተ ደራጀ
▁በፍ ጹም
ጠይ ቁ
r o
ዮ ተ
ጓ ደ
▁ጋ ዝ
▁አልተ ቻለም
▁ተጠና ቆ
ሜ ናዊ
ገ ጠ
▁ ረዳ
▁አን በ
▁በአ ጭሩ
▁ይገባ ቸዋል
ሰባ ቸውን
▁መጥ ፋት
ዋን ጫ
▁ሕዝብ ን
▁ተፈጥ ሯዊ
ሳ ሰር
ታ ኔ
ገ ሪያ
▁ተ ባባሪ
▁ደ ላ
▁ማህ በረሰቡ
▁የሚመ ነ
ጠቅ ላይ
ር ሻ
ያ ችሁ
▁አ ዙ
▁አ ድን
▁ሲ ሳይ
▁ለሚ ለው
▁አኳ ኋ
ዳማ ዊ
▁ለመታ ደግ
▁ከግብ ፅ
ሎ ቹን
ዋ ር
ጎ ድ
▁በ ዱ
▁በ ፌ
▁ሲ ቪል
▁በተ ቀ
▁ቦ ሌ
▁ዳይሬ ክቶ
ተኮ ር
▁ታማ ኝነት
ሕ ትና
ታ የው
▁ተ ኝ
▁ያ ገኛል
▁ስ ማ
▁እንዲ ደረግ
▁ት ም
▁ለመ ለወጥ
▁አገ ሩ
▁የሰ ጠውን
▁ኤ ስ
▁በር ግጥ
▁ሚኒስቴ ሩ
▁ጥና ታዊ
▁ይደር ሳል
▁ገለል ተኛ
ፀ ባረ
▁ g
▁ለአ ደጋ
▁ጽ ሁፍ
▁በው ይይቱ
▁የምት ችለው
▁ግንባታ ዎች
▁የሶ ማሊያ
▁በምርጫ ው
▁መቆራ ረጥ
መ ታ
ሲ ብ
ዘ በ
▁በ ኬንያ
▁ያ ደርግ
▁እው ነትን
ጠይ ቀው
▁የፕ ሬዚዳንት
▁ኮሚሽ ነር
▁እጃ ቸውን
መ ላ
▁መ ሄ
▁ይ ኑ
▁የሚ ደግ
▁ማ ግስት
▁እንደ ዚያ
▁በማ ከናወን
▁ፈ ረስ
▁ቴ ክ
ገም ገም
▁ኢትዮጵያዊ ያን
▁ድ ሃ
▁ጋ ራ
▁እንደሚ ሆኑ
▁እነ ማን
▁ጽ ፏል
▁ስብ ስብ
▁ታሪ ኩ
ፋ ለች
▁የሚ ደረገውን
▁አስ ገብ
▁ልማ ቶች
▁ሰር ቶ
ም ምነት
ራ ለሁ
ጠ ቃሚ
▁በ ቻይና
▁ያ ክል
▁በማ ካሄድ
▁4 8
▁ጣ ሊያን
▁የ1 0
▁ማጥ ፋት
▁ሐኪ ም
ል ፎ
ሙ ርት
ሰ ተኛ
▁ከ ሰማይ
▁ያ መጣል
▁ግ ባ
▁የሚያ ረጋግጥ
▁ሊ ትር
▁ፍር ሃት
▁ሾ ፌ
ም ብ
ዩ በት
ይ ዘው
ዳ ሪ
▁ይ ለዋል
▁የተ ረጋገጠ
▁አስ ብ
ንግ ዶ
▁ፍ ፃሜ
▁ከፍ ታ
▁5 5
▁አሳ ው
▁ክት ትልና
▁ክብ ደት
▁የተ ካሄደ
▁በመ ላክ
▁ገ ዛ
ደር ጋቸው
▁በማ የት
▁የማ ንነት
▁እያ ለች
▁ከእ ዚህ
ጸባረ ቅ
▁አ ከራ
▁ገ ጠር
ዕ ም
▁ው ሻ
▁ለመ ደገፍ
ሰባ ዊ
▁መቀ ሌ
▁መጨረሻ ው
▁ገንዘ ቡን
ወያ የት
▁ቆን ጆ
ሰ ሳ
ን ዲ
▁የ በርካታ
▁እ ጁ
▁ያ ጋጥ
▁ወ ያ
▁በማ ምረት
▁ጉ ምሩ
▁እር ሷ
▁የዘ ንድሮው
ወለ ዱ
▁የመጣ ውን
▁እየቀ ነሰ
▁ናይ ጄሪያ
ዋ ስ
▁የአ መለካከት
ሪያ ና
▁የወ ረዳ
ውያን ን
▁የቴ ሌቪዥን
▁ለሰ ዎች
ቢ ነት
እ ም
▁የተ ነሱ
▁በመ ሳተፍ
▁በአ ዳማ
▁በተ ካሄደ
▁ጠ /ሚ
▁ኮ ም
ገን ዘ
▁ሴ ራ
ሰጥ ም
▁ዩ ናይትድ
▁ጃ ን
▁የተቃ ውሞ
ገነዘ ቡ
▁አዝማ ሚያ
▁የወቅ ቱ
▁ፍ ራን
ፍራ ሽ
አዴ ን
▁ትን ሣኤ
▁ስፖር ቱ
በ ባ
ቸ ዋለን
▁ሥራ ን
▁የው ጪ
▁ማድረ ጋቸውን
▁የኩ ባንያ
c e
ቆ የ
▁ይ መር
▁የሚ ንቀሳቀሱ
▁አሉ ኝ
▁ሦ ስቱ
▁አልባ ሳት
▁የወደ ፊት
▁ማነ ቆ
▁አልሆነ ም
ዋ ጋት
ዘ ዙ
▁ከ ካ
▁ለማ ስተካከል
▁ቢ ቢሲ
▁ኤ ንድ
▁የት ኛውም
▁ለማስ ከበር
▁የዜ ጎች
▁ትእ ዛ
ለ ፈው
▁ከአ ሁን
▁ኤ ርምያስ
▁ቴ ክኒክ
▁ማዕ ቀ
▁7 5
▁ባል ሆነ
▁መዛ ሙርት
▁በማን ሳት
ማ ርያም
ብ ቃ
ከ ንድ
▁መ ጸ
▁ለ ረ
▁የተ ከለ
▁መው ጣ
▁አንጋ ፋ
▁ነበር ኩ
▁ወይ ን
▁እየተ ቀ
▁ከመ ስጠት
▁ተሰ ና
▁ህገ መንግ
▁ተሸ ክ
▁ምሁ ር
▁የተቀመ ጠው
▁ከራ ሱ
▁የሚያደር ገውን
▁የሚ ረዱ
▁ትምህርት ና
▁የፊ ልም
ንዛ ኒያ
▁ለ ሃ
▁ባ ቢ
▁እስከ አ
▁ጽ ኑ
▁የፕ ሬስ
▁ባሕ ርያት
ፈጽ ሙ
ሎ ምፒ
▁መር ዳት
▁አድ ሮ
▁ለመቀ የር
▁ቀበሌ ዎች
▁ትች ት
▁የእድ ገት
▁ l
▁አ ሃ
▁ለመ ው
▁የሚያ ገኙ
▁የእ ሱ
▁የሚያደርጉ ትን
▁በእን ዲህ
▁ዮና ስ
▁ጩኸ ት
ል ቦ
ዋ ወ
▁ይ ለ
▁ተ ኩል
▁የተ ገለ
▁አካባቢ ውን
▁ሂ ሳብ
▁የሀ ብት
▁የጎ ደለው
▁በመስ ኖ
▁ስደ ተኞችን
▁ኢንጂ ነሪንግ
▁በ 6
▁ማ ምረቻ
▁የተመ ሠ
▁ከህ ዝብ
▁በከፊ ል
ል ባ
ዓ ል
▁የ ጫ
▁ያው ቃሉ
▁ጄ ኔራል
▁የመፍት ሔ
▁እሳ ቤ
▁የ ዚያ
▁ይ ከፍ
▁እንደ አ
▁ለመ ለየት
▁የለ ንም
ላቀ ሉ
ንቀሳቀ ሰ
መ ተ
▁ሲ ሄዱ
▁በአ ነስተኛ
▁ለመ ምራት
▁ሳ ላ
▁ከአ ገሪቱ
▁እኩል ነት
ግ ቡ
▁በተ ሰጠው
▁ለማ ቋቋም
▁ምልክ ቶች
▁ጠየ ቀ
▁ጤ ንነት
▁የሚሆነ ውን
ሷ ቸው
ጋ ችን
▁የ ዩኒቨርሲቲ
▁ይ ሰጥ
▁ስ ሙን
▁በመ ገንዘብ
▁ቤ ቴ
▁የማ ያስ
▁ጎ ረቤ
ዶሚ ኒየም
ባ ለች
▁ ቬ
▁በ 8
▁ይ ፈጠ
▁ው ረድ
▁15 0
ደ ንት
▁የ ቋንቋ
▁የ ጀርመን
▁መ ብራ
▁ከ ቅ
▁ለማስ ፈን
ጅም ላ
ቦ ራ
ጋ ር
▁የሚ ኖሩት
▁ሚ ስቱ
▁ኢትዮጵያ ና
ልም ድ
▁ገዥ ው
▁ግጭ ቶች
▁የነፃ ነት
▁አመሰ ግና
ም ስ
ና ና
ጣ ለች
▁ለ ድ
▁ይ ከብ
▁የሚ ፈለገውን
▁ዘ ፈ
▁ከመ ሬት
▁3 ,
▁ነገ ረ
▁ቤተ ሰቡ
▁የሚነ ገር
ሀ ብት
▁ይ ባል
▁ሲ ሰራ
▁ለማ ዘጋጀት
▁ማህ ጸን
ብራ ውያን
▁አዲ ሱን
▁ተዋና ይ
ስ ላሴ
ገ መት
▁የ ፆታ
▁አ ኩ
▁እ ሴ
▁ሲ ን
▁የአ ስ
▁ካ ገኘ
▁አል ገባ
▁በስ ፖርት
▁የታ የው
▁በጥ ናቱ
▁ኩ ራት
▁ፋ ንታ
▁ጉምሩ ክ
ሊ ስት
ቀ ቁ
ጋ ፍ
▁በ ትር
▁እን በል
▁እንደሚ ታወቀው
▁ጠ ፍቶ
▁በየ ወሩ
ክሲ ዮን
▁ደረ ቅ
▁ተነሳ ሽነት
ጠ ኑ
▁መ ረብ
▁በሚ ባል
▁ያለ አ
▁ስፖር ታዊ
▁አስቸ ኳይ
▁ከራ ስ
▁ልጃ ቸው
▁ቀል ብ
▁ተጠር ጣሪ
▁ድራ ማ
ነ ተኛ
ዊ ቷ
የ ኝ
የ ውም
▁ማ ሞ
በረ ከ
▁ያስ ታወ
▁ደረጃ ዎች
ርስ ቶ
▁ሲያ ጋጥ
▁አደጋ ው
▁በክ ብር
▁የበኩ ላቸውን
▁ጠረ ጴዛ
. 3
ረ ዝ
▁የ ፌደራል
▁የመ ም
▁ሚ ያ
▁ያስ ቀም
በረታ ታት
▁የፕ ሬዚዳን
▁ጆ ር
ነበ ራቸው
▁ከ4 0
ኙ ት
ጥ ሬ
▁በ ሙያ
▁መ ሳተፍ
▁የሚ ባሉት
ለሁ ም
▁በቀ ጣ
▁ችግር ን
▁እንግ ዲያው
ስራ ኤላውያን
▁ጉባዔ ው
▁የባለ ሙያ
▁አውቶ ቡ
ቃ ኝ
ክ ሽን
ዕ ቢያ
▁ተ ጓ
ውን ት
▁በተ ና
▁አባ ላትን
▁እንደሆነ ች
▁ማሳ ሰቢያ
ዝና ኛ
▁በአን ጻ
▁ሰነ ዶች
ፃ ፍ
▁አ ጠራ
▁ከ ቶ
▁ለ ዕ
▁ወ ለድ
▁ሲ ሚንቶ
▁በቀ ዳሚ
▁መረጃ ው
▁በቅ ጡ
▁በአን ዱ
▁ድክ መ
ዳ ሽ
▁እንዲ ኖሩ
▁አስ ከት
▁ኢ ጣሊያ
▁ጠ ያቂ
▁ቻ ር
▁ህብረተሰቡ ን
▁በቤተ ሰብ
▁ለ ዚሁ
▁ለ ዴሞክራሲ
▁በተ ቻለ
▁ሃ ገራት
▁ኤ ን
▁አበባ ን
▁ተር ፎ
▁ትግ በራ
ዶ ቹን
▁በመ ቅረ
▁እንዲ ደርስ
▁የመ ካ
▁የዘ ላለም
▁ቱ ርክ
▁አዎ ን
▁በቅን ጅት
ሉ ንም
ቃ ችሁ
ገ ሰ
▁ለመ ማር
ሪያ ቸውን
▁እስ ኪያ
▁ያስ መዘገበ
▁በስ ድስት
▁በሌ ለበት
▁የደ ህንነት
▁አስታው ሰዋል
▁ተቀም ጠው
▁ትልቁ ን
ሸን ፍ
▁ለማስቀ ረት
▁ድክ መት
▁አ ሌ
▁መ ያዙ
▁ጥ ሰት
በር ከት
ስተ ላል
▁ለማስ ጠበቅ
▁የግድ ቡ
ራ ለን
▁ከ ሽ
▁የመ ምህ
▁ፍ ቺ
ላለ ፈው
▁ምስ ኪን
▁የሩ ሲያ
▁ተፈጥ ሯል
▁ተፋ ሰስ
ዘ ነ
ያ ትር
▁መ ዲና
▁ቤ ን
▁ከተ ጀመረ
▁ኃ ያል
▁ከአ ንተ
▁ራ ሴ
▁ተጠ ብ
▁የነበረ ችው
▁ይሄ ም
▁አቅ ኚ
▁ሶ ማሌ
▁በታ ላቅ
▁ተደር ጐ
▁መግለ ጽ
▁የተጠቀ ሰው
9 9
ሲ ን
ታ ውን
▁በ ጊዜው
▁በመ ው
▁የሚያ መለክት
▁ሊ ደረግ
▁ተከት ለው
▁ሀብ ታም
▁ጳ ጳ
ጆ ቼ
ጋ ብ
ስተ ሮች
▁ጎ ርፍ
▁ለም ንድነው
▁በግለ ሰብ
ለ ኞች
ረ ኝነት
ዋ ለ
ፍ ትን
▁ ቺ
▁ዓ ሣ
▁ቀ ልድ
▁የሚያ ወ
▁አሰ ጣ
ታደ ራዊ
▁አመልክ ተው
▁የድር ቅ
▁የዜ ጎችን
▁ዘግ ይ
▁ደሞ ዝ
በ ሰበ
▁ ፪
▁ተ ዛ
▁ተ ረፈ
▁የተ ያዙ
▁ክፍ ፍል
ጀም ረው
▁የማዕ ድን
ሣ ይ
ና ገድ
ጋ ድ
ጠ ባበ
▁ n
▁እንደ ምና
▁እስከ ዛሬ
▁በም ክር
▁ስር አ
▁ማሳ ካት
▁መሀ መድ
▁ብቸ ኛው
▁ስምም ነቱ
ም ግባር
ሥ ቱ
ከ ውን
ጠ ቱ
ፉ ትን
ፍ ሉ
▁ኢትዮጵያ ም
▁እግ ረ
▁ምሥራ ች
u s
ነ ፍ
▁የ ሜዳ
▁እ ፎ
▁መ ሰብሰብ
▁ከ ብት
▁ቀ ንድ
▁ቅ ጽ
▁የእ ንግ
▁ከማ ህ
▁የታ ዳጊ
▁ሄ ጄ
▁ንጉ ስ
▁ራስ ህን
▁መላእ ክት
▁አኳኋ ን
. 6
ሌ ር
ሻ ቸውን
ዩ ቱ
▁ተ ሞ
▁ሰ ዎቹ
▁በመ ገናኛ
▁ብሔ ረሰብ
ዘር ላንድ
▁የለ ብንም
▁ተፈ ታ
▁የፈረን ሳይ
i g
r a
ብ ሃል
▁ከ ሲ
▁ለ ሴቶች
▁በመ ጠበቅ
▁ን ጽ
▁6 5
▁ፀ ጉ
▁አሰልጣ ኙ
▁ለማስቀ ጠል
▁አሮ ጌ
e t
ራ ቸዋል
ባ ች
▁እ ጩ
▁ያ ረጋግ
▁የሚያ ቀር
▁አመ ል
▁ከሚ ለው
▁የት ግል
▁አቅ ማቸው
▁የተነሳ ው
▁አብዱ ል
▁ተካሂ ዷል
ሽ ው
ጻ ለች
ፈ ላለ
▁እንዲ ውል
▁ካ ህና
▁ያለው ና
ጠና ክር
▁አባ ላቱ
ባል ም
▁ሐ ረር
▁አቀ ባበል
▁መሥ ፈር
▁ጥቅ ሞች
▁ወረ ራ
▁ዘዴ ዎች
ያ ዎች
ይ ጣን
ጡ ረታ
▁የ ኬ
▁መ ቆም
▁መ ኝታ
▁ለ ችግሩ
▁ደ ፋ
▁እንደሚ ቀጥል
▁በበ ላይ
ለጠ ኑ
▁የአንድ ነት
ጎብ ኘት
▁ምግ ቦች
መ ኔ
▁በ ደረጃ
▁በ ክልሎች
▁አ በርክ
▁እ ልፍ
▁ያለ ፈው
▁የራ ስን
▁ሸ ለቆ
▁የሚሉ ትን
▁በሶ ስት
▁የመንግሥ ትን
ያ ድ
▁የሚ ወጣው
▁የሚ ጠበቀው
▁ማ ልማት
▁እንደ ዘ
▁የተ ዘ
▁ው ህ
▁በመ ከላከል
ችን ም
በረ ከተ
▁አም ኖ
▁የሚያስ ፈልገውን
▁ትን ታኔ
▁ስፖር ቱን
▁ተጠቅ ሷል
▁የት ኞቹ
▁ለማስ ገባት
ካ ቶ
ጋ ን
▁ማ ዋል
▁ሲ ልም
▁የአ ሰራር
▁ያል ታ
▁ማድረ ጋቸው
▁ቁር ጠኛ
▁በትክ ክለ
▁የተጣ ለ
▁የተፈጠረ ውን
▁ተነግ ሯል
▁አመሰግና ለሁ
ሔ ድ
ያ ኖች
ጋ ቱ
▁በ ሩን
▁ነ ፋስ
▁ይ ወሰ
▁እንደ ማን
▁የአ ገ
▁የስ ደተኞች
▁ወጣ ቶቹ
▁መድረ ሱን
▁አክ ለዋል
▁አቋ ራጭ
▁የጉ ዞ
ወድ ቅ
▁መቅደ ሱ
▁ማ ቆ
▁በአ ስቸኳይ
▁በም ዕራብ
▁ፀ ጉር
▁በህ ብረተሰቡ
▁ቡድ ኑን
ኖራቸው ም
▁የፋ ብሪካ
▁ሕይወ ታቸውን
▁በ201 5
▁በታማ ኝነት
ዮ ቹን
▁ለማ ዋል
▁ሥ ዕል
▁እንዳ ይወ
ወጣ ም
▁ማስተ ናገድ
▁ፖሊ ሶች
▁ከኢ ን
ወር ክ
▁ሃላፊ ነት
▁አያው ቁም
ፍሬ ም
▁ዲሞክራሲ ያዊ
. 2
ከ ፈት
▁በአ ገራቸው
ለም ዶ
▁እስ ክ
▁አቀ ባይ
▁ይኼ ው
▁ለራ ስ
▁ታሪ ኮች
▁እል ባት
ኗ ን
ኛ ለሁ
ፈ ርስ
▁መ ርም
▁የተ ደረጉ
▁የተ መለከተ
▁ሲ ወ
▁የአ ፈ
▁አገ ሮችን
▁ፕሮግራ ሙ
▁ደመ ቀ
▁ሕፃ ን
ካ ካ
ጃ ል
▁በ ሥር
▁አለ መስ
▁ዐ ይ
▁ዳይሬክቶ ሬት
ታ ሪ
▁መ ቻሉ
▁ይ በል
▁ተ ዓ
▁ሲ ጋራ
▁ምን ኛ
▁ቁ ል
▁ጎ ጂ
▁የበ ዛ
▁የማይ ችሉ
▁እንደተ ጠበቀ
▁ወንድ ሙ
▁መው ሰ
▁ሠራ ተኛው
ረ ባ
በ ክ
ቲ ንግ
ት ረ
▁እየ ሆኑ
▁ከፍተኛ ውን
▁ከሚ መለከታቸው
▁የማይ ታ
▁በጥ ልቅ
▁ፌዴሬ ሽኖች
ምፒዩ ተር
1 6
ሸ ሽ
▁በ ቋሚ
በር ት
▁የማ ጥ
▁አል ነበሩ
ታው ቅ
▁ዳ ዊ
▁ኢያ ሱ
▁የሚገር መው
▁አመላ ካች
ቀ ቀ
ቪ ድ
▁ያ ፈ
▁የተ ረጋጋ
▁ጥ ን
ስት ሮ
▁እየ ሠሩ
▁ታ ድ
▁ቅ ቡ
▁ያሳ የው
▁አመራ ሩ
▁ዓላማ ው
▁አድርገ ናል
▁በርካ ቶች
ሰ ጡት
ደ ቢት
ጭ ን
▁ለ ሞት
▁ይ ጫወ
▁ተ ለዋ
▁አይ ን
ልጣ ኔ
▁4 7
▁የብ ሔር
ክሲ ኮ
▁በዋ ነኛ
ስ ቲክስ
እ ራ
ግ ቦ
▁የ ጂ
▁በ ጎች
▁ባለ ን
▁ፍ ሳሽ
▁የኢ ጣሊያ
▁5 2
ንቀ ቅ
▁ጋዜ ጦች
▁የተለ ዩ
▁የቦ ርድ
▁ሲነ ፃፀር
▁ክስተ ቶች
▁እያሳ የ
ሰ ኛ
▁ተ ስ
▁በአ ንተ
▁የሕ ገ
ክለ ቡ
▁መው ጫ
▁አጠቃ ቀ
e m
ሣ ሥ
▁ለ ግል
▁የሚ ቆ
▁የሚ ሄዱ
▁ሊ ሰጥ
▁እያ ስተ
▁የኢ ሕአዴግ
▁በቁ ር
▁በጥቅ ሉ
ከ ረው
ኮ ቹ
▁የሚ ጠቀሙ
▁ቀ ኑ
▁ዘ ፀ
▁ቤ ቶቹ
▁በው ኃ
▁የምት ለው
▁በ201 4
▁ተጠና ቋል
▁በፕ ሮ
ር ዳ
ብ ዮ
▁አስ ገድ
▁ሳ ታ
▁ይሄ ኔ
▁ሰብ ል
ጠፋ ም
▁የፓርቲ ው
ሙ ዩኒኬሽን
ኒ ማ
ዛ ትና
▁መ ነጋገር
▁ተ ቆ
▁በሚ ደረግ
▁ህ ጉ
▁ሀ ይል
▁በም ስራቅ
▁ሰላም ታ
▁ለሌ ላው
▁ጓደ ኞቹ
▁ውስን ነት
▁ማስተካ ከል
▁ is
▁የ ጨዋታ
▁እ ይታ
▁የሚ ዳ
▁እንዲ ሳተፉ
▁ት ከ
▁ቀ ጥታ
▁ወደ ዚያ
▁አገ ራቸውን
▁አል ፈልግም
▁ከተማ ው
ታቸውን ም
▁በደ ን
▁ውጤታማ ነት
▁ኃይለ ኛ
▁በእርግ ጠኝነት
▁ክምች ት
▁ ሟ
▁ስ ዊ
▁ው ጥረት
▁በእ ነ
▁ማስ ገባት
▁ኃላፊ ነታቸውን
▁የባ ንኩ
▁የተቀ በ
ቀበ ለው
▁በተመሳሳይ ም
▁በ201 2
ቀ ጣ
ታ ችሁን
ደ ኝ
▁ያ ወጣው
▁በመ ድረኩ
▁በአ ክ
▁በር ከት
▁የስ ብ
መጣ ጠነ
▁አው ደ
▁አር በኞች
▁መንግስት ም
▁ቃ ሉን
▁ፍቅር ና
▁እም ቢ
▁ማህበራዊ ና
▁ተለይ ቶ
u r
ል ፈው
ተ ሩ
▁ከ ልክ
ሞክ ሩ
ያዝ ነው
▁በረ ሃ
▁ተቋቁ ሞ
ሯ ሯ
ጫ ን
▁ም ዘና
▁ለመ ሰ
▁ያለ ነው
▁ሐ ሙስ
መል ሱ
▁ዋጋ ው
▁ካለ በት
▁ትምህር ቶች
▁መኪ ኖች
ከ ሙ
▁የ ዮ
▁የ ሦስት
▁በ ዩኒቨርሲቲው
ግባ ባ
▁በእ ጁ
▁ድርጅ ቶችና
▁ትር ዒ
▁የአሜሪካ ን
▁በፊ ትም
አ ቸውን
▁ማ ሟላት
▁ከመ ቼ
▁የእ ሱን
ታቸውን ና
▁በግ ማሽ
▁ተና ጋሪ
▁ባለቤት ነት
▁መልአ ክ
ም ቢ
ታ ቱ
▁እንዲ ወ
▁አስ ባለሁ
▁ገ ዳ
▁ባለ ሀብት
ቋቋ መ
▁ጨዋታ ዎችን
▁ይቀ ራል
ስተና ግድ
▁ታቅ ዶ
ህ ሳስ
ፎ ቹ
▁አ ጫ
▁መ ኩ
▁ለ ኤ
▁እንደ ነበረው
መን ጨት
▁መል ሰው
▁ሠ ላም
▁ከ1 00
▁ተሳት ፈዋል
▁የመሳሰ ሉትን
ቤ ቶች
ክ ራል
፱ ፻
▁እንደ ው
▁በተ ገኙበት
▁የአ ህጉ
▁ፈ ራ
መን ጃ
▁ሐ ዘን
▁መጠ ኑ
▁በል ጅ
▁በድ ፍረት
▁ጅ ምር
ሪታ ኒያ
▁በ ደርግ
▁እ ሴቶች
▁ሲ ወጡ
▁በተ ዘዋዋሪ
▁ቅር ጽ
ከናው ኑ
▁የቁ ጥጥር
▁ክህ ሎ
▁ቤተክ ርስቲያን
ጠ ርም
▁የተ ሠሩ
▁ለመ ቅ
▁ሳ ቅ
▁ባለ አ
▁እንዳ ሳ
ር ፉ
▁የ ዩ
▁ታ ካሚ
▁ደረጃ ም
▁ጥያቄ ውን
▁ያሉ በት
▁መመ ዝ
▁ያስፈል ገናል
▁ተሰ ምቶ
▁ቁጥ ሩ
ድ ሬ
▁የ ሉም
▁ለ ኔ
▁በማ ግኘ
▁ታ ጥ
▁ኮ ሙኒኬሽን
▁ሠ ርቶ
▁ያሳ ድ
ስትራ ሊያ
▁እስከአ ሁን
ቴ ር
▁የሚ ው
▁በተ ፈጠረው
▁የሚያ ገለግሉ
ሠራ በት
▁ለእ ነሱ
▁ጥቅ ል
▁ዛ ፎች
▁ሃይ ሎች
▁የሚገልጹ ት
ፃ ፈ
▁ሕ ጉን
▁አክ ሊ
▁ደር ሰዋል
▁የኦ ሎምፒክ
▁ሥርዓ ትን
▁ደቂቃ ዎች
▁ይግባ ኝ
ረ ንስ
ሯ ቸዋል
ተ ሻ
ዬ ር
▁እ ገ
▁ቤ ትም
▁አስተ ው
▁ዲ ፕሎማ
▁ጠብ ቀው
▁አስተዳደ ሮች
መ ዛ
▁ተ ገድ
▁ተ ሰባ
▁ስ ምን
▁ጥ በበ
▁ሥራ ም
▁በእ ምነት
▁ዕድ ገትና
ስል ምና
▁በ ጥር
▁ሰ ፍ
▁የመ ንፈ
▁ቀ ጣና
▁የሚያ ቀርቡ
▁እየ መጣ
▁ፍ ቅረ
▁ች ለናል
▁የው ድድሩ
▁የሚታ የውን
▁ተሰጥ ቷል
▁የሐ ዋርያት
. 7
ዟ ቸው
ፒ ታል
▁የ ጀመሩ
▁ተ ገኘ
▁የተ ፈረ
▁የአ ሠራር
▁ቀ ልጣ
▁ለማ ንም
▁የም ስራቅ
▁መስ ኮት
▁ከፍ ቶ
▁አለመ ግባባት
ቀጥ ለው
▁ሀብ ትና
▁መሞ ከር
▁ከሶ ስት
ሞክራ ቲክ
▁ብጥብ ጥ
▁የ ፌዴሬሽኑ
▁ይ ሁዳ
▁የሚ ናገሩ
▁የተ በ
▁የሚያ ገኙት
▁ሳይ ንቲ
▁የቀ ን
ደጋ ገ
▁በገ በያ
▁ከነ በሩ
▁የሚ ነሳ
▁ባ ደረገ
▁እንደሚ ባለው
▁ፓ ውንድ
▁መመር መር
▁ስለም ን
▁የሚያመ ላክ
ሁ ለት
ለ ሉ
▁ነ ሽ
▁ማ ሽን
▁ም ዕ
▁ዘ ዳ
▁ማስ ፋ
▁የሚጠ ቁ
▁ከግ ማሽ
ካሂ ድ
▁በድር ቅ
▁ይረዳ ናል
▁ሐዋ ርያ
ረ ና
ጤ ናው
▁ለ ስራ
▁መን ጋ
▁ተጠ ም
▁የግ ሉ
▁ወር ቁ
▁ለእ ናንተ
▁ገንዘ ቤ
▁ማረ ሚያ
▁አስተዳደ ራዊ
ሽ ከረ
ዛ ቸውን
▁ለ 2
▁የሚ ፈልገውን
▁መብ ትን
▁የሚጠ ጉ
▁ድርጊ ቱ
▁በቁ ጥር
▁ይሰማ ል
▁አስኪያ ጁ
▁አስተያየ ቶች
▁ብሩ ህ
ጎ ስ
▁ነ ቀ
▁ያ ዝ
▁በመ ሬት
▁ኢ ስላሚክ
▁ያለ ህ
▁የህዝብ ን
ቃ ችን
በ ቁ
ኔ ው
▁እንደ መጣ
▁በመ ውጣት
▁አን ገት
▁የመ ሸ
▁ለአ ርሶ
▁ለም ግብ
▁በሕ ዝቡ
ስተዋ ው
▁አህጉ ራዊ
ር ሳ
ት ረፍ
ዜ ማ
▁ O
▁የ ኑ
▁መ ጀመሩ
▁መ ነሳት
▁ጥ ለው
▁አስ ርት
▁ጋ ብ
▁እንደሚ ኖረው
▁አው ጪ
ልጠና ው
▁በ19 5
▁የሶ ሪያ
▁ብሄረሰቦች ና
▁ሆስፒታ ሎች
▁በ ሦ
▁ብ ልህ
▁ታ ኅ
▁ህ ጻ
▁ያለ ኝ
▁ያስ ከት
▁4 9
▁በሻ ህ
▁ቦር ዱ
ሪ ድ
ቡ ባዊ
▁መ ደገፍ
▁የሚ መስል
▁ገ ጹ
▁ለማ ስተዋወቅ
▁ዓመ ቷ
▁ቁ ስ
▁አሉ ን
▁ይሰ ጣ
ዘን ጋት
▁በኤ ርትራ
▁መዘ ግ
▁ከአን ዱ
▁ከዓ መት
▁ያቀር ባል
▁በዋነኛ ነት
ቀ ረው
ታ ትና
ነ ነ
ዋ ቸዋል
ጀ ሪያ
▁በ ድረ
▁እ ወዳ
▁ሰ ራዊት
▁በተ ለምዶ
▁ቀ ኑን
▁ኮ ሎ
▁ሃ ምሳ
▁የህ ብረተሰቡን
▁በበ ለጠ
▁ተሰማ ርተው
▁ያመ ላክ
ቀ ሳ
ና ችንን
ገ የ
▁የ ቲ
▁አ ሀ
▁እ ጣ
▁የሚ ጨ
▁ያ ካተተ
▁በጥ ብቅ
▁201 6
▁ትዝ ታ
▁ይ ለናል
▁ተ ሟ
▁የተ ሳካ
▁እንዲ ሠሩ
▁ለማ ሸነፍ
ፈጥ ሩ
▁ቅር ፅ
ጫወ ተ
▁ተገኝ ቷል
▁የሲ ቪል
▁ለመተ ግበር
ሊ ው
ሮ ሮ
ቀ ሉ
▁በ ቋንቋ
▁መ ሲ
▁የተ ቀረ
▁ደ ኅንነት
▁ት /ቤት
▁የአ ትሌ
▁ለማ ስተናገድ
▁ወር ዶ
ደራ ደር
▁ያስፈል ገዋል
▁ብሄ ር
▁የሚፈ ታ
▁በመቀ በል
▁የሁለ ቱን
▁ጥፋ ተኛ
▁ይወጣ ል
▁ቀድ መው
▁ማኔ ጅመንት
▁ፌዴራ ላዊ
ኩ ና
▁ስ ፖንሰር
▁የሚያ ሰኝ
▁በሶ ሪያ
ላስ ቲክ
▁የመፍት ሄ
▁የሕዝቡ ን
በ ች
ጋ ቡ
▁በአ ፍ
▁በስ ነ
▁በስ ልክ
▁ውሳኔ ዎች
▁ከሌ ለ
▁የሀ ገሪቱን
ከን ቱ
በለ ዚያ
▁ከ ቢ
▁ቀ ዶ
▁ተጠ ይ
▁ወቅ ቱ
▁እንዲህ ም
▁ጣ ይቱ
▁መብ ላት
▁ፓ ት
▁የሚችል በት
▁የተባ ለች
ጨበ ጥ
▁አሠልጣ ኝ
▁አያሌ ው
▁ድልድ ይ
ለ 1
ዓ ተ
▁የ ኋላ
▁መ ፈጠር
▁ማ ዘውተሪያ
▁በማ ረጋገጥ
▁እንደሚ ናገሩት
▁አለ ባበ
▁ጋር ም
▁አል ፏል
▁የእ ህል
▁አንዳን ዱ
▁ተም ሳሌ
▁ኦዲ ተር
ኞ ቻቸው
ከ ፍት
▁ተ ለው
▁ተ ጀመረ
▁ተ ቆር
▁ሲ ጀመር
▁በአ ፋ
▁ለማ ምረት
▁አይ ነቶች
▁በማ ግ
▁ችግ ሮቹን
ያው ቀው
▁ከእ ው
▁አቅ ማቸውን
▁ጐ ን
▁የቱ ርክ
▁በበላይ ነት
▁የተ ገደ
▁የም ናው
▁ፈ ረ
▁ሙ ላቱ
▁የሚያስ ፈል
▁እነዚህ ም
▁በዘ ለለ
▁የክ ርስቶስ
▁ለን ባብ
▁ያብራ ራሉ
ታ ትም
ያ የት
ፈ ፅ
▁በ ሱ
▁መ ፈተሽ
▁ተ ለ
▁ት ሪ
ደረ ስ
▁ከመ ሆናቸው
▁የታ ክሲ
▁በት ጋት
▁በነ ጻ
ቆጠ ረው
▁በመቀ ነስ
▁ባለሥልጣ ኑ
▁ተጨዋ ች
▁የጠቀ ሱት
▁ንፁ ህ
▁መመዘ ኛ
. 8
ቦ ር
▁ ሱስ
▁የሚ ከናወን
▁በመ ረጃ
▁ሰው ዬው
ገል ጹ
ቢያ ቸው
ሰባ ችን
▁አስመ ዝግ
▁ዱ ቄ
▁ከፊ ል
▁በቀዳሚ ነት
ሉ ኝ
ና ቅ
▁እ ላ
▁ግ ሩ
▁ል ቤ
▁ሳ ህ
▁ብዙ ዎችን
▁አቀ ረበ
ሩን ዲ
▁ኢየሱስ ም
▁በራ ሳችን
▁ንግድ ና
▁ያገኘ ነው
▁ያግ ዛል
▁መፅሐ ፍ
▁የ ሄ
▁እ ጄ
▁ግ ኝ
▁እንዲ ል
▁እንዲ መለሱ
በር ግ
▁ቢ ደረግ
▁ዕ ብራውያን
▁እየተ ሰጠ
▁ሀ በሻ
ታው ስ
▁ቆ መው
▁ጎ በዝ
▁ግንባታ ውን
▁በድ ል
▁የንግድ ና
▁አህ ጉር
▁ያደረገ ውን
▁ያቀረ ቡ
▁የተጠቀ ሱት
▁እንዲሰ ፍን
▁ዘፍ .
▁ፍል ሚያ
ሆ ይ
ባ ዔ
ፍ ሩ
▁በመ ከተል
▁በመ ወከል
▁በአ ቅራ
ግባ ቸው
ነው ም
▁ድም ዳሜ
▁ሙስና ን
▁አዛውን ት
ሳ ድ
ቀ ዝ
ት ስ
ና ቴ
ወ ልድ
▁መ ሰብ
▁የተ ስፋ
▁ሰ ከንድ
▁ግ ፍ
ማሪ ው
▁አይደ ለሁም
▁በም ድብ
▁ትን በያ
▁ተቃ ራኒ
▁በ201 3
ኒስት ሮች
▁ለጋ ዜ
▁የመነ ጨ
▁ቀነ ኒሳ
ሁ ትን
ዚ ች
ገ ጃ
▁በ 7
▁መ ጫወ
▁አይ ተው
▁የስ ር
▁ሊያ ደርጉ
▁መታ ገል
▁በጉባኤ ው
▁አፍቃ ሪ
u n
ፉ ና
▁መ ጠናከር
▁በመ ደገፍ
▁ሲ መ
▁ሊ ኖራቸው
▁2 ,
▁ውድ ቀት
▁ይሄ ዳሉ
▁ባን ዲ
▁ይሰማ ኛል
▁ምህ ረት
▁አልነበሩ ም
ስ ቱም
ተ ነ
ኖ ቹን
ዴ ድ
▁በ ፓርቲ
▁ግ ማ
▁ጥ ቆማ
▁የማ ምረት
ድረ ሱ
▁አመ ላክ
▁ማስ ፋፋት
▁አደ ሩን
▁ተናግ ራለች
▁ፊ ቱን
▁ለህ ዝቡ
▁ቸ ል
ዋ ጋ
▁ቀ ው
▁በማ ስተማር
▁ለአ ገልግሎት
▁ጎ ረቤት
▁በ1 5
▁በበ ጎ
▁እንደሚያ ደርጉ
ብራ ይ
▁በ200 2
▁ጥበቃ ና
▁የሰብ አዊ
▁ፍጡ ር
ን ዱ
▁ይ ወድ
▁የተ ጠናከረ
▁ሰ ንብ
▁ባ ቡ
▁ለመ ጥ
▁ከሚ ል
▁በት ብብር
▁አቅም ና
▁የሌ ሎችን
▁መሆናቸውን ም
▁ሁለተኛ ውን
ጻጸ ር
▁በሃ ይማኖት
▁በጠቅ ላይ
ዜ ር
▁ያ ዩ
▁ም ሰ
▁የተ ገ
▁ካ ፕ
▁ፍ ሰ
▁6 00
▁ድርጊ ቱን
▁መላ ኩ
▁ያም ናል
▁ባለቤ ቴ
▁ከፖ ለቲካ
ይ ንት
▁ያ ጠፋ
▁ቅ ናሽ
▁ችግ ኝ
▁ማስ ቀመጥ
ቋቋ መው
▁ከወ ንድ
▁በፍ ር
es s
ር ዶ
ሺ ያ
ዕ ለ
ዜ ሽን
ጣ ችሁ
▁በ ሜዳ
▁ለ 3
▁ለ ቆ
▁በመ ሆኗ
▁ል ደት
▁የአ ገሪቷ
▁ለአ ካባቢው
▁በየ ነ
▁የሚገኙ ትን
▁መድ ሀ
▁ተፈ ጽ
▁በድር ጅቱ
▁እንግሊዝ ኛ
▁ልዑ ል
ሏ ቸውን
መ ፅ
ሰ ቀ
ቻ ችሁን
ጣ ሪዎች
▁ለ ጤና
▁ወ ሎ
▁እንዲ ሰራ
ሆን በት
ደር ገውን
በረ ው
ያው ቁት
▁አባ ተ
▁5 4
▁በሚቀጥ ሉት
▁ተ መለሰ
▁ወ ክለው
▁አስ ቦ
▁አስ ነብ
▁የመ ፍጠር
▁ድ ካም
▁ጊዜ ውን
▁ዓመ ትም
▁ፈ ላ
▁ኦ ዲት
▁ተከ ስቶ
▁ጣ ል
▁የዳ ኝነት
▁ሊያስ ከትል
▁ተለይ ተው
▁አልሸ ባብ
ጠ ጡ
▁ይ ደርስ
ሰል ጠን
▁ደጋግ ሞ
▁ጥረ ቶች
ኅ ን
▁አ ሰባ
▁ለ ዘርፉ
▁ከተ ደረገ
▁የስ ልክ
▁የት ኩረት
ታችን ም
▁ተገ ምቷል
▁ግድ ያ
▁በ200 3
▁ኅ ዳር
▁I n
1 4
▁በአ ቶ
▁አስ ችሏል
▁ታ ጣ
▁ከማ ለት
▁አላ ስፈላጊ
▁የብ ሄራዊ
▁በማስ ቀ
▁እያንዳን ዱን
▁ፈጥ ኖ
▁ደጃ ዝማች
ነ ዝ
▁አ ከናው
▁ከ ቴ
▁የሚ ከሰት
▁ለማ ለፍ
▁ከአ ካባቢው
▁ተቋ ራጮች
▁ላ ለማ
▁አገልግሎ ቶችን
ወሰ ደው
▁የባ ሰ
▁በወ ረ
▁ጨዋታ ውን
▁9 ,
ቴን ሽን
▁በጋ ምቤላ
▁ነጻ ነት
▁ሚስጥ ር
ሰ ሰ
ፓ ርት
▁መ ገደ
▁የሚ ጥ
▁በአ መራ
▁የመ ያዝ
▁ቀ ዳዳ
▁ለማ ክበር
▁አለ ፦
▁የደ ስታ
▁ወረ ርሽ
▁አወ ቃ
▁ጀመረ ች
▁አብዮ ታዊ
▁ስምም ነቶች
▁ሌሎችን ም
▁በጦር ነት
▁ይወስ ዳል
ም ቢያ
ቶ ት
ጨ ረስ
▁የ 5
▁ከ ሆ
▁ከ ቀረ
▁ያ ገለግ
▁ለመ ሰብሰብ
▁ህ ጎች
▁ያስ ቸግ
▁ሞ ተር
▁ጠቅ ሷል
▁9 7
▁አስፈላጊ ው
▁የኦ ሊምፒክ
▁መግለጫ ው
▁ተያይ ዘው
▁ኤክስ ፖርት
ሚ ር
ተ ካ
የ ዋ
▁ያ ጠ
▁የተ ፈፀ
▁በማ ዳ
▁ጉ ል
▁ተከ ሳሽ
▁ሚኒስት ሮች
▁በ200 9
▁እዚያ ም
▁ተረ ክ
▁በመም ጣቱ
▁ካህ ናት
ሸናፊ ነት
. 4
ኖ ሩን
ጮ ህ
▁የ ትን
▁ለማ ጠናቀቅ
▁ለማ ቃለል
▁የማ ይወ
▁ምር ቱን
▁የጠ ፋ
▁ተሳትፎ ና
▁የዓ ይን
▁የተጀመረ ውን
ብራይ ስጥ
ዱ በት
ጽ ፍ
▁በ ቶ
▁እ ዛ
▁ያ ነሰ
▁ል መና
▁ይዘ ዋል
▁ከህ ዝቡ
ማ ጅ
ሮ ቻችን
▁መ መለ
▁ይ ገር
▁ወ ለደ
▁ባ ካሄደው
▁ሲ ጠናቀቅ
▁ል ባ
▁የአ እምሮ
▁በግ ድ
▁በግ ብር
▁የሚጠ ቅም
▁መም ረጥ
▁ስፖር ተኞችን
▁ትክክለ ኛውን
▁ገዢ ው
በ ና
በ ራቸውን
ብ ቃት
ነ ባ
ጩ ን
▁አ ከ
▁ከ ኪ
▁ይ ከተ
▁ሊ ሰራ
▁ጉ ጉት
▁እር ባ
▁በግ ንባታ
▁ኦ ሎምፒ
▁ሻ ይ
▁የሚገባ ቸው
▁ሒ ሳብ
▁ቁሳቁ ስ
▁ዲዛ ይ
▁ጀግ ኖች
ን ጭ
ክ ቴ
ኸ ር
ዋ ሉ
▁ተ ደጋ
ብር ሃን
▁ኢን ሹራንስ
ኖሩ በት
▁ለማስ መዝገብ
▁ማሳ የ
▁ስን መለከት
▁አሜሪካ ን
▁አውጥ ተው
▁ተሰጥቶ ት
ቶ ቿ
ቸ ዉ
ዌ ር
ያ ችንን
▁መ መረ
▁ይ ጋ
▁ለማ ስተማር
ባቢ ሎን
▁ቦ ኮ
▁ሽ ፈራው
▁መንግስት ና
▁ይቅር ና
▁የቅ ዱስ
▁ጻ ድቅ
ሀ ድሶ
ቀ በት
ብ ረው
ፅ ዋ
▁የ ዩኒቨርሲቲው
▁በአ ካ
▁ባለ ቤቱ
▁በእ ንስሳት
▁በወ ጣት
▁ገብ ነት
▁አቅር በው
▁ከሌ ሎቹ
▁አይቀ ሬ
▁በሥ ልጣን
▁አና ሳ
▁ታዳጊ ዎች
ን ጎ
ዳ ለች
▁የ ገና
▁በአ ማርኛ
▁ዓ ርብ
▁በማ ለ
ጠቀ ሱ
▁ሠ ፊ
▁ሠ ፈር
▁ወረ ቀ
▁ሀብ ታ
▁ጃ ፓን
▁ስለሚያ ስ
▁የ ሱዳን
▁በመ ኪና
▁በመ ምጣት
▁አካ ሄ
ሰራ ጨት
▁በም ርምር
▁አቅ ምን
▁ግብ አት
▁የለ ባቸውም
▁በፍ ፁም
▁ሴቶች ና
ለፍ ነው
▁ይገኝ በታል
ሆ ች
ከ ለው
ኳ ስ
▁አገ ሬ
▁የቀ ረው
▁ትን ቢ
▁ማስተ ላለፍ
▁ደን ቦች
ታደ ስ
▁ከሰ ዎች
ያቂ ነት
▁ህይወ ታቸውን
▁የሚያው ቅ
ዘ ዋል
ይ ድ
ጀ ምሮ
ፀ ዳጃ
▁የ ገለጸው
▁አ ጣጥ
▁የሚ ሠራው
▁ለማ ህ
▁ዳ ኝነት
ሳተ ፉት
▁ለሚ ሆኑ
ከፍ ሉ
▁የሌ ለበት
▁የድ ምፅ
it y
ካ ኝ
ካ ቲት
ጩ ት
▁ 00
▁በ ፓርላማ
▁ተ ማ
▁የሚ ሰራው
▁የመ መ
▁ክ ፋት
▁ጠ ንክ
▁ሁኔታ ን
▁የወ ጣት
▁የሆነ ች
▁ኃይ ልና
▁ከተማ ዋን
▁አሳ ማኝ
▁በ1 2
▁በዓ ላት
▁በህ ዝቡ
▁ቆይ ተው
▁በ200 5
▁የሰብ ል
▁ኬሚ ካ
▁እንኩ ዋ
ሸ ር
ቶ ቼ
▁ደ ዌ
▁በተ ሟላ
▁ቀ ረጥ
▁5 ,
ነስ ር
▁የሥ ጋ
ከባ ከ
ሱ ትን
ቋ ም
ዮ ስ
▁እንዲ ችል
▁በአ ባ
▁ክ ርክ
▁ሊ ከሰት
ጽሐ ፉ
መሰ ግ
▁የኮ ንት
▁ለመቀ ጠል
▁ወገ ኖ
▁የድር ጅ
▁ባልን ጀ
▁ይፈጠ ራል
a m
ላ ሊት
ተ ቱ
ጫ ል
▁በ ኔ
▁እን ከን
▁ተ ላል
▁አስ በው
ንግ ተን
▁የሚያ በቃ
▁ኤ ድስ
▁ግድ ግዳ
▁ባለመ ቻሉ
▁ዋንጫ ው
▁ምግባር ና
ከናወኑ ት
▁ውዝ ግብ
ና ግ
▁ለ ከተማ
▁የሚ ሻ
▁ለመ ጨረሻ
▁እና ቱ
▁ድር ቁ
▁በው ድድር
መሰ ል
▁ተሳ ፋሪ
ሸነ ፉ
▁እመ ቤት
▁በአዋ ጅ
▁ጠ/ሚ ኒስት
ተ ሚያ
ኗ ቸው
▁የሚ ቀጥል
▁ወ ለል
▁በመ ቅ
▁በመ ድ
▁ሲ ደርሱ
▁የመ ል
▁የመ ብራት
▁ሥ ቃይ
▁ዕ ቅዱ
▁ሀ ዋሳ
▁ኤ ሊ
▁ፍላጎ ትና
▁በል ማ
▁አላቸው ፦
▁የሚችሉ በት
▁ክን ፍ
▁ተካ ፋይ
ሀ ን
ስ ቷል
ቀ ለ
▁የ ደረጃ
▁ከ ሠ
▁ከአ ቶ
▁ለአ ንተ
▁ብር ቅ
▁ከማ ንም
▁ሕዝ ቅ
▁ፒ ያ
▁ሔ ክታር
▁ተላ ላፊ
ሰ ላ
ባ ንድ
▁በ ሱዳን
▁የተ ጀመሩ
▁የጎ ርፍ
▁ከግ ብርና
ርቶ ዶ
▁ደመ ቀች
▁በየአ ካባቢው
▁ምርታማ ነትን
ቀ ናል
አ ቀፍ
ከ ርድ
▁እ ኒ
▁ተ መለሱ
▁የመ ብት
▁ገ /
▁ምክንያ ትም
▁ቦ ንድ
▁ቆ ራ
▁በው ስጥ
▁ተከ ራይ
▁ፊ ርማ
▁የብ ሔ
▁ማስታወ ስ
▁ቅሬታ ዎች
▁ምሥራ ቹን
▁ርዝ መት
ላ ቻ
ል ሙ
ረ ቢያ
ቆ ቹ
▁ይ ዳ
▁ስ ላሉ
▁የተ ገነባ
▁እንዲ ሄድ
▁በአ ንቀ
▁እየ ሰጡ
▁እያ ወ
▁በዚህ ች
▁አቀ ማ
▁ከሁ ለ
▁ልጆ ቹን
▁መዛ ባት
ክተ ሮች
▁ተግዳሮ ቶች
ላ ችንን
ሙ ዝ
ነ በብ
ዞ ን
▁የ ክት
▁አ ሟል
▁የተ ከፈ
▁ክ ብርና
▁አይ ታወቅም
▁ህ ዳር
▁ለአ ራት
▁ተወ ዳ
▁ከ1 2
▁ጌታ ዬ
▁እንደማ ለት
▁ግር ግር
▁በሕገ ወጥ
▁የሚስተዋ ሉ
ኒስቴ ሩ
▁ተመስር ቶ
▁ማስፋ ፊያ
▁ከ ሰማ
▁ያ ዳ
▁የመ ጀመርያው
▁ለማ ዳን
▁መስ ህ
▁ወንድ ሜ
▁ቴክኖሎጂ ዎችን
▁ከል ጅ
▁ለጥ ቂት
▁ኢንተርፕራይ ዞች
▁ይመጣ ሉ
ሮ ሎጂ
ቁ ትን
ቢ ያን
ኑ ና
ድ ሎ
▁እንደ ነ
▁በተ ስፋ
ስተ ኞች
▁ደረጃ ቸውን
▁ሞ ትን
▁5 1
▁ኖ ሯል
ባባ ስ
▁መፅ ሀ
▁የኪ ነ
▁ተደራሽ ነት
▁እቴ ጌ
. 0
o t
ሪ ቱን
ጣ ፍ
▁በ ደረ
▁መ ች
▁ወ ጡ
▁የተ ጻፈ
▁እንዲ ሠራ
▁ቢ ታ
▁እያ ዩ
▁አቀ ራረብ
▁ጎ ሳ
▁ያህዌ ም
▁ር ቀ
▁በው ል
▁200 6
▁ሻምፒዮ ንስ
▁ድንጋጌ ዎች
▁ትችላ ለች
▁መዋቅ ራዊ
ሃ ም
ጠ ልም
▁መ ናገራ
▁ከ ጀመሩ
▁ይ መለ
▁ሲ ዘ
▁ዓ ም
▁ጭ ራሽ
▁አጋ ዥ
▁አማካ ይ
ከባ ድ
▁በመግ ዛት
ቷ ም
ክ ሌር
ጓ ዘ
▁ e
▁የ ዛሬው
▁ከ ቻይና
▁አን ስተዋል
▁ሥ ዕ
▁ሊ መጣ
▁ቢ ሊ
▁ጉ ቦ
▁እንደሚ ገባው
▁ከመ ቀ
▁የቻ ሉት
▁ፖሊሲ ና
▁ከሕ ዝብ
ተኩ ር
▁የገቡ ት
ጋለ ጡ
▁ዲያ ብ
ቴ ው
ኅ ብረተሰቡ
ኑ ኤል
ድ ድ
▁ጥ ምረት
በረ ክ
▁እያ ገኘ
▁እየተ ከናወኑ
▁ፅ ህፈት
▁ከታ ች
▁ማዳ በር
ብ ላ
ነ ሣ
ደ ሙ
▁የ ዚሁ
▁የሚ ውሉ
▁አል ቆ
▁ዕ ውን
ገኘ ቱ
▁አይደ ለ
▁ለማስ ረዳት
▁ፊ ደል
▁ሱ ቅ
▁ተገቢ ው
▁የሞ ባይል
▁ከሕ ዝቡ
▁አገላለ ጽ
▁ንስ ሐ
ል ሽ
መ ህ
ር ሳቸው
▁መ ፈለግ
▁ተ ቀር
▁የተ ዳ
▁ግ ሪክ
▁በመ ሰብሰብ
▁ጥ ይት
▁ገ ፀ
▁ቅ ጥ
▁ቁ ን
▁የሰ ማይ
▁ብር ታት
▁የሚሰ ጣቸው
▁ጣ ቢያው
▁ዴ ቪድ
▁የፍ ልስ
▁ከብ ቶች
▁ይበ ልጣል
▁ይነሳ ል
ር ተዋል
ቴ ቪ
▁ሲ ሰማ
▁ዓ ባይ
▁የአ ካ
▁በማ ምጣት
▁የሚያ ወጣ
▁ሊ ፈጠር
▁የማ ታ
▁የወ ላ
▁ስለሚ ችል
▁የመንግሥ ቱ
ሀ ት
ም ገማ
ሮ ና
ነ ኝነት
ጮ ቹ
▁በ ለንደን
▁አ ቦ
▁እንደ ል
▁ደ ፋር
▁የአ ትክል
▁አል ኩት
▁አመ ር
▁ምርጫ ዎች
▁ሩ ብ
▁መፅ ሃ
▁የቡ ድኑ
▁ለሀ ገር
ዥ ው
ፈ ሩት
▁መ ጉ
▁ለ ከፍተኛ
▁በመ ሸጥ
▁ሲ ሰጡ
▁ሆነ ች
▁የው ሳኔ
▁ቴ ኒስ
▁ከ1 7
▁ሥርዓ ተ
▁የሚባለው ን
▁ከራ ሳቸው
▁የጠቆ መው
▁ፈፅ ሞ
ሊ ጥ
▁ከ ዘርፉ
ቅም ት
▁ራ ቅ
▁ወን በ
▁ግንባታ ና
▁አጥ ንት
▁የክ ረምት
▁አስቀም ጧል
▁እንግሊ ዛ
▁ይገመ ታል
ቀ ላ
ይ ር
▁መ ወሰን
▁ያ ሬድ
▁የተ ገኘውን
▁ሲ ደ
▁ት ራ
▁እየተ ንቀሳቀሰ
▁ኤ ግዚቢ
▁በቀ ድሞው
▁ውጤ ቱን
▁ተከ ታይ
▁ና ፍ
▁እርግ ዝና
▁ስቴት ስ
▁የባህ ልና
ይ ዞ
▁አ ናት
▁መ ጣል
▁ግ ቦችን
▁ት ፈልጋ
▁ቅ ኔ
▁እስ ካል
▁የሰ ዎችን
ረጋገ ጠው
▁በሙ ያው
▁ጫ ት
▁በረ ከ
▁አባል ነት
መና ችን
ማ ጭ
▁ከ ክልሉ
▁ከ 201
▁አን ጀ
▁ለማ ልማት
▁እስ ራት
▁ከመ ሰ
▁ሆነ ህ
▁ወን ጌ
ገነ ዝ
ፈጸ ሙት
▁ከሰ ሞኑ
▁ሕይወ ቱን
▁ሁለቱ ንም
▁ዕብ .
ሳ ም
ሳ ውያን
ኛ ዋ
▁መ ፈጸ
▁ከ ስራ
▁እየ ገባ
▁በኢ ህአዴግ
▁መር ከብ
▁ወንድ ማማ
▁የድ ል
▁ማራ ቶ
▁ፍጆ ታ
ቷ ት
ኒ ክስ
ዘ ዘ
ጌ ረዳ
ጠ ች
▁በ ዝግ
▁ተ መለከተ
▁ተ ፈጠረ
▁ት ዳ
▁ሳ ሉ
▁አል ሰማ
▁ፍ /ቤት
▁ሌ ባ
▁በም ሥራቅ
▁ያስፈል ጋቸዋል
▁አልነበረ ውም
ጠብ ቀው
▁አጠና ክ
▁ለአብነት ም
ቫይ ረሱ
▁ቱሪስ ቶች
▁እወዳ ለሁ
t er
ሯ ችን
▁በ ቻ
▁ለ ኮ
▁የሚ ገዛ
▁ለማ ጣ
▁ቦታ ውን
▁የት ብብር
▁ተከ ራ
▁ከወ ን
▁የፈ ፀ
▁እውነት ም
▁የዲ ሞክራሲ
▁አማራ ጮችን
▁በመካ ከላቸው
▁የአስተ ሳሰብ
▁በሺ ዎች
ቅ ተኛ
በ ቡ
ጅ ን
▁በ ትምህር
▁መ ቋ
▁ለመ ጠ
▁ታ ት
▁ከእ ን
▁የማይ ቻል
▁ተገኝ ቶ
▁ኡ ጋንዳ
ገ ቱ
▁ ሯ
▁የ ሉ
▁ነ ጠላ
▁የሚ ነግ
▁የተ ዛባ
▁በተ ሳ
▁እንዳ ላት
▁ጠ ጋ
▁የሰ ለጠነ
▁ን ረት
▁ሞ ቅ
▁ሞ ልቶ
▁የማይ ባል
▁በዓ መቱ
▁ማዕ ድን
▁ተማሪ ዎቹ
▁የፕ ሪሚየር
▁ትስ ስ
▁የይ ሁዳ
ፐብ ሊ
▁በቁር ጠኝነት
ጋ ገብ
ግ ሞ
▁ ዑ
▁መ ጠበቂያ
▁ከ ነበረበት
▁የተ ዘጋጁ
▁ው ለታ
▁ፈ ቅ
▁ዋ ዜማ
▁የእ ስ
ብረ ታ
▁ማን ን
▁የት ውልድ
▁በታ ዳጊ
▁ለመስ ማት
▁የተመረ ጡ
▁የተከሰ ተውን
▁በእንግሊዝ ኛ
▁ከማን ኛውም
ላ ቱን
ማ ሊ
ቻ ች
ጭ ቆ
▁ዘ ል
▁ፈ ሳሽ
▁ሽ ታ
▁የነበረ በት
▁እህ ቶች
▁ኤል ሳ
▁ማጥ ናት
ሮጀ ክቱ
▁የተነ ሣ
▁ማ ቆም
▁በተ ደራጀ
▁ቀ ሚ
ከተ ሉት
▁በቀ ረ
▁ከማ ድረ
▁ጣ ጣ
▁ድን ኳን
ለቀ ቅ
▁የሐ ሰት
▁ኋላ ቀር
▁ማጣ ርያ
▁የቁ ጠባ
▁ፍልስ ጤ
▁ግጥ ሞች
▁ተወላ ጅ
▁ትሆና ለች
ቶ ቻችንን
ጓ ሜ
▁የ ጨረ
▁ከ ሜ
▁ሁ ከትና
ተው ና
▁4 ,
▁እው ነቱ
▁ኃላፊ ነቱ
▁ተራ ሮች
ገረ ኝ
▁ማራ ኪ
ሆና ችን
i d
ኅ ራ
ጻ ፉ
ፅ ግና
▁ጥ ም
▁ዘ ሮች
▁አይ ታይም
ገኝ ነት
▁አው ቆ
▁ሸ ክም
▁ኖ ኅ
▁ሕይወ ታቸው
▁በ201 1
▁ሰጪ ዎች
▁ሣ ይ
▁ስላል ተ
▁ጸሐፊ ው
ቅ ላ
ኒ ኖ
ኛ ቸው
▁1 20
▁ሐ ውልት
▁አብ ራ
▁አበባ ው
▁ጎ ብኝ
ግራ ፍ
▁እንዳይ ኖር
▁ደር ሰው
▁ሠራ ተኞችን
ዳሚ ው
▁አህ ያ
▁ሹ ም
ዘዋ ው
▁ይገልፃ ል
▁አ የሁ
▁ግ ዜ
▁ኮ ሜ
▁ክፍ ሎችን
▁ገንዘ ቡ
ያስፖ ራው
▁አድና ቆ
▁፲ ፱፻
▁ሙዚ ቀ
ኞ ቻችን
▁በ ከ
▁የመ ሪዎች
▁የአ ረንጓዴ
▁ድ ባብ
▁ሊ ቢያ
▁የማ ር
▁ያስ ገኛል
▁ጎ ብኚ
▁ማለ ታቸው
▁የቢ ሮ
▁የያዙ ት
i r
ሲ ስ
ሳ ቡ
ት ሮው
ይ ዘሮ
▁በ ጆ
▁ከ ዳር
▁ለመ ጠየቅ
▁ዕድ ሉን
▁ቦታ ዎችን
▁በ200 4
▁እውነ ተኛው
ፈልጉ ት
▁ገልፀ ው
▁የደረሰ በት
▁ጥቃ ቅን
▁ቴሌ ኮም
▁ለመሸ ፈን
ሥ ልጣኑ
ነ ድ
አ ድ
ጠ ፈ
▁የ ጌ
▁የሚ ጠራ
▁የሚ ፈልገው
▁ባ ቀረቡት
▁የአ ማ
▁ሳይ ቀሩ
▁ን ባብ
ክት ል
▁ቃ ሉ
▁ደራሲ ው
ተገ በር
▁የክል ሉን
ሜ ትር
በ ሱ
ጭ ነት
▁በ ያ
▁እን ገኛለን
▁ያ ነጋ
▁ስ ቃይ
▁እንደ ገለጸው
▁በማ ሻሻል
▁ታ ጅ
▁ሰው ም
▁ከአ ል
መጣ ቸው
ገና ዘበ
▁ማህ በረ
▁መንገ ዶችን
ራ ዎች
ሮ ኮ
ሳ ችሁን
ነ ራል
ገ ረም
ፍ ጨ
▁ከ ሱ
▁ተ ጀምሮ
▁የሚ በልጡ
▁የተ ፈጸመ
▁ቤ ዛ
▁ጊዜ ያቸውን
▁የማ ቅረብ
▁የማ ምረቻ
▁ህ ንጻ
▁አለመ ቻ
▁በነ በሩት
▁ተቃ ው
▁ጫ ካ
▁በጽ ሑፍ
▁በአ ጋጣሚ
▁ገ ደ
▁አይ ነቱ
ንድ ስና
▁እየ ነ
▁ሊ በ
▁ታ ደርጋ
▁ዘመ ነ
▁ፀ ሐ
▁19 6
▁ሐሳ ቡን
▁አዘጋጅ ቶ
▁የጣ ሊያን
▁የበለ ፀ
ሐ ት
ሚ ው
ኬ ድ
ደ ይ
ጊ ት
▁ደ ረስ
▁እንዲ ካሄድ
ደረ ው
▁የግ ሪክ
▁ላ ከ
▁ሞ ላ
ንባ ታው
ንፈ ኝነት
▁የቴ ሌ
▁በባለ ሙያ
▁ውይይ ቶች
ሂ ድ
ም ነው
ራ ህ
ኖ ክ
▁ለ ፊ
▁የም ድብ
▁ፍ ሰት
▁ሰር ተው
▁የሞ ቱ
▁መቆየ ቱን
ሐ ንስ
▁ J
▁መ ታወቂያ
▁መ ዘርጋት
▁ከ ነበረ
▁ተ ከተል
▁ም ሩ
▁ብ ሮድካ
▁ሰ ራሽ
በል ግ
▁ውሳኔ ው
ልጽ ግና
▁ይቀ ን
▁አድማ ሱ
▁ሔ ዋን
▁በሳ ምንት
▁የተቋቋ መ
▁ተዋጊ ዎች
ማ ለች
ሴ ሎና
ኩ ርት
▁አ ናው
▁መ ዘንጋት
▁ተ ነጋግ
▁ማ ሠል
▁ከተ ቀ
▁የእ ሳት
▁የብ ቃት
▁ይኖ ራቸዋል
▁የድ ጋፍ
▁የጽ ንስና
▁ጥቃ ቶች
▁ብላለች ፦
▁ግብዓ ቶች
ሐ ራም
ቅ ጣጫ
ቆ ሮ
ቻ ቸ
ጠ ትና
▁መ ቀመጥ
▁ለ ቤት
▁የተ ማሪዎች
▁ደ ስተኞች
▁በተ ዘጋጀው
▁እያ ገለ
ስፋ ፊያ
▁በም ድ
▁ሽ ፋ
▁እድ ገትና
▁የካ ር
▁ሆስፒ ታሉ
ቀና ጀ
▁በፈረን ሳይ
▁ቴክ ኒ
ላ ኩ
በ ሰበው
ቴ ና
ኡ ጋንዳ
ከ ፈለ
ይ ተርስ
ዱ ትን
▁በ ከንቱ
▁መ ገኛ
▁ከ ፌዴራል
▁ይ ር
▁የህ ዝ
▁ሕግ ን
ስማ ሙ
▁የዓ መቱ
▁ሰማ ያት
መቻ ቸ
▁የሚያው ቀው
▁መሰና ክል
▁አምባገነ ን
ርቶዶ ክስ
ኅራ ኄ
ቂ ኝ
ደ ታ
▁ይ ቺን
▁ተ ደብ
▁የሚ ከሰቱ
▁ያ ጠና
▁በመ ነጋገር
▁ጥ ርስ
▁የሚያ ገለግል
▁ተግባ ሩ
ንዳ ች
▁ወዳ ጆች
▁አጀንዳ ዎች
▁በአካባቢ ያቸው
ሂ ም
ቢ ና
ዳ ብር
ጎ ማ
▁ ፳
▁ነ ገድ
▁የሚ ቃ
▁ጀ ልባ
▁መሰ ራት
▁ፓ ኬ
▁የድ ህነት
▁ከቀ ኑ
▁ሹ መት
▁በመጠ ቆም
▁ፈለ ግ
▁ለረ ዥም
▁ግሩ ፕ
▁ከ ሆን
▁ይ ሳ
▁ደ ንግ
▁ደ ማቅ
▁አስ ገኝ
ራዊ ቱ
▁በእ ናንተ
▁በእ ጥፍ
▁የቆ የውን
▁ከም ድር
▁ሰዓ ታት
▁ፍቃ ዱ
▁ስድ ስተኛ
▁ዓለማ የሁ
▁መስመ ሮች
▁ደላ ሎች
▁ያስከት ላል
ነ ሮች
ዓ ያ
ግ ሉ
▁ ፐር
▁አ ተኩ
▁ይ ቀበ
▁የሚ ፈጸም
▁የተ ግባር
▁እንዲ ቻል
▁አይ ተ
▁ለአ ም
▁ለተ ወሰነ
▁የተሰ ሩ
▁በህ ክምና
▁ተገል ጋ
▁ጓደኛ ዬ
▁ሰም ቻለሁ
▁ጠላ ቶች
▁ማቀ ነ
▁ሚያ ዚያ
ሮ ባንድ
ሺ ፕ
ዊ ነት
▁ማ ሕ
▁እንዲ ጨምር
▁እየ ዘ
▁እንደነበር ም
▁የዳ ይ
▁አራ ተኛው
ቋር ጥ
ለ ጡ
▁ U
▁ም ቾ
▁በመ ቃወም
▁ሲ ሸ
▁ል ባቸው
ባል ነት
▁በየ መ
ቀመ ጡት
ደን ቅ
ፈን ቅለ
▁ትዕ ግስት
▁የሩ ጫ
ለ ፋ
ማ ችንን
ሩ ክ
ር ቷል
ቃ ዋሚ
ች ስተር
ኔ ስኮ
ን ጣ
▁የ ጨርቃ
▁ለ ፈ
▁ይ ወር
▁የተ ደራጁ
▁አስ ደን
▁እየተ ስፋፋ
▁ያስ ገባ
▁ኢን ጅ
▁ፀ ሃ
ጫወ ተው
a d
o c
ካ ኔ
ወ ጡት
ጅ ተው
▁ከ ጭ
▁የተ መለከቱ
▁አስ ታ
▁ኃ ያ
ፈል ጉም
▁መል ሱ
ጠቃ ለያ
ሸነ ፈ
▁አያስ ፈልግም
▁የሚገ መት
▁በተቃ ራኒ
▁በማድረ ጉ
▁ፌስቲቫ ል
▁ተመስ ገን
o w
ረ ፉ
ራ ባች
▁መ ድን
▁ይ መሰ
▁ያ መለከቱት
▁ስ መ
▁የተ ሞ
▁እንዲ መጡ
▁አይ ኖረውም
▁ሊ ኖሩ
▁ካ ቢኔ
▁ፍ ጥረ
▁እነ ዚያ
▁በም ክንያ
▁መሠ ዊ
▁መው ደ
▁አቋ ቁ
▁የጎ ደ
▁መነ ቃ
▁ከሰ ባት
▁መፍ ጠ
▁ፈል ጎ
▁አስገ ዳጅ
ቤ ታቸው
ደ ች
ጃ ችን
▁የ ፎ
▁እንደሚ መጣ
▁ከመ ጠን
▁6 ,
▁በሙ ዚቃ
▁አስታው ሰው
▁ባለሀብ ቱ
▁ሥፍራ ዎች
▁የማሳ ደግ
ካፈ ሉ
▁ከመቼ ውም
▁በአፋ ጣኝ
v er
ታ ገ
ቸ ገር
ኒ ሻንጉል
ፏ ቸው
▁እ ጆ
▁መ /
▁መ ላክ
▁ከ ፈለግ
▁ተ ኩ
▁በእ ግ
▁የስ ብሰባ
▁በማለት ም
▁ጣ ፋ
▁ማዕ ከላ
▁በታ ላቁ
▁የሚፈ ጠር
▁መቁ ረጥ
▁አጉ ል
▁ምሰ ሶ
ነ ሪ
ደ ናል
▁ y
▁ከ 60
▁ነ ቢያ
▁ያ በቃ
▁እው ቀትና
▁እንዳለ ብን
▁የሚፈ ፀ
▁አራ ቱ
▁ከ19 8
▁በአንጻ ሩ
▁ ቮ
▁እ ከ
▁ሲ ቀርብ
▁አስ ቴር
▁የአ ገራችንን
▁ለመ መልከት
▁ታ ጋይ
▁አብ ቅ
▁ጽ ንሰ
▁ግብ ጽ
▁ጣ ሊያ
▁የባ ሕር
▁ጅ ቡቲ
▁እንደሌ ላቸው
▁መቆ የት
▁የሠ ራዊት
▁እራ ሱን
▁ጥቂ ቶች
▁ኢሳ .
▁ተመልካ ቾች
▁ቁልቁ ል
ርስቶ ስን
ሚ ሊዮን
ረ ኛው
ዷ ን
ጥ ለው
▁አይ ቼ
▁ተናግ ሮ
▁ከ2 5
▁ከባለ ድርሻ
ቐ ለ
ነ ቴን
▁የ ጊ
▁አ ሟ
▁አን ደበት
▁በማ ቋቋም
▁የሚያ ገለግ
▁እየ ሄደ
▁ምክ ክር
ሰባ ሰቡ
▁ባለሙያ ዎቹ
▁ትን ፋ
▁ካለ መ
▁እሷ ን
▁ይጠቅ ማል
▁ተሻ ሽ
▁ለመንግ ስት
▁ተዘ ግ
▁አመር ቂ
ሪ ኩ
ጥ ቶ
▁የ ክር
▁ተ ጥሎ
▁አስ ጨ
▁ኢ ብራ
▁ኢ ነርጂ
▁ሳይ ኖር
ታው ቀው
ሳት ፎ
▁አቀ ና
▁አው ታ
▁ጽ /ቤት
▁የአፍሪካ ን
ገኛ ቸው
▁የተቀ ላቀ
▁ፅ ሁ
▁ዕው ቀ
▁ማስረጃ ዎች
▁ፈገግ ታ
▁የምስ ክር
ለ ተ
ቂ ቱ
ኋ ት
ከ ርም
▁በ ጀርመን
▁እ ልህ
▁እ ረኛ
▁በመ ግለ
▁ወጣ ቱን
▁ግብ አ
▁ለተ ጠቃሚ
ብራ ዚል
▁ዋንጫ ውን
በራ ቱ
▁እነር ሱም
ሹ ም
ፍ ነው
▁አ ጤ
▁አ ሏቸው
▁መ ፋ
▁ስ ዩም
▁የተ ማሪ
▁ግ ኝት
▁የመ ዋ
▁ለማ ም
▁ሊ ተ
▁ህ መ
▁ከመ ጽሐፍ
▁ብዙ ሃ
▁አገልግሎ ትን
▁ሻ ም
▁ኢኮኖሚ ው
▁የን ብረት
▁ጡ ረታ
ቃ ዊ
ያ ተ
▁ ጡት
▁ለ ዳ
▁ለ ዚያ
▁ደ መና
▁ሲ ሠራ
▁ጥ ልቀት
▁ከተ ገኘ
▁እር ሱም
▁ከሚ ገኙት
▁ይገባ ሉ
▁ሶ ፍት
▁ከ1 8
▁ርዕ ዮተ
▁አጠና ክረው
▁ሥልጣ ኔ
▁ብዝ ሃ
ዝ ነው
ጠ ሩት
▁የ 4
▁ም ሳ
▁የተ ገነባው
▁ቤ ትን
▁ድርጅ ቶችን
▁ከማ ይ
ምፒ ው
▁አዳ ጋች
▁በወ ረዳ
▁ተሸ ን
▁የዜ ና
▁ሕንፃ ዎች
▁የሠራ ተኛ
▁እንደሚያሳ የው
▁የሳይንስ ና
u l
ኤ ፍ
ጭ ቱ
▁በ ሒ
▁የሚ ሹ
▁የሚ ከተለው
▁ያ ካ
▁ማ ጠናቀ
▁እንዲ ሰጣቸው
▁አገ ራቱ
▁አል ፈ
▁አባ ላትና
▁ጨ ረቃ
▁እር ከን
ፈጠ ሩት
▁በ1 1
▁ትር ጓሜ
▁በእር ሻ
▁ረገድ ም
▁ለቀ ጣይ
▁ታውቃ ላችሁ
ቧን ቧ
▁በተና ጠል
ሽ ኑን
ቲ ቱ
▁በ ቲ
▁ማ ሰባሰብ
▁ሁ ነኛ
▁ከፍተኛ ው
▁አሰ ቃቂ
▁ፀ ሀ
▁መብ ቱ
▁ጸ ሎ
▁በረ ጅም
▁በክ ረምት
▁ብት ሆን
▁አዘጋጅ ነት
ብርሃ ም
▁የ ኖሩ
▁አ ረብ
▁ያ ማ
▁ማ የ
▁ሳ ር
▁ሳ ኦል
▁ቆ የ
▁ዕድ ሉ
▁ዘመ ናቸው
▁መንግስት ን
▁ጥሩ ነሽ
▁እንደሚያ መለክተው
▁ተፈጥሮ አዊ
▁አገኘ ሁ
▁የክለ ቡ
▁የተፋ ሰስ
▁በፈቃ ደኝነት
ብ ዳቤ
ኛ ና
ጎ ላ
▁ ፫
▁ ኖር
▁የ ዋንጫ
▁በ ሄ
▁አስ ፋ
▁ዓ ለሙ
▁ገ ጾች
▁እየ ፈጠረ
▁የማ ዳ
▁መስ ማ
▁ራ ሳችን
▁ስራ ቸውን
▁ኦ ፕ
ገነ ቡት
ልማ ቱ
▁እም ቅ
ውው ር
▁እስራ ኤ
ሪሚ ዬር
▁ኮንት ራት
▁በባህ ላዊ
ሽ ቱ
ቀ ኝነት
ኃ ኒት
▁ ዲስ
▁በ ወጣው
▁በ ሳይንስ
▁የተ ጠየ
▁ደ በበ
▁እየ ሸ
▁ቢ ሉ
▁በቀ ድሞ
▁ላ ሉት
▁በም ዕራ
ናዊ ው
▁አገራት ን
▁ህዝብ ና
▁የኤ ች
▁በገ ጽ
▁ሰላ ሳ
▁ተን ታ
▁ካፒ ታ
ቅ ሶ
▁ለ ኦ
▁እንዲ ነሳ
▁የአ ማርኛ
▁በማ ደግ
▁ጋ ሻ
▁ሚ ዲያው
▁ከተ መ
ንያ ን
▁አት ችልም
▁ወር ቃ
▁መብ ታቸው
▁ምስ ጢ
ሳሰ ል
▁በሚያ ደርጉት
▁የቅ ጣት
▁ትና ንሽ
▁ህይወ ትን
▁ይሉ ታል
▁ስልጣ ኔ
▁ጢሞ .
▁ስታድ ዬም
ቶ ኛል
ደ ቀው
▁አ ላም
▁አን ደ
▁ቢ ጤ
▁አል ቀ
▁ችግ ሮቹ
▁የእ ድሜ
▁የጥ ናትና
▁አጥ ነት
▁ጥቅ ሶች
▁ጥራት ና
ፈልጋ ቸውን
▁በቴ ሌቪዥን
▁በሊ ቢያ
▁ተወላ ጆች
ሸ ው
ና ድ
▁የ ሆን
▁መ ከታተል
▁ከ ያ
▁በመ ሸ
▁እንዲ ጠቀሙ
▁በማ ው
▁ሊ ታይ
ትና ገር
▁ደግ ነት
▁ፈ ፃሚ
ርም ት
▁ችግር ና
▁አብ ዲ
▁ጽ ንፈኛ
▁ጭ ቆና
▁የወን ዶች
▁መጓ ደል
▁አድርጓ ቸዋል
ል ሲ
ሳ ለን
ጆ ችን
ጓ ጓዝ
▁ ርምጃ
▁መ ከ
▁ይ ቆጠ
▁የሚ ካሄዱ
▁ያ ድር
▁አስ ችሎ
▁ሊ ወጣ
▁እየተ ገነባ
▁ሀ ቅ
▁ለአ ገራችን
ገለ ፀ
ላለ ማዊ
▁ተናግ ረው
▁መመ ገብ
▁የኤ ክስ
▁ጠንካራ ና
▁ቀጠ ሉ
▁ህፃ ን
ሃ ድ
ሪ ዝ
ቅ ስ
ዛ ር
▁በ ሠራ
▁መ ነጋ
▁ከ ለ
▁ይ ደግ
▁ተ ደም
▁ያ ቃ
▁በመ ጨመር
▁ለመ ክፈል
▁አይ ዞ
▁የማ ል
▁ሁኔታ ና
▁ተመ ሥር
▁ይገባ ናል
▁200 5
ደርስ ባቸው
▁ስልጠና ው
▁ጴጥ .
▁በየአ መቱ
▁ክን ው
▁ሽን ፈት
▁ባቢ ሎን
▁ ዎ
▁አ ጼ
▁እን ላለን
▁ከ ጣ
▁ሰ ሌ
▁ቤ ቱም
▁በእ ስር
▁አም ነው
▁የወ ተት
▁የስ ድስት
▁የበ ግ
▁አድርጋ ችሁ
▁ያቀር ባሉ
ጎለ ብት
▁ተፈታ ታኝ
u t
ኩ ራ
ዲ ካል
ዶ ን
▁ለ ቀው
▁ቤ ታችን
ስተ ምር
▁ኮ ንፈ
ክት ሬት
▁ጦር ነቱ
▁በ19 4
▁ፅ ንፈኛ
▁በእው ነት
▁ሰፋ ፊ
▁ታም ኖ
▁ኮሎ ኔል
ቅ ያ
▁የ በር
▁ከ ጅ
▁ለ ሆነው
▁የሚ ጀምረው
▁ቅ መ
▁ከአ ሥር
▁ር ስት
▁ዘመ ዶ
▁አዳ ራሹ
▁በቅርቡ ም
ረፍ ተ
▁የወሰ ደው
▁አሻ ራ
ጻ ቸው
▁የ ከተ
▁በ ላቀ
▁በ ዝግጅት
▁አ ሽከርካሪ
▁የሚ ኖረ
▁የተ ጠበቀ
▁ለማ ር
▁የም ሥራቅ
▁ከአ ስር
▁በር ሳቸው
▁አለመ ሆን
▁ቢሮ ዎች
▁ጤ ን
▁ሠራዊ ቱ
ቦ ላ
▁የ ከረ
▁መ መልከ
▁የተ ማሩ
▁የሚያ ካሂ
▁አባ ዜ
▁ላ ላቸው
▁ተቀ መጠ
▁ፖ ር
▁ለማስ ፈጸም
▁በሽ ብር
▁እዚህ ም
▁ሩ ዋንዳ
▁ፖሊሲ ዎች
▁201 4
▁የቢ ቢሲ
▁ተል እ
▁ኮንት ራክ
▁ለወጣ ቶች
ሕ ፍት
ፍ ረው
▁የሚ ከፍ
▁የተ መዘገበው
▁እንዲ ከበር
▁ዘ ብ
▁እንኳ ንስ
▁አንዳ ችም
▁የጋ ብቻ
▁መስተ ንግዶ
▁በእዚህ ም
▁በወን ጀል
▁ይቀር ባል
ተ መ
ዩ ና
▁በ ጊ
▁የሚ ከናወኑ
▁እንደ ማት
▁እንዲ መ
▁ሲ ጨ
▁የእ ናንተ
▁ኤ ፍሬም
▁የዓለም ን
▁የሚገል ጸው
ቃወ ሙ
▁በዋ ነኝነት
o s
ሽ በት
ኑ በት
▁የተ ደገፈ
▁በመ ደ
ራዊ ው
▁ኮ ንግ
▁ያስ ቀ
ታው ራሪ
▁ተቀ ላቅ
▁ሪ ከርድ
▁የተሰ ጣቸውን
▁ሂ ድ
▁የሽ ግግር
▁ግልጽ ነት
ደሰ ቱ
▁የሐ ሳብ
▁ፊል ጵ
መዘገቡ ት
▁ገዝ ቶ
▁ለን ደን
▁ተአ ምር
ሕ ዛ
▁ይ ዋ
▁የተ መዘገበ
▁ገ ምግ
▁ሀ ያ
▁ላ ሊ
▁ይጠ ፋል
▁የምና ደርገው
▁ሒ ደ
▁ክር ስትና
▁የሚያስችለው ን
▁ ;
▁የ ሺ
▁በ ና
▁ይ መራ
▁ወ ሳ
▁በመ ጋ
▁ድ ግስ
▁ካ ድሬ
▁ለአ ባ
▁ጎ ጆ
▁ለእ ያንዳንዱ
▁በት ዳር
▁ለማድረግ ም
▁ሰብ ስ
▁8 00
▁የሞ ተ
▁ተቋማ ትም
▁ሲገል ጽ
▁ተገንዝ ቦ
▁እንቁ ላል
▁ጨም ሯል
▁የሬ ዲዮ
▁ተምሳሌ ት
ስ ግ
ት ከል
ነ ቡ
ዎ ቼ
▁አ መን
▁ከ ሸ
▁ተ ሽ
▁ሰ ጡ
▁በመ መልከት
▁አስ ቤ
▁የአ ባይ
▁ለመ ሙላት
ደር ሰው
▁ምክ ረ
▁ምግብ ና
▁መምህ ሩ
▁መስጠ ቱ
ዘረ ዘ
▁የእው ቀት
ጎበ ኙ
▁በኪ ራይ
▁ወኪ ል
▁ያስቸግ ራል
i a
ለ ሌ
ለ ታት
ሱ በት
ነ ተኛው
ፀ ባር
▁መ ቆጣጠ
▁የሚ ዋ
▁እንደ ገባ
▁ባ ለት
▁አስ ች
▁እንደሚ ካሄድ
በሩ ን
▁አንዱ ና
ስተዋ ሉ
▁ደረ ጀ
▁ባህር ዳር
▁ጠየ ቅ
▁በምት ገኘው
▁በኃ ላፊነት
ለ ክ
ረ ች
ሲ ሲ
ብ ሯል
▁የ ጠበቁ
▁በመ ፍታት
▁የአ ጥ
▁ዘ ና
▁አይ ኖር
▁እንደሚ ቻለው
▁የማ ስተማር
▁ከስ ምንት
ልኮ ል
▁መከላከል ና
▁ዲፕሎማሲ ያዊ
ሎ ቻቸው
ዢ ው
ጋ ትና
▁የ ፈለ
▁እ መር
▁ያ ከናው
▁ማ ዳን
▁ው ሸ
▁ሲ መለሱ
▁የሚያ ገኘው
ሪያ ችን
▁እንደሚ ሰሩ
▁ዓይ ነቱን
▁አው ሬ
▁5 3
▁በወ ረዳው
▁ይሰ ጡ
ባባ ሰ
▁ጠይ ቋል
▁መሸ ጥ
▁ሰን ሰ
▁ጂ ቡቲ
▁በተቃ ዋሚ
▁ነግ ረው
▁ቁሳቁ ሶች
▁ከቦ ታ
▁ድምፁ ን
ፈላለ ግ
c h
ር ኩ
በ ቅ
ጫ ቸው
▁ከ ነገ
▁ይ ቻል
▁የሚ ታወስ
▁በመ ረዳት
▁በአ ስር
▁በአ ትሌ
▁ካ ፌ
ጠበ ቅም
▁ረ ዘም
▁የማይ ቀር
▁የሕ ዝ
▁አስፈ ሪ
▁8 5
▁ቱ ቦ
ረጋግ ጡ
ፈፀ ሙ
▁ጓደ ኞች
▁ያነሳ ው
▁መሬ ቱን
ሮ ቻቸውን
▁ ፌዴራል
▁የ ዚ
▁በ ክል
▁መ ደበ
▁እየ ጣ
▁ታ ህሳስ
ያው ያን
▁የግ ጥም
▁በጥ ሞና
▁አጋ ንን
▁ባለሙያ ዎችና
▁በወ ንድ
ደርስ በት
▁አጥ ን
▁የቀረ ቡት
▁የከተማ ዋን
▁በይ ሁዳ
▁አየ ለ
▁የአፈር ና
▁አልቻል ኩም
▁ፑ ቲን
▁ተርፎ ም
ገ ሮች
▁የ ናይጄሪያ
▁አ ደረግ
▁አ ሽከርካሪዎች
▁ተ ማር
▁በመ ገኘት
▁በማ ሳተፍ
▁እየ መራ
ሪያ ን
▁አል ፋ
▁ጽ ድቅ
▁በጥ ንት
▁ስለሚ ሆን
▁ዕድሜ ው
▁ሰነ ዱ
▁አድማ ጮች
▁እርግ ጠኞች
▁ሃይማኖ ቶች
▁ምድ ራዊ
/1 5
▁ተቆጣ ጣሪ
▁ይው ላል
▁ፈላ ስፋ
ቪ ዬ
ዓ ም
▁የ ፈለጉ
▁ደ ው
▁የአ ፍ
▁ገ ዳይ
▁ዘ ወር
▁ለመ ላው
▁አይ ቀር
▁አለ ፍ
▁እንዳ ደረገ
▁ጠ ርቶ
▁አገ ባ
▁ፈ ረሰ
▁ቅ ቤ
ተር ፍ
▁የል ዩ
▁አዋ ጁን
ሻለ ቃ
▁የፈ ረ
▁የድ ሬዳዋ
ዎ ሮሎጂ
ጭ ና
▁ተ ክል
▁የሚ ቆይ
▁እንዳ ታ
▁ሕ ብረት
▁አለመ ኖሩ
▁ሠ ዓ
▁ጽሑ ፉ
▁አፍ ንጫ
▁ጠየ ቁ
▁ለሰ ላም
▁ቅርንጫ ፎች
▁ምል ከታ
▁ጠን ከር
▁የችግ ሩን
ሥ ሪያ
ረ ሪ
ች ላቸው
▁እ ሚ
▁እ ክል
▁ከ ጦር
▁በመ ምራት
▁እንዳ መለከተው
▁በሕ ጉ
ገደ ድ
▁የሚሆን በት
▁ሬ ድ
▁ብራ ዚል
▁ታዛ ዥ
▁ስፔ ሻ
▁ለኢን ዱስትሪ
▁እንደማን ኛውም
2 8
ቆ ሎ
▁አ ኗኗር
▁ይ ከፈ
▁ማ ጉ
▁እንዲ መለስ
▁ሥራ ና
▁እንዲያ ድግ
ግራ ሙ
▁በዓ ለማችን
▁ፈቃ ደኞች
▁ሰይ ፍ
▁የያዘ ውን
ጡን ቻ
ኳን ዶ
▁ጻ ድ
▁ያገኙ ትን
ሌክትሮ ኒክስ
ቆ መው
ደ መው
ገ ቢያ
▁እ ሙን
▁መ ሻ
▁ከ 9
▁የሚ ፈጠሩ
▁የተ ና
▁በተ ገኘ
▁ህ ግና
▁ኤ ርት
▁የሆነ በት
▁አብ ደላ
▁እንደተ ለመደው
ገቡ ም
መሰ ረተ
▁መታ የ
▁የድ ሮ
▁ተከትሎ ም
▁የመስ ራት
▁ዘንድሮ ም
ጎና ጸ
▁ከመጀመሪያ ው
▁አወቃ ቀር
ሁ ና
ሊ ላ
በ ሰቡ
ጥ ታው
▁ ሩት
▁የ ኒው
▁ሲ ሰሩ
▁ድ ንግ
▁የሚያ መጣ
▁ከአ ደጋ
▁ኦ ር
ቋቋ ምና
▁በድ ህነት
▁25 0
▁ሕዝቡ ም
▁ሰይ ጣ
▁የሌላ ውን
▁ነቢ ዩ
▁ለማስተ ላለፍ
▁ዱቄ ት
ብ ቷል
ኖ ም
▁ከ ንጉ
▁በተ ፈጠረ
▁ገ ደል
▁የማ የት
▁ከፍ ሎ
▁ዜ ግነት
▁5 6
▁ፊ ቱ
መዘ ግብ
▁ውሃ ና
▁የሚመ ሩት
▁የእር ዳታ
▁በፕ ሬዚዳን
▁በን ቃት
ሙ ማ
ር ፖ
ቴ ም
ቶ ሊክ
ነ ሩ
ነ ታ
ፈ ነው
▁እን ትና
▁ከ ቱ
▁ሙ ሴን
▁ሱ ዳ
▁ፓ ስ
▁ዋል ያዎቹ
▁ካም ፓ
ህ ፍት
ረ ቱን
ክ ፈቻ
ዝ ያ
ዲ ያን
ፅ ዋት
▁ያ ዋ
▁በተ ወሰኑ
▁የመ ላው
▁የአ ራት
▁ታ ዝ
▁ቢ ጫ
▁በሚ ባለው
▁በእ ስ
▁ያስ ገነዝ
▁ተቀ ን
▁ፍላጎ ቱ
▁ውይ ይቱ
▁ከው ስጥ
▁ሲነ ጻጸር
▁ይደ ነግ
▁ቼ ክ
▁ነገሥ ቱ
▁አሸን ፎ
ጠ ለጠ
▁የሚ ገለ
▁የተ ሰራው
▁በተ ወ
▁ስለ ሆን
ሠራ ም
▁ግብ ፃ
▁ሰብ ሎች
▁በብ ድር
▁19 7
▁መድ ህን
ያዙ ት
▁ኢህአዴግ ን
▁ሲነ ገር
▁ቸ ር
▁ሥልጣ ንና
▁በመሳሰ ሉት
▁ፍጥረ ታት
i m
ላ ሪ
ጓ ድ
ጣ ችን
▁ለ ኪ
▁ይ ከታተ
▁የሚ ነሳው
▁ወ ፎች
▁አገ ራችንን
ጠና ከሩ
▁ደረጃ ና
▁ወቅ ቶች
▁መሠ ራት
▁የት ራንስ
▁በስ ደት
▁መር ጦ
መድ ህን
▁ልማ ቱን
በረታ ቱ
▁ስለም ት
▁በጭ ራሽ
▁እየሠራ ን
▁መቸ ም
▁ጭብ ጥ
1 0
ጥ ርም
▁የ ቼ
▁ከ ለላ
▁ያ ዘጋጀ
▁የም ፈልገው
▁እየተ ሸ
▁ማድረግ ና
▁ና ሙና
▁አሜሪካ ና
▁በሽታ ን
▁ሜዳሊያ ዎች
▁የኢየሱስ ን
▁በቋሚ ነት
▁አስነብ ቧል
ላ ድ
ሪ ዮ
ኮ ታዊ
ዛ ይን
ዦ ች
▁ተ ስተው
▁የሚ ቀርበው
▁ድ ሪ
▁አይ ተናል
▁የእ ነሱ
▁የእ ስራ
▁ምር ቱ
▁አሉ ና
▁መብ ቱን
▁ይሰ ጠዋል
▁በመቀ ሌ
▁በመካ ከለኛው
▁ሰማይ ነህ
▁የሚከተ ሉት
▁መሥፈር ቶች
. ሜ
o d
ል ዎ
ኒ ዚያ
ደ ችው
▁ ሄድ
▁ለ ንጉ
▁ተ ዳር
▁የተ ከበረ
▁በማ ራቶን
▁የም ዕራብ
▁ካ ይ
ገኘ ም
መር ጥ
▁የዘ መን
▁አጥ ቂ
▁አንተ ስ
▁የቴ አትር
▁ፖለቲከ ኛ
▁ማድ ሪድ
▁ኬሚ ካል
▁የፕሮጀ ክቱ
▁የጃ ፓን
ካ ቸውን
ጽ ምና
ፍ ተው
▁የ ብረት
▁መ ሻሻ
▁መ ሞት
▁የተ ቻ
▁በመ ማር
▁ት ገል
▁ጉ ራ
▁ጊዜ ን
▁ፍ ጥረት
▁ከመ ው
▁ቁ ሳዊ
ኞች ና
▁አለመ ኖሩን
▁አዳ ነ
▁መው ለድ
▁ቻ ለ
▁አሳይ ተዋል
▁ልጃ ቸውን
▁ቆር ጦ
▁አጥብ ቆ
▁በአዋ ጁ
▁የሚያግ ዝ
▁በመሠ ረቱ
▁ፌደ ሬሽን
ጨ ስ
▁በ ጤናው
▁እን መለከ
▁ለ ሦስተኛ
▁ተ ዘዋው
▁እንደ ኔ
▁በአ ደጋ
▁ቀ ለል
▁እንደሚ ፈጥር
▁የምት ገኘው
▁የመጀመሪያ ዎቹ
▁ቀር በዋል
▁በዘ መኑ
▁ሕግ ና
▁አስፈጻሚ ው
▁አቋር ጦ
▁ተጎ ጂ
▁መዝሙ ሮች
ቅ ጭ
▁በ ሮች
▁ማ ቋረጥ
▁የተ ገለጸው
ውን ዴ
▁በተ ጠቀሰው
▁የመ ለ
▁ክ ሱ
▁ለመ ዝ
▁አገ ና
▁ከመ ጀመሩ
▁እንዲያ ሳ
▁ረ ብ
ከናወ ናቸው
ልን ማ
ርስቲ ያ
▁ቴክኖሎጂ ዎች
▁በሻ ምፒዮ
▁ገበሬ ዎች
▁ባሳ ለፍነው
▁ይይ ዛል
▁ዲያብ ሎስ
ነ ፈ
ዝ ራ
ፋ ችሁ
▁የ ሄደ
▁በ ገባ
▁ም ረቃ
▁ዘ ለቀ
▁ለማ ይ
▁እየ ዳ
▁የማ ወቅ
▁የም ክክር
▁አባ ታችን
▁አብ ዝ
▁ከተማ ን
▁ጎ ጃም
▁የት ጥቅ
▁በጥ በብ
▁የቀ ለም
▁የዘ ለለ
ቶቹ ም
ዝም ታ
▁ልምድ ና
▁እንድን ችል
is t
▁ከሥ ልጣን
▁ተግዳሮ ት
▁የንጉ ሡ
▁ሜት ሪክ
ሾ ም
ቅ ማ
▁የ ከተሞች
▁ለ ሥ
▁ለ ነገ
▁ይ ከሰ
▁ማ ግ
▁በማ ሰባሰብ
▁ከተ ወ
▁ች ያለሁ
▁ጉዳ ቱ
▁ያለ ፉት
ኔታ ው
▁ከሆነ ም
▁መጥ ተዋል
ረም ቱ
▁የምና የው
▁የገንዘብ ና
▁የኅ ብረት
▁መኩ ሪያ
ዌ ይ
ዳ ትና
▁በ ሮ
▁እ ትም
▁እ ሰጣ
▁ለ ሐ
▁ማ ዋ
▁ማ ዘ
▁በመ ደበኛ
▁በአ ፋር
▁አስ ታወቁ
▁የመ ው
▁ፈ ጻሚ
▁ያስ ረዱት
ግራ ም
▁እንደምት ችል
▁ይሰማ ቸዋል
▁ይፈ ጽ
▁የሚጠቀ ስ
▁ከክ ርስቶስ
▁የሚመስ ለው
▁ዴኤ ታው
▁የተሻ ሉ
▁ፍየ ል
▁በ ዩኒቨርሲቲ
▁እ ት
▁ለ ሆነ
▁ለ ፍት
▁ይ ጎ
▁ለመ ወሰን
▁ሊ ሰሩ
▁የሚያስ ገኝ
▁ኦ ፊ
▁ሊያ ገኝ
▁ማዕ ድ
▁ያው ቁ
▁ትክክለ ኛው
▁ይመ ክራሉ
▁በመካ ከላ
▁ከየት ኛውም
▁የአር ብቶ
▁ነቢ ይ
ል ተን
▁የ 20
▁በ ለው
▁ከ ሞላ
▁የመ ጠበቅ
▁ለመ ልካም
▁ባህ ልን
ካት ት
▁ምሳሌ ዎች
▁የተወሰ ደ
▁ከሳ ምንት
▁ስለሌ ለ
ል ምና
ሬ ያለሁ
ቦ ቹን
ቲ ዎሮሎጂ
▁እን ቆ
▁ለ ኃ
▁ያ ደገ
▁በማ ስፋፋት
▁ቢ ቀር
▁የማ ኑፋክቸሪንግ
▁እየተ ነገረ
▁ን ፅ
▁ጉዳይ ም
▁5 7
▁7 00
▁200 4
▁የሚጠ የ
▁ከሁ ለቱ
▁መተ ዳደሪያ
▁ጉዞ ው
▁ተፈ ሪ
▁በመቀ የር
▁ትምህር ቱ
▁ሜዳሊያ ዎችን
▁ሁል ጊዜም
ቅጣጫ ው
ረ ቀ
ሾ ችን
ሾ ፍቱ
ቃ ብር
ደ ቁ
ፌ ት
▁ከመ ም
▁ሀ ላፊ
▁የወ ዳጅነት
▁የስ ንዴ
▁ሲያ ይ
▁መር ሀ
▁ጋዜ ጠኝነት
▁ክልሎች ና
ለዋ ወጥ
▁ግጥ ሚያ
▁የጀመረ ውን
▁በጠቅ ላላው
▁ጠን ክሮ
▁ሊቃ ውንት
ለ ቀው
ተ ወ
ካ ሽ
ዞ ችን
ፕ ሊን
▁መ ገልገ
▁ይ ሞክ
ገር ምም
▁ለማ ው
▁ከተ ሞችን
▁መካ ከለኛው
▁በድ ሬዳዋ
▁14 ,
▁አመለካ ከትና
▁የሚመ ሩ
▁በ201 0
▁ያቀረ በ
▁አግባብ ነት
▁ያደረጉ ትን
▁ለዜ ጎች
ዋ ሪዎች
▁ለ ችግ
▁ኢ ዜአ
▁ሳ ና
▁ሳ ዑዲ
▁በም ስ
▁በጥ ቃቅንና
▁በመቶ ው
▁የሚጠ ቁም
ደገ ም
▁ሙያ ተኞች
▁ብት ሆንም
ስተካ ከለ
▁አስመልክ ተው
▁ልጃ ችሁ
▁በኃ ይ
▁የሆ ቴ
▁አዛውን ቱ
▁ታጋ ዮች
▁የመንፈ ስ
▁ቀልጣ ፋ
ላ ውን
ታ ዲ
ቸ ግር
ጦ ስ
▁ከ ጐ
▁ከ ንፈ
▁ት ጥቅ
▁ለመ ሳብ
▁አገ ሩን
▁የም ዕራ
▁ፍ ተሻ
▁ምን ነት
▁ላ ን
▁ሲያ ዩ
▁ትምህርት ን
ከራ ከር
▁ተጠቃሚ ነትን
▁አሠራ ሮች
ለቀ ቁ
በታ ለሁ
▁የሚጠቀ ሱ
ክ ሊ
ደ ፈ
ጢ አ
▁ ፆታ
▁በ ነጋ
▁መ ዘጋጀት
▁ከ ጤና
በረ ክት
▁ካ ደረገ
▁ዋ ቢ
▁የኢትዮጵያ ና
▁የህ ብረት
ቆጣ ጠሩ
▁አስረድ ቷል
ገመ ንግ
▁ሂደ ቱን
▁c om
▁ተንቀሳ ቃሽ
▁የደመ ወዝ
1 9
ማ ንት
ረ ጅ
ብ ላት
ኩ ህ
ፍ ኖ
▁ከ ምና
▁ይ ከናወ
▁እየ ቀረበ
▁ቢ ኖሩ
▁እንደሚ ወ
▁አስተ ዳ
▁ኮ ሙዩኒኬሽን
▁አብ ይ
▁ሞ ባይል
▁አቅ ሙን
ጠቀም ባቸው
▁ወጥ ቷል
ገሪ ቷን
▁ኮን ጎ
▁ሕይወ ትን
▁የእኛ ን
▁ሳይንስ ና
▁በፀ ረ
ባዔ ው
▁ተልእ ኮ
m ent
▁የ ሎ
▁እ ዳ
▁ተ ሻለ
▁ም ጥ
▁ሲ ቃ
▁ቢ ቂ
▁እያ ን
▁የእ ግዚአብሔር
ወሰ ነው
▁ጽ ሁ
▁አጋ ርነት
▁እንግ ልት
▁ትዕ ግ
▁መንስ ዔ
▁ስምም ነቱን
▁ምህ ዳር
▁ተሰጥቶ ታል
▁ማሰ ላ
▁ኤች አይቪ
▁አዘጋ ጆች
▁በግንባ ር
▁እንመለከ ታለን
ማ ቾች
ብ ሽ
ዘ ገ
ጅ ጋ
▁የ ቃል
▁መ ዳን
▁ሲ ኒማ
▁የመ ሥራት
▁ጠ ባይ
▁ሕ ብረተሰቡ
▁ህ ሙማን
▁ያሳ ዩ
▁በሚያ ደርገው
▁እናንተ ን
▁የዲ ፕሎማሲ
▁ብቃ ትና
▁ከቤተ ሰብ
ማ ቲ
ች ነት
ከ ሩት
ጠ ያይ
ጻ ፉት
▁የሚ መለከቱ
▁ያ ሰብ
▁ብ ለሽ
▁እንዲ ሰጠው
▁ሲ ነግ
▁ል በል
▁አይ ሰማ
▁ጉ ሙዝ
▁አለ በለዚያ
▁አም ስተኛው
▁የህ ገ
▁ሱ ፐር
▁በኤ ሌክትሪክ
▁መኮ ን
▁የቀረበ ውን
▁በጠ ንካራ
▁የተቋ ሙ
▁የቴክኒክ ና
▁ተነግ ሮ
▁የሚቻል በት
▁ልጇ ን
g e
ሮ ቢ
ነ ግር
ጂ ን
▁በ ዐ
▁ወ ለጋ
▁በአ ፈ
▁በአ እምሮ
▁በማ መን
▁ሊ ወ
▁አመ ቱ
ሄድ ም
▁ፊ ፋ
▁ምርጫ ውን
▁19 5
▁ለወ ንድ
▁ፈል ገው
▁ማው ራት
▁የሚኖረ ውን
ካ ድም
▁በ ሳይ
▁በ ነዚህ
▁አ ሲ
▁ለ ቁ
▁ይ ሻል
▁ት ሕትና
ስት ን
▁ለመ ዋጋት
▁እና ያለን
▁እንዳ ደረገው
▁ኮ ማን
ሰራ በት
▁በቀ ኝ
ፓር ኩ
ኖች ና
▁ቦታ ና
▁ጨዋታ ም
▁መቀ ጠ
ጠራ ቀ
▁ማስተ ዳደር
▁በሆነ ችው
▁የቻ ሉ
▁የሚገ ጥ
▁ኤክስ ቴንሽን
▁ከዓ መታት
▁ይሠራ ሉ
▁አደረጃጀ ቶች
▁የተናገረ ውን
ላ ከ
ዘ ት
▁እ ዛው
▁ከ ጓደ
▁ጥ ሰ
▁ዘ ላለማዊ
▁ሐ ይ
▁መሰ ን
መጣ ጣኝ
▁አፍሪካ ዊ
▁የሚጠ ጋ
▁አስታው ስ
▁እግ ሩ
▁በዕ ቅድ
▁የማስ ታወቂያ
▁የሚፈልጉ ትን
▁ቅቡ ዓን
መ ቅ
ሚ ና
ተ ስ
ታ ዩ
ኮ ስ
▁ያ ጡ
▁ብ አዴን
ላይ ት
▁እንዲ ጠናከር
▁ሲ መለከት
▁ጉ ዟ
▁አካ ሉ
ሰራ ም
መር ቱ
▁ማሳ ደ
ቋቋ ሚያ
▁ከወ ር
▁እንደማይ ቻል
▁ግራ ና
▁ቪ ዲዮ
▁ለግ ድቡ
▁ተዘጋጅ ቷል
▁መኳንን ት
ነጥ በብ
መ ቶ
ቀ ንስ
ነ ጨ
ካ ፋ
▁የ ሒ
▁መ ታወቅ
▁የሚ ጣ
▁ማ መቻቸት
▁የተ ከናወኑ
▁ባ ገኘ
▁ህ ንድ
▁አመ ፅ
▁ቆ ስ
▁ወን ዞች
▁በው ይይት
▁አዳ ራ
▁ማሳ ወቅ
▁ሸ ሽ
▁በረ ራ
ጻጸ ም
▁ወዘተ .
▁እየሰራ ን
▁ትግ ሉን
▁ተመራ ቂ
▁አቅርቦ ትና
ጽና ና
▁በተቋ ሙ
▁አገልግ ለዋል
▁ኢንቨ ስተሮች
ሶ ም
ቀ ዘ
ቪ ክ
ፈ ሪያ
▁ከ ይ
▁የሚ ጠራው
▁ወ ኔ
ለው ና
▁አን ዲ
▁የመ ናገር
▁የማ ስፋፊያ
ገባ ም
▁በሚ ሊ
▁ምን ጩ
▁እየተ ጠቀ
▁የሰ ላምና
▁እስከ ማ
▁አር ዓያ
▁በስ ም
▁የታ ዩ
▁የል ዑ
▁ለማስ ቻል
▁ባይ ኖርም
▁ዝግ ጅቱ
▁የዕ ቅድ
▁የኤ ጀንሲው
▁የሁ ሉንም
▁ልጆ ቼ
▁ሉ ሲ
▁ዕቃ ዎችን
▁ይባ ላሉ
▁ተሰጥ ኦ
▁ያለፈ ውን
▁ለጉ ዳዩ
▁ደጋግ መው
▁ከዛ ም
ረከ ቡ
▁ጓደኞ ቼ
▁በአንቀ ጽ
i on
ለ ዱ
ለ ፉት
ሠ ልጣ
▁በ በረ
▁መ ዓዛ
▁ከ ምድ
▁ተ ገለጸ
▁በመ ፍ
▁አይ ነ
▁ካ ን
▁አል ፈለ
▁ቅ ፅ
▁ቁ መና
▁ስራ ን
▁የታ ሰበ
▁በው ጤ
▁ዙ ርያ
▁ልጆ ቻችሁ
▁የዳ ያስፖራ
▁በሆኑ ት
መላለ ስ
▁ኤፌ ሶን
ር ጌ
▁አይ ልም
▁የሚያ በረታታ
▁ሊ ገኝ
▁ሌ ት
▁ይች ሉ
▁ውድ ነት
▁ውድ መት
▁ፕሮ ፖ
▁ማዕ በል
▁የምና ገኘው
▁የአሜሪካ ው
▁ብል ጭ
ገልግሎ ቱ
▁ለስ ፖርቱ
▁መከራ ከሪያ
▁ሃሳ ቦችን
ሆና ችሁ
ምም ነቱ
▁ሽን ኩርት
▁አንገ ቱን
▁ተቆጥ ረዋል
▁ይቆጠ ራል
ሲ ካ
ገ ኑ
ግ ተው
▁ከ ኔ
▁ወ ቀሳ
▁በአ ትሌቲክስ
▁የመ ግለጽ
▁ገ መድ
▁አማ ልክት
ሰበ ሰበ
▁ከግ ንቦት
▁የሚያው ቁት
▁በውስ ጣቸው
▁የሁለት ዮሽ
▁በመመ ደብ
▁ኢንተርፕራይ ዝ
ሕዛ ብ
ሪ ዎቹ
ቋ ረጠ
ጊ ዮርጊስ
ጠ ፉም
▁የ ኒ
▁አ ቤል
▁እን ጃ
▁የሚ ሞ
▁ያ ገባ
▁ያ ዘጋጀው
▁ሰ ላማ
▁ሁ ን
▁ኢ ህ
▁ኢ ስ
▁ቅ ጠል
ከላ ከ
▁ኪ ስ
▁አንዳ ቸው
▁ያደር ጋቸዋል
▁ሹ ማ
▁ስርዓ ቱን
▁መዘ ዝ
▁ሞክ ር
ዲና ዋ
▁በዴሞክራሲ ያዊ
ኖ ቻቸው
ጦ ታ
ፀ ድ
ፃ ፈው
▁አ ክስ
▁አ ደረገው
▁ለ ዛሬ
▁ማ ናቸውም
▁ሰ ጠው
▁የአ ሰልጣ
▁የአ በባ
▁ገ ዳም
▁ለማ ሰብ
▁እየ ደረሰ
▁የማ ስተዳደር
▁ደግሞ ስ
▁የነ በራቸውን
▁በግ ንቦት
▁ዲ ግ
በቃ ም
▁የምታ ስ
▁ሕይወ ቱ
▁ጤ ነኛ
▁ፓርላማ ው
▁ታዛ ቢ
▁ተሰብ ስበው
▁ካም ፕ
▁ተግ ሣ
▁ተከናው ኗል
▁ሸቀ ጦች
ዳ ዲስ
ግ ት
▁የ ፈለገውን
▁ከ ዲ
▁ግ ሎ
▁ት ርም
▁ቀ ረበ
▁እየ ሞ
▁ካ ደረጉ
▁ሙ ያው
▁በር በሬ
▁የሚያስ ብ
▁አብ ነት
▁በመሆኑ ና
▁በግ ራ
▁ይገ ጥ
▁አለመ ረጋጋት
▁እንዳለ በትም
▁ኳ ሱ
▁ክለ ቦችን
▁ጥቅም ና
▁በማስ ወገድ
▁በቁ ጣ
▁የሕዝብ ን
▁ሰም ቶ
▁ሃሳ ባቸውን
▁ቀዳሚ ው
▁የሚያስተ ላል
▁ማይ ክሮ
▁በምሳሌ ነት
▁ጉድለ ቶች
1 5
▁ለ ፀ
▁ማ ቋቋም
▁እንደ ደረሰ
▁እንዲ ታይ
▁ሲ ኖሩ
▁አለ ህ
ተው ታል
▁ን ክ
ታዊ ነት
▁ማስ ፈን
▁ገን ዳ
▁በብ ሄራዊ
▁ይዞ ት
▁የካ ንሰር
▁በሽታ ውን
▁የሚመ ጡት
▁ለብ ሔራዊ
▁አመራሮች ና
▁ፈረን ጅ
▁እዬ ተ
▁የሚደር ሰው
▁አዘው ት
ማ ሬ
አ ን
ግ ረው
▁የ ጠራ
▁የ ጨረታ
▁ከ ግል
▁የሚ በልጥ
▁በመ ቻ
▁እንዲ ስፋፋ
▁በተ ከሰተው
▁ለመ ድ
▁እያ ደረግን
▁ከአ ቅም
▁ቆ ጠራ
ባል ታ
▁ጭ ንቀ
▁ንጉ ሴ
▁ውሳኔ ውን
▁አግኝ ቼ
▁ዝር ጋታ
▁እንደም ንም
▁ወሰ ነ
▁ትውል ደ
▁አስደን ጋጭ
. 9
ክ ሬን
▁እ ጥ
▁ያ ላችሁ
▁እንደ እ
▁ባ ሏ
▁በተ ረፈ
▁ዘ ላለም
▁ሊ ወሰድ
▁መን ደ
▁መን ደሮች
▁ቡ ክ
▁በም ድረ
▁መጠ ንቀቅ
▁ለው ጡ
ግራ ቸውን
▁ቤተ ሰቡን
▁አዳ ሪ
▁ጨዋታ ን
በረታ ች
▁ጉባኤ ዎች
▁የወጣ ውን
▁የቅ ን
▁ጥራት ን
▁የግብ ይት
▁የሚጠይ ቁ
▁እባ ካችሁ
▁አድርጋ ለች
▁ተካሂ ዶ
▁ከኦ ሮሚያ
▁ባልደረ ባ
▁ከሩ ቅ
▁እንደዘ ገበው
▁በማግ ስቱ
ል ፌ
ሳ ካም
በ ላሽ
ባ ክ
ቦ ቿ
ያ ዩ
▁እ ኚህ
▁ነ ብ
▁ለ ሠራ
▁ማ ተሚያ
▁የተ ያዘው
▁ሲ ሰሙ
▁ጋ ሽ
▁ዋ ይ
▁ቴ ድሮስ
▁ፓርቲ ዎቹ
ገቡ ን
▁ቀደም ት
▁ገንዘብ ና
▁በማስ ረጃ
▁በገ ቢ
▁ቫይ ረሱ
▁አልበ ም
▁ለመም ረጥ
▁ያረጋግ ጣል
a y
ም ራዊ
ጨ ነቅ
ጪ ዎቹ
▁በ ሴት
▁መ ደረ
▁ከ ሠራ
▁ይ መል
▁ይ ጠናቀ
▁ማ ርያ
▁ብ ድ
▁በመ ኖሩ
▁በመ ንቀሳቀስ
▁እንዲ ሸ
▁በአ ሁን
▁ቀ ዳማዊ
▁እንደሚ ፈልግ
▁ከመ ግባ
▁አመ ስግ
▁የሚያስ ፈልግ
ሪዎች ና
▁በስ ኬት
▁የታ ጀ
▁ይሰ ጠናል
▁ግለ ሰቦችን
▁ስላ ላቸው
▁በድን ጋ
▁ሆን ኩ
▁ተፈራ ር
▁ተገናኝ ተው
▁ታን ጕ
▁የኩባንያ ው
ቃ ለ
ቅ ሙ
ቷ ታል
የ ል
ጠ ረው
▁የ ልምድ
▁አ ጠናቀ
▁መ ሳተ
▁መ ዘር
▁ከ ሊ
▁ከ ገቡ
▁ተ ለያይ
▁ያ ዙ
▁ማ ጭበርበር
▁ም እራ
▁እንዲ ቀጥሉ
▁ት ሩ
▁የአ ዳማ
▁ሳ ው
▁እስ ረኞች
መስ ገን
ስፋ ፉ
▁ኦ ሮሞ
▁የል ጅነት
▁መር ዶ
▁ጌ ትነት
ጅም ሩ
▁በጎ ንደር
▁የሚገባ ቸውን
▁ተቋማ ዊ
▁መሸ ጫ
▁አለች ኝ
▁ክፍተ ቶችን
▁ኔት ወርክ
▁ሰልጣ ኞች
▁ተጠብ ቆ
▁ይሰጣ ቸዋል
ፋ ማ
▁የ ሾ
▁በ ጅምላ
▁ይ ጀመ
▁ባ ቀረበው
▁በተ ቀናጀ
▁ዘ ረ
▁በማ ስተዋወቅ
▁ይህ ችን
▁2 ኛ
▁ፖ ል
▁ሺ ዎች
▁የደ ኅንነት
▁ግንኙ ነትና
▁ታሪክ ና
▁የብ ል
▁የቆ ዩት
▁ጽሑ ፎችን
▁ማለ ዳ
▁ያገኘ ውን
▁ለመከላከል ና
▁የሲ ሚንቶ
▁ያነሳ ሉ
ታሰብ ም
▁ይወጣ ሉ
▁የማኅ በራዊ
▁ማስቀ ጠል
ሳ ር
ሸ ባብ
በ ጀት
ዖ ት
▁መ ዋል
▁እንዲ ፈቱ
▁በተ ያዘ
▁በማ ልማት
▁በማ ገልገል
▁አለ ቀ
▁ከተ ቻለ
▁መጠ ነ
▁ተከ ፋፍ
▁የቀ ሩት
▁ይመስ ላሉ
▁መዋ ዕለ
▁ይኼ ንን
ነበ ራቸውም
▁ኢንተር ኔት
ጎብ ኚ
▁ለቅ ሶ
▁ይመለከ ታል
▁በትዕ ግሥት
ህ ኒ
ቀ ብ
ታ ላችሁ
ና ፈ
▁በ ጌ
▁ነ ፋ
▁ም ድረ
▁ለመ ል
▁ለመ ጀመርያ
▁ኢ ዴፓ
ነሳ ን
▁ሽ ር
▁በስ ፍራው
ቻል በት
▁በእር ሳቸው
▁የካ ፒታል
▁ቶ ማስ
▁የጦር ነት
▁መሬ ቱ
▁ቅን ጅት
▁ያስታው ሳል
▁የተመሠ ረተው
▁እላ ችኋለሁ
▁ባንዲ ራ
ህ ትና
▁አ ቧ
▁መ ኰ
▁መ ጠናቀ
▁ለ ቢ
▁ማ ሰባ
▁የተ ሽከርካሪ
▁ሁ ኑ
▁ድ ምር
▁ታ የ
ደረገ ም
▁ፓር ኩ
▁የማይ ባሉ
መረ ቅ
▁ትር ኢ
▁የቆ መ
ዝና ና
▁የኢኮኖሚ ና
▁ህዝቡ ም
▁አስተሳሰብ ና
▁ስላል ሆነ
ሰቦ ቻቸው
▁በቆ ሎ
▁አውሮፓ ውያን
▁ተይ ዘው
▁መጠቀ ሚያ
▁አ ፕ
▁ተ ደግ
▁ባ ዘጋጀው
▁መን በር
▁እያ ገኙ
▁እያ የን
▁አስተ ምህ
▁አይደ ለችም
▁ኃይ ሎችን
▁አብ ያተ
ንቀ ጠቀ
▁ቃ ና
▁እስካ ሁንም
▁የኢን ተርኔት
▁ጤ ፍ
▁የተከ ፈለ
▁በነበሩ በት
ሰ ቃ
ቃ ና
ዴ ታ
ጸ ባር
▁በ 9
▁አ ኗኗ
▁ከ ቻ
▁ከ 80
▁ማ ገ
▁የተ ሾ
▁ሲ ቀር
▁የመ ዝናኛ
▁የማ ያውቅ
▁እንዳ መለከቱት
▁ሥራ ችን
▁እየተ ሻሻለ
▁የእ ንስ
ርም ርና
▁ለአ የር
▁ተጠ ቂ
▁ሞ ቱ
ከላ ከሉ
መረ ምር
▁በነ ገ
▁ተቃ ር
▁መሸ ጋ
▁የቢ ራ
▁ከት ውልድ
▁ካሳ ሁን
▁አብረው ት
▁የህዳሴ ው
▁በሪ ዮ
▁በሪ ፖርቱ
▁መድኃኒ ቶች
▁አርሶአ ደሮች
▁አስቀድ መው
▁ፈጣ ንና
▁አነጋ ጋሪ
▁ድንኳ ኑ
▁አቀማ መጥ
ህ ንም
ቁ ረጥ
ቶ ም
▁ከ ጥር
▁እንዲ ሄዱ
▁የአ ንተ
▁ወደ ሌ
▁በማ ደራጀት
▁ጠ መንጃ
▁ቅ ሬ
▁እስ ከተ
▁ከአ ካባቢ
▁ሴ ትዮ
▁የማይ በ
▁መር ማሪ
▁መድረ ሱ
▁እንቅስቃሴ ው
▁በህ ጋዊ
▁መብ ታቸውን
▁ፅ ኑ
ፈፀ መ
▁ይሄን ኑ
▁ደመ ወ
▁በፖ ሊስ
▁የሚፈልጉ ት
▁ለማዳ በር
▁ሳም ሶን
▁ይቀን ሳል
ን ትና
ጨ መሩ
ጭ በረ
▁በ ላቸው
▁የተ መጣጠነ
▁ሌ ዋ
▁እየተ ሳተፉ
▁አባ ሎች
▁ጨ ው
▁እንደተ ገለጸው
▁በ1 6
▁የጥ ን
▁የፖለቲካ ና
▁ኮሚቴ ዎች
▁ጄ ኔ
▁በእው ቀት
▁ሉዓላዊ ው
▁ትም ክህ
ቪዬ ሽን
በ ኝ
ባ ችንን
ኳ ችሁ
ዛ ዥ
ዛ ጋቢ
▁በ ፌዴሬሽኑ
▁አ እም
▁መ ሳይ
▁የሚ ሰማው
▁ብ ለ
▁እንደ ፈጠረ
▁ሲ መለስ
▁ሲ ስተም
ቸውን ም
ደረ ገባቸው
▁አለ ዚያ
▁የማ ው
▁ዕ ምነት
▁ለአ ገራቸው
▁የህ ልውና
▁ጣ ሪያ
ከራ ከሩ
▁በማድረግ ና
▁ይኖር ብሃል
▁ስብሰባ ው
▁የሞ ራል
▁አራ ዳ
▁የሚተ ገ
▁በዝ ቅተኛ
▁f or
ሌ ና
ኩ ር
▁አ ቤ
▁ለ ንግድ
▁የተ ፈጠሩ
▁አይ ገኝም
▁እንዳ ለን
▁በሚ ጠራው
▁ፈ ተ
▁ዋ ሻ
▁ሳይ ታ
▁የእ ግ
▁ር ቆ
▁ር ኩስ
▁ለማስ ቆም
▁የራ ቀ
▁አዋ ጭ
▁በራ ሷ
▁15 ,
ታደ ል
▁ርዕ ይ
▁ጥቅ ማ
▁የደረሰ ባቸው
▁መጻሕ ፍትን
▁የአን ደኛ
▁በማህ በር
▁በመጠ ኑ
▁በወጣ ቶች
ህ ረ
ህ ተት
ሌ ው
ሠ ለጥ
ሸ ገ
የ ሞች
ፋ ሮ
▁መ ረዳ
▁እንዲ ቀርብ
▁ቀ ሪው
▁አለ ባት
ሰብ ን
▁አመ ስጋ
▁ተቀ በ
▁አደጋ ን
▁ነዋ ሪው
▁ከወ ላ
ti c
▁ታስ ታው
▁ፊል ሙ
▁ቢባል ም
▁በቱ ርክ
▁ለሶ ስት
ጻ ል
ፒ ንግ
▁ ሻለቃ
▁የ ሽን
▁ከ ጫ
▁ለ ቱ
▁ለ ደን
▁ያ ሰበ
▁ያ ረጋገጠ
▁ስ ነስር
▁ም ኑ
▁አስ ፍ
▁የመ ድረክ
▁የአ ክሲዮን
ረው ና
▁እየተ ጋ
ሰማ ን
▁ሽ ግ
▁በበ ዓሉ
▁ሶ ሪያ
▁ያልተ ገባ
ከፈ ሉ
ቀበ ሉት
▁የመንግሥ ቱን
▁እራ ሳቸውን
▁ለመግ ታት
▁በሚያስ ችል
▁መሃ መድ
▁ትከ ሻ
ሚ ካል
ረ ውን
ኖ ት
ያ ፊ
ፎ ን
▁ለማ ስፋት
▁ሽ ጉ
▁5 8
▁ሊያ ጋጥ
▁ብሄ ሮች
▁መፈ ክር
▁በማስተ ባበር
▁ይጀመ ራል
▁የ ላይ
▁የ ኖረው
▁በ ጂ
▁በ ያዝነው
▁መ ፈጠ
▁ያ ረፈ
▁ማ ጋ
▁ስ ናይ
▁ሰ ሎ
▁ጋ ና
▁ሊ ገባ
ሰብ ክ
▁ቁ ርስ
ገል ጋይ
ገል ጸው
▁ዝ ነኛ
▁ለአ ካል
▁በስ ር
▁ሁለ ገብ
▁በ1 3
▁ድጋ ፎች
▁የተሰ የ
▁ልማ ዳዊ
▁ስፍራ ው
▁የምታ ደርገው
▁ሬ ስቶ
▁ሐሳ ቦችን
▁በዋ ጋ
▁ታሪ ኩን
▁የዴሞክራሲ ያዊ
▁ቤተሰቦ ቻቸው
▁ታቅ ዷል
▁ተመዝግ ቦ
▁ጥራ ቱን
▁አቋር ጠው
▁ብክ ለት
▁አስተሳ ሰቦች
ነ ኝ
ን ሱ
ገ ኟ
ጭ ው
▁ ኣ
▁እን ጅ
▁የሚ ከሰ
▁ያ ካት
▁የተ ፈ
▁በመ ምህ
▁ደ ደቢት
▁ት ዝብ
▁ዘ ሪ
▁ቢ ችልም
▁ዳ ሩ
▁ብር ና
▁የምት ገኝ
▁በደ ብዳቤ
▁በበ ሽታው
▁ድም ጻ
▁በረ ዶ
▁የሚወ ድ
▁የ1 2
ዘዋ ወሩ
▁ሃላፊ ዎች
▁በኢን ቨስትመንት
▁ቀጥሎ ም
▁ወድ ቆ
▁ማብ ቂያ
▁ይከብ ዳል
▁የመም ረጥ
▁ለጋዜ ጠኞች
ሩ ታል
ኛ ለች
ግ በው
ጠ ጋ
▁የ ጡረታ
▁አን ገብ
▁ዓ ለ
▁ወደ ቀ
▁ችግ ኞች
▁መስ ዋዕት
▁በቀ በሌ
መስ ልም
▁ከእ ስር
▁በግ ሌ
▁ለም ታ
▁ጨዋ ነት
▁አያ ት
▁አድ ጓል
▁7 ,
▁8 ,
▁በበኩ ሏ
▁ህይወ ታቸው
▁በጠቅ ላላ
▁አትክል ት
ጸል ይ
▁የአትክል ት
ረ ሚያ
ራ ዘም
ሲ ንግ
ሳ ትን
ስ ቲክ
ጥ ኑ
▁የ ሟ
▁መ ገባ
▁ተ ፈት
▁ማ ርክ
▁ብ ልጽግና
▁የም ትና
▁የነ በራት
▁አቀ ረቡ
▁ተቀ ራር
▁የት ርፍ
▁የል ደት
ደግ ፍ
▁ነፃ ነትን
▁የዘ ለቀ
▁የትምህርት ና
▁ድርጊ ቶችን
▁መተ ማ
ርማ ሲ
▁አጠ ገ
▁እያስ መዘገበ
▁ተይ ዟል
▁የልማ ታዊ
▁የአው ሮፕላን
▁ይጀም ራሉ
▁ሲገል ጹ
▁ሙስሊ ም
▁እሸ ቱ
▁ጣፋ ጭ
▁ሰሌ ዳ
ቲ ና
ን ዛቤ
▁በ ጨዋታው
▁ከ ኬንያ
▁ተ ደማ
▁የተ ቆ
▁ሰ በር
▁በአ ቋ
▁ለመ ፈፀም
ድር ና
▁አለ ብህ
▁እና ምና
▁ካ ውን
▁እያ ደረ
▁በእ ጃቸው
ነሳ ም
▁ሐ ረግ
▁በም ርት
▁በደ ብረ
▁መዝ ገበ
▁ውሃ ን
▁የሚታ ዩት
▁ፖሊሲ ው
መደ ቡ
ነበ በው
▁አውራ ጃ
ሟ ት
ን ደቅ
ዋ ቸውን
ዩ ስ
▁የ ፈለገ
▁ት ሑ
▁አይ ፈ
▁በማ ፍራት
▁ታ ገኛ
▁ቢ ሰ
▁ቅ ኝት
ተር ጎም
▁ማስ ወ
▁ፕሮ ፓ
▁ይሁን ታ
▁ባህ ሪያ
ብኝ ም
▁የፈ ተና
▁በረ ሃብ
▁ጥና ቱን
▁መላ ውን
▁ለስ ድስት
▁የደረሰ ውን
ጎና ፀ
▁ጠፍ ቷል
▁መዘግ የት
መ መ
ማ ከር
ኪ ንግ
ኸ ሪያ
▁በ ፎ
▁በ ኒው
▁ማ ፍ
▁የተ ሳሰ
▁ባ ገኙት
▁ለማ ጎልበት
▁ሊ ታሰብ
▁እር ሱን
▁የማይ ገባ
▁የት ኛውን
▁እንደተ ባለው
▁ሠ ልፍ
▁በኢትዮጵያ ና
▁ያሳ ዝ
▁ታሪክ ን
መዘ ን
▁ሕዝብ ና
▁ወረ ደ
▁ወስ ዷል
▁የመስ ሪያ
▁ዝር ዝ
▁መጻ ፍ
▁ከህ ብረተሰቡ
▁ማጣ ራት
▁ከ19 9
▁ከአን ደኛ
▁ዝግጅ ቱን
▁የሚከተ ሉትን
▁ፍቅ ሩ
▁የተደ ነገ
▁አታው ቅም
ትረ ፈረ
▁ቢቂ ላ
ሽ ንግተን
ዠ ት
▁የሚ ታወቁ
▁ሰ ሜናዊ
▁እየተ ወጣ
▁ኮ ፒ
▁መሰ ለህ
▁ማን ንም
▁ሪ ል
ረጋገ ጡት
▁ጸ ጥታ
▁የኦ ዲት
በላ ሹ
▁በፊ ቱ
▁ልቦ ለድ
▁እኩ ይ
▁ያስታወ ሱት
ላ ዎች
ረ ጠው
ዚ ን
ፊ ያው
▁ነው ፦
▁ም ታት
▁ጥ ገኛ
▁ገ ረ
▁የእ ስልምና
▁3 ኛ
▁መካ ሄድ
▁ተግባ ሩን
▁የቆ ሻሻ
▁የጎ ንደር
ከፈ ተ
▁ጐ ዳና
▁የሚያው ቁ
▁በ3 0
▁አምላ ካችን
ቅ ሎ
ና ቱን
ኢ ትዮጵያ
ጣ ለሁ
▁ነ ድ
▁ይ ሏል
▁የሚ ታወቁት
▁ያ ር
▁ስ ምና
▁የተ ሠራው
▁እንዲ ቀርቡ
▁ሲ ከበር
▁የአ ድዋ
▁ለመ ሸጥ
▁እንደሚ ል
▁ከተ ሰ
▁አካ ላትም
▁በእ ቅድ
▁የሰ ፈነ
▁ሆነ ና
▁የህ ትመት
▁ሞ ኝ
▁መሠ ረቱ
▁ለው ስጥ
▁መር ካቶ
▁ተሳ ክቶ
▁በአን ደኛው
▁ተሸ ጋ
ካሄደ ውን
▁የተቀመ ጠውን
▁ወርቅ ነህ
▁የተመሰ ረተው
▁እባ ክ
▁መስጠ ቱን
▁የእው ነት
▁በጸ ሎት
▁የኮሚ ሽኑ
▁ኤግዚቢ ሽን
▁መቆጣጠ ሪያ
▁እናምና ለን
r i
ቃ ቱ
ኮ ላ
ጠ ራቸው
▁መ ሰራ
▁ስ ው
▁ሲ ገኝ
▁ለመ ፍታ
▁የሚያ ቀርብ
▁መል ሱን
▁ቀን ና
▁አቀ ንቃ
▁ኪ ነ
ፈጸ ሚያ
▁200 3
ደርስ ም
▁ጓ ድ
▁መሣሪያ ዎችን
▁ያደረገ ችው
▁ገበ ታ
▁ገባ ሁ
▁ካልተ ቻለ
▁ተር ጓ
▁ተነስ ቷል
▁ዝርያ ዎችን
▁በሩ ሲያ
▁በሆ ስፒታሉ
▁እርሳቸው ም
▁ከሀ ገር
▁ከምር ጫ
▁የመግ ዛት
1 7
ና ቀ
ን ፍ
▁ማ ቻ
▁ብ ዕ
▁ሲ ወርድ
▁ት ራፊክ
▁አን ደበ
▁ድ ሎች
▁ክ ላ
▁ወደ የ
▁ጋ ምቤላ
▁እየ መጡ
▁ይህ ቺ
▁በኢ ትዮ
▁ተና ገር
▁ፖ ስት
▁አያ ዳግ
▁ማሳ ለፍ
▁በሕ ክምና
▁በእር ሱ
▁አጥ ፊ
▁አሰልጣ ኝነት
▁በ201 6
▁በመተ ግበር
▁ታይ ተዋል
▁ጠቀሜ ታው
▁የሆ ቴል
▁ሐዋ ርያት
▁አስቆጥ ሯል
▁ሰንሰ ለት
ባ ና
ው ኑ
▁ ጧት
▁ለ ዛ
▁ተ ጥ
▁የተ መለከተው
▁ወደ አ
▁አል ነበራቸውም
▁መጠ ይቅ
ፖር ታዊ
▁ቴ አት
▁ድጋ ፉን
▁ስሜ ትን
▁ቅር ጫት
ባባ ቂ
▁ነበረ ባቸው
▁እንዲያው ቁ
▁ከሕ ግ
▁ክብረ ወሰ
▁በቀጣ ዮቹ
u m
ቅ ቆ
ባ ኖስ
ነ ቀው
ና በ
ደ ነገ
▁የ ጓ
▁በ ዝምታ
▁ያ መጣው
▁በመ ክፈት
▁በአ ሰልጣ
▁ስለ ሺ
▁ኃይ ሉን
▁ዶ ክተሩ
▁ያሉ በትን
▁የሚሰ ሩት
▁ጓ ደኛው
▁የክ ፍያ
▁ደረ ሱ
▁መክ ፈ
▁በጊዜ ያዊ
▁ሉዓላዊ ነት
▁ለአን ባቢ
ሆ ኔ
ሞ ራ
ክ ብት
ዩ ብ
ይ ፍ
ጃ ን
▁በ ኛ
▁ተ ማም
▁ላይ ሆን
▁ሊ ቀጥል
▁ቤ ቷ
▁እንደሚ ሰ
▁ባለ ጉ
▁መል ከ
▁ያስ ቆጠረ
▁መንገድ ና
▁ከተማ ና
▁ጥያቄ ም
▁እንዲያ ም
▁ኃላፊ ነትን
▁እንዳል ሆኑ
▁በተመለከተ ም
ልማ ትና
▁ገብረ ስላሴ
ድና ቆት
▁በፕ ሪሚየር
▁ገዢ ዎች
▁የተደረገ በት
▁ታዛ ቢዎች
▁እየሰ ፋ
▁አሰጣ ጡ
▁ተግሣ ጽ
ላ ንዳ
ሚ ያው
ረ ዱን
ዘ ዘው
ደ ሙት
ገ ፍ
▁የ ጤ
▁እ ገዳ
▁ያ ካሂ
▁ደ ጅ
▁ዓ .
▁የመ ዝ
▁የመ ወሰን
ስት ራቴጂ
▁ስለ ነበሩ
▁ሐ ና
▁የበ ሽታ
▁የሕ ይወ
▁በ1 4
▁በማድረግ ም
▁ሰብ ስቦ
▁በዘ ጠኝ
▁ገቢ ው
▁መጨ ና
ሃ ራ
ሳ ሳ
ተ ኑ
ፈ ውን
▁ or
▁አ ሰባሰብ
▁መ ከሰ
▁ለ ሆ
▁ማ ዘጋጃ
▁እንዲ ቆም
▁ኢ ራ
▁እና ድርግ
▁በሚ ሉ
▁እስ ክት
ረው ም
▁በእ ንቅ
▁የወ ረዳው
▁ቆ መ
▁ማስ ፈራ
▁ሐ ይቅ
▁አማ ረ
▁ጠቅ ል
▁መሥ ፈርት
▁በኮ ሚ
▁ሣ ጥን
▁እድሜ ያቸው
▁ልጄ ን
▁ከ5 00
▁ዕጩ ዎች
▁የድን ጋይ
▁በሜ ዳው
ዝቃ ዜ
ፀባ ርቅ
▁በትክክለ ኛው
▁ድሪ ባ
ለ ቄ
ሳ ምንቱ
▁እ ኛው
▁ተ ፈር
ተኛ ና
▁አባ ታቸው
▁ን ፋስ
▁ስራ ቸው
▁በር ቀቱ
▁የህ ብረተሰቡ
መል ካች
▁የኮ ሌ
▁ሃሳ ቡን
▁በድር ቁ
▁ሠር ተው
▁የድን በር
▁አልቻል ንም
ህ ዴድ
በ ጠ
ባ ዩ
ወ ግድ
▁አ ግብ
▁ማ ዘጋጀ
▁ስ ድብ
▁በመ ዳ
▁በመ ተው
▁በመ ፈጸም
▁ደ ሴት
▁ሲ ቻል
▁እንደሚ ኖሩ
▁እያ ደር
▁አም ስቱ
▁ናቸው ና
▁አባ ወራ
▁የስ ደት
▁የስ ፖርቱ
ናው ቅ
▁ር ኅራኄ
▁መረጃ ን
▁ይገ ደ
▁መብ ቶችን
▁ገበያ ውን
▁ነበረ ኝ
▁በቅ ቷል
al l
▁ሰም ተው
▁አንዳንዴ ም
ስክ ሌ
▁ተፋ ሰ
▁ዊ ል
▁ማቀነ ባበሪያ
ል ሃል
ሪ ኮ
አ ር
ካ ዮች
▁የ ቪ
▁የ ባል
▁ተ ቸግ
▁ማ ሸነ
▁የተ ሠ
▁በመ ለ
▁ሊ ጉን
▁ሳ ስብ
▁አስተ ም
▁አማ ን
▁ዜ ጐ
▁ለም ክር
▁በጥ ቁር
▁ፈቃ ዱ
▁መው ደድ
▁ሱ ሪ
▁ከኢ ህአዴግ
▁እንደማይ ችሉ
▁እውነ ታው
ሰበ ሰቡ
▁ደረ ሰኝ
▁መክ ፈቻ
▁ሎ ተሪ
▁አገልጋ ዮቹ
▁ከቆ የ
▁ጋዜጠ ኛው
▁በጨ ለማ
▁የሚያመላክ ት
▁ያመላክ ታል
▁ፓት ርያ
ሐ መድ
ኪ ዮ
ግ ዝ
ግ ቷል
ጠ ህ
▁የ ዋና
▁አ ላለ
▁የሚ መር
▁የሚ ከለ
▁በመ ናገር
▁ለመ ጣል
▁ያስ ባሉ
▁ሌላ ዋ
▁የኢትዮጵያ ውያን
▁ከእ ንቅ
▁ማድረግ ን
▁አዋ ጆች
▁ጥበብ ን
▁ጠይ ቀው
ወያ ዩ
▁የሰጡ ትን
ካሔ ደው
▁መዘጋጀ ቱን
ሰ ንት
ቁ ጠር
ብ ርት
ን ደ
ዘ መ
ጭ ቶ
▁የሚ ጎ
▁ወ ደር
▁ደ ጀ
▁ድ ግ
ግባ ራዊ
▁እያ ለሁ
▁እያ ካሄደ
▁ችግ ርም
▁የነ ፍስ
▁6 2
▁በቅ ዱስ
መለክ ቱት
▁ሀብ ቶች
▁ኮርፖ ሬሽኑ
ስተናግ ደው
በ ያው
ፅ ር
ፋ ሪዎች
▁አ ላችሁ
▁አ ሁኑ
▁መ ባሉ
▁የሚ ጠበቀ
▁እንደ ራ
▁የተ ጠና
▁በመ ግለፅ
▁በተ መረጡ
▁ለመ ገንዘብ
▁እየ ደ
▁የማ ውቀው
▁የወ ጡት
▁እንዲያ ቀርቡ
ወቅ ቱ
▁የሕ ፃናት
▁ስን ቅ
▁መለ ኮታዊ
▁አዋ ሽ
▁ማስተ ላለፊያ
▁የዘ መናዊ
▁ፍቅር ን
ሶች ና
▁የሥ ልጠና
▁የክ ህ
ጨዋ ወት
▁ወስ ኗል
▁የዳ በረ
▁እንድን ሆን
▁ጀመር ን
▁ሹ መ
▁የገባ ውን
▁የሚወስ ደው
▁ያብራ ራል
▁ተመዝግ ቧል
▁በዓይ ነ
▁የሚያስከት ለው
▁አክሊ ሉ
▁አንገብ ጋቢ
ሻ ም
ቅ ሮ
ከ ቱን
ካ ድ
ዞ ሩ
ዞ ት
ይ ናው
▁የ ጡት
▁የ ፌዴራ
▁አ ላል
▁ይ ማ
▁ይ ቺ
▁ይ ሳተ
▁የሚ ወስድ
▁ብ ዛ
▁የተ ሃድሶ
▁ት ታ
▁ል ባዊ
▁በተ ገኘው
▁በተ ቀመጠው
▁ጊዜ ያቸው
▁ከተ ባለው
▁መል ቀ
መሰ ረት
▁ቡድ ኖችን
▁የኢን ፎርሜሽን
▁ከጥ ንት
ስተካ ከሉ
▁ፈጥ ረው
▁ደራሲ ያን
▁በ199 7
▁የተባሉ ትን
▁ይመስል ሃል
▁የተጋ ለጡ
▁ወንጀ ሎች
▁ከዕ ለታት
▁ይሰራ ሉ
▁እንስሳ ትን
▁የሚፈጥ ረው
▁ወዳድ ነት
ጠናቅ ቅ
▁ወረርሽ ኝ
ሙ ድ
ማ ንድ
ረ ደ
ቃ ው
▁አ ዝና
▁አ ከባበር
▁እን ሰራ
▁ከ ቡ
▁ለ ጦር
▁የተ ራራ
▁በተ ጠናቀቀው
ተኛ ውን
▁ቅ ልጥ
▁በእ ድሜ
▁በኢትዮጵያ ም
▁በራ ሴ
▁በዘ ንድሮ
▁ከኢ የሱስ
▁ሐሳብ ን
▁ጥቅ ሙ
ከፈ ቱ
▁ሰይ ፉ
▁201 3
▁ኃይለ ሥላሴ
▁ቂ ም
▁ለጥ ያቄ
ስፈ ጻሚ
▁መጀመ ራቸውን
▁በኩ ራት
▁ርእ ስ
▁አኩ ሪ
▁ጥበበ ኛ
ካ ሉ
ዘ ኑ
ዶ ና
▁የ ፌዴሬሽን
▁ከ ላ
▁ከ ሴ
▁ነ ገራቸው
▁የሚ ፈጠረው
▁ለማ ፋጠን
▁ጠ ቢ
▁የእ ናት
ዎቹ ና
▁አሳ ፋሪ
▁በጥ ያቄ
▁የራ ሷን
▁የሌ ላቸውን
▁ካል ሆኑ
▁አልተ ገኘም
▁ከሰ ሜን
▁ተሰ ሚ
▁ቢያ ደርጉ
▁ለብ ሰው
▁ጊ ኒ
ወድ ም
▁ፈል ጌ
▁በኢኮኖሚ ው
▁እቃ ዎች
▁ይደነግ ጋል
መ ጡት
ሰ በት
ዴ ና
ፋ ቶች
▁የ ኖ
▁የ ከበ
▁በ ክለ
▁ከ ጠቅላይ
▁ወ ዮ
▁ስ ሌት
▁በመ ከራ
▁ሲ ጀምሩ
▁የመ ግባ
▁የአ ንድን
▁ሕ ጻናት
▁ገል ጧል
▁በስ ልጣን
▁ፓርቲ ዎችን
▁የባ ን
▁ፊ ታቸውን
▁የፍ ሳሽ
▁በቅ ሎ
▁ስለመ ሆናቸው
▁መፍ ቻ
▁የፊ ፋ
▁እሳቸው ም
▁ኢብራ ሂም
ማ ለን
ሽ ር
ኮ ሳ
ዎ ቻችንን
▁ ረጋ
▁በ ሄደ
▁ከ ንግድ
▁ለ ሞ
▁ለ ፓርላማ
▁የሚ ሠሩት
▁ነው ር
▁የተ መለ
▁ሲ ያን
▁የአ ራ
▁የአ ኗኗር
▁ዘ ፋ
▁በማ ር
▁በማ ጠናቀቅ
▁ሊ ረዳ
▁ቢ ኖረውም
ሪያ ም
▁ሕ መ
▁ህ ብረ
▁እያ ሰ
ነሳ ሳት
▁6 6
▁እንቅስቃሴ ዎችን
▁ከወ ራት
▁በሆነ በት
▁11 ,
▁ተመል ከቱ
▁ዋንጫ ን
▁በዕ ድ
ገደ ሉ
▁በጽ ናት
▁የእኔ ን
▁ወደሚ ገኘው
▁መኪ ናው
▁ከፈ ረን
▁ሀሳ ቦች
▁ተወል ደ
▁እገ ሌ
▁ምቾ ት
ሟ ቸውን
በ ኙ
▁መ ሽ
▁ለ ጠ
▁ለ ከፋ
▁የተ ጠረ
▁ግ ቡ
▁ሲ ም
ችን ና
▁የመ ኖ
▁አይ በ
▁የማ ያውቁ
▁ካ ባ
▁እየተ ዘጋጀ
▁መስ ለው
▁ብር ድ
▁የስ ሜት
▁ከእ ሷ
▁ኢን ፎርሜሽን
▁አር ማ
▁መሆን ን
▁መሆ ናችንን
▁ይታወ ቃሉ
ስብ ም
ወር ዱ
▁መጣ ሁ
▁ብል ግና
▁ኢትዮጵያውያን ን
▁እንደሌ ለበት
ቆር ጥ
▁ባለስልጣ ኑ
▁ተሻ ጋሪ
▁ቀሪ ዎቹ
▁አክራሪ ነት
▁ፋሲ ል
▁መያ ዣ
▁መስፈር ቶች
▁ያለአ ግባብ
ራ ረ
ዱ ሳን
ጥ ስ
ጽ ር
▁የ 6
▁በ ኬ
▁እ ቅዱ
▁ተ ከተ
▁የተ ማር
▁ዓ ቀፍ
▁ገ ጸ
▁እየ ገቡ
▁ካ ናዳ
▁ከአ የር
ምህ ን
▁ስራ ም
▁አምላክ ህ
መረ ቱ
▁በመቶ ውን
▁ለውጥ ን
▁ሸ ቀጥ
▁መመ ሥረት
▁ደን ቡ
▁በ200 0
▁ቱ ር
▁የመንግስት ን
▁ጀም ረው
▁ለራ ሴ
▁የባለ ቤትነት
▁ለሚያ ስ
▁ነግ ሮ
▁የዘርፉ ን
▁ምርም ሮች
▁በኮን ስትራክሽን
ጄ ኔ
ጦ ጦ
ጭ ም
▁የ ክስ
▁ይ ጠቀሙ
▁ተ ሀድሶ
▁የሚ ከሰተው
▁በመ ከታተል
▁ጉ ን
▁ቅ ጣ
▁መስ ቀ
▁በየ ሳምንቱ
▁ጭ ፈራ
▁ባይ ኖር
▁ከወ ንዶች
ደገ ፉ
▁አልፎ ም
▁የጉ ልበት
▁የሚሰጥ በት
▁የን ባብ
▁የሚደረግ በት
▁ለት ውልድ
▁ጥቂ ቶቹ
▁ብክ ነት
ዝቃ ዛ
ቦራ ቶሪ
▁አናው ቅም
▁ተንታ ኞች
ማ ሩት
በ መቶ
▁ ራት
▁የ ቤቱ
▁በ ሹ
▁መ ረጋገጥ
▁ከ ዚያን
▁ወ ከፍ
▁እንደ ሰ
▁ጥ ቁ
▁አስ ራት
▁ለመ ሰማራት
▁ለማ ሰ
▁ዕ ይታ
▁ከመ ነ
▁ያስ ችላ
▁ብሎ ት
▁ጀ ማል
▁ቴ ኳንዶ
ነቱ ና
▁ዲ ቪ
▁በዓ ልን
ታማ ነት
▁አፈ ወርቅ
▁መክ ብብ
▁ይጠይ ቃሉ
▁ደንብ ና
▁የተመረ ጡት
▁ተቀና ቃ
▁የተሞላ በት
▁ጎልማ ሳ
▁ጆር ጅ
▁መጫወ ቻ
▁ቀሚ ስ
ቤ ቴ
ዋ ኔ
ግ ጅጋ
▁ይ ከበ
▁የተ ፈጸመው
በር ክቶ
▁ዘ ነበ
▁ለመ ክፈት
▁የሚያ ጠ
▁ካ ለን
▁ሀ ገራቸው
▁ጎ ላ
▁ተቀ ጥረው
▁ተወ ጥ
ላለ ስ
▁በሰ ባት
▁አለመ ግባባ
▁ዙ ፋን
▁ጸ ሐ
▁ትዕ ይንት
▁ጠይ ቆ
▁ዱ ላ
▁የሚገኝ በት
▁ባለሥልጣ ኖች
በረሰቡ ን
▁በመታ ገዝ
▁አጥብ ቀው
▁ኢሳ ያስ
▁የታየ በት
▁የዝ ውውር
▁ውህ ደት
▁ተቆር ቋ
ቂ ያው
አ ፓ
ከ ራል
ኪ ስታን
ይ ይ
ገ ፈ
ፎ ርድ
▁እ ጃቸው
▁ይ ላቸዋል
▁ስ ማቸውን
▁የመ ገንባት
▁የአ ጭር
▁ሊ ሰጣቸው
▁ታ ክ
▁ባለ ሞ
▁በሚ ዲያ
ንያ ም
▁አስተ ካ
ተው ም
▁ተጠ ቃ
▁ቆ ጣ
▁ከ1 3
▁አክ ሱም
ደበ ኛው
▁አሜሪካ ውያን
▁ጉዞ ውን
▁ከም ታ
▁ስልጠና ዎች
ዮር ዳ
ውጣ ትና
ስቲ ንግ
▁በላ ከው
ገግ ታ
▁በሦ ስተኛው
▁ኃያ ላን
▁ዘሪ ሁን
1 ኛው
ብ ንን
ደ ጃ
▁የ ፊት
▁እ ባብ
▁ለ ቀረበ
▁ያ ቆ
▁ዘ ጋቢ
▁ጉ ዋ
▁እንደሚ ጠቁ
▁በሚ ሰጠው
▁ከተ ፈጥሮ
▁ከመ ታ
▁ቦ ይ
ጠበ ቁት
▁ጎ ሎች
▁አካባቢ ያዊ
▁የማይ ታወቅ
▁የዕ ውቀት
▁ልጆ ቻችን
▁ቴክኖሎጂ ን
▁ችሎ ቱ
▁ተሰጥ ቷቸዋል
▁አምላ ኬ
▁አብዱ ላ
▁ጮ ኸ
▁በዜ ጎች
▁አተ ገባ
▁የሚጠበቀ ውን
ሳ ፍ
ዕ ት
▁ ጣት
▁ on
▁በ ሦስተኛ
▁ለ ችግር
▁ይ ሁኑ
▁ተ ባይ
▁የሚ በቃ
▁የሚ ስማማ
▁ታ ንዛኒያ
ጠና ክሩ
▁ማስ ረሻ
▁5 9
▁በ1 7
▁ፋ ውንዴ
ሻሻ ለው
▁የሚመ ጥን
▁ብል ፅግና
▁ገብረ እ
▁መቆ የቱ
▁ሰን ጠረ
▁ተቀም ጠዋል
▁የእርሻ ና
▁ሚሊ የን
▁የተወለ ደው
▁ክሊ ንተን
▁N W
▁ያደረግ ነው
▁የፕሮጀ ክት
▁አካሂ ዷል
▁በፍር ሃት
▁እንቆ ቅል
▁ታንጕ ት
▁ያካት ታል
▁ፕሮፓ ጋንዳ
ሳ የው
ሽ ኝ
ካ ከር
▁ ሓ
▁የ ጆ
▁የ ዝግጅት
▁እ ይ
▁ከ ጸ
▁ከ ጀርባ
▁ስ ሟ
▁እየ መሰ
▁ዓመ ፅ
▁ያለ ፉ
▁የሚያስ ፈልጋቸው
በል ፀ
▁መጠ ጣት
▁ዓላማ ውን
ስብ ሰባ
▁ለብ ሶ
▁አሰራ ሮችን
▁ከብ ሔራዊ
▁የመጣ ሁት
▁ሰማ ሁ
▁የቦ ንድ
▁ከዕ ለት
▁በህገ ወጥ
▁ፕላ ኑ
▁በ10 ሺ
▁የዛ ፍ
▁ዘዳ ግም
▁ሙዚቀ ኞች
ለ ወጠ
ሣ ት
▁አ ርት
▁መ ጠናቀቅ
▁የተ ጻፈው
▁በአ ሥራ
ድረ ጉ
▁ተመ ላ
▁ማስ ፋት
▁ኃይ ልን
▁በየ ክልሉ
▁የስ ም
▁ጭ ፍን
▁ግብ ሮች
▁መሠረት ም
▁በል ቡ
▁ቅር በት
▁በድ ብቅ
▁በመቀ ጠልም
▁ድንጋ ዮች
▁በቅድ መ
▁ማሽ ኖች
▁ከዋ ናው
▁ከሞ ተ
▁የሚያጋጥ ሙ
▁ከጋ ዜ
▁ለእዚህ ም
▁ያነጋ ገራቸው
ራ ጅ
ቅ ብ
ብ ታ
ከ ሉት
ጥ ላ
▁ከ ደረ
▁ለ ፋ
▁ተ ከል
▁የሚ ስ
▁ስ ቶ
▁የተ መድ
▁ሰ ጣቸው
▁የመ ከራ
▁ገ ጠ
▁ሊ ፈ
▁አለ ፈ
▁አለ ቆች
▁የማ ረጋገጥ
▁ላ ም
▁ያል ኩት
▁ጭ ፍጨ
▁ጭ ቅጭ
▁ይጠ ራል
▁ፊ ሊ
▁ተብሎ ም
▁ከወ ደ
▁ገብ ቼ
▁ከው ድድሩ
▁201 2
▁ባለቤ ታቸው
ሰቦ ቹ
▁አሳል ፈው
▁አሳስ ቧል
▁ጨር ቃ
▁ገዝ ተው
▁የእነዚህ ን
▁የሚያስች ላቸውን
ሬ ቱ
ቋ ሙ
ቻ ልና
ኳ ኳ
ዳ ለሁ
▁እ ረ
▁ተ መን
▁ማ ና
▁ገ ም
▁ታ ቦት
▁ካ የ
▁አም ል
▁እየተ ባባሰ
▁ምር ኮ
▁በሌ ላም
▁ሠ ረገ
▁መሰረት ም
▁አጥ ጋቢ
▁ማለ ቱን
▁ተሰጥ ቷቸው
▁የመሰ ሉ
▁ባለቤ ቷ
ሸጋ ገሩ
▁የመንግሥ ትና
▁የተደረገ ውን
▁ወንጀ ለኛ
▁ደጃ ፍ
▁ገብር ዬ
▁መርም ሮ
▁መሠዊ ያ
ድ ያ
ጂ ታል
ጓ ት
ፌ ን
▁በ ጫ
▁አ ቃቤ
▁ከ ደን
▁ከ ከፍተኛ
▁ት ንተ
▁ወደ ማ
▁ከተ ባ
▁መጠ ንና
▁በስ ሜት
▁በማስ ታወስ
▁አጥ ቶ
▁አንቀ ሳ
▁ነጥ ቦችን
▁ያደረ ጋቸው
▁ማስቀ ረት
▁ማመልከ ቻ
ሑ ድ
መ ጃ
ሸ ፍ
ተ ማመን
ጊ ያው
ጠ ቢያ
▁የ ኖር
▁በ ሰብ
▁መ አት
▁መ ቆጠብ
▁ከ ሥር
▁የተ ገለጸ
▁ደ ክ
▁ደ ላላ
▁ጥ ገኝነት
▁ሕ ጻ
▁ገል ጻለች
▁በኢትዮጵያ ውያን
▁አሸ ባሪዎች
▁የጠ ላት
ሰበ ሰብ
▁ከስ ልጣን
▁በ201 7
▁አሸናፊ ነት
ቲክ ሱ
▁ያገኘ ሁት
▁ከ3 00
▁አድራ ሻ
▁እውነተኛ ውን
▁ሠር ግ
▁በመካ ከለኛ
▁ፒያ ሳ
▁መገልገ ያ
▁ይጠናቀ ቃል
ሣ ሌ
ረ ህ
ሰ ኞች
አ ችን
ክ ታ
ክ ሎች
ፀ ት
ፈ ራል
▁አ ሏት
▁ነ ቀል
▁ይ ድ
▁የሚ ጣል
▁የሚ ከናወነው
▁ቀ መር
▁ዘ ን
▁ሊ ል
▁የማ ነ
▁ፈ ቺ
▁እየተ ፈጠረ
▁ከመ ጥ
▁በየ ተ
▁ረ ግ
▁ፀ ባይ
ሻሻ ልና
▁10 ,
ዳር ግ
▁ባል ሆኑ
▁ማድረ ጋችን
▁ወዳ ለው
▁ሕገ መንግ
▁ራስ ህ
▁እንደሚገባ ቸው
ነበ በ
▁በኦ ሊምፒክ
▁ልም ም
▁ማዳ መጥ
▁መራ ራ
▁ለማን ሳት
▁በየት ኛው
▁እል ቂት
▁እውነታ ውን
▁በፋ ይናንስ
▁ከቀረ ጥ
3 3
ሰ ተ
ጎ ን
ጸ ያፊ
▁ከ ድን
▁የሚ ፈለገው
▁ወ ጭ
▁ስ ውር
▁ት ተን
▁ል ኮ
▁የአ ሸ
▁አይ መ
ከል ከል
ምን ና
▁ኃይ ማኖ
▁ያህል ም
ዶች ና
ፈጠ ራ
▁ሮ በርት
th i
ባረ ር
▁የጭ ነት
▁አስተናጋ ጅነት
ቋ ት
በ ላው
ባ ራ
ቸ ዋለች
ገ ሳ
ግ ሬ
ጫ ዊ
▁እንዲ ማሩ
▁ታ ቦ
ምን በት
▁ያስ መዘገበው
▁ሴ ቶቹ
▁ከእ ስራኤል
▁በም ክትል
▁አው ቀው
▁አሰ ል
▁የባ ዕድ
▁አሜሪካ ዊ
▁የሃ ይል
▁ለብ ቻ
▁ሹ ፌ
▁ልጃ ገረ
▁በሬ ዲዮ
▁የ200 8
▁ፋሲ ካ
▁የኑ ክሌር
▁እርባ ታ
▁ዲግ ሪያቸውን
▁በ ችግር
▁ለ ቡ
▁ይ ረ
▁ይ ጣ
▁ይ ከራ
▁ቀ ጣ
▁የም ችለው
▁መስ ታወ
▁ከአ ው
▁ሰዎች ና
▁ለአ ሜሪካ
▁መሰ ጠ
ላለ ፉት
▁ኦ ርቶዶክስ
▁በዓ ይን
▁አገሮች ም
▁7 2
▁ኳ ስን
▁ሮ ናል
▁ባለመ ቻላቸው
▁እግ ዜር
ዳሴ ው
▁ትዕ ዛ
▁ባለሀብ ቶችን
ደና ቀፍ
▁የግብ ጽ
▁የኃ ጢአት
▁የሚነ ካ
▁የቤ ቶች
▁ከሃ ያ
▁በ5 ሺ
▁ንድ ፍ
▁አበርክ ቷል
ሄ ት
ሶ ቹን
ቀ ህ
ካ ፍ
ጠ ሮ
ፀ ድቅ
▁የ ሠራው
▁በ ናይጄሪያ
▁መ ብረ
▁የሚ ናገር
▁ማ ቅ
▁ብ ስክሌት
▁እንዲ መራ
▁ሲ በዛ
▁አስ ፋው
▁ከተ መረ
▁ቅ ደም
▁አስተ ባባ
ለች በት
▁ሽ መልስ
▁እንዲያ ስተ
▁ለማድረግ ና
▁መሥ ዋዕ
▁ተደር ሷል
▁መው ረድ
ቀም ጥ
▁ቅድ ም
▁እንደሚያስ ችል
▁ጂ ኦ
ገነዘ ቡት
▁ሕፃ ናትን
▁ይጫወ ታል
ሊ ኒ
ሏ ታል
ባ ችኋል
ዋ ዜ
ገ ሩን
ጐ ን
▁በ ቡና
▁መ ጪው
▁መ ፈፀም
▁መ ወሰድ
▁የሚ ጫወቱ
▁ያ ቺ
▁ስ ታይ
▁ለመ ላክ
▁ሳ ለሁ
▁ጠ ራ
▁ቅ ብብ
▁አበ ል
▁ጀ ን
ራቸው ና
▁ለው ጦችን
▁አቅ ዶ
▁ለእ ው
ሳተ ፈው
▁6 4
▁ከ1 1
▁የምና ስ
▁በክ ርስቶስ
▁የወጣ ቶችና
▁መሳሪያ ዎችን
▁እየሰራ ች
▁ይጠቀ ማሉ
ገነዘ በ
▁ሚስ ቱን
▁የበለ ጸ
▁ዳያስፖራ ዎች
መ ንም
መ ደው
ሰ ባል
ሲ ቲ
ተ ላለፍ
ኔ ጋል
▁የ ቶ
▁የ ለንደን
▁በ ሰብዓዊ
▁አ ሳብ
▁ከ ባቢ
▁ወ ሮ
▁እንደ ዛ
▁አን ስተው
▁ቀ ፎ
▁ለማ ገዝ
▁1 ኛ
▁ጊዜ ያ
▁አም ር
▁ያል ቻሉ
▁ለም ት
▁ልዩ ነቶች
▁ዲ ፓርት
▁ፊ ታውራሪ
▁ድም ቀት
▁ቀር ተዋል
ጉም ሩክ
▁13 ,
▁በኦ ሎምፒክ
▁ስርዓ ትን
▁እስራኤላውያን ን
▁አርቲ ስቶች
ተገ በሩ
▁ዕድገ ቱ
▁የሚፈጥ ሩ
▁በጣ ሊያን
▁የበቃ ው
▁የበረ ራ
ተ ሙ
ዘ ፈ
▁አ ከፋ
▁ወ ላይታ
▁ል በ
▁አስ ወግ
▁እየ ገነባ
▁በሚ ችል
▁አካ ላትና
ታው ም
▁የበ ቆሎ
▁ሲያ ልፍ
▁ያሳ ዩት
▁የደ ብረ
▁ችግሮች ና
▁ቃ ላትን
▁ገና ና
▁ኅ ብረተሰቡን
▁ነዋሪ ዎቹ
▁እንደማ ያስ
▁በፈ ጣን
▁ነጋዴ ው
▁ስላለ በት
▁ፀሐፊ ው
▁አረጋ ውያን
▁የዶ ሮ
▁በዙ ሪያ
መ ጣት
እ ና
ጠ ሎ
▁የተ መራ
▁ቀ ጭን
▁አይ ፈልግም
▁እየ ወ
▁እየተ ዳ
▁የግ ጭት
▁ሜ ዲካል
▁ኪ ፕ
▁መረጃ ውን
▁ተማሪ ው
ብኝ ት
▁ያው ቅ
▁ማር ታ
▁ወንዶች ና
▁ሰም ተናል
▁ምት ኩ
▁ተወስ ኖ
▁ኢንስቲት ዩቱ
▁ዓይነ ተኛ
▁ሜዳልያ ዎች
▁የጉባኤ ው
▁የግለ ሰብ
▁የ ትና
▁ከ ረጅም
▁የተ ገባ
▁ባ ስተ
▁ባ ዕድ
▁በመ ክፈል
▁እንዲ ሰማሩ
▁ት ንን
▁አስ ጠን
▁በተ ፋ
▁በተ ሞላ
▁ሊ ሠራ
▁ነበር ን
▁ከተ ቋቋመ
▁ያስ ታወቁት
▁አት ር
▁ሶ ሻ
▁ማስተ ዋወቅ
▁የዘ ወትር
▁ውሳኔ ዎችን
▁እንደማይ ሆን
▁ዴሞክራሲ ን
መለክ ቱ
▁የምታ ደርገውን
▁የሽ ልማት
▁ሻምፒዮ ናው
▁አወ ዛጋቢ
▁እያደረገ ች
▁በብዙ ዎች
▁የደረሰ በትን
▁እንዲቀ ንስ
▁አስቀም ጦ
▁ሳል ቫ
▁ባለማ ግኘ
▁የተነገረ ለት
▁ተስማም ተው
▁አውሮፕላ ኖች
ምፒው ተር
▁ወርቃ ማ
▁አያዳግ ትም
ሆ ናቸውን
ሚ ካኤል
ቶ ናል
ክ ላል
ያ ነት
ዳ ብ
ገ ሙ
▁በ ቸ
▁እንደ ወጣ
▁በመ ደረጉ
▁በተ መጣጣኝ
▁የአ መ
ደረ ግባቸው
▁ቅ ነሳ
▁ከአ ም
▁አባ ቱን
▁በቀ ረበ
▁አካባቢ ዎችን
▁ዓይ ኖ
▁ከሚ ባሉት
▁ግንባ ታቸው
▁ለሚ መለከተው
▁ተገ ዝ
▁በሕ ጋዊ
ከፍ ለው
▁ትር ፋማ
ከብ ድ
▁ያልተ ጠበቀ
▁ስታ ንዳ
▁ተሰ ም
▁ተጋ ድሎ
▁የላ ትም
▁ወንድሞች ና
▁ብሩ ክ
▁ንግግ ሩን
▁በዙ ሪያው
▁በኅ ብረተሰቡ
▁አስገድ ዶ
ቡ ላ
ነ ቃቸው
ኢ አድ
ዳ ሩ
ጄ ርያ
ፈ ሻ
▁ ቭ
▁ከ ክልል
▁ለ ኅብረተሰቡ
▁የሚ ገነባው
▁ያ ስተዋ
▁ወ ራሪ
▁ት ሬ
▁በአ ሸ
▁ዘ ጠ
▁በማ ዋል
▁ከአ ጠቃላይ
▁ኮ ት
▁አባ ቷ
▁ከእ ርሱ
▁ዓይ ኖች
▁ከ1 4
▁ማስተ ባበሪያ
▁የመጀመሪያ ዋ
▁ወጥ መድ
▁በወቅ ቱም
▁ከም ግብ
▁ስልጠና ውን
ከፈ ላቸው
ጠየ ቀ
▁የሁለ ተኛው
▁የሂ ሳብ
▁አውቶቡ ስ
ሞ ታል
ሻ ማ
ቃ ድ
ፋ ኑ
▁በ ደረሰ
▁መ ከናወ
▁መ ፀዳጃ
▁ከ ስር
▁በመ መለስ
▁ሲ ገባው
▁ታ ዬ
▁አገር ና
▁ድርጅ ታዊ
▁ተቀ ማጭ
▁በስ ብ
▁አለመ ቻሉ
▁ባይ ነት
▁ትራንስ ፎር
▁ተፈ ፃሚ
▁ስደ ተኛ
▁በሥራ ው
▁የጋ ምቤላ
▁የአን በሳ
▁ኮሌ ጁ
▁ያስች ለናል
ገጥ መው
▁ያሸነ ፈ
▁ድብ ደባ
▁ይለያ ያል
▁የእንግ ሊ
▁የምናው ቀው
ራ ሊምፒክ
ዋ ጥ
ገ ች
▁የ ቋሚ
▁በ ጨረ
▁ሲ መለከቱ
▁ት ኬት
▁የመ ጠ
▁ለማ ሸጋገር
▁ቤ ል
▁ካ ፍ
▁ች ለው
▁እየተ ገነቡ
▁የስ ኬት
▁ሊያ መጣ
▁የራ ሳችንን
▁ተደር ገዋል
▁እርምጃ ዎችን
▁ኖ ረዋል
▁ነፍ ሰ
▁በባለ ቤትነት
▁በትን ሽ
▁ያስመዘገበ ችው
▁እፎ ይታ
▁እንሰራ ለን
ሔ ም
ራ ሚ
ዋ ጣ
▁በ ቤቱ
▁መ ስተካከል
▁ተ ሰራ
▁የሚ ከበር
▁ስ ዕል
▁ባ የ
▁እንዲ ቆይ
▁የአ ገሪቷን
▁ኢ ም
▁በማ ስፋት
▁እንደሚ ችልም
▁አል አ
▁አል ዓዛ
▁ሀ ዘን
▁እነ ዚሁ
▁ሴ ክተር
▁ሐ ሰተኛ
▁ፊ ደ
▁ገብ ሩ
▁ገብ ስ
▁ኩባንያ ዎችን
▁በዘ ገባው
▁አሸ ዋ
▁ሴት የዋ
ዝና ናት
▁ይታ ሰባል
▁ቁጥ ርም
ሌቪ ዥ
▁እንደምን ችል
▁ተቋቁ መው
ዘረጋ ው
▁በተሰ ኘው
▁መስራ ች
▁ትርጉ ሙ
▁ኢንቨስትመን ትን
▁ቀበ ሮ
▁ገጠመ ኝ
▁በቶ ሎ
▁ተደጋ ግሞ
▁መነጋ ገሪያ
ሐ ቅ
ወ ጫ
ዲ ድ
ጥ ኝ
▁የ ብርና
▁አ ጅ
▁አ ጨ
▁አ ጠፋ
▁ከ ዶ
▁የተ ጫዋ
▁ው ዳሴ
▁ባ ሌ
▁ባ ገኘው
▁እንዲ ዘ
▁ሲ ዋ
▁እንዳ ገኘ
▁ነገር ን
▁ከፍ ለው
▁የሚያስ ፈልጋቸውን
▁እጅ ጉን
▁ፋ ታ
▁አዳ ምና
▁እንደሚያ ደርገው
▁ከ1 6
▁ግድ ቦች
▁ገብ ታ
▁የተወሰ ደው
▁ለወ ላ
▁የቀድሞ ውን
▁ኑሮ ን
▁የሚታይ በት
▁ቀለ ማት
▁የሚያቀር ቡት
▁አላም ንም
ሩ ኝ
ደ ህ
ጎ ቹ
ፋ ለን
▁የ ፈለግ
▁መ መስረት
▁ከ ቤቱ
▁ከ በርካታ
▁የሚ ጥል
▁አን ጀት
በረ ክቱ
መስ ቀል
▁መሰ ጠት
ገና ኘው
▁ዓለም አቀፍ
▁ገን ቢ
▁ስን ታ
▁የብ ዝ
▁አስተዋ ይ
▁ከው ጪ
er s
▁ዐ ይነት
▁በመጨረሻ ው
ፃፀ ም
ገነዘ በው
▁አፋ ር
ወረ ደ
▁ተወስ ዶ
▁ብረት ና
▁የሪ ዮ
▁አስከ ሬን
▁ታኅ ሣሥ
▁፲፱፻ ፺
▁ኮንትራክ ተሮች
በ ሰብ
ዋ ቱ
ጋ ኒ
▁ለ ግብ
▁ተ ች
▁ስ ሞች
▁ደ ቡባዊ
▁ል ባችን
▁በተ ዘጋጀ
▁የመ ቆጣጠር
▁ሚ .
▁ከተ ራ
▁ከተ ፈለገ
▁እያ ጣ
▁የወ ለ
ነው ና
▁ሲያ ቀርቡ
▁የት ር
▁ዘመ ንም
ሄድ በት
▁በመቶ ዎች
▁በሕ ዝ
▁ያላቸው ና
ማቸው ም
▁ከም ሽቱ
▁ከቀ ድሞ
▁ሐሳ ባቸውን
ቆጣጠ ረው
ካር ያስ
▁ሙዚ የም
▁ጠንቅ ቆ
▁ተከፍ ሎ
▁ትላ ንት
▁በቀረ በው
ል ቀው
ዥ ያ
▁በ ኑሮ
▁ተ ለያዩ
▁ያ ፈራ
▁ያ በረታ
▁የተ ጠመ
▁ል ዕ
▁ዘ ንግ
▁በሚ ሰ
▁አንድ ነትን
▁ቦ ምብ
▁ብር ጭቆ
▁ቀን ሷል
ሳቸው ም
ግራ ችሁ
ደርግ በት
▁የተሰ ጡ
▁ወንድ ና
▁አላ ግባብ
▁ንግ ሥት
▁ተመልክ ቶ
ለዋ ወጡ
▁እራ ሱ
▁አዘ ል
at e
▁የጸ ጥታ
▁ዮና ታን
▁ስህተ ቶች
▁ሻም በል
ሱ ር
ተ ተ
ነ ዘረ
ጫ ለሁ
▁የ ዚያን
▁የ በልግ
▁በ በር
▁ከ ፓርቲ
▁እንዲ ረዳ
▁በተ ሳካ
▁ድ ሬ
ገባ ችን
▁እስ ላማዊ
▁ከአ ይ
▁ፕሬ ዚ
▁የምት ባል
ቀርብ ም
▁ተጠና ክረው
▁ሆና ችሁ
▁ክን ውን
▁ያብራ ሩት
ክንያ ት
ሊ ምፒ
ኩ ትም
ዛ ዜ
ጐ ዳ
▁በ ደረሰው
▁ይ ሆኑ
▁ያ ነጋገር
▁ስ መለከት
▁የተ ከናወነ
▁ሲ ፈጠር
▁ት ቼ
▁ለመ ምጣት
▁ለማ መን
ጊዜ ውም
▁አገ ኙ
▁ፍ ንጭ
▁አመ ኔታ
▁ሐ ውል
▁የነበረ ች
▁ኪ .ሜ
▁ዋና ውን
▁ጥረት ና
▁ሶ ስተኛው
▁ዓላማ ዎች
▁ቢሮ ክራሲ
▁የኮ ርፖ
▁የኢን ሹራንስ
▁በዕ ቅዱ
▁ተከታ ዮቹ
▁ክት ባት
▁እንዳስ ታወቁት
▁መራ መድ
▁መና ኸሪያ
▁ተደ ንግ
▁ቆር ጠው
▁የሻ ምፒዮ
▁ከሐ ምሌ
▁ይስማ ማሉ
▁ቁል ጭ
▁ክንው ኖች
thi op
ል ተኝነት
ና ችሁ
ኪ ሞች
ጋ ሜ
▁በ ካይ
▁እ ራት
▁መ ታወ
▁እን ጨ
▁ያ ንተ
▁ማ መላለ
ስተ ጓ
▁ከተ ሳ
▁መስ ኮ
▁ከመ ጡ
▁አር ሰናል
▁ተብ ላ
▁እንዳይ ሆኑ
▁ሊያ ገኙ
መል ከቱ
▁ሄ ደን
▁አሸ ብር
▁ተሳት ፈው
▁ወዳ ጆቼ
▁ወረ ፋ
▁ደም ሴ
▁በክ ፉ
▁የመሰ ረት
መቻ ች
▁በኢን ተርኔት
▁በስብሰባ ው
ረ መ
ቂ ው
ና ጀት
▁ re
▁በ ጨረታ
▁መ ተው
▁ለ ቴ
▁ተ ረዳ
▁የአ ብዛ
▁ድ ጎማ
▁ሊ መ
▁አል ሞ
▁ያህ ሉን
▁ከአ ስ
ታው ሰው
▁ጎ ር
▁አያ ል
▁እኛ ስ
▁የጥ ንት
▁12 ,
ነግ ረው
▁አሰራ ሮች
▁ሰን በት
ዚአብ ሄር
▁መቅ ረት
ደና ቅ
▁ስትራቴጂ ዎች
▁መስተ ጋ
▁እየታ ዩ
▁አሻ ሽ
▁ንብረ ቶች
▁በማዕ ከሉ
▁በማኅ በራዊ
▁ተከታት ሎ
▁የመምህ ራን
ክቴ ሪያ
▁ማሰባ ሰቢያ
▁ ጡንቻ
▁ማ ጠቃለያ
▁በመ ዘርጋት
▁አይ ካድም
▁የሚያ ሳል
▁እየ መ
▁ሊ ፈጥር
▁እስ ልምና
▁ጉዳ ተኛ
▁ራ ሷ
▁የሚያስ ገድ
▁ተቋ ራጭ
▁ዋና ዎቹ
▁በት ራንስፖርት
▁የገ ዳ
ይማኖ ታዊ
▁የክ ርስቲያን
▁ሪፖር ቶች
▁ወይዘሮ ዋ
ሄዱ በት
▁ደስታ ን
▁መክ ረዋል
▁ጌታ ሁን
▁ይበ ቃል
▁የጀመረ ችው
▁ሽልማ ቱ
▁ዳግ ማዊ
▁ውር ደት
▁ቄ ስ
▁የሚደር ሰውን
▁ያጋ ጠመ
መሠ ረት
▁የጅ ማ
▁ወያ ላው
▁ካህና ቱ
o g
ባ ርቅ
ተ ትና
ዮ ቻቸው
ጉ ዝ
ጠ ልና
ጣ ጌ
ፈ ንና
▁ at
▁ከ ሄደ
▁ያ መነ
▁በአ ገሩ
▁መስ ማማ
▁የእ ዚህ
▁ድርጅ ቱን
▁ለው ይይት
▁የዘ መኑ
ከለ በት
▁አስታው ሳለሁ
▁ሃሳብ ን
ሰጡ ም
▁ገብረ መድህን
▁201 7
▁ይነ ገር
▁በቀጥታ ም
▁ፋይ ዳው
▁በድን ጋይ
▁በሳ ምንቱ
▁ከጎ ረቤት
ሰለ ሰ
▁በመም ረጥ
▁ተደራጅ ቶ
▁ግብዓ ቶችን
▁መድሃኒ ቶች
▁ኤፌ .
▁ትንተ ና
ና ታቸው
ከ ተው
ጽ ዋት
▁የ 7
▁እ ማማ
▁መ ማ
▁ለ ጠቅላይ
▁ሲ ሞት
▁ሲ ከሰት
▁በአ ሉ
▁ገ ፆች
ቸውን ና
▁ሊ ኖረን
በረ ከቱ
▁የም ሥራ
▁አል ፈዋል
▁ን ዋይ
▁ዳ ኛው
▁ዳ ሰሳ
▁ጎ ድ
▁ተግባ ራቸው
▁ለሚ ደረገው
▁6 8
▁በት ውልድ
▁በወ ጉ
▁ቆይ ታቸው
▁ተገቢ ነት
▁ከባ ህር
▁ኮን ፌዴሬሽን
▁የምግብ ና
▁የየ አ
▁በቦ ሌ
▁አረጋ ዊ
▁በእኩል ነት
ig h
▁ሀብታ ሙ
ለ ቱን
ሽ ያ
ቃ ቸዋል
ዓ መት
ይ ራ
▁ V
▁አ ሣ
▁ማ ጠናቀቅ
▁ስ ለው
▁ባ ዮ
▁በመ ጓዝ
▁እንዲ ፈጸም
▁ገ ሠ
▁ክ ምር
▁ክ ርስቶስን
▁ወደ ድ
▁ዓመ ፀ
▁ያስ ገድ
▁ከእ ንግሊዝ
▁ፓርቲ ና
▁6 7
ብራ ራ
▁በነ በራቸው
▁ርዕ ሶች
▁የተወሰ ኑት
▁ፖለቲካዊ ና
▁እንድና ደርግ
▁የሰማ ያዊ
▁የሚያን ፀባርቅ
▁ያገለ ገ
▁ለፖ ለቲካ
▁ትርዒ ት
ሳ ኤ
ኪ ው
ጸ ና
ጹ ን
▁የ ቻል
▁የሚ ገርም
▁ማ ኑፋክቸሪንግ
▁እንደ ያዘ
▁ው ለው
▁ጥ ብ
▁ወደ መ
▁ለማ በረታታት
▁በማ ወ
▁እየ ጎ
▁ፍ ጽምና
▁ከመ ደበኛ
▁ማስ ረዳት
▁ዕድ ሎች
▁ጽ ዋ
▁እንዳይ ፈጠር
▁ትኩ ስ
ማር ክ
▁ቆይ ታለች
▁ወጥ ተዋል
▁መታ ደግ
መጡ ም
ክሲ ዮኖች
▁ዕው ቀትና
▁ይጠብ ቃል
▁ተሠ ርቶ
▁በንጉ ሡ
▁መነቃ ቃት
▁አውታ ሮች
6 3
ቀ ሱ
ዘ ሪት
ያ ማ
▁ ፬
▁እ ሑድ
▁እን ሆና
▁እን ሰጣ
▁ተ ነሱ
▁የተ ሻሻሉ
▁በአ ፄ
▁ገ ፋ
▁ለመ ጨመር
▁ለማ መልከት
▁ታ ናሽ
▁እንደሚ ፈልጉ
ስተ ውል
▁መካ ፈል
▁ጭ ቃ
▁በወ ታደራዊ
▁ሻ ዕቢያ
ቅረ ቡ
ለቅ ስ
▁ሙስና ና
▁ቅን ጅ
▁የገለ ፀው
▁ቦር ሳ
▁ምስክር ነት
▁ከረ ጢ
▁በጅ ማ
ፈቅ ደው
▁ለምር ጫ
▁ይከበ ራል
ሞ ላው
ሻ ን
ቅ ንና
ቋ ቁ
ነ ዘር
ኖ ተ
ደ ዋ
ገ ደብ
ጋ ታል
▁የ ኋ
▁አ ፀ
▁ይ ከ
▁የሚ መሰ
▁ማ በርከት
▁አይ ፈልጉም
▁አል ነ
▁ወይ ንስ
ምና ው
▁በቀ ይ
▁ጭ ስ
▁አሳ ታፊ
▁6 3
▁የጥ ቃቅንና
▁መለ ዋ
▁በማስ ቀመጥ
▁መሪ ዎቹ
▁የሚወ ክሉ
▁የእር ግ
ተረ ጎ
r ic
ላ ላት
ማ ለሁ
በ ይ
ቡ በት
ኝ ቶ
ጎ ለብ
▁በ ክር
▁እ ጇ
▁መ ጀመርያ
▁ነ ሐስ
▁ለ 4
▁ይ ም
▁በተ ከሰተ
▁ቅ ድስት
▁ከመ ሠ
▁ተግባ ሮች
ከር ሰ
▁የል ጆች
▁ፕሬዚዳን ታዊ
▁ግድ ቡን
▁9 5
▁መሳ ካት
▁የዳ ዊት
▁አጠና ቋል
▁የማህ ጸን
▁ያለማ ቋረጥ
▁የሚያግ ዙ
▁የሚያስከት ለውን
▁ኪዳ ነ
▁ትላ ላችሁ
▁የተከለ ከለ
ላ ጎ
ተ ሽ
▁አ ጃ
▁ተ ኩስ
▁በማ ክበር
▁ራ ሳችሁን
ባል ን
▁መሰ ለ
▁በግ ሉ
ልም ምድ
▁ለማስ ታወስ
▁ስሜ ቱን
▁ጸ ል
▁አጥ ተው
▁የሃ ሳብ
▁ይዘ ህ
▁የመን ገ
▁አጠ ባበቅ
▁በፕ ሬዚዳንት
▁መገኘ ቱን
▁ከኤ ርትራ
▁አርሶአ ደር
▁ድምፃ ቸውን
▁የማጣ ሪያ
▁ትሑ ት
ሃ ኒት
ኸ ውን
ዝ ረዋል
▁የ ጦ
▁የ ፒ
▁በ ረን
▁እን ሠራ
▁ው ሉ
▁ደ ሃ
▁በአ ርሶ
▁ድ ብቅ
▁አይ ሻ
▁ሚ ል
▁ተመ ዝ
▁የሕ ንፃ
▁እንዳይ መስ
▁አያ ችሁ
▁ተገ ዢ
ከራ ሉ
ከብ ረው
▁በሽታ ዎችን
▁ፕሮጀክ ቱን
▁የሙ ከራ
▁ኮን ዶሚኒየም
▁ባሕ ርያ
▁በፈ ገግታ
▁ዘላቂ ነት
▁ሳሙ .
▁ዘው ዴ
▁በእርግ ዝና
▁በማጥ ናት
ኒስቴ ር
▁ባልን ጀራ
▁አስከ ሬ
▁ይለያ ል
▁ይገለ ጻል
▁የፈለጉ ትን
▁የሒ ሳብ
▁እንሆና ለን
ቅ ንቅ
ቸ ዋለህ
ገ ሩት
ጡ ኝ
ፁ ህ
▁የተ ናገሩ
▁ጥ ጥ
▁ል ቀት
▁አስ ቡት
▁ድ ፍን
▁ጋ ዳፊ
▁የሚያ ነ
▁የሚያ ገኙበት
▁የሚያ መለክተው
▁የሚያስ ጨ
▁የው ሸት
▁የው ጤት
▁ከእ ናት
▁የት ኞቹን
▁ለተ ጨማሪ
▁ያደር ገናል
▁ምርት ን
▁በአን ደኛ
▁የበላይ ነትን
▁የግን ኙ
▁ምሽ ግ
▁የተጋ ነነ
▁ንግግ ራቸው
▁መለያ የት
▁አጫ ጭር
▁ማመላለ ሻ
መ ዳን
ብ ህም
ክ ቷል
ያ ዋን
ፋ ዮች
▁አ ሚ
▁ከ ቅዱ
▁የሚ ጠቀሙበት
▁ያ ማረ
▁እንዲ ውሉ
▁አስ ጸያፊ
▁አይ ታሰብም
▁እንደሚ ጀምር
▁እንዳ ለውም
▁ድር ሰት
▁ሙ ታን
▁ነገ ረው
▁ላ ቀ
▁ላ ቅ
▁የህ ንድ
▁ድረስ ም
▁የታ ገዘ
ግብ ግብ
▁ለሚ ካሄደው
መለከ ትም
▁ሄ ኖክ
ለማ ው
▁ክለ ቡን
▁ጋዜ ጣው
▁ያስፈል ግ
▁ስኬ ቶች
ወለ ደ
▁መነሻ ው
▁መወ ያየት
▁ተመልክ ተናል
▁ከገ በያ
▁አስመስ ሎ
▁ይኑ ር
a b
መ ኛል
ስ ዩስ
ብ ጦ
ና ቶች
ዲ ንግ
ዳ ለን
ፈ ፍ
▁የ ጌታ
▁ከ መለ
▁ነው ን
▁ዓ ረቢያ
▁የመ ምራት
▁የአ ቋም
▁በማ ስተናገድ
▁ቢ ን
▁ዕ ንቁ
▁ከመ ልካም
ቀው ና
▁የበ ዓሉ
▁አር ከበ
▁እንደተ ጠቀሰው
▁የሆኑ ና
▁መብ ዛት
▁በዘ መናችን
▁ገቢ ዎችና
▁እንደማይ ቀር
▁ከስ ምምነት
ሰጠው ም
▁ለስ ፖርት
ባረ ክ
▁ለሰ ባት
▁ማመን ጨት
▁የተከሰ ተ
▁ይጠቅ ሳል
▁በፀ ጥታ
▁ያወጣ ል
▁ያገለግ ላል
▁ፐር ሰንት
▁ነቢያ ት
ሌ ኒ
ሙ ላ
ረ ቁ
ቃ ትና
ጃ ለሁ
ጠ ኛው
ጲ ላ
▁የ 8
▁ተ ጭ
▁ያ ሳተፈ
▁አስ ጎብኚ
▁የሚያ ጋል
ንስ ቲት
▁የሰ ደደ
▁የሰ ይጣን
▁ማስ ፈጸሚያ
▁ሴ ንት
መጣ ጠን
▁አገልግሎ ትና
▁ሞ ራል
▁የታ ች
▁በው ሳኔ
▁ሄ ዳ
ቀጥ ልም
▁በወ ርቅ
▁ነፃ ና
▁ማኅ በረ
▁ካለ ፈ
ዳደ ሩት
▁ባለሙያዎች ም
▁በ200 1
▁ይቀጥ ላሉ
▁E thiop
▁ተዋና ዮች
▁ተሰር ቷል
▁ተረድ ቶ
▁ዋን ኛ
▁እፎ ይ
▁ይወሰ ዳል
ሌ ይ
ሕ ና
ስ ልጣኑ
ባ ስ
ኤ ልና
ካ ና
ዎ ታል
ፋ ትን
▁የ ለው
▁መ ፈንቅለ
▁ከ ኩ
▁ከ ሱዳን
▁ነ ጋሪ
▁የሚ ንቀሳቀስ
▁የአ ልኮል
▁እየ ለ
▁ከተ ነሳ
▁እየተ መዘገበ
▁ሐ ሴት
▁አደ ሮችን
▁ሞ ገ
▁መድረ ሻ
▁ወንድ ሞቹ
▁ፅ ጌረዳ
▁የሙ ሉ
▁በባ ህል
▁በቁ ም
▁ሕይወ ትና
በራ ከቱ
▁ዐ ይን
▁ስደ ትን
▁ጃ ፓ
▁አልቻ ለችም
▁ተጨዋ ቾችን
▁የኩ ላሊት
▁በጠ ላት
▁በጦር ነቱ
▁አላገኘ ም
▁መወሰ ኑን
▁አጠናቀ ዋል
ብ ቱ
▁ለ ሳ
▁የሚ ፈጸሙ
▁የመ ልስ
▁ለማ ስተዳደር
▁አይ ባልም
▁በማ ዋ
▁ሊ ሰጡ
▁የማ ም
▁እንዳ የ
▁ወይ ዘሪት
▁እየተ ቃ
▁አካባቢ ን
▁ኢን ፌ
▁ሲያ ቀርብ
▁የራ ሷ
▁7 4
ልኝ ም
▁ስልጠና ዎችን
▁የሚወ ዱ
▁በስተ ጀርባ
▁ታይ ምስ
▁የመጨረሻ ውን
ቀደ ውን
▁ኬንያ ውያን
▁ለቀ ጣዩ
ፌደ ሬሽን
ምራ ለን
▁ያተኮ ሩ
▁የክለ ቦች
▁ለማዳ ረስ
▁ወንድሞ ቻችን
▁አሶ ሴ
▁ንክ ኪ
h o
ሞ ቻችን
ተ ሃል
ከ መው
ያ ለሽ
ድ ላ
▁አ ፍራሽ
▁ከ ሜዳ
▁ይ ሁ
▁የሚ ወሰድ
▁የሚ ይዝ
▁ው ቅያ
▁በአ ህ
▁ዓ ሊ
▁ባለ መስ
▁ወን ዳ
▁እንደተ ናገረው
▁ድጋ ፎችን
▁የምት ል
▁የቀ ዶ
▁ስብ ከት
▁የዕ ብራይስጥ
ደበ ቅ
▁16 ,
▁ነጋ ሽ
▁የሚችሉ በትን
▁ብድር ና
▁ለል ጆቻቸው
▁የተደረገ ላቸው
▁ፍጻሜ ውን
ስተናገ ዱ
▁በጃ ፓን
▁መያዙ ን
▁አይደለ ንም
▁መዝሙሮች ፦
▁ይከናወ ናል
▁አስተምህ ሮ
ባ ክን
ኳ ቸውን
ዋ ሽ
▁እ ሰጥ
▁የሚ ንቀሳቀ
▁ሰ በ
▁ሰ ፈ
▁ባ ሰ
▁በመ ቆጣጠር
▁እንዲ ዳ
▁አን ቶ
▁ሊ ወጡ
▁ጠ ጠር
▁በሚ ችሉ
ያን ን
ቅር ቦት
▁ለአ ካባቢ
▁የስ ደ
ቶችን ም
መጣ ሉ
▁ጽ ጌ
▁የል ጆ
▁እንዳይ ገቡ
▁ዲ ሲ
▁የጥ ልቅ
▁ፍላጎ ታቸውን
▁ወጥ ነት
▁ስብ ዕና
▁ምሳሌ ያዊ
▁ሜዳ ው
▁በቀጣይ ነት
▁ያን ኑ
▁አለማ ቀፍ
▁ተዋ ህ
ከናው ነው
▁መስተ ዳድሩ
▁እንዳለባቸው ም
▁ኮሌ ጆች
▁የእንግሊዝ ኛ
▁ያደ ጉ
ጸባረቅ በት
▁ብሮድካ ስቲንግ
▁ማቻ ር
▁ዓ. ዓ
ማ ያ
ሬ ና
ሲ ባዊ
ክ ሬ
▁ ቧንቧ
▁የ ገለጹ
▁ከ ዜ
▁ለ ክልሉ
▁ይ ጮ
▁እንዲ ኖረን
▁ጥ ንዶች
▁ገ ድል
▁ቀ ለበት
▁ቀ ዝቃዛ
ለም ን
▁ሳ ጥን
▁የማ ስተዋወቅ
▁ፕ ሪሚዬር
▁ክፍ ያው
▁ኤ ድ
▁ጎ ደል
▁አር ሲ
▁ማድረግ ም
▁ተከ ራክ
▁ቤተ ሰ
መል ካ
▁አድ ዋ
▁200 2
▁ለኢ ኮኖሚ
ጠፋ ው
▁በይ በልጥ
▁በፖ ሊሲ
ዳም ጥ
▁ሄደ ች
▁ኑ ሯቸውን
▁መና ፍ
▁የሁለ ቱም
▁በሕይወ ታችን
▁በማድረ ጋቸው
▁ካሜ ሮን
▁ማእ ከል
▁አስተላል ፈዋል
▁ተዓ ማኒ
▁ዳዊ ትን
▁በምክንያ ትነት
ር ታ
ቋ ረጡ
ት ቶ
▁በ 50
▁አ ሜን
▁እን መ
▁ከ ሰራ
▁ከ ደረሰ
▁ለ ቦ
▁የሚ ጎዳ
▁ወ ህኒ
▁ብ ስክሌ
▁ት ረካ
▁እየ ወጣ
▁ቢ ቻል
▁ካ ለም
▁ደረጃ ው
▁ለውጥ ና
▁ስብ ሃት
▁አጥ ኚ
▁እምነት ና
▁ጓ ዳ
▁ውሃ ው
▁በዕ ለት
▁የሽ ያጭ
▁የድር ሻቸውን
ላስ ይስ
▁የሚመጣ ውን
▁ፉ ክ
ፈቅድ ም
▁መስኖ ና
▁ገብር ኤል
▁ይሳተ ፋሉ
i f
ል ያድ
ጠ ችው
▁የ ኤል
▁አ ቆ
▁ከ ጅምሩ
▁ተ ኮ
▁ቀ ረብ
▁ጠ ራር
▁ከመ ር
ገል ን
ነሳ ቸው
▁ሞ ራ
▁ሲያ ገኝ
▁በጥ ቂቱ
ግራ ፊ
▁ሶ ስቱ
▁በብ ሔ
▁ቤቶች ም
ናቸውን ም
▁በህ ይወ
▁ደር ሰናል
▁የኮ ሙኒኬሽን
ቀበ ለ
▁ክርስቲያ ናዊ
▁በኮ ንት
▁ከቀ ድሞው
▁ተሰብ ስቦ
▁በትን ሹ
▁አያያዝ ና
▁እንደሚኖር በት
▁ተከሳ ሾቹ
▁አከራ ካሪ
▁ዘፈ ኖች
▁ተለዋ ጭ
▁እጄ ን
▁ባቡ ሩ
▁ጠ/ሚኒስት ሩ
▁እኒ ህ
ኒ ቱ
ደ ደው
▁አ ጣሪ
▁እ ጆች
▁የሚ ገነቡ
▁የተ ካ
▁የተ ፈቀደ
▁እንደሚ ታ
▁ብቻ ዬን
▁ኮ ረብ
▁ሐ ቅ
▁ሐ ዘ
ፌዴ ራሉ
ፈለ ጉት
▁የራ ሳችን
▁7 8
▁በማስ መልከት
▁ያልተ ለመደ
▁ከሰ ዓት
▁ወገ ኖችን
ባኤ ው
▁ክብ ካቤ
▁በቴ ክኒክ
ሰና በት
▁እንደሚገኝ ም
▁ማስታወቂያ ዎች
ድሮ ክ
▁ሽብርተኝነት ን
▁መጸ ለይ
▁ትንፋ ሽ
▁ይከሰ ታል
ዮርዳ ኖስ
ራ ቱን
ሽ ቆ
ቢ ስ
ተ መው
ዋ ታል
ጣ ለን
ጣ ሊያን
▁ ፐ
▁የ ሮም
▁ከ ና
▁የሚ ገነባ
▁ው በ
▁ት ላለህ
▁የአ ለማችን
▁ቤ ታቸውን
▁እያ ዳ
▁ከአ ቅ
▁ጥያቄ ን
▁ጽ ዮን
▁ር ቀው
▁ለእ ንግ
▁አደጋ ውን
▁መንገ ደኞች
▁የሚያሳ ዝነው
▁ከቀ ጠለ
ሸን ፉ
▁ቅን ጣት
▁ታዋቂ ው
▁የሚመስ ሉ
▁ትእዛ ዛት
▁የዳይ መንድ
ማቲ ም
▁የመግባ ቢያ
▁ፋውንዴ ሽን
ሃ ንስ
ሚ ት
ባ ብን
ወ ያይ
ዋ ወቁ
ዚ የም
ጋ ፊ
▁በ ፌደራል
▁ይ ምጣ
▁የሚ ካሄደውን
▁እንደ ነዚህ
▁የተ በላሸ
▁ው ቤ
▁ሲ ሠሩ
▁ጥ ምር
▁በተ ደረጉ
▁የአ ዲ
▁ቀ ጠል
▁ግን ድ
▁በማ መልከት
▁በማ ድረስ
▁በማ ናቸውም
ለም ል
▁የሚያ ምኑ
▁መስ ፋፋ
ቀር ቡት
▁ወቅ ቱን
▁የስ ዊ
▁አር በኛ
▁በስ ምንት
▁ዘርፍ ም
▁ሱ ቆች
▁የመስ ቀል
▁የተጠቀ ሰውን
▁አስተያየ ቱን
▁ያነሳ ሳ
▁ተው ኔት
▁ለ1 0
▁አስተና ግ
▁ዕቅ ዶች
ቨር ፑ
▁ብሶ ት
ጠያይ ቅም
▁መጨና ነቅ
ለ ባቸው
ሊ ቦል
ሠ ማ
ባ ሆ
ከ ባለ
ዘ ግ
ዝ ድ
▁ ኹ
▁የ ገለጸ
▁በ ዝናብ
▁ከ ዩኒቨርሲቲ
▁ይ ኽ
▁ስ እ
▁የተ ገነቡ
▁በመ መርመር
▁ሲ ለ
▁አስ ጊ
ንድ ፈ
▁ያለ ና
▁ቆ ላ
▁ጽ ፎ
▁ሪ ዮ
▁የቀ ይ
▁መለ ስተኛ
▁ስሜ ታዊ
▁በነ ገራችሁ
▁የዕ ርዳታ
▁ነበሩ ት
▁በዕ ውቀት
▁በክ ፍለ
▁ይበ ሉ
▁ሰም ቼ
ሳቁ ስ
▁ተካ ፍ
▁ሚስ ቶች
▁ምግ ቦችን
ቦል ቻ
▁ያሳዝ ናል
መ ረው
ረ ቱት
ሻ ዬ
ቶ ቻችሁ
ቺ ው
ዋ እ
ጠ ንና
▁የ ብረታ
▁አ ቀር
▁ያ ሏቸው
▁የተ ደበ
▁ድ ካ
▁ቀ ለብ
▁የሚያ መጣው
▁እየ ሄዱ
▁ሳ ኦ
▁ሳ ስበው
▁እንደሚ ረዳ
▁ስለ ነበረው
▁ሚ /ር
▁ከመ ቅ
▁የሚያስ ደ
▁እኔ ንም
▁መሰ ረቱ
▁ላ ኩ
ገና ዘብ
▁በስ ሙ
▁የጥ በቃ
▁ዮ ርዳ
▁19 ,
▁የሚገኙ በት
▁ፓ ሪስ
▁በጎ ዳና
▁ነዋሪ ዎችን
▁ውኃ ው
▁መሪዎች ና
▁ሥልጣ ኑን
▁ምድ ሪቱ
ባችሁ ም
▁መዛሙር ቱን
▁በመሰ ረተ
▁አካዳሚ ው
▁ጥበ ባዊ
ሄዳ ለሁ
▁በአህጉ ሪቱ
▁ኮንፈ ረንስ
2 2
ከ ራቸው
ዘ ቡ
▁ ar
▁የ ቁም
▁የ ናይ
▁በ ትና
▁አ ሳት
▁እ ሄዳለሁ
▁ከ በር
▁ከ ትን
▁ብ ድግ
ዋል ያዎቹ
▁በአ ድናቆት
▁አስ ፋል
▁ለመ መስረት
▁በማ ኑፋክቸሪንግ
▁ቅ መም
▁ኃ ብት
ቃል ል
▁ቤተ መንግ
▁ትን ሿ
መለከት ነው
▁ባንክ ና
ስፒ ታል
▁መጣ ች
▁ፖሊሲ ዎችና
▁አለማ ግኘ
▁አጠና ቆ
▁መገኘ ቱ
▁ተረጋግ ጦ
▁የእን ጨት
▁ሙስሊ ሞች
▁ኒው ዮርክ
▁ካሣ ሁን
▁ጸጋ ዬ
▁የመካ ከለኛው
▁ዘግይ ቶ
▁መፅሃ ፍ
▁ተዘግ ቧል
ሎ ፕ
ቆ ጥር
ብ ም
ቬ ን
ካ ራ
ዛ ና
ጨ ነቁ
▁ከ ኛ
▁ስ ቲ
▁እንዲ ወስዱ
▁አስ ረክ
▁የመ ለየት
▁ለመ ነጋገር
▁ሊ ቅ
▁አለ ሙ
▁ባለ ጸ
▁አገ ረ
▁ሳይ ሳካ
▁ጨ ረ
▁የወ ሰን
▁ተመ ክሮ
ሥራ ኤል
▁ያል ፋል
▁ተቀ ዳሚ
▁አሳ ታ
▁ቀጥ ለዋል
▁ለብ ቻው
▁የአገር ን
▁ትዕ ግሥት
▁እንደመ ሆናቸው
በሳ ጨ
▁ስና ደርግ
▁ውስ ጡን
▁ለይ ተው
▁ከየ አ
▁የማኅ በሩ
▁መሰና ዶ
▁የፕሬዚዳን ቱ
▁የድርጅ ቱን
▁ኮማን ደር
ሌ ም
ረ ቶች
ር ጋቸው
ሰ ች
ቆ ን
ቋ ረ
ቶ ቿን
ኃ ን
ያ ዣ
▁ r
▁የ ዳን
▁ከ ደርግ
▁ለ ነበረው
▁ወ ለ
▁ብ ሉ
▁ብ ሆን
▁በመ ዋ
▁ደ ነገ
▁ለመ ከታተል
▁ለመ ካፈል
▁አይ ቻለሁ
▁ካ ላት
▁መን ቀሳቀ
▁ሳይ ል
▁አብ ሬ
▁የህ ፃናት
▁ኦ ነግ
▁ሊያ ደር
▁ጨዋ ታቸውን
▁እንደሚያ ገኙ
▁አገራት ም
▁አመራ ሮችን
▁ስፖርት ን
▁ምዕራ ባውያን
▁መንግስ ቱን
▁የቦ ታ
▁ፕሮፌ ሽናል
▁በን ዴት
▁ውስ ጡ
ያንዳን ዳቸው
▁የሚሸ ፍን
▁ቀሪ ውን
▁ፈላጊ ዎች
▁ለመመ ሥረት
▁ጾ ታ
▁ይገር ማል
ሰ ሉ
ቅ ት
ወ ደድ
ያ ያዝ
ጀ ትና
▁በ ደግ
▁በ ለስ
▁መ ከናወን
▁ማ ካ
▁ሰ ናይ
▁ው ረ
▁በመ ጠየቅ
▁እንዲ መሩ
▁በአ ቅም
▁እየ ጠ
▁ሕ ል
▁አል ሰጠ
▁ፈ ታ
▁እየተ መ
▁ማስ መዝ
▁ከማ ዕ
▁ክል ከላ
▁ኪ ሮስ
▁እንዳይ ደርስ
▁መድረ ኮችን
▁ጉባኤ ውን
▁በባ ሕ
▁ጥበብ ና
▁ሀብ ትን
ካሂ ዱ
▁በቃ ሉ
▁ሰጪ ው
▁መሬ ትን
▁ንጉሡ ም
▁ለነ በሩት
▁የጠቀ ስ
▁የክለ ብ
▁የመድ ኃኒት
▁ግዛ ቶች
▁መርከ ቦች
▁ተመሥር ቶ
▁ላሊ በላ
▁በድንጋ ጤ
▁ፈተ ናው
ሲ ያን
ሻ ር
ነ ናል
ን ተው
ገ ፉ
ጎ ራ
ፃ ፉ
ፅ ና
ፎ ርም
▁ያ ት
▁በአ ሥር
▁አስ ረ
▁የአ ፄ
▁ቢ መጣ
▁ዓመ ታትም
▁ጉዳ ያቸው
ራዊ ነት
▁ጨ ካኝ
▁የወ ሲብ
▁ኃላፊ ነቶች
▁አሳ ቢነት
▁የዘ ላቂ
ጫወ ቱት
▁ጥና ቶችን
▁በሀ ዋሳ
▁ገበ ሬው
▁ገብረ ማርያም
መነ በት
▁w 16
▁ከንቲባ ው
▁አቅራቢ ዎች
▁የንጉ ሥ
▁የጀ ግ
▁እንደሆን ኩ
▁ያስቀም ጣል
▁የፋብሪካ ው
▁ማሠል ጠኛ
▁መኰ ንን
▁ጭፍጨ ፋ
ሊ ቱ
ል ሔም
ሬ ዝዳን
ቅ ሰው
በ ዘ
ቸ ገረ
ኤ ች
ክ ሪ
ዜ ም
ፍ ቲ
▁አ ሰብኩ
▁ይ ስጥ
▁ይ ተር
▁የሚ ሄደው
▁ት ያትር
▁በተ ጠናከረ
▁ለመ ለ
▁እና ቷ
▁በሚ ደረጉ
▁በእ ንግ
▁እየተ ጫወተ
▁የግ ራ
▁ቀን በር
▁ከእ ነርሱ
ወጣ ቸው
ናገ ሩም
▁ሁለት ና
▁እድ ሉ
▁እንዳለ ብኝ
ታችን ና
ብራ ሩት
▁ዴ ይ
▁መቀ ዛ
▁መለ ሱ
▁በል ብ
▁ገብ ሬ
▁በድ ም
▁መም ሰል
▁የተነሳ ም
▁በባ ዶ
.ኤ ስ
▁ባሕ ል
▁የወጣ ቶችን
▁ይባ ስ
▁የወን ጀ
▁የሳ ዑዲ
▁መጽሐ ፉን
▁አንጋ ፋው
▁ላል ተ
▁ፌደ ሬሽኑ
▁ያበረ ክ
▁ስምን ተኛ
▁እንደል ብ
ሠ ቃ
በ ህ
ይ ዘ
ዳ ችንን
▁በ ለጠ
▁ከ ጨ
▁የሚ ኖራቸው
▁ያ ነሱት
▁ማ ተኮር
▁እንደ ሆኑም
▁በመ ወጣት
▁እንዲ ሻሻል
▁ካ ሊ
▁ሕ ልም
▁ቅ ጂ
▁አመ ጣጥ
▁በቀ ላል
▁የሚያስ ደስት
▁ከእ ንስሳት
▁ስላ ላ
▁በባ ቡር
መና ን
▁በመቀ ናጀት
▁ለሕ ግ
▁ጌታ ነህ
▁ቁር ኝት
▁ዱ ብ
▁አስፈጻሚ ዎች
▁ዕቅ ዱን
▁ፈሪ ሳውያን
▁በየመን ገዱ
▁አጠራ ር
▁በጥር ጣሬ
▁በግብር ናው
i an
ብ ሪ
ነ ም
ና ትም
ዮ ሐንስ
ድ ቆ
▁ከ ጽ
▁ለ ዚያው
▁ያ ሸ
▁ያ መጡ
▁ያ ሻል
▁በአ ጥ
▁በአ ባይ
▁ለመ ጓዝ
▁እንዳ ያስ
▁ችግ ራቸውን
ጠና ው
▁ብሎ ኝ
▁መሆ ናችን
▁ጥረት ም
▁ሸ ክ
▁መው ደቅ
▁ተነ ሥ
▁በ199 0
▁ለካ ስ
▁b e
▁የእና ቶች
▁በፍት ህ
▁አምጥ ቶ
▁መልካ ሙ
▁ተከታት ለው
▁የሚመነ ጭ
▁ለማም ለጥ
▁የእስራ ኤልን
▁የልዑ ካን
▁ትርም ስ
▁ማስወ ገጃ
ሎ ቻችን
ር ጉ
ኾ ን
ይ ዙት
ድ ራ
▁አ ረፈ
▁እ ሆና
▁መ ሄዱ
▁ከ ቀረቡት
▁ለ ኑሮ
▁እንዲ ፈታ
▁የመ ቀበል
▁ጋ ሼ
▁ቤ ጂንግ
ሮች ም
▁በእ ሷ
▁ከመ ፍጠር
▁ራ ይት
▁ቀን ሶ
▁ሲያ ገኙ
▁ልጅ ን
▁ኪ ንግ
▁ፋ ና
▁ለሚ ፈልጉ
▁በሙ ሴ
ለማ መድ
▁አዋ ቂዎች
ላዊ ው
▁ንጉ ሣ
▁ጸ ረ
ቨስት መን
▁ወጪ ዎች
▁የሙ ስሊ
▁ወስ ደዋል
▁የዲ ዛይን
▁ከ4 00
▁አድና ቂ
▁c on
▁ጨር ሰው
▁ተጠር ጣሪዎች
ሪታ ንያ
▁የሚሳተፉ በት
▁በመንግሥ ትና
ፀባረ ቅ
▁የሚያስፈል ገን
መ ትና
ሰ ህ
ሰ ኝነት
ሺ ስት
ተ ቤ
ን ጅ
ድ ነት
ጊ ቱ
▁ ሪያል
▁መ ተን
▁ይ ብ
▁ይ ቸ
▁እንዲ ቆዩ
▁አስ ቆ
▁አስ ፈል
▁ለመ ግለፅ
▁አይ ሁ
▁ቅ ል
▁እየተ ሰሩ
▁እየተ ከታተ
▁ያስ ብ
▁ምክንያ ቱን
ብረ ዋል
▁የግ ማሽ
▁ቡ ር
▁እድ ሉን
▁በብ ል
▁የብ ስክሌት
▁የሚጠ ብቅ
▁መንገ ደኛ
▁ወጥ ታ
▁አመራ ርና
ደገ ፍና
▁ዙሪያ ውን
▁መሪ ው
▁የፀ ሐይ
▁ሆቴ ሉ
▁የተመ ደበ
▁ህይወ ቱ
▁የፊ ታችን
▁ድንጋ ጤ
▁ሠር ቷል
▁ሠር ተዋል
▁S t
ገጥ ማቸው
▁አሳሳቢ ነት
▁ዳኛ ቸው
▁ትኩረ ቱን
▁አድርጓ ታል
▁አቧ ራ
▁ደጀ ኔ
ቆ ችን
ቦ ቻቸው
ቹ ም
ን ሲ
ወ ረው
ጳ ው
▁ Y
▁ ረስ
▁ከ ጠቅ
▁ተ ሟል
▁ተ ምረው
▁ማ ጠን
▁ብ ሂ
▁በመ ኖሪያ
▁ሲ ዳ
▁ዘ ሌ
▁1 ሺ
▁እንደሚ ደርስ
▁ስለ ታ
▁ዕ ረፍት
▁የግ ብረ
▁ቆ ዩ
▁የምን ችል
▁ግንባታ ን
ቋቋ ሙት
▁ትን ሹ
▁ስሜ ቱ
▁ልማ ዶች
▁ከወ ጡ
ወጡ ም
▁ከው ሃ
▁አግኝ ቻለሁ
▁በዕ ው
▁ለስ ደት
▁ተጋ ባ
▁ያቀረ በውን
▁ተጽ ፎ
▁ተቀብ ላ
▁ተሞክሮ ዎች
es t
▁የሚጠይ ቀው
▁ለማጥ ናት
▁ተጠር ጥረው
▁ቁም ነገር
▁ማብ ቃት
▁ከመን ገድ
▁በፋ ብሪካ
▁ይቀር ባሉ
▁በባህር ዳር
▁የቃ ላት
▁ተጠይ ቀው
▁እከ ሌ
ሄ ዱት
ቀ ርም
ኞ ቼ
ዉ ን
የ ታቸው
ደ በው
▁የ ሠሩ
▁መ ደን
▁የሚ ከ
▁የተ ጎዱ
▁በመ ካሄድ
▁በመ ጫወት
▁ወደ ምት
▁ለማ ሰባሰብ
▁አይ ሆን
▁የሚያ መነ
▁ሚ ስቴ
▁ዓመ ተ
▁አንድ ነትና
▁መን ከባከብ
▁ነገር ዬው
▁ድር ቁን
▁ማስ ቻል
▁የሚያስ ከትል
ሰው ና
▁ጀ ኔራል
▁እር ቅ
▁ሞ ከረ
▁አቀፍ ና
▁አያ ጠራ
▁7 3
▁የተቀ ዳ
▁እንድት ችል
▁ያላ ግባብ
▁ሙያ ውን
▁ዝም ታ
ኒያ ም
▁ይወ ዳል
ጋጠ መው
▁የጸ ረ
▁ጀግ ንነት
▁ቦኮ ሐራም
ሎ ስን
ሸ መኔ
ቤ ሪያ
ዘ ኛ
ፋ ለሁ
ፍ ንት
▁እ ረኞች
▁መ ረጋጋ
▁ለ ፌዴራል
▁የተ ቻለው
▁የተ ከበሩ
▁በመ ጀመርያ
▁አይ ጠፋም
ተኛ ት
▁ካ ደረ
▁በሚ ሰጥ
▁ድር ሰ
▁ሙ ግት
▁ኮ ከ
▁አባ ቶቻችን
▁ተጠ ራ
▁በር ቀት
▁ጀ ብ
ወሰ ዱት
ቀረ ብ
ታይ በት
▁ተመል ሼ
▁ገለ ፁ
▁ልጆ ቿ
▁ሮ ማን
▁ፕሮግራ ሞችን
▁የተቀ ሩት
▁በቅ ንነት
▁ሰር ተዋል
▁በባ ሕር
▁የማስ ከበር
▁ለዘ ላቂ
▁የሚተ ላለፉ
▁መፍ ጠሩ
▁ያሰ ኛል
▁ብርሃ ነ
ጋጠ ማቸው
▁ጥቃ ቅንና
▁አንቺ ን
▁ጉድጓ ዶች
▁ተያያዥ ነት
▁የ200 7
▁ጭንቅ ላት
ራ ፍ
ር ሷ
ተ ማ
ቴ ሽን
ያ ኑን
ፈ ሉ
ፈ ረም
ፏ ን
▁አ ጠር
▁ከ ገንዘብ
▁ከ 70
▁የተ ቆራ
▁እንዲ ቀር
▁ሲ ፈጸም
▁ለመ ቅረብ
▁ካ ደረጉት
▁ሕ ልውና
▁ከአ ሁኑ
▁ቁ ጭት
▁ሽ ሮ
▁ተቀ መጡ
▁ድጋ ፉ
▁የደ ራሲ
▁ስሜ ትና
▁መንገ ዴን
▁ወጣቶች ም
▁መሪ ዎችን
▁ተሳ ስ
▁አስታው ሷል
በረታ ቻ
▁ቴክኖሎጂ ው
▁ጽሑ ፋዊ
▁እጥረት ና
▁ጠብ ቁ
▁ተጠያቂ ነትን
▁አሰራር ን
▁እንዳስ ታወቀው
▁መምጣ ታቸውን
▁የተሰኘ ውን
▁ሽልማ ቱን
▁ያቀ ፈ
▁ከመስ ከረም
▁የጋዜ ጠኝነት
▁ሙሽ ራ
▁የየራ ሳቸው
▁ጎልማ ሳው
▁ይመለ ሳል
▁በአቋ ራጭ
ሣ ብ
ሬ አለሁ
ገ ጣጠ
▁መ ስተዋ
▁ከ ግለ
▁የሚ ወሰን
▁ማ ገዝ
▁የተ ላለፈ
▁እየ ታወቀ
▁ሊ ሸ
▁እንደሚ ሆንም
▁ድር ብ
▁ቁ ስል
▁አመ ታዊ
▁የወ ሊድ
▁የሆነ ና
▁ማን ችስተር
▁ልጅ ም
▁ባህ ሉ
▁ይገ ነ
▁ሠ ላምና
▁የምን ኖረው
▁ፊ ን
▁አላ ሳ
▁ሰጥ ቷቸዋል
▁እንዳል ነበረ
▁ሮ ሜ
▁የድ ም
▁ሀብ ቱ
▁አብሮ ት
▁ሣ ር
▁የኅ ብረተሰቡን
▁መገለጫ ዎች
▁የረ ዥም
▁ባለማ ወቅ
▁ሼ ክ
▁ተቀና ጅተው
1 8
ም ርም
ሰ ሪ
ቫ ን
ቸ ኝነት
ኑ ር
ክ ቶች
ወ ዱ
ዊ ን
▁ –
▁የ ሊዝ
▁በ ዛው
▁እ ሾ
▁ተ ላላ
▁የተ ዛ
▁የተ ጎ
▁ሰ ሙ
▁ደ ራሽ
▁ጥ ምቀት
▁በተ ዋ
▁ኢ ራን
▁ጉ ም
▁አል ኩኝ
▁ዋ ለ
▁እየተ መራ
▁ፕ ሪ
▁ያስ መዘገቡ
▁ለአ ቶ
▁አቀ ፉን
▁የቀ ሩ
▁አፍሪካ ና
▁ልብ ሱን
▁ቢያ ጋጥ
▁ሰብሳቢ ነትን
▁አሸናፊ ው
▁ምሁ ሩ
▁ግል ጋ
ኖረ ኝ
▁አረ ቄ
▁መገ ጣጠ
ምራ ች
ou r
▁ተቀና ቃኝ
ካሔ ድ
▁ባር ሴሎና
▁ገዛ ኸኝ
▁ዘፀ አት
▁አመላክ ቷል
ቀ ራረብ
ቡ ል
▁ይ ሔ
▁ይ ሆነ
▁ያ ሳተ
▁ግ ቢው
▁ታ ደለ
▁እንደሚ ሠራ
▁ድር ቅን
▁3 .
▁መንገድ ም
▁በሰ ላምና
▁ወር ደው
▁ዲ ን
▁የገ በሬ
▁እንቅስቃሴ ን
▁9 9
▁የዘ ጠኝ
▁ጸ ንቶ
▁በተያያዘ ም
▁መቅ ሰ
▁ሰጥቶ ናል
▁ሰላማዊ ና
▁የጽ ህፈት
▁s t
▁የሚጠበቅ ባቸውን
▁የማዕ ከሉ
▁የተዘጋጀ ውን
▁ጳጳ ስ
▁አስጨ ራሽ
▁ትገል ጻለች
ቀ ትን
ቅ ሱ
ኩ ሽ
ው ድ
ጥ ራ
▁ለ ኩ
▁ይ ድረስ
▁የሚ ከፈል
▁ያ ቅ
▁ወ ሩ
▁በመ ግባ
▁እንዲ ረጋገጥ
▁በአ ቅ
▁የመ ጥ
▁የአ ረብ
▁ወደ ው
▁የማ ሻሻያ
▁እያ ደ
▁የነ በር
▁ብሎ ኛል
▁ተቋ ር
▁ዘመ ዶች
▁ለማስ ቀመጥ
▁ግንኙ ነቶች
▁ሸ ም
ጠይ ቅም
ጠይ ቃቸው
▁ከስ ደት
ጋቢ ዎች
▁ሰነ ባብ
▁ያስተ ላል
▁በሐ ሳብ
▁አፈጻጸ ሙ
▁ተሰማ ኝ
▁ዝግጁ ነት
▁እንድታ ገኝ
▁አፋ ፍ
▁ሚስ ዮ
▁ማግኘ ታቸውን
ጓጓ ዣ
▁ጠበ ቅ
▁ማመልከ ታቸው
▁ርእ ሰ
ስተላል ፍ
▁ስርአ ቱ
▁ተሰባ ስበው
ለ ቃ
ሎ ሽ
ራ ኔ
ሰ ርት
ብ ተዋል
ዎ ርክ
ጠ ለው
▁ለ ሠ
▁ይ ግ
▁ያ ሻ
▁የተ ትረፈረ
▁እንዲ ወሰድ
▁ሲ መልሱ
▁የአ ፋር
▁ታ ያ
▁ስለ እ
▁አል ኮል
▁አስተ ባብ
▁እየተ ሰ
▁እየተ ጠናከረ
▁ሃ ዋሳ
▁አደ ሮቹ
▁ጀ ነራል
▁ውጤ ትም
▁የህ ይወ
▁መጠ ጦች
▁ኃላፊ ዎችና
▁አቅ መ
ደራ ሉ
▁ይጠ የ
▁የሌ ለውን
▁ልጆች ም
▁መተ ላለፊያ
▁የሃ ብት
▁የፀ ዳ
▁የተመ ቻቸ
▁ገበ የሁ
▁ሰራ ተኛው
▁ቀድሞ ው
▁ብን ል
▁የኃ ላፊነት
▁ለገ ሰ
▁በኢን ተር
▁አብረ ዋቸው
▁በጭ ንቀት
▁ኤር ፖርት
▁ያወጣ ውን
ሎም ቢያ
▁የእነ ሱን
ልቦ ና
▁የአፈ ጻጸም
▁በምድ ሪቱ
ህ ንና
ቨ ን
ክ ሮችን
ዞ ረ
ዲ ቯ
ጐ ት
ጨ ርቅ
ፈ ራቸው
ፍ ናል
▁ it
▁ ጲላ
▁የ ፐብሊክ
▁በ ሉት
▁የሚ ቃጠል
▁የሚ ከበረው
▁ያ ሏቸውን
▁ወ ፍራ
▁ማ ጎልበት
▁ግ ና
▁አስ መር
▁እንዳ ሉም
▁አል ነበር
▁ፈ ጠረ
▁ቅ ዝቃዜ
▁ያለ ችውን
▁የሰ ሞኑ
▁አገር ም
▁ሞ ባይ
▁በጥ ይት
▁ፍላጎ ታቸው
ጨዋ ቾች
▁አወ ጋ
▁ጊ ዮርጊ
▁በሃ ገሪቱ
▁የግብ ዓት
▁ለመግ ደል
▁መረ ራ
በታ ተን
▁ተፋ ላሚ
▁በፖለቲካ ው
▁ኤርትራ ውያን
▁ገመ ቹ
▁ተመድ ቦ
▁ተስተው ሏል
2 3
ራ ንት
ራ ተን
ደ ዚህ
ደ ትና
ጓ ራ
ጹ ህ
ፈ ናል
ፓ ልት
▁በ ገለ
▁ወ ጋ
▁ወ ክሎ
▁የተ ካተቱ
▁ባ ደረጉ
▁አይ ጥ
▁እየ ቆ
▁እና ሳ
▁እየተ ወ
▁ብቻ ቸውን
▁የሰ ጣቸው
መስ ለው
▁ምር ታቸውን
▁አው ጥታ
▁የባ ሕ
▁ቀደም ትነት
▁7 7
▁8 3
▁ፍላጎ ትን
▁መዝ ገቡ
▁ጸ ሃ
▁ከው ድድር
▁የድር ሻውን
▁ልን ገር
▁አጠ ገቡ
▁የባለ ሥልጣኑ
ብሮ ት
▁የተጠቀ ሱትን
▁የተሳ ናቸው
▁ተረ ካ
▁የሚሰጡ ትን
▁ኒ ውስ
▁የሚጠበቅ በትን
▁መጓ ተት
▁ክሊ ኒክ
▁ይነሳ ሉ
▁ጎል ተው
▁የጀ ርባ
▁R e
▁በመሳሰ ሉ
▁ኬሚካ ሎች
▁በረከ ቶች
ሄ ድን
ሜ ል
ኳ ታር
ዝ ታ
▁የ ያዝ
▁በ ች
▁በ ጓ
▁በ ጠበቀ
▁አ ዘጋጁ
▁ለ ኛ
▁ማ በር
▁ም ኅ
▁የተ ረፈ
▁ሰ ቅል
▁ሲ ጠፋ
▁በአ መት
▁ዘ ካርያስ
▁ለመ ጋ
▁ዕ ፅ
▁ከመ ግ
▁ክፍ ሌ
ረጋ ቸው
ሰማ ህ
▁ሜ ሲ
▁ከሚ ገኝ
ችው ም
ፖር ቶች
▁ለሚ መለከታቸው
▁መሆ ኔን
▁ሴቶች ም
▁17 ,
▁በባ ንክ
▁ጐ ራ
▁ጐ ንደር
▁የዓ ባይ
▁ከል ቡ
▁ዘዴ ዎችን
▁መፍትሄ ው
▁ጓደ ኝነት
▁መራ ቅ
▁ጎዳና ዎች
▁በሆ ቴ
▁ቼ ልሲ
▁ክሊ ኒ
▁ተቀና ጅቶ
▁ተሰር ቶ
▁እንደዚሁ ም
▁ለወደ ፊቱ
▁ሕዝቅ ያስ
▁በመግለ ጫው
▁መለዋ ወጥ
ሀ ዊ
ሉ ትም
ራ ጩ
ቆ የው
ጣ ጠር
ፈ ኛ
▁አ ጫው
▁የሚ ኒስትሮች
▁ግ ስጋ
▁እንዲ ወስድ
▁የመ ሪነት
▁አይ ኤስ
▁የሚያ ሳት
▁ቢ ኖራቸውም
▁ዕ ንባ
▁ነገር ም
▁መስ ጊ
▁ከአ ር
▁ሀ ገሪቱን
▁ያስ ቆጠረው
ጠቀ ምና
▁ዶ ክ
▁ጥያቄ ና
ሞክ ርም
▁ሽ ቅብ
▁ድርጅ ቶቹ
▁በሰ ባ
▁በሰ ዓት
▁በሌ ሊት
▁ሠ ው
ፈር ና
▁ነፃ ነትና
▁ምስ ሎች
▁መታ ቀ
ደረጃ ጀት
▁ሰር ተ
ከታተ ልና
▁ተን ኮል
ደራጀ ትና
▁አሸን ፈው
▁ማበረታ ታት
▁ተገን ብቶ
▁ቅሬ ታቸውን
▁ትንን ሽ
▁አያጠራ ጥርም
ሜ ይል
ሰ ላስ
ች ለት
ዕ ታት
ዚ ክስ
ግ ራቸው
ጣ ውን
ጨ ነ
ፍ ኑ
▁በ ከባድ
▁ነ ገን
▁ለ ዲ
▁ይ ቀረ
▁ያ ድርግ
▁ስ ቃ
▁ስ ሄድ
▁ብ ዥ
▁የተ ወጣ
▁እንዲ ጠፋ
▁ገ ፁ
▁ክ በብ
▁ሥ ዩም
▁የሚያ ምን
▁ሳይ ኖራቸው
▁ቁ ፋሮ
▁በቀ ደም
▁ሐ ዋሳ
መስ ከር
▁እንዲያ ድር
መር ጡ
▁በስ ህተት
▁አድ ካሚ
▁የጥ ምቀት
ነገ ረን
ሳሰ ሉት
▁ጠቁ ሞ
▁በጉ ብኝ
▁በጉ ልበት
▁ምዕራ ፎች
▁ምዕራ ባዊ
ፈረ ኝ
▁የድር ጊት
ቀድ ም
▁ፈጥ ነው
▁ሃይማኖ ትን
▁በ199 9
▁ወሰ ደ
▁የተጠ ያቂነት
ነዘ ሩ
▁ተሞ ል
▁አመል ካች
▁የኤክስ ፖርት
▁ከመም ጣቱ
▁እሆና ለሁ
/ ቤቶች
ማ ህ
ሞ ቻቸው
ያ የር
ጀ ቱ
ገ ታ
ግ ብት
ጣ ጠረ
▁ተ ገር
▁የሚ ጓዙ
▁ያ ዘጋጃ
▁ም ሬት
▁ብ ይን
▁ው ጫዊ
▁ባ ላት
▁በመ ኖራቸው
▁ት ጋት
▁ለመ ከተል
▁እና ትና
▁ካ ለማ
▁በሚ ሆንበት
▁የሰ ላ
▁የሚያስ ቡ
▁ተቋ ሞች
▁ጉዳይ ና
መጣ በት
▁ከሚ ሰጠው
▁ጽ ንስ
▁በደ መ
▁ጣ ዕም
▁አያ ጠያይቅም
▁ይጠ ራ
▁የራ ሴን
▁ፈቃ ደኝነት
▁ከወ ትሮው
▁ዓላማ ና
▁ማኅ በረሰቡ
▁አቋ ማቸውን
▁በድ ምፅ
▁የካ ቢኔ
▁ስላ ስ
▁አስመ ጪ
▁መፍትሔ ው
▁ይጠቀ ማል
▁በግለ ሰቦች
▁የንግ ዱ
▁የመሠ ረት
▁ይጫወ ታሉ
▁አከናው ኗል
▁መፅሀ ፍ
▁በሻምፒዮ ናው
/ ቤቱ
1 3
ሞ ቹን
ሮ ቿ
ች በትን
ዋ ውያን
▁በ ጣት
▁በ ሮም
▁መ ባል
▁ይ ልማ
▁ተ ጋል
▁የሚ ፈል
▁የሚ ማሩ
▁ት ራክ
▁የመ ድን
▁ለመ ዘርጋት
▁የሚያ ደርስ
▁የማ ሰብ
▁አል ሰ
▁በሚ ቻልበት
▁ከተ ሰጠው
▁ያስ ገኝ
▁አባ ላትም
ሰራ ቸው
▁በኢ ሕአዴግ
▁አሳ ቢ
▁ኩ ማ
▁አለመ ቻል
ስቱ ላ
▁ሰር ቷል
▁አድርገው ታል
▁የዓ ቃቤ
▁አኳያ ም
ድብ ለ
ካሂ ደው
▁የቱ ንም
▁ሱዳን ን
▁ገባ ች
▁ፈጽ መዋል
ሮፕ ላ
▁መጽ ሀ
▁የወሰ ደ
▁የኮን ዶሚኒየም
▁ማግኘ ቱ
▁ካህ ኑ
▁በቱ ሪዝም
▁ከከተማ ዋ
▁የዘንድሮ ውን
▁ቆራ ጥ
▁ኮንግ ረስ
▁ጀን በር
ሸ ግ
ኅ ጉ
ዛ ይ
▁ተ መለስ
▁ያ ብ
▁የተ ከናወነው
▁በመ ጪዎቹ
▁ዓ ውደ
ስት ሪ
▁ጋ ላ
▁ሊ ጠቀስ
▁ሳ ሙና
▁ካ ህን
▁ከተ ቃዋሚ
▁መሆኑ ና
▁ያለ ቀ
▁አው ግ
▁የሕ ፃ
▁እንዳይ ከሰት
▁8 6
▁ካል ቻለ
▁ጌ ጣጌ
▁በድ ሉ
ስተዋ ለ
▁ኢንዱስትሪ ውን
▁አፍ ሮ
ላላ ቅ
በራ ችሁ
በራ ከት
▁ፌ ስቡክ
▁የጽ ድቅ
ምረ ናል
▁የየራ ሳቸውን
ገንዘ ቡ
▁ሐዋርያ ቱ
ሲ ት
ወ ቀው
ጆ ቻችን
▁የ ጾ
▁በ ሊዝ
▁ከ ንግ
▁የሚ በላ
▁ብ ሪታኒያ
▁ዓ ምድ
▁ኢ ራቅ
▁በማ መቻቸት
▁1 ለ0
▁ቢ ልም
▁ሳ ባ
▁እንደሚ ቀ
▁በሚ ሆኑ
▁የነ ገር
▁አመ ድ
▁አብ ላ
▁የስ ለላ
▁በግ ድቡ
▁አማ ኑኤል
▁በስ ሜ
ደግ ፉ
▁መድረ ኩን
▁በወ ሊድ
ዳቸው ም
▁ክርስቲያ ናት
▁ከቀ ናት
▁በቃ ላት
ምባ ሳ
▁ጴጥ ሮ
▁የጽ ሑፍ
▁ሳት ሆን
▁ስታድ የም
ሠል ጠን
ለ ቂያ
ሮ ጡ
ሸ ጊያ
ሽ ንም
ቢ ይ
ቶ ና
ይ ዘን
ጌ ን
ጩ ነት
ፋ ችን
▁በ ዛሬ
▁በ ፈረ
▁የሚ ገናኙ
▁ም ደባ
▁እንደ ሁ
▁ባ ዩ
▁እንዲ ጎለብት
▁የመ ሳ
▁በማ ሟላት
▁የሚያ ወጡ
▁ታ ደ
▁ፍ ስ
ጀመ ራቸው
▁ያለ ኝን
▁ከአ ርባ
▁በር ና
በል ም
▁አር ብ
▁የት ኛውንም
▁በስ ምምነቱ
▁በስ ጦታ
▁በሰ ይፍ
▁ስም ሪት
ቀመ ጫ
ያዊ ው
▁ሶ ዶ
▁200 0
▁የብ ሄር
▁የዘ ረ
▁ቻ ሉ
▁የሚሆኑ በት
▁ከጥ ፋት
▁ጅ ብ
▁ሒ ደቱ
▁ፈር ዖን
▁ሂደ ቶች
▁ለመተ ካት
መላለ ሱ
▁እነር ሱን
▁መርሆ ዎች
▁ዘፀ .
▁ሳይንቲ ስቶች
▁በወረ ቀት
▁መስተጋ ብር
ህ ራ
ሟ ቸዋል
ሰ ዱ
በ ድ
ክ ራ
ጤ ም
▁ j
▁የ ፈጠሩ
ላይ ዜሽን
▁ሰ ከን
▁ው ንጀ
▁ት ብ
▁በአ ሳ
▁አስ ታወ
▁በተ ሰጣቸው
▁የመ ቻ
▁ቀ ንም
▁የሚያ ጠናክር
▁የም ጣኔ
▁ነበር ፦
▁ሙ ን
▁ድርጅ ትን
▁ዜ ሮ
▁ሪ ከር
▁መጥ ታ
▁ግንኙ ነታቸውን
▁ና ትና
ሮፓ ጋንዳ
▁ከሰ ኔ
▁መተ ካት
▁የሙ ቀት
▁አሠራ ሮችን
▁ለህ ግ
▁ስል ኩን
▁ባሕ ሩ
▁ገበ ያን
▁ያገኘ ችው
▁የሶ ስት
▁በን ብረት
▁ለግ ብርና
ሎን ቄ
▁ሞክ ረዋል
▁የማዕ ከላዊ
▁መፍጠ ሩን
▁አይዞ ህ
igh t
ቢ ን
ኮ ፕ
ፈ ሱ
▁መ ደር
▁የሚ ገድ
▁የሚ ረዳን
▁ማ ቋቋሚያ
▁ስ ዕ
▁እንደ ቻለ
▁በመ ጽሐፉ
▁ሲ ታሰብ
▁የመ ሳተፍ
▁ክ ሶች
▁እየ ወጡ
▁የማ መንጨት
▁በሚ ኒስቴሩ
▁በእ ም
▁የግ ጦሽ
▁የው ስ
▁የበ ዓል
▁ይገ ነዘ
▁የል ብስ
▁ልዩ ነቱ
▁ሄ ሮ
▁የጥ ቁር
▁አጥ ፍቶ
ሳሰ ሉ
▁ከኢ ኮኖሚ
▁ለብ ሄራዊ
▁ሰነ ዶችን
▁አወ ቀ
▁የቅ ኝ
▁ኖሮ ት
▁ደህን ነትና
▁ለሌሎች ም
▁የሴ ቶችና
▁ሰዓ ቱ
ናገረ ውን
▁የሚጠቀ ሰው
▁መፈ ታት
▁የጠቀ ሰው
▁ከምር ጫው
▁ይነግ ረናል
▁ተከናው ነዋል
መዛ ዘን
▁ታት ሞ
▁ጎብኚ ዎች
ህ ናት
ሐ ን
ጓ ቸውን
▁መ ሳብ
▁ይ ጓ
▁የሚ ረ
▁ቀ ሩ
▁ታ ል
ራት ን
▁እንደሚ መስል
▁ሚ ሳይ
▁በሚ ስማማ
▁የነ ጻ
▁ድርጅ ትና
▁ማን ነቱን
▁ሲያ ስተ
▁ሲያ በቃ
ከር ካሪ
▁ተከ ብሯል
▁መር ዝ
▁ስር ጭ
▁ቅር ሶችን
▁ሮ ይተርስ
▁ተን ከባ
ምባ ገነ
▁ህይወ ቱን
▁ከት ግራይ
▁መሐ ል
▁ከፊ ቱ
▁እያሳ ዩ
▁የገቡ ትን
▁የተሰማ ሩት
▁ያየ ሁት
▁ተከሳ ሹ
▁ታዳሚ ዎች
▁ንድ ፈ
▁ቁን ጮ
▁ትፈልጋ ለህ
▁ድንግ ል
▁ግስጋ ሴ
2 9
e w
l d
ሁ ራን
ቱ ዲዮ
ዎ ቿን
ጀ ብ
ጋ ቤ
▁ከ ጂ
▁ሲ ታወቅ
▁በአ ባልነት
▁ሁ ላችን
▁የመ ማሪያ
▁ለማ ግኘ
▁አይ ከብ
▁ቢ ሉም
▁እንደሚ ሳተፉ
▁በሚ ካሄዱ
▁እያ ቀረበ
መን ን
▁ያለው ም
▁ከአ ስራ
▁ያስ ከተለው
▁ለአ ፍታ
▁ወጣ ቷ
▁ወን ዱ
▁ዙ ማ
ሎጂ ስቲክስ
▁በ19 60
▁ከባ ህ
▁የሀ ገራችንን
▁እንደነበር ና
▁በጎ ርፍ
ገዛ ው
▁ዝና ቡ
▁የተቀመ ጡት
▁ይፈ ጥር
▁ታሪ ፍ
▁አቅርቦ ትን
▁ጥበ ቡ
▁ለሆኑ ት
▁መመዝ ገብ
▁ታምኖ በታል
▁ይከታተ ላል
▁የትራንስ ፎርሜሽን
▁እንሠራ ለን
▁ዓ.ዓ .
2 4
ስ ቁ
ሻ ና
ቲ ቪ
ኞ ቻቸውን
ዬ ና
▁ለ ጋራ
▁ማ ደር
▁ም /ቤት
▁በመ ገኘቱ
▁እንዲ ይዝ
▁በተ ጠ
▁በተ ግባ
▁የመ ክፈቻ
▁አይ ገርምም
▁ጠ ቋሚ
▁ምን ስ
▁ከመ ፍ
▁የግ ዥ
መስ ሉ
▁ጎ ኑ
▁ላ ንድ
▁አው ታር
▁አው ስትራሊያ
▁የማይ ሆን
▁የታ ሰሩ
▁የታ ሰበው
▁አቅ ማችን
▁ልማ ቶችን
▁ሠራ ሽ
▁ና ቡ
▁የመስ ክ
▁በማህ በረሰቡ
▁ጸሐፊ ዎች
▁ፕሬዝዳን ቱ
▁ከክ ፉ
▁በምር መራ
▁ከሙ ስና
▁እንቆቅል ሽ
a p
ላ ህ
ቀ ባ
ገ ሯ
▁ሰ ጭ
▁እንዲ ቋቋም
▁ለመ ር
▁ሊ ን
▁እንደሚ ወስድ
▁የማ ሽ
▁ካ ሁን
ገባ በት
▁ከተ ቀመጠ
▁ሆ ር
▁የእ ለት
▁ተጠ ባባቂ
ሰማ ኝ
▁ሴ ን
▁ምር ቃት
▁በግ ምት
▁ሞ ሮኮ
▁የማይ ተካ
▁ድጋ ፋቸውን
▁የምን ፈልገው
ስታ ቱ
ካል ኝ
ያቸው ም
▁ይታ የ
▁የፈ ረስ
▁መግለጫ ዎች
▁ያው ቀዋል
▁ይጠበቅ ብናል
▁መቻ ላቸውን
▁ተመር ቆ
▁ዘው ድ
▁ፈለ ገ
▁ልዑ ካን
▁አመለካከ ቶች
▁መድሀ ኒ
▁ሮናል ዶ
▁እንሰጣ ለን
ለ ታዊ
ላ ችሁን
ል በስ
ቆ ረጥ
አ ላዊ
ዒ ላማ
ዛ ቱ
ጠ ቡ
▁የ ጀር
▁በ ነበር
▁መ ፈለ
▁መ ፈጠሩ
▁ለ ህል
▁ያ ገናዘበ
▁ዓ ረብ
▁እየ ወሰደ
▁ጠ ረን
▁ካ ላችሁ
▁ህ ያው
▁ጉዳ ተኞችን
▁እየተ ንቀሳቀሱ
▁ያስ ባል
▁መካ ሄዱ
ሳተ ም
▁የተሰ በሰበው
▁ችግሮች ም
▁አክ ብረው
▁ተሳ ፋሪዎች
▁ቱ ሉ
▁ትምህር ቷን
▁መክ ፈት
▁201 1
▁ህክምና ውን
▁የቢ ሮው
▁ወዲያው ም
▁በ4 0
▁የመቀ ሌ
▁ካሜ ራ
▁እድገ ቱ
▁በማያ ያዝ
▁መምህራ ንና
ከፋፈ ሉ
▁የተሳተፉ በት
▁አለባበ ስ
▁ፍልስጤ ማውያን
▁መጠናቀ ቁን
▁ያስችላ ቸዋል
ሸ ጉ
ኗ ቸዋል
ወ ራው
ገ ደል
ጫ ነ
ፍ ትና
▁የ ሳይ
▁በ ጨርቃ
▁ም ንድ
▁የተ ናገር
▁አን ቱ
▁የአ ሸናፊነት
በር ና
▁ለመ ቆየት
▁አይ ሞ
▁ታ ፈሰ
▁ጠ ንቋ
▁የም ኒልክ
▁የም ዘና
▁አል ደረሰ
▁ቅ ዠት
▁ከአ ጠ
ርም ስና
▁ከፍ ተው
▁ን ዴ
▁አሁን ስ
▁ያል ቻ
▁አው ቀ
▁ተወ ግ
▁በስ ንት
▁በስ ልጠና
▁ገን ብቶ
▁ለእ ነ
▁ለእ ስራኤል
▁በደ ማቸው
ጠራ ጠር
▁ልብ ሶች
▁ይልቅ ስ
▁ሚኒስቴር ና
▁ዳይ መንድ
▁አጋጣሚ ውን
ሽከር ከር
▁ለስ ላሳ
▁ኢትዮጵያዊ ው
▁የምርጫ ው
▁መኪና ውን
▁ጥሪ ት
▁አይገባ ውም
▁ተነሳ ሽ
▁የሚያደር ጋቸው
▁መጽሐ ፍት
ፌደ ሬሽኑ
▁ለታ ላቁ
▁የፈረን ጆች
▁ብርቱ ካን
▁እቅ ዶች
▁ተአ ምራት
▁ለኢን ቨስትመንት
▁ለፖ ሊስ
▁ማዕቀ ብ
▁ለማጣ ራት
▁ተደንግ ጓል
ረ ሸ
ራ ሳቸው
ሬ ክተር
ሻ ት
ባ ረብ
ኪ ናው
ዛ ወር
ዝ ዝ
ጭ ል
ፖ ሊ
▁የ ች
▁የ ዴ
▁ከ ያዘ
▁ይ በቃ
▁ያ ፀ
▁የተ ከተለ
▁የተ ፃፈ
▁ት ባ
▁የመ ወ
▁ኢ ት
▁ይህ ስ
▁ጉ ሮሮ
▁ህ ጉን
▁ከተ ሰጣቸው
▁መን ጃ
▁እያ በረከተ
▁ነገ .
▁አይደለም ና
▁በሌ ለው
▁የምት ችል
▁አላ ለም
▁ንጉ ሱ
▁ሰጥ ተን
▁ሠራ ተኞቹ
▁ማድረ ጓ
▁ፕሮጀክ ቶቹ
▁የሃ ይማኖ
▁ተሳታፊ ና
ገደ ዱ
▁የሚችሉ ትን
▁ነፍ ሴ
▁ጠባ ሳ
▁የአን ዱ
በታ ለን
▁ውይይ ቱን
▁ባሪያ ዎች
▁ከከተማ ው
▁በአስተ ማማኝ
▁ከማሳ ደግ
▁የአክ ራሪ
▁ጠንክ ረው
በ ኝነት
ና ም
ግ ስና
ጐ ና
▁የ ዝግ
▁በ ዚ
▁አ ረም
▁ተ ምሮ
▁ያ መቻ
▁ባ ደረ
▁የሚያ ቀርበው
▁ቢ መስልም
▁እንደሚ መ
▁እንደሚ ሄድ
▁እና ቱን
▁የም ርምርና
▁በሚ ገኙት
▁አስተ ሳሰ
▁ለአ ገሩ
▁የሆነ ችውን
▁አደ ለም
▁ሞ ተዋል
▁አሉ ባልታ
▁ከማ ቅረብ
▁በጥ ቅምት
▁ባህ ላችን
▁መሆን ና
ታይ ን
▁ዘንድ ም
▁ታላ ቁን
▁አንዳን ዶቹን
▁መጣ ር
▁አጠና ቅ
▁ሐሳ ቡ
▁በሐ ዘን
▁ሃላፊ ው
▁የወሰ ዱት
▁ሂደ ትም
▁ለማን በብ
▁ንጉሡ ን
▁መት ጋት
▁ሌሊ ቱን
▁ተቀይ ሮ
▁ተጫው ቷል
▁ሟ ች
ለ በ
ሊ ንግ
ራ ጌ
ስ ካር
ቅ መ
ካ ካት
▁አ ጽና
▁እ ገም
▁የተ ነገረው
▁በመ ክ
▁የመ ሰብሰብ
▁አይ ሰጥም
▁የሚያ ልፍ
▁እንደሚ ሰጡ
▁ባለ ንበት
▁ባለ ሁለት
▁ከመ ላው
ታዊ ው
▁ቀን ን
▁የው ል
▁መጠ ጊያ
▁ሞ ቶ
▁ተወ ው
▁13 0
▁የኢን ተር
ከፋ ፈለ
▁ፅ ንሰ
▁ይፋ ዊ
▁የጉ ዳዩ
▁ሳያ ገኙ
▁ሳያ ገኝ
▁በ2 5
▁ግር ጌ
▁ልቦ ናዊ
▁ይመረ ጣል
▁ጃን ሆይ
▁የአህጉ ሪቱ
▁ሳህ ሌ
▁በተሳ ሳተ
▁ቅልጥ ፍና
▁ስታንዳ ርድ
▁ስንታ የሁ
▁በረን ዳ
1 1
ቋ ን
ኳ ል
▁ an
▁የ ዐ
▁በ ናይ
▁እ ሽ
▁መ ቅረፍ
▁ይ ፈር
▁ያ ከ
▁ስ ለት
▁የተ ረዳ
▁ሲ ለው
▁በተ ከናወነው
▁በተ ገናኘ
▁የአ ብዮ
▁የማ ውጣት
▁የም ሥ
▁ሥራ ዎቹ
▁በእ ለቱ
▁ከአ ስተ
▁ብዙ ዎቻችን
▁ተብ ዬ
መረ ተ
▁ለተ ወሰኑ
▁ሄ ዷል
▁የጥ ናቱ
▁ግንኙ ነትን
▁ሰብ ስበው
ናገራ ቸው
▁ውድድር ም
▁ተመል ሷል
▁የካ ሳ
▁በሚያ ሳ
▁የቻ ይናው
▁ሰብሳቢ ው
▁ሰብሳቢ ዎች
ደሰ ተ
▁አጀ ማ
▁በኤ ች
▁ይሰማ ሃል
▁በጽ ሑ
▁አዘ ዘ
ጠንቀ ቅ
▁ተሻ ግሮ
▁የሊ ቢያ
▁አርሶአ ደሩ
▁የተያዘ ውን
▁ባሻ ዬ
▁ቴክኒክ ና
መዛ ኙ
▁መናገራ ቸውን
▁የፍልስ ፍና
▁ለተጠቃሚ ዎች
▁በሳይ ንሳዊ
▁የታጀ በ
በልፀ ግ
ም ታ
ራ ቢ
▁ ፭
▁እን ሂድ
▁የሚ መለከ
▁ያ ደረሰ
▁ማ ቲ
▁እንደ ጀመረ
▁የተ ነሱት
▁በመ ፅ
▁በመ መስረት
▁ሲ ኖ
▁ሲ ጠ
▁ሲ ነሱ
▁በማ ሰልጠን
▁ቢ በዛ
▁አል ሚ
▁በሚ ኖሩ
▁ከመ ኖሪያ
▁ቡ ል
▁ጀ ማሪ
▁አት ራፊ
▁እር ሾ
▁የበ ታች
▁የማይ ገኝ
▁ለሚ ገኘው
▁ለሚ ኖሩ
ብራ ሩ
▁ግንኙ ነቱ
▁ቡድን ን
▁ጌ ጥ
▁አክ ራ
▁መሳ ፍንት
▁አግኝ ታለች
ጠቅ ስ
▁ኑሮ ውን
▁ዱ ባይ
▁ጠየ ቀው
▁ሣ ራ
▁ግር ማይ
▁በሳ ዑዲ
▁ተከታታይ ነት
▁ሼ ህ
▁እንደቀ ጠለ
▁የሚው ለው
▁የጀመሩ ትን
ገልጹ ት
r u
ለ ኛው
ም ቅ
ሬ ዝ
ቤ ያለሁ
ዊ ያው
ዝ ነ
ዮ ት
ፃ ቸው
ፋ ሎት
▁የ ቄ
▁በ ብራዚል
▁እ ደ
▁እን ሄዳ
▁ከ ጓ
▁ይ ላታል
▁የሚ ጠቀም
▁ብ ያለሁ
▁ብ ለናል
▁የተ ዘረዘ
▁ሲ ዳማ
▁ዘ ግና
▁ሊ ጎች
▁የማ ስፋፋት
▁በሚ ካሄድ
▁ከተ ፈጠረ
ተው ት
▁የሰ ነበ
▁እነ ዚያን
▁ተመ ላሽ
ኩል ነት
▁ለእ ይታ
▁የምት ኖር
▁ሂ ላሪ
▁ህዝብ ም
▁ቃ ለምል
▁አክ ለውም
▁ምስ ኪ
▁በበኩ ሌ
▁ባለው ለታ
▁የፍ ጥነት
▁በቅ ኝ
▁18 ,
▁ኢህአዴግ ም
▁ተቃዋሚ ዎችን
▁አዝ ማሪው
▁ከሕ ገ
ለየ ትና
▁መጽ ሃ
▁ገንዘ ባቸውን
▁ወሰ ኑ
▁ገዥ ዎች
▁የብዙ ዎች
▁መስሎ ኝ
▁ከድር ጅቱ
ጠባበ ቁ
▁ነቀ ፋ
▁ለዚያው ም
ቋ ማቱ
ዝ ሬት
ገ በያ
ፖ ል
▁መ ናገ
▁ለ ሱ
▁የሚ ሳ
▁ያ ተ
▁ብ ፁ
▁የአ ሳ
▁ለመ ገኘት
▁ለማ ቆየት
▁የሚያ ይ
▁ሊ ዮ
▁ሊ ወስድ
▁እየተ ጓዘ
▁ክፍ ላችን
▁በግ ምገማ
▁ከማ ኅ
▁በሰ ሜናዊ
▁በደ ሴ
▁አሰ በ
▁6 9
▁አክ ሎም
▁በ19 3
▁የሆነው ና
▁ተጠያቂ ው
ti ve
▁ገባ ን
▁በማን በብ
▁መግባ ቱ
en ce
▁ቲ ቪ
ጠመ ቅ
ቆይ ም
በሳ ጭ
▁ሎ ሚ
▁ከገ ጠር
▁መረ ባረብ
▁ተወስ ኗል
▁ኮሚሽ ነሩ
▁አትክል ትና
▁አድራጊ ነት
▁ያስገነዝ ባሉ
ንስቲት ዩቱ
▁እንሄዳ ለን
መ ናቸው
መ ጨረሻ
ቀ ጦች
ኦ ን
ፊ ክ
ፍ ቷል
▁የ ደር
▁የ ሄዱ
▁አ ፉን
▁ይ ሰው
▁ወ ራሽ
▁የተ ለጠ
▁ሁ ላችሁም
▁የአ ባት
▁የአ ደባባይ
▁ዘ በኛ
▁ከመ መ
▁ከአ ገልግሎት
▁የው ሀ
▁ላ ብ
▁ያሉ ና
ሞች ና
▁በነ ዳጅ
ጀመረ በት
▁አልተ ሳካም
▁በድ ምቀት
▁በጉ ዞ
ስፒ ታ
▁የህዝብ ና
▁በመስ ከረም
▁ደብ ተር
▁መመሪያ ዎችን
▁ፌ ስ
▁ህዝ ቦችን
▁በውስ ጤ
▁አጣ ዳፊ
▁ከፋ ይ
▁የተላ በሰ
▁ረድ ፍ
ጎለ በተ
▁አዘጋ ጆቹ
▁የአክ ሱም
▁ፍቅረ ኛ
▁ኢንጅ ነር
▁ሠዓ ሊ
▁ጭቅጭ ቅ
▁የእርግ ዝና
4 8
ሌ ክ
ል ንም
ሰ ሩት
ሽ ስት
ባ ቂ
ኃ ት
ነ በው
ደ ፈር
ዳ ደረው
ጉ ና
ፍ ረ
▁መ ወሰኑ
▁እን ሰማ
▁ከ ሻ
▁በመ ፈ
▁በመ ገረም
▁እንዲ ጠበቅ
▁ሲ ንቀሳቀሱ
▁የአ ዲሱ
▁ክ ብረት
▁እየ ጠበቀ
▁አለ ሁ
▁አገ ኛለሁ
▁ቅ ራኔ
▁ሴ ል
▁ዶ ላ
▁ጭ ካኔ
▁ይገባ ኛል
▁ሊያ ደርገው
▁ለተ ማሪዎች
▁አያ ና
ደን ቀው
▁ለኢ ህአዴግ
▁ፕሮግራ ሙን
▁የፈ ጀ
▁የፕ ላስቲክ
▁የሚያሳ ዩት
▁ግልጽ ና
▁ስትራቴጂ ካዊ
▁ምኒልክ ም
▁ፈጠራ ና
▁እል ል
▁በእን ጨት
▁ይወስ ዳሉ
▁ተሰብ ሳቢ
▁መዘጋጀ ታቸውን
▁በቀጣ ናው
▁መድሀ ኒት
▁ታጣ ቂዎች
▁ትንቢ ቶች
▁የኮንት ራት
▁በሚሊ ዮኖች
▁እገም ታለሁ
ላ ጅ
ላ ጎት
ሞ ኛል
ሰ ለጥ
ሸ ማ
በ ሽ
ቦ ና
ፃ ለች
▁እ ስትን
▁ያ ነሱ
▁ግ ሮ
▁ባ ሬ
▁በመ ሀል
▁በአ ደራ
▁የአ ገራቸውን
▁ወደ ታች
▁የማ በረታቻ
▁ባለ ፀ
ሎች ም
▁ቅ ጣቱ
▁በእ ድ
▁እየተ ነ
▁እየተ ና
ገራ ሉ
▁ጽ ድ
▁ማህ በራቱ
▁ጭ ነት
▁ስት ሄድ
▁ለተ ከታታይ
ውል ህ
▁ተስፋ ዎች
▁የጥ ላቻ
▁ሸ ን
▁ጸ ሀ
▁ባለመ ሆናቸው
ልህ ም
▁የሚተ ላለፍ
▁ወል ዴ
▁መፍ ራት
▁ታስ ረው
▁ዕርምጃ ዎች
▁ይረዳ ሃል
▁ሽን ት
▁ያዘ ለ
ተገ በረ
▁በአር ብቶ
▁በትክክለ ኛ
▁በነጻ ነት
▁አስጠን ቅ
ህ ነትና
ላ መድ
ራ ጃ
ባ ሪው
ኤ ልም
ዚ ዝ
ዳ ራሹ
ዳ ብሩ
▁ ዣ
▁የ ሹ
▁ይ ገድ
▁ተ መለከት
▁ማ ደሪያ
▁ው ጥ
▁እንዲ ፈ
▁እንዲ ደርሱ
▁ሲ ኖረው
▁ሊ ጋ
▁ቢ ታወቅም
▁እንዳ ና
▁እያ ከናወኑ
▁ሥራ ዬ
▁ከመ ናገር
▁የነ ቃ
▁የሰ ንደቅ
▁መንገድ ን
▁ማስ ገኛ
▁ሜ ክሲኮ
▁የበ ሽታው
▁ልዩ ነትን
▁ተከ ሰተ
▁በደ ፈ
▁አሰ ና
▁ለተ ግባራዊ
ነጋ ገረ
▁ሸ ሚ
▁9 8
ከብ ቶች
ባብ ዌ
▁ቋንቋ ና
▁በጉ ልህ
▁ፅ ንስ
▁እንዲያው ቅ
▁ብላ ተር
ርክ ና
▁አስመ ዝ
▁ፈተና ውን
▁ማለ ታቸውን
▁ኢትዮጵያውያን ና
▁ተዋ ንያን
▁ልን ገራችሁ
▁በሥራ ቸው
▁ባለቤ ትና
▁ጥቃ ቱ
▁ጠባቂ ዎች
▁በመም ጣ
▁ማግኘ ቱን
▁ለነ ፃ
▁ስፔ ን
▁በሥር ዓት
▁ሕዝቅ ኤል
▁የክር ስትና
▁በሳይንስ ና
▁ያከናው ናል
ሃ ለን
ለ ሞን
ብ ዓም
ኮ ማ
ዞ ታ
ዶ ር
ፋ ታቸው
▁ ዉ
▁በ ጠረ
▁አ ዱ
▁መ ደሰ
▁ያ ዕ
▁ያ ወጡ
▁ማ ጠራቀ
▁ም ዝ
▁የተ ገናኘ
▁ባ ክቴሪያ
▁በመ ቆም
▁በተ ነሳ
▁በተ ጀመረው
▁ዘ ሩ
▁አይ መጣም
▁የሚያ ድ
▁የማ ና
▁የማ ለት
▁የም ታው
▁መል ቀቅ
▁ን ገረኝ
ብረ ን
▁ማስ ጠበቅ
▁ዘር ዝ
▁ከእ ጅ
▁ከሚ ባሉ
ችው ና
▁ለው ድድሩ
▁በሰ ኔ
መል መል
▁ለማስ ፈፀም
▁የራ ሴ
▁አላ የሁ
▁ና ሽናል
▁የክ ፍለ
▁ጥቅ ምን
▁በፈ ቀደ
▁ሹ ክ
▁ከጎ ኑ
▁የሠራ ተኞች
▁ተክ ሌ
▁ከቆ ዩ
▁እንደሚያሳ ዩት
▁ተሸክ ሞ
▁ወንድማማ ቾች
▁የምትና ገረው
u b
መ ነው
ሣ ኔ
ር ቭ
በ ራል
ገ ረን
ጥ ጦ
ጫ ና
▁ ዎች
▁ ዒላማ
▁በ ቆይ
▁ከ ሳሽ
▁በመ ሳ
▁በመ ዲናዋ
▁ሲ ለኝ
▁ጥ /
▁እየ ገፋ
▁በሚ መ
▁ከተ ጠቀሱት
▁እያ ደረሰ
▁ኮ ማንድ
▁ያስ ቀመጠው
▁የህ ሊና
▁በግ ዞት
መው ም
▁ኪ ር
▁ኩ ር
▁እንዳለ ባት
▁አድ ም
▁አዳ ኝ
▁የጥ ጥ
▁በል ማቱ
▁ይታወ ቅ
▁ከባ ንክ
▁ኖ ረ
▁ከግ ብር
▁የዳ ሰሳ
ፈልገው ም
▁ዩ ን
▁አጠ ያ
▁አዝ መራ
▁ብን ሆን
ካተ ቱት
▁ቪ ዛ
▁በጋ ብቻ
▁በላ ዩ
▁ዝውው ርን
▁ኮንት ራ
▁ከዋ ክብት
▁እንደየ አ
▁ተከላ ካይ
▁ጭንቅ ላ
▁ኢስ ላማዊ
i th
ሬ ም
ብ ጥ
ብ ልስ
▁ለ 5
▁ተ ገለ
▁ማ ከናወ
▁ብ ሩን
▁ል ደታ
▁በተ ካሄዱ
▁ለመ ጎብኘት
▁ለመ ጨረስ
▁በማ ወቅ
▁ቢ ኒያም
▁የማ ስተካ
▁ከተ ጠ
▁ዓመ ታቸው
▁እስ ረኛ
▁ከአ ማራ
▁ድር ድሩ
▁ረ ጅ
▁ከማ ረጋገጥ
ሬት ስ
▁ተከ ስቷል
▁ፊ ቷን
▁እንቅስቃሴ ም
▁የለ በ
▁ቃ ላቸውን
▁ጸ ጥ
ራጭ ነት
▁የጎ ን
▁ንግ ድን
▁እንደማይ ገባ
ታፊ ዎች
▁ሕይወ ታችን
▁ፍሬ ዎች
ሰጣቸው ም
የሩሳሌ ምን
is m
▁ሙከራ ዎች
▁የሚገቡ ት
▁ሰብዓዊ ና
▁ማይ ክል
ቋር ጡ
▁ይኖሩ ታል
▁ለሽ ልማት
▁ያሸነ ፈው
▁ተኝ ቶ
▁ንፅ ህና
▁ለቀረበ ላቸው
▁መስታወ ት
u re
ሀ ድ
ቸ ን
ዲ ሶቹ
ገ ጥም
▁እን መረ
▁እን ውሰድ
▁ከ ኅ
▁የሚ ለይ
▁በመ ፍራት
▁ት ጥ
▁ዘ ጠና
▁ለመ በ
▁የሚያ ቀ
▁የሚያ ገኝ
▁ሳ ተ
▁ሕ ሙማን
▁ፍ ሪ
▁ፍ ኖተ
▁ከተ ወሰነ
▁ሌ ሎቹን
▁በእ ግዚአብሔር
▁የሰ ለጠኑ
▁ከፍ ት
▁የወ ል
ቦች ና
▁እኔ ማ
▁ጎ ረም
▁ተግባ ርም
▁አማ ልክ
▁በጥ ናትና
▁ለእ ግር
▁የመንግ ስትና
▁ለማስ ደሰት
▁ሰብ ዕና
▁ስሜ ታቸውን
▁9 00
▁የዘ ገየ
▁ገቢ ዎች
ላቀ ለ
▁ተግባራዊ ነት
▁አፍ ር
▁ኮን ሰርት
▁የመን ገዱ
ቃቸው ም
▁የሆ ስፒታሉ
ደፍ ርም
▁ከፋ ዮች
▁ንጹ ህ
▁ስለማ ያ
▁ለብዙ ዎች
▁ተመዝግ በው
▁የከ ብት
▁የሚስተዋ ለው
▁አጽ ንኦት
i b
ም ዶ
ም ራሉ
ረ ሩ
ጫ ሉ
▁የ ብራ
▁የ ፈጸሙ
▁በ ገና
▁ለ ሴ
▁ተ በርክቶ
▁የሚ ከፈለው
▁ብ ረታ
▁የተ ገመ
▁የተ ካሄዱ
▁በተ ባሉ
▁በተ ጠቀሱት
▁ዘ ልቆ
▁ለማ ወ
▁የም ስራ
▁አንድ ና
▁ዕ ገዳ
▁ሰው የውን
ምን ጭ
▁3 50
▁ዳ ያስፖራው
▁መካ ሄ
▁የስ ፔን
▁እንዲያ ቀርብ
▁የማይ ሰጥ
▁ዘመ ኑን
▁መር ጃ
▁ጣ ና
▁የምን ሰጠው
▁ፕሬዚዳንት ነት
መለስ ም
▁ተመል ሳ
▁ንግ ሥ
▁ስላ ሳ
▁መዋ ጋት
▁ደስታ ና
▁መሸ ፈን
▁ገባ ኝ
▁ሃሳ ቡ
▁ቀይ ሮ
▁የሆ ድ
▁አጣ ብ
▁አውቶ ብ
▁የእን ጀራ
▁የወረ ደ
▁እውቀ ትን
▁ጋዜጠ ኞችን
▁ተፈጽ ሟል
▁ፓኬ ጅ
▁ምእራ ፍ
▁አጠያ ያቂ
ራ ተኛ
በ ጅ
በ ለጠ
ቢ ዩ
ቨ ርሲቲ
ት ድርና
ኮ ብ
ዙ በት
ጋ ዴ
ፍ ሰስ
▁ ኘ
▁ ሪክ
▁የ ሦ
▁የ ታወቁ
▁በ ኖ
▁አ ረፍ
▁እ ጠይ
▁እን ጠይ
▁ተ ሿ
▁የሚ ቀጥ
▁ያ ሰቡ
▁ሰ አ
▁በመ ጡ
▁ድ መት
▁አይ ሁዳ
▁የም ንቀ
▁ካ ገኙ
▁ሜ ይ
መው ና
▁ባይ ቻልም
▁እንዳል ነበር
▁የኤ ርት
▁ይዞ ታዎች
▁የኮ ምፒዩተር
▁ንግ ዱ
▁የፈ ጣሪ
ገሩ ኝ
▁መግ ደል
▁ለማሳደግ ና
▁በሥ ጋ
▁ጂ ን
▁ከሥ ነ
▁ይቆ ያል
▁መፃ ፍ
▁ቀጣዩ ን
▁ፌዴራ ሊዝም
▁በዩ ናይትድ
a k
ለ ባበ
ሳ ያ
ደ ጉት
ዶ ኔ
▁ ﻿
▁በ ቪ
▁አ ኃ
▁ከ ፈለ
▁የሚ ሠ
▁ማ ት
▁ማ ፅ
▁ስ ገባ
▁እንደ ዚያው
▁የተ ሳትፎ
▁ል ከ
▁የመ ሩት
▁አለ ቆ
▁ሆ ዬ
ያን ና
▁እነ ኚህ
▁ለአ ር
▁የግ ምገማ
▁የሚያስ ቀም
ሰው ም
▁በየ እ
▁ላ ኪዎች
▁ሥር ጭት
▁ጭ ር
▁መረጃ ና
▁ለእ ስራኤላውያን
▁ሚኒስት ሩን
▁ከሆነ ና
ደራ ጅ
▁የጥ ቅም
ባንያ ው
▁ገብ ተን
▁ሕግ ጋት
ጀን ቲና
▁ወላ ጆቻቸው
▁የወጣ ቱን
▁ሕይወ ቴን
▁ልት ሆን
▁ለኢትዮጵያ ውያን
▁ታሪካ ቸው
ar d
▁አሻ ፈረኝ
▁ምድ ጃ
▁C h
▁አውቶ ብስ
▁አንገ ታቸውን
▁መቆየ ታቸውን
▁ለወጣ ቱ
▁ውዝ ዋዜ
▁በፅ ናት
▁ማራቶ ንን
▁ሯ ጮች
▁በፕሬዚዳን ትነት
▁አጠገ ቤ
▁ተቆርቋ ሪ
▁ያዕ .
ቸ ኝ
ች ባቸው
ኖ ቻችን
ኘ ሁ
ፈ ህ
▁የ ጠበ
▁በ ገባው
▁ለ ምና
▁ይ ሻለ
▁ተ ቻ
▁ማ ከማ
▁ሰ ዉ
▁በመ ቆ
▁ደ ወ
▁ት ይ
▁በአ ርባ
▁ሁ ናቴ
▁በተ ፈለገው
▁የመ ፅ
▁ለማ ቆም
▁የማ ሸነፍ
▁የማ ስተናገድ
▁ከተ ለመደው
▁መስ በክ
▁ቆ ጣሪ
▁ላ ኪ
▁እንዲያ ገለግሉ
▁ሲያ ሳ
▁በስ ልጠናው
ደረጉ ም
▁ለእ ንስሳት
▁መር ጠው
▁አትሌ ቱ
▁ይታ ዩ
▁ኢኮኖሚ ውን
▁የማስ ፈጸም
▁ያስተ ናገ
▁ሱዳን ና
▁ህይወ ትና
▁ቁጥጥር ና
▁በዋ ናው
▁ግለሰቦች ና
▁አቅራ ቢው
▁የጸ ሐፊ
▁የተዋ ጣ
▁የባለሙያ ዎች
▁ታኅ ሳስ
▁መሰብ ሰቢያ
▁ታጣ ቂ
▁መስህ ብ
▁ከፈለግ ን
▁ሹማ ምንት
▁ሰሎ ሞን
▁የክህ ሎት
▁የግንኙ ነት
▁የተትረፈረ ፈ
መ ላክ
ም ባብዌ
ር ቆስ
በ ኛው
ታ ለህ
ቴ ይ
ደ ፋ
ጋ ጠመ
▁አ ትን
▁መ ከፋፈል
▁ከ ብር
▁ከ ሴት
▁ከ ቻለ
▁ለ ሴት
▁ይ ማር
▁የተ ቻለ
▁ባ ዛ
▁ሲ ሞቱ
▁በተ ቀመጠ
▁የአ ንዳንድ
▁አይ ኖች
▁በማ ነ
▁ሊ ታወቅ
▁ሊ ረዳን
▁ጉ ርሻ
▁ደግ ነቱ
▁ፈ ይ
ቅር ታ
ከት ሉ
▁ተጠ የ
▁ሴ ንቲ
▁የሚያስ ገርም
▁ከእ ያንዳንዱ
▁አድ ጎ
▁ይጠ ብቅ
ፈር ዖን
▁መቀ ላቀል
▁የኤ ሌክትሮኒክስ
▁ከው ስ
▁መዋ ዕል
▁ከተሞች ና
▁ከግ ንዛቤ
▁ሕይወ ቴ
▁ጀም ረናል
▁በሃ ሳብ
▁ይፈ ታል
ልቃ ይ
▁አቅርቦ ቱ
▁ተመር ጠው
▁ዊ ሊያም
▁ከሶ ማሊያ
▁ይሞ ታል
▁አሃ ዝ
▁እስካል ተ
▁ከሆን ክ
▁ጻድ ቃን
▁ባህሪያ ት
8 8
ህ ይወት
ሊ ኮፕ
ሪ ቷ
ሲ ል
ባ በሩ
ተ ታ
ን ቆ
ጸ ት
ጸ ውን
ጹ ሕ
▁ ኋ
▁የ ፈለገው
▁አ ሮን
▁እ ሳቸውን
▁ከ ጨረ
▁ማ ሰራ
▁ው ሏል
▁ደ ኅን
▁ል ሂ
▁በአ መዛኙ
▁አስ ነስ
▁የመ ኝታ
▁የአ ረ
▁ለመ ፍ
▁ሥ ል
▁እንደሚ ሸ
▁አል ወጣ
▁በሚ ኖርበት
መለ ሱም
▁ቅ ሌት
▁ሳይ ኖረው
▁የእ ቅድ
ጠቀ መ
ሳይ ም
▁ከሚ ገባው
▁የበ ጋ
▁በጥ ምረት
▁ቴ ዲ
▁ትኩ ሳት
▁አለመ ሆናቸውን
▁እንደሚያ መለክቱት
ቀጥ ቀጥ
▁አፍሪካ ው
▁8 4
▁ስብ ሐት
▁መመ ሥ
▁በዘ መቻ
▁ከሰ ል
▁ወጪ ን
▁ተሰ ምቷል
ከታተ ለው
▁የዋ ለው
▁ዱ ር
▁ይመ ሳሰ
▁መሀ ከል
▁ቀዳሚ ውን
▁ዝግጅ ትና
▁ክህ ደት
▁ለአን ዱ
▁ተወል ዶ
▁ድረገ ፅ
▁የኬ ሚካል
▁ጠ/ሚኒስት ር
ላድ ሚር
▁በአደጋ ው
▁ያት ታል
▁በደፈ ናው
ሁ ትም
ሃ ይ
ለ ና
ረ ረ
ራ ረስ
ስ ስ
ቃ ጨ
ቋ ጦ
ታ ሽ
ቻ ልን
ዋ ርያ
ጅ ራ
▁አ ጋል
▁ከ 90
▁ለ ግለ
▁ይ ቆጣጠ
▁ተ ፈል
▁የሚ ስብ
▁ስ ፍር
▁ብ ሮ
▁እንደ ሰማ
▁የተ ገናኙ
▁ግ ሽበት
▁ት ወ
▁እንደሚ ታይ
▁በሚ ገኝበት
▁መስ ፈን
▁ከአ ለም
▁ሀ ኪም
▁የሰ ፈረ
▁ን ቃ
▁የወ ባ
▁የግ ዢ
▁ዘር ግ
▁ከእ ግር
▁ቢሆን ስ
▁እር ጥበት
▁ጽ ንፈኝነት
▁ሪ ፐብሊ
▁ስን ቱ
▁ስን መጣ
መዘ ግቡ
▁ከወ ሊድ
ሳዊ ው
▁እግ ሩን
▁ኪሎ ሜትር
▁22 ,
▁አወ ድ
▁ፈጥ ረዋል
▁የግድ ቡን
ከናው ናቸው
▁በፕ ሮጀክቱ
▁አውጥ ቷል
▁ኑ ር
▁እንድታ ደርግ
ስፋፋ ትና
▁በሕይወ ቴ
▁ይስተዋ ላሉ
▁ወንድሞ ቼ
▁ጭብ ጨባ
▁የሚጠብ ቁ
▁ማቆ ሚያ
▁ማሳደ ጊያ
▁በተሞላ በት
▁ልዕ ልና
2 6
ሳ ዕና
ት ራ
ቺ ስ
ካ ሁኑ
ጥ ተው
▁የ ጻፈው
▁ከ ፈተ
▁የሚ ተር
▁የሚ ይዘው
▁በመ ቻሉ
▁ት መስ
▁በተ ን
▁የመ ደራጀት
▁ዘ ገበ
▁ኢ ቴቪ
▁እየ ጠፋ
ራት ም
▁የም ድ
▁የም ላችሁ
▁ሚ ክ
ገባ ኝ
▁ሕ ብረተሰብ
▁እየተ መለከተ
▁ከአ ዘጋጁ
▁ብቻ ዋን
ለን ን
▁የስ ጋ
▁ማን ነታቸውን
▁ጽ ንፈ
▁እንደተ መለከተው
▁አጋ ሮች
▁ለተ ሻለ
▁ስለሚ ችሉ
▁ርዕ ዩ
▁የፍ ጻሜ
▁የተወሰ ነው
መደ በው
▁በስተ መጨረሻ
▁ጊ ቤ
▁ተን ተር
▁አረጋግ ጦ
▁የኃ ይማኖት
▁ፕሮፌ ሰሩ
ፎካ ከሩ
▁ከዘ ጠኝ
▁w h
▁የተቋቋ ሙ
▁ከሃ ይማኖት
▁ፎቶ ግራፍ
▁ቤተሰቦ ቹ
▁በሲ ቪል
▁ይል ቃል
ንጋ ፖር
▁የንግ ግር
▁ዘለ ቄ
▁ለማር ካት
▁እንመረ ምራለን
ለ ኪያ
ደ ላቸው
ዳ ሮች
ገ ሱ
ጠ በት
▁የ ሄደው
▁እ ታ
▁ይ ቃ
▁ተ ዋል
▁የሚ ጠቀምበት
▁የተ ኩስ
▁ሰ ፈሩ
▁ግ ርም
▁እንዲ ነሱ
▁በአ ዕምሮ
▁በተ ለመደው
▁የእ ህ
ምን ታት
▁የወ ላይታ
▁መሰ ረ
▁የነበረ ን
▁ወን ዶችን
▁እንዳይ ገባ
▁ኳ ታር
▁ዮ ሴ
▁ፍላጎ ቶች
▁መንፈ ሱ
▁አጋጣሚ ም
▁አግኝ ተናል
▁መነሻ ነት
▁የዓ መት
ለቀ ቀ
▁ከ3 5
▁በፊ ፋ
▁የኪ ነጥበብ
▁ተሰማ ው
▁በዳ ኝነት
▁በ199 6
▁በ199 8
▁የረ ሃብ
▁d e
▁ዓለማ ዊ
▁የችግ ኝ
▁ተባብ ሮ
▁ወፍ ጮ
▁በመካከላ ችሁ
ች ት
ከ ኖች
ዔ ል
ዶ ል
ጻ ሕፍት
ጾ ችን
ፈ ግ
ፊ ኔ
▁ ጧ
▁የ ፈጸመ
▁የ ከርሰ
▁በ ጄ
▁በ ፈጠረው
▁አ መለ
▁መ ናገሩ
▁ከ ጀርመን
▁ማ ጨስ
▁የመ ራ
▁ለመ ጫወት
▁በማ ለፍ
▁እየ መረ
▁ታ ታሪ
▁በሚ ኖረው
▁እየተ ራ
▁መስ ዋእ
▁ደረጃ ዎችን
ገለ ፅ
▁ነገ ም
▁በኢ ራቅ
▁እር ጉዝ
▁በጥ ራትና
▁ወር ልድ
▁የባ ዮ
▁የጥ ገና
▁በህ ዝ
▁ቃ ሊቲ
ጣል ያ
▁ስታ ስ
▁አስመ ላሽ
ፈፀ ሚያ
በራ ችን
▁ለዘ ለቄ
▁ፍሬ ው
▁ግዴ ለም
▁የእር ሱ
▁በሶ ማሌ
▁ደብዳቤ ዎች
▁28 ,
መጥ ን
▁ታሪ ኮችን
▁ብርሃ ኔ
▁ፍር ሃ
▁ግር ዛት
▁እግዚአብሔር ን
▁ጮ ክ
il l
ምግ ልና
▁በትር ፍ
▁ግማ ሹ
▁ወንጌ ል
▁ጣሊያ ኖች
▁ባለት ዳር
▁አመስጋ ኝ
ጋኒ ስታን
ማ ቸዋል
ቀ ይ
በ ከር
ከ ክ
▁በ ኤል
▁ከ ፈለገ
▁ነ ዉ
▁ወ ሲባዊ
▁በአ ጋ
▁የመ ረጥ
▁ለማ ነጋገር
▁እየ በዛ
▁ሊ ባኖስ
▁ካ ነሳን
▁ከተ ወሰኑ
▁ከመ ጠበቅ
▁የሰ ባት
▁ዝ ላይ
▁ለአ ጭር
▁የህ ዝቦች
በል ጸ
▁ጽ ፈዋል
▁በጥ ቅም
▁ወጣ ሁ
▁የምት ወ
▁ገንዘብ ም
▁ሸ ንጎ
▁በማስ ፈን
▁ኮን ሰር
ሮቹ ም
▁በፊ ልም
▁ምሥራ ቃዊ
▁ሽማግሌ ው
▁በሞ ባይል
▁የሚሸ ጡ
▁ግጭ ቱ
▁በፀ ሐይ
▁የተወለ ዱት
▁በንግድ ና
▁የአል ሸባብ
▁ወደተ ለያዩ
ation al
▁የመተ ማመን
▁መነሳ ሳት
▁ለወደ ፊት
▁የሚደግ ፍ
▁በሄ ክታር
▁ተሰሚ ነት
▁አልዓዛ ር
▁አብላ ጫ
▁የማስተካ ከያ
ሙ ሉ
ሠ ር
ሾ ሙ
ቀ ነ
ኪ ሎ
ዘ ንና
▁ ኾ
▁የ ፈጸመው
▁በ ደረሰበት
▁አ ሜ
▁ከ ግራ
▁ከ ልማት
▁የተ ደረ
▁ት ሄዳ
▁ዓ ረፍተ
▁ዘ ዬ
▁ለመ ጪው
▁ለመ ወዳደር
▁ለማ ትረፍ
▁ካ ስትሮ
▁ድር ድ
▁ላ ሳ
▁አው ር
▁አሳ ር
▁ኩ ባ
▁በት ጥቅ
ንጫ ፍ
▁ደን ታ
▁እሱ ና
▁ምስ ረታ
ልኝ ማ
▁ነበረ ብኝ
▁የፍ ጥረት
▁እንደሚያስ ፈልገው
▁የ1 5
▁እስራ ኤልን
▁ዐ ውደ
▁የቦ ክስ
▁ዋስትና ን
▁ሥልጣ ንን
▁ተመር ጠዋል
ዩኒቨርስቲ ው
▁በዲ ፕሎማሲ
▁መቁ ጠር
ስተናግ ዱ
▁ትሆና ለህ
▁ያሳስ ባሉ
▁ተቀይ ሯል
▁ተጓ ዥ
▁አዳራ ሾች
▁ዘግና ኝ
a in
ታ ችኋል
ኒ ዮ
ጐ ል
▁ ላክ
▁የ ጻ
▁እን ጠብ
▁ይ ፈጸ
▁ያ የሁ
▁ያ መለከተው
▁ማ ሪያ
▁ማ ካሄ
▁ባ ደረግ
▁አን ስ
▁የመ ቶ
▁የመ ለወጥ
▁ጉዳ ትና
▁እየተ ነሳ
▁ከመ ጠቀም
▁ከአ ንዳንድ
ማሪ ዎቹ
▁ቆ ላስይስ
▁እኔ ስ
▁በየ ቤቱ
▁አው ሎ
ንቀ ቁ
▁በወ ጪ
▁በብ ሔር
▁ደር ግን
▁መድ ቦ
▁በቅ ተዋል
▁ሥርዓ ትና
▁ሰፊ ው
▁የሚፈ ቅድ
ነታቸው ና
▁ድርጅቶች ም
▁ገጽ ታዎች
▁ተነ ጥ
▁ህክምና ው
▁መግባ ቱን
▁ብን መለከት
▁በመን ከባከብ
▁ሄደ ህ
▁የፍት ሐ
▁በሩ ቅ
▁C on
▁ሰባ ተኛ
▁ደጃ ች
▁ስለሌ ለው
▁በመንግሥ ቱ
▁አሳድ ሯል
ሻሽ ል
▁አጎ ራባች
▁አመላክ ተዋል
▁ግሪክ ኛ
▁ታጅ ቦ
▁ሬድ ዋን
▁ሄድ ኩ
▁ያካሂ ዳል
▁ዲፓርት መንት
▁ብሂ ል
ሊ ዮ
ሬ ተር
ባ ቱን
ቻ ርድ
ን ኮች
ኬ ቲንግ
ጠ ሪያ
▁አ ራዊት
▁እን ታ
▁እን ቀጥ
▁ያ ራ
▁እንደ ሞ
▁ግ ቡን
▁እንዲ ነግ
▁ት ተ
▁አስ ጠ
▁ክ ብራ
▁ለመ ፈለግ
▁ለመ ገመት
▁አይ ፈቀድ
▁የሚያ ረጋግጡ
▁ሊ ገድ
▁ታ ምሩ
▁አል መሰ
▁ከተ ረጋገጠ
▁ከተ መሰረተ
▁እየተ ደረጉ
▁ዝ ሙት
▁ን ጋቱ
▁ዳ ኒ
ደው ል
▁ጎ ርፉ
▁ተግባ ራቸውን
▁ዘር ግቶ
ወጣ ል
▁ዓይ ኑን
▁ሜ ሪ
▁ሞ ሪ
▁ተቀ ጥሮ
▁አሳ የ
ባለ ህ
▁ባህ ሩ
▁ባህ ሉን
▁እጅ ና
▁የቀ ብር
▁መቀ ራረብ
መሰ ግን
▁አማካ ሪዎች
▁መታ የቱ
▁ተማሪዎች ም
▁ማለ ፊያ
▁አስተሳሰብ ን
ነበ ቡ
▁ጠይ ቅ
▁እንደመ ሆኗ
▁ለራ ሳችን
▁ሥልጠና ው
▁መግባ ታቸውን
▁ሄደ ዋል
▁የፈጠ ሩት
▁በመጠ ኑም
▁የተጣ ራ
▁ይደ መጣል
▁ታማ ሚ
▁ታክሲ ዎች
▁ህፃ ናትን
▁በሕይወ ታቸው
▁በፍት ሕ
▁እንኩ ዋን
▁መምህራ ንን
▁ምሁራ ንና
▁በንግ ግር
▁ሸማ ቾች
▁የጀመር ኩት
ክራሲ ያዊ
▁በሒ ደት
▁ተፋሰ ሶች
▁አሰል ቺ
▁መሰጠ ቱን
ሕ ይወት
ራ ንና
ሶ ሳ
ቪ ች
ኒ ኬሽን
ክ ሯል
ዱ ላ
ዶ ቻችን
ጐ ድ
ጨ ትና
▁ ቸው
▁በ ዚች
▁አ ሰማ
▁አ ሽከር
▁እን ረዳ
▁ለ 20
▁ይ ዳር
▁የሚ ሸጥ
▁ያ ጥ
▁ወ ሲብ
▁በመ ነ
▁ሲ ችል
▁ሲ ጠበቅ
▁ል ቡን
▁አስ ረዳ
▁የመ መለስ
▁የአ ሉ
▁አይ ወ
▁ጋ ለ
▁እየ ባ
▁አገ ዳ
▁ከተ ጠናቀቀ
▁ያለ ፉትን
▁የሰ ፋ
▁ቦ ን
▁ነገ ረኝ
▁የሚያስ ታው
▁ቦታ ም
▁ከሚ ባለው
▁ሁለ ቴ
▁ወር ክ
▁ለተ ሰማሩ
▁ፊ ታቸው
▁እንቅስቃሴ ውን
▁ካል ታ
▁ማስተ ማሩ
▁ሻ ማ
▁መዝ ጊያ
▁አቋ ሙን
▁በረ ቂቅ
▁የሃ ገሪቱ
▁ስፖር ተኛ
▁በአን ዴ
▁የፀ ጉር
▁መፍ ቀድ
▁አዘጋጅ ተው
▁ፒ ተር
▁መጋ ረጃ
▁በኦሮሚያ ና
▁ተከሳ ሾች
▁ለሽ ያጭ
▁ተዳ ምሮ
▁ያሳድ ራል
▁ብልህ ነት
▁በማስቀ ረት
▁ፊልጵ ስዩስ
▁ሊታሰብ በት
▁በጊዜያዊ ነት
ሞ ቢ
ዜ ን
ፊ ቱን
▁የ ክልሎች
▁በ ያዘው
▁በ ጻፈው
▁ለ ጽ
▁ይ ካሄድ
▁የሚ ጫወተው
▁ማ ባ
▁ስ ግብግብ
▁ም ኑን
▁ብ ሏቸዋል
▁እንደ ነበራቸው
▁በመ ወያየት
▁ቀ ም
▁ዘ ራፊ
▁ዘ ገየ
▁በማ ሰ
▁ሊ ፈታ
▁ካ ደረግ
▁ሚ ስቶ
▁እያ ቀረቡ
▁ኮ ርያ
▁ያስ ከተ
ቀር ባለን
▁ገል ፆ
▁4 ኛ
▁ማን ዴ
▁ሞ ያ
▁ኃላፊ ነትና
ብራ ቶሪ
▁ዋጋ ቸው
▁ምስ ጋ
▁ምስ ክሮች
▁ሜዳ ዎች
▁ብሄ ረሰብ
▁የሚያሳ ስ
▁ለህ ክምና
▁የሚገባ ን
▁የሚገል ፁት
▁ይመ ራል
▁ጓደኛ ህ
▁ተመራ ቂዎች
▁የሚጠይ ቀውን
ፎካ ከር
▁የጽ ሕፈት
▁በቴ ሌ
▁አሳል ፌ
▁የበኩ ር
ልጥ ኖ
▁ተቆጥ ሮ
▁የተጠ ቃሚ
▁የተሸ ፈነ
▁የጋዜ ጠኞች
▁የሥር ዓቱ
▁የሚወጣ ውን
▁በሰማ ያት
▁ከኢን ዱስትሪ
▁በፓርቲ ው
በረክ ተው
▁እያገለ ገሉ
▁ቃለምል ልስ
ሩ ህ
ቆ ቃ
ባ ህ
ከ ደነ
ፆ ችን
ፈ ላጊ
▁አ ዞ
▁ከ ዋና
▁ይ ታደ
▁የሚ ቆጥ
▁ያ መለ
▁ማ ግባት
▁በመ ከላከያ
▁እንዲ ጠናቀቅ
▁አስ ነ
▁አስ ገባ
▁ገ ሚ
▁ለመ ገናኛ
▁የሚያ ደርሱ
▁ስለ ጉ
▁ካ ራ
▁ካ ልን
▁2 ለ1
▁ህ ወሓት
▁ያስ ታወቀው
▁አመ ቻች
▁ብሎ ታል
▁የሚያስ ገኘው
▁ተቀ ራራ
▁ተከ ባብ
▁ጣ ራ
መለከ ትን
▁ፀ ጥ
▁አገሮች ና
▁የጥ ሬ
▁7 1
▁ሸ ክላ
▁በነ ገው
▁10 ኛ
▁ቃ ጠሎ
▁የዕ ው
▁ቋንቋ ን
▁የሚታ ሰብ
▁ቀጥ ለው
▁ወጪ ው
▁ድል ድል
▁ለሕ ዝ
▁ጳ ጉ
▁እንደመ ሆናችን
▁የደረ ሰባቸውን
▁ይበ ጃል
▁እርግ ማን
▁የፌዴራል ና
▁ሃይ ሉ
▁በሳ ቅ
▁የቡ ድ
▁የተጋ ለጠ
▁ግጭ ትና
ረሰ ቦችን
▁የሚለ የው
▁ለሥራ ው
▁ከነዚህ ም
▁ወላጆ ቼ
▁ከ8 00
▁ያቀረቡ ትን
▁አስችሎ ታል
▁የፌዴራ ሊዝም
▁ወፍራ ም
ለ ወጡ
ከ ታቸው
ካ በት
ዩ ኝ
ዳ ሰስ
ዶ ቻቸው
ፃ ን
▁በ ችግ
▁በ ፓርኩ
▁አ ላፊ
▁ይ ቀርብ
▁ይ ቆጥ
▁የሚ ገመ
▁የሚ ናገረውን
▁ግ ዛው
▁በመ ለወጥ
▁ል ሳን
▁የመ ድብለ
▁የአ ርባ
▁ገ ቢያ
▁ለመ ሸጋገር
▁በማ ድ
▁እየ ፈጠሩ
▁ታ ር
▁የማ ዘውተሪያ
▁ፈ ውስ
▁አም ሮ
▁እየተ ለመደ
▁ከመ ተ
▁ከአ ፍ
▁ሙ ጋቤ
ገኘ ታቸው
▁ኢትዮጵያ ው
▁ቦ ክስ
▁ተመ ቻች
ነሳ ሳ
▁በግ ፍ
▁ር ካሽ
▁ልጅ ቷ
▁የታ ነ
ገቡ በት
▁በት ሕትና
▁በህ ዝቦች
▁ጦር ነቶች
▁ለማሳ ለፍ
▁11 0
▁ተመል ሰዋል
▁በጉ ባዔው
ቀበ ሌ
▁ፋብሪካ ዎችን
▁የዓ ረብ
▁ፌ ደራ
▁ትክክለኛ ነት
▁ማህበራት ን
▁ብሔር ተኝነት
▁አገሪ ቷን
ጋጠ ሙ
▁ቸ ርነት
▁አንቺ ም
▁ግጭ ቶችን
▁ተወስ ዷል
▁ፍትሕ ን
▁ለመን ገድ
▁ለደ ቡብ
▁የመካ ከለኛ
▁በማለ ዳ
▁በአሥራ ዎቹ
ቡላ ንስ
ሃ ው
ህ ዴን
ሚ ያን
ር ቻ
ሰ ቢያው
ሼ ል
ዓ ላት
ዝ ኑ
ጰ ያ
▁የ ኳስ
▁አ ብር
▁ከ ጀመር
▁ተ ሹ
▁የሚ ላ
▁የሚ ገለጽ
▁ስ ሰማ
▁ብ ሏቸው
▁ግ መ
▁ባ ጠቃላይ
▁ደ ፍ
▁ደ ጀን
▁ሲ ቀርቡ
▁ሊ ቀርብ
▁በሚ ታ
▁እስ ያ
▁እያ መጣ
▁ለአ ፍ
▁እስከ ሆነ
▁የግ ንባታው
▁አደ ባባ
▁ላ ላ
▁በግ ላቸው
▁ሞ ቃ
▁በስ ዊ
▁የሚለው ም
▁ለተ ጎዱ
▁በት ልቅ
▁20 ,
▁አላ የ
▁ዮ ርክ
▁በል ጅነት
▁ቆይ ታው
መሰ ግና
▁በ19 80
ቆጠ ቡ
▁እውነ ታዎች
▁የሞ ላ
▁ስለመ ኖሩ
▁የኃ ይ
▁የዜ ግነት
▁መሬ ቶች
▁መመር ያው
▁ተመር ቀው
▁ተዘጋጅ ተው
▁ኢንስ ፔ
ቀመጡ በት
▁ንግግ ሮች
▁መሲ ሑ
▁ትሪ ሊዮን
▁በወጣት ነት
▁ከተመ ሠረተ
▁እጥ ረቱ
▁እንዳይመስ ላችሁ
ቨርፑ ል
ሬ ቻ
ሳ ቆ
ቆ ምና
ኬ ን
ዝ ማ
ጢ ፋ
ፈ ረን
ፓ ል
▁እን ቢ
▁እን ተ
▁ከ ፈረ
▁የሚ ፈጸመው
▁የተ ሳተፉት
▁ባ ርነት
▁ሲ ሞክሩ
▁አስ ደግ
▁የመ ኸር
▁የአ ብ
▁ባለ ባቸው
▁የም ህ
▁በሚ ፈቅደው
▁ህ ሙማ
▁ያለ ህን
▁እየተ ባሉ
▁መስ መሩ
▁ሞ ኝነት
▁አር ቆ
▁ማህ ፀን
▁ክል ክል
▁ለም ሣሌ
▁በት ላልቅ
▁እንቅስቃሴ ና
▁ሶ ማሊ
▁ወጥ ተን
▁ለማሳ ወቅ
▁ስታ ደርግ
▁እውነ ቴን
▁ሚና ውን
▁የክ ፉ
ከፈ ተው
▁የሚያሳ ዝን
▁ማር .
▁በመተ ማመን
ጠነ ቅ
▁ተሞክሮ ዎችን
▁በዳ ይ
▁ለል ጅ
▁ከየ ካቲት
▁የሊ ግ
▁የትም ክህ
▁መብራ ቱ
▁ድክመ ቶች
▁ሐረር ጌ
▁የበዛ በት
▁በአመራ ር
▁ተሻሽ ሎ
▁ፊልጵ .
▁ግሎ ባል
q u
ሔ ዱ
ራ ፒ
ስ ታዊ
ነ ኞቹ
ዳ ሪዎች
ድ ቀት
ጃ ዝማች
ገ ቧ
ጉ ላ
ጨ ን
ጮ ኸ
ጽ በት
▁የ 40
▁በ ክለቡ
▁ለ ሲ
▁ያ ሰማ
▁ማ ገልገ
▁ብ ዛትና
▁እንደ ወ
▁የተ ጓ
▁የተ ተረጎ
▁አስ ቀር
▁ኢ ቢሲ
▁ወደ ሆነው
▁የማ ልማት
▁መል ሼ
▁ዝ ንጀ
▁ሃ ቅ
▁አበ ቃ
▁እስከ ዚህ
▁ቆ ሟል
▁የው በት
ስፋ ትና
▁ከሚ ኖሩ
▁በሰ ለጠነ
▁አምላክ ም
▁የሕ ብረተሰብ
▁መጥ ራት
▁ጌ ታው
▁አጋጣሚ ው
▁አካባቢዎች ም
▁ዜጎች ም
▁ተጫዋ ቹ
▁ወታደ ሮችን
▁ክብር ን
▁ሠራተኞች ና
▁ኢትዮጵያዊ ነት
▁ሬ ሳ
▁የባለ ድርሻ
▁ቂ ጣ
▁መሆናቸው ም
▁አንድም ታ
▁ህብረተሰቡ ም
▁እቅ ዱን
ወል ዱ
▁ተገንዝ በው
▁ብዝ ኃ
▁መልዕክ ቶች
▁ስታድ ዬ
▁ለመም ሰል
▁እንደሚጠበቅ ባቸው
▁ከመካ ከላቸው
▁በአራ ተኛው
▁ተለው ጦ
▁ወገኖ ቻችን
▁ፀሃ ፊ
▁አስፋ ፊዎች
▁ታገኛ ለህ
▁የትር ጉም
/ ም
i al
ሎ ቻቸውን
ረ ኩ
ረ ሳው
ራ ቂ
ጆ ቻችሁ
▁የ ጉምሩክ
▁በ ርት
▁እ ፍ
▁ከ ቻሉ
▁ይ ርጋ
▁ወ ገብ
▁ም ላስ
▁እንዲ ጠብቁ
▁በተ ከናወኑ
▁በተ ማሪዎች
▁ዘ ረኝነት
▁ቅ ናት
▁ሰው ነቱ
▁የነ ገረ
▁የእ ያንዳንዱ
▁ድር ሳ
▁ቁ ራ
▁ራ ሳችሁ
▁ያል ቻለ
▁በግ ሪክ
▁አሳ ሰበ
▁ፓርቲ ውን
▁ድጋፍ ም
▁ግንባታ ም
ቻል ኩ
▁ቋ ት
▁የነበረው ና
▁ሻ ንጣ
▁የካ ቶሊክ
▁ዋንጫ ዎችን
▁ጆ ሴፍ
▁ሪፖር ቱን
▁የፋ ሲካ
▁አወ ሳሰ
▁አጠና ቀው
▁ከህ ግ
▁ግዴታ ውን
▁የሽብር ተኝነት
▁አየ ህ
▁አርቲ ስ
▁ለበ ጎ
▁ይፈጥ ራሉ
▁የያዙ ትን
▁የመነ ሻ
▁በግንባ ታው
▁የተካሄደ ውን
▁ዲፕሎማ ቶች
▁ቢደረግ ም
▁ደረስ ን
▁የተጠረ ጠሩ
/ 201
1 2
መ ቱን
መ ሩን
ም ንም
ር ቁ
ቂ ቁ
ቷ ና
ኒ ንግ
ወ ስን
ዷ ት
ጁ ት
ፊ ኬት
▁የ ፍራ
▁አ ዶ
▁እ ጥረ
▁መ ገምገም
▁ከ ከ
▁ከ ችግሩ
▁ለ ሩ
▁ያ ሰራ
▁ማ ሊ
▁ት ውው
▁አስ መራ
▁ክ ሪስ
▁አይ ሁን
▁ካ ራቴ
▁ሳይ ጨምር
▁መስ ፈሪያ
▁ሴ ሎች
▁ዶ ክትሬት
▁በኢ ፌዴሪ
▁በግ ቢው
▁የማይ ታሰብ
▁ባህ ሎች
▁ትን ቅንቅ
▁ባይ ባልም
▁አፈ ታት
▁የሥ ልጣኔ
▁ከነ አ
▁አቅጣጫ ዎችን
▁አልነበረ ኝም
▁ይዘው ት
▁በኮ ሌ
▁የሚተ ዳደሩ
▁መወ ዳደር
▁ሰጥቶ ታል
▁ከፊ ታቸው
▁ሥልጣ ናቸውን
▁በሩ ዋንዳ
▁ምህ ንድስና
ዘረ ጉ
▁ያደ ገው
▁ይዛ ለች
▁መቀመጫ ውን
▁ተጨ ምሮ
▁ተሃድሶ ው
▁መሥራ ች
▁የኮንት ሮባንድ
▁ይቀበ ላል
▁አስፍ ሯል
ሰ ሰው
ቅ በት
በ ታችሁ
ብ ሶ
ቻ ሉም
ነ ታችሁ
ዕ ዝ
ጥ ሉ
ጽ ፉ
ፒ ንስ
▁በ ሎ
▁አ ጭ
▁ይ መዘ
▁ም ፅዋ
▁ት ሠራ
▁ት ህትና
▁የመ ቅ
▁ሊ ሳካ
▁የኢ ራቅ
▁የኢ ስላሚክ
▁የእ ስር
ረጋ ል
▁ወር ሃዊ
▁ሚኒስት ሯ
ከራ የት
▁ዴ ሞክራቲክ
▁መቀ በ
▁አቅር ቡ
▁የሁ ላችንም
▁አስታው ሶ
▁በገ ነት
▁የተወሰ ዱ
▁ያስተ ናግ
ኔት ወርክ
▁ክት ት
▁ከት ዳር
▁ለጎ ንም
▁ለል ጆች
▁ስኬታማ ነት
▁ድህ ነትና
▁እንደሚኖር ባቸው
▁ትርጉ ሞች
▁ማቅረ ቡ
▁ለፕ ሬዚዳን
▁198 3
▁ፍራን ክ
▁ያስታወ ሰው
▁ተዓ ምር
▁ዘዳ .
▁ከሁለ ተኛው
▁አተኩ ሮ
▁ነግረው ናል
▁እሰጣ ለሁ
▁ውቅያ ኖስ
ላ ጠፈ
ል ልቅ
መ ርት
ራ ሱ
ቄ ን
ከ ምና
ክ ረዋል
ያ ኔ
ደ ትም
ፕ ል
ፖ ች
▁ ኸ
▁የ ፉ
▁እ ሠራ
▁መ ከተ
▁መ ፈረ
▁ለ ነበሩ
▁ተ ፈጸመ
▁ያ ያል
▁የተ ቸ
▁ባ ካሄዱት
▁እንዲ ጠቀም
▁እንዲ ከናወን
▁አን ሶ
▁አን ኳር
▁አን ፈልግም
▁ጥ ንት
▁በተ ናገረው
▁በተ ረጋጋ
▁የመ ገን
▁የአ ቅርቦት
▁በማ ጎልበት
▁እየ ሰማ
▁ሊ ሄድ
▁በሚ መስል
▁እያ ልክ
▁እያ ደጉ
▁አስተ ማሪዎች
▁ሳይ ሉ
▁በየ ካቲት
▁4 .
▁ለው ድድር
▁ባህ ላቸውን
▁እኛ ንም
▁እንደሚያ ገኝ
▁ስን ሄድ
▁የለ የ
▁ለኢ የሱስ
▁ፍት ሀዊ
ከታተ ሉት
▁በመስ ክ
▁ተነ ስተን
▁ተን ሰራ
▁መግባ ታቸው
▁አድራ ሻቸው
▁አረ መኔ
▁ለግ ንባታ
▁መሬ ትና
▁ጠር ሙስ
▁ፍል ሰት
▁መዋቅ ሮች
▁ምርም ሮችን
▁የመረ ጠው
▁የሚያነሳ ሳ
▁የሚፈጽ ሙ
▁አገና ኝ
▁ቆጣ ቢ
▁አተገባ በር
▁ሰንጠረ ዥ
ተ ኞቹን
ዌ ት
ያ ዛቸው
ፋ ውን
▁የ የት
▁አ ጭበር
▁መ ጎ
▁መ ወጣ
▁ከ ክልሎች
▁ያ ጠናቀቀው
▁ሰ ዶ
▁በመ ስራ
▁በመ ቁጠር
▁እንዲ ሳተፍ
▁ት ኖ
▁ት ሰጣ
▁ል ቅ
▁የአ ገሬ
▁ድ ቻ
▁ቀ ኖች
▁አይ ተን
▁እንዳ ደረ
▁ጠ ቦ
▁ፍ ንዳ
▁በሚ ኖሩበት
ግባ ኝ
▁የሰ ፈሩ
ገለ ገል
▁የግ ልና
▁በቀ ለም
መስ ጠት
▁ላ ንተ
▁ዕድ ሎችን
▁ሜ ካ
▁ሽ ኩ
▁መጠ ራ
▁ድርጅ ታቸው
▁በ1 00
▁አንዳ ርጋቸው
▁አለመ ታ
▁ሂ ዱ
▁8 8
ወር ወር
▁ፓ ወር
▁ሀገር ን
▁እም ነታቸውን
ሳተፉ በት
▁ከታ ሪክ
▁ወል ድ
▁መፍ ሰስ
▁ተቀብ ለዋል
▁በትምህርት ና
▁ልም ዶች
▁የን ቅናቄ
▁መምጣ ታቸው
▁ስምም ነቶችን
▁ለ1 5
▁ለሀ ገሪቱ
▁ብራ ንድ
▁የሚባሉ ትን
▁ይስ ሐቅ
▁ማም ለጥ
▁ውብ ሸት
▁ሲታ ዩ
▁የእና ቶችና
▁የማጣ ራት
▁የዚያ ኑ
▁የአፈ ፃፀም
ካካ ስ
ሃ ቸው
ሠ ው
ሰ ሲንግ
ኒ ካል
ና ነት
ዋ ንም
ዋ ንን
ጉ ዳት
▁በ ቼ
▁እ ሞክራ
▁መ ፈተ
▁ከ ሴቶች
▁ለ ደቀ
▁የሚ በል
▁ያ ተረ
▁ያ ዳግ
▁ያ ረጋገጡት
▁ማ ሪ
▁ማ ሳተፍ
ሆኑ ን
▁የመ ግባት
▁ለመ መርመር
▁ለማ ረም
▁የሚያ ራም
መለ መ
መለ ስና
ላት ያ
▁ከፍ ቷል
ሽን ና
▁ነገ ዶች
▁ምር ቶቻቸውን
▁ጥያቄ ዎችና
▁ረ ሃ
ፈት ሽ
▁ዮ ፍታ
▁10 ሺ
▁የዘ ገበው
ፈራ ረስ
▁መንፈ ስን
▁መው ጣቱ
▁ኢንዱስትሪ ዎችን
▁የተወሰ ነውን
▁ባሻገር ም
▁የፀ ጥታው
▁ለሕ ይወት
▁ሰራ ተኞችን
▁ህግ ን
▁ሙዚቃ ዎች
▁በመን ገዱ
▁ጓደኛ ሞች
▁ከመንግ ሥ
▁A f
ሰና በቱ
▁ምድ ሪቱን
▁ተው ኔ
▁ከፋ ዩ
▁ንብረ ቱ
▁በቡ ድኑ
▁ፎቶ ግራ
▁ድምፃ ዊ
▁የሚያስች ላቸው
▁ይይ ዛሉ
▁ተባብ ረው
▁ፆ ታዎች
መላ ከት
▁ይመር ጣሉ
▁አስከት ሏል
▁ኤልሳ ዕ
▁የኤች አይቪ
▁ተዳር ገዋል
▁ከመነ ሻው
▁መቀዛ ቀዝ
▁ጲላ ጦስ
▁አስመዝ ግባ
ሮ ቼ
በ ኩ
ኡ ዲ
ዋ ጭ
ደ ባቸው
ዳ ድረው
ጠ ላቸው
ጥ ጥ
ፅ ያን
ፍ ሎ
▁በ ከፋ
▁የሚ ዘጋጁ
▁በመ ጋቢት
▁በመ ገምገም
▁በአ መ
▁የአ ቅ
▁ክ ሪ
▁ኢ ድ
▁እየ ቀረ
▁ሊ ካሄድ
▁ታ ምና
▁እንደሚ ተ
▁እንደሚ ጀመር
▁አል ኳቸው
▁ከተ ጋ
▁ሙ ዝ
ታው ያን
▁ልጅ ነት
▁ኦ ሊምፒ
▁ለእ ሷ
▁6 1
ንቀ ላ
▁የገ ጠመ
▁ግንባታ ዎችን
▁7 6
▁ሰብ ለ
▁ፈቃ ዱን
▁አክ ሎ
▁አክ ባሪ
▁አጥ ንቶ
በልጥ ም
▁ከሰ ጠ
▁ተፈ ቅ
▁እም ነቱ
▁ቡና ን
▁በማሳ ወቅ
▁በፕ ሮጀ
▁ሕክምና ው
▁ዳን ስ
▁መቻ ላቸው
▁ተለይ ተዋል
▁ፍቃ ደኛ
▁የሰማ ሁት
▁ጡ ር
▁ይጠብ ቁ
▁የተላ ከ
ስትራ ክተር
▁ገላ .
▁ከቁ ጥጥር
▁አሌ ክስ
▁ለንጉ ሡ
▁በኒው ዮርክ
▁ሲም ፖ
▁ቭ ላድሚር
l y
በ ታለች
ቴ ት
ቶ ሊ
ግ ራት
▁የ ከሰ
▁አ ፉ
▁አ ወቅ
▁መ ገር
▁ከ ቀረቡ
▁እንደ ቻሉ
▁በመ ነሳ
▁ሲ ፈ
▁ድ ሮም
▁ኢ ኮኖሚያ
▁አይ ቪ
▁አይ ና
▁ታ ቦር
▁ቢ ቀ
▁አለ ባችሁ
▁አል ፈን
▁በሚ ወስደው
▁ከመ ግለጽ
ጠና ከሪያ
ጠቀ መው
▁ጨ ቅላ
▁የህ ጻናት
▁በም ሬት
▁ከሚ ታ
ናው ቀው
▁5 .
▁የታ ቀደው
▁እድ ሳት
መል ኩ
▁ለተ ጎ
▁አላ ደረገም
ሳል ፍ
▁በነ ፍስ
▁ገለ ፀ
▁ወጪ ና
▁የተቀ ደሰ
▁ቢያ ደርግ
▁በአን ዲት
▁አዝ ማሪ
▁ሻምፒዮና ዎች
▁የተመረ ጠ
▁ተስማ ምቶ
▁ከገ ጽ
▁ሽን ፈ
▁የሚጠቀ ሙት
▁ተበ ታት
ፈና ቀሉ
ቤል ዩ
▁ለቤተ ሰቡ
▁ተሽከርካሪ ዎችን
ጠናቅ ቁ
▁የሜዳ ሊያ
▁ታካሚ ዎች
▁በባለሙያ ዎች
▁አስተዳ ደግ
▁መፈጠ ሩን
▁የሰፈነ በት
▁መልቀ ቂያ
4 5
ስ ቀስ
ብ ዙ
ኩ ለት
ይ ቱን
ዮ ብ
ጣ ጠል
ፃ ል
▁በ ሰራ
▁እ ጀ
▁እ ቤት
▁ከ ቫይረሱ
▁ለ ለውጥ
▁ማ ውጣ
▁ማ ደራጀት
▁ስ ፖ
▁ው ፍረት
▁ደ ሴቶች
▁ጥ ረቱ
▁ጥ ራቱ
▁ል ቤን
▁ድ ሆች
▁ዘ ም
▁ወደ እ
▁ለማ ብቃት
▁የሚያ ጠነ
▁እንደሚ ጨምር
▁እና ቶችን
▁አል ኳት
▁በእ ነርሱ
▁አም ድ
▁ያስ ፈለገው
▁ምክንያ ቶችን
▁ደረጃ ቸው
▁ለአ ትሌ
▁ዳ ሽን
▁ፓር ኮችን
▁ተከ ፍቶ
▁አያ ድር
▁ከ1 50
▁በል ቶ
▁12 ኛ
▁በዘ ፈቀደ
▁ዓላማ ቸው
▁ምሳሌ ዎችን
▁እንዲሆን ና
ዳዳ ሪው
▁የቻ ን
▁ወዳ ለበት
ጠብ ቃቸው
▁የሚፈ ቱ
▁አሰራ ርና
▁ማር ቲን
▁ዘመናዊ ና
▁ክልሎች ም
▁አነስተኛ ና
▁ትዕ ይን
▁ለግ ንባታው
▁የወሰ ዱ
▁በ199 2
▁መደ ብር
▁በየት ኞቹ
▁ሰዓ ሊ
ቀና ጀት
ተኩ ሩ
▁ጥፋ ትና
▁ቼ ስ
▁ተቋቁ ሟል
▁ያድ ጋል
▁ተወያይ ተዋል
▁ያደርጉ ታል
▁ናፍ ቆት
▁የተሞ ሉ
▁አስተባባ ሪው
▁ቅንጅ ታዊ
▁የመወ ዳደሪያ
▁ማጠራቀ ሚያ
ስ ሙላ
ዲ ፈቻ
ዽ ያ
ገ ደው
ፌ ሰር
ፔ ሻ
▁ከ ዝ
▁ከ ዩ
▁ይ ልና
▁ይ ናገር
▁ይ ረዱ
▁ተ ጠናቀቀ
▁የሚ ስተዋል
▁ስ ቱዲዮ
▁ም ሬ
▁ም እ
▁እንደ ቆየ
▁የተ ጨ
▁የተ ጨማሪ
▁ግ ትር
▁ባ ላን
▁እንዲ ገነባ
▁እንዲ ይዙ
▁ሲ ሉት
▁ዓ ሳ
▁ኢ ጋድ
▁ሊ ነሳ
▁ቢ ነ
▁ጉ ጉ
▁የማ ለፍ
▁የማ ጠናከር
▁ሚ ካ
▁መን ገር
▁እየተ ጠቀሙ
▁ቁ መት
ስፋ ልት
▁መጠ ንም
▁ቴ ዎ
▁ድጋ ሚ
▁ተስፋ ን
▁ተደር ሶ
▁ሰጥ ቼ
▁መመ ራት
ቀም ቴ
▁ቱ ሪስት
▁ያላ ነሱ
▁ተሸ ል
▁ዛ ምቢያ
በላ ሸት
▁ጀም ራለች
▁የደረ ሱት
ዋቂ ዎች
ሰማሩ በት
▁በሐ ዋሳ
▁መገኘ ታቸው
▁የወደ ቀ
▁ለት ዳር
▁የብዙ ዎችን
▁ለበ ዓሉ
▁አደረ ሳችሁ
▁ማኔ ጂንግ
▁አዙ ሪት
▁ሾፌ ር
▁ለዴሞክራሲ ያዊ
▁ተዛ ማጅ
▁ሶፍት ዌር
ሪዝ ምና
▁የአጥ ንት
▁ለጦር ነት
▁አስፋል ት
▁እንቀጥ ላለን
ላ ሴን
ሰ ፋ
ቄ ዶ
በ ቀ
ክ ርም
ጆ ቿ
ፋ ተኝነት
▁በ ጌታ
▁እ ጦ
▁መ ቃወ
▁እን የው
▁ይ ሠሩ
▁ይ በላ
▁የሚ ወሰደው
▁በመ ሠረተ
▁ሲ ንቀሳቀስ
▁ሲ ገባቸው
▁ለመ ቅረ
▁ኢ ላማ
▁የማ ማከር
▁ጠ ረፍ
▁ቅ ጂዎች
▁አባ ላ
▁አድር ሶ
▁ቆ ሜ
▁እር ሳቸውን
▁ሲያ ጋጥም
▁ስት መጣ
▁አትሌ ቶቹ
ለህ ም
▁መግለ ፅ
ስማ ን
ሄዱ ም
▁ከበ ድ
▁በመስ ኩ
▁የተመ ቸ
▁ከታ ላቁ
▁የሚገል ጸውን
▁የቤተ ሰቡ
▁እርግ ፍ
ገለግ ለው
▁ደራሲ ና
▁በቆ የ
ar y
▁ኤር ፖርቶች
▁በእን ደዚህ
▁የተሰማ ራው
▁የአይ ሁድ
▁የ2 5
▁ይደር ሳሉ
▁የሚስተዋ ለውን
▁ለቤተ ሰብ
▁D e
▁የተፋ ሰሱ
▁እርሷ ም
▁ባለጸ ጋ
▁መታቀ ዱን
/ 0
ለ መድ
ዘ ፍ
ዛ ውን
ዲ ሾ
ዳ ስ
▁መ ጤ
▁የሚ ቀመጥ
▁እንደ ዋ
▁የተ ፈታ
▁ው ግ
▁ሲ ሞ
▁ል ቡና
▁በአ ገራዊ
▁ለመ ነ
▁ለመ ገናኘት
▁ለማ ዘመን
▁በማ ካተት
▁የሚያ ዝ
▁ሊ ዝ
▁ዕ ቁ
▁ከአ ገራቸው
▁አባ ቡና
▁ሆኖ ታል
▁በር ሱ
▁አበባ ም
▁በየ ዘርፉ
▁ላ ቦራቶሪ
▁ለም ለም
▁ተከ ብሮ
▁አትሌ ቷ
▁ማሳ ለ
▁ፕሬዚዳን ቶች
▁መው ረጃ
▁ከሌ ለው
▁የቆ ሙ
▁እንዳል ቻሉ
▁የሀ ዋሳ
▁ኖ ሯቸው
▁ለሌ ላቸው
▁ሕዝ ቦችን
▁በ199 4
▁አዘ ነ
▁ተዘጋጅ ተዋል
▁ነግ ሬ
▁የፈረን ጅ
▁ለጉ ዳት
▁አሠልጣ ኞች
▁በአል ጋ
▁ጠንቅ ቀው
▁በኅ ብረት
▁የር ዕ
▁የአዋ ጁ
▁የአትሌ ቶች
▁በአቅራ ቢያው
▁ይወድ ቃል
▁ተፈጽ ሞ
▁አሟል ቶ
▁ይመለ ሳሉ
▁አስገኝ ቷል
▁ያውቁ ታል
▁ወደሌ ላ
▁አወጋ ገድ
a il
ላ ላፊ
መ ችው
ሠ ራት
ኖ ና
ኦ ክራሲያዊ
ዳ ዮች
ድ ቋል
ዶ ስ
ጸ ባርቅ
▁እ ሰራ
▁መ ከሰት
▁መ ቋረጥ
▁መ ማሪያ
▁ነ ካ
▁ይ ፍ
▁ተ ኛ
▁የሚ ቀጥለው
▁ው ሣኔ
▁በመ ሳብ
▁ት ብብ
▁ቀ ጠና
▁ለመ ፈ
▁ጋ ሪ
▁እንዳ ለች
▁አካ ቶ
▁ችግ ኞችን
▁ከመ ረ
▁ከመ ጋቢት
▁ከአ ገራችን
▁ዳ ባ
▁ቆ ጥ
▁በየ ስ
▁በየ ተራ
▁የስ ታዲ
ወጣ በት
▁ፕሮ ሞ
▁ቴ ሌቪዥ
ረን ሱ
▁ሠ ልጣ
▁አድ ሃ
▁አድ ልዎ
▁የገ ፉ
▁መቀ ጠሉ
▁የብ ሄ
▁ልጆች ና
▁እርምጃ ው
▁ኬ ላ
ሀብ ቶች
▁24 ,
▁ይቀ መጣል
▁ግዴ ታቸውን
▁የማህ ፀን
ጠነ ከረ
▁ቲ ያትር
▁ሕዝ ቤ
▁በመን ደር
▁የሠ ለጠነ
▁ተነስ ታ
▁ለሙ ስና
▁የሸ ማቾች
▁ዘመቻ ው
▁የተከሰ ቱ
▁በውስ ጧ
▁በጭ ፍን
▁ለመታ ገል
▁ማግኘ ታቸው
ጎና ጽ
▁199 7
▁ያነ ጣጠረ
▁ለአን ዴና
▁ተጎ ጂዎች
▁ጠበ ቆች
ትምህር ቱ
▁ዩኒ የ
▁ተፈጻሚ ነት
▁ንጽ ህና
▁ምዕ ተ
▁ትዝብ ት
▁ካውን ስል
▁ገሠ ሠ
▁ትባ ላለች
ላ ተ
መ ቻቸው
ማ ከለ
ሥ ልጣ
ራ ኑ
ሰ ችው
ሶ ግ
ቅ ዝ
ከ ቱት
የ ሙን
ገ ሮቹ
ጌ ል
ጌ ት
▁የ ፌዴራሉ
▁አ ጸ
▁መ ቃወም
▁ከ ጃ
▁ያ የው
▁ስ ስ
▁ባ ዛር
▁እንዲ ከፍል
▁በአ ስራ
▁በአ ትክል
ስት ያን
▁ለመ ምህ
▁ለማ ኅ
▁በማ ጣት
▁በማ ተኮር
▁የማ ያው
▁አገ ሬን
▁ከአ ማ
▁ተጠ ቂዎች
▁የሚያስ ረዱት
▁የስ ምንት
▁ሞ ግዚ
▁ተቀ በል
▁ኩ ረጃ
▁ለእ ን
▁ፋ ራህ
ፈጥ ርም
▁ሪ ቻርድ
▁ስን ቱን
▁የለ በሰ
▁በህ ብረት
▁9 3
▁ከሰ ጠው
▁ኢኮኖሚ ክ
▁ሰፊ ና
▁የሚሆኑ ትን
▁አሠራ ርና
▁ተሸ ናፊ
▁ትምህር ቴን
▁እህ ቴ
▁መፍ ረስ
▁ይበ ላል
▁ሰማ ንያ
▁ስትራቴጂ ክ
▁የሠ ላም
▁የሚገ ዙ
▁በ199 3
▁ግብርና ና
▁ተመር ኩ
▁ኢሕአዴግ ን
ገላ ገል
▁በቢ ሊዮን
▁የልማ ቱ
▁አብራር ቷል
▁አቡ በከር
▁ጥራ ጥሬ
ተራ መስ
▁ከኃ ላፊ
▁የፌ ስቡክ
▁ኢንቨ ስተ
ረባ ረብ
▁ተወዳ ድረው
▁በደግ ነት
▁እንጠይ ቃለን
▁ይቆጣጠ ራል
▁እሞክራ ለሁ
/ 60
e ar
ቴ ጌ
ገ ሩም
ጋ ባት
ጩ ኸ
▁ ረጃ
▁መ ዓት
▁እን ገነዘ
▁የሚ ለኝ
▁የተ ጠራ
▁የተ ጠናቀቀ
▁ሲ ጫወቱ
▁በተ ሰራው
▁እንደሚ ገልጹት
▁ስለ ሰ
▁የማ ፍራት
▁እንዳ ለም
▁ጠ ል
▁የም ታወ
▁ሚ ናቸውን
▁ከተ ለያየ
▁እያ ደረግ
▁ያለ ሁት
ገል ፅ
▁አመ ጽ
▁ዳ ም
▁ማስ ገባ
▁የሚያስ ብል
▁ጎ ማ
▁የህ መም
▁ያል ነበረ
▁ከማ ለ
▁ፓርቲ ን
▁በሕ ዝቦች
▁ገንዘብ ን
▁ምርጫ ን
▁አቅር በ
ፈራ ም
▁ዓላማ ም
ሳሰ በ
▁ዳይሬ ክተ
▁በገ ፍ
▁ዋንጫ ዎች
▁በዚያ ች
▁የሚችል በትን
▁ሉ አላዊ
▁ስል ቶች
▁ፍሬ ያማ
▁በቃ ኝ
▁ምርመራ ና
▁ሊያስ ገኝ
ዘዋ ወረ
▁ውስ ጤ
ቀበል ም
▁ፍልስ ፍ
ጽና ናት
ነቃ ቃት
▁ተመዝግ በዋል
▁ጠር ዝ
▁አንባቢ ያን
▁በማዕ ድን
▁በማዕ ከላዊ
▁መላእ ክ
ብኚ ዎች
▁በአክ ብሮት
▁ፀሀ ፊ
▁ጥብ ቅና
ሎ ትና
ማ ማት
ሞ ዝ
ራ ረቡ
ቀ ፋዊ
ቅ ኔ
ኒ ና
ክ ላሉ
ጣ ጣም
▁የ ባቢሎን
▁መ ለያየ
▁ለ ሻ
▁ማ መ
▁እንደ ሱ
▁በመ ስማ
በት ንና
▁ዓ ለማችን
▁የመ ፍታት
▁እየ ኖሩ
▁እንደሚ ጠይቅ
▁አል መጣም
▁አስተ ምሮ
▁ያስ ቻለ
▁ጨ መረ
▁ራ ቁ
▁ሴ ቷ
ጠው ም
▁ማለት ን
▁የስ ልጣኔ
▁አደ ንዛ
▁አት ፍ
▁በስ ማቸው
▁በስ ፔን
▁ይሄ ኛው
▁በበ ጋ
▁በት ራፊክ
▁የምን ል
▁ልብ ህ
.አ ይ
▁ልጆ ቼን
▁ተገል ጾ
▁ኢኮኖሚ ን
▁ስብሰባ ውን
▁የድ ህረ
▁የሚወ ዳደሩ
▁ያስተ ላለፈው
▁ቁር ጠኝ
▁የእር ሳቸው
▁ታሪካ ችን
▁አንደኛ ውን
▁ማህበራት ና
▁በሐ ሰት
▁በየአ ቅጣጫው
▁ብቃ ትን
▁ውይይ ትና
▁ናይ ሮቢ
▁ከቦ ታው
▁አስከባ ሪዎች
▁ጓደኞ ቻቸው
▁ይሞ ታሉ
▁የሥር ዓተ
▁ተጉ ዘው
▁ከን ፈር
▁ያገለ ገሉ
▁የአዋ ሽ
▁የጀመር ነው
▁የሚነገር ለት
▁አጠቃቀ ምና
▁ተላል ፎ
▁የሚፈፀ ም
▁ያማ ከለ
▁እመር ታ
▁መኮን ኖች
▁እያስመዘገበ ች
▁እንደራ ሴ
▁ይከራ ከራሉ
▁ከረጢ ት
▁ወንዳ ፍራሽ
▁ዮርዳ ኖስ
▁እንገነዘ ባለን
5 4
ማ ሊያን
ቪ ያ
ቪ ደንት
ታ ለል
ይ ነ
ይ በት
ጉ ድ
▁ ፐብሊክ
▁የ ቸ
▁እ ወድ
▁የሚ በረታታ
▁ያ ሰባ
▁ያ ጠናቀቀ
▁ወ ስጥ
▁ማ ትረፍ
▁ማ ናቸውንም
▁ም ስራ
▁የተ ጠናቀቀው
▁ው ጥን
▁በመ ገን
▁ኢ ኒ
▁አይ ሰ
▁የሚያ ነሱት
▁እየ ገዛ
▁ቤ ቴል
▁እና ገኘ
▁በእ ግሩ
▁ሳይ ደርስ
▁ያስ ነሳ
▁ያስ ቀመጠ
▁ሆነ ናል
▁አመ ጋገብ
▁ሃ ገሪቱ
ገለ ገሉ
▁አብ ሯቸው
▁ሲያ ከናውን
▁ፓርቲ ም
▁ድን ች
▁በት ልቁ
▁የምን ችልበት
▁ፊ ቷ
▁በወ ላ
▁ጌ ጤ
▁በማስ መሰል
▁ባል ተና
ቆጠ ሩት
▁ሥራዎች ም
▁የሃ ያ
▁ይኼ ኔ
▁ዛ ቻ
▁ለወ ራት
ባረ ሩ
▁ያቀረ ብ
▁መዛ ግብት
▁201 0
▁መከራ ከር
▁ታማኝ ና
▁እየተደረገ ላቸው
ካተ ተው
▁በቆ የው
▁የማን በብ
▁የሚያስተ ምሩ
▁መስጠ ትና
▁መስጠ ታቸው
▁አደረገ ች
▁ተራራ ማ
ስማማ ም
▁ቤተሰቦ ቼ
▁ጥራ ዝ
▁የሚጠቅ ሙ
ec t
▁የተመዘገቡ ት
▁አልገባ ኝም
▁የመሸ ጫ
▁አስመዝግ ቧል
▁የግሪክ ኛ
▁ካድሬ ዎች
▁አስች ሏቸዋል
▁የማይበ ገር
▁ስነስር ዓት
▁መገባ ደጃ
ሐ ራ
ቀ ቀው
ኃ ኒ
አ ቱ
ጧ ን
▁ ርስ
▁የ ቂ
▁የ ገነ
▁አ ዜ
▁መ ሣ
▁መ ዘጋ
▁መ ሮጥ
▁ለ ዋ
▁ለ ጸ
▁ለ ጐን
▁ይ ና
▁ይ መጡ
▁ስ ትናገር
▁ሁ ከ
▁ሥ ጋዊ
▁የሚያ ዩ
▁እየ ሳ
▁ሊ ሠሩ
▁ታ ወ
▁ቢ ደርስ
▁በእ ጄ
▁ከአ ርሶ
▁ኮ ሪ
▁ነገ ሠ
▁አካባቢ ም
▁ዓይ ኑ
▁አው ስተዋል
▁ጽ ናት
▁ኦ ማር
▁ለእ ርሻ
▁ተከ ስተ
ፈጥ ረው
▁ትን ኮሳ
▁በሽ ተኛ
▁ሰነ በታችሁ
▁ወላ ጆቹ
▁እንደሚያስ ገኝ
▁21 ,
▁ፈጽ ሟል
▁መስተ ዳድ
▁በሐ ምሌ
▁ስና ስብ
▁አሳል ፏል
▁በካ ሜ
▁ቶሎ ሳ
ኒስት ር
▁የይ ዞታ
ስፈ ፃሚ
▁የተወለ ደ
▁የአው ቶ
ou n
▁ያነ በብ
▁እኩ ለ
▁የሚደ ነግ
▁የሚያከናው ኑ
▁አልታ የም
ጨና ቂ
▁ሳላ ዲን
▁በሙያ ቸው
▁አስከት ሎ
▁የስብ ከት
ደጋገ ፍ
▁አጠናክ ራ
▁አለመቻ ሉን
▁ማሰላ ሰ
▁አልፈለ ገም
▁መናፍ ስት
▁እናገኘ ዋለን
ም በር
ቃ ዱ
ቡ ሩ
ብ ይ
ብ ደት
ኘ ን
ዟ ት
ዲ ቱ
ጭ ቷል
▁ K
▁አ ረን
▁አ መለከተ
▁መ ላም
▁ለ ፓርቲ
▁ለ ዕድ
▁በመ ረዳ
▁ሲ ና
▁ሲ ጠየቁ
▁ት ችል
▁የአ ብሮ
▁ቀ ደ
▁የሚያ ዋ
▁የሚያ መር
▁አለ መው
▁ካ ለህ
▁ሕ መሙ
▁ዋ ሽንግተን
▁ያለ ባት
▁የእ ያንዳን
▁ሀ ሰን
▁መካ ድ
▁የስ ን
▁በም ላ
▁የነበረ በትን
▁ተወ ር
▁ኦ ል
▁እንቅ ፋቶች
▁መንግሥ ተ
▁መር ፌ
▁ጣ ዕ
▁ዲ ጂታል
▁በአንድ ም
ነጋ ግር
▁ሂ ስ
ቆጣ ጠረ
ከብ ሩት
▁አልተ ሳካ
▁መተ ባበር
▁በመስ ጠ
▁ፈተና ዎችን
▁የዋ ህ
▁ጠብ ታ
▁ተጠቅ መን
▁ሦ ስቱም
▁ሰይ ድ
▁ይበ ዛል
▁ሰማ ያ
▁አድማ ጭ
▁ቀጠ ለች
▁ተነስ ቼ
▁አሻ ንጉ
ቢሲ ኒያ
▁በካ ር
▁እርሻ ና
▁የብር ሃን
▁በመር ህ
▁ተገን ብተው
▁አሥ መራ
▁የያ ዕቆብ
▁ያሳስ ባል
▁የሚያገኙ ትን
▁የተመሠ ረቱ
ጋብ ዝ
▁ማዕከላ ትን
▁ረብ ሻ
▁ሬስቶ ራንት
▁ተረካ ቢ
▁እንጠብ ቃለን
9 5
ለ የው
ሲ ያው
ተ ነው
ታ ድ
ነ ቶችና
ደ ኑ
ጻ ጻፍ
▁በ ጨዋታ
▁አ ዬ
▁መ ወለድ
▁ከ ፌዴሬሽኑ
▁ለ 40
▁ይ ራ
▁ያ ዳም
▁ስ ፋትና
▁ሰ ጠኝ
▁እንዲ ን
▁ሲ ባሉ
▁በተ ሰጠ
▁ለመ ዳን
ንድ ር
▁እንደሚ ታየው
▁ጠ ቦት
▁2 ለ0
▁ከተ ሸ
▁በእ ጃችን
▁ከአ ባቱ
▁3 ሺ
▁ከእ ርሳቸው
▁ለው ጡን
▁አጋ ሮቹ
▁አያ ደርግም
▁የጥ ያቄ
▁የጥ ንታዊ
▁ያሳ ለፈ
▁አላ ወ
▁በል በ
▁በማስ ረዳት
▁በ19 70
▁ደር ቢ
▁ተሳት ፏ
▁በወቅ ታዊ
▁አንቀ ጾች
▁ወስ ኖ
▁ለመቀ ላቀል
▁በአን ቺ
▁ፓርቲዎች ም
▁ሀብ ተ
▁ስለመ ሆኑም
▁የሶ ሻ
ህም ያ
▁ፊል ሞችን
▁ብርሃ ንና
▁th at
▁በ2 4
▁መጽሐ ፋቸው
▁ጨር ቅና
▁ለሀ ገራችን
▁የሚን ጸባረቅበት
▁ትው ስታ
▁አሶ ሳ
▁ተደም ጠዋል
▁ይሞክ ራሉ
▁የአንበሳ ውን
ህራ ሄ
▁አደንዛ ዥ
i p
ሮ ዎች
ሳ ለህ
ባ ጭ
ብ ራል
ኅ ና
አ ለም
ወ ጠው
ጂ ው
ጋ ፋ
ጠ ጠ
ጦ ቹ
▁አ ላሉ
▁አ ደረጉት
▁አ ዕም
▁ይ መለከቱ
▁እንደ መጡ
▁የመ ሪ
▁የመ ሥሪያ
▁ለመ ሳ
▁የሚያ ህል
ስጥ ር
▁ታ ራ
▁የም ዝገባ
▁ች ቦ
▁ቅ ጠ
▁ሁሉ ና
መን ና
▁ከመ ረብ
▁ሀ ምሳ
▁የሰ ፈረው
ታው ቁ
▁ራ እ
▁ኦ ን
▁ለው ጤት
▁አንዳ ችን
▁ሙሉ ነት
▁አድርጎ ኛል
▁አጥ ተዋል
▁እሱ ንም
▁ቋንቋ ውን
▁ተሰ ልፈው
▁ጐ በዝ
▁ተጫዋ ቾቹ
▁በቁ ጭት
ጀም ርም
▁መግ ፋት
▁እንደምት ፈልግ
መቻ ቹ
▁መስተ ዳደር
▁የሲ ቪክ
▁ይረዳ ቸዋል
▁በድን በር
▁ባህላዊ ና
▁ታዳጊ ዎችን
▁መደ ላ
▁የተጣ ለበት
▁ብቃ ቱ
▁ብራ ዚ
▁ንብረ ቱን
▁ቤተሰቦ ቻቸውን
▁b y
▁ስለሌ ላቸው
▁በሊ ጉ
▁በተሰ ኘ
▁ተሠ ርቷል
▁በፕሮ ግራሙ
▁ከእው ነት
▁ይከተ ላል
▁ግብአ ቶች
ርስቲያ ናዊ
▁ማዕድ ናት
▁ታስታው ሳለች
▁ለመፍታ ትም
ቻ ለውም
ግ ብር
ጐ ም
ጽ ዋ
▁የ ቁር
▁መ ሰማራት
▁መ ከባበር
▁ለ ገንዘብ
▁ተ ተር
▁የሚ ዘጋጅ
▁ማ የትና
▁ስ ምህ
▁ባ ታ
▁በመ መር
▁በመ ጣል
▁በመ ርዳት
▁ደ ሀ
▁ክ በ
▁የሚያ ምር
▁እና ስብ
▁ባለ ሃ
▁አል ጄሪያ
▁ፍ ራንስ
▁የወ ለደ
▁ተጠ ንቀቁ
▁የሆነ ን
▁ከተማ ም
▁ከሚ ሆኑ
▁ማን ነትን
▁በት ግል
▁ተጠቃሚ ው
▁ተማሪ ዎችና
ጠራ ጠርም
▁19 3
▁የዕ ለቱ
▁እንዳል ቻለ
▁ታው ቆ
▁ወዳ ለ
ሰበ ስብ
▁መመሪያ ው
▁ሰብሳቢ ነትና
▁ሀብ ቱን
▁ብል ት
ቀርቡ ም
▁የዳ ኞች
▁የመን ደር
ስተካ ክል
▁አወ ንታዊ
▁ጠብ ቀን
▁የ1 4
▁ያስተ ምራል
▁ማስረጃ ዎችን
ሳው ዲ
▁የን ፁህ
▁በማህ በረሰብ
▁የሴ ካፋ
▁ተነሳ ስቶ
▁ኮርፖ ሬት
▁0 3
▁ኒ ኮ
▁በመታ ገል
▁ደጋግ ሜ
▁የሊ ጉ
ንቀሳ ቃሽ
▁የመድ ሃኒት
▁የእና ቶችን
▁እብ ድ
▁ቅርስ ነት
▁ተስማም ተዋል
▁ተወያይ ቶ
▁በፌ ስቡክ
▁ከሁለ ቱም
▁የጤ ፍ
▁አብዱላ ሂ
▁ብፁ ዕ
9 8
ሷ ት
ብ ድ
ነ ዱ
ዳ ኝ
ዳ ግም
ድ ፊያ
ግ ዛ
▁ ዥ
▁የ ኡጋንዳ
▁መ ቐለ
▁እንዲ ገኝ
▁ሲ ዲ
▁ጥ ል
▁የመ ውሰድ
▁ክ ሱን
▁ለመ ኖሪያ
▁አይ ኖ
▁አይ ሆኑም
▁ሥ ልት
▁በማ ስተካከል
▁ጋ ሻው
▁ታ ወቀ
▁መን ቀጥቀጥ
▁እየተ ባ
▁እየተ ካሄዱ
▁የሰ ራው
▁ኤ ዲ
▁ቆ የት
▁በኢ ስላሚክ
▁ፕሮ ሰሲንግ
ፍት ሔ
▁አር ኪ
▁ቴ ክኖ
▁ተከ ፈተ
ደረግ ም
▁ጉዳዮች ም
▁ማስተ ናገ
▁ወጥ ቼ
▁ስለሆነ ው
▁ተገቢ ና
▁መታ ገ
▁የሥ ዕል
▁ቀጥ ሉ
▁በገ ጠ
▁ቱ ኒዚያ
▁የተቀ ሰቀ
▁ጽሑ ፎ
▁እግ ራቸው
ጨዋ ወ
▁ዮሐንስ ን
▁ተጠቅ ሟል
▁ልም ዳቸውን
▁ስላል ነበረ
▁በድር ጅ
▁በድር ድር
▁ቪ ላ
ስቸ ጋሪ
▁ወንጀ ለኞች
▁ሰባ ኪዎች
▁ማም ጣ
▁በ198 3
▁የምስ ጋና
▁ትውል ድን
▁መፃ ህፍት
▁ማስጨበ ጥ
▁ህንፃ ዎች
▁ተጉ ዞ
▁የግለ ሰቦች
▁ለድር ቅ
▁ለድር ጅቱ
▁የደረሱ በት
▁ከማድረ ጉም
▁ይወር ዳል
▁ዶክ መን
ል ል
ሐ ማ
ቲ ካ
ነ ዳ
ኒ ሊክ
ኖ ስን
ኖ ራቸውን
ወ ዳቸው
ዋ ብ
ፋ ቱን
▁በ ዬ
▁ከ ክለቡ
▁ይ ዘጋ
▁የሚ ቆጣጠር
▁እንደ ማል
▁አስ ረግ
▁አይ ጠ
▁ሥ ም
▁በማ ንም
▁እየ ጎለበተ
▁ሊ ቀር
▁ቢ መ
▁ህ ጎችን
▁ህ መሙ
▁ዕ ጦት
▁መን ታ
▁እየተ ገ
▁እየተ ናገረ
▁ከመ ገናኛ
▁ድር ቅና
ሰማ ም
▁ማን ኛ
▁ሞ ሐመድ
▁ተቀ በሉ
▁ከማ የት
▁በስ ታዲ
▁በጥ ላቻ
▁ኩ ሬ
▁የምት ሰ
▁ለሚ ቆጠሩ
▁8 7
▁የጠ ባብ
▁የጎ ረቤት
▁በሚያ ገኙት
▁የሙ ሽ
▁አሠራ ሩ
▁እስኪ ደርስ
▁ዝር ጋ
▁ምርመራ ውን
▁መዳ ፍ
▁የሲ ዳማ
▁መደረጉ ንም
▁ፈረን ጆች
▁የኅ ብረተሰቡ
▁ካላ ገኘ
▁ይጠብ ቃሉ
▁የተን ጸባረ
▁የምስ ረታ
▁ፍራ ቻ
▁የቅር ስ
▁እንግሊዛ ዊ
▁በጆ ሮ
▁ትርኢ ት
▁የሽን ት
▁የሚከሰ ተውን
▁ልጃገረ ዶች
▁የአመ ጋገብ
▁ግልጋ ሎት
p r
ሊ ናቸው
መ ቂያ
ራ ጥሬ
በ ጀ
ብ ሬ
ብ ትና
ቭ ዥን
ተ ሮችን
ክ ሩት
ደ ሩን
▁አ ቪዬሽን
▁ነ ቃ
▁ተ ለጥ
▁የሚ ጀምር
▁ወ ት
▁ማ ቆየት
▁ማ ፍረስ
▁ላይ ና
▁ሲ ስተ
▁ለማ ብ
▁የማ ገልገል
▁ፈ ጸ
▁ቅ ባት
▁ጉዳ ቶች
▁ሰው ና
▁ከመ ምህ
▁ለአ ዲሱ
ገለ ጥ
▁በየ ሁለት
▁በኢ ጣሊያ
ፍት ሐዊ
▁በሌ ሎቹ
ፖር ቱን
▁ፋ ርማሲ
▁ብለው ታል
▁ስሜ ቶች
ብኝ ን
▁ኩባንያ ዎቹ
▁ያስፈል ጋሉ
▁ና ዳ
▁አግ ሮ
▁ከሰ ሃራ
ነግ ራቸው
▁የቻ ለችው
▁በቅ ደም
ሰበ ሰበው
▁የቀረ ውን
ቆም ም
▁ጥቅ ማቸው
▁በክ ርስቲያን
▁ይኼ ም
▁ከጥ ቅም
▁የሚሉ ና
▁ክፉ ዎች
▁እንደምት ሆን
▁ዱ ሮ
▁እያስ ከተለ
ማማ ች
▁አገልጋ ዮቹን
▁ከ200 3
▁የአባ ቱን
▁ሌሎቹ ም
▁p ro
▁ስልጣ ናቸውን
▁ቁሳቁ ሶችን
▁ሀሳ ቡን
▁ተአ ምራዊ
ጎበ ኝ
▁ብዝ በዛ
▁በ198 7
▁የ200 9
▁መገን ዘ
▁ማወ ቃችን
▁ቀበ ቶ
▁አስገብ ቶ
በረከ ቱት
▁ይወሰ ናል
▁ባለአ ክሲዮኖች
▁ያጠ ቃል
▁የቴሌ ኮም
▁እየተሸ ጠ
ገልጋይ ነት
▁የታች ኛው
▁አሶሴ ሽን
▁w16 .0
ርቻ ሮ
▁ባልተና ነሰ
a g
ስ ቅ
ስ ያስ
ነ ከረ
ኖ ን
ኢ ድ
ኬ ቱ
ዝ ናው
ድ ሪ
ጣ ለ
▁በ 60
▁በ ባቢሎን
▁መ ጫ
▁ከ ሮ
▁ከ ፓ
▁ከ ታወቀ
▁ከ ቡና
▁ከ ዞኑ
▁ለ ዛሬው
▁ተ ገለፀ
▁የሚ ወር
▁የሚ መለሱ
▁ያ ገ
▁ማ ኑ
▁ማ ጨ
▁ስ ሕ
▁የተ ፈለገውን
▁ሰ ሊጥ
▁ው ሱን
▁በመ ሰማራት
▁ል ደቱ
▁የአ ስር
▁ለመ ደም
▁ለመ ወያየት
ድረ ዋል
▁ሕ ዳሴ
▁በሚ ተ
▁እያ ለን
▁ሳይ ሰ
▁ከአ ክ
ርስ ዎ
▁የው ይይቱ
▁ጉዳይ ን
▁የህ ብረቱ
▁ሽ ያ
▁እንዲያ ከናውኑ
▁አሉ በት
▁ሲያ ገለግሉ
▁አንዳ ቸውም
▁እድ ሎች
▁ለማስ ጀመር
▁አያ ይዞ
▁ተገ ምግ
▁ዋጋ ውን
▁በህ ንድ
ጠናቀ ቅም
▁ሕዝብ ም
▁ቆይ ተናል
ጫወ ቻ
▁አንተ ነህ
▁በሚያ ደርጉ
▁የፍ የል
▁የከተማ ውን
▁ያላ ሰለሰ
in e
▁ትምህር ቶችን
▁ምሥ ጢር
▁ዩ ኔስኮ
▁በሃ ይማኖ
ማራ ለን
▁ከህ ገ
▁አታ ስ
▁ተወዳዳሪ ነት
ቆር ጡ
▁ስነ ምግባር
▁የዛሬ ውን
▁መቻ ቻል
▁የማኅ በረሰብ
▁በጀ ርባ
▁አምጥ ቷል
▁አወጣ ጥ
▁ትው ፊ
▁የሚቀር ቡት
▁አሞ ራ
▁የመታ ሰቢያ
▁ሌሊ ሳ
▁ርቀ ቶች
▁ታደርጋ ለህ
▁ወሳ ኝነት
▁ቀጠል ኩ
▁የሙስሊ ም
▁ሄሮ ድስ
ሀ ለሁ
ሮ ጌ
ሮ ቻችንን
ው ቅ
ዙ ና
የ ነር
ደ ክ
ዲ ቅ
ዳ ቱ
ጅ መን
ጉ ዋ
ፋ በት
▁በ ጠራ
▁መ ገለጹ
▁ያ ዘጋጁት
▁ባ ያስ
▁ባ ላው
▁በመ ፈተሽ
▁እንዲ ገኙ
▁እንዲ ገዙ
▁ሲ ችሉ
▁ሲ ጠይቁ
▁አስ ቻለው
ደር ሳቸው
▁እንደሚ ቀጥሉ
▁ካ ንተ
▁እያ ሻ
▁ሥራ ዎቻቸውን
▁ችግ ራችን
▁ያለ ንበት
ታት ስቲክስ
▁አም ቦ
▁መስ ሎት
▁ሙ ላት
▁ሌላ ኛዋ
▁መሰ ሉ
▁ውጤ ትን
▁ዕድ ልን
▁በግ ጥም
▁ፖ ስታ
▁ተወ ለደ
▁መሆን ም
ሳተ ላይት
▁በው ድ
▁በው ጤት
▁በደ ማቅ
ከራ ይ
ጨረሻ ው
▁ተጠቃሚ ነታቸውን
▁የለም ና
▁አላ ገኙም
▁መለ ወጫ
▁አደጋ ዎችን
▁ፍላጎ ቱን
▁9 6
▁ታዲያ ላችሁ
መቱ ት
▁ተሰ ሎንቄ
▁ሁለተኛ ና
ገደ ኞች
▁የሕዝብ ና
▁ይቀ ራሉ
▁አሸናፊ ዎች
▁23 ,
▁ለመስ ኖ
▁የሚገል ፅ
ዋቂ ው
▁ሐኪ ሙ
ክን ዮ
ረከ በው
▁ቄ ራ
▁በዓይ ነቱ
▁ያጋጠ ሙ
▁ተንቀሳ ቅ
▁እሰ ከ
▁አስተላል ፏል
▁አቅኚ ዎች
▁የእንግ ዳ
▁በማግኘ ቱ
▁የዚ ካ
▁አጋንን ት
▁የብል ግና
▁ቆላ .
ብልስ ቶን
▁ያስተናግ ዳል
2 1
ሊ ናው
ሪ ቲ
ቃ ኘት
ና ማ
ኛ ለህ
ካ ጎ
ካ ችንን
ያ ፍ
ዲ ሪ
ጀ ንዳ
ጣ ላ
ጴ ዛው
▁የ ሦስተኛ
▁አ ጐ
▁አ ነስ
▁እን ማራለን
▁ለ ዶ
▁የሚ ቲዎሮሎጂ
▁ያ ደግ
▁ወ ገና
▁ስ ሚ
▁በመ ዘዋወር
▁እንዲ ገነቡ
▁እንዲ ገነዘቡ
▁እንዲ ከፍሉ
▁በአ ረንጓዴ
▁ቀ ደሙ
▁እየ ወሰዱ
▁እንደሚ ወጣ
▁ሚ ን
▁ፈ ለቀ
▁እስ ራትና
▁ምን ጮችን
ሪካ ዊ
▁ቁ ልፉ
ብረ ር
▁የወ ታደራዊ
▁የወ ይዘሮ
▁አበ ጋ
▁በኢ ሜይል
▁መጠ ኑን
▁ሞ ዴ
▁ኦ ሞ
▁ኦ ህዴድ
▁እንዳይ ጠፋ
▁ሠ ላሳ
▁አያ ለሁ
▁የተሰ ኙ
ይና ን
▁ስን መለስ
▁የነበሩ ና
ፈራ ራት
ከለ ስ
▁ደን ቦችን
▁ዞ ኑ
▁መግለ ጻ
ዘን ብ
መጡ በት
▁የካ ፍ
▁ኅ ብረ
▁የዳ ቦ
▁የዋ ስትና
▁የመጣ ችው
▁ከታ ክስ
▁በሃ ያ
▁ፈጽ መው
▁ማጣ ጣም
▁በምት ኩ
▁መጠየ ቁ
▁ክብ ደ
▁እራ ስን
▁ሊቀመን በሩ
▁ፍቅ ሬ
ደረሱ በት
▁በማስተ ላለፍ
ስቲቫ ሉ
▁የሪ ፐብሊ
▁የሚያከናው ነው
▁አቁ ሞ
▁ምሁራ ንን
ሮድካ ስት
▁በርግጥ ም
▁የሚደግ ፉ
▁ተሞ ልቶ
▁ወንበ ሮች
▁የጎደ ላቸው
▁መሻሻ ሎች
▁አብዝ ቶ
▁ይሞክ ራል
▁በነገ ሠ
▁ኢንፌ ክሽን
ሆ ም
ማ ኔ
ማ ትን
ሳ ሳት
በ ደር
አ ቀፉ
ይ ኑ
▁የ ሄድ
▁መ ጠር
▁ይ ፈለ
▁ተ ዘዋዋሪ
▁የተ ጻፉ
▁ሰ ዋ
▁ው ርስ
▁በመ ደራጀት
▁በመ ሆኔ
▁ደ ጉ
▁ሲ ፈልግ
▁ት ቀ
▁የሚያ የው
▁ቢ መጣም
▁እንደሚ ፈ
▁ሕ ያዋን
▁ፈ ጠን
▁እስ ጢፋ
▁እየተ ከታተሉ
▁ሐ ሰት
ፍት ሄ
▁ማን ነቱ
▁ጭ ራ
▁ክል ሉን
▁አሳ ም
▁ስም ዖን
▁ለተ ወ
▁ማዕ ዘን
▁ያሳ ለፍ
▁ስን ደርስ
▁በብ ቸኝነት
▁አስፈላጊ ነቱ
▁ዓላማ ችን
▁ና ፋ
▁የተለ መደው
▁ምስ ር
ሊዝ ምን
ዝና ኑ
▁የካ ህናት
ሰን ዘር
▁ስላ ሴ
ጣሪ ው
▁ያላ ስ
▁ለህ ዝ
▁መነሻ ና
▁የሚወ ጡት
▁ለወ ንዶች
an ce
▁ለስ ምንት
▁አሠራር ን
▁ካልተ ደረገ
▁ተር ሚ
▁አዝ ማች
ፎካ ካሪ
▁የተመረ ጠው
▁አምባሳ ደሩ
▁አምባሳ ደሮች
▁ለል ጁ
▁የተጣ ጣ
▁አስቀም ጠዋል
▁ስልጣ ንን
▁በዲ ሞክራሲ
▁የሚጠብ ቀው
▁በአው ሮፕላን
ሪም የር
▁የመግ ቢያ
▁ምሁራ ኑ
▁በብር ቱ
▁ቻይ ናውያን
▁ጽፏል ፦
▁ታድ ያ
▁ልባ ም
▁ከሜ ዳው
▁ወሮ ታ
ጳው ሎስ
ዲቯ ር
▁አጣብ ቂኝ
▁ተቀራራ ቢ
ከ ቡ
ክ ተው
ክ ሪት
ዕ ተ
ጌ ዶን
ጥ ኩ
▁የ ዞ
▁እ ሮሮ
▁መ ረጋገ
▁መ ደራጀት
▁መ ኢአድ
▁እን ስት
▁ነ ር
▁ነ በራት
▁ይ ከበር
▁የሚ ነገረው
▁ብ ትል
▁የተ ደረጉት
▁ባ የር
▁ሲ መራ
▁ሲ ጠይ
▁ሲ ጫወት
▁አስ ጨናቂ
▁የአ ብርሃም
▁ገ ፀባ
▁ለመ ንፈ
▁ለመ ጻፍ
▁ለመ ብላት
▁አይ ኑ
▁1 .5
▁የማ ሻሻል
▁ሚ ናው
▁እያ ነ
▁እያ የሁ
▁ሳይ ሰጥ
▁የነ ዋሪ
▁አባ ልና
▁ሌላ ውም
▁ማስ ታ
▁አት ችሉም
▁ዕድ ለኛ
▁የማይ ችለው
▁የት ግ
▁ኪ ዩብ
ረብ ን
▁ለእ ጅ
▁የምት ኖረው
▁ፋ ሽን
▁ከሆነ ች
ከራ ዩ
ብራ ሉ
▁መብ ቶችና
▁የዕ ቃ
▁በሌላ ኛው
▁12 5
▁መግለ ጹ
▁ልጆ ቿን
▁ይገል ጹ
▁ገበያ ዎች
▁የኦ ሮ
▁ተጫ ራ
▁ፖለቲካ ል
▁የሙ ሴ
▁የሚፈ ፅ
ንዳን ዶቹ
▁ወስ ደን
▁ማለ ፉ
▁ማለ ታችን
▁የቅ ማንት
▁ከታ የ
▁መልክ ዓ
▁ነፍ ሳት
ታወቅ በት
en d
▁ታስ ሮ
▁ባለፈ ም
▁የሠ ርግ
ar t
▁በዳ ዊት
▁በካ ናዳ
▁በጭ ንቅ
▁በሆ ቴል
▁ይገኙ ባቸዋል
▁ማው ጫ
▁የሚበ ጅ
▁ንግግ ሩ
▁አሸን ፏል
▁ሽልማ ቶች
▁ተሰብ ስ
▁ተካሂ ደዋል
▁አሥ ርት
▁ከ6 00
▁ምሥክር ነት
▁ዋን ኛው
ገልጋ ዩ
▁ያዩ ታል
▁ብርቅ ዬ
▁አሟል ተው
▁ar e
ሞ ኝ
ሬ ሳ
ስ ኪ
ና ጋት
ኙ ም
ዉ ት
ደ ፉ
ድ ኦ
ፃ ፉት
▁ k
▁ ጅም
▁እን ይ
▁ማ ሻሻ
▁ብ ሌን
▁ሲ ገለጽ
▁ዓ ርማ
▁የመ ታደስ
▁እና ቀርባለን
▁ሚ ቲዎሮሎጂ
▁ለአ ውሮፓ
▁በላይ ነህ
▁ቆ ጥሮ
▁በየ ፊ
▁መሰ ጠቱ
▁የማይ ፈልጉ
▁በፊት ህ
▁ሲያ ካሂድ
▁ፓርቲ ያቸው
▁አጋ ፋሪ
▁ተስፋ ው
▁በታ ክሲ
▁አሸ ንፈ
▁የተለ መዱ
▁መሆናቸውን ና
▁መኖር ን
▁አለማ ድረግ
▁አለማ ወቅ
▁ያገኘ ናቸው
▁ማወቅ ና
▁ግል ገል
ለዋ ለች
▁ማሳያ ዎች
▁የቁ ሳቁስ
▁ግጥ ሙ
▁የሚወስ ዱ
▁የተሰማ ራ
▁መዳረሻ ዎች
▁መለሰ ለት
▁መጽሔ ቶች
▁የሚሰማ ቸው
▁የጂ ኦ
▁ተሟ ጋች
▁ማሰላ ሰል
▁የላይ ኛው
ገኟ ቸው
▁ተቀራር ቦ
▁አለመግባባ ቶች
▁Ethiop ia
▁ፈይ ሳ
▁ለዘለቄ ታው
f or
ላ ሜ
ል ዝ
ሐ ሪ
ሕ ዴድ
ረ ሱን
ኪ ሙ
ኮ ታ
ዞ ቹ
የ ምና
ፍ ርና
▁ |
▁የ ጫት
▁አ ሰብ
▁ለ 6
▁ማ ሬ
▁ማ ግለ
▁ማ ፋጠን
▁ማ ጤን
▁በመ ጽ
▁ሲ ጠራ
▁አን ጠል
▁ል ብን
▁አስ ባ
▁ለመ ንቀሳቀስ
▁የሚያ ህ
▁ይህ ቺን
▁ታ ሞ
▁የማ ደርገው
▁እንዳ ሰ
▁ቅ ሪ
▁በእ ቅዱ
▁ሙ ሳ
▁አሁን ማ
▁ሐ ቀኛ
▁አው ጭ
▁ዜ ግ
▁ያሉ ትም
▁በስ ድ
ጠቃ ለል
▁በራ እይ
▁ከወ ዲያ
▁19 0
▁ተግባር ና
▁መመ ደ
▁ቡድ ንም
▁በሚያ ጋጥ
▁14 0
▁ፈቃድ ና
▁አሰራ ሩ
▁ከሚያ ደርጉት
▁በክ ህ
▁እም ነታቸው
▁የቅ ሬታ
▁ወል ዲያ
▁በመተ ካት
▁በሰው ነት
▁ቲ ቶ
▁ታስ ቧል
▁ጠየ ቁት
▁ታሪካ ቸውን
▁እንዳልሆነ ም
▁መፅ ሄት
▁ደንበ ኞችን
▁ስርዓ ቶች
▁እድሜ ው
▁መደ ቦች
▁ሾ ው
▁የተዋ ቀረ
▁በዝ ቶ
▁የተወለ ድ
▁መቅረ ቡ
▁አስፈፃሚ ው
▁በኩ ር
▁ዕድገ ትን
▁ግዥ ና
▁የና ይል
▁በሕይወ ቱ
▁የአስተ ዳደሩ
▁የሚደ ነቅ
▁ተጋላጭ ነት
▁ድብ ርት
▁ማል ቀስ
▁የጫ ማ
▁አበርክ ተዋል
▁የሄ ዱት
▁እንትና ዬ
▁ያበረክ ታል
2 7
ሎ ስና
ረ ሰቡ
ቅ ናት
በ ሮች
ክ ክለ
ኳ ቶ
ዘ ሩ
ገ ዋለሁ
ጋ ሪዎች
ጣ ናው
ፍ ርስ
▁የ ታወ
▁የ 30
▁አ ዩ
▁መ ጪ
▁ከ ችግ
▁ከ ኅብረተሰቡ
▁ይ ፈጸም
▁የሚ ሄዱት
▁ስ ጠኝ
▁የተ ስተካከለ
▁ው ሾች
▁በመ ሆናችን
▁ል ደ
▁ል ፋት
▁አስ ናቀ
▁ገ ፍቶ
▁ዘ ካ
▁ካ ወ
▁እያ ል
▁እያ ወጣ
▁ምን ዝር
▁ሰው የውም
▁ኮ ምፒዩተር
▁ኤ ደን
▁ሴ ኔጋል
▁በም ረቃ
▁ዓይ ኔ
▁ማህ ሌት
▁ልጅ ህ
▁የታ ሸገ
▁ለእ ርሱ
▁ስት ወጣ
▁ኮሚ ዩኒኬሽን
ብራ ራት
▁የደ ንብ
▁ትር ፉ
▁አገራት ና
▁መመ ደብ
▁ከኢ የሩሳሌም
▁በቅ ዱሳን
▁አፍ ታ
▁ጥቅ ሱ
▁እንደሚያስ ፈልጋቸው
▁መሸ ከም
▁ጀም ስ
▁የሐ ረር
▁መኪና ዎች
▁አዘጋጅ ቷል
▁በቆ ዳ
▁በጽ ህፈት
▁ሲያስ ረዱ
▁መጋ ዘን
▁w ith
▁ተፎካ ካሪዎች
▁ተክ ሉ
▁የተቋ ሙን
▁ከጀመረ በት
▁የሚቻል በትን
▁በባህ ልና
▁ያደረግ ነውን
▁በማጥ ፋት
▁እንደታ የው
ac e
▁በፓ ሪስ
ገልጋ ዮቹ
▁ያረጋግ ጣሉ
▁መውሰ ዱ
▁ባለን ብረ
▁ይመሰ ክራሉ
▁ተሸን ፎ
▁ፕሮፖ ዛል
▁የሚያስገድ ድ
▁እጇ ን
▁ተዋህ ዶ
▁ጠራር ጎ
9 6
i z
ሪ ቃ
ር ሴሎና
ቡ ነ
ቪ ን
ኬ ል
ዋ ሪው
ዴ ዎች
ፈ ላል
▁ ፉት
▁እን ጥ
▁ነ ብር
▁ስ ፓ
▁የተ ሳተፈ
▁በመ ከናወን
▁በመ ጀመርያው
▁የመ ጠቀ
▁ለመ ዘ
▁ወደ ሥራ
▁በማ ለቱ
▁የሚያ ጠፋ
▁እየ በ
▁ቢ ላ
▁ቢ ገባ
▁የም ንና
▁ሕ ጎችን
ለያ ቸው
▁ያስ ወግ
▁ለአ ይ
▁ዳ ገት
▁ተቋ ሙን
▁በየ ወቅቱ
▁ላ ያ
▁ሽ ረት
▁5 ሺ
▁ኃላፊ ና
▁ፓርቲ ዎችና
▁መለ ዋወ
▁ስሜ ን
▁የዘ ይት
▁አድርጎ ት
▁እንዳል ካቸው
▁መድ ፈር
▁አቋ ምና
▁መታ ዘዝ
▁ጤና ና
▁ጥቅ ጥቅ
▁ዛ ፉ
▁መግ ዛ
▁ተነ ስተዋል
▁ተከታ ዮቹን
▁ተጋ ብ
▁የ1 1
መነ ጭ
▁2008 ዓ.ም
▁ሰጪ ነት
▁ስና የው
▁የሩ ቅ
▁ስለማይ ችል
▁የኔ ን
▁ኤክስ ፖ
▁ኤክስ ፐር
▁ሞክ ሯል
▁ያስታው ቃል
▁ብቃ ቱን
▁ወድ ቀው
▁ቤተሰቦ ቿ
▁ድህ ረ
ጣጣ ሽ
▁የሻ ዕቢያ
▁የ2 4
▁በዩ ኔስኮ
▁የአም ልኮ
▁አውሮፕላ ኑ
ጓጉ ል
▁አሌ ክ
▁የዮ ሐንስ
▁ያመላክ ታሉ
▁ከጫ ፍ
▁ሽጉ ጥ
ደነገ ገው
▁Af ric
▁ሰነበታችሁ ሳ
s e
u st
ራ ንን
ቴ ንስ
ዋ ጅ
ዕ ር
ደ ነግ
▁ከ ነሱ
▁ለ ትን
▁ለ ትር
▁ይ ፈልግ
▁ተ ስተካ
▁በመ ትከል
▁እንዲ ታወቅ
▁ዓ /ም
▁ኢ ሕ
▁ለማ ዕ
▁ለማ ፍረስ
▁እየ ዋለ
▁ታ ረ
▁ሕ ንድ
▁ከተ ሜ
▁ከተ ሰራ
▁ከተ ያዘ
▁መንግ ስታ
▁ከመ ከላከያ
ጠና ት
▁የወ ደብ
▁ለአ ለም
▁ዳ ታ
▁የሚያስ ፈራ
▁አገልግሎ ትም
▁ሽ ባ
▁እንዲያ ገለግል
▁ሲያ ቅ
▁ሲያ ልቅ
▁ክል ሎችን
▁አንዱ ም
▁ለእ ነርሱ
▁በደ ቡባዊ
▁ለተ ቃዋሚ
▁አያ ሳ
ፈጸ ማቸው
▁ፕሬዚዳን ትና
▁መቀ የ
▁የዘ መናት
▁አክ ለው
▁መልኩ ን
▁ስለሆነ ች
ልፍ ም
ስተዋ ለው
▁በጉ ልበ
▁18 0
ፈልጉ በት
ባበ ሉ
▁በክ ሱ
ርማ ታ
ጓዝ ን
▁ተር ጉ
▁የቦ ርዱ
▁ማጥ ቃት
▁አዘ ገጃ
▁አስቀም ጠው
▁ቆር ቆሮ
▁የተወሰኑ ትን
▁ንብረ ታቸውን
▁ከዋ ክብ
ልጥ ነው
▁በሜ ክሲኮ
▁ይመለከ ታሉ
▁ከፀ ሐይ
▁ቅጽ በት
▁እጩ ዎች
▁ከመሆናቸው ም
▁ግኝ ቶች
▁ጎብኝ ተዋል
▁ተርጓ ሚ
▁ይገደ ዳሉ
▁እንሰማ ለን
▁ሽኩ ቻ
u c
ማ ጆች
ቋ ቁም
ቤ ቷ
ኒ ያን
ደ ልና
ድ ቶ
ገ ንም
ጨ ውን
▁የ ኖሩት
▁አ ደርግ
▁አ ዘጋጀ
▁መ ባባስ
▁ለ ያ
▁ይ ደሰ
▁ይ ናገሩ
▁ተ ወሰነ
▁የሚ ሊ
▁ያ ይ
▁ያ ያሉ
▁የተ ፈራረ
▁በመ ሥራ
▁ሲ ቋቋም
▁የሚያ ር
▁የሚያ ስተናግድ
▁ህ ብረቱ
▁መን በረ
▁ዋ ር
▁ሳይ ታወቅ
▁ሀ ገሩ
▁ሀ ላፊነት
▁አባ ዱላ
▁የግ ፍ
▁ማስ ቆም
▁ሐ ረ
▁የህ ንፃ
▁አው ቄ
▁ኦ ቭ
▁በሰ ንበት
▁ወጣ ች
ግራ ችን
▁በው ጪ
▁በው ይይ
▁መንግሥ ታችን
▁ሊያ ስተ
መል ጥ
▁ሠ ሪ
▁ፀ ሎት
▁ተገ ደዋል
▁ግድ ብን
▁ቀር ተው
▁ጫ ኔ
▁11 9
▁አንፃ ራዊ
▁በመስ ጠትና
▁ተሸ ካሚ
▁የወጣ ቱ
▁አባት ህ
▁ተፈጥ ረዋል
▁ማው ረድ
▁እሳ ቱ
ቆራ ረጥ
▁ለሁለ ቱም
▁ወላጆ ቻቸውን
▁የሚያከናው ኑት
▁በምታ ደርገው
▁ድረገ ጽ
▁ይከፍ ታል
▁ኢጣሊያ ኖች
ሯሯ ጥ
▁የሚጠቁ ሙ
▁እንኩዋ ንስ
▁በሽብር ተኝነት
▁ፓስ ፖርት
▁ተደግ ፎ
▁ሊረዳ ህ
▁ያነጋገር ናቸው
▁ውንጀ ላ
. ሲ
r om
ሚ ቱ
ሣ ል
ነ ጠቀ
ክ ነት
ዋ ንና
ው ጥ
ያ ሚ
ጧ ቸውን
ጨ ቱ
ጭ ኑ
ፕ ቶ
▁ ፮
▁በ ልምድ
▁መ ፈፀ
▁መ መረጥ
▁ለ ክለ
▁ተ ገነዘብ
▁ያ ወቅ
▁ወ ዶ
▁ው ሰድ
▁ደ ሙ
▁ት ጉ
▁ጥ ርት
▁በአ ፅ
▁ድ ሉን
▁አይ በልጥም
▁የሚያ ካትት
▁የሚያ መለክቱ
▁እየ ጠበቁ
▁ጉ ር
▁የሰ ጣቸውን
ልጣ ናቸው
▁ን ዋ
▁ለአ ቅመ
▁እስከ ዚያው
▁አገል ገ
▁የስ ፔ
▁የው ድድ
▁በስ ምምነት
ፈለ ጋቸው
▁አያ ቴ
▁ተገ ዥ
▁መድረ ሳቸውን
▁ወንድ ሙን
▁በራ ሪ
▁የብ ሪታኒያ
▁ግድ ግ
▁ማስተ ማ
▁ሰጥ ታ
▁አቅር በናል
▁ሩ ዝ
▁ያላ ገኙ
▁የሚያሳ ድ
ጠቅ ሱ
▁ተመሳሳይ ነት
▁በክ ፍል
▁ዘመናዊ ነት
▁ዕው ነት
▁ክርስቲያ ኑ
▁አረጋግ ጠው
▁እንደምት ገኝ
▁ምርመራ ው
▁የሶ ማሌ
▁በመን ገ
▁መሐ ላ
▁የን ጹህ
▁ከፊ ታችን
▁ከ4 5
▁ሰባ ቱ
ነቃ ቃ
▁በዛ ብህ
▁ምርም ርና
▁አተ ያይ
▁አስተናጋ ጅ
▁ወኪ ሎች
▁መበ ለት
▁በመል ሶ
ሌክትሮ ኒክ
▁ቻር ተር
ሯሯ ጡ
▁ለመሰ ለፍ
▁ወረቀ ቶች
▁ሽግ ግ
▁አቀንቃ ኝ
▁ፕሬዚ ደንት
▁የተናገሩ ትን
▁ይመሳሰ ላል
▁አቅርበ ነዋል
ራ ዝ
ሬ ሽኖች
ቸ ዋ
ኮ ሐራም
ወ ጦች
ዚ ዮን
ጋ ም
ጸ ለይ
▁ _
▁በ ሺህ
▁እ መኛ
▁የሚ ቆም
▁የሚ ጨምር
▁ስ ኩ
▁ደ ራስ
▁ሲ ጠየቅ
▁አስ ገር
▁ድ ሉ
▁ቀ ዬ
▁ክ ሩ
▁ለመ ላቀቅ
▁የሚያ ም
ሪያ ዎች
▁ጉ ብ
▁የማ ደሪያ
▁የም ንተ
▁አል ረሳ
▁በሚ ደርስ
▁እያ ነሳ
▁ዋ ነኞቹ
▁ከመ ዝ
▁ያስ ቀመ
▁ቦ ክ
▁የው ክልና
▁ያል ታወቀ
▁የማይ ረሳ
▁በስ ውር
▁ይገ ዛል
▁እንደተ ቻለ
▁ስን ገባ
▁በል ጁ
▁ደን ቡን
ዘን ጋ
▁የሀ ሳብ
ልኝ ና
▁ቱ ባ
▁እውነ ቶች
▁ከበ ፊቱ
▁መግ ዣ
▁ብል ሽት
▁ቶ ም
▁ታላቅ ነት
▁ለሕ ክምና
▁ተነ ሺ
an t
▁ተጋ ጣሚ
ወድ ቁ
ከናው ኑት
▁አዝ ጋሚ
or y
▁ካር ቱም
▁መጨ ነቅ
▁መሐ ሪ
▁የሸ ቀጦች
▁የላ ከው
▁የፋይናንስ ና
▁A n
▁አየ ሁት
▁ከጎ ኔ
▁ኢዮ ዓ
▁ምል ል
▁ስታዲ የሞች
▁ለ1 2
▁ሚሊ ዮኖች
▁ይሸ ጣል
▁የዶ ክትሬት
▁ለፕ ሮጀክቱ
▁ተመድ በው
▁አዘው ትሮ
▁በዱ ባይ
▁ለከተማ ዋ
▁የብሔ ሮች
▁ርቀ ቱን
▁ታደርጋ ለች
▁ኢንጅ ነሪንግ
▁በመካከላ ችን
▁መቀጠ ሉን
▁ራይት ስ
▁ተቋር ጦ
▁በሰባ ተኛው
4 7
a ge
መ ሱ
ማ መኑ
ሹ ት
ተ ሊ
ኛ ላችሁ
ካ ትም
ክ በት
ዘ ል
ጠ ግቦ
ፈ ቀ
▁የ ቱን
▁በ ባል
▁እ ጠብ
▁መ ሃን
▁እን መለስ
▁ከ በረ
▁ለ 30
▁የሚ ኒስቴሩ
▁ማ ላ
▁ማ ሟ
▁የተ ጫ
▁ው በትና
▁ደ ሙን
▁እንዲ ኖራት
▁ቀ ዳጅ
▁ቢ ኖረው
▁ጠ ጣ
▁አል ሆኑም
▁ከተ ያዘው
▁ሥራ ችንን
መን በር
▁ያለ ቅ
▁ከመ ድረሱ
▁ሙ ክታር
▁የሰ በር
▁አባ ትና
▁ተመ ካ
ረጋ ውያን
▁ኃይ ለማ
ደው ም
▁ጎ ፋ
▁ከሚ ችለው
▁4 50
▁ሲያ ሸንፍ
ግራ ይና
ብራ ቅ
▁ሰብ ሎችን
▁አላ ስብም
▁በነ ሐሴ
▁በል ቤ
▁ያደር ጋታል
▁የተነሳ ውን
▁የማስ በው
▁በሃ ዋሳ
▁ትግ ልና
▁አውጥ ቼ
ሸጋ ገረ
▁ፈረን ጆቹ
▁በ3 3
▁የተወለ ዱ
▁ካህ ሳይ
▁ስድ ስቱ
▁የጠየ ቅ
▁በፍት ሐ
▁ለመመ ከት
▁ሸቀ ጦችን
▁የማዳ በሪያ
▁ኤርት ራን
▁ማጋ ነን
▁እንደሚጠቁ ሙት
▁ማጠን ጠኛ
▁ሰከን ዶች
▁አውቀ ዋለሁ
ሉ ታል
ል ፋ
ሚ ክ
ራ ለህ
ቲ ካል
ይ ቁ
ዮ ና
ገ ለው
ጠ ጉ
▁ ቸውን
▁ un
▁የ ከበሩ
▁ተ በል
▁ተ ሰን
▁የሚ ወሰዱ
▁ያ ጎ
▁ወ ተ
▁ስ መጣ
▁ው ዝግ
▁ለማ ድ
▁እየ ሮ
▁ሊ ጠናቀቅ
▁ሳ ያውቁ
▁እንደሚ ገቡ
▁እንደሚ ከናወን
▁አካ ሄዱ
▁እየተ ፈጸመ
▁ኮ ድ
▁ያስ ገኘ
▁ክፍ ፍ
▁ተመ ርም
▁በግ ብረ
▁ሞ ስኮ
መር ና
▁ኦ ባ
▁ወን ዙ
▁ወን ዶቹ
▁ሠ ል
▁በል ባቸው
▁በፍ ልስ
▁በማስ ከበር
▁ገቢ ን
ደን ዛዥ
ስማ ሙበት
▁ምድር ና
▁በገ በያው
▁ተራ ው
▁ቴክኖሎጂ ና
▁መተ ሳሰብ
▁የሃ ገር
ብዛ ኛው
▁ጐ ረቤት
▁ከሚያ ገኙት
▁ስል ኮች
▁ችሎ ታው
▁ደብዳቤ ውን
▁ሥልጠና ዎች
▁ተፈጥሮ ን
▁አውጥ ተን
▁ተስማ ሙ
▁ግርማ ዊ
▁በውስ ጣችን
ነገረ ኝ
▁ከዘ መናዊ
▁በግብ ጽ
▁ጥፋ ቱ
▁አደረጃጀ ትና
▁ረድ ቶኛል
▁ከፕ ሬዚዳንት
▁እሴ ቶችን
▁ዳዊ ትም
ፈፅ ም
▁ያገለግ ላሉ
▁የተፈፀ መው
▁የበለፀ ጉ
▁መስማ ማት
▁እስራኤ ላዊ
▁ስፔሻ ላይ
▁ትዕግ ሥ
▁የተሳሰ ረ
▁አላየሁ ም
▁እንረዳ ለን
▁ስለጉ ዳዩ
▁እመኛ ለሁ
ሠ ሩም
ሦ ር
ረ ታቸው
ስ ከ
ሽ ዋል
ው ሮ
ጠ ራት
ፍ ጥ
▁በ ቫይረሱ
▁አ .
▁እን ስራ
▁ከ ፌደራል
▁ይ ዘጋጃ
▁የሚ ቀረ
▁ያ ሲን
▁ማ ካተት
▁ነው ጥ
▁የተ ረገ
▁የተ ሰማው
▁ግ ሽ
▁በመ ኖር
▁ደ ንና
▁የመ ሄድ
▁የአ ሠልጣ
▁ለማ መቻቸት
▁ሊ መስል
ረት ና
▁የማ ዘጋጀት
▁የማ ድረጉ
ስተ ንግዶ
ገባ ቸውን
▁በሚ ኒስትሮች
▁እየተ ተገበረ
▁የእ ረፍት
▁የእ ነርሱ
▁የሰ ነድ
ከት ለው
▁ን ብ
ገራ ለሁ
▁አበ ሳ
▁ተመ ኝ
ደው ና
▁የህ ፃ
ኝነት ና
ግር ኛ
▁በሙ ከራ
▁ሰብ ሰብ
▁አላ ቆ
▁200 1
▁8 1
▁በህ ጉ
▁9 2
▁ውድድር ና
▁ቅር ጫ
▁ወጪ ውን
▁እግ ሬ
ሰሩ በት
▁የድር ድር
▁አምባ ዬ
▁የሚያደርጉ በት
▁ከቀ ን
▁ሰን ጋ
▁የደረ ቅ
▁ጠየ ቀች
ለብ ስ
▁የሚከተ ሉ
▁እንድና ገኝ
▁ጻ ፍ
▁በቢ ሾፍቱ
▁ውር ወራ
▁ከጀመረ ች
▁ብዝ ሀ
▁አሥ ረኛ
▁አልሸ ሸ
▁የጠቅ ላላ
▁ብስ ራት
▁ዜጎ ቿ
▁ትም ርት
▁አሳው ቋል
▁በ8 00
▁n ot
▁የተጣለ በትን
▁ተሰምቶ ት
▁ሥዕ ሎች
▁እንግሊዛ ዊው
▁ይድ ነቃቸው
▁ትሬ ዲንግ
▁እናሳ ያለን
▁ያመቻ ቻል
▁ይሰው ረን
▁አዱ ኛ
▁የጸሐፊ ውን
ረ ዲን
ቂ ቶች
ን ጮ
ክ ለት
ዘ ልቅ
ዚ ዛ
ጣ ሚያ
▁መ ጋቢ
▁ይ ሰብ
▁ያ ቀርቡ
▁ስ ሞ
▁ስ ጥ
▁በመ ረ
▁በመ ዋጋት
▁እንዲ ቀመጥ
▁አስ ወ
▁የመ ፍ
▁ወደ ሚያ
▁አይ ጠፉም
▁አይ ፈቅድም
▁አል በቃ
▁አል ቃይ
▁ፍ ጹ
▁ፈ ርቶ
▁ዕ ጣን
▁እያ ሰበ
▁ያስ ገኘው
▁አበ ይት
▁ቆ ሎ
▁ቡ ሽ
▁አት ኩ
ፈው ና
▁ኢን ስትራክተር
▁ድርጅ ትም
▁የታ ላ
▁የሚሰ ጣቸውን
▁በበ ሽታ
▁ግንኙ ነቱን
▁በል ጦ
▁የሚጠ ሩት
ደጋ ገም
▁ውድድር ን
ፈራ ረም
▁ሚኒስትር ነት
▁ንግ ግራቸውን
▁አሜሪካ ዊው
▁ከው ኃ
ቀርብ በት
▁ከተሞች ም
▁የአሜሪካ ና
▁ማለ ፉን
▁የሚኖሩ በት
▁ታሪ ኳ
▁በሐ ረር
▁መጨ ረስ
▁ውስ ኪ
▁የምር ጥ
▁መጋ ዘ
▁ጸሐፊ ውን
ባሪ ነት
በታ ተነ
▁0 4
▁የቤ ቱን
▁ለመንግ ሥ
▁ማሽ ኖችን
▁በቢ ዝነስ
▁ሰርቪ ሱ
▁አሠልጣ ኙ
▁ሙዚ ቀኛ
▁እንዲተ ላለፍ
▁ፈን ጂ
▁በአም ስተኛው
▁በኢንዱስትሪ ው
▁ማነቆ ዎች
▁ማቆ ያ
▁መሲ ሕ
▁ፈረ ሶች
▁ከፈረን ሳይ
▁ይታየ ኛል
▁እስትን ፋስ
ሃ ስ
ር ኖ
ስ ሶ
በ ኞቹ
ኝ ነቱ
ዘ ራ
ዙ ፍ
ዛ ምቢ
ዞ ርት
ደ ሱ
ጀ ውን
ጋ ለች
ፀ ና
ፁ ን
▁የ ለማ
▁በ ጡረታ
▁መ ደገ
▁መ /ቤት
▁መ ከልከል
▁ከ ሙያ
▁ከ ደረጃ
▁ለ ክልሎች
▁የሚ ፈጠረ
▁የሚ ይዙ
▁ማ ኀ
▁ባ ዮች
▁ባ ነሰ
▁በመ ፈፀም
▁ደ ወል
▁እንዲ ቋረጥ
▁ሲ ከናወን
▁ት ሰ
▁አስ ቂኝ
▁የአ ደረጃጀት
▁ወደ ሚያስ
▁እየ ቀረቡ
▁ቢ ተ
▁ቢ ሻው
▁ደግ ፎ
▁አም ጪ
▁የእ ንቅ
▁ኮ ስተር
▁የሰ ር
ጠቀ ሰ
▁ጨ ቋ
▁የወ ለድ
ቀር ባቸው
▁ማስ ፈፀሚያ
▁ነገ ሬ
▁በር ዕ
▁ተቋ ቋ
▁ጎ ኖች
መር በት
▁ጭ ውው
▁አሳ ዳጊ
▁በሰ ፊ
▁አቅ ፎ
▁እንደተ ቀ
ሰባ ችሁ
▁በደ ጋ
▁ጣ ዖ
▁ትኩ ር
▁ለተ ፈጠረው
▁በት ልልቅ
▁የገ ዥው
▁ግንኙ ነታቸው
▁ትን ሳኤ
▁10 3
▁ስለሚ ያውቅ
▁መዝ ና
▁በማስ ቆጠር
▁የቆ መው
▁ኬ ክ
▁ወረዳ ው
▁ተሰ .
▁ተሰ ጠ
በራት ም
▁ሃሳብ ና
▁የማስ ቀ
▁ነፍ ሰጡ
▁በፈ ተና
▁ይሰማ ዋል
▁መዳ ከም
▁ለጥ ፋት
▁አለም ን
▁ከራ ሴ
▁አታ ላይ
▁ተሰማ ርቶ
▁የሸ ክላ
▁ያስች ለዋል
▁በመጠ ባበቅ
▁በሩ ጫ
▁T h
▁በጠ ዋት
▁ጀር መናዊ
▁በመሠ ረታዊ
▁አገልግ ሏል
▁ተጣ ርቶ
▁ጳጳ ሳት
▁U n
▁ባለት ዳሮች
▁or g
▁አሁኑ ኑ
▁መከናወ ኑን
▁ብዥ ታ
▁ተበርክቶ ላቸዋል
ሃ ር
ል ነት
ሏ ችሁ
ሲ ቷ
ቆ ልቆ
ቧ ቸዋል
ኪ ዳን
ዊ ና
ጨ ርሱ
▁ v
▁የ ፔ
▁የ ሆናቸው
▁ስ ጡ
▁ሰ ኢድ
▁ግ ሪ
▁በመ ፈለግ
▁ሲ ስተር
▁ሲ ጓዙ
▁በአ ብነት
▁የአ በረታች
▁የአ ስፈጻሚ
▁ክ /
▁አይ ሉም
▁ሙ ት
▁የሰ ሙ
▁የሰ ሩት
▁የሰ ጠን
▁ኢትዮጵያ ውያኑ
▁አድር ባይ
ሽን ት
ገለ ፀው
▁ሐ ሰን
▁በየ ዘ
▁እንዲያ መጣ
▁እነዚህ ና
▁የታ ጠቁ
▁በሰ ዓቱ
▁አቅ ዷል
▁ለእ ያንዳንዳቸው
▁አለመ ሆናቸው
▁በት ግሉ
ማር ቆስ
▁መቀ ነ
▁መዝ ገ
▁ከኢ ትዮ
▁ሩ ጫው
▁ባንክ ን
▁ስፍራ ዎችን
▁ያላ ንዳች
▁ለሕ ገ
▁ግልጽ ነትና
▁ጊ ል
▁ቅሬታ ውን
▁የያዘ ችው
▁በኤ ጀንሲው
▁ወገን ተኝነት
▁ግም ጃ
▁የየ መን
▁በአሜሪካ ና
▁ስለም ታ
▁መቀመጫ ዎች
▁መቅረ ቡን
▁እቅ ፍ
▁ተአ ማኒ
▁ቅዳሜ ና
▁ተረድ ተው
▁በአው ስትራሊያ
▁አፅ ንኦት
▁ኦሎምፒ ያድ
▁ወሳ ኙ
▁ግብፃ ውያን
▁ከይ ሁዳ
▁ተፈር ዶ
▁የማም ለኪያ
ሰላስ ል
▁አይከብ ድም
▁ናቡ ከደነ
▁ማንዴ ላ
ሠ ብ
ሳ ትም
ብ ለ
ብ ቶች
ቨ ሎፕ
ኚ ነት
ኮ ረ
ኾ ኑ
ገ ረድ
ፋ ፊ
▁መ ፈራረ
▁መ ላቀቅ
▁ከ 0
▁ከ ቃ
▁ከ ገበ
▁ይ ከለ
▁ወ ሊድ
▁ማ ነብ
▁የተ ዘረጋ
▁ሲ ኒ
▁ሲ ፈልጉ
▁ት መጣ
▁ለመ ትከል
▁በማ ገናኘት
▁1 ,000
▁እንደሚ ኖራቸው
▁እንዳ ደረጉ
▁በሚ ሰጡ
▁ህ ዋ
▁ከመ ቀበል
▁ከመ ደበኛው
▁የእ ም
▁ሙ ስ
▁ከሚ ችሉ
▁እው ቅ
▁አሉ ላን
▁5 ኛ
ፈጠ ርም
▁ዘመ ናትን
▁የምት ፈልገው
▁መንግሥ ታቸው
ቀጥ ሉት
ፈር ሱ
▁መብ ቃ
▁10 ,000
▁ስብ ጥር
▁ና ስር
ናገር ም
▁ልጆ ቻችሁን
▁የፍ ፃሜ
▁እግ ዚ
▁ከም ዕራ
▁ጥቅ ሞችን
▁የሞ ቱት
▁ለብ ቻቸው
▁ኢህአዴግ ና
▁የዓ ድዋ
▁ጠይ ቄ
ማረ ር
▁ቲ ም
▁ይደረ ጋሉ
▁ከ2 4
ላሚ ኒ
▁ከደ መ
▁ኑ ሩ
▁የዴሞክራሲ ና
▁የወሰ ነው
▁ጢ ስ
▁በራስ ህ
▁ማነስ ና
▁ቀድ ማ
▁ተባ ዕት
▁ጁ ነ
▁ማቅረ ባቸውን
▁የሜ ዳልያ
▁ሾፌ ሩ
▁ተሸክ መው
▁ህጻ ን
ከባከ ቡ
▁የፎ ቶ
▁ካይ ሮ
▁የእንግሊ ዙ
▁ያበረታ ታል
▁ተተር ጉ
i v
ሁ ህ
አ ግባብ
ዳ ሩን
▁የ ጥር
▁የ ረገ
▁በ ኡጋንዳ
▁መ ሠራ
▁መ ሙላት
▁እን ሰ
▁ከ ጠፋ
▁ከ ሪፖርተር
▁ነ ህምያ
▁ተ ድላ
▁የሚ ከታተል
▁የሚ ወሰነው
▁እንዲ ስተካከል
▁በአ ስቸጋሪ
▁የአ ሥር
▁የአ ገልግሎቱ
▁ድ ሎችን
▁እየ ጠበ
▁እየ መሩ
▁እየ ጨመሩ
▁ቢ ሰጥ
▁ሳ ያውቅ
▁በሚ ፈጠር
▁ቅ ብ
▁ጉዳ ያችን
▁መል በስ
▁ዘር ፎችን
▁ያል ሆነው
▁ሽ ቶ
▁አማ ኝ
▁ግብ ዝ
መል ሰው
▁አለመ ግባ
▁የቀ ኝ
ሊያ ዎቹ
▁ሂ ዩ
▁እንግ ዳው
▁ነገሮች ም
▁ይመስ ላችኋል
▁ጦር ነትን
ከብ ራል
▁ለማሳ መን
▁የጎ ሳ
▁ይታ ሰብ
ከፋ ፍ
▁ፖለቲካ ው
▁የሞ ተው
▁የፀ ና
▁ተሳታፊ ዎቹ
▁ይዘ ል
▁ግብር ናው
▁የዋ ህነት
▁ቀላል ና
▁ጣቢያ ዎችን
▁ጉባዔ ውን
▁ምና ለ
▁ትና ን
or t
▁ይጠይ ቁ
▁ምኒልክ ን
▁ሃይ ሌ
▁ጆሮ ውን
▁የተለመደ ውን
ራኒ ያን
▁የባህር ዳር
▁ጓደኞ ቿ
▁አምጥ ተው
▁ከሩ ሲያ
▁ፍጥ ረታ
▁ፆ ታዊ
▁በጃ ን
▁ከሽ ብር
ፈፅ ሙ
▁ማሳየ ቱን
▁የክት ትልና
▁በትምህር ቱ
▁እጆ ቹን
▁የተጠየ ቁት
▁በኃይ ሉ
▁በነጋ ታው
▁ሬስቶ ራን
▁ብዕ ር
▁የቪ ዲዮ
▁የተወጣ ጡ
ልቃይ ዳ
ላ ካችን
ም ቱ
ቁ ርና
ኔ ጅመንት
ዓ ታት
ዳ ጁ
ዷ ቸዋል
ጓ ቸዋል
ፋ ሪው
ፌ ዲሪ
ፍ ራል
▁መ መስ
▁ከ ያዙ
▁ለ ኅ
▁ይ ቀጥል
▁ተ ዛው
▁ያ ፋ
▁ያ ከናወ
▁ማ የቱ
▁እንደ ገቡ
▁ሲ ላቸው
▁ል ሳ
▁የመ ደ
▁የመ ጠየቅ
▁የአ ሁ
▁ገ ላትያ
▁ወደ ዚያው
▁ለማ ገ
▁ለማ መንጨት
▁አይ ለ
▁በማ ረሚያ
▁እየ ደረ
▁ሊ ነ
▁ቢ ገኝ
▁የማ ያውቀው
▁አገ ዛ
▁ከተ ሰማ
▁ዕ ለቱ
▁እያ ቃ
▁በእ ና
▁እየተ ፈታ
▁እየተ ለወጠ
▁መል ሳ
▁ሙ ኒክ
▁ያስ ገር
▁ዳ ኞችን
▁ቆ ማ
▁ሴ ተኛ
ዘጋ ጃቸው
▁ተቀ ባ
▁የሕ ጉ
▁ኪ ሱ
▁እንደተ ደረገ
▁የምት ፈልገውን
▁ፀ ብ
▁ያሳ ለፈው
▁ልብ ሳቸውን
▁ምርጫ ም
▁በል ጆች
▁ጦር ነትና
▁ጦር ነቱን
▁መታ ዘ
▁ንግ ስት
▁ቻ ን
▁አግኝ ታ
▁ተፈ ፅ
▁እም ነቶች
▁ሙያ ዎች
▁እያንዳን ዳችን
▁ጠብ ቅ
▁በከተማ ችን
ሳካ ላቸው
▁ይመ ክራል
▁ካሉ በት
▁ከጎ ናቸው
▁ልና ስ
▁ያደ ጉት
▁የጀመረ ችውን
▁በቤ ታቸው
▁ሰርቪ ስና
▁በማስተ ሳሰር
▁ሜት ሮች
▁ኪዳ ኔ
▁መሄ ዱን
▁በማግኘ ታቸው
▁ተለው ጧል
▁ግማ ሹን
▁ለከተማ ው
▁መናገራ ቸው
ነግር ህ
▁መረጋገ ጡን
, 500
ሜ ንና
ረ ኛል
ሬ ክተሮች
በ ጡ
ቡ ዌ
ቲ ኤም
አ ደሩ
ጃ ችሁ
ገ ምት
▁እ ግራቸውን
▁መ ጎልበት
▁መ በራከት
▁እን ችል
▁ከ ጨዋታው
▁ለ ገና
▁ይ ጠቀም
▁ይ ፈልጉ
▁የሚ ዳርግ
ላይ ን
▁ግ ሬ
▁ደ ፍሮ
▁በአ ድዋ
▁የመ ቃብር
▁ቀ ሳው
▁ዘ ጋ
▁የሚያ ዘ
▁የሚያ ያዝ
▁እየ ኖር
▁ስለ ነ
▁ጠ ና
00 00
▁ሳይ ገባ
▁ሳይ ደረግ
▁ከአ መራ
▁ዝ ማሬ
▁ን ቀት
▁መካ ነ
▁አቀ ረ
▁ጥያቄ ያቸውን
▁ተቀ መጥ
▁ጽ ፈው
▁ር ቃ
▁ኢየሱስ ና
▁ሪ ፈራል
ውል ናል
▁ምክር ና
▁መለ የ
▁ታሪክ ም
▁ግድ ፈ
ጠን ጢ
▁እምነት ን
▁ተሳትፎ ን
▁ከባድ ና
▁ፖሊሲ ዎችን
▁አሰልጣ ኞችን
▁30 /2009
▁ከል ጅነት
ገም ገ
▁አይገባ ኝም
▁ወሬ ው
▁የሚቀ ረው
▁የዲ ፕሎማ
▁በ199 5
▁ሲያስ ብ
▁ጥቃ ቶችን
▁የሚያስተ ም
በዛ በት
▁ለታ ዳጊ
▁ይቆ ማል
ጎብ ኘ
▁የአሁኑ ን
▁ከጠ ዋቱ
▁አድን ቀዋል
▁የጂ ቡቲ
ሊው ድ
▁ጉል በትና
▁e x
ቀላ ጠፍ
▁አጠናክ ረን
▁መቋ ጫ
▁ደንግ ጓል
▁ካምፓ ኒ
▁የቅን ጅት
▁የሚተገ በር
▁በጂ ቡቲ
▁ነድ ፎ
▁በስብ ከቱ
▁የጾ ታ
ሌ ኒየም
ረ ክብ
ራ ብ
ር ቱ
ሸ ል
በ ለው
ባ ችሁን
ቴ ድ
ቸ ስተር
እ ክት
ጉ ረ
ጋ ትን
ግ ሱ
ጠ ግብ
ጸ ድ
ፌ ሽናል
▁መ ሟላት
▁ይ ሙት
▁ይ ንቀሳቀ
▁ይ ፈጠር
▁የሚ ጠበቁ
▁ያ ገር
▁ማ ጽ
▁የተ ሻሻለ
▁ደ ራር
▁ት ጠይ
▁ጥ ጃ
▁በአ ሸናፊነት
▁የመ ቋቋም
▁የአ ጋ
▁ክ ው
▁በማ ቴዎስ
ለም ና
▁ቢ ያው
▁የማ ክበር
▁ካ ዛን
▁በሚ ባሉ
▁ከተ ገኙ
▁ጉዳ ያቸውን
▁አም ርቶ
▁የእ ሷ
▁ተቋ ዳሽ
▁ላ ፍቶ
▁የበ ቁ
▁ር ክ
▁ለሚ መጡ
▁የቀ ጥታ
▁ለማስ ያዝ
▁ሄ ድን
▁ተስፋ ፍቶ
▁7 .
▁በነ ገር
▁የዘ መ
▁እንደማይ ኖር
▁ዴሞክራሲ ና
▁ስላ ሉት
ደርገው ም
▁መጣ ና
ጠየ ቀው
ችኋ ቸው
▁ፎ ረ
▁የተባ ለችው
▁ተጠና ቅቆ
▁ሰን ዝረዋል
▁ጀም በር
▁ዱ ቤ
▁ስትራቴጂ ው
▁የኢንዱስትሪ ው
ቃወ ሙት
▁የሚቀ በል
▁ለሙ ያው
▁የን ፋስ
▁እየሆነ ች
▁የኅ ብረቱ
▁መስጠ ታቸውን
ወያ የ
▁ሆን ክ
▁ለፍ ቅር
▁ለባ ዶ
▁የሚወስ ነው
▁መድኃኒ ቶችን
▁አክራሪ ነትና
▁ወራ ጅ
▁የፕሬዚዳን ትነት
▁አስገኝ ቶ
▁ብዝሃ ነት
▁መታየ ቱን
▁በተያዘ ለት
▁ገብረእ ግዚአብሔር
▁የሻምፒዮ ንስ
▁ከቅዱ ስ
▁መስጊ ድ
▁ይፈጸ ማል
▁የሚፈጠረ ውን
6 7
u p
መ ሪያ
ሳ ቤ
ሻ ገሩ
ቀ ችው
ባ ቶች
ዎ ቼን
ጆ ቹን
ግ ዙ
▁ ቨር
▁በ ፈጠራ
▁አ ፈራ
▁እ ኚ
▁ይ ወቅ
▁ተ ፍ
▁የሚ ዘጋጀው
▁ያ ንግ
▁በመ ሃል
▁ሲ በ
▁አስ ጠብ
▁በተ መረ
▁ክ ሬ
▁እየ ሳቀ
▁እንደሚ ወጡ
▁በሚ ፈልገው
▁ሥራ ዎችና
▁እየተ ወሰደ
▁ሀ ገራችንን
▁ቡ ሐሪ
▁በየ ትምህርት
▁አት ስ
▁ከእ ርሻ
▁በም ሥራ
▁ፕሮ ዳ
▁የማይ ታይ
▁ከማ ው
▁አቅ ል
▁አጋ ጠ
▁ሊያ ነሳ
▁አለመ ቻላቸው
▁አሰ ላ
▁8 9
▁ፖሊ ስና
ደጋ ቸው
ወስ ኑ
▁ስታ ር
▁ይኖር ባታል
▁የቻ ለች
▁ተሰ ልፎ
▁ፓ ይ
▁የምታ ገኘው
ጀል ባ
ነታቸው ም
▁ፎ ረሙ
▁ስል ሳ
ቀል ድ
▁የሚገባ በት
ሰል ጠኛ
er e
▁ኑሮ ው
ዳማ ዊት
▁በፊ ቴ
▁ሕክምና ውን
▁በን ባብ
▁ለል ጆቹ
▁በተቃ ውሞ
▁እያሳ ደረ
▁የጣ ለ
▁ይሻ ሉ
▁ባልተ ጠበቀ
▁በመሰ ረቱ
ረከ ቡት
▁199 0
▁በ20 20
▁የተን ጠለጠ
▁አጉ ልቶ
▁በመሠ ዊያው
▁ለመን ከባከብ
▁ምላ ሹ
▁በመጣ ስ
▁በአር አያ
▁ያጋጠ መው
▁ፈጣ ሪዎች
▁ገጣሚ ው
▁በጋዜ ጣ
▁ሰል ፎች
▁ማደ ጉን
▁ስማ ርት
▁ቬ ን
▁y ou
▁ያከናው ናሉ
▁በአትሌ ቲክሱ
▁አዘውት ረው
▁አላለ ፉም
▁የተጠና ወ
▁ከተባ በሩት
▁እጠይ ቃለሁ
▁አስመዝግባ ለች
ራ ችሁን
ቋ ቸዋል
ኮ ሩ
ኮ ንዶች
ኳ ንዳ
ዮ ሊ
ዮ ኑ
ገ ግም
ፈ ጨ
▁የ 50
▁እ ጢ
▁መ ከበሩ
▁ከ ች
▁ለ ጭ
▁ለ ዝግጅት
▁ይ ላ
▁የሚ ሰብ
▁ያ ካሄደው
▁ያ ወድ
▁ደ ባ
▁እንዲ ሰማ
▁እንዲ ፈጠሩ
▁ሲ ወራ
▁በተ ነ
▁የአ ምሳ
▁ዘ በት
▁ለመ ገምገም
▁ኢ የሩሳሌምን
▁በማ ጋለጥ
▁ቢ ችሉም
▁ሳ ቢ
▁እና ታቸው
▁የማ ላው
▁ካ ደረግን
ገባ ለን
ናቸው ና
▁እያ ወቁ
▁የነ ርቭ
▁ሀ ረር
▁ለአ ህጉ
▁በቀ ዶ
▁ስራ ዎቹ
ጠው ና
መስ ለኝ
▁በየ ሰ
▁ያል ጠበቀ
▁እር ጅና
▁የበ ቁት
▁ማን ደፍ
▁ረ ፋ
▁አማ ፅያን
▁ከማ ር
▁በስ ፖርታዊ
▁የምን ሠራው
▁ወንድ ወሰን
▁የዘ ረኝነት
▁የዘ ለቀው
▁ከወ ረ
▁የካ ሜ
▁ሮ ዛ
▁እያለ ፈ
▁መጣ ጥፍ
▁ኮን ፍ
▁የድር ጅት
▁የማስ ወገድ
▁ከል ባቸው
▁ኢትዮጵያዊ ቷ
▁የማህ በረሰቡን
▁ይሄን ንም
▁እንደምት ለው
ጠነ ኛው
▁ቲ ማቲም
▁ጂ ም
▁ቫ ን
▁ብዙኃ ኑ
▁አደሮች ና
▁ክብ ሩ
▁ግዙ ፉ
▁አንዳንዶቹ ም
▁ከዕ ድሜ
▁ብቃ ታቸው
▁አውቶ ሞቢ
▁በቤ ኒሻንጉል
▁ማም ለክ
▁በጀ ግ
▁ተዘ ፍ
▁በኪ ሎ
▁አገላለ ፅ
▁የፈጠረ ውን
▁በስብሰባ ዎች
▁ተዘር ግቶ
▁ንጽ ሕና
▁ከ198 3
▁ስለሆን ኩ
ቃለ ልና
▁ገረ መው
▁ዲቪ ዚዮን
▁አቀር ባለሁ
▁አዜ ብ
▁ባለሃ ብት
ረ ዘ
ረ ባረ
ሬ ትና
ሰ ገድ
ቅ ያስ
ቅ ልቅ
ቅ ደም
ቲ ስ
ኝ ህ
ክ ረ
ኻ ል
ወ ይ
ዕ ዳን
ዚ ራ
ዛ ወ
ዮ ሴፍ
ዳ ናው
ዳ ሰሱ
ጫ ጭ
ጸ የ
▁የ ፈራ
▁በ ኑ
▁በ ደር
▁በ ለውጥ
▁ከ ችግር
▁ያ ሟ
▁የተ ቸገሩ
ነት ንና
▁በመ ቅረብ
▁እንዲ ቋቋሙ
▁ሲ ጋ
▁አን ሥ
▁በአ ሰ
▁በአ ብ
▁ዓ ድዋ
በር ስ
▁ለመ ገን
▁ኢ ዩ
▁ታ ጠቅ
▁ጉ ዱ
▁እንደሚ ቻልም
▁አለ ቆቹ
▁ጠ ርተው
▁አል ሲሲ
▁እስ ማ
ሰብ ኝ
▁ያለ እ
▁ሳይ ት
▁አም ጣ
▁ከመ ላ
ፈል ገን
▁ከአ ትሌ
▁ከፍ ርድ
▁ን ትር
▁ለአ ራተኛ
ረጋ ሉ
▁ቆ ላማ
▁ሌላ ኛውን
▁በየ ክ
▁ዶ ክተ
▁አደ ገ
▁እር ማት
▁ከሚ ባል
▁በስ ኳር
ራሲ ዮን
▁አምላክ ና
▁የምት ሰጠው
▁ሊያ ደርስ
▁አያ መጣም
▁አያ ይዘ
▁የገ መ
ለማ ቀፍ
▁ስን ኝ
▁ስን ጀምር
ጠራ ቀም
▁ከወ ጪ
▁ምስ ሎችን
▁ካለ ባቸው
▁ከነ ሐሴ
▁በሀ ገራቸው
▁እግ ረኛ
▁16 0
▁ጥቅ ማቸውን
ንቲ ም
▁የጉ ድ
▁ዴሞክራሲያዊ ና
▁ነፍ ሱን
▁ነዋሪዎች ም
▁የባለ ስልጣኑ
▁28 /2009
▁ተል ኮ
▁ጥቃ ቱን
▁ኤር ዶ
▁ሰባ ተኛው
▁ማሽ ነሪ
▁ማሽ ቆልቆ
▁መኪ ኖችን
▁ወሰን ኩ
▁ሀሳ ቦችን
▁የመድ በለ
▁ትውል ዶች
▁ጥበ ባት
▁ማቅረ ቡን
el l
▁ለሶ ስተኛ
▁ፍየ ሎች
▁ለድር ድር
▁እንግሊ ዞች
▁ዜጎ ቻችን
▁ማህበረሰቡ ን
▁ወያ ኔ
▁የሚጠቁ ሙት
▁ተገልጋ ዮች
▁የሆቴ ሉ
▁አንቀሳ ቃ
ህ በት
መ ድን
ሞ ንን
በ ቱን
ን ሳ
እ ዝ
ካ ዜ
ዛ ዛ
ዛ መድ
ዳ ረጉ
▁የ ጻፈ
▁እ ወ
▁እን ጦጦ
▁ከ ደም
▁ተ ጐ
▁ያ ዘጋጁ
▁ያ ተኩ
▁ያ ጠናቀቁ
▁ት መ
▁አን ጌ
▁በአ ጽ
▁ለማ ደስ
ተኛ ል
▁አል ወጣም
▁በሚ ቆየው
▁እያ ላቸው
▁የኢ የሩሳሌም
▁የኢ ነርጂ
▁ኮ ርስ
▁የግ ሉን
▁እንደሆነ ው
▁ማን ነትና
▁አው ሮ
▁አው ድማ
▁የታ ቀደ
▁ባህ ሪው
▁እንደተ መለከትነው
▁ለሚ ነሱ
▁ለማስ መለስ
▁ለተ ባለው
▁ይጠ ፋሉ
▁በወ ሬ
▁ሰብ ሮ
▁ወንድ ሞችን
ርስቲ ያኖች
▁አግ ዳሚ
▁ወዳ ጁ
▁ከም ክር
▁በቁ ጠባ
▁ትውልድ ም
▁ለወ ገን
▁አወ ል
▁የሚተ ዳደር
▁ሊቀ ንስ
▁ተሞክ ሯል
▁የጋ ና
▁እነሱ ንም
ርፍ በት
▁ጓደኛ ቸው
ሪስ ቶች
▁ሔ ደ
▁እንድታ ስ
▁ስለማይ ቻል
▁ከ200 0
▁የሚጠቀ መው
▁የፓርቲ ውን
▁ማሽ ነ
▁በቤ ጂንግ
ገናኘ ን
▁የፕሮጀ ክ
ለፈ ች
▁ኔት ዎርክ
▁ከጠ ላት
▁ሞል ቷል
▁ከቤ ታቸው
▁ትእዛ ዛ
▁መውጣ ቱን
▁ከማህ በረሰቡ
▁በድረ ገ
▁ታጅ በው
ዘገ ይ
▁የታሰበ ውን
▁ክላ ስተር
▁ፓትርያ ርክ
▁ዘጠ ነኛ
ፍቲ ኔት
▁ከጠቅ ላላ
▁ልንገር ህ
በልጸ ግ
▁ተርሚ ናል
ሃ ና
ሚ ካ
ማ ራቸው
ረ ጎ
ር ጓ
ሴ ሎም
ሻ ሉ
ቆ ሽ
ብ ጠው
ቪ የት
ት ወ
ካ ትና
ክ ሉት
ዳ ኑ
ጎ ራባች
ጐ ችን
ጠ ልቅ
▁የ ቋ
▁አ ፈጠ
▁መ ተኛት
▁ከ ሰብዓዊ
▁የሚ ሞቱ
▁ያ ከናወነው
▁ወ ረድ
▁ስ መለስ
▁የተ ዘጋ
▁በመ ድረስ
▁እንዲ ዘጋጅ
▁አስ ፈለገ
▁የመ ክፈል
▁ገ ቢያቸው
▁ቀ ዝ
▁ቀ ብር
▁ለማ ደግ
▁የሚያ ገናኝ
▁እየ ጠራ
▁ጠ ገብ
▁ጠ ላትን
▁ሌ ቦች
▁አካ ፍ
▁የኢ ቦላ
▁ያስ መሰ
▁ን ዴት
▁የወ ሬ
▁አበ ሻ
▁በየ ቤተ
ተዋል ዶ
▁አገልግሎ ታቸውን
▁ከሚ ወ
▁የበ ላ
ናው ም
▁ፖ ስቱ
ፈጠ ረም
▁የታ ደ
▁ዘመ ዴ
▁በሁ ኔታው
▁የቀ ጣይ
▁የቀ ደመ
ዱስት ሪዎች
▁7 9
ከፍ ታ
▁ልብ ስና
▁ምስ ቅልቅ
ስማ ሙም
▁የኮ ሪያ
▁ተሳትፎ ው
▁በባ ንኩ
▁እስኪ መጣ
▁ሥነ ምግባር
▁እንደሚያስ ረዳው
▁ገበ ታቸው
▁ሦ ስቱን
▁ለስ ኬት
▁የ1 00
th er
▁ደብዳቤ ው
▁የቦ ሌ
▁በአገራችን ም
▁የሠ ሩት
▁መሐ ንዲ
▁ለይ ተን
▁የወደ ፊቱን
▁የማዕ ረግ
▁ሕፃ ናትና
▁ለጋ ሾች
ተረ ጎም
▁መጀመ ራቸው
▁አድርጌ ያለሁ
▁የሚወስ ደውን
▁ለእኛ ም
▁ፍቅ ራዊ
▁ፍቅ ሩን
▁ጀግ ን
▁ናይ ጀሪያ
▁ጅማ ሮ
▁ሲቀ ረው
▁መነሳ ቱ
▁ዌ ስት
▁ፈት ሾ
ስተላል ፉ
▁ተሟ ጋ
▁ከጅ ቡቲ
▁ቅመ ማ
▁ገምግ ሟል
▁በመምህ ርነት
▁ለመፍታ ትና
▁ዜጐ ችን
ጎለብ ቱ
▁ተዓማኒ ነት
▁የመቻ ቻል
▁ይሻለ ኛል
▁ሚክ ያስ
▁ፕሮሞ ሽን
6 00
7 5
w w
ለ 2
ሌ ብ
ር ጂ
ሲ ፕሊን
ቄ ም
ታ ቸዋል
ን ዋ
ዞ ችና
የ ተ
የ አ
ዳ ቸዋል
ጆ ታ
ገ ዛት
ግ ሯል
ጫ ዎች
▁የ ኀ
▁መ ጠናቀቁ
▁ከ ቀረበ
▁የሚ መልስ
▁ወ ትሮ
▁ማ ሙ
▁እንደ ጠፋ
▁በመ ጠን
▁እንዲ ንቀሳቀሱ
▁እንዲ ፈጥሩ
▁ል ቧ
▁በተ ጫዋ
▁ለመ ካ
▁ኢ ፍትሐዊ
▁ባለ ታ
▁እንዳ ገኙ
▁እንዳ ብራሩት
▁አል ልም
▁በሚ ሉት
▁እያ ላችሁ
▁የኢ ጋድ
▁የእ ኩልነት
▁ኢትዮጵያ ዊት
▁ተመ ላል
መጣ ለሁ
▁በም ሥ
▁ያል ቻለው
▁ቅዱ ሳዊ
▁ዛሬ ን
▁እንዳለ ህ
▁የተሰ በሰበ
▁እንግ ዶችን
▁እንደሚያ ሳይ
▁ሸ ራ
▁መድ ፍ
▁ይሰ በስ
▁መግለ ጻቸው
▁የጠ ፋው
▁አግ ቢ
▁ነበረ ን
▁ቁጥ ሮች
ጠብ ቅም
▁የሃ ዋሳ
▁በጎ ደለው
▁ስል ኩ
▁ዛ ዲያ
▁የውሃ ና
▁ለራ ሷ
▁በአብዛ ኞቹ
ድሜ ንተን
▁ሎ ሬት
▁የአን ዲት
ፈነ ዳ
▁የጸ ዳ
▁አምላ ካችሁ
▁ከሞ ቱ
▁ዘው ዱ
▁ዩኒቨርስቲ ዎች
▁ተመልካ ቹ
▁የሚካሄድ በት
▁መያ ዛቸውን
▁የተራ ቆ
▁ይገለ ፃል
▁ያስቀም ጣሉ
▁ለምግብ ነት
ስተዋው ቅ
▁ተደጋ ግ
▁ማሠል ጠን
▁ሰብስ ቤ
▁ኦፊ ሰር
▁ለማው ረድ
▁ቆስ ጠንጢ
▁መሸጋ ገር
▁አሳታ ሚ
ሁ ሩ
ቀ ለው
ቡ ስ
ቦ ቱ
ኛ ት
ጨ ምሩ
▁የ ቤን
▁በ ፒ
▁በ ንድፈ
▁አ ድረ
▁እን ትን
▁ከ ዱ
▁ለ 200
▁ለ ክለቡ
▁ይ ቃወ
▁ማ ረም
▁እንደ ጠ
▁በመ ደረግ
▁ሲ ይዝ
▁አስ ቡ
▁የመ ጋ
▁ቀ ስቃ
▁ወደ ሆነ
▁የሚያ መርቱ
▁እየ ቃ
▁ታ ደር
▁ሳ ያንስ
▁እንደሚ ገል
▁እንደሚ ውል
▁አለ ፉ
▁አለ ቻት
▁ካ ዳ
ስተ ናል
▁ወይ ኔ
▁ሥራ ዬን
▁ሳይ ን
▁ሰው ነታችን
▁እየተ ሳ
▁እየተ ጫወቱ
▁ከመ ድረክ
▁መል ሶች
▁ቆ መዋል
▁እኔ ው
▁ዓይ ናቸው
▁መጠ ናቸው
▁ከሚ ጠቀሱት
▁ሲያ ወ
▁ከማ ዳ
▁ኃላፊ ዎቹ
▁ሠ ዎች
▁ለማስ ረከብ
▁የሆኑ በት
▁ተገ ላ
▁የተሰ ና
ጠራ ቸውን
▁9 4
▁ሰጥ ተ
▁አልተ ቀበ
▁ሱ ፍ
▁የጠ ረ
ላን ቲክ
▁ከኢ ጣሊያ
▁የኮ ከብ
▁ተገል ጋይ
▁ሥርዓ ትም
▁ቁጥ ቋጦ
▁መተ ላለ
▁መቼ ስ
▁በመቀ ላቀል
▁ተደራ ራቢ
▁ቅሬታ ዎችን
▁የምርጫ ውን
▁የደረ ስ
▁በሃ ገር
ኖረ ንም
▁የላ ሊ
ሮም ኛ
▁ከቤተ ሰቡ
▁የሚደርስ ባቸውን
▁ይሉ ናል
ደቀ በት
▁ዓይነ ቶችን
▁የሚለ ካው
▁ማም ለ
▁ለመሸ ሽ
▁የመቀ የር
▁አሽ ከ
▁የቅር ጫት
▁ለመው ለድ
▁በአቅራ ቢያቸው
▁ይወድ ቃሉ
▁የወጣት ነት
▁ሯ ጭ
▁ሣይ ሆን
▁የህዝ ቦችን
▁ካፒታ ሊዝም
▁የእንስ ሳትና
▁አልነ በራትም
ቄዶ ንያ
ላ ቶች
ሪ ል
ባ ላችሁ
ኃ ሚን
ነ ዌ
ዝ ሮ
ጃ ጅ
ጠ ባበቅ
▁የ ፈጸሙት
▁በ ከተ
▁በ ለጋ
▁መ ቋቋ
▁መ ሰማራ
▁ከ ሦ
▁ከ ዐ
▁ከ ዚያው
▁ነ በ
▁ይ ናፍ
▁የሚ ሞክ
▁የሚ ጠናቀቅ
▁ያ ጣል
▁የተ መለሱ
▁እንዲ መዘገብ
▁በአ ገልግሎ
▁እና መሰግና
▁እንዳ ደረጉት
▁ጠ ቀስ
▁አገ ሮቹ
ስተ ህ
▁በሚ ያዝያ
▁ደግሞ ላችሁ
▁ዓመ ቴ
▁ዓመ ትና
▁ፈ ቀደ
▁አንድ ያ
▁በእ ሳቸው
▁አም ጡ
▁ከመ ኖር
ለያ የት
ከተ ላቸው
▁የወ ሎ
▁ቆ ራጭ
▁እንዴ ትና
ወጣ ና
▁እር ድ
▁ኢን ሳይ
▁4 /2009
▁እንዴት ስ
▁የማይ ነ
▁ጭ ኖ
▁አሳ ድሮ
▁እንደተ ፈጠረ
▁ግብ ሩን
▁ስር ቆት
▁እንዳለ ኝ
▁ያሳ ው
▁የደ ሴ
▁አዋ ጪ
▁በታ ክስ
▁የአፍሪካ ና
▁ከወ ርቅ
▁ታላ ላ
ማቸው ና
▁ገቢ ና
ነግ ረኝ
▁ቋንቋ ው
▁ለሁ ለቱ
▁ተጫዋ ቾ
▁ደም ቆ
▁በመስ ቀል
▁ነጋ ሶ
▁የዋ ለ
▁የመጣ ነው
▁የቅ ዱሳን
▁የሚተ ካ
▁መሸ ሽ
▁ጃ ክ
▁ይበ ላሉ
▁በሶ ስተኛ
▁ይሰማ ናል
▁በቦ ንድ
▁መራ ጮች
▁መጋ ባት
▁አጣ ምሮ
▁የጣ ለው
▁ሞክ ረው
▁ለበ ለጠ
▁ንብረ ታቸው
▁ያየ ነው
▁መድኃኒ ቱን
▁መዋቅ ሩ
▁በፍት ሐዊ
▁ኃጢአ ተኞች
▁ይነግ ሩ
▁ሙሽ ራው
▁የመጀመርያ ውን
▁ህገመንግ ስት
▁ለመው ጋት
▁ቀልጣ ፋና
▁አሰባ ስቦ
▁ከኪ ራይ
▁የቼ ስ
▁ለመል ቀቅ
▁እባክ ሽ
▁ማና ጀር
▁ያጋጠመ ውን
▁አስቆ ራጭ
▁ሰነባብ ቷል
▁ተንከባ ክ
▁ሴን ተር
▁ትይ ዩ
▁ተቋቋ መ
3 5
u d
ሎ ታል
ም ፕ
ሣ ራ
ወ ገዱ
የ ሚ
ዳ ውያን
▁የ ፈን
▁አ ተር
▁አ ከፋፈል
▁የሚ ከብድ
▁ወ ባ
▁ሰ ቅ
▁ሰ ዎቹን
▁ው ጡ
▁ው ሉን
▁እንዲ ዋ
▁አን ስቷል
▁የአ ስራ
▁የአ ነስተኛ
▁ድ ሀ
▁ቀ ኙን
ደር ጓቸው
▁የሚያ መጡ
▁ከተ ተ
▁እስ ፔሻ
▁ከአ ጋ
▁የሰ ጠኝ
ችል ኝ
▁የወ ሰድ
▁እስከ ታች
▁ሐ በሻ
▁ላ ው
▁አሳ ን
▁ይገ ዙ
▁እጅ ህን
▁የሚሰ ጠን
▁ባይ ታወቅም
▁በህ ገመንግ
▁የብ አዴን
▁በ19 50
▁እንዳል ቀረ
▁ያስፈል ጉ
▁ዙሪያ ም
▁የኤ ር
▁መታ ጠቢያ
▁ከነ ባ
▁መምህ ርና
▁ከም ሥራቅ
▁ያላ ነሰ
▁ከሚያ ዝያ
▁ማር ኬት
▁ተነ ድ
▁በኦ ሮሞ
▁አደር ገዋለሁ
▁በማሳ ያነት
ጠነ ቀ
▁በመጨረሻ ዎቹ
▁26 /2009
▁ይወ ዳሉ
ጨበ ጭ
▁አያስ ፈልገውም
▁የሚቀ ሰ
▁ስጦ ታዎች
▁አብረ ውን
▁ቀረ ፃ
▁አጣ ሁ
▁ተረጋግ ቶ
▁ይሉ ኝታ
ድሮ ስን
▁199 9
▁ዓይነ ቶቹ
▁ከፖ ሊስ
▁በማኅ በረሰቡ
▁መልካ ሙን
▁ብስ ለት
▁የተናገረ ችው
▁ከመካ ከላ
ደነ ግጥ
▁አለመስ ጠት
▁ሰንብ ቷል
▁ለማህ በረሰቡ
▁አቦ ይ
▁ከጣ ሊያን
▁ከቱ ርክ
▁ጥሰ ቶች
▁ትብ ብርና
▁ሁላችን ንም
▁አይሁዳ ዊ
▁ረጃ ጅም
.አይ .
▁መደላ ድል
ላ ንት
ሌ ታ
ም ብር
ረ ፊያ
ቃ ውያን
ቋ ጭ
ተ ንና
ነ በት
ይ ው
ጉ ል
ጉ ላት
ጣ ድ
ፃ ረር
▁የ ጁ
▁የ ገነባ
▁አ ኪ
▁አ ዘን
▁አ ተረ
▁ይ ጋራ
▁ተ ጣል
▁የሚ ና
▁ስ ኳ
▁የተ ኛ
▁ባ ረ
▁ባ ጭሩ
▁እንዲ ከተሉ
▁ት /ቤቶች
▁የመ ሣሪያ
▁የመ ጽሐፉ
▁አይ ረሳ
▁ሊ መሰ
▁ሊ ጨምር
▁ቢ ሠራ
▁እንደሚ ሠሩ
▁የማ ንም
▁እየተ ወጡ
▁ያስ ጨ
▁ቦ ዔ
▁ቦ ትስ
▁አደ ን
▁ሚኒ ማ
▁ከእ ምነት
ወጣ ለን
▁ከማ ጥ
▁በጥ ሬ
▁በጥ ንታዊ
▁እንደተ መ
▁ሪ ዞርት
ማር በት
▁መጥ ቼ
▁መቀ በያ
▁ልማ ትም
▁የዘ መቻ
▁ያደር ሳል
ዘጋጀ ትና
▁አጥ ፍ
▁ማኅ ተም
▁መም ረ
▁ጤና ን
▁ሩ ሲ
▁የፍ ር
▁በመንግ ስትና
▁የሙ ጥኝ
▁ጥቅ ሙን
▁ጅ ምና
▁ክፍሎች ና
▁ገብረ ሥላሴ
▁የ1 8
▁ክፍያ ውን
▁ዐ ው
ናይ ዜሽን
▁ሰማ ዕታት
▁ቲ ቢ
▁ተመልክ ቻለሁ
▁አስተያየ ቶችን
▁ቋሚ ና
በስ በስ
▁ህዝ በ
▁መዘ ገባችን
▁በመካ ከል
▁ስለም ና
▁ይተ ላለ
▁ወሰ ዱ
▁ተካ ተዋል
▁ለጋ ሽ
▁እንደሚገኙ ም
▁በቅን ዓት
▁ሰለባ ዎች
ol og
▁በአራ ተኛ
እራ ብ
▁ተከራክ ረዋል
▁በቴክኒክ ና
▁ጴጥሮ ስን
▁ባለፀ ጋ
▁ዮፍታ ሔ
ጩኸ ት
▁መስተዳድ ሮች
ለ ሙት
ል ጅ
ረ ኞችን
ሸ ዋ
ቃ ውሞ
ኖ ራለሁ
ከ ትም
ከ ባቢ
ዛ ማ
ይ ጣ
ዴ ም
ጂ የም
ፒ ታ
▁በ ብረት
▁መ ወገድ
▁ከ ዴሞክራሲ
▁ያ ያ
▁ስ ፌት
▁ም ድሩ
▁እንደ ደረሱ
▁ባ ሎች
▁የመ ድረኩ
▁ቀ ያ
▁ክ ፋትን
▁ለማ ስተዋል
▁የሚያ ገኝበት
▁እየ ና
▁መን ሸራ
▁ቅ ስቀ
▁እያ ለው
▁አካ ላቱ
▁በእ ንስ
▁የሰ ሩ
▁የሰ ሙት
▁የግ ዛት
▁ማስ ቀመጫ
▁አብ ል
መው ታል
ቀረ ፍ
▁ማን በ
▁ሞ ከር
▁የታ ጠቀ
▁ኃላፊ ዋ
▁ባህ ርያት
▁የምት ችሉት
▁የቀ ጠለ
▁ለተ ሳ
▁ቁጥር ና
ናዊ ነት
ገብ ሩ
▁ካል ቻሉ
▁በል ተው
▁ጌ ት
▁በማስ ታወቂያ
▁እስካ ለ
▁የክ ፍ
▁ቢያ ደርግም
▁25 /2009
▁እስኪ መስል
▁በክ ረምቱ
▁በመጀመሪያ ዎቹ
▁ጅ ግጅጋ
▁ክርስቲያ ኖችን
▁ያስተ ምረናል
▁እንደሆኑ ና
ፕሎ ማት
▁የዜ ጎ
▁ኤል ኒኖ
▁ማዳ ረስ
ረበ ሽ
▁ሃይ ለማርያም
▁ያነሳ ል
▁የሸ ዋ
▁ተደራሽ ነትን
ወያ ያ
▁ከ200 5
▁የጣ ና
▁ጥፋ ቶች
ic al
▁በቢ ሮ
ነቀ ኝ
▁በዙ ሪያቸው
▁መቆየ ታቸው
▁ምዝገባ ና
▁መልዕክ ታቸውን
▁በሸ ራተን
▁መፃ ሕፍት
▁አፍቃ ሪዎች
▁በምር ጥ
▁ዘርፈ ሽዋል
▁የከፈ ተ
▁የ201 5
▁መልእክ ተኛ
ኖራት ም
▁ተዘር ግቷል
ገልጋ ዮች
▁የአገ ሩን
▁የመል ሶ
▁ተሻሽ ሏል
▁የምዕራ ባውያን
▁የጀግ ንነት
▁መገጣጠ ሚያ
▁የተዋጣ ለት
o st
v el
ላ ችኋለሁ
ሙ ዲ
ሚ ሶም
ማ ድ
ና ችሁን
ዣ ለሁ
ጧ ቸዋል
ጮ ኽ
ፈ ች
ፎ ቹን
▁ ዩኒቨ
▁በ ትም
▁እ ለ
▁እ ተ
▁ከ ክለ
▁ከ ፈለጉ
▁ከ ስብሰባ
▁ለ ሰብዓዊ
▁ይ ለው
▁ተ ማረ
▁የሚ ታደ
▁የሚ ቃወሙ
▁ያ ገኝ
▁ማ ወቁ
▁ማ መስገን
▁ስ ኮት
▁ስ ሟን
▁የተ መለሰ
▁በመ ሀ
▁በመ ከባበር
▁ል ባቸውን
▁ክ ህነት
▁ለማ ካፈል
▁በማ በረታታት
▁እየ በዙ
▁ሊ ያው
▁ሊ ጠፋ
▁ጉ ያ
▁የማ የው
▁የማ ደራጀት
▁ባለ ሟ
▁አል ሆን
▁አል ጋው
▁ፍ ሎ
▁በሚ ጠበቀው
▁ሆ ኗ
▁ዋ ስ
▁ኃ /
▁ከመ ሆኗ
▁ሙ ል
▁ን ጣፍ
▁ክፍ ሉን
▁ሃ ዘን
▁ራ ሶች
▁ቆ ሙ
መጣ ለን
▁ማን ሳ
▁ማን ነታቸው
▁ሞ ን
▁ሞ ቷል
▁እንዲያ ድጉ
▁በስ ሩ
ጋል ጥ
ንት ስ
ክስ ፖርት
ቅድ መ
መረ ቁ
ሄድ ኩ
▁ቤተ ልሔም
▁ለሚ በልጡ
መለከ ትና
▁6 .
▁አያ ገኙም
▁እንደሚያ ቀርብ
▁ቃ ሌን
▁ግንኙነት ም
▁ከሌ ሊቱ
▁ጫ ጫ
▁በዘ መነ
▁አማካ ሪው
▁ሚኒስቴር ን
▁ከሰ ጡት
▁ወዳ ጃችን
▁መተ ላለፍ
▁በባ ሌ
ገዛ ም
▁ከበ ሽታው
▁እንደሚያስ ከትል
▁እንደማ ይወ
▁ግዴ ታዎች
▁ተን ጠል
▁ወል ዱ
▁በሃ ይል
▁ከ2 50
ደማ መጥ
▁ስቴ ትን
ጨበ ጠ
▁29 /2009
▁ይረዳ ሉ
▁ለጎ ረቤት
▁ስጦ ታው
▁በ2 9
▁ያደረ ሰው
▁መስጠ ትን
▁አደራ ጅ
▁የገለ ፀ
▁ያመ ጡት
▁ለአገር ና
▁የሚታዩ ትን
▁አደረ ጋቸው
▁ይወስ ናል
▁ጥንካሬ ና
▁መደም ደም
▁ነቅ ሶ
▁መልአ ኩ
▁ገመ ዳ
▁የሚቀር በውን
ከፋፈ ያ
▁እሰ ይ
▁ከቅ ኝ
▁እስክ ንድር
▁በአክ ሱም
▁በትምህር ታቸው
▁ኤልሳ ቤ
▁ተጥሎ በታል
▁ፊደ ላት
▁የተጫዋ ቾች
▁ዓመፀ ኛ
▁አድሃ ኖም
▁በአፅ ንኦት
▁ቆስጠንጢ ኖስ
/ ቤ
ል ትና
ም ጥ
ረ ገው
ቃ ለህ
ታ ንን
ቶ ቼን
ነ ታው
ኤ ኤ
ዌ ል
ዓ መታት
ገ ሬው
▁የ ልምምድ
▁በ ጾ
▁በ ሳል
▁አ ጓ
▁እ ልም
▁ለ ልማ
▁ተ ዳዳሪ
▁ተ ጓዳኝ
▁የሚ ጫወት
▁ያ ፈሩ
▁እንደ ቀረበ
▁ባ ሏን
▁እንዲ ፈጽሙ
▁ጥ ንድ
▁በተ ራራ
▁የመ ደገፍ
ንግ ዜም
▁ለመ ደ
▁ለማ ሳተፍ
▁የሚያ ነሱ
ንድ ራ
▁ቤ ቶቹን
▁የማ ቋቋም
▁2 ሺ
▁ሕ ንጻ
▁አስተ ዳዳሪዎች
▁እየተ ከበረ
▁አመ ሻሽ
▁ቦ ጋለ
ነሳ በት
▁ነገ ሪ
▁የሚያስ ቸግር
▁ከተማ ውን
▁ውጤ ታቸው
▁በኢ ኮኖሚያዊ
▁ላ ሞች
▁ኢን ዲ
▁ገል ፃለች
▁የነበረ ችውን
▁ከሚ ተ
▁ክል ልን
▁ለው ጤ
▁በሌ ላቸው
▁በጥ ንካሬ
▁የሚሰ በስ
ቀመ ጥም
▁አድ ሎ
ከፍ ቱ
ስን በት
▁ፈቃ ደ
▁ከወ ረዳ
▁አክ ዓብ
ቂያ ለሽ
▁ገቢ ም
▁ዓላማ ቸውን
▁ስታ ሊን
ሰበ ስ
▁የሚመ ሠ
▁መጣ ህ
▁መጣ ችሁ
▁ተፈ ና
▁ከሚያ ደርጉ
ፈፀ መው
▁ኮን ፌደሬሽን
ገደ ለ
▁የዓ ሣ
▁መግ ታት
▁የቅ ባት
▁ተጠና ቀው
ስተር ን
▁የ1 7
▁ባለሀብ ቶችና
▁ስደ ተኞቹ
▁የግድ ያ
▁ተቀባይ ነትን
▁ሥልጠና ውን
▁አያስ ፈል
▁አያስ ደፍርም
▁በን ጽ
▁የሚቀ ሩ
▁ህል ው
▁እንዲቀ ጡ
▁የፓርቲ ዎች
▁እንስሳ ትና
▁ሀይ ሎች
▁በ198 4
▁የነገ ሩን
▁ተቆጣ ጥሮ
▁ከኃ ላፊነት
▁በአራ ቱም
▁ተኝ ተው
▁የሚያገኙ በትን
▁ስዊ ድን
▁ህጻ ናትን
▁በልማ ትና
▁ማጠናቀ ቂያ
▁አይሰማ ም
▁ሳው ዲ
▁ለፋ ብሪካ
ሽቆ ለቆ
▁የኤርት ራን
▁በየእ ለቱ
ሄ ል
ህ ቀት
ሮ ጫ
ስ ታት
ቁ ኝ
ብ ሎ
ነ ኑ
ን ዲስ
ዘ ወ
ፈ ኝ
▁አ ሚን
▁እ ገባ
▁መ ፈጸሙ
▁ወ ዳል
▁ማ ይል
ዎች ንም
▁የተ መለከቱት
▁ደ ከ
▁እንዲ ቀበሉ
በር ድ
▁በማ ስተዋል
▁የሚያ ጠቃ
▁ታ ደርግ
▁ቢ ሰማ
▁ሳ ሎን
▁የኢ ዮ
ያን ሱ
▁እየተ ናገሩ
▁እየተ በራከቱ
▁ከመ ሸ
ምን ተኛ
▁ኮ ሙ
ታው ሱ
▁ለአ ሥር
▁ለአ ገሪቷ
▁የስ ፖንሰር
▁ውጤ ትና
ሞክ ራት
▁የበ ቀል
▁ክል ልም
▁በጥ ን
▁የሕ ዝቦች
▁እንደተ ጀመረ
▁መር ሳት
▁ስት ራ
▁ስት ገባ
▁ከሆነ ችው
▁ብለዋል ፦
ጠቃ ቀም
▁የባ ሻዬ
▁ሶ ሳይ
ጠራ ማ
▁ክለ ቦቹ
▁የሌ ሊት
▁በታ ሪኩ
▁ነፃ ነታቸውን
▁ከወ ይዘሮ
▁ባል ታ
▁ና ይል
▁14 5
▁ሮ ማ
▁የሚመ ዝን
▁በአን ደኝነት
▁በመስ መር
▁ምሥ ረታ
▁መከራ ና
▁አስቀ ያሚ
▁ኑ ዛዜ
▁መባ ቻ
▁ታሪካዊ ና
▁በሕይወት ህ
▁አላማ ው
ደፍ ር
ዲና ችን
▁በቢ ሮው
/1 99
▁ለዓ ይን
▁ተወል ደው
▁ተዳ ክ
▁በ197 7
as s
▁መርከ ቡ
▁አጠራ ጣሪ
▁ሰፍ ኖ
▁ሳይንቲ ስት
▁ይከተ ላሉ
▁በልማ ታዊ
▁ሊበ ራል
▁ሱዳ ናውያን
▁ለኪ ራይ
▁በምስ ጢር
▁ከጓደ ኞቹ
▁በኮሚ ሽኑ
▁ያስወግ ዳል
a st
ሁ ኝ
መ ሩት
ሙ ኝ
ሩ ይ
ና ለች
ከ ሉን
ዝ ል
ጡ ትን
ጣ ሽ
ጤ ማውያን
ጭ ትና
ጾ ር
▁ ዢ
▁የ ችግር
▁የ ዞን
▁እ ሌኒ
▁ከ ጀ
▁ከ ጌ
▁ተ ግቶ
▁ወ ግና
▁ማ ነጋገር
▁ስ ደርስ
▁እንደ ኛ
▁እንደ ገለጹ
▁እንደ ፈለጉ
▁እንደ ወት
▁የተ ደረሰው
▁ት ምባ
▁ሁ ነቶች
▁ለማ ዋ
▁ለማ በርከት
▁እየ ፈ
▁እየ ገለጽ
▁ቢ ንያም
▁ፈ ላስ
▁ሆ ሳዕና
▁ዋ ስት
▁ከመ ከላከል
▁ከመ ሥራት
▁የሰ ላማዊ
▁የወ ይራ
▁ራ ም
▁ሆኖ ባቸዋል
▁የግ ርጌ
▁በቀ ልድ
▁የሚያስ ገባ
▁በኢ ቴቪ
▁የነበረ ኝ
▁ከሚ ሰ
▁ር ህራሄ
ቅድ ቅ
መረ ቂያ
▁ለተ ሰ
▁የተሰ በረ
▁የጥ ቃት
▁በብ ስክሌት
▁ማስተ ላለ
▁አቅር በን
▁በ19 14
▁መነ ጽር
▁ሐሳብ ና
▁በገ ሊላ
ከፋ ም
ዳቸው ና
▁እግ ዚአብሄር
▁መምህ ርት
▁የክ ርስቶስን
▁የሚመ ደብ
▁ለህ ዳሴ
▁ወስ ጄ
▁በቁ ጥ
ታወቀ ውን
▁ዘገባ ዎችን
▁እንደሌ ሎች
▁እንደሌ ሎቹ
▁ቡና ና
ቂቃ ዎች
ምባ ቡዌ
▁ይፈ ጃል
▁የማያ ቋርጥ
▁እንዳሉ ትም
▁ጓደኛ ዋ
▁ወሬ ውን
▁ለቀ ናት
▁ወደሚ ገኝ
▁አለቃ ው
▁አደራ ጅቶ
▁ከ200 8
▁ለመታ የት
▁እንዲቀ የር
▁ተበ ላሽ
▁በአካባቢ ያችን
▁ስልጣ ኑን
▁የዱ ባይ
▁ከጉ ዳት
▁ሀሳ ባቸውን
▁ማኅበራዊ ና
▁የተን ሰራ
▁የፓ ናል
▁የጋዜ ጣ
▁መስራ ችና
▁እብ ደት
▁መዝሙ ራዊው
▁እንደሚሰራ ም
▁ያልታ ሰበ
▁የማጥ ፋት
▁ክርክ ሮች
▁ማህበረ ሰቦች
▁ትምክህ ት
ቨስትመን ትና
▁ከጂ ቡቲ
▁ንቃ ተ
▁ዘለቄ ታዊ
ሐማ ዱ
▁ደራስ ያን
s s
ሃ ይማኖት
ል ሃለሁ
ሙ ታል
ሟ ገት
ሯ ታል
ቀ ዣ
ቃ ትን
ብ ጨባ
ገ ሌ
ግ ማዊ
ጎ ር
ፅ ፍ
ፍ ቶች
▁ +
▁የ ከበረ
▁እ ወስ
▁ተ ለማ
▁ተ ደና
▁የሚ ጀመር
▁ማ ሰቡ
▁ማ ግሥት
▁እንደ ያዙ
▁የተ ሻሻለው
▁ው ዴ
▁በመ ሐ
▁በመ ቅረፍ
▁ደ ረት
▁እንዲ ጀመር
▁ት ጠብ
▁ል ኡ
▁ሁ ላ
▁በተ ከ
▁የመ ብ
▁የመ ዳ
▁ዘ ሎ
▁የሚያ በ
▁የሚያ በረታ
▁ሊ ከሰቱ
▁ሳ ንባ
▁እንደሚ ሰጣቸው
▁የም ል
▁ከአ ዲሱ
▁ከአ ምናው
▁አመ ጡ
▁የወ ፍ
▁ክፍ ልና
▁አይደ ለህም
▁የግ ንባ
▁በቀ ጠሮ
▁ሐ ጎስ
▁አብ ራሪ
▁ላ ድርግ
▁አካባቢ ያቸው
▁የማይ ናቅ
ወቅ ን
▁ከማ ል
▁ኩ ነቶች
▁በው ድድ
▁ለሚ ቀጥሉት
▁ስር ጭቱ
▁አሰ ም
▁6 ኛ
▁ማሳ ወ
▁ትኩረት ና
ሳል ፉ
▁8 .
▁8 2
▁ዋጋ ን
▁ከሌ ላቸው
▁አጥ ቷል
▁ስታ ስብ
▁አፈ ና
▁ከሰ ላሳ
▁14 /2009
ፎር ኒያ
▁ወዳ ጆቹ
▁ፅ ንፈኝነት
▁በመሆን ም
▁የሚያሳ ድግ
▁በአፍሪካ ና
▁እንዳለው ና
▁የማስ ፈፀም
▁በኮ ምፒዩተር
▁ኃይሎች ና
▁አረ ፈው
▁እንዳስ ደሰ
▁ስለሚያ ደርግ
ወስድ ም
▁በማህ በሩ
▁በጽ ድቅ
▁አምባሳ ደ
▁አዘ ዙ
▁መና ፈሻ
▁ክፍተ ቱን
▁አገኘ ሁት
▁መንደር ደሪያ
▁የእው ነተኛ
▁P ro
▁በቢ ቢሲ
▁ጥቂ ቶቹን
▁የአል ባ
▁ሲገል ፁ
▁የሚዘ ልቅ
▁እንደምታ ደርግ
▁ከር ቀት
▁ኃጢአ ተኛ
▁በአው ቶ
▁የቀረቡ ትን
ገልጽ ም
▁ተወዳ ድሮ
▁መፈጸ ሙን
▁የሚገዛ ው
▁ተደብ ቆ
▁ፅሁ ፎች
▁ይመል ሳል
▁በሰብ ል
▁አይሻ ልም
▁ተፈቅ ዶ
6 6
o k
መ ታዊ
ረ ቻ
ሰ ቧ
ና ታን
ኛ ለሽ
ው ላ
ዲ የም
▁ ኰ
▁የ ሪፖርተር
▁እ ገኛ
▁ከ ሰባ
▁ከ ደረሰበት
▁ተ ካልኝ
▁ያ መራ
▁ስ ጀምር
▁የተ ገላ
▁ግ ዳጅ
▁በመ ደበኛው
▁እንዲ ጠብቅ
▁ሲ ጨምር
▁የአ ይን
▁አይ ረ
▁በማ ገዝ
▁የሚያ ኮራ
▁ካ ቀረ
▁አል ቦ
▁አል ጠፉም
▁ህ ትመት
▁ቅ ሉ
▁የኢ ንስቲትዩቱ
▁ያለ ዕ
▁በዚህ ን
▁ያስ ፈራ
▁ብር ሀ
▁ቆ ንስ
▁ማስ ታገ
▁አው ቃ
▁አው ጣ
▁የማይ ተ
▁ር ብቃ
▁ሲያ ዩት
▁እንደተ ገኘ
▁ጣ ዖት
▁ለማስ ታ
▁የጥ ፋተኝነት
▁ባይ ሆኑም
▁በነ ጭ
ጣል ያን
▁በ19 0
▁በረ ዥም
▁ስላ ገኘ
▁የድ ሃ
▁የምና ደርገውን
▁እም ነታችን
▁ከጥ ቅምት
▁የዓ ላማ
▁ከል ካይ
▁ዝር ፊያ
▁ምና ለበት
▁የተጠቀ ሱ
▁የገባ በት
▁መጋ ራት
▁ስታዲ የሙ
▁ልጁ ም
▁c h
▁የሚወስ ዱት
▁በመሰ ረታዊ
▁የተሰማ ውን
▁ማዕከ ሉን
▁በመግ ቢያው
▁የአል ጋ
▁የሚፈጥ ሩት
▁ያረ ፈው
ኤን ኤን
▁አንበ ሶች
ጠባበ ቂያ
▁ጥቅል ል
▁ተረክ ቦ
▁ክርክ ሩ
▁አይኖር ብንም
ክሊ የር
▁ሲቃ ረብ
▁እየተጠቀ መ
▁ትሩ ፋት
▁ለቱ ሪዝም
▁ተጭ ኖ
▁እየተከታተ ለ
▁ለተግባራዊ ነቱ
▁ማንደፍ ሮ
o b
ላ ሎች
ራ ታቸው
ነ ጻ
ኑ ንም
ዘ ለ
ዙ ም
ዛ ለች
ድ ኒ
ድ ዮ
ጠ ቁም
▁የ ጣሊያ
▁በ ፉ
▁መ ጠበ
▁ለ ሮ
▁ይ ቁ
▁ይ መለከተ
▁የሚ ሞክሩ
▁ያ ዩት
▁ማ ካፈል
▁ብ ሌ
▁የተ ው
▁የተ ከተ
▁በመ ክፈቻ
▁እንዲ ራዘም
▁ሲ ጠቀሙ
▁ሲ ፈጽሙ
▁ሲ ንጋፖር
▁ል ጥ
▁በአ ዳዲስ
▁አስ ማ
▁የአ ገራቸው
▁የአ ድማ
ንግ ላ
ስት ያ
▁አይ ጠቅም
▁ሥ ቃ
▁ጋ ን
▁የሚያ ልፉ
▁እየ ራ
▁ሊ ገነባ
▁ታ ቀር
▁እንደሚ ጠናቀቅ
▁አለ ቀሰ
▁ባለ ይዞ
▁ካ ዝና
▁ካ ጋሜ
▁አል ን
▁በሚ ሰጡት
▁ዕ ዝራ
▁መን ደሩ
▁አካ ውንት
▁እየተ ሠሩ
▁የእ ስያ
▁ቦ ሎ
▁ክፍ ልን
▁ተጠ መ
▁በየ ወ
▁የስ ምምነት
▁የው ጊያ
▁የህ ወሓት
▁በም ሽት
▁ኢን ደስት
ከር ና
▁የታ መነ
▁ለእ ስር
▁ግብ ግብ
▁ሊያ ደርጉት
▁ማሳ ደር
ይና ችን
በቃ ው
▁ኳ ስና
▁ንጉ ሤ
▁ሰጥ ታለች
▁መድ ገም
▁ተመል ሰን
▁መነ ኩ
▁የጤና ና
▁ነበረ ብን
▁ፅ ንፈ
▁የሚወ ክል
▁የመን ጃ
▁ሕይወ ታችንን
▁ከል ቤ
▁መክ .
▁ያስተ ማረ
▁23 /2009
▁ኃይለ ስላሴ
▁ደመ ላሽ
▁ብን ወስድ
ማግሌ ዎች
▁ትክክለኛ ና
▁ደህን ነቱ
▁አደሩ ና
▁የተሳ ታፊ
▁ካልሆነ ም
▁አብረው ኝ
▁አሠ ሪ
▁ተቃውሞ ና
▁ከድ ሬዳዋ
ስቲ ን
▁የሚያደር ሰው
▁ከ200 4
▁በመጥ ፎ
▁ይሉ ኛል
▁ሽልማ ቶችን
▁ፍጻሜ ው
▁ጋብቻ ን
▁መሥራ ችና
▁የኮሚ ቴው
▁ለማስተ ሳሰር
▁መድሃኒ ቱን
▁ፆ ም
▁እየተቀ የረ
▁ያለአ ንዳች
▁ሰንብ ቱ
▁ትፈልጋ ለች
▁ከንጉ ሡ
▁መርዶ ክ
▁ስው ራን
▁ጠቅል ሎ
▁ይጠቀሙ በታል
▁ለእው ነት
▁ዴይ ሊ
▁አይሁ ዳው
▁አልደረሰ ም
▁ማከማ ቻ
▁እገኛ ለሁ
ላ ጥ
ሞ ትም
ራ ምድ
ሲ ና
ቀ ቡ
በ ኞችን
ዋ ጁ
የ ኝም
ደ ቢ
ጎ ደ
ጸ ዋል
▁ ሪያ
▁የ ብራዚል
▁በ ዳን
▁አ ኒ
▁መ ገናኘት
▁ለ ሊ
▁ለ 201
▁ይ ሠ
▁ተ ዝ
▁የሚ ተው
▁የሚ ሰማሩ
▁ያ መር
▁በመ ረጋገጡ
▁በመ ድረክ
▁በመ ቐለ
▁በአ መለካከት
▁ሁ ኖ
▁ሊ ደርሱ
▁አለ ቅ
▁አለ ችና
▁የማ ሕ
▁አገ ለ
▁ዕ ል
▁ቅ ላ
▁እስ ዋ
▁መል ሰን
▁አባ ገዳ
ታወ ቀም
▁ለአ ሸናፊ
▁ተጠ ጋ
▁ቀን ደኛ
▁አቀ ባዩ
▁ላ ባ
▁ከሚ ሰጣቸው
▁ከማ ስተ
▁ለም ርት
▁በጥ ፊ
▁ወር ዷል
▁ለእ ድ
▁ግብ ይ
▁ለማስ ወጣት
▁በወ ላይታ
▁ኳ ሱን
ዳር ጉ
▁ስብ ስ
▁አልተ ደረገም
▁በዘ መን
▁የካ ይዘን
▁ከነ በራቸው
▁የፈ ቀደውን
▁ስላ ለን
▁ንብረት ና
▁ቁጥ ሩን
▁አፍ ላ
ቀበ ላቸው
▁አሰራ ሩን
▁21 /2009
▁አመራር ነት
▁ተዋ ጽኦ
▁ተቀም ጣ
▁ይሰማ ሉ
▁27 /2009
▁ተወካዮች ና
▁ሰጪ ዎቹ
▁የፊ ደል
▁ልም ዶችን
▁መገኘ ታቸውን
▁የተወ ከሉ
▁በቴ አትር
▁የገባ ሁት
▁ልጃ ገረድ
▁የገቢ ዎችና
▁ምል መላ
▁ከ200 6
▁ደርሶ ባቸዋል
▁ሞክ ሩ
▁ልታ ስ
▁ተለይ ቷል
▁የአባ ላት
▁ተሻ ግረው
▁የመጡ ትን
▁ታውቃ ለች
▁የሚሰራ በት
▁አቻ ው
▁ጀግ ናው
▁እቃ ዎችን
ፍስ ታዊ
▁ማሰ ሪያ
▁አነ በብ
▁ይመረ ቃል
▁በብር ሃን
▁ይከፍ ላል
▁እንዳይወ ጣ
▁ተለ ወጠ
▁ያጠፋ ል
▁ወለደ ች
▁ኤርት ራዊ
▁ጽሁ ፎች
▁የጀር መኑ
▁ተመለከት ኩ
▁ከተጠ ያቂነት
▁ባላው ቅም
▁እስጢፋ ኖስ
▁እናመሰግና ለን
ረ ጽ
ረ ፅ
ሳ ለ
ቀ ዳ
ቀ ሉት
በ ኘ
ቲ ኒ
ቹ ና
ቹ ጋል
ነ ሷቸው
ከ ኑ
ከ ሙት
ኩ ላ
ዋ ጣም
ጠ ልን
▁ ኔታ
▁የ ንብ
▁አ ኮ
▁አ ረጋገጠ
▁ከ ጆ
▁ከ ፅ
▁ከ ዩኒቨርሲቲው
▁ለ ዘብ
▁ተ ጋሪ
▁የሚ ከበረ
▁ያ ጠነ
▁ግ ዛቸው
▁ሲ ቪ
▁ት ሞ
ውን ስ
▁ጥ በት
▁የመ ሀል
▁ኢ ሶግ
▁የሚያ ፋ
በረ ከት
▁እንዳ ሻው
▁ሕ ጐች
▁አል ቀበልም
▁ከተ ሰጠ
▁እያ ወቀ
▁እያ ስተናገ
▁ዋ ዛ
▁እየተ ጣ
▁ከአ ሥራ
▁ን ጋት
▁ተመ ሳስ
▁ዳ ስ
ጥር ጥር
▁በም ጥ
▁ማን ኪያ
▁አው ድ
▁ጭ ላን
▁ጠቅ ለል
▁በበ ዓል
ንቀ ን
▁የገ ዢው
▁እንግ ድነት
ሰጥ በት
▁ስን ኞች
ላዊ ነት
▁ተራ ራው
▁ፓ ራ
▁በዕ ብራይስጥ
ልማ ሳ
▁ለብ ል
▁ይዘ ቱ
▁አይቀ ሩም
ፈረ ሰ
▁24 /2009
▁ችሎ ታቸውን
▁ይባ ር
ታችሁ ም
▁መንግስ ታችን
▁ሊያስ ብ
▁መግባ ባትን
ፈተ ሹ
▁ጥሪ ውን
▁ከ2 3
▁የተጠቀ መ
▁ልም ዱ
▁ኬንያ ዊው
▁ሠር ተናል
is h
▁ምሽ ቱ
▁ዝግጅ ቶችን
▁ብቸ ኝነት
▁ኢዮ ቤልዩ
▁ያልሆነ ውን
▁በግብ ዓት
▁የእው ነተኛው
▁ጦ ቢያ
ቆጣጠ ሩት
▁ግብፅ ና
▁የሰጠ ችው
ou s
▁ፈለ ጉ
▁ከመስ ራት
▁መቅደ ሱን
▁የግብር ናው
▁ኀ ዘን
▁አላገኘ ሁም
▁መልእክ ቱን
▁ፈሪ ሃ
▁የሚመነ ጨው
▁የተገለ ፀ
▁ለራስ ህ
▁ቴክኒ ካል
▁አቋቁ ሞ
ኩራ ብ
▁ዘመዶ ቻቸው
▁በአሰልጣ ኝነት
▁ተላላ ኪ
▁ያዘጋጃ ል
▁በተግባ ርም
▁አኃ ዝ
ዋርያ ቱ
▁ታረ ቀኝ
▁ተገነዘብ ኩ
▁አንጌ ላ
r y
r ac
ለ ጃ
ረ ሽ
ቃ ትም
ቆ ጭ
ክ ሳይ
ዊ ተር
ዕ ዋ
ዶ ው
ፅ ህና
▁ ፃ
▁የ ቫ
▁የ ፓር
▁የ ጨዋታው
▁በ ችሎ
▁መ ሸነፍ
▁መ ደራደር
▁ከ ቀበሌ
▁ይ ቸግ
▁ማ በጀት
▁ማ ቋረ
▁እንደ ቆ
▁የተ ከበረው
▁ው ለዋል
▁ባ ይወ
▁በመ ዘር
▁በመ ነጨ
▁ሲ ሳ
▁ት ራን
▁በአ ክሲዮን
▁የመ መልከት
▁ድ ግሪ
▁አይ ስ
▁አይ ደረግም
▁በማ ሰማራት
▁እንደሚ ቀርብ
▁እንደሚ ፈጠር
▁ባለ ኝ
▁ባለ ቅኔ
▁አካ ልና
▁ያስ መዘገቡት
▁ምክንያ ታቸው
ገው ና
▁ተጠ ቆመ
▁3 ለ0
▁ማስ ቻ
▁ሴ ፕ
ረስ ና
▁በም ል
▁መጠ ንን
▁ሲያ ወሩ
▁ከማ ሰብ
▁ኃላፊ ዎችን
▁እንዳይ ተላለፍ
▁የምት መ
▁የቀ ላል
▁ለተ ተ
▁እንደሚያ መጣ
▁20 /2009
▁መለ ከት
▁ድም ፆች
▁የሌ ላው
▁ግድ ም
▁ተግባር ን
▁አልተ ለ
▁ውሃ ውን
ባባ ሱ
▁የኦ ባማ
▁በሀ ሳብ
▁ለሁ ላችንም
▁አሠራ ሩን
ልማ ዝ
▁ሀገ ሬ
▁በክ ርስቲያናዊ
▁ኮን ክሪት
▁ችሎ ታና
▁አለማ ስ
▁ያስተ ዳድ
▁ነፍ ሱ
▁ሠራተኞች ም
▁ተጽ ፏል
▁ኤጀንሲ ዎች
▁በኤ ደን
▁እንደም ችል
▁የሚኖሩ ትን
▁ተወዳዳሪ ዎችን
▁ካፒ ቴን
▁ምድ ቦች
▁ስለማይ ችሉ
▁እንደነበረ ች
▁ማሻሻያ ዎች
▁በገንዘብ ና
▁ምግ ቡ
▁አስከፊ ነት
▁ማንበብ ና
▁መት ከል
▁እናስ ባለን
▁መፅሐ ፉ
▁በአስተ ሳሰብ
▁ጆን ሰን
▁ሞል ተው
▁ያጋጥ ማል
▁ስዊ ዘርላንድ
ነዝ ሩ
▁በማዳ በር
መሰግ ነው
▁ቴክኒ ካዊ
▁ለፍት ሕ
▁የቅን ጦት
▁ቢያደርጉ ም
▁ከጋዜ ጠኞች
▁እየተቃ ረበ
▁በባሕ ሩ
▁ተዋል ዶ
▁በአጽ ንኦት
ላ ሊ
ማ ንን
ሯ ችሁ
ሰ ልስ
ቀ ቀን
በ ሯ
ብ ያ
ቦ ቿን
ና ፦
እ ለት
ክ ፈ
ኾ ነ
ያ የሩ
ጋ ቱን
▁በ ብራ
▁አ ደረሰ
▁አ ዘዋ
▁አ ቃቂ
▁ይ ጋለ
▁የሚ ፈለግ
▁የሚ ቀመጡ
▁የሚ ጥሩ
▁ያ ቺን
▁ያ ረጋገጡ
▁ስ ተ
▁ም ኒሊክ
▁እንዲ ረዱ
▁እንዲ ለወጥ
▁እንዲ ሰማቸው
▁ሲ ጠይቅ
▁ሲ ሞክር
▁ት ሰራ
▁የሚያ ረጋግ
▁እየ ጨ
▁ስለ መጣ
▁ደግ ም
▁ሆ ላንድ
▁ዕ ትም
▁አም ሽ
▁አባ ዬ
▁አባ ቶችና
▁ለአ መታት
▁ኃይ ልም
▁እንዲያ ከናውን
▁የታ ዘብ
▁ለም ድር
▁ሁለ ታችንም
▁ትኩ ረቱ
▁ስት ሰማ
▁ስት መለከት
▁የተሰ ወረ
▁የጥ ርስ
▁አፍሪካ ዊያን
▁መቀ ላቀ
▁ባይ ተ
▁የለ ብህም
▁አፈ ወር
▁በሚያ ገኘው
▁ቀጥ ል
▁ሰር ቼ
▁ፖለቲካ ና
▁ጥቅ ሶችን
▁ተፈ ናቅ
▁ተነ ፍ
▁አጠና ቃለች
en s
▁አይመስ ሉም
▁ከራ ሷ
▁ደንበ ኛው
ፈለገ በት
▁ኑ ሯቸው
▁አፋ ቸውን
▁የተጣ ለው
ረጡ ኝ
▁የሚኖር በት
▁ይዛ ችሁ
▁፲ ፰
▁ጥረ ቶችን
▁የተሻ ለውን
▁ትውል ዱ
▁የጠየ ቀው
▁ይጥ ላል
▁ይጥ ራሉ
▁እንደቀ ድሞው
▁በመዝ ሙር
▁ፍራን ሲስ
▁ይለ ወጣል
▁በሥር ዓቱ
▁አክሊ ል
▁በአቅራ ቢያ
▁ለመጥ ቀስ
ter n
▁ዘል ቋል
▁አልፈለ ጉም
▁ኢህ ዴን
ጭበረ በረ
▁ዘሌ ዋውያን
▁የጎን ዮሽ
▁ድርሳ ናት
ለ ካ
ለ ንም
ማ ዳ
ሟ ገ
ቀ ሻ
ቅ ሩ
ቢ ጦሽ
ብ ሊክ
ቦ ታል
ቧ ት
ነ ርስ
ኘ ውን
ኞ ት
አ ባ
ኮ ንድ
ዮ ኖችን
ዴ ው
ገ ነት
ጣ ሊ
ፐ ርት
▁ ፯
▁የ ሱስ
▁የ ከለ
▁የ ዋልያዎቹ
▁በ ጁ
▁በ ጠበ
▁እ ሰማ
▁እ ማኝ
▁እ ጆቹ
▁ነ በል
▁ለ ጓ
▁ለ ዘር
▁ይ መደ
▁ይ ውጣ
▁የሚ ፈራ
▁ስ ካ
▁ስ ምህን
▁እንደ ሰጠ
▁የተ ከራ
▁የተ ማረው
▁ባ ንተ
▁ሲ ውል
▁ሲ መሩ
▁ል ከው
▁በተ መድ
▁የአ ዳ
ደር ጋት
▁ወደ ነበረበት
▁ጋ ት
▁ፈ ላጭ
▁እያ ዋ
▁እያ ነሱ
ፈል ጋት
▁ያስ ከፍ
▁ቦ ታቸው
▁ማስ ያዝ
▁በር ግ
▁አብ ደል
▁አደ ፍርስ
▁ጀ ነ
▁አዲስ ና
▁የበ ሬ
▁የማይ ገባው
▁ይሆ ና
▁በሰ ከነ
▁ይገባ ልም
▁ኪ ም
መረ መር
▁ልዩ ነቶችን
▁ተስፋ ቸው
▁ፊ ቴን
ከሰ ስ
▁አሸ ነፈ
▁ጓ ጉ
▁ጓ ንት
▁የጠ ነከረ
▁በቅ ታለች
▁ድርሻ ውን
▁ከስ ፖርት
▁መጣ ፦
ጠየ ቁት
▁እም ነቱን
▁ከሌሎች ም
▁የማስ ፈን
▁የቅ ስቀሳ
▁ትዕ ቢ
▁ባለሀብ ቶቹ
ለጥ ኑ
▁ምልክ ቶችን
ስተና ጋ
ፈተ ሸ
▁ከ19 97
▁የሚታይ ባቸው
▁ባስ ቀመጠው
▁ያመ ላ
▁ማሳደግ ና
▁በዝ ቷል
ጣጣ ሙ
▁ዘይ ትና
▁የሚሠራ በት
▁መሰና ክሎች
▁በ20 25
▁ፔ ትሮ
▁ያሳየ ናል
▁በንግ ዱ
▁ቁልቁ ለት
▁ማዕቀ ፎች
▁አውቶቡ ሶች
▁የተፈፀ መ
▁የሚያገለግ ለው
▁ፈረሰ ኞቹ
▁ይፈጽ ማል
▁ጸሐ ፍት
▁ቅብብ ሎሽ
▁የሚንቀሳቀ ሰው
▁ኮንትራ ክተር
▁ግድግ ዳው
ሹ ክታ
ቀ የር
አ ደር
ከ ሩም
ኮ ሎጂ
ወ ላ
ው ለው
ደ ባባ
ዲ ያስ
ጂ ና
ጐ ብ
ጭ ተው
▁አ እ
▁አ ነሰ
▁አ መለከቱ
▁እ ዩ
▁መ ሸነ
▁ከ ጋና
▁የሚ ጐ
▁የሚ መለስ
▁ያ ባ
▁ብ ናይ
▁ው ሰ
▁በመ ቋቋም
▁ሲ ገኙ
▁አስ ሮ
▁ቀ ማ
▁ለማ ረጋጋት
▁አይ ጠበቅ
▁አይ ሠራም
▁ጋ ቦን
▁1 /2009
▁1 ነጥብ
▁ሊ ገቡ
▁አለ ፋችሁ
▁የማ ታው
▁የማ ሰባሰብ
▁እያ ደረጉት
▁ችግ ሮቻቸውን
ገድ ል
▁እየተ ጓዙ
▁ከመ ል
▁ከመ ጪው
▁በዚህ ኛው
▁ብዙ ሀን
▁ቁ ማር
▁ያስ ገነዘቡት
▁የሰ ለ
▁እስከ ዚያ
▁በግ ልም
▁በስ ደተኞች
▁አሳ ዝ
ከላ ካይ
▁ቤተ ሰባዊ
▁ሠ ላማዊ
▁የገ ረ
▁አቅም ም
▁መለ ስን
▁ሸ ር
ጠራ ሉ
▁በእር ዳታ
▁መዝ ጋት
▁ባል ሞላ
▁ይሰ በ
▁መሪ ና
▁አስታው ሱ
▁የካ ናዳ
▁በሚያ ስተ
▁ቀጥ ላ
▁ባለመ ቻ
▁አቅጣጫ ውን
▁ኢንዱስትሪ ና
▁የፕ ሮፓጋንዳ
▁ከስ ፖርቱ
▁ዕቅድ ና
▁እስኪ ጠናቀቅ
ችኋ ለን
▁ከሚያ ደርገው
▁ብል ሃት
▁ይቀ ላል
an s
▁ለስ ደተኞች
▁እኩል ነትን
▁እኩል ነትና
▁ያስተ ምራሉ
▁መሸ ር
▁ተቀብ ሏል
▁ኬንያ ታ
▁ኬንያ ዊ
▁በቆ ሻሻ
ልቃ ይት
ፈጽ መው
▁በሚገኙ በት
▁ሆን ን
▁መንስኤ ዎች
▁ለበ ሽታው
▁ማሽ ላ
▁ከዋ ለ
▁እንደሌለ ባቸው
▁ፍትሐዊ ና
▁ከምን ጊዜውም
▁ከፈ ጣሪ
▁አህጉ ሪቱ
▁የተሻ ለው
▁መስመ ሩን
▁በንጉ ሥ
▁መጸ ዳጃ
▁በተያዘ ላቸው
▁የተመለ ሱት
▁አስመር ቋል
▁j w
▁ሊዮ ኔል
▁ዩን ቨርሲቲ
ጠግቦ ሽ
▁ይጋራ ሉ
▁ቦትስ ዋና
▁እየገለጽ ን
ህ ኑ
ላ ቸዋለሁ
ሰ ቀሰ
ቂ ጤ
በ ሰቡት
ቦ ቼ
ት መ
ት ተው
ኅ ሣሥ
ክ ዬ
ዎ ትን
ዚ የሙ
የ ረው
ዳ ለህ
ጣ ትን
ጧ ጧ
▁ ኗ
▁በ ጤ
▁በ ችግሩ
▁መ ከሰቱ
▁ለ ድል
▁የሚ ራ
▁ያ ሠ
▁ማ ኒ
▁ማ ዘን
▁ማ ናጀ
▁እንደ ፈለገ
▁የተ ፈጠሩት
▁ባ ራ
▁ባ ዘጋጀ
▁እንዲ ያን
▁እንዲ ጠቀሙበት
▁ት ለዋለች
▁በአ ውደ
▁በተ አ
▁ለመ ባል
▁ወደ ፊቱ
▁ለማ ድረ
▁ለማ ቋረጥ
▁ለማ ካካስ
▁በማ ራ
▁የሚያ ንቀሳ
▁ሊ ለው
▁ሊ ፈጸም
▁እንዳ ላቸውም
▁ሚ ዜ
▁ከተ ዋ
▁ከተ ቀመጠው
▁ከተ ከሰተ
▁አስተ ሳስ
ሰብ አዊ
▁ከመ ጣው
▁ከመ ግባት
▁የነ ፍ
▁ሀ ገራቸውን
▁ቁ መ
▁አመ ጣው
▁ሃ ኪም
▁3 /2009
ገለ ፁ
▁ነገ ሩት
▁ስራ ና
▁ዕድ ላቸው
▁4 ን
▁ረ ሀብ
መር ጠው
▁ዘመን ና
▁የታ ተመው
▁ኦ ሪ
▁መር ጧል
▁ሊያ ጋጥም
▁ሠ ፈ
▁እንድ ሆን
▁ፀ ድቆ
▁አዳ ሪነት
ደርጉ ም
▁በነ ጠላ
▁አስፈላጊ ና
ወስ ዱት
▁15 /2009
▁ከሰ ጡ
▁አጋጣሚ ዎችን
▁አብዛ ኞቹን
▁ድርጊ ታቸው
▁የፈ ረሰ
▁ወረዳ ዎችና
▁በሀ ብት
▁አመልክ ቶ
▁መጣ ጥ
▁25 ,
▁የሚወ ል
▁ከል ጆቻቸው
▁የጉ ዳት
▁ተጠቅ ሰዋል
▁ገብረ ሚካኤል
▁ልን ል
▁የሐ ዘን
▁ይፈ ቀድ
▁ጓደኛ ችሁ
▁አስተያየ ትም
▁ከራ ሳችን
▁ከ19 7
▁​ 3
▁በኢን ፎርሜሽን
▁ስርዓ ተ
▁ኡ መር
▁ኤር .
▁ለማጥ ቃት
▁እንዲቀ ጣ
▁በእው ነቱ
▁ባልተ ለመደ
▁ንቅናቄ ው
▁ለጉ ብኝት
▁ሼ ር
▁ማብ ሰ
▁ከሀ ገሪቱ
▁የዶ ክተር
በረታታ ትና
▁የሻ ይ
▁ምግ ቡን
▁በኪ ነ
▁የንጉ ሠ
▁አምባገነ ናዊ
▁የባህ ላዊ
▁የፓርላማ ው
▁ጠባብ ነት
▁ከእነ ሱም
▁በእነ ዚያ
▁ምዕ መናን
▁የስር ጭት
▁በማስቀ ጠል
▁የተከፈ ተው
▁ተከራ ካሪ
▁ጉራ ጌ
▁እንዲያሳ ድጉ
▁ጠቢ ብ
▁በዙሪያ ዋ
▁የተቆራ ኘ
▁ዮሴ ፍን
▁ፍንዳ ታ
▁ያዳግ ታል
▁ታራ ሚዎች
4 6
4 00
ል ንን
ሐ ፍ
ሐ ድሶ
ሔ ት
መ ራቸው
ቃ ቅን
ቡ ሽ
ቮ ሊቦል
ቴ ክ
ከ ወን
ካ ቶች
ዊ ስ
የ ምን
ዪ ቱ
ደ ዱት
ጃ ቸውን
ጓ ዘው
ጠ ላው
ጥ ለቀ
ፋ ለም
▁በ ጀመረው
▁መ ደራ
▁መ ከታተ
▁እን ግባ
▁እን ጉር
▁ከ ሄዱ
▁ከ ጨዋታ
▁ለ ቅዱ
▁ይ ት
▁ይ መለስ
▁የሚ ገናኝ
▁ያ ቀርብ
▁ነው ም
▁የተ ሰባሰቡ
▁የተ ፃፈው
▁የተ ዘረጋው
▁በመ ጠናቀቅ
▁ደ በ
▁ሲ ሸጥ
▁ል ገሳ
▁አይ ሰራም
▁የሚያ ጠና
▁እየ ኖረ
▁ሊ ሉ
▁ሊ ቨርፑል
▁ቢ ቻልም
▁እንዳ መጣ
▁የም ወደው
▁በሚ ታይ
▁በሚ ከተለው
▁ከተ ባሉ
▁ዋ ቅ
▁ያለ ፍ
▁ከመ ውሰድ
▁ሃ ውልት
▁ለአ ው
▁ራ ሱም
▁ማስ ደሰት
▁በኢ ራን
ሞክ ሩም
▁አካባቢ ና
▁ያህዌ ና
▁እንዲያ መጡ
▁ተቀ ጣሪ
▁የታ ገ
▁አሳ ላፊ
▁ወን ደ
ንግድ ነት
ዘር ባ
▁ለማስ ገኘት
▁ለተ መ
▁አዳ ሪዎች
▁ያሳ ለፉ
ቋቋ መበት
▁ዮ ሃንስ
▁በሽ ልማት
▁ፖሊ ሱ
▁በማስ ጠበቅ
▁ገቢ ውን
▁ባል ታወቀ
▁የተቀ በል
▁የተቀ ላጠፈ
▁ተሰ ጠው
▁ፅ ዳት
▁ፍት ህን
▁አግኝ ተን
ኪና ፋ
▁የሚያሳ ስብ
▁የሞ ተር
ጠቅ ሙ
▁ወስ ዳ
▁በአጠቃላይ ም
▁ሲባል ም
▁ክለቦች ና
▁የሚባል በት
▁ውኃ ና
▁ወንዶች ም
▁ሜዳሊያ ውን
▁የሚቀ ንስ
ሌት ሪክ
▁የተሳ ሳቱ
▁በቦ ክስ
▁አያው ቁ
▁አሳል ፈዋል
▁የቀረበ ለትን
ረጋጋ ትና
▁አላው ቀውም
ገዙ ት
▁ዊ ን
▁ይሸ ፍናል
▁ማድረጉ ንም
▁የእርስ ዎ
▁አንባቢ ዎች
▁ሜዳልያ ዎችን
▁ተወዳጅ ነት
▁አልሸ ባብን
▁አርአያ ነት
▁ሙስሊ ሙ
▁የፕሮ ግራሙ
▁ጾ ም
▁አንብ ቤ
▁የኖረ ውን
ጸል ዩ
▁ለየ ቅል
▁ቅጽ ል
▁የተጣለ ባቸውን
▁የቲ ቢ
ነባ በረ
▁በፓርላማ ው
▁ከማድረ ጉ
▁ህንጻ ዎች
▁የበለፀ ገ
▁ለፍት ህ
▁ይጎ ዳል
ንትና ው
▁ለፓርላማ ው
▁ንጉሣ ዊ
▁ዝንጀ ሮ
▁አረን ቋ
▁ሚን ስት
ቨሎፕ መንት
▁ሶሳይ ቲ
. ሪ
ረ ከበ
ሶ ና
ኩ ላቸው
ዕ ሉ
ዛ ችሁ
ዳ ጀት
ጣ ስ
ጩ ም
▁የ ስትራቴጂ
▁በ ዴ
▁በ ፲
▁በ ቤን
▁የሚ ጀመረው
▁እንደ ነገሩ
▁የተ ጎዳ
▁ግ ፊ
▁ደ ብዛ
▁እንዲ ገዛ
▁እንዲ ከታተሉ
▁ሲ ፈጠሩ
▁ል ኬ
▁በአ ለማችን
▁የአ ሠ
▁የአ ገልጋይነት
▁ድ ሆ
▁አይ ነተኛ
▁ቢ ፈጠር
▁ሳ ቀ
▁እንደሚ ናገረው
▁ጠ ለቅ
▁እያ ወራ
▁የሰ ማው
▁ለአ ድማ
▁ለአ ብርሃም
▁በር ሳችሁ
▁የሚያስ ከብር
▁የስ ዕል
▁አት ቷል
▁እንዲያ ዳብሩ
▁ዓለም ም
▁የት ራምፕ
▁ኦ ሜ
የው ና
▁ፋ ይል
▁ጣ ይ
▁ስት መለስ
▁ሄ ዳችሁ
▁ባን ኮቹ
▁ልማ ዱ
▁በሽ ያጭ
▁ስለሚ ያውቁ
▁ጫ ጩ
▁ሚኒስትር ና
▁የሁ ከት
▁መታ ሰር
▁ሮ ቤ
▁ሮ ድ
▁እንድት ወጣ
▁17 ን
▁ተከት ላ
▁የሚፈ ቅ
ቀበ ሌው
▁ሀገ ሩን
▁ዮሐንስ ም
ባበ ቁ
▁በይ ዘ
ሳው ቅ
▁እየሰራ ሁ
▁ተመልክ ተው
▁አያስ ገርምም
▁በን ፋስ
ስተዋል ም
▁አታ ድር
▁የእኛ ም
▁ወላጆች ም
▁እርሻ ዎች
▁አቤቱ ታዎች
▁ብቃ ታቸውን
▁ማም ሻውን
▁ልዑ ክ
▁ለማዳ መጥ
ነዘ ሩት
▁ይው ላሉ
▁ስምን ተኛው
▁ምሩ ፅ
▁የመዋ ቅር
▁በቲ ቪ
▁ተቀላቅ ለው
▁ለኢንዱስትሪ ው
▁ማርያ ምን
▁ተከፋፍ ሎ
▁የእግ ረኛ
▁ያሰበ ውን
▁በፎ ቶ
▁አግብ ቶ
▁ባለሞ ያዎች
▁በእንግ ሊ
▁መካሄ ዱን
▁ባላን ጣ
ሞ ከረ
ሥ ታዊ
ሸ ሸ
ቢ ሮ
ባ በሩት
ተ ነዋል
ኒ ዝም
ከ ሻ
ካ ለ
ክ ርስቲያን
ወ ቁት
ገ ህ
ጭ ተዋል
ጻ ት
▁ ፴
﷽ ﷽
▁የ ሳን
▁አ ሕዛብ
▁እን ወዳ
▁ለ ከ
▁የሚ ቆዩ
▁ያ ነገ
▁ማ ላዊ
▁ም ሉ
▁የተ መደቡ
▁ባ ድማ
▁ሲ ኖራቸው
▁ት ገባ
▁አን ጎ
ንግ ል
▁እየ ጠበቅ
▁ቢ ሉት
▁ሳ ሚ
▁ሳ ጥ
▁አለ አግባብ
▁እና ቴን
▁ጠ ንቃ
▁አገ ኘው
▁ካ ስተ
▁ካ ቶሊክ
▁ከተ ሰማሩ
▁እያ ደረገው
▁ሥራ ውም
▁አስተ ዋል
▁በእ ሱም
▁እየተ ስፋፉ
▁የነ ጋዴ
▁ያስ ቀመጥ
ዝብ ት
ኞች ም
▁ዳ ሌ
▁ማስ ፋፋ
ንና ገር
▁ያል ነው
▁ሽ ሬ
▁እንዲያ ከብሩ
▁እነዚህ ንና
▁ር ኩ
ላለ ቀ
▁ለው ሳኔ
▁የል ጁ
▁የሚሰ በሰበው
▁በደ ራሲ
▁ሊያ መጡ
▁ተገ ብቷል
ማይ ካ
ብራ ራው
▁ዴ ን
▁አለው ና
ቅረ ባቸው
▁ኢኮኖሚ ና
▁ኅ ብረቱ
▁ተሰ ይ
▁ያላ ገኘ
ሰጡ ን
▁አትሌቶች ም
▁እም ብርት
▁መመሪያ ፦
▁ክፉ ውን
▁በታች ኛው
▁የሐ ዋሳ
▁በሥ ልጠና
▁የተጠቀ መበት
ሰቦ ቿ
ለሽ ነት
▁ወደሚ ል
▁የህዳሴ ውን
▁0 1
▁0 5
▁ካስ ፈለገ
▁የቆየ ችው
▁ማይ ጨው
▁አዛውን ቶች
▁በልዩ ነት
▁ዕድገ ትም
▁መቁ ጠሪያ
▁ስድ ስተኛው
▁የተሰጠ በት
▁የወረ ቀት
▁የሱ ፍ
▁መስፈር ቶችን
▁ከ7 00
ነጋገሩ በት
▁እሸ ቴ
▁ተገድ ለዋል
▁ቸል ተኝነት
▁ከቴ ክኖሎጂ
▁የተፈጸመ ውን
▁ለአም ስተኛ
▁ያድር ጉ
▁እየሞ ከረ
▁የጥን ቶቹ
▁የወለ ደው
▁የኋ ሊት
▁ኮረብ ታ
▁መስተዋ ት
▁የሚመለከ ታቸውን
▁ተቻ ችሎ
▁ልሂ ቃን
▁የፍራ ፍሬ
▁መገር ሳ
ሃ መድ
ል ጋ
ሰ ቤ
ሴ ቶ
ሺ ን
ቃ ቀድ
በ ጣ
በ ይት
ታ ቱን
ቻ ለች
አ ስ
ከ ዋል
ዕ ይ
ዛ ችን
ጂ ት
ገ መው
ፋ ፉ
▁ #
▁በ ያዘ
▁በ ጋና
▁አ ታም
▁እ ቀጥ
▁ከ ጠላ
▁ነ ይ
▁ነ ግራ
▁ነ ጮች
▁ለ ጨረታ
▁ይ ፈራ
▁ተ ረኛ
▁ተ ቅማ
▁ያ ና
▁ያ ጠናቀ
▁ማ ፈላለግ
▁የተ መራው
▁ሰ መራ
▁ባ ደረጋቸው
▁እንዲ ተገበር
▁ሁ ኔ
▁የመ ውጣት
▁ገ ጠም
▁ለማ ደናቀፍ
▁አይ ኖራቸውም
▁ሊ ባሉ
▁ሊ ረዱ
▁አገ ሯ
▁ካ ታ
ገባ ል
▁ፍ ን
▁በሚ ወ
▁ከተ ባሉት
ግባ ል
▁አካ ዴ
▁የኢ ዴፓ
▁ከአ ዳማ
▁ያስ ደስ
ጠቀ ማቸው
▁ሃ ና
▁ሚኒ ባስ
▁ኪ ሩ
▁ቤተ ሰባቸውን
▁የጥ ሎ
▁በወ ጡ
▁የሌ ላት
▁ይመስ ሉ
▁በል ባችን
▁10 2
▁አመራ ሮቹ
▁ተቃ ወ
▁12 ን
▁የኤ ፍ
▁እሱ ማ
▁መም ታት
ሳሰ ሩ
ስብ በት
▁ሮ ማውያን
▁የፍ ል
▁የኢኮኖሚ ው
▁እያለ ቀሰ
▁የሚያሳ ድጉ
▁ወታደ ሮቹ
▁እም ነታችንን
▁ሥነ ሥር
or ld
ከናወነ ውን
▁ሃላፊ ነቱን
▁እራ ሳቸው
▁የላ ከ
▁ከፊ ሉ
▁ለል ብ
▁ተደ ምሮ
▁ልቦ ለ
▁በመጠ ጥ
▁ከ200 2
▁ለጋ ስ
▁34 ,
▁ገዝ ቼ
▁ሳምን ታዊ
▁መኖሩ ንም
▁ለመጠበቅ ና
ናችን ም
ካሔ ደ
▁ጁ ቬ
▁መዘጋጀ ቱ
▁ተመልካ ቾችን
▁እናስ ታው
▁ኢንቨ ስተር
▁አንብ በው
▁እንደሚደረግ ም
▁አካሂ ደዋል
▁ፍጥ ጫ
▁ክህሎ ትና
▁አከ ባቢ
▁የመመ ሥረት
▁ፈቅ ዶ
▁ብዙሃ ኑ
▁ዲስ ኩር
▁አይዞ ሽ
▁ውሸ ታም
▁ደው ሎ
▁በእንቅ ስቃሴ
▁ተጠቃ ሾች
▁ተገዝ ቶ
▁ይነገር ለታል
▁በኮንት ራት
▁ይገነ ባል
▁መስዋእ ትነት
▁አንስ ቼ
▁አላሉ ም
▁አያይዘ ውም
▁ቦዔ ዝ
▁እንጉር ጉ
c t
ሀ ራ
መ መን
ም ቡ
ሯ ችንን
ቃ ደኝነት
በ ራው
ባ በያ
የ መ
ጭ ጭ
▁እን ክር
▁ከ ባል
▁ከ በው
▁ከ ያዘው
▁ለ ጌ
▁ተ ለቅ
▁ብ ላክ
▁የተ ከበ
▁የተ ፈጸሙ
▁ሰ ቆቃ
▁ባ ቀረቡ
▁በመ ድረ
▁ሲ ቀመጥ
▁የአ ድ
ስት ሪያ
▁ክ ረም
ደር ሱም
▁በማ ቀናጀት
▁እየ ጐ
▁እየ ነቀ
▁ሊ ፈቱ
▁እንደሚ ገልጸው
▁ባለ ችበት
▁2 .5
▁በሚ ከሰት
▁እያ ዘጋጀ
▁እያ ሰብኩ
▁ሰው ነቱን
▁እየተ ዋ
▁እየተ ዘዋወሩ
▁ከመ ጠ
▁የእ ርምት
▁ቁ ራጭ
▁ያስ ገቡ
▁አመ ክንዮ
▁ቦ ተሊ
ክል ኝ
▁በግ ር
▁ቦታ ን
▁ሥር ዐ
▁ተቀ በለ
▁ከማ ግኘት
▁ማድረግ ህ
▁ኩ ሩ
▁ኩ ታ
▁እጅ ህ
ሰባ ችንን
▁በው ክልና
▁በደ ህና
▁አሰ ላለፍ
▁ዲ ና
▁ለማስ ለቀቅ
▁አያ ገኝም
▁ያሳ ለፉት
ስራ ኤ
▁ነዋ ይ
▁10 ን
▁አድርጎ ናል
▁19 /2009
▁ይሰ ሩ
ግል ኝ
▁ከኢ ስላሚክ
▁የሚታ መን
▁17 0
▁ስብሰባ ዎችን
▁በዕ ጩነት
▁አንቀ ላ
▁አንፃ ርም
ባበ ቂያ
▁ሰነ ዱን
▁የማስ ጠንቀቂያ
▁ለመስ በር
▁ተን ኮ
▁ተደርጎ በታል
▁እንዳያ ገኙ
▁የመንግሥ ታቱ
▁ሲያስ ቡ
▁የሩ ዋንዳ
▁ከገ ጠ
▁ያለፈ በት
▁አደራ ዳሪ
▁በፀ ጋ
▁ከሃ ዲ
▁ኮንት ሮባንድ
▁መቅረ ቱ
▁በቤ ቴል
▁አገልጋይ ነት
▁የጠየ ቀ
▁አመለካከ ትን
▁አስቀድ ሜ
▁ያበረ ከተ
▁ርዝ ማኔ
▁ዌ ብ
▁ከኃ ጢአ
▁የሌለ ባቸው
ገጠ መው
▁ኮም ቦልቻ
▁ቤን ዚን
▁መፈጸ ማቸውን
▁በእግ ራቸው
▁ለተጠቃሚ ው
▁ብዝሃ ነትን
▁በፕሬዚዳን ቱ
▁ጉዟ ችን
▁ከምድ ብ
▁ሹማ ምን
▁በክለ ብ
▁ዘፋ ኝ
▁መብረ ቅ
▁በቸ ልታ
ሠማ ኮ
▁እንደዋ ዛ
▁እጠብ ቃለሁ
o ve
u tion
ል ኦ
ቆ ሙት
ነ ጃ
ወ ና
ዋ ትና
ዢ ያ
የ ትም
የ ሽን
ደ ቁት
ግ ግሩ
ጽ ፈው
ፍ ጥረት
▁በ ሣ
▁በ ካም
▁በ 80
▁አ ግል
▁አ ሥራት
▁እ ሪ
▁እን ቀ
▁እን ቀጥል
▁ከ ሄ
▁ለ ና
▁ተ መለ
▁ተ ወሰደ
▁የሚ ተርፍ
▁ማ ጋለጥ
▁ብ ሬ
▁ሲ ያው
▁የመ ጠበቂያ
▁የአ ጼ
▁ድ ሮው
▁ለመ ፈተሽ
▁ጋ ቢና
▁ሊ ገለጽ
▁ቢ ወጣ
▁ቢ ሾፍቱ
▁ጉ ዲና
▁እንደሚ ገኙበት
▁ስለ መሰ
▁የማ ለ
▁የማ ስተካከል
▁ካ ደረገው
▁በሚ ን
▁ዕ ር
ጀመ ርም
▁ችግ ረኛ
▁እየተ ፋ
▁እየተ ጠቀሙበት
▁ከመ ሄድ
▁ከአ ካ
▁የእ ነር
▁ኮ ስታ
▁ብዙ ዎቹን
▁ምክንያ ትና
▁ለአ ስ
▁አበ ው
▁አበ ቦች
ድን ና
▁በስ ራው
▁አሳ ዩ
▁በ1 500
▁ለእ ናቶች
▁የምት ታወቀው
▁6 /2009
▁በዓ ይነት
▁በት ዝታ
▁የለ በሱ
▁9 .
▁9 1
▁መልኩ ም
ኞቹ ም
▁መመ ላለስ
ላቀ ቁ
ላን ዱ
▁ቴክኖሎጂ ውን
▁መጣ ስ
▁የፀ ደቀው
▁ጊ ቢ
▁ተጠና ቅ
መዝ ን
▁መቅ ጫ
▁ሥልጠና ዎችን
▁ከ2 2
▁ያለመ ኖር
▁ለሚያ ደርጉት
▁ብዙኃ ንን
▁ፊል ሙን
▁ተነሳ ስተው
▁አዘ ቅት
▁w ww
▁ከየት ኛው
▁ሙሴ ም
▁ተም ች
▁ተልዕኮ ውን
▁በፖለቲካ ዊ
▁ከሃ ምሳ
▁ያለም ክንያት
▁በመር ታት
ነዘ ረው
▁በርካ ቶችን
▁መልካ ምና
▁ትኩረ ቴን
▁የሚጠቅ ሱት
▁ድብ ልቅ
▁ከዳ ዊት
▁አስቆጥ ረዋል
▁ጆር ናል
▁ለዕ ይታ
▁ተቀር ጾ
▁ስፔሻ ሊስት
▁ተዘዋው ሮ
▁ተዘዋው ረው
▁ማግ ኛ
▁ለኃ ጢአት
▁ለአንባቢ ያን
▁ማስፈራ ሪያ
▁የሚከለ ክል
▁አልአ ሳድ
▁የነጻ ነት
▁ገቢያ ቸውን
▁ለአፍ ታም
▁ትውው ቅ
▁ኤርዶ ጋን
▁አዘዋ ዋሪዎች
6 8
ሩ ንና
ቀ ቱን
ብ ሔር
ነ ግራችሁ
ኑ ትን
ኞ ቿ
ኩ በትን
ዌ ላ
ዱ ታል
ጅ ድ
ገ ሥ
ጋ ችሁት
ፋ ትም
ፌ ል
▁ he
▁አ ቻቸው
▁አ ቢሲኒያ
▁መ ጎብኘት
▁መ መልከቱ
▁ለ ንግ
▁ተ ጣጥ
▁የሚ ረዳው
▁የሚ ነሱት
▁ያ ሸን
▁ወ ሰድ
▁የተ ጓዙ
▁የተ ጨዋቾች
▁በመ ና
▁ሲ ረጋገጥ
▁ሲ ኦል
▁በአ ብዮ
▁ቀ ማሽ
▁ወደ ቦች
▁በማ ፋጠን
▁የሚያ ረካ
▁የሚያ ገናኘው
▁እየ ጠነከረ
▁ሊ ደ
▁ቢ ሞት
▁ሳ የው
▁አል ክ
▁ከተ መረጡ
ንያ ሁ
▁ሥራ ዎቻቸው
▁የኢ ራን
ዲስ ቶች
▁አም ነን
▁ከመ ድረኩ
▁ከመ ሞከር
ጠና ቸውን
▁ኮ ላ
▁ያስ ቆ
▁ያስ መረ
▁የሰ ባ
▁ጨ ረር
▁ለአ ስተ
ረዳ ኝ
ረዳ ትና
▁ቆ መን
ሰራ ቱ
▁ቡ ራ
▁ጥያቄ ያቸው
▁ዓይ ኖቹ
▁ተቀ ጥ
▁ሲያ ጣ
▁የታ ላቅ
▁ኦ ክስ
▁አሳ ምሮ
ዲያ ኛው
ጨረ ሱ
▁ቤተ ሰቦችን
▁ብሔ ረሰቦችን
▁ስት ጀምር
▁ዲ ላ
ሮችን ና
ከራ ተት
▁የብ ሮድካስት
▁እጅግ ም
▁ስብ ሀት
▁መዝ ለቅ
▁በማስ መጣት
▁መመ ና
ሠሩ በት
▁በዕ ጣ
▁የምታ ደርግ
▁በጎ ን
▁ጐ ጆ
▁እንደሚያስ ፈልግም
ስተካ ከ
▁ዕቃ ው
▁ይቀ ጣል
▁ተጠቅ ማ
▁ሰላ ጤ
▁ሳያ ደርጉ
▁ዐ ቃቤ
ቆጥ ረው
▁ተቀም ጣለች
▁27 ,
▁መፍጠር ና
▁ሀሳብ ን
▁በድር ድሩ
▁ውስ ጠ
▁መጽ ናኛ
▁ዘግ ቶ
▁በማይ ታወቅ
▁ተቃውሞ ውን
▁ከአን ቺ
▁ሰዓ ትም
▁ሦስተኛ ውን
▁የኢህአዴግ ን
▁አደረ ገኝ
▁የሚመጡ ትን
▁የተሰማ ቸውን
▁a m
▁አቅራቢ ዎቹ
▁ማቀ ዱን
ካፈ ሉት
▁ጁ ባ
▁ድምፃ ቸው
▁ማሰል ጠን
▁የማስተ ላለፍ
▁ለክ ፉ
▁በፓ ናል
▁የ201 6
▁ምግባ ረ
▁ተገናኝ ቶ
▁በፌ ስ
▁በተካሄደ በት
▁የአገ ሬው
▁አስመዝግ በዋል
▁መሰብ ሰቡን
▁የወላ ጆች
▁ይቀበ ላሉ
▁ያካ በቱ
▁መሳተ ፋቸው
▁ይማ ራሉ
▁አዝና ኝ
▁ለቡ ድኑ
▁የናይ ጀሪያ
▁ለዲ ሞክራሲ
ሊኮፕ ተር
▁ያስከተ ለውን
▁የፉ ክክር
▁የእያንዳን ዱን
▁ያጠቃል ላል
▁የውድድ ሩን
▁ይዘል ቃል
▁ሰንብቱ ልኝማ
d er
ሊ ል
ላ ላችሁ
መ ሽ
ቀ ደም
ቭ የት
ኖ ራችሁ
ዘ ውን
ዛ ቸዋል
ድ ቃን
ጋ ሊ
ግ ፍ
▁የ ዛን
▁የ ከባድ
▁በ ናፍ
▁እ ጥበት
▁መ ፈል
▁የሚ ጓዝ
▁ማ ሰራጨት
▁ስ ወጣ
▁ም ራ
▁እንደ ነገር
▁ግ ደይ
▁በመ ቆጠብ
▁እንዲ ወርድ
▁በአ ስተዳደር
▁የመ ፀዳጃ
▁የመ ወያያ
▁ለማ ግባት
▁ለማ ሰልጠን
▁አይ ታይ
▁የሚያ ጣ
▁የሚያ ጠናክሩ
▁ቢ ነግ
▁ስለ ነበራቸው
▁የማ መዛዘን
ድረ ን
በረ ች
▁የም ናገረው
▁የም ታውቀው
▁ካ ሰ
▁ካ ላስ
ትና ም
▁ከተ ለ
▁ከተ ናገረ
▁እያ ሱ
▁ሙ ሐማዱ
▁ኮ ል
▁ጨ ለም
▁ተጠ ንቶ
ገለ ገ
▁ኤ ሚ
▁ኤ ግዚ
ጠር ና
▁ዶ ት
▁ዶ ክተሮች
▁ከእ ናቱ
▁በም ክክር
▁ያል ሰ
▁ጭ ነው
▁በስ ራቸው
▁ለው ጦ
▁አቅ ሟ
▁እንደተ ሰ
▁መሆን ህን
▁እንዳይ መጣ
▁ግብ ፆች
▁በበ ዛ
▁ስት ሉ
ጥብ ጥ
▁ያሳ ሰቡት
▁ባን ኪንግ
▁በብ ዛትና
▁ይመስ ገን
▁ሻ ን
▁ስለሚ ኖረው
▁ጸ ጉ
▁ሠራ ተ
▁ዓላማ ን
ፈልግ በት
▁መታ ጠብ
▁የኮ ሙዩኒኬሽን
▁ፅ ናት
▁የሚመ ላለ
▁ዕድሜ ዋ
ሀብ ቱ
▁አለኝ ፦
▁ደስታ ውን
▁ልን ሆን
▁ገባ ው
▁ሥልጠና ና
▁በጽ ኑ
▁አሠ ሪው
▁ከአን ዲት
▁A l
▁A m
▁አጣ ርቶ
▁ጠባቂ ነት
▁የይ ሁ
▁0 6
▁አገኘ ን
▁አምላ ኪዎች
▁ውስን ነቶች
▁ይልቁ ንስ
▁እንስሳ ቱ
▁ከቤተ ሰቦቻቸው
▁ስልጣ ንና
▁ከመን ፈ
ቀበሉ ትም
▁ተመራማሪ ው
▁እድገ ቱን
▁የሚጋ ጭ
▁አልገባ ም
ስተዋው ቁ
▁ልባ ችንን
▁የካር ቦን
▁ሴትዮ ዋ
▁የ12 ኛ
▁የነበራት ን
▁በአህ ጉር
▁ያስተላል ፋል
▁ያተ ረፈ
▁ያሰቡ ትን
▁ትመስ ላለች
▁እሰራ ለሁ
▁ደራር ቱ
▁ማሽነ ሪዎች
▁የሚከበረ ውን
i es
ለ ታለሁ
ላ ዩ
መ ማ
ም ሰ
ሞ ሉ
ሣ ቸው
ሸ ጡ
ሻ ለን
ቀ መንበር
በ ሸ
ቺ ካጎ
ነ ች
ነ ጠ
ዘ ገበ
ያ ኑም
ዬ ዋ
ጭ ርና
ፋ ም
ፏ ፏ
▁ ፱
▁የ ትናንት
▁በ 70
▁በ ደረሰባቸው
▁በ ፈጠሩት
▁አ ኑ
▁መ አ
▁እን ነጋገር
▁ነ ርስ
▁ለ ክልል
▁ለ ደረሰባቸው
▁ይ ሸጥ
▁ተ ደል
▁የሚ ለቀ
▁በመ ሪ
▁በመ ሰል
▁ሲ ዘጋጅ
▁ሲ ጓዝ
▁በአ ሥ
▁የመ ረጡ
▁ቀ ላ
▁ዘ ለል
▁በማ ነጋገር
▁አል ጠራጠርም
▁በሚ በልጥ
▁እያ ካሄዱ
▁በእ ናት
▁እየተ ከተ
▁ኮ ረ
▁ኮ ራ
▁ኮ ምፒዩ
▁ኮ ምፒውተር
▁ክፍ ልም
ታው ና
▁ራ ሔ
▁ሴ ና
▁አብ ራችሁ
▁የው ዳሴ
▁ከእ ስራኤላውያን
▁ያል ፈለጉ
▁እር ሻው
▁በስ ጋት
▁የታ ዳሽ
▁በሌ ለ
ሙያ ዎች
▁ፋ ራ
▁የምን ሰራው
▁ማሳ መን
▁ባለሙያ ዋ
▁የገ ዙ
▁ሶ ሻል
ፈት ሹ
▁ፍላጎ ትም
▁ቆይ ቻለሁ
ወስ ዳቸው
▁በዘ ዴ
▁አጥ ና
▁ቡድ ናቸው
ላቀ ቀ
▁ልጆ ቻችንን
▁ኢኮኖሚ ስት
▁ሥርዓ ቶችን
ገናኛ ሉ
▁ጥር ሱን
▁ስልጠና ና
▁ከበ ሬታ
▁የዓ መቱን
▁አለኝ ታ
ጠሩ በት
▁በኤ ግዚቢ
▁ነጋዴ ዎችን
ቀን ሱ
▁መወ ያየ
▁ይወ ገ
ዥን ብር
▁ቀና ትን
▁ለግ ብር
▁ለመፍጠር ና
ከበረ በት
▁ከፊ ሎቹ
▁ቻይና ን
▁የሩ ሲያው
▁ከዘ መኑ
ፈነ በት
▁መቃ ኘት
▁ሳን ሱር
▁ወድ ቋል
▁የአው ራጃ
▁ብቁ ና
ሰጣ ችሁ
▁ማድ ሪ
▁የሚያን ፀባር
▁ተሰር ተዋል
▁የቅድ ሚያ
▁ያበረ ከቱ
▁የጃ ን
▁ኔት ወር
▁መያ ዛቸው
▁ከሙ ዚቃ
▁ፌስቲቫ ሉ
▁የሚመረ ቱ
▁እያስተ ማረ
▁ሰፍ ሯል
▁ከነበሩ በት
▁የአካ ዳሚ
▁ኋላቀር ነት
▁እያገለ ገለ
▁ገምግ ሞ
▁መሳተ ፋቸውን
▁የሚያጋል ጥ
▁ቤተመንግ ስት
▁ኮከ ቦች
▁የተጣጣ መ
▁አልሸሸ ጉም
. ዴ
1 00
ል ተኛ
መ ሳ
ሚ ሽኑ
ም ኑም
ረ በት
ረ ታው
ቅ ዱን
ባ ባል
ብ ሰው
ቻ ን
ነ ዝር
ኒ ያው
ኛ ዝማች
እ ን
ገ ቤ
▁ ኖረው
▁የ ሔ
▁አ ጠን
▁አ ጨዋወት
▁መ ኢ
▁ከ ብረት
▁የሚ ከፍት
▁ያ ረጋገጠው
▁እንዲ ዳብር
▁በአ ረብ
▁በተ ጋ
▁የመ ደብ
▁ለመ ቋቋምና
▁የሚያ ል
▁እየ ገለጹ
▁ሊ በራ
▁ታ ሽ
▁ቢ ቆይም
▁እንደሚ ፈጸም
▁ስለ ማን
▁እንዳ ነሳ
ስተ ኝነት
▁2 /2009
▁ከተ ቋሙ
ራዊ ና
▁በእ ስልምና
▁ሳይ ወጣ
▁ሙ ሰ
▁የሰ ሊጥ
▁ን ገሪ
▁ን ክሩ
▁ሃ ውስ
▁የግ ልጽ
▁በር ሄ
▁አብ ራራ
▁በየ መስ
▁አደ ብ
▁ዘር ና
▁አይደለም ን
▁የነበረ ና
▁ከሚ መለከተው
▁አር ክቴ
▁አር ጀንቲና
▁ሂ ድና
▁እንደሚያ ደርጉት
▁እንደሚያ መለክት
▁የጥ ሩ
▁ያሳ ደ
▁ሸ ጋ
▁ሸ ጦ
▁10 5
ደጋ ገመ
▁ከኢ ሕአዴግ
▁መነ ፅር
▁በጉ ርምስና
▁ሮ ጦ
▁ስላ ደረ
▁ይኖ ረናል
▁17 /2009
ጠይ ቁት
▁መሳ ቅ
▁የሚሆኑ በትን
▁በጎ ረቤት
ልማ ድ
▁ፖሊሲ ውን
▁ደስ ታቸውን
ፈረ ጅ
▁የመን ገደኞች
▁ተጋ ፍ
▁አጀ ብ
▁የመጨረሻ ዎቹ
▁ከሕ ጉ
ገመ ግም
▁የሚገ መቱ
▁የሚያስተ ዳድር
▁ያወ ጡት
▁ቀረ ቡ
▁የገለ ፁ
▁0 2
▁ምህ ዳሩ
▁ወንጀ ለ
▁የሚጠበቅ በት
▁ደጋግ መን
ጎና ፅ
▁አገልጋይ ህ
▁አስገንዝ ቧል
▁በጅ ምር
▁ያበረ ከተው
▁የጨ ለማ
▁ትኩረ ታቸውን
▁ለመመ ገብ
▁ኀ ብረት
▁ይካሄ ዳሉ
▁ይስማ ማል
▁አሳው ቀዋል
▁ባቢ ሎ
▁ተለዋ ዋጭ
▁የክር ክር
▁የበር ሊን
▁የሚያካሂ ደው
▁ሰይጣ ንን
▁ሸሽ ቶ
▁ከመግባ ቱ
▁ተከፋፍ ለው
ጄኔ ሮ
▁የሚጣል በት
▁እሰጥ ሃለሁ
ገጣጠ ም
▁ለማግኘ ትና
▁አሸንፈ ዋል
a w
ል ሰን
መ ጪ
ሻ ዎች
በ ተን
ኅ ረ
ዟ ቸዋል
ዴ ይ
ጇ ል
ገ ዝና
ጎ ታል
ጐ ራ
ጶ ስ
ፆ ም
▁ ፂ
▁የ ረዳው
▁በ ኒ
▁ከ ደረሱ
▁ይ ሮ
▁ይ ወስድ
▁የሚ ሳተፍ
▁ያ ደራ
▁ያ ካሄዱት
▁የተ ገነቡት
▁ው ሰጥ
▁ግ ሪን
▁ባ ክ
▁ባ ሳተ
▁እንዲ ሳካ
▁ሲ ከፈት
▁ት ወጣ
▁አን ስተን
ሆን ን
▁በአ ጠ
▁በአ እም
▁ዓ ብይ
▁የመ ሰብ
▁ቀ ዳማዊት
▁የሚያ ወጣው
▁እየ ወረደ
▁ታ ግሎ
▁ሳ ቁ
▁የም ረቃ
▁ፈ ጠነ
▁በእ ንባ
▁እየተ ነሱ
▁እየተ መለከቱ
▁መስ ሏቸው
▁ከመ ድ
▁ከመ ኪና
▁ኮ ሎምቢያ
▁ተመ ኘሁ
▁እስከ ሚያ
▁ሐ ቀኝነት
▁ውጤ ቱም
ወጣ ሉ
▁አካባቢ ያቸውን
▁ሞ ከሩ
▁እንዲያ ጣ
▁አር ፎ
▁አማ ኞች
ጣም ረው
▁በሌ ሉበት
ንት ው
▁ኪ ራ
▁የል ጁን
▁ለእ ና
▁መር ህን
▁መር ዛማ
▁አያ ቅ
▁ዋጋ ና
▁ልብ ወለድ
▁ከወ ጣት
▁ሱ ልጣን
▁የሀ ይማኖት
▁ቋንቋ ቸው
▁ፓ ኪስታን
▁ፓ ራሊምፒክ
ጠፋ በት
▁ለህ ትመት
▁ወስ ደህ
▁ቅድ ስና
▁22 /2009
▁ምሥ ጢ
▁በፈ ጣሪ
▁አጠ ገባቸው
ዘዋ ወ
▁26 ,
▁ይመ ከራል
▁የሶ ርያ
ጴጥ ሮስ
ያሉ በት
▁ክን ዋኔ
▁በ2 2
▁በ2 3
▁ቅን ዓት
▁ነገሩ ኝ
▁የሚያደር ገን
▁እየሠራ ች
▁ተበ ዳይ
▁ስላለ ባቸው
▁ህፃ ናትና
▁በ20 ኛው
▁ጨረታ ውን
▁ዩኒቨርስቲ ው
ማስ ቆ
▁ምላ ሹን
▁በገጠር ና
▁በአስተ ዳደሩ
▁ተግ ተው
▁እንደሆን ን
▁በማያ ሻማ
▁የኛ ን
▁አንብ ቦ
▁እስከመ ጨረሻው
▁ሊያሳ ድር
▁ከመካ ከለኛው
▁የተቀበ ለው
▁ለመጥ ቀም
▁የሚሻ ለው
▁መስህ ቦች
▁አብቅ ቷል
▁በሻምፒዮ ንስ
▁ቅፅ በት
▁በሄደ በት
▁በዕድ ገት
▁ከመሠ ረቱ
▁እንመ ርምር
ምባሳ ደር
▁ዣ ን
6 5
ለ ቱም
ሊ ም
ሊ ፒንስ
ማ ትና
ሥ ልጣን
ሰ ፍ
ስ በት
ሷ ቸዋል
ቀ ላቀል
ኃ ዊ
ኋ ችሁ
ኒ ያት
ኖ ቻቸውን
ዑ ል
ዘ ቀዘ
ድ ንም
ድ ዮን
ፈ ሬ
ፎ ይታ
▁በ ከፈ
▁እ ቺ
▁እን ጀ
▁እን ገባለን
▁ነ ቀር
▁ለ ሰራ
▁ለ ገበ
▁ይ ለም
▁ተ ካት
▁ተ ክቶ
▁የሚ ለብ
▁ያ ሟላ
▁ያ መኑ
▁ሰ ራዊ
▁ግ መል
▁በመ ሪነት
▁ሲ ወድቅ
▁ሲ ራጅ
▁በተ ራው
▁የመ ጽ
▁የመ ግለፅ
በር ብር
▁ቀ ላቅ
▁አይ ነቱን
▁እየ ረ
▁እየ ያዘ
▁ሊ ጥ
▁ሊ ነግ
▁ቢ ከሰት
▁ቤ ኒሻንጉል
▁አገ ኙት
▁ፍ ንትው
▁ሆ ኛለሁ
▁ሳይ ችል
ተው ኛል
▁ፕ ራይ
▁ፕ /ር
▁ቤት ህ
▁ብዙ ነህ
▁አባ ቴን
▁ለአ ንዳንድ
▁ራ ዲዮ
▁እስከ ምን
▁መሰ ለሽ
▁ዓይ ናቸውን
▁ከሚ ታየው
▁ረ ታ
ንን ት
▁በስ መ
▁የታ ለመ
▁የታ ሰረ
▁በሰ ይጣን
መራ ችን
▁ግንባ ሩ
▁ቤተ ክር
▁ተስፋ ና
▁ትልቅ ና
▁ድም ጿ
▁አዋ ሳኝ
▁ጉዳዮች ና
▁በል መና
ፈራ ችን
▁አቋ ማቸው
መለካ ከትና
ከታ ዮቹ
▁ግለ ጽ
▁ቀጥ ሮ
▁ከነ ጭ
ሰን በት
▁መዋ ሉን
▁የምና ደርግ
▁ኮን ቬን
▁የዓ ሳ
▁ዕው ቅ
ስተካ ክሉ
▁ተጠቅ ሶ
▁ለመስ በክ
▁ቀድሞ ውንም
ti t
▁ደህን ነትን
▁ጓደ ኝ
ገመ ግ
▁ለሚያ ደርገው
▁ህዝ ባችን
▁ፉ ከራ
▁ፈል ጉ
▁ከፊ ቴ
▁ባለሀብቶች ም
▁A r
▁አውሮፓ ና
▁ሰዓ ቱን
▁መጋ ለ
▁ሽብር ተኛ
▁እንግዳ ችን
▁w e
▁አገኘ ች
▁ከየ ትም
ጣጠ ሉ
▁ድንጋጌ ዎችን
▁በቡ ሩንዲ
▁ጫማ ዎች
ንሰ ሮች
▁አንገ ቷን
▁ወልደ ጊዮርጊስ
▁ያተኮ ረው
▁ካንሰር ን
▁የዘር ፍ
▁ያመጣ ሉ
▁የማስተ ርስ
▁መኳንን ቱ
▁መድሃኒ ቶችን
▁ሊቃ ነ
▁አስመስ ለው
▁ቮ ሊቦል
▁ለዳ ዊት
▁አመን ጪ
▁በተቃዋሚ ዎች
▁ቱቦ ዎች
▁የተቻ ለውን
▁የንጉሡ ን
▁የሟ ች
▁አጠገ ቧ
▁አንቀሳ ቃሽ
▁ባለማግኘ ታቸው
▁ከፓርቲ ው
▁በአቅ ኚነት
▁ብሮ ሹ
▁አገልገ ሎት
▁አጓ ጊ
▁እቀጥ ላለሁ
ሰ ላም
ቀ ትም
ቃ ታቸው
ኩ ዝ
ኬ ቶች
ጅ ቷል
ጇ ቸው
ጋ ትም
ጠ ሩም
ጣ ትና
ጨ ፍ
ፅ ደቅ
ፕ ስ
▁ ́
▁ ዠ
▁የ ሣ
▁የ ጅምላ
▁አ ደረግን
▁እ ቁ
▁እ ሱስ
▁እ ከፍ
▁ለ ሜ
▁ለ ባል
▁የሚ መዘ
▁የተ ስፋፋ
▁የተ ላለፈው
▁ባ ንዳ
▁ባ ሳተፈ
▁ባ ወጡት
▁እንዲ ወገድ
▁እንዲ ጠየቁ
▁ሲ ወስድ
▁ሲ ያውቅ
▁ሲ ይዙ
▁ት ሰማ
▁ል ጓ
▁በአ ዲ
▁በአ ባቱ
▁ዓ ረ
ቶች ህ
▁በማ ፈላለግ
▁የሚያ ሰራ
▁የሚያ ተኩ
▁ሊ ረዳው
▁ታ መነ
▁አለ ቻቸው
▁የማ ድረስ
▁እንዳ በቃ
▁ጠ ማማ
▁ህ ልማ
▁ከተ ካሄደ
▁ከተ መለሱ
▁ምን ነትና
ሪካ ን
▁አስተ ዳዳሪው
▁ሳይ ችሉ
ችሁ ትን
▁ራ ይ
▁ተጠ ንቅ
▁የሚያስ ገር
ለይ ም
▁ከእ ህ
▁እር ቃ
ፈው ም
በው ና
▁ፖ ላንድ
▁የማይ መስል
▁የታ ንዛኒያ
▁መረጃ ም
▁የል ህቀት
ላችሁ ት
▁ሠ ዓት
ውል ቱ
▁የምን መ
▁የምን ሰማው
▁ሂ ሩት
▁የደ ጋ
▁እንቅስቃሴ ያቸው
▁ዋጋ ም
▁የሚጠ ላ
▁ቀር ፆ
ቶቹ ና
▁ጌ ም
▁ጫ ንቃ
▁መሪ ነቱን
ደን ቁ
ደን ቃል
▁አስተዋ ው
▁አስተዋ ጽ
ሎችን ና
▁ተራ ድኦ
▁መተ ግ
▁የሚፈ ጅ
▁እጥረት ን
▁ደብ ል
▁ከጥ ሩ
▁ሙያ ተኛ
▁እህ ቶቻችን
▁ዩ ናይት
▁የሚሆን በትን
▁ከህ ንድ
▁ዜና ዎች
▁ትች ቶች
▁ተያይዞ ም
▁እያስ ገኘ
▁ነጥ ሎ
▁ሽማግሌ ዎችና
▁ያሰ ለ
▁ይረዳ ዋል
▁የአን ዱን
▁ሔ ዋንን
▁መጠበቅ ና
▁በሞ ስኮ
▁ተመር ቋል
▁31 ኛው
▁ከ200 7
▁አሥር ተ
▁ለት ራፊክ
▁ይደ መጣሉ
▁መንስኤ ው
▁ሕፃ ኑ
▁ተረጋግ ተው
▁2009 ዓ.ም
▁የአይ ሁዳውያን
▁ግልፅ ነት
▁በፍቅር ና
▁ሀሳ ቡ
▁ተዘ ግቶ
▁እንደሚያደርግ ም
▁ፈላጊ ው
▁ይሞ ላል
▁የጃ ፓ
▁አባባ ሎች
ሻሽ ሉ
▁ቱሪስ ቶችን
▁ይዳ ረጋሉ
▁በደረ ቅ
▁በዝግ ጅቱ
▁ብሮድካ ስት
▁የሚቃ ረን
▁ተኩ ላ
▁ምሰሶ ዎች
▁አሟ ጦ
▁ሒደ ቱን
▁ከቡ ድኑ
▁የጆ ሮ
▁በብሔ ራት
▁በጉብኝ ቱ
▁ሚሳይ ል
▁ባሬ ቶ
▁ቁራ ኛ
▁እሠራ ለሁ
▁ተንሰራ ፍቶ
▁መግለጻ ቸውን
▁ጁነ ዲን
a ve
መ ኝም
ማ ችሁን
ሜ ኑ
ረ ስት
ር ዲ
ሮ ማያ
ሴ ሎ
ቃ ታል
ቆ ላ
ተ ች
ታ ሞች
ነ ፈር
ነ ታችሁን
ከ ብራ
ኮ ቱ
ዶ ሎ
ገ ሚያ
ጎ ሉ
ጠ ጣው
ጥ ቆ
ፌ ስቶ
▁በ ብረታ
▁እ ጮ
▁እ ችል
▁መ ተርጎም
▁ይ ነበ
▁ይ ገናኛሉ
▁ተ ያያዘ
▁ያ በረታታ
▁ማ ሻ
▁ማ ጠናከሪያ
▁ው በትን
▁ው ደድ
▁ባ ና
▁እንዲ ቀመጡ
▁ጥ ንካ
▁አስ ረኛ
▁በተ ሽከርካሪ
▁የአ ያ
▁የአ ክስ
▁ገ ደለ
▁ዘ ኁ
▁አይ ጠበቅም
▁በማ በርከት
▁የሚያ ዩት
▁ቢ .
▁እንደሚ ችሉም
▁የማ ደግ
▁ጠ ጥቶ
▁ከተ መለሰ
▁ዕ ፀ
▁ምክ ት
▁በእ ስያ
▁እየተ ፈጠሩ
▁እየተ ስተዋለ
▁ሀ ይማኖት
▁ድር ግም
ገል በጥ
▁ብር ጌ
▁የሆነ ውም
▁የሚያስ ገኘውን
▁አብ ዶ
▁ከእ ርግ
▁ያል ቃል
▁ያል ከው
▁እር ሶ
▁ሞ ትና
▁አሉ ባል
▁አሉ ላም
▁የሕ ግና
▁ስት ደርስ
▁የቀ ሩትን
▁ለተ ግባር
▁እንዳለ ብህ
▁ዓይነት ና
ጋራ ው
▁ሂ ው
▁ያሳ ል
▁8 ን
▁የሚጠ ሩ
▁የሚጠ ጣ
▁የአፍሪካ ውያን
▁ቆይ ቼ
ጣል ኝ
▁መንፈ ሱን
▁ሚኒስቴ ርም
ላን ትና
▁በጉ ዳት
▁በገ ዥው
▁ወራት ን
▁ሰር ቻለሁ
▁ሰፊ ውን
▁16 .
▁የሚመ ሳሰል
▁ጐ በ
▁ጐ ረቤ
on e
▁የ1 6
▁እንደማ ያውቅ
▁ቅሬታ ና
▁አባት የው
▁የማያ ዳግም
▁ኬንያ ን
▁የአካባቢ ና
▁ያሰ ኘ
▁ሂደ ትና
▁መገ ላ
▁ሙከራ ው
ጨር ቅና
▁ውይይ ትም
▁አልበ ሙ
ፈና ቀል
ጣጣ ር
▁የወንድ ማማች
▁የግብፅ ን
▁ጥላቻ ን
▁የሮ ማ
▁መስፈር ቱን
▁የፅ ዳት
▁በየመን ደሩ
▁በመቅረ ቱ
▁የተጣለ ባቸው
▁ተረክ በው
▁የፍልስ ጤም
▁ከወን ዙ
▁ኮሜ ዲ
▁አድናቆ ትን
▁መደበ ቅ
▁ግጥሚያ ዎች
▁ላን ቺ
▁ጉዟ ቸውን
▁የጓ ደኛ
▁ዊል ያም
ሳፍ ጥ
▁ኃይማኖ ት
▁የኮርፖ ሬት
▁የኮርፖ ሬሽኑ
▁ፉክ ክሩ
▁ከየአ ቅጣጫው
▁መደን ገ
▁መቅሰ ፍት
▁ከኃላፊ ነታቸው
▁ስፔሻላይ ዝድ
▁በአርአያ ነት
▁አይጠቅም ም
▁ያመላ ከተ
ሀ ንስ
ሃ ሃ
ሜ ና
ረ ጊያ
ሩ ንም
ሱ ታል
ሳ ቡን
ቄ ላ
ክ ተዋል
ዘ ናል
ዘ ዛቸው
ዘ ዙት
ዳ ሪው
ጅ ሙ
ገ ጠመ
ጫ ጭር
▁ ፵
▁በ ረድ
▁ከ ትል
▁ነ ፀ
▁ተ ለም
▁ተ ዘጋጀ
▁የሚ ለን
▁የሚ ታወ
▁የሚ ከተል
▁የሚ ደገፍ
▁የሚ ጫወቱት
▁ያ ሏት
▁ስ ታወ
▁ስ ካር
▁እንደ ጀመሩ
▁የተ ረዳው
▁የተ ረዱት
▁ሰ ፍሮ
▁ባ ሮ
▁በመ ሄዱ
▁በመ ለስ
▁በመ ቻላቸው
▁ደ መራ
▁ሲ ቀጥል
▁ሲ ካሄዱ
▁ት ሆን
▁ት ጠቀ
▁ጥ ሶ
▁አስ ና
▁ዘ ረጋ
▁ለመ ጠጥ
▁ኢ ል
▁በማ መንጨት
▁የሚያ ገኘውን
▁ጠ ጡ
▁የም መ
▁የም ሽት
▁ካ ቶሊ
▁ሚ ሳ
▁ሚ ላን
▁ሚ ሼል
▁አል ታወቀም
▁ከተ ጣ
▁ቅ ንነት
▁ምክ ኒያት
▁አስተ ላላፊ
▁ያስ መዘ
▁አባ ይን
ታዊ ና
▁በቀ ደመው
▁ቡ ጢ
▁የህ ጻ
▁የነበረ ባቸው
▁አማ ፂ
▁ተብ ለን
▁አቅ ማችንን
ክስ ፒ
▁ኩ ነት
▁እንዳይ ቀር
▁አንዳ ችሁ
▁እድ ለኛ
▁ለተ ማሪ
▁ለተ ደራጁ
▁መሆ ኔ
▁እንደሚያ ቀርቡ
▁ያሳ ደረ
▁የፖ ሊ
▁የደ ጋፊ
▁10 .
▁ቀር ነት
▁ስለሚ ኖር
ነገ ጠ
▁ጸ ጉር
▁መድ ኀ
▁አፈ ጉ
▁የተቀ በለ
▁ፅ ጌ
▁ከም ዕራብ
▁የሃ ገሪቱን
▁ፋብሪካ ውን
▁ሰነ ፍ
ነጋገር ን
▁ምቹ ና
▁የመሰ ና
▁መጻ ህፍት
ለቅ ሱ
ሟላ ትና
▁ይሰማ ኝ
ፋቸው ም
▁ይፈ ታ
ይታ ሚን
▁29 ,
▁ግም ቱ
▁ሀገራት ን
▁ጄ ነራል
▁መባ ሉን
▁ፍር ዱን
▁የዛሬ ን
▁ሰዓ ትና
▁በጭ ብጨባ
▁s h
▁s p
▁ሕንፃ ው
▁የሠራ ውን
▁ተካ ቷል
▁መደበኛ ና
▁የተገኘ በት
▁ለእኔ ም
▁ለጉ ዞ
▁አድርጐ ታል
▁በአማራ ና
▁በዲ ግሪ
▁በሠ ላም
▁አሮ ጊ
▁ጅማ ሬ
▁ሳያስ ፈልግ
▁እድገ ትን
▁አይታ ዩም
▁ነቅ ቶ
▁ይሞ ግ
▁መደብ ሮች
▁ኀ ፍረት
▁ሕጎች ና
▁የሚያስፈልጉ ትን
▁በመቅረ ፅ
▁የዮ ሴፍ
▁የአህጉ ሪቱን
▁ፈራ ጅ
▁ኦሎምፒ ያኖች
▁አቋቁ መው
▁በመሸ ፈን
▁አድማጮች ህ
▁እየዳ በረ
▁በበረ ሃ
▁ዘረ ፋ
▁ተቃር ኖ
▁ባለሞ ያ
▁መታወ ክ
▁ያገለገ ሉት
▁ውረ ዶች
▁መረጋጋ ትን
▁ጀብ ዱ
▁ናትና ኤል
ስቁ ልና
▁አልመሰ ለኝም
▁መለዋወ ጫ
▁አልቃይ ዳ
▁ፕሮዳ ክሽን
▁እስማ ኤል
▁ፈላስ ፎች
8 5
v a
ሟ ሟ
ሾ ፌ
ኛ ችን
ክ ላቸው
ይ ሩ
ይ ጥ
ዶ ቻቸውን
ግ ዘው
ፋ ታ
▁በ ኀ
▁እ መጣለሁ
▁መ ከላከ
▁ከ ጊ
▁ለ ስብሰባ
▁ይ ሉት
▁ተ ዉ
▁የሚ ቸ
▁የሚ ኮ
▁የሚ ሉም
▁ያ ዘው
▁ስ ታትስቲክስ
▁የተ መደበው
▁ው ን
▁በመ ገናኘት
▁ሲ ገናኙ
▁ል ጠይቅ
▁በአ ገራቱ
▁በተ ካሔደው
▁የመ ፈ
▁የመ ጣን
▁የአ ገሩ
▁ገ ፈት
▁ለማ ራመድ
▁የሚያ በረክተው
▁1 ሺህ
▁እና ገራለሁ
▁የማ ግኘ
▁እንዳ ረጋገጡት
▁አል ጀ
▁በሚ ነገር
▁ከተ ገኘው
▁ደግ ሜ
▁በእ ንግድነት
▁ከአ እምሮ
▁ቦ ረና
ገራ ቱን
ሰራ ራ
▁አብ ራም
▁መሰ ለፍ
▁ከሚ ሰጡት
▁የማይ ሰጡ
▁ዘመን ን
▁የታ መሙ
ነበረ ድ
▁አሳ የኝ
▁ፕሬ ዝ
ፈጥ ሩት
▁አስተዳደር ም
▁ዲ ያስፖራ
▁በወ ል
▁7 50
▁ዮ ሚ
▁ስሜ ታቸው
ለጠ ፍ
▁10 4
▁ሻ ጭ
▁ደር ሼ
▁ውድድ ራቸውን
ገኛ ት
/200 1
▁ከሰ ላም
▁ይታ ያችሁ
▁የሚታ ሰበው
▁ይሆን ና
▁ተሰ ጣቸው
▁የሚያሳ ድረው
▁ጐ ል
▁በአፍሪካ ም
▁ከበ ሮ
▁ከበ ስተ
▁የተባ ረከ
▁ለሕ ይወ
▁ተነ ሣ
▁ከብ ዶ
▁ዕቃ ውን
መዝ ናል
▁መሸ ሸጊያ
▁የመስ ማት
▁ከኢትዮጵያ ውያን
▁አብሮ ኝ
▁ዱ ካ
▁እንዲሆኑ ና
ዮር ብዓም
ስተው ሉ
▁በመን ደፍ
▁አንደኛ ና
▁መስተ ጓ
▁2007 ዓ.ም
▁ከደ ብረ
▁ፒ የር
▁በየአ ካባቢ
▁መዘ ናጋት
▁እውቅና ና
▁አቅርቦ ቱን
▁ባስ ከተለው
▁የቤ ኒሻንጉል
▁199 4
▁አፈፃፀ ሙ
▁የተላ ከው
▁በጀ ቱ
▁የመድ ኃኒ
▁በተባ ለች
▁ረድ ቷቸዋል
▁በባህ ሪው
▁ወንድሞ ቻቸው
▁አስቀድ መን
▁ይታይ በታል
▁ኢንቨስትመን ቶች
▁የማጣ ርያ
▁ሊቃ ውን
▁መመዘ ን
▁ያረ ጀ
▁የቀበሌ ው
▁በዶ /ር
▁እንዲወ ገዱ
▁በልጅ ነቱ
▁የተፈረ መው
ሰላ ሰል
▁ናፍ ቆ
▁በቻ ን
▁ሽፋ ኑ
ow er
▁የሚያገለግ ሉት
▁ግብአ ቶችን
▁መሻ ት
▁የተሰየ መው
▁የባን ኩን
▁ተከተ ላቸው
▁ተመላ ሾች
▁አያል ነህ
▁በውሳኔ ው
▁ነጋሪ ት
▁ወደምት ገኘው
▁ምኅ ዳር
▁ለነፃ ነት
▁በቪ ዲዮ
▁ኢንስፔ ክተር
.አይ. ቪ
ሽቆለቆ ለ
▁ትምባ ሆ
. ት
8 7
i tion
ማ ቂ
ሳ ሹ
ስ ሎ
ሼ ቲቭ
ባ ቸዋለሁ
ቧ ቸውን
ተ ንም
ክ ሏል
ዕ ክት
ያ ለው
ደ ሉት
ገ ጣ
ጨ ምርም
ፅ ዳት
▁የ ሼ
▁የ ጀመ
▁በ ሠራው
▁በ ፈለጉት
▁እ ኖራለሁ
▁እን ጀምር
▁እን ሞክር
▁ከ ገዛ
▁ከ ቀረበው
▁ከ ዮርዳኖስ
▁ለ ፌዴሬሽኑ
▁ለ ኮን
▁ለ ዋንጫ
▁ይ ብቃ
▁ተ ከተሉ
▁የሚ ከፈ
▁ያ ቋቋመው
▁ማ ሰር
▁የተ ስማ
▁የተ ፈለገው
▁ግ ፋ
▁ግ ጦሽ
▁እንዲ ቆሙ
▁ሲ ደረጉ
▁ሲ ጨርስ
▁በተ ፈጸመ
▁በተ ሃድሶ
▁ቀ ለማ
▁ወደ ኔ
▁ወደ ነበረው
▁በማ ካፈል
▁የሚያ ተኩር
▁እየ በረ
▁ይህ ንም
▁ሊ ያን
▁ቢ ኖራቸው
▁ቢ ዝነ
▁ባለ ችው
▁እስ ክን
▁ያለ ዚያ
▁አም ሳል
▁አም ስቱን
▁ሰው ነታቸው
▁እየተ ጠበቀ
▁እየተ ዘጋጁ
▁እየተ ጠባበ
▁ከመ ጠየቅ
▁ከመ ምጣ
▁ከመ ሳሰሉት
▁ሀ ገረ
▁ሙ ገር
▁ያስ ወ
▁የሰ ጡን
▁ሆነ በት
▁ዝ ን
▁ወቅ ትና
▁ማስ ገኘት
▁ሴ ትና
▁አብ ቃይ
▁ፕሮ ቶ
▁ከሚ ደረገው
▁እንዲያ ልፍ
▁ጽ ዳት
▁ዜ ናው
▁ልጅ ዋን
▁በሰ ጠችው
ሳቸው ና
▁ፋ ሽስት
ላው ያንም
▁አሰ ኝ
▁እንደሚያ መላክ
ዋን ጫው
▁ሙሉ ውን
▁በወ ተት
▁7 /2009
ከፍ ተኛው
▁20 63
ዘው ተር
▁በህ ል
▁ነፃ ነቱን
▁ታላ ንት
▁11 5
▁ገለ ባ
▁ቢሮ ና
▁ግለ ሰቡን
▁ሰር ተን
▁ምግብ ን
▁ኮን ዶም
▁ሙያ ና
▁እንደሚያስ ብ
▁ተነ ጥሎ
በራ ከተ
▁ይቀ ድ
▁መክ ሯል
ረታ ችንን
▁ተጋ ር
▁ሰን ሰለ
ቆጥ ሩ
▁201 8
▁አድማ ሱን
▁ህይወ ቴ
▁እያስ ታወ
በሳ ጩ
▁አድራ ጐት
▁በሐ ቀኝነት
ገመ ገም
▁መጨ መሩን
▁ለግ ማሽ
▁ኅብረት ና
▁ተስማ ማ
▁እራ ሴን
▁በ3 ሺ
▁ሠራተኛ ውን
▁ቅርንጫ ፎችን
▁የሚያደር ሰውን
▁ደካ ሞች
▁ትስስር ን
▁እንዲያስ ቡ
▁በእው ነተኛው
▁ወንጀ ሉን
▁ለሀ ገራቸው
▁ሚሊ ሺያ
▁ለጉ ባኤው
▁ፍትሐዊ ነት
▁የእን ቁ
ገለጽ ም
▁ጠር ሙ
▁በምሳሌ ያዊ
▁ስህተ ቶችን
▁ተተኪ ዎችን
▁ለመም ታት
▁ዞኖች ና
▁ትሆና ላችሁ
▁ብስ ጭት
▁ቻር ልስ
▁የታዳጊ ዎች
▁አመል ካ
▁እንዳይወ ጡ
▁በሦ ስቱ
▁ይደግ ፋል
▁መተማ መኛ
▁የጓ ሮ
▁ጥቁ ሮች
▁እየተዳ ከመ
▁የብዝ ሃ
▁በተከሰተ ባቸው
▁ሪፐብሊ ካ
ዛምቢ ክ
ኤኤ ኤፍ
2 ,
ለ መው
ለ በለ
ቀ ሰው
ተ በት
ክ ረን
ክ ሪን
ኮ ዝ
ዝ ንም
ያ ሳ
ያ ሪኮ
ጂ ነት
ጽ ዮን
▁ le
▁አ ትና
▁እ ረፍ
▁እን ሁን
▁ከ ለጋ
▁ተ ካሄ
▁ያ ጣሉ
▁ባ ክህ
▁ሲ ላት
▁ሲ ከሰቱ
▁ሲ ቀሩ
▁ት ቀጥ
▁ጥ ፍ
▁የመ ፈጸም
▁የአ ገራቱ
▁ወደ ማይ
▁ለማ ከም
▁ጋ ቢ
▁የሚያ ጋባ
▁የሚያ ደናቅ
▁እየ ሄድን
▁ሊ ገኙ
▁ሊ ውል
▁ካ ና
▁ሕ ዋ
▁እያ ጋ
▁ምን አል
▁ምን ጣፍ
▁ከአ መት
▁ኮ ካ
ኔታ ዎች
▁አባ ላቱን
▁አመ ቱን
▁ተመ ርቶ
▁ቆ ዳና
▁ነገ ሌ
▁አት ፍራ
▁ጎ ተራ
ኖች ም
▁እር ጥ
▁በግ ልና
▁ሽ ቦ
▁ፕሮ ዲ
▁ማን ቀሳቀስ
▁ትምህርት ም
▁ከማ ጠናከር
▁ለው ሃ
ሳተ ፍና
መለከ ታት
▁በት ህትና
▁የምን ፈልገውን
▁በሕ ንፃ
▁በብ ዝ
▁8 ኛ
▁ቃ የን
▁ታላ ቂቱ
▁ጌ ታችን
ፈራ ረሙ
▁መታ ሰብ
▁አፈ ጣጠር
▁በሚያ ወጣው
▁14 4
▁አፍ ስ
▁ከም ርት
▁ከም ስራቅ
▁በመስ ኮት
ፈፀ ሙት
▁ተወካ ዩ
▁መግ ደ
▁መጀመሪያ ው
▁ተጠቅ መዋል
▁ሳያ ደርግ
▁ማራ መድ
▁ተዋ በች
▁የማህ በረሰቡ
▁የያዘ ችውን
▁አብሮ ን
▁ኢንተር ፕ
▁ለራ ሳችሁ
▁ምና ባዊ
▁ሙዚቃ ው
▁በእጅ ህ
▁የተጠቀ መው
ግዳ ሉ
ገመ ተው
▁ኬንያ ዊቷ
▁የተቃ ኘ
▁መገለ ል
▁በ2 1
ዕቆ ብን
▁ሞክ ሮ
▁በመጥ ራት
ጣጠ ስ
▁በመመ ሥረት
▁ወልደ መስቀል
▁እንዳልተ ቻለ
▁አስተና ግዳ
▁መገን ጠል
▁ያበ ቃል
▁ለሽ ብር
▁የበረ ሃ
▁ሕሊና ህ
▁የገጠ መው
▁በንግ ግራቸው
▁ሌሊ ቱ
▁በዱ ር
▁ሲያጋጥ ማቸው
▁አሀ ዝ
▁የተገ ደበ
▁መፅሀ ፉ
▁የዳይ ሬክተሮች
▁ታምኖ በት
▁የሚከፍ ሉት
▁ተነግሮ ለታል
▁አላል ኩም
▁ገብረእ ግ
▁አሚ ሶም
▁ሴንት ራል
▁ሰፈ ሮች
▁ሳኦ ልን
▁ጨረ ታው
▁በነበር ኩበት
▁የተተረጎ መው
▁ለመንፈ ሳዊ
m ail
መ ሮች
መ ቱም
ሥ ታት
ሲ ዮን
ሳ ቸዋል
ቄ ት
በ ስብ
ብ ታቸው
ቦ ቻቸውን
ኒ ከን
ከ ሚያ
ኩ ባቸው
ካ ቱ
ዘ ንን
የ ነ
ጃ ው
ግ ተዋል
ጠ ኛል
ጥ ሞ
ፋ ሽ
▁የ ጄ
▁በ ሳን
▁አ ኅጉ
▁እ ሸት
▁እ ወቁ
▁መ ፋጠን
▁እን ሞክራ
▁ለ ጠቅ
▁ለ ፊቱ
▁ለ ልማቱ
▁ይ ለኝ
▁ይ ቆጠር
▁የሚ ኖራቸውን
▁ያ ጨ
▁የተ ደለ
▁ው በቱ
▁በመ ቃ
▁በመ ብራት
▁ሲ ረ
▁አስ ምረው
▁የአ ግሮ
▁ክ ዋኔ
▁ዘ ኍ
▁ለመ መዝገብ
▁ለመ ደበቅ
▁ወደ ቁ
▁ወደ ላይ
▁በማ ሰራጨት
▁የሚያ በረታቱ
▁ሊ ቆም
▁ታ ዳሽ
▁ቢ ለው
ሪያ ስ
▁እንደሚ መጡ
▁እንደሚ ሉትም
▁እንዳ ለችው
▁ከተ ጠቀሰው
▁አካ ቷል
▁ችግ ራቸው
▁አስተ ላለፈ
▁ከአ ፄ
ጠና ከርም
▁ኮ ታ
▁ቁ ና
ገኘ ውም
ርስ ራሽ
▁ማስ ኬ
▁በር ታ
▁መሰ ለው
▁አት ቀርም
ደም ት
▁የበ ካይ
▁እነዚህ ንም
ነስ ም
▁ልጅ ና
▁ለም ነት
▁የሕ ንድ
▁ሊያ ድግ
▁በዓ ባይ
▁አያ ይዘው
▁አድ ኖ
▁አዋ ርድ
▁ሸ ጠው
▁በታ ሪካ
▁ግድ ፈት
▁የዘ ፈን
▁አመራ ሩን
▁ባል ቻ
▁መም ከር
ወጡ ና
▁አፈ ላል
▁ሰር ግ
▁ከም ኒልክ
ቤቱ ታ
▁በክ ፍ
▁ይዘ ትና
▁ስል ጡን
▁ከጥ ቃት
▁ያን ቺ
▁ክለቦች ም
▁ተከታ ተ
▁ዐ ልፎ
▁መሸ ሻ
▁የሚገል ፀው
▁ለራ ሱም
ሰጠ ቱ
ማረ ክ
▁የሚገኝ በትን
▁በብዙ ዎቹ
▁ልም ላሜ
▁ሣ ምንት
▁አንጻ ርም
▁ኬንያ ና
▁መጨ መሩ
▁የሌለው ና
▁ለቀ ቅ
▁የተመረ ቁ
▁የገባ ቸው
▁ጄ ምስ
▁መራ ሹ
▁መና ር
▁ዝግጅ ታቸውን
▁ኤክስ ፐርት
▁በእኛ ም
▁አበበ ች
▁ለፍ ጻሜ
▁ለሀ ገሩ
▁የሌላቸው ና
▁ግብፅ ን
▁ይጠብ ቃቸዋል
▁በዲ ፕሎማ
▁አምባገነ ንነት
▁የመቀ ነስ
▁በጅ ቡቲ
▁መገን ባ
▁መገን ባቱ
▁በተቋ ማት
▁አካሂ ዶ
▁የተቀመጡ ትን
▁የሚፈጽ ሙት
▁የተገለ ፀው
▁መውሰ ዱን
ቸዉ ን
▁ሀብታ ሞች
▁ለማህ በራዊ
▁የክት ትል
▁ይመሰ ክራል
▁መደረ ሱን
▁ከመግባ ታቸው
▁ተፈራር መዋል
▁ሳይታ ለም
▁ተቀራር በው
ላንዳ ዊው
▁የሚያስፈልገን ን
▁ከግለ ሰብ
▁የድም ጽ
▁የባሕ ል
▁ምዝ ገባው
▁ከጃ ፓን
▁ስሕ ተት
▁ናፋ ቂ
▁የሚያህ ሉ
ቴድ ራል
ሀ ም
ሃ ዱ
መ ርም
ም ቦልቻ
ሪ ሱ
ር ቆሮ
ሰ ቱ
ሳ ቱን
ባ ዬ
ነ ባብ
ና ጋ
ን ቷል
ኖ ቿ
ዋ ዥ
ዌ ስት
ዎ ቻችሁ
ዘ ጉ
የ ነሮች
ደ ኛል
ደ ፈው
ዳ ደረ
ጄ ንሲ
ጎ ቴ
ጓ ጓዙ
ፅ በት
▁የ ኡ
▁የ ዝና
▁በ ፈን
▁በ ጩኸት
▁እ ሥ
▁እ ኒያ
▁እ ሥራኤል
▁ተ ሰው
▁ተ ንት
▁የሚ ከታተሉ
▁ያ ወራ
▁ብ ሮች
▁እንደ ደረ
▁እንደ ቀረ
▁ው ዥንብር
▁ሁ ዋላ
▁በተ ሠራ
▁በተ ነገረ
▁በተ ያያዙ
▁የአ ቪዬሽን
በር ን
▁ለመ ጉዳት
▁በማ ብ
▁ሊ ጀምር
▁ሊ ይዝ
▁ታ ህ
▁ታ ታ
▁ጠ ም
▁ካ ደረጋቸው
▁በሚ ሆን
▁ከተ ሳተፉት
▁ፈ ቀቅ
▁ቅ ማንት
▁የኢ ፌዲሪ
▁አም በል
▁ከመ ሞቱ
▁ያስ ችል
▁ወቅ ዱስ
▁የሚያስ ቀር
መስ ላቸው
▁በየ ማ
▁በየ ም
▁መሰ ባ
▁ከሚ ጠቀሱ
▁ይገ ዛ
▁እንደተ ገለፀው
▁ለእ ርሳቸው
▁አሰ ላስ
ንዳ ቸው
▁እንዳለ በትና
▁አያ ዋጣም
▁ዙ ፋ
▁ሄ ን
▁ይጠ ራሉ
ከራ ቸውን
▁7 ን
▁ሶ ፊያ
▁ስን ፍና
ለጠ ነው
▁የሰው ና
▁ቀር ጾ
▁ጫ ላ
▁ግለ ሰቦቹ
▁ፌዴሬ ሽኑን
▁ድርሻ ው
▁17 .
ጠብ ቁት
▁ነኝ ና
▁የምና ያቸው
▁ሉ ተር
▁ጎን በስ
▁እም ነቴ
▁መመሪያ ና
▁የመን ከባከብ
▁እንድን ኖር
▁ክርስቲያ ኗ
▁ይቀ መጣሉ
▁ማስታወ ቁ
▁በይ ነ
▁መሳሪያ ው
ጠነ ቀቅ
▁በዋ ለው
ለመ ዱ
▁ተሰማ ርተዋል
▁ክብ ሩን
መዘገበ ችው
▁መገ ደል
▁የሚያስተ ምር
▁መረ ጠ
▁መቃ ብሩ
▁ከፋ ብሪካ
▁ሚሊ ኒየም
▁በመመ ካከር
▁የማሳ ወቅ
▁ሰጥተው ናል
▁በወጣ ቱ
▁እንደነበሩ ም
▁ማስቀ ደም
▁ካሜ ሩን
▁ያበረ ከቱት
▁ሃብ ትና
▁እስከመ ቼ
ፀባ ራቂ
▁ማደ ያ
▁መርሆ ች
▁ይመር ጣል
▁የተከለ ከሉ
▁ተጠርጣሪ ው
▁በደን ቡ
▁ያሳድ ጋል
▁አህጉራዊ ና
▁ደንቦች ና
▁ቅመ ሞች
▁የኮሌ ጅ
▁የአራ ዳ
▁እንደሚጠቁ መው
▁ባለማግኘ ቱ
▁ለወላ ጆች
▁ክሊኒ ኮች
▁የሚያሳት ፍ
▁ሰርተ ፍ
▁ይዳር ጋል
▁ስታድዬ ሞች
▁ዳይሬክተ ሯ
▁ወት ሮም
▁ኦባ ማን
8 9
ለ ለው
ላ ኑ
ም ቦ
ቆ ጠበ
ቆ ችና
ቆ ረጠ
ባ ላይዜሽን
ኩ ይ
የ መው
ድ ነው
ጊ ው
ጫ ሌ
ፃ ውያን
ፈ በት
▁ ቾ
▁የ ዙ
▁የ ሱን
▁አ ረዳ
▁አ የን
▁መ ከል
▁መ ጠቀሙ
▁ከ ኬ
▁ከ ዘር
▁ይ ሽ
▁ይ ኮ
▁ተ ለያየ
▁ተ ንብ
▁የሚ ላቸው
▁ያ ጸ
▁ወ ከባ
▁ባ ቱ
▁በመ ጣው
▁በመ ጀመሩ
▁ሲ ቆ
▁ት ለኛ
▁የአ ጠቃላይ
▁ገ ዱ
▁ቀ መስ
▁ቀ በል
▁ለመ ሬት
▁ጋ ሞ
▁1 000
▁ታ ሳ
▁ታ ከለ
▁ቢ ቀርብ
▁ሕ ወሓት
▁ፍ ም
▁ዕ ለተ
▁ዕ ለታዊ
▁ሥራ ዎቹን
▁ያለው ንም
ተው ናል
▁ከመ ማር
▁ከአ ጋር
▁ሀ ምሌ
▁ሀ ውልት
▁ሙ ሰኛ
▁ያስ ቀመጡት
▁በላይ ነሽ
▁ብር ሀን
▁ሴ ኩ
▁ሐ ጂ
▁በየ ዓ
▁ድርጅ ታችን
▁አው ርዶ
▁ተና ጋሪዎች
▁እንዲያ ዩ
▁የማይ ል
▁የማይ ፈልግ
ገና ኛል
▁ሲያ በቁ
▁ጭ ጭ
▁ጭ ልጥ
▁ጭ ራሹ
▁ያሉ ባቸው
▁ክል ልና
▁የታ የውን
▁ኦ ሮ
ህን ፃ
▁እንደተ ናገረ
▁ዘመ ኔ
▁ዘመ ናቸውን
▁እንዳይ ደገም
▁የምት ችልበት
▁ዲ ፕሎማት
▁የምን ላቸው
▁ጥሩ ና
▁የባ ሌ
▁የደ ሞዝ
▁መለ ካት
▁የለ ብኝም
▁ስለሚ ገባው
ጣል ያኖች
▁12 .
▁የቆ ዳና
▁አሸ ነ
▁ሴት የ
▁ና ታን
▁ሱ ማሌ
▁13 .
▁ድርሻ ቸውን
▁ፖለቲካ ን
▁የክ ፍል
▁ኃላፊነት ም
▁ቢያ ሳ
ገዛ ቸው
ልማ ሶች
▁ለህ ገ
▁ይቀ የ
ሳን ደር
▁ተን በርክ
▁መሥራት ን
▁ቀድሞ ም
▁ያገኘ ነውን
▁በሃ ገራችን
▁የግብርና ውን
▁ማጣ ርያው
▁ለማወቅ ና
▁እንደም ታው
▁የወን ዝ
▁ምሥራ ቹ
▁ሠር ቻለሁ
▁መጠየ ቃቸውን
▁በየአ ገሩ
▁አሳይ ቶ
▁በ199 1
▁ይተ ቻሉ
▁የቁ ጥር
▁ተም ቹ
▁በሂ ደትም
▁ስላለ ኝ
▁የሚደርስ ባቸው
▁E n
▁ፍጻሜ ያቸውን
▁ከኤ ች
▁ተገንዝ ቧል
▁ባለሃብ ቱ
▁መጨመር ና
el f
ርብ ትና
ጎል በትና
▁ከማሳ የት
▁ዩኒ የን
▁ሰልጣ ኞቹ
▁ሰልጣ ኞችን
▁በመል ቀቅ
ቦራ ቶ
▁የተገ ጠመ
▁ጠንክ ረን
▁ለመጠ ቆም
▁ለፈ ተና
▁የስብሰባ ው
▁ምስጢ ራዊ
▁ፕሮፖ ዛ
▁አዘውት ረን
▁የሚያጠ ቃልል
▁መከናወ ናቸውን
▁ተረዳ ሁ
▁ወደድ ኩ
▁አንቶ ኒዮ
ኤች ዲ
▁ተጋባ ዥ
▁እሾ ህ
ሮፕላ ኑ
▁ከተቀመጠ በት
▁ጎረም ሳ
▁አማልክ ትን
▁ተንተር ሶ
▁ባደረግ ነው
▁በመነሳ ትም
▁ቅሪ ተ
▁ማሽቆልቆ ል
▁ማስቻ ሉን
▁አፈወር ቂ
▁እንሞክራ ለን
v en
ማ ውን
ር ፎ
ሳ ሰቡ
ስ ልጣ
ኛ ነት
ኮ ረጅ
ዟ ችሁ
ዬ ት
ዳ ረግ
ጊ ታቸው
ጐ ስ
ጥ በብ
ጭ ድ
▁በ ጀመረ
▁በ ያዙት
▁ከ ፎ
▁ለ ዝ
▁ይ መልስ
▁ተ ህ
▁ተ መለከቱ
▁ያ ሳብ
▁ማ ደጉ
▁ብ ሪ
▁ብ ዜ
▁ብ የ
▁እንደ ፈ
▁ግ ዝ
▁በመ ሣሪያ
▁እንዲ ናገር
▁እንዲ ጫወት
▁ል ስጥ
▁አስ ወጥ
▁በተ ካሄዱት
▁የመ ከባበር
▁የመ መርመር
▁የአ ዳም
▁ሊ መራ
▁ታ ዩ
▁ሳ ስ
▁ሳ ለች
▁አለ መጣ
▁የማ ዳን
▁የማ ስፋት
▁ጠ በል
▁የም ኖረው
▁ሚ ድሮክ
▁ከተ ቋ
▁እያ ሰቡ
▁ሌ ጦ
ሪካ ል
▁አካ ለ
▁አካ ሎች
▁እየተ ገኘ
▁እየተ ሰጣቸው
▁እየተ ከሰተ
▁እየተ ዘዋወረ
▁መስ ፋት
▁ሀ ዲስ
ኛው ና
▁ያስ ገረ
▁ያስ ገደ
▁አበ ዛ
▁ሆኖ በት
▁ስራ ሽ
▁መሰ ላል
▁አት በል
▁እር ከኖች
▁ሞ ተው
▁የት የ
▁ቴ ራፒ
▁እንደተ ፈጸመ
▁ዛሬ ስ
▁በው ሉ
▁በበ ዓላት
▁አያ ልፍም
▁ፀ ሎ
▁የምን ሠራ
▁በሕ ፃናት
▁ያሳ የውን
▁ሸ ል
ላቸውን ና
▁ምርጫ ቸው
▁መንገ ደ
▁የዘ ገ
▁የፖለቲካ ል
▁የዕ ጩ
▁15 ን
▁ኬ ር
▁ተሳትፎ ውን
ንዳን ዶች
▁እም ላለሁ
ጀም ሩት
▁ከጥ ቅሙ
▁መኖር ና
ቀስ ሙ
▁ጥያቄዎች ም
▁የመጣ በት
▁የጉ ብኝት
▁ከታ ቀደው
▁መፍ ለቂያ
▁በመተ ላለፍ
▁በሥ ሩ
▁ዕለት ም
▁ሕዝ .
▁ቤተሰብ ን
▁እያስ መዘገቡ
▁ተመልክ ተዋል
▁ከደ ቀ
▁ያሰ በው
▁የተመረ ኮ
▁ግብርና ውን
▁ከአን ደኛው
▁እየተሰራ በት
▁ለመታ ደም
▁ለ1 4
▁በጠ ባብ
▁ለመቀነስ ና
ናውያን ን
om e
▁ከጉ ዳዩ
▁የሚመስ ለኝ
▁ወደተ ሻለ
▁ዋል ያ
▁የሚሰማ ኝ
▁ማኔ ጅመን
▁የጠየ ቁ
▁ገላ ጋይ
▁ለሁለ ተኛው
ለያይ ም
▁ታች ኛው
▁መነሳ ቱን
▁ሚስጥ ራዊ
▁የሚጋ ብ
▁የማስተ ባበር
▁የሚጠቅ መው
▁የወቅ ቱን
▁ትው ሲት
ዶሚ ኒ
▁ያድ ናል
▁አነጋግ ሯቸዋል
▁አዙ ር
▁g o
▁ይኑ ራችሁ
▁የሚነገር ላቸው
▁የማጥ ራት
▁አጠቃቀ ምን
▁ከጅ ማ
▁እመር ጣለሁ
▁እየጣ ለ
▁የተሾ ሙት
▁አለዚያ ም
▁ሊያጋጥ ሙ
▁ታገኛ ላችሁ
▁ከትን ሽ
▁አስተሳሰ ቦችን
▁በጠረ ጴዛ
▁መጠራ ጠር
▁ባለንብረ ቶች
▁እየሮ ጠ
▁ደከ መኝ
▁ምሉ ዕ
e p
ሁ በትን
መ ዱት
ራ ረበ
ሺ ው
ቀ ኛል
ቀ ዋለን
ቃ ዩ
ቲ ስት
ና ወጥ
እ ግዚአብሔር
ዚ ክ
ዛ መት
ጀ ንት
ጣ ር
ፈ ኞች
ፍ ኗል
▁ ፰
▁አ ነቃ
▁እ ፅ
▁እ ረዳ
▁እ ክሎች
▁ለ 25
▁ተ ደስ
▁ተ ጻፈ
▁የሚ ከላከል
▁በመ ድረሱ
▁በአ በረታች
▁ዓ ለት
▁በተ ሰበሰበ
▁የአ ባልነት
▁ገ ነ
▁ክ ረምቱ
▁ኢ /ር
▁የሚያ ክል
▁ስለ ፈለገ
▁ካ ሮ
▁ሚ ናቸው
▁አል ጠፋም
▁ፍ ቱን
▁በሚ በልጡ
▁በሚ ፈልጉት
▁ፈ ጅቶ
▁እያ ማ
▁እያ ወጡ
▁ሳይ ለይ
▁መስ ራቱ
▁መስ ርተው
▁ከመ ጋ
▁የእ ሳቸው
▁የሰ ነ
▁ሆነ ብኝ
▁ሃ ገራዊ
▁ለአ ረንጓዴ
▁የሚያስ ረዳ
▁የሚያስ ደንቅ
▁አቀ ረብ
ቢያ ት
ቀረ ጽ
▁የማይ መ
▁5 ን
▁5 /2009
▁ይገ ም
▁ፋ ይናን
▁የቀ ጠ
▁ለተ ነሱ
▁ባለሙያ ና
▁የገ ዢ
▁ጀምሮ ም
▁ስን ኳ
▁ሸ ገር
▁ባይ ኖረውም
▁የለ ህም
▁ቡድን ና
▁ሻ ሸመኔ
▁መንፈ ስና
▁አጥ ባቂ
▁የተለ ወጠ
▁ቡድ ኖቹ
▁የጠ ላ
▁በገ መድ
▁የፍ ጆታ
▁ጆ ናታን
ጀን ቲ
▁የሞ ከሩ
▁ለብ ሔ
▁መስራት ና
▁የሚወ ደው
▁ይቀ ይ
in d
▁መፍትሔ ዎች
▁ዝም ታን
▁ምንጭ ና
▁የእር ሱን
▁የመስ መር
▁ተን ታኝ
▁አየር ላንድ
▁መዛ ግብ
▁የሚገል ፁ
▁ሕዝ ባችን
▁እንዳልሆነ ና
ውጣ ታቸው
▁የሠ ራዊቱ
▁በን ቀት
▁እራ ስ
▁ከዘ መን
▁ኢዮ ስያስ
ወያ ዩበት
▁ተው ጦ
▁ለመታ ዘዝ
▁አሰጣጥ ና
▁ለታ ሪክ
▁ዲግሪ ውን
▁አንዷ ን
▁ዲሞክራሲ ን
▁ተወስ ደው
▁ለነ ፍ
▁ከሳ ዑዲ
▁ከሥራ ው
ፈቀደ ላቸው
▁ለቤተ ሰቦቻቸው
▁አዝማ ድ
▁የያ ዛቸው
▁በጋዜ ጠኝነት
▁እሰ የው
▁በመቅረ ጽ
▁አውጪ ዎች
▁በማግ ሥቱ
▁ተከራይ ተው
▁ጎሳ ዎች
▁ለማጣ ጣም
▁ትስስ ርና
▁ምሩ ቃን
▁የጨርቃ ጨርቅ
▁ማርያ ምና
▁የተሳሰ ሩ
▁ባለጉ ዳይ
▁የባን ኮች
▁ዕንቁ ላል
▁ጸሃ ፊ
▁ጭላን ጭል
3 ኛ
8 3
ሃ ኒ
ለ ፀ
ላ ዌ
ላ ዲ
ር ጎ
ሳ ኩ
ሳ ሾች
ብ ዓ
ቪ ስ
ነ ቶቹ
ኪ ዩ
ዋ ክብት
ዘ ዳን
ፕ ሊ
▁የ ያዝነው
▁አ ጡ
▁አ ራዊ
▁እ ቺን
▁መ ፀ
▁መ ገናኘ
▁እን ጠብቅ
▁ይ ለያይ
▁የሚ ታወቀውን
▁ያ ች
▁ማ ጎ
▁ማ ሊያ
▁ማ ደስ
▁ማ ቃለል
▁ስ ምንቱ
▁እንደ በ
▁ደ ል
▁አን ተው
▁አን ስታ
▁በአ ዎ
▁አስ ጠር
▁በተ ሰራ
▁የአ ሸናፊ
▁ለመ ቆም
▁ለመ ዳሰስ
▁በማ ም
▁የሚያ ልቅ
▁እየ ከፈሉ
▁ሊ ፈጥሩ
▁ታ ና
▁ታ ገኛለች
▁ሳ ለን
▁ሳ ላስ
▁እንደሚ ወሰድ
▁አል መጣ
▁አል ወድም
▁አንድ ሬ
▁ዕ ት
▁ነገር ኩት
▁ሌ ንጮ
▁አካ ልም
▁ሳይ በ
▁ከመ ፍታት
▁ከመ ፈጸም
▁ከመ ገንባት
▁የነ ጭ
▁ከአ ራቱ
ንስ ለር
▁ኮ ረዳ
▁አመ ታትን
▁ለአ ስራ
▁3 ለ1
▁በቀ ደሙት
▁የስ ል
ወሰ ዳቸው
▁እንዲያ ተኩር
▁ሲያ ገለግል
▁ሲያ ከናውኑ
▁ከማ ግኘ
▁የታ መ
▁የታ ማ
▁የታ ይ
▁በጥ ቅል
▁ወጣ ትና
ግራ ይን
▁ቤተ እ
▁አጋ ሮቻቸው
ንዳ ት
ተኞች ና
▁ኮሚ ኒኬሽን
▁የምን መለከተው
▁የተሰ ጠን
▁ተጠቃሚ ነትና
ለማ ዊ
▁ድም ፄ
▁የለ ባትም
▁መብ ታችን
▁በሽ ር
▁9 /2009
▁ጌ ቶች
▁አክ ሏል
ደገ ኛ
ደገ ፈው
▁በማስ ታወ
▁መመ ከት
▁የሁ ሉ
▁እርምጃ ም
ደበ ድ
▁ምድር ም
▁14 ን
▁የፈ ቀደው
▁ሜዳ ውን
▁የተቀ የረ
▁ኢኮኖሚ ክስ
▁ፓ ፓ
▁የሚችል ና
▁ደብ ተ
▁ስል ቶችን
▁ጅ ረት
▁የሚገባ ትን
▁ይቀ ና
▁ተከታ ዩን
▁ክፍያ ዎች
▁መሸ ፈ
▁በፈ ረስ
▁እናት ህ
▁እናት የው
▁በሰው ነታችን
▁አመራሮች ም
▁ጠየ ቀኝ
▁ጓደኛ ውን
▁ሃሳ ቤን
▁ይጠይ ቅ
▁ግለሰቦች ም
▁አንጻ ራዊ
▁ካር ታው
▁ክስተ ቶችን
▁በ3 5
▁ማሰብ ና
▁የወደ ቀው
▁ጠባቂ ው
▁የይ ቅርታ
▁የሚገቡ በት
▁ከየ መን
▁ባህሪ ይ
▁የትም ባሆ
▁E x
▁አልበ ኝነት
▁የእን ኳን
▁እንክብካቤ ና
▁በመር ፌ
▁አስገራሚ ው
▁በአንፃ ራዊነት
▁በመንግሥ ትም
▁በማኅ በር
▁የሚገር መኝ
▁W h
▁ተጣ ብ
▁ገጥ መው
▁አከራ ይ
▁ተጓ ዦች
ዘነ ጉ
▁ይገር መኛል
▁የአትክል ትና
▁በዝግ መተ
▁ሣይ ንስ
▁የአባይ ን
▁የአሰልጣ ኞች
▁የኮሌ ጁ
▁በ1960 ዎቹ
▁ግሮ ሰሪ
▁ሳተ ላይት
▁ለመደም ሰስ
for m
▁ካዛን ቺስ
▁ርክ ክብ
▁ቀስቃ ሽ
▁ኤልሳቤ ጥ
ኪናፋ ሶ
▁እንጉርጉ ሮ
ማ ቲክ
ሰ ሮች
ሸ ጠው
ቅ ለው
ቤ ታችን
ቻ ውን
ነ ፋ
አ ችንን
ኤ ት
ከ ሩን
ክ ሙ
ይ ሉ
ደ ቡብ
ጉ ዳ
ጠ ረጥ
ፊ ሻል
▁በ ኋ
▁አ ሐ
▁አ ፌ
▁ከ ዚ
▁ለ ፌ
▁ይ ኖረው
▁ተ ዘጋ
▁ተ ደቅ
▁የሚ ፋ
▁የሚ ኒስቴር
▁ያ ጠራ
▁ማ ሩ
▁ማ ጂ
▁ማ ሽኑ
▁ማ መልከቱ
▁ማ ጓጓዣ
▁ስ ሆን
▁የተ ሀድሶ
▁ባ ዘዘው
▁በመ ወሰን
▁ደ ኅና
▁እንዲ ደ
▁ሲ ሲ
▁ሲ ወለድ
▁በተ ላ
▁በተ ጣ
▁የመ ረጠ
▁የመ ጻሕፍት
▁የመ ሮጫ
▁የአ ሽከርካሪ
▁የአ ስፋልት
▁ድ ፍ
▁ድ ስት
▁አይ ስተዋልም
▁ጋ ረድ
▁ሊ ጠቀሙበት
▁ቢ ቆ
▁ቢ ወ
▁ቢ ችል
ሪያ ት
▁ጠ ጪ
▁የም ዕተ
▁ካ ወጣ
▁ካ ቴድራል
▁ሕ ብረ
▁በሚ ታወቀው
▁እያ መረተ
ከል በት
▁ሙ ሰኞች
▁ኤ ሲ
▁ከእ ሳቸው
▁በም ስራ
▁በግ ዴታ
▁ኢን ዶኔ
▁ር ዳታ
▁ሲያ ከብር
▁ተብ ራር
▁ኪ ሳ
▁የመንግ ስታቱ
▁እድ ሎችን
▁ለሚ ወ
▁መር ጠዋል
▁ለተ ቀ
[...]
