#version: 0.2 - Trained by `huggingface/tokenizers`
እ ን
የ ሚ
ነ ው</w>
ቸ ው</w>
የ ተ
ው ን</w>
ላ ይ</w>
እን ደ
ነ ት</w>
ዎ ች</w>
አ ን
በ መ
ች ን</w>
እን ዲ
ነ በ
መ ን
አ ስ
ዋ ል</w>
ለ መ
አ ገ
በ ት</w>
ለ ው</w>
በ ተ
ደ ረ
ለ ማ
ሆ ን</w>
የ መ
ዚ ህ</w>
ን ም</w>
ቶ ች</w>
አ ይ
ት ን</w>
ያ ስ
ው ስ
ቸ ውን</w>
ከ ተ
በ ማ
ነ ገ
የ አ
በ አ
ት ና</w>
ድ ረ
ለ ት</w>
ድ ር
ሆ ነ</w>
ደ ር
ለ ም</w>
ውስ ጥ</w>
ወ ደ</w>
ባ ለ
ራ ት</w>
ረ ት</w>
ኢ ት
እንደ ሚ
ነበ ር</w>
ኢት ዮ
መን ግ
ኢትዮ ጵ
የ ማ
ጋ ር</w>
መ ል
መ ስ
እን ዳ
ጊ ዜ</w>
የ ም
አን ድ</w>
ግ ን</w>
መ ለ
የሚ ያ
ሰ ው</w>
ተ ኛ</w>
አ ል
ስ ት</w>
ዓ መ
መ ሆ
በ ሚ
ር ት</w>
ደ ግ
ው ም</w>
እ ስ
ም ን</w>
ሮ ች</w>
ቱ ን</w>
ረ ው</w>
ስ ለ
ኢትዮጵ ያ</w>
ሪ ያ</w>
ም ክ
ግ ባ
ት ም</w>
ጉ ዳ
ላ ል</w>
ች ግ
ያ ህ
ነገ ር</w>
ቤ ት</w>
ጀ መ
ደግ ሞ</w>
ስ ት
አስ ተ
አ ካ
እ ያ
ሳ ይ
ላ ቸው</w>
ና ቸው</w>
ስ ተ
ሆ ኑ</w>
ሁ ን</w>
ን ና</w>
አ ም
እ ር
ይ ም</w>
መንግ ሥ
ይ ህ
ሎ ች</w>
ና ል</w>
ገ ባ
ታ ል</w>
እ ነ
ዳ ን
ገ ል
ሥ ራ</w>
ን ን</w>
ል ማ
እ የ
ተ ሰ
ን ያ
ያ ለ
እ ና</w>
ግ ን
ም ህ
ዲ ስ</w>
ወ ጣ
ና ገ
ያ ን</w>
እ የተ
ኑ ን</w>
ካ ከ
ከ ፍ
ም ን
ብ ር</w>
ታ ት</w>
ሉ ት</w>
አ ለ
ኛ ው</w>
ድረ ግ</w>
እን ደ</w>
ይ ህ</w>
ገ ድ</w>
ዘ መ
ና ት</w>
ብ ቻ</w>
አ ቶ</w>
ፈ ል
2 0
ወ ቅ
ዎ ችን</w>
ላ ት</w>
ተ ጠ
ም ር
ባ ቸው</w>
በ ር
ራ ዊ</w>
ዓ ለም</w>
ች ና</w>
ሁ ኔ
ምክ ንያ
ች ሁ</w>
አ ቅ
ለ ያ
ሁ ሉ</w>
ኋ ላ</w>
መ ጠ
ገ ለ
ወ ን
መ ሰ
ይ ወ
መ ረ
ሪ ካ</w>
ወ ይም</w>
ታ ቸው</w>
ገ ን
አ ባ
ት ምህ
ተ ው</w>
አ ብ
ክ ፍ
ሰ ዎች</w>
ል ጣ
ክ ል
ኢ ን
አ በ
ን ግ
በ ዚህ</w>
ሁ ም</w>
መንግሥ ት</w>
ህ ዝ
የ ነበ
ሩ ት</w>
በ ር</w>
ብ ሎ</w>
ፊ ት</w>
ሕ ዝ
አገ ር</w>
በ ቀ
ከ መ
ዓመ ት</w>
አ ድር
በ ላይ</w>
በ ኋላ</w>
ገ ው</w>
ታ ወ
አገ ል
ላ ለ
እ ና
ቃ ል</w>
ቀ ር
የ ት</w>
ሉ ም</w>
የ ሰ
ያ ው</w>
ወ ደ
ጠ ቀ
ከፍ ተኛ</w>
ው ና</w>
አይ ደ
ዘ ር
ልማ ት</w>
ገ ኘ
ሠ ራ
ያ ለው</w>
በ ረ
ዕ ድ
ብ ዙ</w>
አ ደ
ሁ ለ
ል ም</w>
መሆ ኑን</w>
ኃ ይ
ድ ር</w>
ግ ብ
ሥ ራ
ራ ል</w>
ሲ ሆን</w>
ደረ ጃ</w>
ዚ ህ
ቷ ል</w>
ኞ ች</w>
ማ ስ
እንዲ ሁም</w>
ር ና</w>
ትምህ ርት</w>
ዮ ን</w>
መን ገድ</w>
የሚ ያስ
ለያ ዩ</w>
ጥ ር</w>
ለ ሁ</w>
ብ ረ
ል ቅ</w>
ቀ ን</w>
ያህ ዌ</w>
ሌ ሎች</w>
ሁኔ ታ</w>
ረ ጋ
ው ድ
ቦ ች</w>
መ ካከ
ሆ ነ
አገል ግ
አ መ
ይ ች
በ ኩ
አ ት
ወ ሰ
ጠ ና
ዓ ት</w>
አ ዲስ</w>
ከ ሚ
ች ም</w>
ድ ን</w>
ሁ ለት</w>
አ ሁን</w>
ደ ር</w>
ሽ ን</w>
ፓ ር
አገልግ ሎ
ስ ፖ
ሆ ኑ
ያ ደር
ተ ቋ
20 0
ታ ዊ</w>
ለ ን</w>
ባ ት</w>
ሰ ማ
እንዲ ህ</w>
መ ር
ቅ ር
ሀ ገ
ችግ ር</w>
ዘ ጋ
ፕ ሮ
ም ና</w>
ያ ም</w>
ያ ል
ሚ ኒ
ፈ ጠ
ው ጤ
ዓ ይ
ላ ክ</w>
ራ ቸው</w>
እ ው
አ ቀ
ን ስ</w>
ም ሮ</w>
ሌ ላ</w>
አገ ሪ
ድር ጅ
ኛ ል</w>
አካ ባ
ተ ከ
ጥ ያ
ሪ ዎች</w>
ዎ ቹ</w>
ተ ገ
መካከ ል</w>
ሊ ዮን</w>
ተ ር</w>
ሆ ነው</w>
በተ ለ
ባ ህ
ከተ ማ</w>
ተ ግባ
ለ ች</w>
ተ ና
ጉዳ ይ</w>
ይህ ን</w>
ጠ ቅ
ገን ዘ
ፍ ሪካ</w>
ወቅ ት</w>
በ የ
ካ ሄ
ሲ ያ
ሩ ን</w>
እስ ከ</w>
እን ጂ</w>
እንደ ሆነ</w>
ባ ል</w>
ብ ት</w>
ድረ ስ</w>
ይ ገ
ሰ ብ</w>
ስ ራ</w>
መ ሠ
አበ ባ</w>
ተ ዋል</w>
ሞ ክ
እ ኔ</w>
ከ ዚህ</w>
በ ሰ
መለ ከ
ቱ ም</w>
ድ ን
ሙ ሉ</w>
ጠ በ
ቀ ረ
ማ ለት</w>
ቶ ችን</w>
ምክንያ ት</w>
ግ ለ
አይደ ለም</w>
ን ድ</w>
ጠ ው</w>
አ ር
ል ና</w>
ታ ው
ረ ዳ
የሚ ገ
ተ ቀ
ታ ሪ
ደ ው</w>
ታ ቸውን</w>
አን ዳን
በ ስ
የ ኢትዮጵያ</w>
ያ ው
ላ ሉ</w>
ቸ ዋል</w>
ሰ ራ
እነ ዚህ</w>
ገ በ
ው ጭ</w>
ዴ ት</w>
ች ል</w>
ይ ሆ
ግን ባ
ፈ ው</w>
ኢ የ
አ ው
አስተ ዳ
ጊ ዜ
ፋ ት</w>
ኖ ች</w>
ሰ ብ
ክ ለ
ያህ ል</w>
አ ማ
ወ ዳ
ም ር</w>
ጣ ት</w>
ደ ም</w>
ቀ ው</w>
አገልግሎ ት</w>
በ ል
ከ ና
ፕ ሬ
ላ ው</w>
ጠ ር</w>
አ ለ</w>
ዓመ ታት</w>
ቅ ዱ
ሆ ኖ</w>
ለ ው
ኝ ነት</w>
እ ግ
ተ መ
ሱ ን</w>
ጨ ማ
በር ካ
ሥ ር
ም ንም</w>
እን ዴት</w>
ክ ር
ይ ዘ
ዚህ ም</w>
ል ጆ
ሁ ሉም</w>
ለ ዋል</w>
ላ ም</w>
ማ ህ
ለ ቲ
ፍ ት
ብ ሔ
ፖ ለቲ
ረ ዋል</w>
ዘመ ን</w>
ዮ ች</w>
ኃ ላ
ጨ ዋ
ጽ ሐ
ያ ሳ
ተ ሳ
በ ፊት</w>
ፈ ጥ
ሪ ያ
ጥ ረት</w>
ባ ን
ሳይ ሆን</w>
ጣ ም</w>
ኢ ኮ
ቅ ም</w>
ች ው</w>
ቀ ት</w>
በርካ ታ</w>
ኢኮ ኖ
ቀ ጥ
ገንዘ ብ</w>
ገ ባ</w>
ታ ው</w>
የሚ ል</w>
ኢየ ሱ
ነ ሳ
ር ድ</w>
ቸ ውም</w>
ሏ ል</w>
መንግ ስት</w>
መ ው</w>
እን ግ
ካ ም</w>
ይወ ት</w>
ከ ሰ
ድ ጋ
አ ሳ
እ ድ
ተ ማ
1 9
ይ ኖ
ዚ ያ</w>
የ ት
ዶ ች</w>
ጨ ረ
አገሪ ቱ</w>
ብ ር
ሳ ብ</w>
ስ ለ</w>
ማ ን
ተና ግ
እ ም
የ ግ
የ በ
እንዲ ያ
ማ ድረግ</w>
ጥ በ
የ ወ
ግ ኘ
በ ም
በ ት
ጠ ቃ
ች ንን</w>
በ ው</w>
ፌ ዴ
ይ ገባ
ፈ ለ
ዋ ና</w>
መ ጣ
አ ላ
ነ ጋ
ግ ራ
ስፖ ርት</w>
ደ ራ
ራ ሳ
ለ ሚ
ቹ ን</w>
ይች ላል</w>
ብ ዙ
ቀ በ
ተ ስ
ል ጅ</w>
ግ ብ</w>
ቦ ታ</w>
ሚ ሊዮን</w>
ባ ለው</w>
በ ጥ
ማ ት</w>
ስ ቲ
ስ ና</w>
አም ላክ</w>
የሚ ሰ
ዩ ኒ
አን ዱ</w>
የ ታ
በ ደ
የማ ይ
በ እ
ገ ት</w>
0 0</w>
ይሆ ናል</w>
ብ ለው</w>
ዛ ሬ</w>
ጽሐ ፍ</w>
ሆ ንም</w>
ኢየሱ ስ</w>
የ ር</w>
በ ጣም</w>
እን ቅ
ብ ን</w>
ኖ ር</w>
ቀ ድ
ህዝ ብ</w>
ጋ ል</w>
በኩ ል</w>
ም ሳ
ቢ ያ</w>
ሞ ች</w>
ከ ላ
አ ሰ
ቅ ረ
መ ጥ
ር ም</w>
ሕዝ ብ</w>
ባለ ሙ
ጠ ት</w>
የ ህ
ያ ለ</w>
ለማ ስ
ስ ራ
ን ት</w>
የም ት
ሬ ት</w>
አ ለመ
ቢ ያ
ሳ ይ</w>
ፕሬ ዚ
የ ለ
ቨ ር
ታ ዎች</w>
ሚ ያ</w>
ዝ ግ
ሚኒ ስት
ት ኩ
አስ ፈ
ጠ ይ
ጀ ት</w>
ብረ ተሰ
ገኘ ው</w>
ፕሬዚ ዳን
ሞክ ራ
አቀ ፍ</w>
ከ ማ
ድ ም
ያ ደረ
ገ ር</w>
ቡ ን</w>
ሉ ን</w>
ፈ ረ
ያ ሉ</w>
የ ስ
ጡ ት</w>
ደ ት</w>
ኃላ ፊ
ሳ ት</w>
ሥ ልጣ
ቃ ት</w>
ክ ት</w>
ራ ችን</w>
ቅዱ ስ</w>
በ ትን</w>
ም ፒ
ብ ረት</w>
ከና ወ
የ ው</w>
ጥያ ቄ</w>
በተለ ይ</w>
ወ ስ
በ ግ
በማ ለት</w>
አንዳን ድ</w>
ሪ ካ
ል ን</w>
ስ ም</w>
ኃይ ል</w>
ክ ስ</w>
ነ ቱ</w>
ኮ ሚ
የተ ለያዩ</w>
ቤ ቱ</w>
ነበ ረ
ተጠ ቃ
ከ አ
ጋ ት</w>
መ ሆን</w>
ብ ለዋል</w>
ሆኑ ም</w>
ጤ ና</w>
በተ ጨማ
ዩኒ ቨር
ሊ ያ
ን ጉ
ቤ ተሰ
አ ሉ</w>
በመ ሆኑ</w>
አት ሌ
ቁ ጥር</w>
ፉ ት</w>
ሴ ቶች</w>
ላ ችሁ</w>
ግኘ ት</w>
ስ ታ
መሆ ኑ</w>
ጠ ን
ከ ል</w>
አ ጋ
ና ው</w>
ቻ ቸው</w>
ስ ቴ
የተ ሰ
ሲ ል</w>
ራ ሉ</w>
ረጋ ገ
ሃ ይ
እር ግ
መ ሳ
ነ ጥ
አ ድ
አስተዳ ደር</w>
ወ ረ
ከ ት</w>
ጥ ሩ</w>
ያስ ፈል
ው ያን</w>
ዓይ ነት</w>
አ ዳ
ታሪ ክ</w>
የም ን
ያለ ውን</w>
ሁ ኑ</w>
ፖ ሊ
ቅ ር</w>
ብ ራ
ክ ተር</w>
ስ ላ
ፈ ጸ
ነ ትን</w>
እን ድ
ት ን
ገል ጸ
ገ ኙ</w>
ል ክ</w>
ገ ብ
ፍ ላ
በ ራ
ከ ባ
ተ ር
ውጤ ት</w>
ስ ቃ
መ ዘ
ምሳ ሌ</w>
ት ር</w>
ገ ና</w>
ት ራ
ወ ር
ዲ ያ</w>
ሮ ችን</w>
ማ ሳ
ጉ ባ
መ ቀ
መ ዝ
ስለ ዚህ</w>
ይ ት</w>
ደ ን
ጉ ት</w>
ቢ ው</w>
ማ ዕ
አካባ ቢ</w>
ወ ር</w>
ቴ ክ
ድጋ ፍ</w>
ጀመ ሪያ</w>
በ አንድ</w>
ጀ ምሮ</w>
ምክ ር</w>
ስ ን</w>
ማ ር
እንዳ ይ
ለማ ድረግ</w>
የ እ
መን ገ
መሠ ረት</w>
ዛ ት</w>
ገ ና
ም ና
ንግ ድ</w>
ኮ ን
ክል ል</w>
በ ታ
ያ ያ
ያ ዎች</w>
መ ደ
ተ ኞች</w>
ጋ ዜ
ፖለቲ ካ</w>
የ ሆነ</w>
ሯ ል</w>
መል ክ
ት ር
ራ ው</w>
ስ ን
ለው ጥ</w>
ተ ወ
ጋ ራ</w>
ይገባ ል</w>
ዩኒቨር ሲ
ተናግ ረዋል</w>
ሪ ፖ
ነ ትና</w>
ሕ ግ</w>
ም ላ
ኢን ዱ
ስ ተኛ</w>
ድ ም</w>
ቤ ቶች</w>
ፕሮ ጀ
በ ታል</w>
ከ ሆነ</w>
ሴ ት</w>
ግን ኙ
ውድ ድር</w>
ኤ ል</w>
ኢንዱ ስት
በ ኢትዮጵያ</w>
ሄ ድ</w>
አገ ሮች</w>
ከተ ማ
ደ ጋ
ባ ይ
ቢ ሆንም</w>
ግንባ ታ</w>
ትኩ ረት</w>
ጠ ብ
ካ ል
ይ ሁን</w>
አ ዴ
ስለ ሚ
1 0</w>
ማ ለ
የ ገ
እንቅ ስቃ
ሰ ጥ
ተ ኛው</w>
በመ ቶ</w>
ቀ ደም</w>
ሱ ም</w>
ባ ለ</w>
ጠ ቁ
ውድ ድ
ሌ ላው</w>
የሚያ ደር
ይህ ም</w>
ክ ት
ህ ን</w>
በመ ሆኑም</w>
ባ ል
ቋ ቋ
ቡ ድን</w>
ነገ ሮች</w>
ታ ችን</w>
ያ ላ
ዋ ጋ</w>
አ ዋ
የ ለም</w>
በ ሽ
ፈ ቃ
ሕ ይወት</w>
ክፍ ል</w>
ገ ኝ</w>
ል ዩ</w>
ዴ ሞክራ
ለ ውን</w>
ዋ ን</w>
ታ ደ
ስ ብ
ስ ር
በማ ድረግ</w>
ቢ ሆን</w>
ባ ሉ</w>
ቅ ድ</w>
ይ ሰ
ተ ን</w>
ተቋ ማት</w>
ል ጠ
ተ ነ
ገ ነ
አለ በት</w>
ት ልቅ</w>
ሳ ተ
ወ ገ
እ ጅ
ያ ሉት</w>
ሺ ህ</w>
ኢኮኖ ሚ</w>
የ ው
ዜ ጎ
ዓ ላ
ሦ ስት</w>
ሥር ዓት</w>
ከ ዚ
መ ድረ
ቀ ሳ
ደረ ጃ
ው ል
ደረ ገ</w>
አቅ ም</w>
በተ ለያዩ</w>
1 5</w>
ሆ ኖ
ማ ን</w>
አ ለው</w>
ፍላ ጎ
ዘር ፍ</w>
ሞ ት</w>
ሜ ሪካ</w>
የ ደ
መ ጣ</w>
ከ ታ
ተ ብሎ</w>
ዲ ህ</w>
እንደ ተ
ስ ሜ
ዎ ችና</w>
ሻ ሻ
ወጣ ት</w>
በሚ ል</w>
ድርጅ ት</w>
ይ መስ
እግ ር</w>
በ ሙሉ</w>
መ ሥ
ካ ባ
ኛ ውም</w>
ወ ጥ</w>
ር ን</w>
መ ጽሐፍ</w>
እ ኛ</w>
ችግ ሮች</w>
ገበ ያ</w>
የ ጥ
ፓር ቲ
እንደ ማ
አ ያ
ይ ታ
አም ስት</w>
መ ብ
ነ ሳ</w>
ጉዳ ዮች</w>
ፕሬዚዳን ት</w>
በአ ሁኑ</w>
በ ዓ
ምን ት</w>
ኳ ን</w>
ቀ ጠ
ባ በ
ቡ ብ</w>
ይ ቻ
ለ ምን</w>
ያ ዊ</w>
በ ዚ
ከ ር</w>
2 0</w>
ገልጸ ዋል</w>
የሚ ች
ዝ ም</w>
መን ፈ
ዳ ር</w>
ክ ር</w>
ተ ት</w>
ጥያ ቄ
ም ት</w>
ኝ ም</w>
ማ ኖ
ድ ና</w>
ቡ ድ
ጥ ም</w>
ገ ኙ
ም ም
የነበ ረው</w>
ዳ ን</w>
ቋ ል</w>
ወ ቅ</w>
ይህ ንን</w>
ገ ደ
ፍ ርድ</w>
ማ ስተ
ው ሳ
ታ ላ
ይ ሄ
ሰ ላ
1 2</w>
መ ነ
ክ ምና</w>
መ ን</w>
ና ቸውን</w>
መል ካም</w>
ያ ላቸው</w>
በማ ስ
ይ ሁ
ደረ ገው</w>
ኳ ስ</w>
መ ድ
ልጆ ች</w>
መረ ጃ</w>
ሁ ንም</w>
እንዳ ለ
መለ ስ</w>
ሰ ዓት</w>
ሻ ለ</w>
መ ው
አመ ራ
ቡ ት</w>
በ ቅር
ጠ የ
ይ ላል</w>
አካ ል</w>
መጠ ን</w>
ሌ ሎ
ን ድ
አ ፍ
ፈ ት</w>
የ ዓለም</w>
ዋ ን
ዝግ ጅ
ነ ዋ
ሩ ም</w>
እ ኔ
እ ሱ</w>
ተ ቃ
ሀ ብ
የ ሥራ</w>
የ ውጭ</w>
ምር ጫ</w>
ና ዊ</w>
አ ጥ
ብሔ ራዊ</w>
መ ር</w>
ዊ ት</w>
አገ ራት</w>
ረ ውን</w>
እው ነ
እም ነት</w>
ነበ ሩ</w>
ወ ጣ</w>
የ ራ
ቸ ውና</w>
አ ክ
ግንኙ ነት</w>
እን ኳን</w>
ዘ ንድ</w>
ይ ዞ</w>
ብ ና</w>
ተ ደር
ሰ ባ
ይ ናገ
ግ ም</w>
ሜ ትር</w>
ሳ ል</w>
ቦ ት</w>
ይ ልቅ</w>
አስፈ ላ
ክር ስቲ
ተ ዋ
ት ል</w>
እጅ ግ</w>
አካ ላት</w>
ባ ይ</w>
ወጣ ቶች</w>
አቅ ር
ቅ ና</w>
ቆ ጣ
ቢ ዎች</w>
የሚ ታ
መ ም
ፍ ቅር</w>
ደ ግ</w>
መ ኖ
ጿ ል</w>
ቀ ር</w>
አ ፍሪካ</w>
አን ደ
ተግባ ር</w>
ከ በ
ጥ ቂ
ለ ህ</w>
ሪ ው</w>
ር ነት</w>
ክ ል</w>
ቴክ ኖ
የአ ፍሪካ</w>
ታ ማ
ገል ጿል</w>
አ ሁንም</w>
ቆ ይ
ሆኖ ም</w>
የ ሰው</w>
አ ሸ
ጥ ቅም</w>
ን ግ</w>
ሪ ያው</w>
ቴክኖ ሎ
ጀ ን
ም ስ
ቆ ጠ
ል ብ</w>
አዴ ግ</w>
ስፖ ር
መሰ ረት</w>
በ ዓለም</w>
በመ ስ
መሠ ረ
ነ ፃ
መ ብት</w>
ከ ራ
ጠና ቀ
መ ሬት</w>
የ ዘ
ቅ ድ
በ 19
እስ ራ
አማ ካ
ጠቅ ላይ</w>
መል ኩ</w>
ፌዴ ሬ
ቋ ን
እንዳ ል
አስተ ያ
የተ ቀ
ው ይ
1 1</w>
አደ ጋ</w>
ዶ ላ
ሚኒስት ር</w>
ማ ር</w>
ጠቃ ላይ</w>
ሙ ት</w>
ግ ድ
ጓ ል</w>
ለማ ሳ
ቶ ችና</w>
ይቻ ላል</w>
ች ንም</w>
ሥልጣ ን</w>
በ ሌላ</w>
ተስ ፋ</w>
ሚኒ ስቴ
አስተ ዋ
የ ፖለቲካ</w>
ሃይ ማኖ
ዳ ይ
ው ንም</w>
ኩ ት</w>
ሀገ ር</w>
ማ ኅ
የ ኤ
ጀ ም
ኢ ህ
ገ ብ</w>
ም ጃ</w>
ብ ሏል</w>
የ ቆ
አ ቋ
ቶ ቹ</w>
ይ ታወ
ክል ሉ</w>
እን ኳ</w>
ሪ ም</w>
ዊ ና</w>
ፓር ቲ</w>
ኞ ቹ</w>
ሀ ብት</w>
ጓ ደ
ኗ ል</w>
ሳ ቸው</w>
አ ፈ
በ ህ
ገ ቡ</w>
ቁ ጥ
የ ሌ
የ ሆነው</w>
ድር ሻ</w>
ከዚ ያም</w>
ላ ይ
ለመ ስ
ቀ ስ</w>
የሚ ለው</w>
ሥ ነ</w>
1 4</w>
እ ዚህ</w>
መ ራ
ከ ር
ወ ይ
ነጥ ብ</w>
ተ ፈ
ስ ፍ
ግ ል
ዶላ ር</w>
ሥ ር</w>
ማ ቸው</w>
ከ ፈ
መንግ ስ
ቅረ ብ</w>
ጉ ም</w>
ሰ ላም</w>
ሊ ሆን</w>
ወን ድ
በአ ዲስ</w>
ቡ ና</w>
ብ ሄ
ሪፖ ር
ባለ ፈው</w>
ተ መል
ተሳ ት
ነ ስ</w>
ዱ ን</w>
ስ ልጣ
ይገ ኛል</w>
የ ሆነ
መ ድ</w>
መ ታ
ለ ዚህ</w>
ብ ዬ</w>
ጫ ወ
ጦ ር</w>
ጨ ምሮ</w>
ረጋ ግ
አስ ታው
ግ ል</w>
መ ራ</w>
ኢኮኖ ሚ
ኢን ቨ
ኖ ሩ</w>
እ ኮ</w>
መሆ ኑ
የ ሙ
ገባ ው</w>
ምክንያ ቱም</w>
ወ ለ
ዛ ሬ
ነ ግ
ጣ ቸው</w>
መ ግለ
ዶ ክተር</w>
እንቅስቃ ሴ</w>
ፍ ጠር</w>
ያ ዘ
መ ት</w>
ዙ ሪያ</w>
ወቅ ቱ</w>
ይ ሄ</w>
ኛ ውን</w>
የ ሆኑ</w>
ዝ ር
በ በኩ
1 3</w>
ለ ተ
የ ቀ
በል ጥ</w>
ጥ ቅ
ጥ ናት</w>
ኮ ች</w>
ታ ዲያ</w>
ኦ ሮ
እና ን
ፎ ች</w>
ዝ ና
ቻ ችን</w>
እንደሚ ያ
ምን ድን</w>
ፈ ር
የመ ጀመ
መ ጡ</w>
የም ር
በተለ ይም</w>
ግ ና</w>
ሆኑ ት</w>
እን ስ
ሰ ር
ን ነት</w>
ተ ረ
ች ላለ
ድር ጊ
ብ ል
ሱ ት</w>
ቀድ ሞ</w>
የ ካ
ራ ን</w>
ጉዳ ት</w>
ኢንዱስት ሪ</w>
ያ ት</w>
ስ ምም
ሉ ትን</w>
አን ድ
ሙ ን</w>
እያ ን
ፋ ይ
ግ ር</w>
መሰ ረ
ሰ ራ</w>
አን ተ</w>
በ ዚህም</w>
መ ፍት
ዚህ ን</w>
ናገ ር</w>
ዓመ ቱ</w>
አ ራት</w>
ጥቂ ት</w>
ም ት
ሲ ሉ</w>
ሳ ሰ
ፈ ጣ
ጨ ር
1 6</w>
ፕሮ ግራ
ይ ና</w>
የ ነ
ረ ገድ</w>
አድር ጎ</w>
ፕሮጀ ክ
ልጠ ና</w>
ሰ ለ
ዕ ራ
ዜጎ ች</w>
ትምህ ር
መለ ካከ
የተ ሻለ</w>
ስ ድ
አባ ላት</w>
ዘር ፉ</w>
ታ ይ</w>
ጽ ሑ
ሁ ት</w>
በቀ ጣ
ም ርት</w>
ለ ምሳሌ</w>
የ ጎ
እስ ካ
የ ትምህርት</w>
በ እርግ
ወን ጀ
የ ልማት</w>
ሊ ያ</w>
አገ ራችን</w>
ጨዋ ታ</w>
ቻ ል</w>
ደ ብ
አ ግ
ምላ ሽ</w>
ሠ ራ</w>
ስ ቶ
ው ሃ</w>
ማህ በ
ጣ ል</w>
በ ቂ</w>
ል በት</w>
ግባ ር</w>
በ ዘ
ቻ ቸውን</w>
ሥር ዓ
ዎ ችም</w>
ጹ ት</w>
ጠቀ ም</w>
መል ስ</w>
ት ክ
በተጨማ ሪም</w>
ሜ ዳ
ረ ን</w>
ታ ማ</w>
ደረ ጉ</w>
ፍላጎ ት</w>
ጥ ና
ገ ቢ</w>
ሃ ል</w>
ል ም
ዳይ ሬ
ቂ ያ</w>
አብ ዛ
ጠን ካ
ተጠቃ ሚ</w>
መለከ ተ</w>
ዕድ ል</w>
አጋ ጣ
ር ዕ
የ መንግሥት</w>
ስ ር</w>
ሶ ች</w>
ወ ጥ
ተ ዳ
ይ ገል
ነ ቱን</w>
ሚኒስቴ ር</w>
ም ላክ</w>
ክ ን</w>
መ ዋል</w>
ች ልም</w>
ት ነት</w>
ከ ረ
ባለሙ ያዎች</w>
ጨረ ሻ</w>
1 7</w>
ራ ቸውን</w>
ሂ ደት</w>
ዳ ት</w>
ሪ ክ</w>
ከ ብ
ከ ት
ጊዜ ው</w>
ወ ራት</w>
ሽ ኑ</w>
ናገ ሩት</w>
መ መ
የ ቻ
ሚ ና</w>
ባ ለመ
ፈጥ ሮ</w>
ዊ ው</w>
3 0</w>
ይኖ ር
እያን ዳን
ኩ ባ
አይ ነት</w>
በተጨማ ሪ</w>
ባን ክ</w>
ፈ ጽ
ውሳ ኔ</w>
ላ ዊ</w>
ስት ራ
ም ድር</w>
ስሜ ት</w>
ተ ን
መረ ጃ
ባህ ል</w>
ቀ ጣ
ሁለ ተኛ</w>
ሰ ው
ጥበ ብ</w>
ቁ ት</w>
ባ ቸውን</w>
ይ ላሉ</w>
ኖ ረው</w>
ም ል
ካሄ ደው</w>
ማ ድረ
ሐ ሳብ</w>
ክ ብ
200 9</w>
ል ፍ</w>
ዱ ት</w>
ይ በልጥ</w>
ብረተሰ ቡ</w>
መን ት</w>
ያ ቸው</w>
5 0</w>
ድ ል</w>
ቾ ች</w>
ሁለ ቱ</w>
ሸ ነ
ከ ነ
ፍ ት</w>
በ ፍ
ዘጋ ጀ
ፕ ላ
የ ጤና</w>
ግብ ርና</w>
ጥ ን
ለ ጠ</w>
ቤ ተ</w>
ራ ጭ</w>
ያ ስ</w>
ዩኒቨርሲ ቲ</w>
እንግ ሊ
ወ ጡ</w>
ቀ ም</w>
መ ላ
ጋዜ ጠ
ስ ል
ቢ ሊዮን</w>
ሚ ዎች</w>
ነ ፃ</w>
ካ ል</w>
ኩባ ንያ
ሕ ይወ
ፋ ብ
ተግባ ራዊ</w>
ዝግጅ ት</w>
ከ ፍ</w>
በ ላ
ዕድ ገት</w>
ሪ ቱ</w>
አካባ ቢዎች</w>
አቅ ጣ
ኃላፊ ነት</w>
ሆነ ም</w>
ቷ ን</w>
ነበ ረው</w>
ል ካም</w>
ሥራ ዎች</w>
ደረ ግ</w>
200 8</w>
ሆ ቴ
ማ ዊ</w>
እንደ ነበር</w>
በ ቅ
ሎ ት</w>
ያ ል</w>
ይሁ ንና</w>
ከ ዚያ</w>
የ ባ
ን ብረት</w>
ፈ ተ
ብ ቃት</w>
የ ደረ
የ ኢ
የ ላ
ባለ ፉት</w>
ስ ታ</w>
ዳ ል</w>
ጠንካ ራ</w>
ጀ ር
ን ስ
ኢህ አዴግ</w>
የተ ለ
ሻ ምፒ
ካሄ ድ</w>
በ አገሪቱ</w>
ከላ ከ
ተ ጫ
ብር ሃ
ጭ ምር</w>
ይ ጠበ
የአ ዲስ</w>
ገ ውን</w>
ች ንና</w>
ወ ላ
ቴክኖሎ ጂ</w>
በቅር ቡ</w>
ል ኝ</w>
ድን ጋ
ት ውል
ራ ረ
ገለ ጹት</w>
ጅ ም</w>
ራሳ ቸው</w>
መስ ጠት</w>
አ ት</w>
ደ ስ</w>
ፈ ን</w>
ው ጪ</w>
መ ዋ
አ መለካከ
እነ ሱ</w>
ዕ ቅድ</w>
ው ል</w>
ሲያ ዊ</w>
ማ ም
ወ ይዘ
እነ ዚህን</w>
ማ ግኘት</w>
በ ትም</w>
የሚገ ኙ</w>
ቀ ዋል</w>
አድር ገ
መሆ ናቸውን</w>
በ ወቅቱ</w>
ል ብ
ሳ ዊ</w>
ይ ሆን</w>
ፎ ር
እንዲ ሰ
ለ ም
የ ጠ
ኢንቨ ስት
እንድ ት
ሳ ምንት</w>
በመ ንግ
ሮ ው</w>
እው ነት</w>
ስ ቶ</w>
አስ ቸ
ከላ ከል</w>
ታ ውን</w>
አን ፃ
ስተ ዋ
የሚያ ሳ
መ ቻ
ሆ ኗል</w>
ሰ ር</w>
ኢትዮጵ ያው
አ ረ
ቧ ል</w>
ሆ ን
ግን ዛ
እንዲ ሆን</w>
ን ፈ
ች ሉ</w>
2 5</w>
አር ሶ</w>
ነ ኝ</w>
ስ ኬ
ያህ ዌ
ባ ሻ
ዳ ታ</w>
ባ ባ
ተከ ት
ስ ፒ
ለማ ግኘት</w>
ቱ ሪ
ፍ ታት</w>
ን ቀሳ
ተ ጋ
ረጋገ ጥ</w>
አል ነበረ
ቀ ናት</w>
መ ምህ
ሁለ ተኛው</w>
ያ ና</w>
ከተ ሞች</w>
ች ሏል</w>
ይናገ ራሉ</w>
ሮ ፓ</w>
እር ምጃ</w>
ብ ሎ
አ ላቸው</w>
ቱ ት</w>
ቆ ም</w>
ደ ገ
ፈረ ን
ማ ማ
ካባ ቢው</w>
ጫ ው</w>
ጨማ ሪ</w>
ካ ት</w>
ሩ በት</w>
ዕ ው
ሕ ገ</w>
ዳ ቸው</w>
ጀመ ር</w>
ችግ ሩ</w>
ያ ዝ</w>
ድ ህ
ሰ ነ
ይ ኸ
ዘ ላ
ፈ ፀ
ጥ ታ</w>
በ ገ
ጋ ቸው</w>
ጀመ ረ</w>
ጎ ን</w>
መ ሪ</w>
ዋ ነ
ግ ር
ብ ዛ
ጆ ች</w>
ራሳ ቸውን</w>
ደር ስ</w>
የ ም</w>
የሚያስ ችል</w>
አስተያ የት</w>
ለ ኝ</w>
1 8</w>
ከባ ድ</w>
በረ ታ
ሌ ክት
በ ሆነ</w>
አል ፎ</w>
የም ታ
ዮ ሐ
ጦ ርነት</w>
መለ ከተ
ፈ ር</w>
ሷ ል</w>
በተ መለከተ</w>
ተ ገልጿል</w>
የ ቀረ
ዓላ ማ</w>
ታ ን</w>
ግባ ት</w>
ኤ ር
የተ ወሰ
ወ ል
የተ ነሳ</w>
አ ነ
ረ ጃ</w>
ምፒ ክ</w>
በ ዋል</w>
ሆ ስፒ
የግ ል</w>
ያስፈል ጋል</w>
ቶ ን</w>
ጉ ን</w>
ቢ ሮ</w>
ካ ዊ</w>
ዕ ለት</w>
እስካ ሁን</w>
የ ንግድ</w>
የም ና
ግለ ሰ
እ ህ
ዩኒቨርሲ ቲ
ተማ ሪዎች</w>
አ ሉ
ሻምፒ ዮ
አግ ኝ
ል ዩ
በ ጀት</w>
ቴ ዎ
ተከ ታ
ላ ቸውን</w>
አስ ረ
እናን ተ</w>
ባ ቸዋል</w>
ውይ ይት</w>
ም ግብ</w>
ሮ ስ</w>
አስፈላ ጊ</w>
ብ ለን</w>
ጠ ራ
ዩ ት</w>
ኞ ችን</w>
መለ ክ
መ ቶ</w>
አ መልክ
እር ስ</w>
አስተ ሳ
የ ስራ</w>
ኢትዮጵ ያን</w>
ከ ፋ
የ ሞ
ወይዘ ሮ</w>
ጭ ት</w>
ተ ወዳ
ሪፖር ተር</w>
ተመ ሳ
በረ ሰብ</w>
እድ ገት</w>
አ ሠራ
በመ ሆን</w>
የ አገሪቱ</w>
እንግ ዲህ</w>
በ 20
የ ጀመ
የ ኢኮኖሚ</w>
ግንዛ ቤ</w>
ስድ ስት</w>
ቀ ዳ
ቀ መ
መል ከት</w>
ብ ዛት</w>
አባ ል</w>
ቁ ር
እ ኩ
ጉ ዞ</w>
ወ ታደ
ክ ብር</w>
ፈቃ ድ</w>
በበኩ ላቸው</w>
ው ንና</w>
ይ ፋ</w>
ሰ ድ</w>
የ ጋራ</w>
ጥ ፋት</w>
ና ይ
ጠበ ቅ</w>
ሰ ን
ይች ላሉ</w>
ያያ ዘ</w>
ህዝ ቡ</w>
ጥ ረ
ት ል
መ ክ
ማ ል</w>
ፍ ን</w>
ሰ ፊ</w>
ካ ለ
ገና ኛ</w>
አም ላ
ቋን ቋ</w>
ም ዕራ
ንጉ ሥ</w>
ኛ ሉ</w>
ዘመ ናዊ</w>
ኪ ሎ</w>
ሶ ስት</w>
ሰ ሞ
ጉዳ ዩ</w>
ደር ግ</w>
ይዘ ው</w>
ፍ ራ
እ ኛ
ተ ጨማሪ</w>
ግባ ቡ</w>
ወ ጪ</w>
የማ ስ
ታ ም</w>
የሚ ለውን</w>
አን ቀ
ጥበ ቃ</w>
ቋቋ ም</w>
ድም ፅ</w>
ገን ባት</w>
ሙ ዚ
በ ጋራ</w>
ሕዝ ቡ</w>
ይ ን</w>
አ ዲ
ው ጣት</w>
ወጣ ው</w>
ግ ዛት</w>
ሻ ው</w>
ወን ዶች</w>
ወ ዲህ</w>
ባ ሕ
ክርስቲ ያ
ቤተሰ ብ</w>
አሰ ልጣ
ሃይማኖ ት</w>
ሟ ል</w>
ራ ሱን</w>
ዊ ነት</w>
ስምም ነት</w>
ተቋ ም</w>
መለከ ት</w>
ቦ ችን</w>
በ 200
ተ ያ
ዲ ት</w>
ጥ ቃት</w>
ታ ና</w>
መድረ ክ</w>
ፉ ን</w>
ሃ ሳብ</w>
ም ድ
መንፈ ስ</w>
አ ኳ
በዚ ሁ</w>
ሥ ት</w>
ሳ ሉ</w>
ድርጅ ቶች</w>
ች ኋ
የ ሽ
ፍ ና</w>
ዕድ ሜ</w>
አ ራ
ተሳ ታ
ባሻ ገር</w>
ባ ረ
ከታ ተ
ከናወ ን</w>
ና ና</w>
ያስ ተ
ዮሐ ንስ</w>
እ ጅ</w>
ነፃ ነት</w>
ተ ራ
ተጫ ዋ
ዕ ር
የሚ ጠ
ኦሮ ሚያ</w>
ህ ይወት</w>
መ ጋ
ቴ ን</w>
ደ ን</w>
ቢ ት</w>
ባ ዊ</w>
መ ሣ
ወ ዲ
ሜ ን</w>
ጉባ ኤ</w>
ዞ ን</w>
ተገ ቢ</w>
የ ፀ
ጠ ን</w>
ሠ ር
ተሳት ፎ</w>
ስለ ሆነ</w>
ዋን ጫ</w>
ታ ይ
ወንጀ ል</w>
ተ ሸ
ባለ ቤ
በአ ግባቡ</w>
አ ሰራ
ብረተሰ ብ</w>
2 4</w>
የ ሕ
ብ ት
ና ን</w>
ብ ኝ</w>
ባ ሉት</w>
ድርጅ ቱ</w>
ዋ ት</w>
አጋጣ ሚ</w>
ች ሁን</w>
ሉ በት</w>
ፈ ል</w>
ፈጸ ም</w>
ኢን ተር
አትሌ ቶች</w>
ዕ ኖ</w>
ማ ራ
ተመሳ ሳይ</w>
ፌዴ ራል</w>
ገኙ ት</w>
ዘ ር</w>
ትን ሽ</w>
ነ ፍ
ኖ ር
እስ ኪ
ራ ሱ</w>
ሌ ላ
ዩ ን</w>
ከ ለ
ተወ ካ
ስ ቱ</w>
ክል ሎች</w>
ረ ጥ</w>
እኔ ም</w>
ጧ ል</w>
በ ትና</w>
ጋ ሚ</w>
ኢንቨስት መንት</w>
ነ ታቸው</w>
እያ ለ</w>
ቱ ና</w>
ጠ ል</w>
አል ተ
ተጠ ና
ዳ ና</w>
ስ ደ
ሰ ዋል</w>
ነ ህ</w>
ሜ ሪካ
ገ ል</w>
ወሰ ን</w>
ደረ ገ
ምክ ትል</w>
ሰ ት</w>
ስ ትና</w>
ከ ራ</w>
ሠ ሩ</w>
ደ ቡብ</w>
ክለ ቦች</w>
በ ዚያ</w>
ይገል ጻ
አስተዋ ጽ
የ ያህዌ</w>
ለያ የ</w>
ክ ሮ</w>
አድር ገው</w>
ትር ጉም</w>
ነ ን</w>
ል ህ</w>
ያህዌ ን</w>
ብሄ ራዊ</w>
ነ ቶች</w>
ላ ቀ
ሚ ው</w>
ኛ ና</w>
ች ሎ
ጭ ር</w>
1 9</w>
ወ ይ</w>
በሚ ያ
የነበ ረውን</w>
የአ ምላክ</w>
መ ኪ
ትውል ድ</w>
ክ ተ
የመ ስ
ጋ ሪ</w>
ውጤ ታማ</w>
ሰብ ሳ
ከ አንድ</w>
ፎር ሜ
ኑ ሮ</w>
መ ገ
በ ሩ</w>
የመ ልካም</w>
ኪ ራ
አመ ት</w>
ኢትዮጵያው ያን</w>
በ ኛ</w>
ጥ ነት</w>
በ ለ
አቅጣ ጫ</w>
ሶ ማ
ጣ ው</w>
ፓርቲ ዎች</w>
ቀ ም
ጠ ኝ</w>
ታ ስ
ወ ሳ
ቁ ም</w>
የ ህዝብ</w>
ሻሻ ል</w>
የ አገር</w>
ማ ሽ</w>
ሉ ንም</w>
ባ ብ</w>
ል ን
ሰ ባ</w>
የሚ ችል</w>
በዓ ል</w>
ቁጥ ጥር</w>
የበ ለጠ</w>
ነ ሱ</w>
ረዳ ት</w>
በ ል</w>
የለ ውም</w>
በግ ል
ግን ቦት</w>
ውድድ ሩ</w>
ሰ ጠው</w>
በአ ጠቃላይ</w>
የነበ ሩ</w>
ቀበ ል</w>
ደ ህ
ፊ ዎች</w>
በተ መሳ
ፕሮጀ ክት</w>
ሌ ም</w>
ስ ለመ
ጥ ና</w>
ክፍ ለ</w>
ተ ው
እንስ ሳት</w>
አመለካከ ት</w>
ተ ግ
ማን ኛውም</w>
2 2</w>
ሊ ግ</w>
ማ ግ
ደጋ ጋሚ</w>
ዮ ር
ጥ ር
ሳ ን
አንፃ ር</w>
አልነበረ ም</w>
ሩ ና</w>
ጊዜ ም</w>
ሲ ባል</w>
መስ ራት</w>
ኮሚ ቴ</w>
በ ድ
ከ ን
በአ ፍሪካ</w>
ታ ሉ</w>
ተቃ ዋ
ሚ ነት</w>
ሰ ሩ</w>
መግለ ጫ</w>
ከ በር</w>
ኃላ ፊ</w>
ተስ ፋ
ሌክት ሪክ</w>
ዴሞክራ ሲያዊ</w>
ቡ ም</w>
ቅ ሬ
ያለ በት</w>
ልም ድ</w>
ን ቅ
የ ያ
ይ ዞ
አ ሜሪካ</w>
ክ ና</w>
ማዕ ከል</w>
በ ሌሎች</w>
ባ ሳ
ላ ል
ር ያ</w>
አ ህ
ሽ ከር
እንዳ ለ</w>
ቲ ክስ</w>
ሪ ነት</w>
አለ ባቸው</w>
ያ ንን</w>
ፖሊ ስ</w>
ዎ ቹን</w>
ጮ ች</w>
ቀ ላል</w>
ደ ሩ</w>
2 1</w>
ሱ ዳን</w>
ማ ው</w>
ወረ ዳ</w>
ታ ር</w>
በ አገር</w>
ግ ብር</w>
ጉ ድ
ክር ስቶ
ቴ ሌ
ተ ደራ
እን ዴ</w>
ማ ረ
4 0</w>
የ ብ
ሩ ትን</w>
ገ ትና</w>
ዘጋ ጅ
አዋ ጅ</w>
ሚኒስት ሩ</w>
ፎርሜ ሽን</w>
ለ ይ
ፊ ያ</w>
ኪራ ይ</w>
ተ ባ
ባለ ቤት</w>
ዋ ናው</w>
ፍ ል
ትክ ክለ
እ ጥረት</w>
አገል ጋ
ሰ ዎችን</w>
አስተዋጽ ኦ</w>
ዴሞክራ ሲ</w>
እን ድን
ወ ድ
ያደር ግ</w>
ያላ ቸውን</w>
የሚ ፈል
ጀመ ሩ</w>
መ ዛ
ከ ብ</w>
የ ፈጠ
የሚ ሉት</w>
ያደር ጋል</w>
ረ ጅም</w>
በ ከፍተኛ</w>
አንድ ነት</w>
ሄ ዱ</w>
ለ ኛል</w>
ተ ካ
ከ ሌሎች</w>
ም ም</w>
አል ቻ
የአ የር</w>
እንደሚ ችል</w>
ጥያቄ ዎች</w>
ዛ ዝ</w>
ባለ ሀብ
ረ ሰ
ች ለው</w>
ስ ህ
ተ ደ
ታወ ቀ</w>
ቻ ለ</w>
ይህ ን
ታላ ቅ</w>
የሆነ ውን</w>
ራ ስ</w>
ዝ ና</w>
ጨ ት</w>
በእርግ ጥ</w>
አማካ ኝነት</w>
የ ስፖርት</w>
እስራ ኤል</w>
ወደ ፊት</w>
ቹ ም</w>
ቃ ቸው</w>
ሆ ይ</w>
ዳ ረ
ቅር ብ</w>
መ ግ
ተጠ ቅ
ተ ፅ
ብ ቻ
ስልጣ ን</w>
ደ መ
እንዳ ለው</w>
አሸ ና
ጠና ከር</w>
የ መንግስት</w>
ዝ ር</w>
የ ቤት</w>
አድር ጓል</w>
ነጋ ገ
ር ቅ</w>
ፀ ሐ
የሚ ገኘው</w>
ት ዕ
እስራ ኤ
ት ና
ስር ዓት</w>
የሚ ባል</w>
ቀ ደ
በተ ያያዘ</w>
ማ ንም</w>
ዘ ን</w>
ፋይ ና
ጋ ዊ</w>
የ ዚህ</w>
ሐ ሳ
ቃ ሉ</w>
በ ቃ</w>
ፕሮግራ ም</w>
የ እር
ራ ሽ</w>
ው ው
ም ሥ
ው ስ</w>
ጠቁ መዋል</w>
የሚ መ
ማህ በር</w>
ዳይሬ ክተር</w>
0 00</w>
አ ጠና
ው ሎ
አስተሳ ሰብ</w>
አገ ራ
ጠ ፋ
ሮ ቹ</w>
ቁ ን</w>
መንግሥ ቱ</w>
የአ ው
ሲ ው</w>
ገል ፀ
ኤ ጀን
እያንዳን ዱ</w>
ያደር ጉ</w>
ቡ ር</w>
ቆጣ ጠር</w>
ችግ ሩን</w>
ላለ ች</w>
ብ ላ</w>
ይ ቀ
እድ ል</w>
አነ ስተኛ</w>
ዬ ን</w>
ሁ ሉንም</w>
ሪ ዎችን</w>
ሰ ን</w>
2 3</w>
ይ ነት</w>
ይታወ ቃል</w>
ለ በት</w>
መ ቆ
ቀጥ ል</w>
ከተማ ዋ</w>
ተከት ሎ</w>
ተ ኮ
ሽከር ካ
የ ገንዘብ</w>
ን ያ</w>
ክፍ ሎች</w>
አቋ ም</w>
ሁለ ቱም</w>
ቢ ውን</w>
አለ ኝ</w>
ለ ኛ</w>
መ ጀመሪያ</w>
ክለ ብ</w>
ሰ ጥ</w>
መ ሸ
ወ ያ
የሚ ፈ
ፊ ው</w>
ሉ ና</w>
የሚያስ ፈል
በ ጎ
የ ሕዝብ</w>
መ ኖር</w>
እ ያስ
አኳ ያ</w>
መ ም</w>
ጋ ጥ
ምና ል
ክርስቲ ያን</w>
ታ ችንን</w>
ጨ መ
ለ ቀ
ምር ምር</w>
ውድድ ሮች</w>
ሆ ና
ላ ላ</w>
ም ሁ
ሴ ን</w>
ተ ም</w>
ታ ዳ
ከ ው</w>
ማለ ትም</w>
ነበ ረ</w>
እግ ዚ
ዋ ለሁ</w>
ለ ዚህም</w>
ይ ባ
ማስ ታወ
የተለ የ</w>
ሰ ባት</w>
የ ኮ
ለመስ ጠት</w>
ስ ለማ
ጽሑ ፍ</w>
ተሰ ጥ
በተመሳ ሳይ</w>
ሐ ዋ
ንድ ሮ</w>
ዳ ሴ</w>
ማ ሪ</w>
ብ ኝ
ይገ ኛሉ</w>
ለመ ሆን</w>
ዷ ል</w>
መ ቅ
ብ ቅ</w>
ጻ ጸ
ስብ ሰባ</w>
ግ ዴ
የነበ ሩት</w>
ሪፖ ርት</w>
ግ ምት</w>
የ ዳ
አፍ ሪካ
ሮ ም</w>
ገ ኘ</w>
በቀ ላሉ</w>
ከ ዚህም</w>
መንግሥ ታት</w>
ጠ ረ
መለከተ ው</w>
ቆ ር
ባ ው</w>
ሎ ችን</w>
ዘ ግ
ደረ ግ
ቀድ ሞ
ል ት
ል ጅ
የመ ሰ
ክፍ ያ</w>
ሃ ሳ
ሕ ፃ
ቀር ም</w>
ጉባ ኤ
አ የር</w>
ፌዴሬ ሽን</w>
ሰ ይ
ህዝ ቦች</w>
ሠራ ተኞች</w>
ሌሎ ችም</w>
አስረ ድ
አመራ ር</w>
ቸ ውንም</w>
t i
ለ ምንድን</w>
ሰሞ ኑን</w>
ብ ስ
ጥ ራት</w>
ለመ ፍታት</w>
ሀገ ሪቱ</w>
ምን ጭ</w>
ታው ቋል</w>
ድርጊ ት</w>
በስ ፋት</w>
አስ ገ
ሕዝ ቦች</w>
የ ሆኑት</w>
በ ው
ፕ ሪ
የተ ባለው</w>
ትራ ንስ
ሥ ራት</w>
በቀጣ ይ</w>
የማ ህ
ቡድ ኑ</w>
ሆ ናቸው</w>
የት ራ
ማ የት</w>
1 0
ድር ቅ</w>
በታ ች</w>
ዓ ዊ</w>
ፋብ ሪካ
ሰ በ
ጠ ዋል</w>
አገሪ ቱን</w>
አስፈላ ጊ
ተጠ ያ
እና ም</w>
ኃ ጢ
አን ዲት</w>
በ ራዊ</w>
ክርስቶ ስ</w>
ሳይ ን
እ ቅድ</w>
ያ ቀረ
የም ግብ</w>
ፖሊ ሲ</w>
ቦ ታዎች</w>
መ ፍ
ተቋ ማ
ስ ልጠና</w>
ልማ ትና</w>
ባለሙ ያ</w>
ነ ታቸውን</w>
አይ ችልም</w>
በተ ደጋጋሚ</w>
ሜ ዳ</w>
የመጀመ ሪያው</w>
መንገ ዶች</w>
ቆ ጥ
ካ ር
ወሳ ኝ</w>
ም ቹ</w>
በራ ሱ</w>
ህ ም</w>
አማ ራጭ</w>
አዳ ዲስ</w>
ታ ዎችን</w>
በመስ ጠት</w>
ጌ ታ</w>
ፍ ር
ኒ ት</w>
የነበ ረ</w>
ቀር ብ</w>
ፓር ላ
አ ለማ
ፈጠ ር</w>
እ ሱም</w>
ሪያ ዎች</w>
እግዚ አብ
ያ ን
ንግ ግር</w>
በ ዋ
ቀ ነ
ም ጣ
ን ስፖርት</w>
ላ ቸዋል</w>
ጳ ውሎ
ም ግባር</w>
እንደ ሌ
ተ ናል</w>
ይመስ ላል</w>
ጠ ባ
በ ሳ
ዜ ና</w>
የመ ጀመሪያ</w>
ኦ ሊ
ፈተ ና</w>
በማ ሳ
መ ጻ
ወ ገድ</w>
በሽ ታ</w>
እው ቀት</w>
ተ ጽ
በ ስተ
እንቅስቃ ሴ
ሰ ስ</w>
ልዩ ነት</w>
ክ ን
ለ ጠ
በ ቃ
ሙ ስና</w>
አ ጠ
ብ ን
ግብ ፅ</w>
ወ ረዳ
ገ ረ
ያ መለክ
ገ ኛ
ዚ ሁ</w>
ነገ ሩ</w>
ፈቃ ደ
ሰማ ይ</w>
ከና ው
መል ክ</w>
ቶ ችም</w>
ከ ፊ
ሆቴ ል</w>
ስፍ ራ</w>
ያ ሉትን</w>
ነዋ ሪዎች</w>
ት ህ</w>
ጁ ን</w>
ጦ ች</w>
ተወዳ ዳ
ያል ተ
ባለ ሥልጣ
ወ ዘ
መዝ ገብ</w>
ት ግል</w>
ዕ ለ
ጣ ን</w>
ኖ ራቸው</w>
ግ ራ</w>
ስተ ር</w>
ዝና ብ</w>
አሠራ ር</w>
አትሌ ት</w>
ቂ ነት</w>
አው ሮ
የ ቅ
ጨ ም
ሥራ ው</w>
ንቀሳ ቀ
ም ጣት</w>
ይ ረ
ስትራ ቴ
2 8</w>
ኮ ር
ይ ስ
የ አንድ</w>
ጋ ው</w>
ደ ቂ
ሪ ዎቹ</w>
በመ ጠቀም</w>
ዝር ዝር</w>
በ ኢ
ፋይና ንስ</w>
ናገ ረው</w>
በ ነ
እንዲ ሁ</w>
ተ ኩ
ባን ያ</w>
ፈጣ ን</w>
ሌ ት</w>
ስራ ዎች</w>
ደብ ዳ
ቀ ን
እንደ ገና</w>
አ ረጋግ
መሰ ል</w>
እን ችላለ
እያ ሉ</w>
ራ ር
ቢ ነት</w>
ወር ቅ</w>
አ ዛ
ከ እነዚህ</w>
ተ ሞክ
መረጃ ዎች</w>
ቦ ችና</w>
ጫ ና</w>
መ ና
አን ጻ
አንቀ ጽ</w>
እንችላለ ን</w>
መዝ ሙ
መ ግባ
ደረ ሰ
ኩ ባንያ</w>
እንደ ምት
ሊ ያስ
ህ ፈት</w>
የተ ሳ
የመ ጽሐፍ</w>
ባለሙ ያ
አይ ቀርም</w>
ደግ ሞ
መ ሪዎች</w>
ገባ ም</w>
እንዳለ በት</w>
መነ ሻ</w>
ዶ ቹ</w>
ግድ ብ</w>
ብ ም</w>
አ ግባ
ክ ታር</w>
አ ዘ
መጠ ቀም</w>
ቅድ ሚያ</w>
ስ ና
ኃይ ሎች</w>
ዝ ማ
ኪ ያ
ይ ል
ከላከ ያ</w>
ለማ ስተ
የአ ሜሪካ</w>
ዳ ዊት</w>
ጋ ና</w>
ጡ ን</w>
ዳ ጅ</w>
ኦ ሎ
ምር ጥ</w>
እ ገ
የመ ሳሰ
ለ ል</w>
በ ጉ
አስ ደ
ከተ ል</w>
መሆ ናቸው</w>
ህ ገ</w>
በ ሁሉም</w>
ሰ ቡ</w>
ህ ግ</w>
ነጋ ገር</w>
ማ ቸውን</w>
ኩባንያ ዎች</w>
መሥ ራት</w>
t h
ችግ ሮችን</w>
ፈል ጋ
ፏ ል</w>
ም ገ
ኘ ው</w>
ተ ላለ
ጠ ላ
በ ፊ
ይጠበ ቃል</w>
ነ ትም</w>
ሞ ን</w>
የ ጦር</w>
ጠ ፋ</w>
ት ራ</w>
ቀ ል</w>
ደረ ጉት</w>
ፋ ፋት</w>
እስ ከ
ፌዴሬ ሽኑ</w>
ያለ ሁ</w>
ዳ ው</w>
ተ ል
ሁኔ ታዎች</w>
ፈ ን
ዋ ዕ
ወ ራ
መ ጨረሻ</w>
ች በት</w>
የነበ ረ
ህ ይወ
ጨ ባ
መሆኑ ም</w>
ቴዎ ስ</w>
ተግባ ራት</w>
አንደ ኛ</w>
ለ ብ
መፍት ሔ</w>
ከተማ ው</w>
ማ ጣ
አ ጠቃላይ</w>
ግል ጽ</w>
ነ ውና</w>
6 0</w>
ፕላ ን</w>
አድ ማ
ቋን ቋ
እግዚአብ ሔ
ባህ ር</w>
ና ሉ</w>
ገለ ጸ
የው ሃ</w>
መሆኑ ንም</w>
ቡድ ኖች</w>
ሳ ያ
ይ በ
ቆጠ ሩ</w>
ገኘ ውን</w>
ነ ገ</w>
የ ክልሉ</w>
ለማ ወቅ</w>
ወገ ኖች</w>
ሚ ያ
በ በ
ኖ ሮ</w>
ው ጣ
ዘጋ ጀት</w>
ተቀ ም
እንዲያ ውም</w>
ሊ ት</w>
ግራ ይ</w>
ሙ ያ</w>
ሂ ደ
አ ጀን
እንደ ገለጹት</w>
የምር ጫ</w>
ድህ ነት</w>
እር ዳታ</w>
ቅ ን</w>
ቱሪ ዝም</w>
ት ንና</w>
ያዘ ው</w>
ቻ ልም</w>
ኑ ት</w>
የተ ፈጠ
ፍ ሬ
በማ ን
አይደ ል</w>
ቅድ መ</w>
ድ ነው</w>
ከ ኢትዮጵያ</w>
ረ ዳ</w>
ናገ ሩ</w>
ከ ላይ</w>
ብሔ ር</w>
ም ሥራ
ኝ ና</w>
ን ብ</w>
ፍ ሬ</w>
አን ዳ
የ ዓ
ወዘ ተ</w>
ሳተ ፍ</w>
መሠረ ታዊ</w>
ላ ን
ይ ጠቀ
2 6</w>
ቋ ሚ</w>
በግል ጽ</w>
የሚ ሆነው</w>
እኛ ም</w>
እንዳ ሉት</w>
ጣ ል
መ ሀ
ችኋ ል</w>
ሻ ል</w>
ው ሰድ</w>
ቻ ሉ</w>
ነገ ሮችን</w>
ት ስ
አ ና
ይመስ ለኛል</w>
ይ ሰማ
ፈ ራ
ያስ ረዳ
ር ቀት</w>
ግ ድ</w>
ፕሮ ፌ
ብርሃ ን</w>
በመ ን
የተ ጠቀ
ዘ ረ
መጣ ል</w>
እ ናት</w>
ባበ ሩት</w>
ክ ረ
የተ ሰማ
ዝ ቅ
ሸነ ፍ</w>
ቱ ንም</w>
ም ባ
ከ ሁለት</w>
የ ል
በሚ ገባ</w>
ስ ምንት</w>
ሯ ቸው</w>
ጳውሎ ስ</w>
ጠ ውን</w>
የተ ፈጥሮ</w>
ይ ደረ
ይታወ ሳል</w>
ቀ ቅ</w>
ሀገ ራችን</w>
አን ብ
ል ድ</w>
ት ግ
ክ ፉ</w>
ጠናቀ ቅ</w>
አስ መልክ
ብ ቶ</w>
ገ ን</w>
የሚ ጠቀ
ቀር ቡ</w>
ትራንስ ፎርሜሽን</w>
2 7</w>
ሮ ት</w>
አይ መስ
እንደሚ ገባ</w>
ኤ ል
መስ መር</w>
አስ ር</w>
ምክንያ ቶች</w>
መጠ በ
ዛሬ ም</w>
ገልፀ ዋል</w>
አስፈ ጻ
ባይ ነት</w>
ን ጫ
ፋ ን</w>
ገባ ቸው</w>
ሮ ን</w>
የ ሁ</w>
የሚ ሆኑ</w>
ላ ቅ</w>
በ ሕ
ኘ ት</w>
ሪ ና</w>
ተገ ኝ
ቸ ውንና</w>
በአ ካባቢው</w>
ች ሁ
ች ውን</w>
አስረድ ተዋል</w>
ስ ጋት</w>
ባለ ድርሻ</w>
እንግሊ ዝ</w>
በየ ጊዜው</w>
ፀ ረ</w>
መል ዕ
ፈ ላ
ዛሬ ው</w>
ሠ ረ
ደ ስታ</w>
ያስ ች
ተመ ራ
በ ሁለት</w>
ለ የት</w>
አዲ ሱ</w>
ጥ ራ
ሃ ገ
ማ ሉ</w>
በ እነዚህ</w>
ጽ ሕ
ጠይ ቅ</w>
ቴክ ኒ
a n
ካ ለው</w>
እነ ሱም</w>
ፍ ም</w>
ዲ ሞክራ
ብዙ ዎች</w>
መም ጣ
አቅር ቦት</w>
ቦ ታው</w>
ወን ድ</w>
አስቸ ጋሪ</w>
እንዲ ሆኑ</w>
በት ክ
ያደረ ገው</w>
ቻ ይና</w>
የ ን</w>
ላ ይም</w>
ው ኃ</w>
ጠ ር
ታ ች</w>
ሳ ን</w>
ለመ ቀ
ኑ ም</w>
የሚ ታወ
ቀበ ሌ</w>
ሰ ም
ተ ክ
መለ ሱ</w>
ቢ ኖ
አገ ራቸው</w>
ግለሰ ቦች</w>
ም ሽ
ኢኮኖሚ ያዊ</w>
ም ረ
በ ክልሉ</w>
ገባ ት</w>
ጸ ሐ
አንደ ኛው</w>
ሃ ላ
ዘ ንድሮ</w>
ለ አንድ</w>
ገ ወጥ</w>
ውይ ይ
200 7</w>
ዘመ ናት</w>
ቃ ወ
ይሄ ን</w>
ወይ ስ</w>
በ 1
አን ድም</w>
ብዙ ም</w>
ተ ብሏል</w>
በአ ብዛ
የወ ርቅ</w>
ም ኒ
ጣ ሉ</w>
በ ኋ
ነ ባ
ዋ ስትና</w>
አም ራ
ለማሳ ደግ</w>
ቀጠ ል</w>
ቲ ት</w>
ካ ተ
ሐዋ ር
ዋነ ኛ</w>
ተያ ይዞ</w>
ጪ ው</w>
ተ መልክ
ጓ ዝ</w>
ሁ ላ
ማህበ ራዊ</w>
የሚ ሉ</w>
ከ ል
እንደ ሆኑ</w>
አመ ታት</w>
ሪ ት</w>
ሽ ማግ
ጠቅ ላላ</w>
ጊዜ ያት</w>
ከ ሉ</w>
ፋ ቸው</w>
በተ ግባር</w>
ህ ብረተሰቡ</w>
ፕሮጀክ ቶች</w>
ተቃ ው
ታ ለች</w>
ቻ ለው</w>
የ ግብርና</w>
እስ ቲ</w>
ኮሚ ሽን</w>
ኢትዮጵ ያ
ብ ብር</w>
2 9</w>
ሚ ስ
ጋ ጠ
ግለ ሰብ</w>
ቻ ለሁ</w>
አድ ራ
መድ ኃ
i n
ወገ ን</w>
ተ ችሏል</w>
ተደር ጓል</w>
ሮ ችና</w>
በመንግ ሥት</w>
ሆስፒ ታል</w>
የ ፊ
አይ ኖ
ገለ ግ
ጨባ ጭ</w>
ኦሊ ምፒክ</w>
ክ ሽን</w>
በ ትምህርት</w>
ኅ ብረት</w>
ዳ ር
የሚች ሉ</w>
ገ ላ
ዘ ዋ
በመ ጀመ
ት ስ</w>
አሰራ ር</w>
ቃ ቄ</w>
አደ ሩ</w>
የ ቦ
ሀ ሳብ</w>
አን ስቶ</w>
ዘር ፎች</w>
ይናገ ራል</w>
ገ ዋል</w>
ከ ረ</w>
አስ ኪያ
መ ቼ
እስራኤ ላ
የሚገ ኙ
የሚ ደር
በየ ዓመቱ</w>
ሲ ሆኑ</w>
ተወካ ዮች</w>
ተ ፈጥ
ጨረ ሻ
5 00</w>
ደ ል</w>
ን በት</w>
ነዋ ሪ</w>
የ ሕግ</w>
ደ ቀ</w>
ምር መራ</w>
ተ ኝነት</w>
ተ ኛ
ፕ ሎ
ነበረ በት</w>
ውሳ ኔ
ክ ም</w>
ገ ብረ
ያ ሰ
ዛ ው</w>
ድን ገት</w>
ቀ ኝ</w>
አገ ራዊ</w>
የሰ ብ
እኩ ል</w>
ተሳታ ፊ</w>
ነ ውን</w>
በአ ማ
ፖለቲ ካዊ</w>
ስ ፋ
ከ ውጭ</w>
አመልክ ተዋል</w>
ይ ፈ
የሚያ ው
መንፈ ሳዊ</w>
መ ፅ
በደ ቡብ</w>
ዙ ት</w>
ዘጋጀ ው</w>
ር ፍ</w>
ጋ ለ
ደን በ
ቆ ይ</w>
ግለ ጽ</w>
የአ ካባ
በ ዘርፉ</w>
መመ ሪያ</w>
ስህ ተት</w>
ብዙ ኃ
ይገልጻ ሉ</w>
ና ችን</w>
ዋ ቸው</w>
ዲ ፕሎ
ው ረ
ለማ ለት</w>
ስተ ኛው</w>
ፕሪ ሚ
ሥ ልጠና</w>
እ የመ
ዞ ኑ</w>
ክ ህ
አ ወ
እየ ሰ
ይች ል</w>
መሰረ ተ</w>
ኬ ንያ</w>
ኮሚ ቴ
ከተ ለው</w>
ሠራ ዊት</w>
ማ ብራ
አስተያ የ
ሰ ውን</w>
ይ ጠይ
ስ ብ</w>
ማር ያም</w>
የ ፍ
አትሌ ቲክስ</w>
ው ድ</w>
የ እግር</w>
አባ ት</w>
ል ቦ
የ ድ
ዩኒቨርሲቲ ው</w>
ሌ ዎች</w>
ብሎ ም</w>
ቢያ ንስ</w>
ደግሞ ም</w>
ከ ጊዜ</w>
ካሄ ደ</w>
እነ ር
ታማ ኝ</w>
ሄ ደ</w>
ተ ኞችን</w>
ጽ ህፈት</w>
ነ ር</w>
አ ጣ
የ ሥነ</w>
መል እ
ህ ክምና</w>
ዙ ር</w>
ባህ ላዊ</w>
ሊ ቀ
ር ክ</w>
ጥ ን</w>
ዘ ገባ</w>
አ ታ
ጥ ቃ
ፈል ግ</w>
የሚሰ ጠው</w>
እግዚአብሔ ር</w>
ተፅ ዕኖ</w>
ማ ወቅ</w>
ድንጋ ይ</w>
ቪ ዥ
የ ቢ
ነገ ር
ቁር ጠ
መ ገለ
የተ ጀመ
የተ ባለ
በ አገራችን</w>
ለ ፍ</w>
ነጋ ዴ
ፍ ራት</w>
የ ዋ
በመ ቀ
ሳይ ንስ</w>
ምን ድነው</w>
ጨዋ ታዎች</w>
ጅ ነት</w>
ለ አ
በ ምን</w>
e r
ጀ ምር</w>
ኮ ሌ
ገ ጠ
ጥ ፋ
ቃ ዎች</w>
ል ስ</w>
በ ሰው</w>
እ ሱን</w>
ስለ ሆነም</w>
ነ ች</w>
ጠቃ ሚ</w>
e n
ገ ር
ወታደ ራዊ</w>
የአ ር
በ ሌ
ፈለ ገው</w>
ሳተ ፉ</w>
ሀ ይ
የሚ ገል
ረ ም</w>
ሏ ቸው</w>
ቀ ፍ</w>
ከ 1
የ ወጣ
ሬ ን</w>
ሩ ሳ
ኖ ችን</w>
ከናወ ኑ</w>
በ ቆ
በ ን
አ ይ</w>
አደ ሮች</w>
የሚ ሆን</w>
ስር ዓ
ባ ር
አው ጥ
ስ ማ
ጫ ዎች</w>
ፌ ደ
በ ያህዌ</w>
ይባ ላል</w>
በአብዛ ኛው</w>
ሽ ልማት</w>
ብ ናል</w>
ጋዜ ጣ</w>
የካ ቲት</w>
ሞ ላ</w>
ቁ ር</w>
የ ወሰ
እያ ደ
እየ ታ
ለመ ከላከል</w>
ስላ ል
ከ እ
ባለ ፈ</w>
ዘላ ቂ</w>
መ ፍጠር</w>
ከሚ ያ
መፍት ሄ</w>
አግባ ብ</w>
ክርስቲያ ኖች</w>
በ ወ
ያ ገኘ
አፈ ጻጸ
ጽሕ ፈት</w>
የ ገለጹት</w>
የ ፌዴራል</w>
ጉዳ ዩን</w>
ወይ ንም</w>
አባ ላ
ካ ለ</w>
ምዕራ ፍ</w>
ትክክለ ኛ</w>
ታ ችሁ</w>
ም ጃ
ሸ ት</w>
ጥ ላ
በፍ ጥነት</w>
ጨ በ
አ ደረጃ
ህ ፃ
ብ ድር</w>
ባህ ር
ለ ቅ
ፊ ነት</w>
መጠ የ
ሃ ብ
ብሔ ረሰ
ጊ ያ</w>
አለ ብን</w>
ተደር ጎ</w>
አ ዎ</w>
የማ ስተ
ዘ ው</w>
ነሳ ው</w>
ም ረት</w>
የአ ካባቢው</w>
ጣ ኝ</w>
ር ኩ</w>
8 0</w>
መጻ ሕ
ካ ን
የ ኢንዱስትሪ</w>
መሠረ ተ</w>
ሻምፒዮ ና</w>
ፍ ረ
እንደማ ይ
የሚ ወ
ባ ስ
ያ ለመ
የ ግብ
የተ ባለ</w>
ለ ዋ
ደረ ሰ</w>
አብ ሮ</w>
መጥ ፎ</w>
በ ውስ
ለማ ር
ማህ በረሰብ</w>
ና ውን</w>
አቀ ፉ</w>
ሄ ክታር</w>
አደ ር</w>
ይኸ ውም</w>
እያ ደረገ</w>
ጠቀ ሜ
ያ ቸውን</w>
ቃ ላት</w>
ካከ ል</w>
ተቀ ባይነት</w>
የመ ጣ
ዘመ ኑ</w>
ተ ኛውን</w>
ኳ ር</w>
ተማ ሪ</w>
ለ ሌሎች</w>
ገ ጽ</w>
ጊ ዮር
መ ጽ
ጎ ረ
ዕድ ሜ
ስፖር ቱ</w>
ክ ሮች</w>
ሃ ን</w>
ሳ ሽ</w>
ጴ ጥ
የአ ምላ
በኋ ላም</w>
ሺ ሕ</w>
ሳ ቢ</w>
ጊዮር ጊ
ሙ በት</w>
ባ ባይ</w>
ቴክኖሎ ጂ
ው ያ
ጋ ገ
ግንባ ር</w>
መሥ ሪያ</w>
ራ ለች</w>
ብ ቃ
ካ ሉ</w>
በሰ ጡት</w>
ህ ና</w>
ት ሌ
ው ን
አስመልክ ቶ</w>
ሸ ን
ጡ ም</w>
የ ሲ
ጫወ ት</w>
ዶ ችን</w>
ች ሁም</w>
ከ 19
ጨመ ረ</w>
ተ ብለው</w>
ቤተሰ ቦ
ዲ ግ
የተ ቃ
ዕድ ገትና</w>
ክፍ ተት</w>
ል ጃ
ደር ጋ
ሕ አዴግ</w>
የ ከ
አይ ቻልም</w>
እንደሚ ያስ
በም ት
መ ሐ
ርዕ ስ</w>
ሶማ ሊያ</w>
ዓይ ን</w>
ኮን ስትራ
ኔ ት</w>
ኢየ ሩሳ
ጠበ ቀ</w>
ኩ ን</w>
የደ ቡብ</w>
ልብ ስ</w>
ቀ ና</w>
ክ ስተ
መዘ ገበ
አሸና ፊ</w>
በ ሥራ</w>
ጋ ን
አሰ ጣ
ይጠበ ቅ
ሰ ማ</w>
ስለ ነበር</w>
አ ሜሪካ
ገል ገል</w>
ዝቅ ተኛ</w>
እንደሚ ሆን</w>
አብዛ ኞቹ</w>
ለ ኢትዮጵያ</w>
ወንድ ሞ
በማ ስተ
አመራ ሮች</w>
ፊ ል
ሲ ያስ
ወሰ ነ</w>
ቅሬ ታ</w>
የሚ ባለው</w>
ኒ ያ</w>
ስ ጦ
ገ ድ
ራ ና</w>
የ ሴ
እየተ ደረገ</w>
አስታው ቀዋል</w>
ገን ዝ
ፋብ ሪካ</w>
ቴሌ ቪዥ
ኬ ት</w>
የሚ ቀ
ግ ዙ
ቀር ቶ</w>
ይ ኼ
ም ራት</w>
መ ገኘ
ና ቱ</w>
ካ ካ
ገነ ዘ
ይህን ኑ</w>
በ ባ
ያ ገ
ሷ ን</w>
ይደረ ጋል</w>
ካ ላ
ማ ክ
ካ ፒ
መ ሬ
በ ብዙ</w>
እ ረ
አ ል</w>
ጹ ም</w>
የኤ ሌክትሪክ</w>
መለከ ታቸው</w>
ስኬ ት</w>
ዳ ሉ</w>
እንዳል ሆነ</w>
ና ነት</w>
ግ ማሽ</w>
ፈ ዋል</w>
ሰ ጣቸው</w>
የሚች ለው</w>
ቀድሞ ው</w>
አገሪ ቷ</w>
መ ገናኛ</w>
ወጣ ቱ</w>
መ ጀመ
አ ጠቃ
ጉ ትን</w>
ወደ ሚ
ሦ ስተኛ</w>
ከሰ ት</w>
ላ ንድ</w>
ዛ ል</w>
ነ ኛ</w>
በተ ለያየ</w>
ደብዳ ቤ</w>
ቆጣ ጠ
ጥ ሪ</w>
አቅ ራ
አ ያው
የህ ክምና</w>
ዲ ዮ</w>
ጉ ብኝ
ህ ል
ከ አዲስ</w>
የአው ሮፓ</w>
አንጻ ር</w>
ነ ሽ</w>
ካሄ ዱ</w>
ሀገ ራት</w>
መዝሙ ር</w>
ሾ ች</w>
ን ደር</w>
ፋ ል</w>
ት ችላለ
አይደ ሉም</w>
መቼ ም</w>
ብ ቸ
ሥራ ውን</w>
መስ ሪያ</w>
ሃ ብት</w>
ሙ ስ
ማ ረጋገ
ን ብረ
በቀ ጥታ</w>
በ ብ</w>
ተናግ ሯል</w>
ማ ዳ
ፈ ታ
የተ መረ
ብ ህ</w>
በስተ ቀር</w>
ሩ ሲ
እስ ር</w>
ሃ ያ</w>
ይ ረዳ
መጣ ው</w>
ቆይ ቷል</w>
የ ህዝ
በመ ሆናቸው</w>
ር ሃ
የማ ያ
ይኖር በታል</w>
የግ ድ</w>
7 0</w>
የሚገ ኝ</w>
ለ ታል</w>
ኬ ሽን</w>
ይ ደ
ያደር ጋ
ስራ ቅ</w>
ያደረ ገ</w>
ወላ ጆ
የ አገሪቱን</w>
እንደ ዚህ</w>
እንዳ ሉ</w>
ከረ ም</w>
ሕ ክምና</w>
ሟ ላ</w>
መንግሥ ታዊ</w>
ይኸ ው</w>
ሩ ጫ</w>
የሌ ለው</w>
ሙዚ ቃ</w>
ያመለክ ታል</w>
ምናል ባት</w>
ሁ ል
እንደሚ ሉት</w>
የሚያደር ግ</w>
መስ ክ</w>
ተ ጨዋ
ዳ ግ
ቀመ ጥ</w>
ታ ዋ
ደ ቅ</w>
ሪ ንግ</w>
ሠራ ው</w>
እውነ ተኛ</w>
በማ ህ
ሥርዓ ቱ</w>
ለመ ፍጠር</w>
አሰልጣ ኝ</w>
ገ ኝ
ቅር ንጫ
ደቂ ቃ</w>
ማስ ረጃ</w>
የተ ናገሩት</w>
ሥ ጋ</w>
በመ ጀመሪያ</w>
የ ከተማ</w>
ቶ ቹን</w>
ይ ጠቁ
ቀ ኑ</w>
ካ ሂ
አ ሻ
ዱ ም</w>
ለ ማ</w>
መሣ ሪያ</w>
ዕ ቅ
ም ግ
የተ ከሰ
አም ባሳ
ሥ ላ
ዮ ችን</w>
እንደ ም
አይ ታ
ሰ ኔ</w>
ሌሎ ቹ</w>
ለ ናል</w>
ሊ ክ</w>
ማህበ ራት</w>
ት ረ
ሆነ ዋል</w>
በ19 9
ኳ ይ</w>
ካ ች</w>
ያሳ ያል</w>
ሐ ኪ
ኦ ባ
ዘ ለ
ጭ ን
በር ስ</w>
ደን ብ</w>
እኔ ን</w>
ዲፕሎ ማ
በ ኤ
ቴ አት
በተ ካሄደው</w>
ትክ ክል</w>
ይሰ ጣል</w>
ግ ጭት</w>
ፍት ህ</w>
ር ስ</w>
ስ ል</w>
ቦ ር
ም ስት</w>
ሕ ን
የሚያ ሳይ</w>
የመጀመ ሪያ
ክለ ቡ</w>
ስብ ሰባ
እ ዚ
ነሳ ት</w>
ታ ክ
ጡ በት</w>
ሳ ት
አ ሳይ
ለማ ረጋገጥ</w>
ከተ ለያዩ</w>
በ ውጭ</w>
ግንባ ታው</w>
ሃይ ል</w>
ጠበ ቅ
መ ቼ</w>
በደ ንብ</w>
ተ መር
ቀር በው</w>
ይ ጠ
ማ ቅረብ</w>
አይ ሆንም</w>
መስ ጠ
ነገ ረ
ከ ቱ</w>
አ ቤ
ያ ውን</w>
አስቸ ኳይ</w>
እንዳ ስ
ሲ ና</w>
እ ል
ፓርላ ማ</w>
የ ውን</w>
የሰ ላም</w>
ገልጸ ው</w>
ለመ ጀመሪያ</w>
ወን ዝ</w>
አብ ዮ
ዘ ዴ</w>
ፈጠ ረ</w>
የ ሸ
የ ጋ
ነበ ት</w>
ባለሀብ ቶች</w>
የአምላ ክን</w>
የሚ ቆጠሩ</w>
ለመ ደ</w>
ን ታል</w>
ጦ ር
አለ ች</w>
የ ረ
ሰላ ማዊ</w>
ኩ ም</w>
ኝ ን</w>
ዘ ጠኝ</w>
ባ ቸውም</w>
መ መር
ያለ ን</w>
ደረጃ ው</w>
አስተዳ ደር
የበ ላይ
ጋዜጠ ኞች</w>
ካ ይ</w>
በ አንዳንድ</w>
ሚ ስት</w>
ሽ ናል</w>
የ ገለ
ባ ላ
የሚ ገባ
ያስ ፖ
ም ነው</w>
ሰ ዓ
ንጉ ሡ</w>
መኪ ና</w>
ል ነት</w>
የሚ ኖ
ዘጋ ጁ</w>
የራ ሱን</w>
ኦሎ ምፒክ</w>
o n
ኢ ዮ
ደ በ
ጎ በ
ገለጸ ው</w>
ሪ ውን</w>
አንብ ብ</w>
3 5</w>
ይ ኼ</w>
ጓደ ኛ
አ ለም</w>
ፊ ክ</w>
አካባ ቢው</w>
ታላ ቁ</w>
ደር ስ
ሐ ረ
የተ ማ
የ ውድድር</w>
የ ገበያ</w>
ሬ ሽን</w>
አ የ
የሚ ሸ
ፕሬዚዳን ቱ</w>
በትክ ክል</w>
ሊ ያን</w>
እር ሱ</w>
ቤ ተ
ያ ነ
ቆ ት</w>
ፈ ተና
ይኖ ራል</w>
ገለ ጻ</w>
ፈለ ገ</w>
o n</w>
ፈጠ ሩ</w>
ከ ወ
ይሆ ናሉ</w>
ይ ቅር
ፕሬ ዝ
በአ ው
እስራኤላ ውያን</w>
ፕሪሚ የር</w>
ል ቶ</w>
ስ ንት</w>
መ ጽሐ
ገ ጽ
በተ ቃ
ዜ ጋ</w>
መል ሶ</w>
መጠ ው</w>
ፍ ቅ
በ ብዛት</w>
ምል ክት</w>
ኮንስትራ ክሽን</w>
አስታው ቋል</w>
ስታ ዲ
አስተዋ ፅ
ማብራ ሪያ</w>
እርግ ጥ</w>
ባለ ስልጣ
ሰ ጡ</w>
ፁ ት</w>
መለከ ቱ</w>
ረ ጃ
ዮ ቹ</w>
ጊዮርጊ ስ</w>
የተ ጠ
ጉባ ዔ</w>
ድ ሮስ</w>
አይ ሁ
ት ች
መቀ መ
ማ ቴዎስ</w>
ባሕ ር
ይ ጠቅ
ባ ክ
መንገ ዱ</w>
እንዳለ ባቸው</w>
ትና ንት</w>
ዘ ው
ሟ ላት</w>
በ ቃል</w>
ና ትና</w>
በእ ጅ
ጽ ን
አስ ቀድሞ</w>
አሳ ል
ፈፀ ም</w>
ራ ዎች</w>
ባ ትም</w>
የ ጣ
እር ሳቸው</w>
አደ ጋ
አድርገ ዋል</w>
አ ሊ
ከ ም</w>
ደ ም
ተቃዋ ሚ</w>
ተ ራ</w>
ሉ ቃ
መዛ ሙ
ድ ረ</w>
መን ስ
ተግባ ራ
ቅ ን
ካ ህ
ዝ ን
በ ጎ</w>
ጣ ጠ
ሚ ካ
ዛ ፍ</w>
ክፍ ተ
የለ በትም</w>
ላ ላ
ዟ ል</w>
ፖለቲ ካ
ል ኩ</w>
ይ ታ</w>
ለ አብ
አ ሠ
የ አን
ጨረ ሻው</w>
የራ ሱ</w>
መጋ ቢት</w>
የ ሆኑ
ነበ ሩት</w>
በ ሞ
ፍት ሕ</w>
ያ ኔ</w>
እያ ሳ
መጠበ ቅ</w>
ሽ ግ
ተጠቃ ሚነት</w>
ሰ ጠ
መ ደረ
ዘመ ቻ</w>
ሉቃ ስ</w>
በም ድር</w>
መ ና</w>
ዝ ውው
ድ ቅ</w>
o r
ሁላ ችንም</w>
ቴሌቪዥ ን</w>
መ ናገር</w>
አ ፋ
አ ሉት</w>
ኃጢ አት</w>
የሚ ኖሩ</w>
ላለ ፉት</w>
መ ሄድ</w>
ሳ ለ</w>
ካል ሆነ</w>
ታ ገ
ጥ ፍ</w>
አለ ን</w>
ዕለ ቱ</w>
ምና ምን</w>
ዝ ን</w>
ለመስ ራት</w>
ስ ቶች</w>
በአ ምላክ</w>
ጀር መን</w>
በ ሙ
ፍ ቶ</w>
አካ ላ
ጴጥ ሮስ</w>
ል ት</w>
ጉ ር</w>
የመ ሬት</w>
ርዕ ሰ</w>
ሰ ል</w>
ኤጀን ሲ</w>
ዝ ያ</w>
ባ ችን</w>
ፍ ለ
ምር ጫው</w>
የ አገ
የማ ድረግ</w>
እና ቶች</w>
ኤ ክ
የ ሳ
ባ ን</w>
ኢትዮጵ ያዊ</w>
ዝ ነስ</w>
ከ ሁሉም</w>
ን ቶ</w>
ብረተሰ ቡን</w>
ት እ
ውጤ ቶች</w>
ሜዳ ሊያ</w>
ክተ ሩ</w>
ቦ ርድ</w>
የ ፋይናንስ</w>
ክት ትል</w>
ዊ ያን</w>
እ ዚያ</w>
ፈጽ ሞ</w>
ክ ራ
ኢን ጂ
3 1</w>
የ መንገድ</w>
ያስ ታው
ምኒ ልክ</w>
a r
ባን ኩ</w>
ሊ ን</w>
ከ ን</w>
የማ ን
ደጋ ግ
ሙ ም</w>
ዲ ያ
ተ ፋ
ምር ቶች</w>
ሥራ ዎችን</w>
ጡ ትን</w>
ራ ም</w>
አ ዊ</w>
እ ውን</w>
እንደ ሆነም</w>
ዜ አ</w>
ሰ ና
በ ነገ
በመ ጠ
የ ሴቶች</w>
ላ ችን</w>
የ ኢትዮጵያን</w>
ለመ ሆኑ</w>
ገ ዳ
ሰ ቢያ</w>
ፕሮጀክ ቱ</w>
ያ የ
ይ ሻ
ት ላ
ኢየሩሳ ሌም</w>
በ ላ</w>
የ ፈ
ጥ ልቅ</w>
ኃላፊ ዎች</w>
ቂ ዎች</w>
ገ በ</w>
ቻ ችንን</w>
ወ ሩ</w>
እነ ሆ</w>
እየ ጨመረ</w>
አምላ ክን</w>
እርግ ጠ
ደ ሳ
ፈል ገው</w>
መኖ ሪያ</w>
ትል ቁ</w>
ያ ደ
ፕሮፌ ሰር</w>
ማ ይ
ቡ በት</w>
ዳ ግም</w>
ው ቅም</w>
ይታ ያል</w>
ኮር ፖ
ፕሬዝ ዳን
ቶ ሎ</w>
ፕ ራ
ስል ጠና
ታ ዘ
የ ሃይማኖት</w>
ድን በር</w>
ሴ ፍ</w>
ጣ ቢያ</w>
ፈቃደ ኛ</w>
ለማ ችን</w>
ተሞክ ሮ</w>
ጨ ነ
በዋ ናነት</w>
ማኅ በር</w>
ደህ ንነት</w>
ስ ያ
ቸ ገ
ታወ ቅ</w>
መስ ል</w>
ሪ ዎ
ዝ ም
የ በኩ
ባለ ሥልጣን</w>
ለ ኝም</w>
የተ ረ
መ ፈ
ጉባኤ ው</w>
ካ ሬ</w>
ር ቶ</w>
ዕው ቀት</w>
ቅ ጣት</w>
ም ሳ</w>
ፊ ልም</w>
በ ረ</w>
ዘጋ ጅ</w>
ን ጓ
ደር ገው</w>
3 2</w>
ጣ ቢያ
አበ ረ
ከ መሆኑም</w>
ደ ድ</w>
ሽ ነት</w>
ለማ የት</w>
ሙ ና</w>
አው ሮፓ</w>
አክ ብ
ማሳ ያ</w>
ት ንም</w>
ዩ ም</w>
ጨ ው</w>
ራ ስ
ከ ሩ</w>
ግ ጥ
በቀ ር</w>
ሄ ደ
ለማር ያም</w>
ቀ ና
ዓላ ማ
እ ሳ
ስተ ው</w>
ቫ ይረ
አሳ ስ
ደ ካ
የሙ ዚ
ጎ ብ
ሠራ ተኛ</w>
ከናወ ነ</w>
ቃ ቤ</w>
በ ራሳቸው</w>
የ ቀድሞ</w>
አካ ሄድ</w>
ገብ ቶ</w>
ግዴ ታ</w>
ሩሲ ያ</w>
ሬ ዳ
ገ ጥ
ገ ኛ</w>
ሁ ፍ</w>
ዕ ቆ
ዛ ቸው</w>
በሰ ላም</w>
አ ዘጋጅ
ው ለ
ጃ ፓ
ጎ ች</w>
ናገ ድ</w>
ብ ል</w>
በየ ት
እንዲ ያስ
የላ ቀ</w>
ኢ ዜአ</w>
3 3</w>
በ ሁለተኛው</w>
ሚ ዛ
አድር ጎ
ተባ በር</w>
ሆ ና</w>
ልማ ቱ</w>
ማራ ቶን</w>
ከ ስ
ክ ቶ
ይ ን
ሥላ ሴ</w>
ዥ ም</w>
የ ባህል</w>
ዳ ማ</w>
ምን ዛ
ብዙኃ ን</w>
ቤ ቱን</w>
ንግ ግ
አጀን ዳ</w>
ካ ላቸው</w>
ገ መ
ተገ ቢውን</w>
ወን ድም</w>
መ ቃ
ሳ ቢያ</w>
የ ኦ
ይ ዝ</w>
ዘጋ ጀ</w>
አስተዋፅ ኦ</w>
ሳ ምን
ፓርቲ ው</w>
ሞ ችን</w>
በሚ ገኘው</w>
እየ ሆነ</w>
መረ ዳት</w>
አንዳን ዶቹ</w>
ህ ን
ፍ ረት</w>
ወላ ጆች</w>
ሰነ ድ</w>
በ ነበረው</w>
የ ዕ
በ ዛሬው</w>
ሆነ ና</w>
እድ ሜ</w>
ተ ም
የተ ባበሩት</w>
የሚ ወስ
እ ይ</w>
እየተ ሰራ</w>
ሄ ደው</w>
ተ ሻ
ገደ ብ</w>
ኩ ንታል</w>
ያ ችን</w>
እንዳ ላቸው</w>
በመጀመ ሪያው</w>
ያ ዙ</w>
ፍ ቃ
አስ ራ</w>
ሰላ ምና</w>
ግር ማ</w>
ኗ ን</w>
ኬ ንያ
በእጅ ጉ</w>
ለ ያህዌ</w>
ፌዴ ራ
ም በት</w>
ቿ ን</w>
መምህ ር</w>
እንዲያ ገኙ</w>
ምሥ ክሮች</w>
በአ ሜሪካ</w>
ያ ወ
ተ ኞ
ፍት ሐ
ኃይ ለ</w>
ማ ታ</w>
በመ ካከ
ኦባ ማ</w>
የ ን
ዲ ዛ
ፈ ሩ</w>
ቤ ታቸው</w>
ለማ ን
የሚሰ ጥ</w>
የሚ ከተ
መስ ከረም</w>
ም ኞ
ራ ችሁ</w>
ለመ ገንባት</w>
ሬ ው</w>
ሆነ ች</w>
ተጽ ዕኖ</w>
ሰራ ው</w>
የሚያደር ገው</w>
ቀ ትና</w>
ኅ ብረተሰቡ</w>
እየ ሰራ</w>
ሎ ችና</w>
በ ዳ
የተ ጣ
ግ ጭ
ጫ ውን</w>
አስኪያ ጅ</w>
ወ ሬ</w>
ቀጥ ሎ</w>
ጠ ሩ</w>
ቅዱ ስን</w>
ጨ መር</w>
ንቅ ና
ነበ ራቸው</w>
የሽ ብር</w>
የ ራሳቸውን</w>
እንዲ ቀ
መ ካ
አለመ ሆ
ተ ጨባጭ</w>
እያደ ገ</w>
ነ ዘ
ፉ ም</w>
ሳ ቁ
እንግ ዳ</w>
ም ፕ</w>
ያ ነሳ
ዱ ና</w>
የተ ቋቋ
እው ቅና</w>
እንድ ታ
አስ ታወቀ</w>
መሆ ና
ተ ነሳ
ቶ ታል</w>
ህ ብረት</w>
ታሪ ካዊ</w>
ታማ ነት</w>
ብዙ ዎቹ</w>
መው ሰድ</w>
ቆይ ታ</w>
ሳ ል
የ ጉ
ክረ ምት</w>
ይቅር ታ</w>
ሐ ም
ቆ ረ
የሚ ለ
በማ ድረ
ገደ ማ</w>
መጻሕ ፍት</w>
ነ ብ
ሽ ያ
ፋ ው</w>
ሌሎ ችን</w>
በእርግ ጥም</w>
ደገ ፍ</w>
ላለ ሁ</w>
ረ ታ</w>
በአ ጭር</w>
ፈለ ግ</w>
ሕዝ ቡን</w>
ቸ ግ
ዕር ምጃ</w>
ኤር ትራ</w>
ድ ግ</w>
ባህ ልና</w>
የ ቱ</w>
አድ ና
የ ኦሮሚያ</w>
የተ ለያየ</w>
ቶ ት</w>
ፈ ገ
አስተ ባባ
በ ሉ</w>
በ ሕይወት</w>
ተጫዋ ቾች</w>
ኩ ረት</w>
ያደረ ጉት</w>
የተ ነ
ሲ ታይ</w>
አይ ገባም</w>
ጤ ና
የተ ገኘው</w>
የሚ ገባው</w>
በመ ላው</w>
ሰለ ሞን</w>
ል በ
እ ነ</w>
ችሎ ታ</w>
ነ ታችን</w>
የተ ባሉ</w>
ፈጣ ሪ</w>
መ ከላከያ</w>
ተ ኝ
ኳ ን
የተሰ ጠው</w>
መል ከ
ሪ ን</w>
ያስ ደ
ኮሚቴ ው</w>
ራ ቅ</w>
ፐ ብ
ባ ብ
ውስ ጥም</w>
እር ሻ</w>
ሰጥ ቶ</w>
ምሁ ራን</w>
ትችላለ ህ</w>
ትር ፍ</w>
መ ኮ
በ ሁ
በመ ንፈ
ይገልጻ ል</w>
ካ ን</w>
ዝግ ጁ</w>
ብ ለህ</w>
ቃ ው</w>
የ ገባ
በየ ደረጃው</w>
አንዳን ዶች</w>
ከታተ ል</w>
በማ ቅረብ</w>
ጀር ባ</w>
መ ግባት</w>
ሱ ና</w>
ግ ምገ
ስትራቴ ጂ
አር ቲ
ማ ሰብ</w>
ተ ዘጋጅ
ዋ ሳ</w>
1 00</w>
ሪያ ና</w>
ሰብሳ ቢነት</w>
ች ህ</w>
ና ትን</w>
ሮ ችም</w>
በ ኮ
ፋ ስ</w>
ጠ ላት</w>
ለማሳ ካት</w>
ከ ም
ጊ ዎች</w>
ይ ቀጥ
እር ምጃ
ኢን ስቲ
አስ ከ
ባን ኮች</w>
ታወ ቀው</w>
በረ ሰቡ</w>
አሊ ያም</w>
የ ሀገ
የ መንግሥ
የ ዋጋ</w>
ግ ጥም</w>
ነገ ሥ
ተከታ ታይ</w>
የ ታሪክ</w>
ቁ ል
ኧ ረ</w>
በረ ከ
አዳ ራሽ</w>
ስደ ተኞች</w>
ጨረ ታ</w>
የህ ግ</w>
ሀ ሳ
ክ ሊ
ክ ክር</w>
ጭ ነት</w>
ቀጥ ለው</w>
ቀጣ ይ</w>
20 0</w>
ል ጠና
ማ ሩ</w>
በ ዛ</w>
ካ ቸው</w>
4 5</w>
መ ከራ</w>
ድም ጽ</w>
ወረ ቀት</w>
ሊቀ መን
ይ ፈጥ
ሰብ ዓዊ</w>
ይ መ
ማ ሰ
ቃ ና</w>
ነ ቅ
አ ደረ
አን በ
ክ ሲ
አስተ ማማ
የምር ምር</w>
ል ጁ</w>
ግዙ ፍ</w>
በ ዛ
ጥ ቁር</w>
ፀሐ ይ</w>
ለ ሁለት</w>
ም ሩ
ተ ሽከርካ
የ አገልግሎት</w>
አይደ ለ
ያው ቅ</w>
ነጋ ግ
ተስፋ ዬ</w>
ል ቀት</w>
ጋዜጠ ኛ</w>
ይ ፈል
ሰ ኞ</w>
ወረዳ ዎች</w>
ቀ ውን</w>
ት ብብር</w>
ከ ሌ
ዘላ ለም</w>
ል ታ
ወጥ ቶ</w>
9 0</w>
ክ ፉ
ጀም ሯል</w>
ፍል ስፍ
ቋ ረጥ</w>
ባለ በት</w>
በር ና</w>
ወደ ፊ
አስተዳ ደ
ች ሉም</w>
ኔ ን</w>
ፈረን ሳይ</w>
ምንዛ ሪ</w>
የ ሠ
መንግስ ቱ</w>
ክ ም
በ ዓመት</w>
አካባ ቢ
በ ቁ
ለመ ሥራት</w>
ቶ ቻችን</w>
የገ ቢ</w>
ትስ ስር</w>
ዕ ም
ድ በት</w>
የተጀመ ረው</w>
መ ቱ</w>
ቪ ል</w>
ው ሉ</w>
ጠ ና</w>
ካል ተ
ጓደ ኞ
መ ቅረ
ዳ ቸውን</w>
ሁኔ ታው</w>
ድጋ ሚ</w>
ቢ ሲ</w>
ከ ዓለም</w>
ና ው
የሚያስ ች
አልቻ ለም</w>
የ ሶ
ጎ ዳና</w>
የሙዚ ቃ</w>
በ ጅ
ዕ ቃ</w>
የ ፈለ
የመ ጨረሻ</w>
ደር ሷል</w>
ቀ ረ</w>
አን ቺ</w>
ሥ ፍ
የ ዕድገትና</w>
መልዕ ክት</w>
ቲ ክ</w>
መን ቀሳ
እ ኤ
ወ ዝ</w>
የሰ ማ
ሌላ ኛው</w>
እ ሳት</w>
በ ካ
ፕሬ ስ</w>
ሬዳ ዋ</w>
በአ ር
እንደሚ ያስፈል
አፈጻጸ ም</w>
ኪ ና</w>
የሚ ናገሩት</w>
ለመ ሸ
ተል ዕ
የ ዴሞክራሲ</w>
ይጠይ ቃል</w>
ደ ውን</w>
ጡ ና</w>
ፉ በት</w>
መኖ ሩን</w>
የኤ ር
ሽ ን
ቀ ይ</w>
ድር ሻ
ካ ስ
ንጓ ዴ</w>
መ ሞ
ኢ ሕአዴግ</w>
መቀ ጠል</w>
ዜጎ ችን</w>
ተወዳዳ ሪ</w>
የሚ ደረገው</w>
ቸ ት</w>
ራሳ ችን</w>
ለ ሁሉም</w>
ሳ ው</w>
እንዳ ያ
ቁ ልፍ</w>
ቂ ቅ</w>
አስ ቀም
ቆ ች</w>
ተግ በር</w>
አብዛ ኛው</w>
ብ ሩ
የመ ጣው</w>
ጠቀሜ ታ</w>
ድ ሩ</w>
ፈጠ ረው</w>
ሁል ጊዜ</w>
ቤ ን</w>
ገለ ጸ</w>
ሕፃ ናት</w>
የአ ል
ተ ለይ
ጠቅ ሰዋል</w>
ደሳ ለኝ</w>
ረ ች</w>
ዕ ል</w>
የ ኃይል</w>
ረዳ ው</w>
አማ ራ
በጥ ን
ያስረዳ ሉ</w>
ያ ላት</w>
አን ዴ</w>
ቴአት ር</w>
ሙ ከራ</w>
ማሳ የት</w>
ንድ ሮው</w>
ቸ ዋ
ጉ ዞ
ቃ ለሁ</w>
ባ ደረጉት</w>
ጥ በት</w>
የሚ ገኘውን</w>
ኢንስቲ ት
ሁ ሉን</w>
አባ ባል</w>
ፎ ካካ
ማ መን
አን ገ
መደ በኛ</w>
በሚ መለከት</w>
በቀ ን</w>
ድ ሮ</w>
ድ ሶ</w>
ለማ ምጣት</w>
ያለ ባቸው</w>
ገነ ባ</w>
እኤ አ</w>
ማ ሻሻ
ቢ ያው</w>
በዚ ያው</w>
መ ጥ</w>
የ ደም</w>
እንደተ ናገሩት</w>
የ አገራችን</w>
ጠብ ቅ</w>
ጌ ታ
መጠ ና
ማን ነት</w>
ሎ ን</w>
ታ ን
ለማ ቅረብ</w>
3 4</w>
የሚ ቆ
ክብ ካ
ቀዳ ሚ</w>
ሒ ደት</w>
ጉባ ዔ
ለ ወጥ</w>
አ ሥር</w>
መስ ተዳ
ቡ ትን</w>
እን ጀ
ረጋገ ጠ</w>
ሁ ሌም</w>
ኛ ውንም</w>
አዋ ጁ</w>
ቱ ንና</w>
ና ሽናል</w>
አብ ረው</w>
ሰይ ጣን</w>
በ ኦሮሚያ</w>
የ ግንባታ</w>
በ ጋ
ኖ ስ</w>
አ ላት</w>
ቁ ና</w>
በ ሕግ</w>
መን ደር</w>
ተጠ ር
ኢየሱ ስን</w>
መጥ ቷል</w>
የአ ካል</w>
ጥን ቃቄ</w>
o f</w>
ሰ ልጣ
ትራ ንስፖርት</w>
ቀጠ ለ</w>
በሚ ለው</w>
ዳን ኤል</w>
የተወሰ ነ</w>
ሙ ኒ
ጣ ዊ</w>
ይሁ ዳ</w>
ለ ወ
የ ሆ
መሰረ ታዊ</w>
መ ኝ</w>
ቢ ሮ
እ ሷ</w>
አም ባ
ማ ረጋገጥ</w>
ኤ ስ</w>
አን ባ
ይ ቅር</w>
መብ ቶች</w>
ሳ ቸውን</w>
ብ ላ
ዝ ቅ</w>
ቴዎ ድሮስ</w>
ሌ ው</w>
እድ ገትና</w>
በዓ ሉ</w>
ል ና
የሙ ያ</w>
ቀ ለም</w>
ክ ረው</w>
ናይ ጄ
ተጠያ ቂ</w>
እንደሚ ገኝ</w>
ንቀሳቀ ሱ</w>
በ ውን</w>
ይኖ ር</w>
ል ጥ
ም ግባ
ገ ዝ
ህ ዳሴ</w>
ተ ፈጥሮ</w>
መ ዳ
ቀ ውስ</w>
በመንግ ስት</w>
ማ ግኘ
ኖ ሪያ</w>
የ ቀድሞው</w>
ዮ ና
ሕ ጉ</w>
ያ ይ
ወሰ ኑ</w>
አም ል
የተ ደረገው</w>
ይ ሸ
ፃ ፀ
በ ጀ
በ ውድድሩ</w>
አስፈጻ ሚ</w>
ቃ ለ</w>
ጥ ብ
ኮሚ ሽ
ለመ መለስ</w>
ል ያ
ሰ ረ
መድ ሃ
የሚ ሆኑት</w>
ም ቤ
ቲ ም</w>
የጀመ ረው</w>
ነበረ ች</w>
ማረጋገ ጫ</w>
ስራ ው</w>
አምባሳ ደር</w>
በመ ጨረሻ
ተቃው ሞ</w>
ጣል ቃ</w>
ጉ ድ</w>
መጠየ ቅ</w>
ስጦ ታ</w>
እነር ሱ</w>
መ ሩ</w>
ማ ሽ
ጨዋ ታው</w>
እንደሚ ችሉ</w>
ይገ ኙ
እ ቅ
የሚ ረ
በመ ፍጠር</w>
ጉድ ጓ
ከ አገር</w>
የ ኖ
ድ ል
ያ ሉ
ጠየ ቅ</w>
ቁ ሳቁ
መ ናል</w>
ቱ ርክ</w>
ዘ ን
የመ ገናኛ</w>
ሕ ጋዊ</w>
አ ዝማ
ተመል ከት</w>
የመ ጣ</w>
ማሳ ደግ</w>
ፋይ ዳ</w>
ሽ ፋን</w>
ቡ ቲ</w>
በ ሆነው</w>
በ ሴቶች</w>
ያ ዕቆ
ን ጹ
ዳ ሜ</w>
ባ ና</w>
ኅ ብረተሰብ</w>
ድ ራ
እንስ ሳ
ጉብኝ ት</w>
ዲ ን</w>
ላለ ን</w>
አቤ ቱ
ሙ ሉ
ሩ ቅ</w>
ቶ ቻቸው</w>
መምህ ራን</w>
መልእ ክት</w>
ባ ላቸው</w>
በ ሶ
ዜ ማ</w>
ደ ሪያ</w>
ቲ ን</w>
አለ ቃ</w>
ል ጄ</w>
ረ ውም</w>
በበኩ ሉ</w>
ድን ቅ</w>
ዕር ዳታ</w>
ገ ቢው</w>
የአ ባ
ያል ሆነ</w>
አንዳን ዴ</w>
የእ ኛ</w>
እንግሊ ዝ
ስ ነ</w>
ፈጠ ራ</w>
ስ ሙ</w>
ቹ ና</w>
ለማስ ወገድ</w>
ለ ፍ
ተጠና ክሮ</w>
ሊ ጉ</w>
ሶ ችን</w>
ኩ በት</w>
የ ያህዌን</w>
ጨ ምር</w>
ጫ ት</w>
በ ጭ
ገ ስ</w>
ቃ ለን</w>
ተ ወስ
ኃይ ሌ</w>
ች ሁት</w>
r e
ማ ና</w>
ሚ ዲ
የ ኑሮ</w>
ፎ ችን</w>
ይል ቁ
ሊ ዝም</w>
መ ች</w>
አሰጣ ጥ</w>
ልማ ታዊ</w>
ወ ጪ
ያደርጋ ሉ</w>
ላ ቁ</w>
አስፈ ፃ
ኢንዱስት ሪው</w>
ፈ ውን</w>
ሁለ ቱን</w>
መሥ ዋዕ
መንግስ ታት</w>
ጠን ቀ
ቀ ለ
ገ ዢ
ሃ ት</w>
ሚ ሊ
ሪ ቱን</w>
ስለ ተ
ኮሚ ሽኑ</w>
ምድ ብ</w>
ሳይ ቀር</w>
ላለ ፍ</w>
ክር ክር</w>
ገኙ በት</w>
ታላ ላቅ</w>
ፈ ራ</w>
ሠራ ዊ
ዘ ወ
በሚ ያስ
የሚያስ ችሉ</w>
ኪ ያ</w>
መ ያዝ</w>
ቁርጠ ኝነት</w>
አስተዳ ደሩ</w>
ፍላ ጐ
አይመስ ለኝም</w>
ለ ን
ለ አገር</w>
ሽ ም</w>
ነ ዋ</w>
የፈጠ ራ</w>
ኛ ነት</w>
የተ ቋ
እንድ ና
ተ ህ</w>
በቅር ብ</w>
ምሽ ት</w>
ራ እይ</w>
አን ዱን</w>
መለከ ቱት</w>
ስት ል</w>
ፈል ጉ</w>
ነ ዋል</w>
ኢትዮጵ ያና</w>
አስተማማ ኝ</w>
ሎ ቹ</w>
ዜ ጐ
ያ ውም</w>
ደራ ጀት</w>
መጥ ቶ</w>
ከ ቅርብ</w>
ጄ ኔ
አመልክ ቷል</w>
ሚ ክ</w>
ራ ቸውም</w>
ቂ ው</w>
ከ ማስ
በሚ ገኙ</w>
የትራ ንስፖርት</w>
መሀ ል</w>
ዎ ን</w>
በመ ጽሐፍ</w>
ኳ ቸው</w>
ትኩ ረ
ና ለሁ</w>
እንደ ምን
አው ቶ
በግ ል</w>
ይገል ፃ
ዮ ሴፍ</w>
በእ ኛ</w>
ሎ ም</w>
ር ቱ</w>
ው ር
የ እንስሳት</w>
ፈ ቀ
ኃይ ለማርያም</w>
ች ለዋል</w>
የበላይ ነት</w>
የ እኔ</w>
ጋ ቸውን</w>
ሰጥ ተዋል</w>
ጦ ት</w>
የአ ትሌ
መሳ ሪያ</w>
የተ ዋ
ሰጥ ቷል</w>
ስኬ ታማ</w>
ቆ ስ</w>
መል ካ
ይች ሉ</w>
በራ ስ</w>
የጠ ቆ
እንዳ ት
ማዕ ከ
ከበ ደ</w>
ዲግ ሪ</w>
ሐም ሌ</w>
ሻ ሻ</w>
በመ ተባበር</w>
አላ ስ
ኖ ቹ</w>
ሽ ና</w>
ተ መስ
ከ እሱ</w>
መ ላ</w>
የጎ ላ</w>
ዩኒቨርሲቲ ዎች</w>
ትዕ ዛዝ</w>
የ ጸ
አን ዷ</w>
ያደር ገው</w>
የደረ ሰ
የ ኢንቨስትመንት</w>
እንቅ ፋት</w>
ፖለቲ ከ
19 9
ተነ ስቶ</w>
እንዲ ኖር</w>
ከን ቲ
ሙ ሴ</w>
ና ዎች</w>
ድ ብ</w>
ለ ያ</w>
በ እኔ</w>
ይ ዟል</w>
ም ራ
ሴ ቶችን</w>
ዓይ ነቱ</w>
አይሁ ዳ
መ ከላከል</w>
ኒ ው</w>
አለመሆ ኑን</w>
ላ ቸውም</w>
ራ ዕ
ራ ስን</w>
የሚ ሰማ
ስ ልክ</w>
ደ ስተኛ</w>
ፋ ዊ</w>
ቅዱ ሳን</w>
በሽ ታው</w>
ደ ዋል</w>
ዘ ገባው</w>
ዕድ ገ
የ እስራኤል</w>
ደ ጃ
3 7</w>
ፁ ም</w>
ሳ ሙ
ክ ቸ
ተቋ ሙ</w>
ፖሊ ሲ
ለ ሙሉ</w>
ረ ብ</w>
ይ ቱ</w>
ኩባንያ ው</w>
ሰራ ተኞች</w>
ገብ ተው</w>
ኮ ከብ</w>
የመ ረጃ</w>
ብዙ ሃን</w>
ድር ድር</w>
በ ሻ
አብ ርሃ
ማህ በራ
በ ዙ
ና ግ
ልማ ድ</w>
ወንድ ሞች</w>
ወለ ድ</w>
በ ድጋሚ</w>
l i
ቀ ሩ</w>
ተ ውን</w>
ዓመ ታዊ</w>
ጥና ቱ</w>
ለ ኛው</w>
መድኃ ኒት</w>
ሲ መጣ</w>
ባ ችሁ</w>
እንደሚ ያሳ
አብ ረ
ግ ቢ</w>
አካ ዳ
ዝውው ር</w>
መስ ራ
ሞ ቱ</w>
በ ግብ
አብ ራር
አማካ ይነት</w>
ይህን ንም</w>
ተ ረጋግ
ጣ ቸውን</w>
እን ጨት</w>
ከሰ ቱ</w>
መድረ ኮች</w>
ከ ነበረው</w>
መጠ ጥ</w>
ባለ ን</w>
አሉ ታዊ</w>
እህ ል</w>
ኩ ኝ</w>
ተጠቃ ሽ</w>
አስፈላጊ ውን</w>
ፋ ር</w>
ና ቂ</w>
አ ዝ
በአ ካባ
ቢያ ቸው</w>
የምን ችለው</w>
ንቀሳ ቀስ</w>
አጠቃ ቀም</w>
ቁ ጠ
የተ ናገ
በተ ሻለ</w>
ነፍ ስ</w>
th e</w>
ይ መጣል</w>
ለመ ቅረ
ምን ጮች</w>
ዋ ላ</w>
ዲ ሱ</w>
ጻ ናት</w>
በረ ከት</w>
አደ ባባይ</w>
የሚያ ሰ
ለ ለ</w>
ው በት</w>
አን ተም</w>
ላ ማዊ</w>
ስቴ ት</w>
ት ህን</w>
የ ሐ
ሊ ና</w>
እና ላችሁ</w>
ለ ጎን</w>
ኤ ሌክትሪክ</w>
ጠ ነ
ምን ጊዜም</w>
አበ በ</w>
በ ይፋ</w>
ዞ ር</w>
የ ውስጥ</w>
የ ትም</w>
የ ቴክኖሎጂ</w>
መሰ ላችሁ</w>
ማ ነ
ቂ ት</w>
የሚገኙ ት</w>
ቷ ቸው</w>
ሚያ ዝያ</w>
ጋን ዳ</w>
ሽግ ግር</w>
ለ እኔ</w>
ሰ ጠ</w>
ጣ ጣ
ያው ቁ</w>
ጨር ቅ</w>
ፍለ ጋ</w>
ህ ጉ
ስ ፔ
የፀ ረ</w>
በ ሆኑ</w>
ኮን ት
ይኖር ብናል</w>
ተ ያያ
ተጠቃ ሚ
ጠቁ መው</w>
ለ ዓለም</w>
መስ ኮች</w>
ያል ሆኑ</w>
ስትራቴ ጂ</w>
ዕ ምሮ</w>
ድር ና</w>
ከአ ፍሪካ</w>
a l</w>
አክ ሲ
መ ያ
ተ ፎካካ
ችግ ሮ
ፈጸ ሙ</w>
ዘ ገባ
ይ ነገ
ጠ ጥ</w>
ያ ዘ</w>
መ ዳረ
ብ ዝ
ደ ላ
በተ ደረገው</w>
ኢት ዮ</w>
ይ ጠብ
የም ክር</w>
ግ ዛ
ፈል ግም</w>
ይወ ስ
ጉዳ ዮችን</w>
መደ ብ</w>
በ ቤ
ዘ ም</w>
አሰ ፋ</w>
አቅር ቦ
የያ ዘ</w>
ተ ተ
እርግጠ ኛ</w>
የተ ሸ
ሰብ ና</w>
እነ ሱን</w>
ኮሌ ጅ</w>
ገ ኝም</w>
ወቅ ታዊ</w>
መግ ቢያ</w>
ምናል ባትም</w>
አንዳ ች</w>
ውረ ድ</w>
ከ ማድረግ</w>
ታው ቃ
ዴ ን</w>
የመሳሰ ሉ</w>
ሱ በት</w>
በ ከተማዋ</w>
ንግ ድና</w>
የአ ማ
ተመልክ ቷል</w>
ወዳ ጅነት</w>
ደካ ማ</w>
የ ጠቀ
ጅ ት</w>
የተ ለመደ</w>
አገ ሩ</w>
ይኖ ረዋል</w>
ተሳት ፎ
ካፒ ታል</w>
በ ን</w>
ጫ ፍ</w>
ለመ ግባት</w>
ባለ ስልጣን</w>
ቻ ችሁ</w>
ቾ ችን</w>
ተማ መን</w>
ም ሩ</w>
እ መ
የ ዛሬ</w>
ፍ ጥረት</w>
መሰ ግ
3 00</w>
ቷ ቸዋል</w>
ዱ በት</w>
ወታደ ሮች</w>
ያ ወጣ
ዬ ው</w>
ለ ትም</w>
ሆነ ን</w>
የሰ ጠው</w>
መው ጣት</w>
ሃ ለሁ</w>
የ ሕይወት</w>
ጃ ቸው</w>
1 8
ለ ህዝብ</w>
መ ገንባት</w>
በ ሁለቱ</w>
የሌ ላቸው</w>
እዚ ያው</w>
ሳ ተ</w>
ማ ሪዎች</w>
ያ ረ
ገ ዥ
የሚ ጠቅ
ሄ ዶ</w>
ሰ ጣ
የ ቤ
ጥ ቅ</w>
ፍ ን
አረጋግ ጠዋል</w>
መ መልከት</w>
ታ ትን</w>
የተ ጋ
አል ቀረ
ይመስ ል</w>
ሰው የው</w>
ንቅና ቄ</w>
ሪ ስ</w>
ሪ ዎችና</w>
ድ ክ
ተከ ራ
e r</w>
ት ዳር</w>
እን መልከት</w>
ሌ ን</w>
ኸ ው</w>
አድርገ ን</w>
ፕሬዝዳን ት</w>
ሞ ላ
የመ ድ
ሉ ዓላ
ዘ ይት</w>
ሽያ ጭ</w>
እ ሺ</w>
የሚታ የው</w>
በመጨረሻ ም</w>
ለ ቅ</w>
በተለ የ</w>
አህ ጉ
ታዋ ቂ</w>
ነጋዴ ዎች</w>
ሏ ት</w>
ና ን
ወሰ ድ</w>
ወስ ድ</w>
ለ ኢዜአ</w>
ባ ራ
ኝ ማ</w>
ጌ ታቸው</w>
ተጠ በ
ቴክኒ ክ</w>
ብ ሩ</w>
በቀ ው</w>
ግድ ቡ</w>
የሰብ ዓዊ</w>
ሮ ና</w>
ኮ ል</w>
የተ ወለ
መግባ ባት</w>
ለ ውም</w>
ማ ቴ</w>
አ ያያ
ዎ ቻቸው</w>
ጆ ቹ</w>
ፍ ጹም</w>
የመ ረ
ወስ ደው</w>
ልጆ ቹ</w>
በዚ ያን</w>
ከ ቆ
ከላ ዊ</w>
አሸ ባ
አስ መ
ገለ ገ
መኮ ንን</w>
ክብካ ቤ</w>
የም ርት</w>
ጆ ሮ</w>
ያ ቀር
ፋ ፋ
በቀ ለ</w>
ጥ ሬ</w>
የሚገ ባ</w>
የሚታ ይ</w>
ለመቀ ነስ</w>
ሰ ጪ</w>
ለ ረጅም</w>
ኝ ት</w>
ጉ በት</w>
ፈ ቅ
ጃፓ ን</w>
የሚ ኖረው</w>
የአ ሜሪካ
እንደሚ ቻል</w>
ታ ጋ
ላ ስ
ካ ሳ</w>
ገ ዝ</w>
ስታዲ የም</w>
ም ዝ
ረ በት</w>
ኃይ ሉ</w>
ቼ ን</w>
የከ ፋ</w>
ለማ ድረስ</w>
አቅር በዋል</w>
እገ ዛ</w>
ጫ ን</w>
ቅርንጫ ፍ</w>
ከ ጥቂት</w>
ይ ነ
የሚ ነ
የሚያደር ጉት</w>
ሥ ጋት</w>
ር ዳት</w>
የሚ ጠይ
ያው ኑ</w>
በእ ሱ</w>
ጅ ና</w>
አብ ዱ
ረ ቂቅ</w>
ቢ ና</w>
ና ፍ
ኒ ው
ቺ ን</w>
ሰብ ሰብ</w>
አበረ ታች</w>
የ በላይ</w>
ክስተ ት</w>
ተ ገል
በ ራት</w>
ያ ብራ
ስተ ዋል</w>
ይዘ ን</w>
በ ጤና</w>
የቻ ይና</w>
ኢንተር ናሽናል</w>
መለ ሰ</w>
በደ ል</w>
ለ ሕዝብ</w>
ባ ንድ</w>
ከ ጎ
ቤተሰ ቦች</w>
እንደ ገለ
ቁ ጭ</w>
አ ደረገ</w>
ፈ ፅ
የአ መራ
ፌዴሬ ሽ
ተራ ራ</w>
በየት ኛውም</w>
ብ ላለች</w>
እ ዬ
በመ ቶ
ያደር ጉት</w>
ክ ብረ
ፈ ርት</w>
መካከ ለኛ</w>
ተቋ ቁ
በቀ ል</w>
ያስች ላል</w>
አን ድን</w>
ከን ቱ</w>
ይ ደር
የህ ብረተሰብ</w>
የ ወደ
ባለ ሃብ
ነ ው
አ ያስ
ኪ ዳን</w>
በመ ጥ
መብ ራት</w>
ሲ ታ
ገ ዛ
የተ ን
ጊዜ ያዊ</w>
ነጥ ቦች</w>
0 0
ስ ሙ
እነ ዚህም</w>
ቀ ላ
ታ ቅ
ች ኝ</w>
ን ቶ
መጥ ተው</w>
እውነ ታ</w>
ማ ው
ራ ውን</w>
ከ መንግሥት</w>
አር ሶ
ት ድ</w>
እየተ ባለ</w>
ለ ሰው</w>
ክፍ ት</w>
ኢንተር ፕራ
አክ ራ
ከ መሆኑ</w>
ድ ስ</w>
ዘር ፉን</w>
ብቻ ውን</w>
አር ብቶ</w>
ምል ክ
አይኖ ርም</w>
ህ ጋዊ</w>
ልጣ ን</w>
መዘ ገቡ</w>
ማህበ ሩ</w>
የአካባ ቢ</w>
3 6</w>
a ti
ቸ ዋለሁ</w>
ጋ ገር</w>
ው ሎ</w>
መር ህ</w>
ሌ ሊት</w>
ዕ ጣ</w>
ዞ ች</w>
አገ ኘ
ሱ ስ</w>
ስለ ዚህም</w>
በ ነፃ</w>
ተቀ ና
ሬ ዲዮ</w>
ተ ጎ
ዬ ም</w>
ፈ ት
በመ ያዝ</w>
ዲሞክራ ሲ</w>
ስያ ሜ</w>
ት ዝ</w>
ኗ ኗ
ይዘ ት</w>
ምሥራ ቅ</w>
ለአብ ነት</w>
ሰ ሜን</w>
እ ምሮ</w>
ዘ ፈ
ፉ ክክር</w>
ፋ ና</w>
ይገባ ዋል</w>
ወዲ ያው</w>
ያው ቃል</w>
ጣቢያ ዎች</w>
ለ ፊት</w>
በ ምርጫ</w>
ዳ ያስፖ
የሚ ደ
ጥና ቶች</w>
ይፈል ጋል</w>
ሁ ድ</w>
ል ናል</w>
ቀ ቱ</w>
ሰ ሙ</w>
የሕ ክምና</w>
ች ሎት</w>
ገ ዛ</w>
ይኖር ባቸዋል</w>
ለ ሽ</w>
ሆ ኜ</w>
ወ ግ
ዘ ዴ
አላ ውቅም</w>
ቀ ል
ፍ ጻ
የተ ደ
ይልቁ ንም</w>
የባ ቡር</w>
ተኮ ር</w>
የት ኛው</w>
ሆና ለች</w>
ገጽ ታ</w>
በተቃ ራ
ሻ ና</w>
በ ሰማይ</w>
ው ጣ</w>
መገለ ጫ</w>
አያው ቅም</w>
ዕድ ን</w>
ጠቅ ሰው</w>
1 4
መ ከራ
ረ ናል</w>
ገኘ ት</w>
ው ቀው</w>
ፍ ሪካ
አል ባ</w>
መ መለስ</w>
ፌዴ ሪ</w>
ኢህ አዴ
ታ ዛ
እ ሳቸው</w>
የ ቅርብ</w>
ያ ተኮ
ገለ ግል</w>
የተባለ ውን</w>
ሷ ም</w>
ጠ ዋት</w>
ይገኙ በታል</w>
በአ ዋ
ደር ሱ</w>
የተወሰ ኑ</w>
ከ አምላክ</w>
መቀ ነስ</w>
ትምህር ትና</w>
ዳይሬ ክተሩ</w>
የተሰማ ሩ</w>
በ ራ</w>
እ ኖ</w>
ጣ ሊያ
አል ነበ
ሰ ናል</w>
ታ ቸውም</w>
እንደ መሆኑ</w>
ባህ ሪ</w>
ባ ልም</w>
ድ ግ
ለመ ረዳት</w>
መስ ቀል</w>
ደራ ሲ</w>
ራሳ ችንን</w>
ሚ ዲያ</w>
ነ ጭ</w>
የ ዱ
ዘ ና</w>
ይ ቆ
ፋ ሉ</w>
ማም ጣት</w>
ኝ ታ</w>
ላ ን</w>
ሸ ማ
ጥና ትና</w>
ለ ዘላለም</w>
ሊ ኖር</w>
ት ዝ
እንጀ ራ</w>
ሦ ስተኛው</w>
ከ ሞት</w>
ክ ሩ</w>
ከ ያህዌ</w>
ው ት</w>
አን ጋ
የማ ኅ
መ ውን</w>
ግ ቦች</w>
ለ ጥ
ል ውው
ዘ ይ
እያ ደረጉ</w>
ኦሮ ሞ</w>
የ ትና</w>
ደህ ና</w>
ግምገ ማ</w>
መ ላለ
ተ ኛና</w>
3 8</w>
ረ ኛ</w>
ከ ደ
ህዝ ባዊ</w>
ሥፍ ራ</w>
እ ናገ
የሚ ደረግ</w>
መንቀሳ ቀስ</w>
ቀረ በ</w>
መ ሥራ
የት ኛውም</w>
ይጠቁ ማሉ</w>
ሽ ብር
ቦ ቹ</w>
አ ቡ
ፋብሪካ ዎች</w>
የ ነገ
ጢ ር</w>
ታ ለሁ</w>
የ ጊዜ</w>
ተቃዋ ሚዎች</w>
4 00</w>
ሊ ሆኑ</w>
የ ግንዛቤ</w>
መንግሥ ትም</w>
ልጆ ቻቸው</w>
ኤጀን ሲው</w>
ሐ ሴ</w>
አቀ ረ
ብር ቱ</w>
አምራ ች</w>
ይነገ ራል</w>
ማ በረታ
ይቀጥ ላል</w>
የ ቤተሰብ</w>
ይ ሠራ
የተ ደራ
ቀር ብ
በቀጣ ይም</w>
የላ ቸውም</w>
ጸ ሎት</w>
አገልግሎ ቱን</w>
ሰባ ሰብ</w>
ሬ ዎች</w>
ሳ ስ</w>
ተስ ማ
ውድድ ሩን</w>
አሸ ን
ያዕቆ ብ</w>
ሥ ልጠና
ስ ደት</w>
በ ቦ
ከ ሞ
ካ ው</w>
ተማ ሪዎችን</w>
ዳ ሪ</w>
ግ ዚ
አር ባ</w>
በ ጉዳዩ</w>
ድ ዋ</w>
ፍ ጥነት</w>
መስ ዋዕ
ብሔረሰ ቦችና</w>
ል ዑ
ዳ ሴ
በደ ስታ</w>
አደረጃ ጀት</w>
የሰ ው
ልጠ ን</w>
እንቅስቃሴ ዎች</w>
ጉ ልህ</w>
ጣ ሊያ</w>
ጠቀ ሙ</w>
ከ ወዲ
ፋ ክቸ
ፖ ር
ቤተሰ ቡ</w>
0 ዎቹ</w>
ነ ቅ</w>
ኮ ት</w>
1 5
ባ ደረገው</w>
ጸ ን</w>
ምቤ ላ</w>
ካ ሳ
ብረ ቱ</w>
ከ ፈለ
ይ ጀም
ኪ ሳ
ጠየ ቁ</w>
ቢ ዝነስ</w>
እንግሊዝ ኛ</w>
ም ደ
የተ ሻ
አባ ቱ</w>
በት ኩረት</w>
ሪፖር ቱ</w>
ሰ ል
ለመ ጠቀም</w>
አባ ቴ</w>
ወዳ ጅ</w>
ውጣ ጡ</w>
አብርሃ ም</w>
ከ እኔ</w>
ማስተ ማር</w>
ባለቤ ትነት</w>
ቀ ች</w>
ነ ቷ</w>
ጠ ብ</w>
ወጣ ቶችን</w>
የ ኪራይ</w>
አብዛ ኛውን</w>
ሃ ብ</w>
ን ሽ</w>
ክ ምና
ዳ ችን</w>
ሐ ስ</w>
በ ሐ
ብ ሮ
በአ ደ
ማስ ጠንቀ
ሞክ ር</w>
ብርሃ ኑ</w>
ተ ጓ
ዊ ቷ</w>
ድ ሪ
ጋ ቢ</w>
ያደር ገዋል</w>
ከዚ ሁ</w>
አ ረጋ
እንቅ ልፍ</w>
ገለግ ሉ</w>
በ ዞኑ</w>
የ ሊ
የ ወንጀል</w>
አፈ ፃፀ
ዘ ል
መሰ ና
መረ ጋ
ጫ ማ</w>
የሚ መስ
ዓይ ነቶች</w>
አ ጭር</w>
ወ ክ
ቋ ረ
ከናወ ነው</w>
በ ሕይወ
አመ ላ
ወዲ ያውኑ</w>
ካን ሰር</w>
ለማ ጠናከር</w>
ምክንያ ቱ</w>
ር ብር
የሚሰ ጡ</w>
በማን ኛውም</w>
ሲ ን</w>
ስ ጋ
አ ቸው</w>
ዙ ን</w>
ጎ ዳ
ጣ ሊያን</w>
ሯ ን</w>
ጠ ፍ
ወቅ ም</w>
ክህ ሎት</w>
ሚካ ኤል</w>
ሊ ባል</w>
ከ ሦስት</w>
ጣ ጥ
ሰር ቪ
ፐብ ሊክ</w>
ተደራ ጅ
ወ ቁ</w>
ያ መ
ያ ጋጠ
በመ ሄድ</w>
መስ ሎ</w>
ሳሙ ኤል</w>
የም ለው</w>
ከመ ቶ</w>
ነ ር
ፆ ታ</w>
ብራ ዚ
ታደ ሰ</w>
ተጫዋ ች</w>
ኖር በት</w>
አስደ ናቂ</w>
አድማ ስ</w>
የተ ወ
አደ ገኛ</w>
በ ሆ
ይኖ ራሉ</w>
ቅ ንና</w>
የማ ሳ
አጠና ክሮ</w>
የሆኑ ትን</w>
ሉ ኝ</w>
ቆ ራ
በ ዝ
የሚ ፈጥ
በመ ውሰድ</w>
የእር ሻ</w>
ከ ትል</w>
የ ቡና</w>
በማ ሰብ</w>
ፈጸ መ</w>
መር ሃ</w>
ፋብሪካ ው</w>
አውሮ ፕላን</w>
ብ ና
ሶ ን</w>
በመ ጨረሻ</w>
ሆስፒ ታ
ዘ ገ
ለመ ደው</w>
ባለ ች</w>
በ ድም
የሚያደር ጉ</w>
ሆስፒ ታሉ</w>
ረ ድ
በመ ግለጽ</w>
የህ ዳሴ</w>
ትእ ዛዝ</w>
ረ ግ</w>
ቅ ስ
የ ሠራ
ፌ ስ
የተ ያያ
ውይይ ቱ</w>
ባ ቀረ
ብ ታ
ከ ሆኑ</w>
ጠብ ቆ</w>
በ19 8
ሽማግ ሌዎች</w>
ሳ ለሁ</w>
ከ ሁሉ</w>
ያለ ምንም</w>
ማ ና
ረ ዥም</w>
በመ ነሳት</w>
በ ሀገሪቱ</w>
ካ ት
ባለ ሁ</w>
መሆ ኗን</w>
ወን በር</w>
ፍት ሃ
የገ ጠር</w>
የመ ፍት
በር ከት</w>
ማን ኛውንም</w>
ጠብ ቀው</w>
ም ስ</w>
ና ንት</w>
የጎ ደ
ለ ዘመናት</w>
ከ ለ</w>
ማለ ፍ</w>
ጤና ማ</w>
ካ ፈል</w>
ያ ም
ጨ ን
እድ ሜ
የመ ጡ</w>
እየተ ካሄደ</w>
አደረጃ ጀ
የ ፓ
ዘመ ና
መሰ ብ
ቀ ሳ</w>
ገ ነት</w>
ጉ ልበት</w>
ፓር ክ</w>
ተግ ዳ
ለ እኛ</w>
ጽ ና
r i
ለ ጊዜው</w>
ዩ ናይ
ዎ ችንና</w>
ገ ም</w>
ፈ ታ</w>
ገበ ያው</w>
በመስ ራት</w>
an d</w>
በ የአ
ነ ጻ</w>
ው ያንን</w>
ዳ ደር</w>
እር ስ
መድኃ ኒ
ለ አምላክ</w>
ሪ ዮ</w>
ሲ ገል
ቢ ኖር</w>
ባ ቡር</w>
በመ ልካም</w>
ታዳ ጊ</w>
ህፃ ናት</w>
ባይ ል</w>
ሸ ዋ</w>
ክል ና</w>
ማኅ በረሰብ</w>
ፍትሐ ዊ</w>
ዋ ሚ</w>
ድ ስት</w>
የተ ላ
ከሚ ገኙ</w>
ታደ ግ</w>
ቃ ን</w>
በ ሲ
በ እግር</w>
የ ለ</w>
የ ኢህአዴግ</w>
ጠ ላ</w>
ሳይ ያስ</w>
ኃጢ አ
ማ ችን</w>
የ ቱን</w>
ደ ስታ
ዶ ሮ</w>
የተ ጻ
ውል ድ</w>
ባለሥልጣ ናት</w>
s t
ሃ ገር</w>
ቤ ቶችን</w>
ስራ ዎችን</w>
ይሄ ንን</w>
ሰብሳ ቢ</w>
ትዕ ግ
በ ሦስት</w>
ብ ሪ
ቻ ው</w>
የ ፋ
ዴ ኤ
ታወ ቁ</w>
ጥር ጥር</w>
ከወዲ ሁ</w>
በ ሬ</w>
በ ሞት</w>
ብ ንም</w>
ው ታል</w>
ተመ ዝግ
ሁ ከት</w>
ካ ሉት</w>
የ ጠበቀ</w>
ተነ ግ
ከ እነሱ</w>
ዘጋ ጁ
ህ መም</w>
ሲ ነ
ት መት</w>
ጠበ ቁ</w>
ዲዛ ይን</w>
መ ማር</w>
ተ ገንዝ
ና ም</w>
የ ብሔራዊ</w>
አይ ችሉም</w>
የሰ ጡት</w>
ተገ ና
እድ ገ
በአማ ራ</w>
ኑ ፋክቸ
ለማ ከናወን</w>
መጽ ሔ
ባ ሌ</w>
እ ሴት</w>
የ ዚ
ይ ል</w>
የው ኃ</w>
ተደራ ሽ</w>
1 2
ለ ገበያ</w>
የ ሁሉም</w>
እንዲ ያደርጉ</w>
ዘግ ቧል</w>
ከፊ ል</w>
3 9</w>
4 2</w>
መ ጣም</w>
ሰ ጪ
ጋ ዬ</w>
የሚ ባሉ</w>
ልጠ ኛ</w>
ሳ ካ</w>
ጧ ቸው</w>
በሰ ጠው</w>
አሠ ልጣ
ይፈጥ ራል</w>
ዎ ቻችን</w>
ገ ፅ
ሰበ ብ</w>
ሳይን ስና</w>
ሚ ውን</w>
ሮ ውን</w>
ስ በው</w>
ን ጥ
የሚ ስተዋ
ከ ሰው</w>
ጩ ኸ
በሚ ደረገው</w>
ጭን ቀት</w>
ል ምም
ክ በር</w>
ውጤ ቱ</w>
አሳስ በዋል</w>
ሄ ድ
መ ላው</w>
ሸ ቀ
እ ራ
በአ ምስት</w>
እንዳ ላ
ብ ስ</w>
ለማሳ የት</w>
ጣ ሪ</w>
ያደረ ጉ</w>
አጠ ገብ</w>
በሁ ዋላ</w>
ና ጋ
ሥራ ቸው</w>
ገለ ጹ</w>
ገነ ቡ</w>
አጥ ብ
ለ ድ</w>
ቆ የት</w>
ቢ ሆኑ</w>
ጥቅ ምት</w>
አስገ ራ
ራ ቶን</w>
ጀ ግ
አገልግሎ ቶች</w>
መዋ ቅ
እና ው
አገልግሎ ቱ</w>
ቀ ይ
ከ አምስት</w>
ጎ ት</w>
ትል ልቅ</w>
ተወካ ይ</w>
የሚ ቻለው</w>
በሽ ታዎች</w>
ስ ም
ስ ፋ</w>
ወ ራ</w>
የ ወጣው</w>
በተ ሰ
ችኋ ለሁ</w>
ስህ ተ
የ ድርጅቱ</w>
በህ ገ</w>
ሜዳ ሊያ
ሞ ል
ሲ ሉም</w>
ሹ ራ
ቆ ሮ</w>
አማካ ሪ</w>
ስለመ ሆኑ</w>
ት ቶ</w>
ከ ዋ
የሚገ ቡ</w>
ና ችሁ</w>
ው ሃ
በመ ር
የሚታ ዩ</w>
አ ሮ
ማዕ ከሉ</w>
ሜ ት
ብ ቁ</w>
አ ባ</w>
o u
የተቀ ና
ሸ ጥ</w>
ዕ ቃዎች</w>
ለማ ሻሻል</w>
ከበ ሩ</w>
የኤር ትራ</w>
ከ የት</w>
ው ንት</w>
ድን ገ
ትላ ልቅ</w>
ሊ ድ</w>
ሚ ን</w>
ሳ ች</w>
ካ ፈ
ጥ ሩ
መለ ሰ
ተሰ ም
ጸ ባረ
ነበ ርና</w>
ለመ ኖር</w>
መ ፍታት</w>
ይሻ ላል</w>
አስተባባ ሪ</w>
የሚያ ን
አሳ ሳቢ</w>
አስተዳደር ና</w>
መ ጠ</w>
ቀ ረት</w>
ጓ ጓ
ከ ቀረ
በመ ጪው</w>
ኢንተር ኔት</w>
ነገ ረ</w>
ደር ሶ</w>
አድር ጐ</w>
የመሰ ረ
በ ደረ
በ ዝርዝር</w>
እ ባክ
ወደ ኋላ</w>
ስተዋ ወቅ</w>
ሙ ትን</w>
የቀረ በው</w>
ኛ ዎቹ</w>
ያስ ቀ
አል በ
ረ ዱት</w>
ጉድ ለት</w>
ዊ ውን</w>
ይ ወጣ
ሜዳ ል
ጭ በር
ዘር ጋት</w>
ጠና ከረ</w>
ልቦ ና</w>
ሴ ት
እ ጁን</w>
ይ ሉ
መምጣ ቱን</w>
ፍልስፍ ና</w>
ቅ ራ
ቢ ባል</w>
ባ ዶ</w>
የቆ የው</w>
ቃ ይ</w>
ቢ ሮው</w>
ሊቀመን በር</w>
ማ ኝ</w>
ህ ብረተሰብ</w>
በጥ ቅ
ጠይ ቀዋል</w>
ዓ ለማ
ለማ ድረ
ለ ጥ</w>
ለ ሪፖርተር</w>
በ ሊ
ኑ ና</w>
ነገ ረው</w>
ለመቅረ ፍ</w>
ረ ኝ</w>
ቅ ጣ
ተ ናገ
የ ሀገር</w>
ድር ቁ</w>
በስ ብ
አንበ ሳ</w>
መ ኛ</w>
ባ ይሆ
ተዋ ና
እንዲ ኖረው</w>
መስ ማት</w>
በ ላቸው</w>
ጉ ና</w>
ገብ ረ</w>
ሳይን ሳዊ</w>
ሆኑ ና</w>
ወሰ ዱ</w>
ድም ፃ
ገኛ ለች</w>
ጎ ልበት</w>
የሚ ን
ስላ ሚክ</w>
ተላለ ፍ</w>
በ ሕዝብ</w>
ተ ሾ
ክ ፈል</w>
እንዳ ን
ጨር ሶ</w>
ዋነ ኛው</w>
መልዕ ክ
በ ሻ</w>
የ ኪ
በመ ግባት</w>
ባለሙያ ዎችን</w>
ተጠበ ቀ</w>
ሕ ገወጥ</w>
ም ረጥ</w>
ቢ ራ</w>
ዳ ም</w>
ት ላለች</w>
ከ ኢ
ጣ ሚ</w>
ለ በርካታ</w>
በ ሀ
ረ ገ
ስ ቲ</w>
ግባ ባት</w>
ማ ቅረ
ዘ ነ
አብራር ተዋል</w>
በተ ቀ
ሊ ያሳ
የ ሕዝ
የ ሁለቱ</w>
ይ ስተዋ
ኢትዮጵ ያም</w>
ስራ ውን</w>
ጨ ለማ</w>
ለሚ ያ
የ ሀ
የመ ነ
ብ ነት</w>
ን ጀ
የ ራሳቸው</w>
እን ክብካቤ</w>
ርብር ብ</w>
በ ፍቅር</w>
ጭ ና</w>
ፀ ው</w>
ግብ ዓት</w>
ሄ ዳ
በተ ገቢው</w>
አለ ሁ</w>
ሁኔ ታዎችን</w>
ተመል ካ
ሃ ድሶ</w>
ሬ ሽኑ</w>
በ ከተማ</w>
በ ህዝብ</w>
ካ ሜ
አል ጋ</w>
መሥዋዕ ት</w>
ክ ሱ</w>
ድ ቡ</w>
ጥር ጣ
በ ጽ
ኛ ቸው</w>
ላ ና</w>
ሎ ጂ</w>
ዘመ ድ</w>
መንስ ኤ</w>
ህዝ ቡን</w>
በዘ ላ
ሲ ቀ
ከ 200
የነበ ሩትን</w>
ካለ ፈው</w>
አገልጋ ዮች</w>
ኮ ችን</w>
ደ በት</w>
መረ ጡ</w>
ማድረ ጉ</w>
ተጨዋ ቾች</w>
ለ ግ
ዳ ኝ</w>
ጥ ረው</w>
ፐ ር
ፈጸ መው</w>
ጫወ ቱ</w>
ሊ ታ
በ ቁጥጥር</w>
የተ ራ
ገንዘ ብና</w>
የትራ ፊክ</w>
ሰ በው</w>
ያህ ሉ</w>
ማስ ረጃ
ባለሙ ያው</w>
መኖ ራቸውን</w>
አውሮ ፓ
ቃወ ም</w>
ፈ ጥር</w>
የተ ናገረው</w>
አብዮ ት</w>
ረ ብ
ስ ነ
የ ኢየሱስ</w>
ድር ን</w>
አ ያ</w>
የተ መሠረተ</w>
ጠብ ቁ</w>
ዕው ቅና</w>
የ እንግሊዝ</w>
ዘ ነጋ
እንዲ ኖ
ፌደ ራል</w>
በ ሁለቱም</w>
ተ ቆጥ
ክት ት
ል ባቸው</w>
ሲ ደርስ</w>
የአ ፈ
የአ ቅም</w>
ኮን ዶ
ለ በ
ለ እ
በ ኞች</w>
በ ሩን</w>
ኢኮኖሚ ው</w>
ኢንቨስት መን
መ ቀበል</w>
ፀ ጥታ</w>
የበ ለ
ሚ ንቶ</w>
አቋ ር
ዋ ጋ
ትራ ምፕ</w>
ማ ነስ</w>
እ ጥፍ</w>
ጭ ማሪ</w>
ክል ላዊ</w>
ቀጠ ሮ</w>
ለ ትን</w>
ሲ ቲ</w>
የ ኩ
ስለ ሌ
1 7
ራ ቱ</w>
ያ ዎችን</w>
ለመ ድረስ</w>
የም ስ
ስፖ ን
ማኅ በራት</w>
ዎ ት</w>
ደ ደ</w>
ሰማ ው</w>
ሐዋር ያው</w>
አምል ኮ</w>
ሸ ለ
በ እርስ</w>
ቻ ይ
ግራ ም</w>
በ200 7</w>
ተ ኞቹ</w>
የ ብር</w>
አስ ገንዝ
የ ኢን
ገለ ል
ተወ ላ
አልቀረ ም</w>
መታ የት</w>
ሩ ኝ</w>
ታ ክስ</w>
በረ ክ
ሙስ ሊ
ኔ ት
ያ ዝ
ቀጥ ሉ</w>
ኮርፖ ሬሽን</w>
ታ ሳቢ</w>
ኤ ምባ
የመ ሠረ
ላ ቱ</w>
ረ ስ</w>
ከ እኛ</w>
ዕ ድ</w>
የተ ገኙ</w>
ተጠ ቀ
ታሪ ካ
ሰ ቀ
የ እርስ</w>
ሀ ል</w>
መ ራው</w>
የተ ባሉት</w>
መጠ ቀ
የህ ይወት</w>
ያስፈል ጋ
ማር ቆስ</w>
ተግባራ ትን</w>
የ ኔ</w>
መንግሥ ትና</w>
በል ዩ</w>
ሪያ ዎችን</w>
ትን ቢት</w>
በ ገንዘብ</w>
አ እም
ብሔ ሮች</w>
ማስታወ ቂያ</w>
ሲ ን
ኦ ር
ኮ ም</w>
በአው ሮፓ</w>
የሚ መጡ</w>
ከተ ሞ
በ ሕገ</w>
የ ታወቀ</w>
አስ ከባ
ስላ ለው</w>
ዩናይ ትድ</w>
ሰ ዎችም</w>
ሽ ብር</w>
ን ታ</w>
ይ ግባ
ዴ ል</w>
ከ ቤት</w>
እ ሁድ</w>
አምባ ገነ
ይ ይት</w>
ዳ ኞች</w>
የሚ ደረ
መንግስ ታዊ</w>
ባለመ ሆኑ</w>
መዋ ቅር</w>
ተሳታ ፊዎች</w>
ቶ ቻቸውን</w>
ከ ሳ
ፈ ቱ</w>
ብሄ ረሰ
ዘወ ትር</w>
ሰ ፍ
አስ ፋ
ተቀ ብሎ</w>
ሃይማኖ ታዊ</w>
ሌላ ውን</w>
አልቻ ሉም</w>
እ ለት</w>
እን ቁ
ግን ብ</w>
ልጆ ችን</w>
ቆይ ተዋል</w>
ይዞ ታ</w>
ሜ ጋ</w>
ከ ልብ</w>
ደ ዱ</w>
ለመ ጠበቅ</w>
እር ካ
ኃላፊ ው</w>
ወስ ዶ</w>
መደረ ጉን</w>
e s</w>
ም ሕ
ኢ ሳይያስ</w>
የ ፍርድ</w>
ድ ካ
የተ ገኘ</w>
ተልዕ ኮ</w>
ነገ ሩን</w>
ምዕራ ብ</w>
ኢዮ ብ</w>
ሙ ያ
በ ጠ
ነ ጻ
ማኅ በራዊ</w>
ውያ ኑ</w>
የ ያዘ
ልማ ትን</w>
ወቅ ትም</w>
በረ ሰ
ስታ ድ
ዕ ቃ
ወዳ ጄ</w>
ለ ቱ</w>
አ ሽ
ወጣ ቶችና</w>
ተስ ማም
የቻ ለው</w>
ኢ ያ
ካ ሔ
ዑ ዲ</w>
የሆነ ችው</w>
እኛ ን</w>
ባ ይኖ
ክ ላ
ገ ቢ
ገ ቡት</w>
ፋ ሪ</w>
ለመ ናገር</w>
በም ዕራ
ያ ቀ
ወዳ ደር</w>
ከላከ ልና</w>
ቱሪ ስት</w>
ል ባ
ው ቅ</w>
መዘገበ ው</w>
ራዕ ይ</w>
6 5</w>
ቀ ቁ</w>
የወ ረ
ታ ቸውና</w>
ጉ ር
ጥ ላ</w>
የተ ውጣጡ</w>
አሳ ዛ
ከአ ራት</w>
ኤል ያስ</w>
ማሻሻ ያ</w>
መም ጣት</w>
አህ መድ</w>
ቲ ያ</w>
ጉ ል
ፈለ ጉ</w>
ማ ኔ
የ ሁለት</w>
ልጆ ቻቸውን</w>
የ እና
አገ ዛዝ</w>
አዳ ማ</w>
ላ ምና</w>
ሙ ስ</w>
ቆ ሮ
በ ነፃነት</w>
ኛ ዋ</w>
ወ ዲያ</w>
ኑፋክቸ ሪንግ</w>
ላ ለው</w>
ዕቅ ዱ</w>
ንጉ ሠ</w>
መ ፃ
ሻ ቸው</w>
አ ፍ</w>
ግብ ረ</w>
ደመ ወዝ</w>
in g</w>
ለ ብዙ</w>
መ ቆጣጠር</w>
ቅ በት</w>
የ ከተማው</w>
በአ ራት</w>
ግብ ና</w>
በየ ቀኑ</w>
መሐ መድ</w>
ወ ታ
ጎ ና
በት ግራይ</w>
ሰሞ ን</w>
መ ቋቋም</w>
ሺ ዎች</w>
ሆቴ ሎች</w>
ተካ ሂ
ይ ቀር
የሚ ጠይቅ</w>
በሰ ሜን</w>
ደንበ ኞች</w>
ሪ ያም</w>
ባ ባ</w>
ደ ፍ
ማ ማ</w>
ረ ድ</w>
በ ሀገር</w>
ቡ ክ</w>
ታ የው</w>
አፈ ር</w>
ስፋ ፋ</w>
የ እድገትና</w>
የሚ መለከታቸው</w>
ሪያ ቸው</w>
የለ ኝም</w>
ትር ጉ
ሶ ቹ</w>
ዳ ም
ግብ ዓ
ባይሆ ንም</w>
ክ ሌ
የ ፈረን
ጋ ችሁ</w>
የተ ደረ
ለመ ቀበል</w>
ኢንዱስት ሪዎች</w>
ይሄ ዳል</w>
ታ ም
ፈረ ስ</w>
ስር ጭት</w>
ወጥ ተው</w>
4 8</w>
የሚያ ረጋግ
በም ሳ
መዘ ግ
i t
መ ባ
ስ ቷል</w>
ጅ ማ</w>
እየ ሰራ
ማስ ከበር</w>
ማን ሳት</w>
ቋንቋ ዎች</w>
ስርዓ ቱ</w>
ጉባዔ ው</w>
ነ ቶችን</w>
ቀበ ሉ</w>
አሉ ላ</w>
a n</w>
ብ ረ</w>
ኛ ን</w>
አብ ረን</w>
ክፍተ ቶች</w>
ይ ዛ
የተ ሟላ</w>
አል ሸ
አድር ጌ</w>
የሚሰ ሩ</w>
ደጋ ፊዎች</w>
መ ሃል</w>
በ ዋነ
በ ቅድሚያ</w>
አ ቃ
መን ደ
ሜ ት</w>
ሳ ለች</w>
ች ን
ፍ ታ
የደ ን</w>
ሁ ና</w>
ሶ ስተኛ</w>
በ ጊዜ</w>
a t
ነ ቴ</w>
ማድረ ጉን</w>
ተጋ ላ
አራ ተኛ</w>
ድረ ው</w>
ሐዋር ያት</w>
ያላ ትን</w>
ተመል ሶ</w>
ሆን ኩ</w>
ገኝ በት</w>
መ ዘጋጀ
ሥ ነ
ከት ናንት</w>
መረጃ ዎችን</w>
ለ ይ</w>
ከ 20</w>
ስ ኳር</w>
ቶ ም</w>
መቅ ደ
እየታ የ</w>
ናይጄ ሪያ</w>
ቆ ን
ተ ከፍ
የ ፍቅር</w>
ቀር ቦ</w>
ተመል ካች</w>
ቁ በት</w>
በ ግብርና</w>
ብ ላችሁ</w>
አ አ</w>
በህ ግ</w>
ንቶ ስ</w>
የነ ዳጅ</w>
ይገልፃ ሉ</w>
7 5</w>
ለ ነገሩ</w>
መ በት</w>
በ ንግድ</w>
ያደረ ግ
ምል ልስ</w>
የኢ ፌዴሪ</w>
ማስጠንቀ ቂያ</w>
ድንገ ተኛ</w>
መ ዝ</w>
ና ሽ</w>
የ ር
የ ሙ</w>
ጭ ብ
ሂ ሳብ</w>
ኅ ንነት</w>
አ ደርጋ
ስቲ ቫ
ፈተ ሽ</w>
ባሕ ር</w>
ለ ውጭ</w>
ገ ፅ</w>
ለ አገሪቱ</w>
መ ባ</w>
ተ ላ
እ ፈልጋ
በተ ወሰነ</w>
ለመ ሄድ</w>
የ ከተማዋ</w>
ሁለ ን
የገ ጠ
ጡ ረታ</w>
በተ ፈጥሮ</w>
ዘር ግ
ጥያቄ ው</w>
4 1</w>
ና ውያን</w>
የ ሴት</w>
ጠ ራ</w>
በአ ዲሱ</w>
ዚህ ች</w>
ማለ ቴ</w>
የመሳሰ ሉት</w>
ፈላ ጊ</w>
ሞ ና</w>
ስ ኮ</w>
ፋ ጠን</w>
የተ ነሳ
የሚያስ ከት
ማ ውጣት</w>
በ አንፃ
በመ ድረ
ያለ ፈ</w>
ረጋ ጋ</w>
a c
መ ድረስ</w>
ቅ ዳሜ</w>
እ ጃ
ዋ ም</w>
እንዲ ቀጥል</w>
ባለሥልጣ ኑ</w>
ንጹ ሕ</w>
T h
በ ሪያ</w>
በ ነበረበት</w>
ታ ግ
ት ዳ
ኩ ትን</w>
ፆ ች</w>
ውስ ጥና</w>
ከተ ሉ</w>
ሕዝ ባዊ</w>
ስን ል</w>
ይቻ ል</w>
ዜጐ ች</w>
የተቀና ጀ</w>
ስቲ ክ</w>
ባል ንጀ
ፕሮግራ ሙ</w>
እያንዳን ዳቸው</w>
የተፈጠ ረው</w>
ሉ ትም</w>
መ ወጣት</w>
የስ ብ
በቅ ን
ኢንጂ ነ
ዋ ሪ</w>
ጎ ንደር</w>
ያለ በትን</w>
ወሰ ደ</w>
አሳይ ቷል</w>
ማ ከናወን</w>
ሰ በ</w>
ቁ ሟል</w>
ግ ሩም</w>
የአ ለም</w>
የአትሌ ቲክስ</w>
ስሙ ኝማ</w>
ም ረው</w>
ት ገኛለች</w>
ያስ ታወ
የጥ ራት</w>
አረ ንጓዴ</w>
እንደሌ ለ</w>
ስ ላለ
ው ኃ
ቀጣ ይነት</w>
የ ጥበብ</w>
ጮ ችን</w>
ለመ ቆጣጠር</w>
20 15</w>
4 3</w>
ህ ል</w>
ቢ ሆኑም</w>
ኤ ም</w>
የ ሃ
ጾ ች</w>
የመ ኖሪያ</w>
ጠና ከ
መዛሙ ርቱ</w>
በነገ ራችን</w>
ባ ልና</w>
አ ሟ
ዓ ቃቤ</w>
ለመ ርዳት</w>
አል ያም</w>
ከ ብር</w>
ደ ሞ
ም ታ</w>
ፌ ስቲቫ
የማ ዕ
ስተ ካከ
ሚ ስተር</w>
ነ ቃ
እንዲ ታ
የሰ ጠ
ይታ መናል</w>
ለይ ቶ</w>
ለ ሙ</w>
የ ለውጥ</w>
ጨ ብ
የተ መሰረተ</w>
ለመ ግ
የፀ ጥታ</w>
ምጣ ቱ</w>
ብቸ ኛ</w>
አም ጥ
ግል ፅ</w>
ተረ ድ
ጋ ብቻ</w>
ተቋማ ትን</w>
ር ያው</w>
በ ሀገራችን</w>
አ ሥ
ያደረ ገ
የተሰ ኘ</w>
አስደ ሳች</w>
ሎ ና</w>
ሰ ፈ
በ ዓይ
ባል ደረ
የሚመ ራው</w>
ሳምን ታት</w>
አቤቱ ታ</w>
በ ፍርድ</w>
ፋ ቸውን</w>
ሱ ትን</w>
ፅ ን
በመ ገንባት</w>
እያ ደረ
የወ ጣ</w>
ያመለክ ታሉ</w>
ነ ቢ
የ ቱሪዝም</w>
ምር ቶችን</w>
ታሪ ኩ</w>
ጠባ ቂ</w>
ጎረ ቤት</w>
በጥን ቃቄ</w>
ቁጠ ባ</w>
a l
ሲ ሄድ</w>
ቻ ላቸው</w>
ይ ሞ
ዳ ቦ</w>
ድ ሮ
የሚ ካሄደው</w>
ስር አት</w>
ቀጣ ዩ</w>
ከፋ ፈል</w>
ለ አዲስ</w>
ማ ደ
ተ ና</w>
ሳይ ሆኑ</w>
አማ ራ</w>
በጥ ሩ</w>
ግል ጽ
እ አአ</w>
ዕ ዳ</w>
የ ሻ
የ ፍትህ</w>
ገ ናል</w>
መለ ክት</w>
መገኘ ት</w>
ለ ና</w>
ቆ ሙ</w>
መንገ ደ
ስፖር ታዊ</w>
ነፃ ፀ
መቻ ቸት</w>
ከፋ ፈ
ራ ችንን</w>
ዳ ኛ</w>
ጠረ ጴ
ይጠቀ ሳሉ</w>
ዘገባ ዎች</w>
መ ሻሻል</w>
ሞ ገስ</w>
የተ ያያዘ</w>
የበ ጀት</w>
ሁለን ተና
1 6
በ ምን
ነ ቷን</w>
ዋ ለን</w>
ዜ ግ
ዝማ ች</w>
በ 5
ኬ ሚ
ዩ በት</w>
ምሳ ሌ
ደረጃ ውን</w>
እፈልጋ ለሁ</w>
r o
ተ ፍ</w>
ገና ኘት</w>
ሲ ገባ</w>
ወ ግ</w>
ጎ ድ
መር ሐ</w>
ኛ ም</w>
ኞ ችና</w>
ግ ፊት</w>
ጣ ና</w>
ፈ ራረ
አመ ቺ</w>
መጣ ሉ</w>
የቻ ለ</w>
መ ደረግ</w>
ዑ ስ</w>
አስ ቀድ
ሥራ ቅ</w>
ራረ ብ</w>
በመጥ ቀስ</w>
ል ምና</w>
መ ገንዘብ</w>
ሽ ንና</w>
ኮ ሪያ</w>
በመ ታ
የሚያ ጋጥ
በ ፖለቲካ</w>
የ ክብር</w>
የመ ከላከያ</w>
እናን ተም</w>
ሳን ቲም</w>
ምሩ ክ</w>
ሙ ላት</w>
ወ ተት</w>
የ ከፍተኛ</w>
አይ ቪ</w>
የዘ ር</w>
ጀም ረው</w>
ዎ ቹም</w>
መሣ ሪያዎች</w>
ድ ብ
ፎ ቶ
በሚ ካሄደው</w>
ግለሰ ቡ</w>
በማሳ ደግ</w>
በ ከተማው</w>
ቢ ሎን</w>
ከ ፋ</w>
የ ጠየ
የአ ቶ</w>
በር ክ
በቀጣ ዩ</w>
ጦር ነቱ</w>
ባ ትና</w>
ከ ሌላው</w>
የ ዞኑ</w>
ለጠ ነ</w>
ያስረዳ ል</w>
ሁ በት</w>
ሱ ዳ
ቆ መ</w>
ቻ ለም</w>
ገኙ ም</w>
ጉድጓ ድ</w>
ኦ ዲ
ይ ር
ጎ ል</w>
መስ መ
በሚ ቀጥለው</w>
ተከ ሳ
የሚች ሉት</w>
መፅ ሐ
አውጥ ቶ</w>
ፍላጐ ት</w>
ነ ታችንን</w>
የ ክልል</w>
ለመ ቋቋም</w>
የተሳ ሳተ</w>
ሕን ፃ</w>
ሥ ጋ
ተ ጣ
የ እምነት</w>
የሚ ውል</w>
በማስ ገባት</w>
ድንጋ ጌ
በአማ ካይ</w>
ሕን ፃ
ሪ ያን</w>
ባ ቸውና</w>
ክፍ ሉ</w>
መኖ ሩ</w>
አረጋግ ጧል</w>
የ ከተማ
ጽ ንፈ
ጠቁ ሟል</w>
እህ ት</w>
ልውው ጥ</w>
በ ሴ
የ ዚህን</w>
ፍ ል</w>
በቀ ስ</w>
የበ ጎ</w>
ድል ድ
በ ስራ</w>
የ ዕለት</w>
ፈ በት</w>
ሆን በት</w>
የሚደር ሱ</w>
አክብ ሮት</w>
e s
ደ ች</w>
ዲ ዮ
ከተ ቀ
በአ ለም</w>
ጥያቄ ዎችን</w>
ወያ የት</w>
የመጀመሪያ ውን</w>
ሟ ቸው</w>
አደ ራ</w>
አት ክል
አው ቃለሁ</w>
4 4</w>
e d</w>
ዶ ና
አን ተን</w>
መለ ወጥ</w>
መሆ ኗ</w>
ቆይ ቶ</w>
አድርጎ ታል</w>
4 6</w>
ል ክ
ስ በት</w>
የማ ይገ
ሀገ ሮች</w>
የስ ኳር</w>
አጋ ማሽ</w>
ስል ት</w>
ኪሳ ራ</w>
ሦ ስቱ</w>
ን ደን</w>
የ ሞት</w>
ያ ኑ</w>
በስ ቲያ</w>
ከንቲ ባ</w>
ለ አፍሪካ</w>
ል ሽ</w>
ቆ ሻሻ</w>
በቀ ድ
የስ ነ</w>
አፍ ቃ
አንድ ዬ</w>
መላ ክ
ስ ጤ
ይ ለያ
እንዲ ወጡ</w>
ምር ታማ
በጥ ልቀት</w>
ጠን ቅ
ቤ ትና</w>
ድ ነት</w>
የሚያ ግ
የብ ድር</w>
ፅ ንፈ
እንዲ ኖራቸው</w>
ለመ ወጣት</w>
ተሰ ማር
መረጋ ጋት</w>
የ ሌሎች</w>
የ ዕድሜ</w>
ጥ ል</w>
አል ባ
በል ጡ</w>
ፈታ ኝ</w>
መ ነሳ
ም ቱ</w>
ይ ነሳ
የሚ ጠበቅ
ለመ ውሰድ</w>
የመ ሆን</w>
የጥ ናት</w>
የሙ ስና</w>
አፍሪካ ውያን</w>
ብዙ ውን</w>
ማም ረት</w>
ማ ጠናከር</w>
ጠ ያ
የሚ ጋ
ጠናቀ ቁ</w>
አይሁዳ ውያን</w>
መ ቁ
ም ስራቅ</w>
19 8
ው ብ</w>
ዮ ኖች</w>
ይጠበቅ ባቸዋል</w>
ያ ዊና</w>
ማስተ ር</w>
በውስ ጡ</w>
ኢንጂ ነር</w>
0 ሺ</w>
ሌ ላም</w>
ጎ ር
ጓ ቸው</w>
አይ ቀ
ጠይ ቀው</w>
ሜዳ ው</w>
ሻ ለሁ</w>
ና ዳ</w>
በተ ባለው</w>
የሰ ፈ
ሪያ ል</w>
ሊ ያደር
በዘላ ቂነት</w>
9 7</w>
ቀ ቀ</w>
በ ታሪክ</w>
ተ ቆጣ
ኦ ል</w>
ሰማ ያዊ</w>
አደጋ ዎች</w>
ማዕከ ላት</w>
ተሾ መ</w>
ቃ ለች</w>
ቶ ችንና</w>
ን ፁ
ጃ ን
የመ ጡት</w>
ለ ህ
ላ ታል</w>
ራ ትና</w>
ነ ሰ</w>
ማር ኛ</w>
ማስተ ዋል</w>
ሲ ናገር</w>
ሹ ም</w>
የ መን
ፅ ሁፍ</w>
መ ናገ
ረ ዱ</w>
ይ ለ
በተ ጓ
ጊዜ ና</w>
ያሳ ስ
ደረገ ላቸው</w>
ቆ መው</w>
ነ ዳጅ</w>
ኤ ን</w>
የሚች ለውን</w>
ል ጁን</w>
ለው ጦች</w>
ብሄ ር</w>
ር ሽ
ዳ ጊ</w>
እንዲ ችሉ</w>
መስ ተ
ታወ ቂያ</w>
የት ግራይ</w>
የቆ የ</w>
ለተ ለያዩ</w>
ፈጽ ም</w>
ጥ ሎ</w>
ተጠቃ ሚዎች</w>
ስላ ሴ</w>
ጡ ር</w>
መስ ፍን</w>
ኛ ለን</w>
የ ያዘው</w>
እን ባ</w>
ፈጠ ረ
የራ ስ</w>
ተጠያ ቂነት</w>
ሙኒ ኬሽን</w>
ለ ሌላ</w>
መ ተ
የ እስ
እንደሚ ከተለው</w>
ማስ ጨበ
ደረሰ በት</w>
ቆሮ ንቶስ</w>
ቋ ር
በ ፌዴራል</w>
በተ ከታ
የአ ደ
እስ ኪ</w>
ጠቀ ምበት</w>
6 00</w>
ሥራ ቸውን</w>
ይሄ ው</w>
ሰ ልፍ</w>
ሰ ፈር</w>
ጓ ዙ</w>
ደህ ን
አስገራ ሚ</w>
8 00</w>
በ ሂደት</w>
ባ ቱ</w>
ዮ ሽ</w>
ስ ኩ</w>
በ ወንዶች</w>
ብ ክ
ይ ዛ</w>
የተ ዘጋጀ</w>
አቅ ሙ</w>
ራ ሴ</w>
በ ቱ</w>
የ ሀገሪቱ</w>
ዮ ሐ</w>
የተ ካሄደው</w>
በማ ውጣት</w>
ረጋ ጋት</w>
ሪያ ውን</w>
ቢ ቢሲ</w>
ጆ ር
እንዲ ያው</w>
ስብሰባ ዎች</w>
ብ ጥብ
በመ ላ</w>
ገበ ው</w>
መዝ ና
ተሸ ላ
ሪ ዎችም</w>
ሬ ድ</w>
ቤ ቴ</w>
እየ ሠራ</w>
ወቅ ና</w>
እና ቴ</w>
በ 2008</w>
ዎ ቻቸውን</w>
ዘ ፍጥረት</w>
ፎ ም</w>
የተ ገነ
የዘ ላ
ነ ቀ
በመንግ ሥ
አስፈፃ ሚ</w>
ው ለው</w>
የ ዘርፉ</w>
በግል ፅ</w>
የ ልብ</w>
ግ ባ</w>
ማመን ጫ</w>
የአማ ራ</w>
ል ዶ</w>
ሪ ፍ</w>
ሱ ንም</w>
ገ ጠር</w>
ፋ ይ</w>
ምስ ጋና</w>
ብ ሮ</w>
ት ዋ</w>
ካ ርድ</w>
ሁኔ ታውን</w>
እንግ ዶች</w>
ቢ ታ
እ ጥረ
ገ ዙ</w>
የሚገ ነ
ተቀ በ
ላቀ ል</w>
አዛ ዥ</w>
ኢንስቲት ዩት</w>
ቃ ጠ
ይ ካሄ
ጃ ል</w>
የመ ን</w>
አድር ጋ</w>
ለ ልማት</w>
በ ስ</w>
ታ ዊና</w>
ይ ጨም
እንደ ነበረ</w>
ይታ ያሉ</w>
የአመራ ር</w>
መ ኑ</w>
ቃ ቸውን</w>
በ ሸ
ተ አም
ታ ለን</w>
ከ ትምህርት</w>
በመ ሥራት</w>
ለመ ውጣት</w>
አመ ጣ
ድን ኳ
የስ ደ
አደርጋ ለሁ</w>
በ ሠ
የ ባንክ</w>
ይ መለከ
አማ ር
ሰ ቅ
ፈ ራው</w>
ያስ ከት
ይሰ ራል</w>
አድራ ጎት</w>
ር ማ
ሹ ን</w>
ና ዋ</w>
እኔ ና</w>
ፈገ ግ
ሽ ልማ
ፊ ና</w>
ሰማ ራት</w>
መንገ ዱን</w>
ስፖር ተኞች</w>
አፍሪካ ን</w>
ሩ ዋን
አ ፄ</w>
ጋ ች</w>
ጠ ነ</w>
ጠ ጅ</w>
ገለ ፃ</w>
በ ሃ
ተ ሟ
ተ ረት</w>
ን ቱ</w>
ኪ ን</w>
ዎ ችንም</w>
ጦ ችን</w>
ጭ ንቅ
የተ ፋ
ከተ ለ</w>
እንደሚ ገኙ</w>
ስተ ን</w>
ፈጥ ሯል</w>
አላ ማ</w>
አግኝ ተዋል</w>
ፈን ታ</w>
መ ኳን
ቢ ል</w>
ከ መንግስት</w>
ያ ግ
ለማ ጥፋት</w>
ጀም ረዋል</w>
ሶማ ሌ</w>
i s</w>
ነ ሐሴ</w>
ን ዳ
የ ጻ
የ ክል
ሰብ ም</w>
ዶና ልድ</w>
ረ ችው</w>
ራ ም
ጥ ሮ</w>
ጻ ፍ</w>
ምና ሉ</w>
ኮን ትራ
የ ና
የ ገባው</w>
ጎ ራ</w>
የተ መሠረ
የሚያ ቀር
አዳ ራ
ል ቡ</w>
በ እር
ጠ ፉ</w>
ለመ ታ
ወደ ው</w>
የነ ሐስ</w>
ደብዳ ቤ
ቆ ዩ</w>
ወ ት
ዋ ይ</w>
በአ የር</w>
ደጋ ፊ</w>
የሚፈል ጉ</w>
ባህር ዳር</w>
ሹራ ንስ</w>
ሞ ኑ</w>
በ ፓ
ካ ክ
ው ሰ
ጎ ዳ</w>
በቀ ረ
ይሆ ን
በህ ይወት</w>
በመን ገድ</w>
ባሕር ይ</w>
ሙ ሽ
ሠራ በት</w>
በት ን
መላ እ
ተቋማ ቱ</w>
አስከ ፊ</w>
ባ ለማ
ች ላ</w>
ኒ ስ</w>
የ ጐ
የተ ደረገ</w>
የመ ጠጥ</w>
ሰብ ን</w>
እንዲ ያ</w>
እንዲያ ገኝ</w>
የመስ ኖ</w>
ቴክኒ ክና</w>
ብ ኛል</w>
የአ ፍሪካ
ማን በብ</w>
ሂደ ቱ</w>
5 2</w>
ኞ ቹን</w>
ጭ ሩ</w>
ፋ ፊያ</w>
በእ ዚህ</w>
ር ህ</w>
ሲ ናገሩ</w>
ቀ ድ</w>
የሚ ሠሩ</w>
መል አ
ጠቅ ሶ</w>
ማኖ ት</w>
አይመስ ልም</w>
መ ሃ
በ ዘመናዊ</w>
ኅ ዳር</w>
የሚ ሠ
ዩኒ ኬሽን</w>
መገ መት</w>
ሩ ብ</w>
ከ በር
ከ ብዙ</w>
ከ 10</w>
ተሰ ር
ክተ ሮች</w>
የህዝ ቡን</w>
ሕ መም</w>
ሥ ዕል</w>
መስ ፈርት</w>
እስ ከሚ
ብሔረሰ ቦች</w>
አ ጋር</w>
ወ ርድ</w>
ው ር</w>
አስተ ናጋ
ተን ቀሳ
5 5</w>
ማ ሸነፍ</w>
ተ ዛ
እ ጦት</w>
የ ሰዎች</w>
እንዲ ገቡ</w>
መካከ ልም</w>
ከሰ ተው</w>
የት ዳር</w>
መው ጣ
አ ጫ
ዳ ዎች</w>
በማ ኅ
ዩኒቨር ስቲ</w>
እውነ ተኛው</w>
ከ ምት
የተ ገኙት</w>
አገራ ችንን</w>
ሯ ዊ</w>
ኙ ት</w>
አ ነጋገር</w>
የ ሥልጣን</w>
በተ ቋ
እንዳይ ሆን</w>
ከነ ማ</w>
በ 3
አ ሽከርካ
የሚ ቀር
የተ ሳተ
የመ ቀ
ዓመ ቱን</w>
እየተ ከናወነ</w>
መድሃ ኒ
ባ ታል</w>
ዶ ችና</w>
ፅ ና</w>
ተር ታ</w>
ጸሐ ፊ</w>
ሁ ከ
ሩ ንም</w>
ተ ካ</w>
ን ገ
ይ ጥ
ሰ ም</w>
ሰ ሱ</w>
ቁ ጣ</w>
ጠ ባበ
ተነ ስተው</w>
ሁለንተና ዊ</w>
ሂ ድ</w>
ሊ ሰ
እው ቀ
ነጋ ዴ</w>
5 4</w>
e c
ቡ ዕ</w>
ው ዝ
የ ሮ
ብራዚ ል</w>
ሏ ን</w>
ረ ሰብ</w>
በ በርካታ</w>
ብ ርና</w>
እንደ ሆነና</w>
በማ ዘጋጀት</w>
ም ዶ</w>
ክ ቡር</w>
የሚ ዲያ</w>
ለመ ግዛት</w>
የሚያ ከናው
ስለሚ ያ
ስፍ ራዎች</w>
ዮር ክ</w>
ቫይረ ሱ</w>
ለማ ካሄድ</w>
የአ ዋ
ደግ ና</w>
ድህ ነትን</w>
አገራ ቱ</w>
መ ጨመር</w>
በ ብሔራዊ</w>
ጠ ም</w>
በአ ካል</w>
አባ ቶች</w>
ቀጥ ሏል</w>
ቢ ያን</w>
እ ሰ
ወ ሓ
መሰ ለኝ</w>
የጥ ፋት</w>
ተ ስ</w>
ከ ህ
ፍ ቱ</w>
ፎ ቅ</w>
በመ ለየት</w>
የአ ምስት</w>
እየ ሰሩ</w>
በሰ ፊው</w>
ታይ ቷል</w>
የተያያ ዙ</w>
በ ልማት</w>
በ አገልግሎት</w>
አ ክለ
ድ ሬዳዋ</w>
ጠ ቅ</w>
የአ ሁኑ</w>
ክትት ልና</w>
ላ ለመ
ጡ ኝ</w>
መስ ረት</w>
በረታ ታ</w>
4 7</w>
ዝ ቃ
የሚ ቻ
የሚ መጣው</w>
እንደሚ ያደርግ</w>
ተመ ራጭ</w>
አርቲ ስት</w>
መ ከተል</w>
ም ሰ
ሻ ውን</w>
ኔ ው</w>
የ ዕድገት</w>
ያ ምናሉ</w>
ጢ ሞ
የሚ በ
የሚ ኖር</w>
ታወ ስ</w>
በዚ ያም</w>
መንግስ ትና</w>
ለ ገ
ብሔ ራት</w>
ወገ ኖ
እንዲሰ ጥ</w>
i c
ዕ ብራ
እንደ ነበሩ</w>
መስ ፈር
እንዳ ይገ
ችግ ኝ</w>
ወዳ ጆ
ተከታ ዮች</w>
ማረ ፊያ</w>
አክሲ ዮን</w>
ኔ ል</w>
የተ ከፈ
በሚ ፈለገው</w>
ተጠቅ መው</w>
መፍ ጠ
የ አይ
ድር ግ</w>
ጥን ካሬ</w>
እንደ ነበ
እንዲ ያሳ
በማ ይ
ድርጊ ቶች</w>
መለካከ ት</w>
ማ ጣት</w>
ከ ሆኑት</w>
የሚ መረ
ተደር ጎ
ጠናቀ ቀው</w>
ትምህር ቱን</w>
ቶ ኛል</w>
አ ያስፈል
ሳይ ም</w>
o p
ሎ ችም</w>
ኦ ት</w>
በመ ሠረ
መዘ ገበ</w>
አሰልጣ ኞች</w>
አስገንዝ በዋል</w>
ቋ ቸው</w>
አ ዘጋ
ኩ ስ</w>
ዓ ለም
የ ወጣቶች</w>
ፎ ቶ</w>
ተሰ ብስ
እና ስ
በዘ ንድሮው</w>
አስተያየ ታቸውን</w>
የጠቆ ሙት</w>
ዳ ዊ</w>
ሲ ዎች</w>
ፊ ቱ</w>
ወደ ዚህ</w>
የታ ላቁ</w>
ሥርዓ ቶች</w>
አሳዛ ኝ</w>
ሒ ሳብ</w>
ን ጋ
ዘ ብ</w>
ጂ ዎች</w>
ጀመ ርኩ</w>
ሰን ደቅ</w>
ቃ ለል</w>
እንደ ተሰ
አገ ላለ
ባበ ል</w>
ፓርላ ማው</w>
ሐኪ ም</w>
ቃ ሽ</w>
ደረጃ ን</w>
የተከሰ ተው</w>
ለ ቀው</w>
ት ተው</w>
የሚገ ር
ል ደ
በ ናል</w>
ቦ ን</w>
ዩ ሮ</w>
የሰ ራ
ቀጥ ተኛ</w>
ሻምፒዮ ንስ</w>
ባራ ክ</w>
አ ጉ
በተ ጨባጭ</w>
ዘው ተ
ም ኑ</w>
ቃ ላ
ከ ምን
የምን ለው</w>
ቁጥ ራቸው</w>
ወል ደ
ቢኖ ሩም</w>
ንጥ ረ</w>
ከ እንግዲህ</w>
ክ ፈ
ይ ነግ
o m
ሽ ታ</w>
በ ምንም</w>
በ አንድነት</w>
ጐ ን</w>
ረዳ ን</w>
ከበ ረ</w>
ምኞ ት</w>
ኚ ዎች</w>
ያ ሸነ
መል ሱ</w>
እና ደርጋ
ሆነ ውን</w>
ለ ባቸው</w>
ማ ነው</w>
ባ ሪያ</w>
ቶ ና</w>
የ አስተዳደር</w>
መሥ ረት</w>
ባህር ይ</w>
ማ ፍራት</w>
ሲ ሰ
ች ነት</w>
ኩ ራ
ጋ ዝ</w>
ከተ ባለ</w>
ግብ ር
ፍትሃ ዊ</w>
ክ ፋት</w>
የ እነዚህ</w>
ደ ና
መሳ ሪያዎች</w>
መዝ ገ
ፈጽ ሙ</w>
ሾ ቹ</w>
ጎ ዱ</w>
ደር ሶ
ምር ም
እረ ፍት</w>
መመር ያ</w>
ደጋግ ሞ</w>
ላ ላችሁ</w>
መ ቸ
በ 2
ብ ራት</w>
ን ዑስ</w>
ጄ ን</w>
የም ድር</w>
አባ ይ</w>
ወደ ብ</w>
አጋጣ ሚዎች</w>
አድና ቆት</w>
ት ናገ
ዞ ሮ</w>
ጭ ቆ
አስተ ሳሰ
አው ራ</w>
ብዛ ም</w>
ተፎካካ ሪ</w>
መስዋዕ ትነት</w>
የ አስቸኳይ</w>
ያ ገኘው</w>
ጠ ራው</w>
ለማ ውጣት</w>
መጥ ቀስ</w>
መኖ ራቸው</w>
ክ ሌት</w>
ደረ ሱ</w>
ተጠ ቁሟል</w>
ይጠቁ ማል</w>
በ ሥነ</w>
ተ ቆ
ተ ላል
አ ነሳ
የ ዲ
ጥ ብቅ</w>
በመ ግለ
አል ፈው</w>
ላ ውን</w>
ሸ ጋገር</w>
ን ታዊ</w>
ከ 2
እንዲ ፈጠር</w>
ስተ ናገ
ፈለ ገውን</w>
መልእ ክ
በተቃራ ኒው</w>
ማ ዎች</w>
ስ ፋት</w>
ይ ው
ገ ፍ</w>
ህዝ ብን</w>
ሰብ ስ
አልቻ ል
ኮንት ራት</w>
የመሰረ ተ</w>
ለ ባ
ሚ ዎችን</w>
ኤ ፍ</w>
ከ ሥራ</w>
የ ባህር</w>
አል ማ
ሰራ በት</w>
ደረገ በት</w>
ክብረ ወሰን</w>
ለ ጋ
ል ሃል</w>
መ ወሰ
ሾ ፌ
ት ግራይ</w>
ዘ መን
እንዲ ሉ</w>
ገበ ሬ</w>
ፕሮግራ ሞች</w>
እንደም ታ
አያያ ዝ</w>
ከመ ጀመ
መድ ህን</w>
ነባ ር</w>
ነባ ራዊ</w>
ማ ውያን</w>
የ ስ</w>
የአ ረ
ሥርዓ ተ</w>
የሚያሳ የው</w>
አስተዳደር ን</w>
ሚዲ ያዎች</w>
አ ቻ</w>
እ ብ
የ ወን
በ ች</w>
በ ቤተ</w>
ተ ባባ
ያ ለማ
ጂ ንግ</w>
ትምህር ታቸውን</w>
የደረ ሰው</w>
ዕድሜ ያቸው</w>
አፈፃፀ ም</w>
ሜ ዲ
ካ ም
ኸ ኝ</w>
የም ዕራ
ሠራ ተኛው</w>
በእ ኩ
እ ሷም</w>
መለከ ት
እንደማ ይችል</w>
አብዛ ኛዎቹ</w>
መ ሙ</w>
ሰ ውም</w>
ቀ በት</w>
አ ቆጣጠር</w>
እንደ ውም</w>
በመ ደ
ይጀም ራል</w>
መ ግዛት</w>
ማ ል
ሲ ያደርግ</w>
በ ዕለቱ</w>
የሚ ጠቁ
ስፖር ቶች</w>
እንዲሰ ጡ</w>
ማ ሪያ</w>
በ ሰዎች</w>
ከ ድህነት</w>
ከና ውን</w>
ሰጥ ተው</w>
ክም ች
ለ ካ</w>
ለ ፉ</w>
ቆ ሞ</w>
ከ ጀመረ</w>
ክ ስ
ኮ ሎ
ጋዜ ጣዊ</w>
ሥርዓ ቱን</w>
አዛ ውን
ቱ በት</w>
ዘ ረጋ
የ ከፈ
ጥ ንት</w>
ፀሐ ፊ</w>
ሴ ን
የ ቤተ</w>
ይ መረ
ጀ ው</w>
ማስ ወገድ</w>
መድረ ኩ</w>
በ ቤት</w>
አ ጎ
የ ቡድን</w>
የመ ጨረሻው</w>
ምር ና</w>
ጥቅ ስ</w>
ጽሑ ፎች</w>
ወረዳ ው</w>
ሐ ይ
ሲ ጀምር</w>
ኋ ላ
የተ ቀበ
በማ ጣ
ይሰ ጣሉ</w>
ኤር ትራ
ነገሥ ታት</w>
ህ ገ
ሞ ዴል</w>
ሳ ታ
ቢ ስ</w>
ከ ው
እየተ ን
የነበ ራቸው</w>
የሚሰ ጠውን</w>
የአው ሮ
ያቀረ በው</w>
እንደሚያስፈል ግ</w>
በ ግ</w>
የሚ ነሱ</w>
በመ ሆ
ከማ ሳ
ገብ ተዋል</w>
ብል ሹ</w>
ሩ ትም</w>
ሬ ና</w>
ያ ካተ
ፉ ና</w>
አጋ ጥ
ፍረ ስ</w>
ይጠበቅ በታል</w>
ቦር ዱ</w>
ታክ ሲ</w>
ረ ር</w>
በ ኃይል</w>
ያቀረ ቡት</w>
ኗኗ ር</w>
ዘ ፈን</w>
የ ግብፅ</w>
በመ ቀጠል</w>
ኃይ ለ
ዝር ያዎች</w>
በ እስራኤል</w>
ኒ ስቴ
ኪ ዳ
የሚ ካሄ
በጥ ቂት</w>
ድርጊ ቱ</w>
አግኝ ቶ</w>
ደረግ በት</w>
ትግ ሉ</w>
የገለ ፁት</w>
ሐ ውል
ረ ግ
ሳ ላ
ጥ ለው</w>
ጽ ሁፍ</w>
ፍ የ
አደ ጋው</w>
መደ ምደ
ተከታ ት
ብቻ ም</w>
ጨም ረው</w>
እርስ ዎ</w>
ቁ ትን</w>
የመ ኖር</w>
ግብ ዣ</w>
ተያያ ዥ</w>
እናደርጋ ለን</w>
ቆ ጠር</w>
የ ረጅም</w>
ረ ከ
ተ ስተ
ን ታ
የ ፖሊሲ</w>
ጀ ግና</w>
እስ ከመ
ሰለ ባ</w>
ሰው ነት</w>
የሚታወ ቀው</w>
በአንፃ ሩ</w>
በ አገሪቷ</w>
ክ ፈት</w>
ዓ ለምን</w>
አደ ራ
ማዕ ቀፍ</w>
ማለ ቱ</w>
ተጠቅ ሞ</w>
ጋለ ጡ</w>
ልምም ድ</w>
ብ ሶ
ግ ዥ</w>
ለማ ገልገል</w>
የወ ጪ</w>
መንግስ ትን</w>
ማክ ሰኞ</w>
ሊ ቀ</w>
ረ ኞች</w>
ቧ ቸው</w>
ከ ምንም</w>
ዝ ነ
የ ቴክኒክ</w>
ዱ ትን</w>
ይህ ች</w>
የሚሰ ጡት</w>
በ19 6
ፈተና ዎች</w>
ረ ፍት</w>
ከ 2</w>
የሚ ደርስ</w>
ሀገ ራዊ</w>
በጥ ናት</w>
ገኙ ትን</w>
ጉድ ለ
i n</w>
ቶ ናል</w>
ክ ሮ
የ በረ
ጓደ ኛ</w>
ክብ ደት</w>
በመንፈ ስ</w>
ሊ ኖረው</w>
ት ሽ</w>
ኒ ስት
ይ ጋ
የማ ጣ
ቀር ቧል</w>
በኩ ልም</w>
የተቀ መጠ
ለ መንግሥት</w>
ር ማ</w>
ዕ ና</w>
አለ ና</w>
እና ቱ</w>
ገዥ ው</w>
ከ ነበሩት</w>
ምር ትና</w>
በሰ ብ
የስ ልጣን</w>
የጀመ ሩት</w>
4 9</w>
ቃ ቂ</w>
የ ሀገራችን</w>
ደ ሞ</w>
ፉ ትን</w>
ዓመ ታትን</w>
ተቋ ራ
የወ ጡ</w>
በ19 7
እንድት ሆን</w>
እንደገለ ፁት</w>
ማ ዶ</w>
ታ ድ
ን ቁ</w>
ዜ ናዊ</w>
የ 20
መስ ፋፋት</w>
ኢኮኖሚ ያዊና</w>
ሰብሳ ቢ
ር ዝ
ቢ ያስ
ያ ጠ
ውስ ን</w>
ከፍ ል</w>
ንጉ ሡ
ተቀም ጦ</w>
ሙ ያዊ</w>
ኑ በት</w>
እ ባ
እ ችላለ
ለሚ ገኙ</w>
ወላ ጅ</w>
ሐሳ ቦች</w>
አውሮ ፕላ
ለ 0</w>
ማ ንን</w>
ሲ ካሄድ</w>
በ ሁለተኛ</w>
ኝ ነትና</w>
መምህ ራ
የሚገባ ውን</w>
ባለስልጣ ናት</w>
ሚዛ ን</w>
ጄኔ ራል</w>
በ ዋና</w>
መም ራት</w>
ማ ቅ</w>
አ መስ
ኩ ና</w>
ግ በት</w>
ለመ ያዝ</w>
እየ ሠራ
የጎ ዳና</w>
ጥርጣ ሬ</w>
ለ ሥራ</w>
ባ ሉበት</w>
ገብ ቷል</w>
እናው ቃለን</w>
ሊ ቃ
ሳ ችሁ</w>
ካ ተት</w>
ዲ ባባ</w>
ፃ ሜ</w>
ከባ ከብ</w>
መክ ፈል</w>
ዘነጋ ም</w>
ይጨም ራል</w>
ባ ወጣው</w>
በሚ ገኝ</w>
አድር ጓ
ለ መን
በመ ቅረ
ያለ ሽ</w>
ሪያ ቸውን</w>
ኤር ሚ
ምሁ ራ
አካዳ ሚ</w>
ት ከ
ይ ዙ</w>
ይ ተር
እን ኩ
የሚ መጣ</w>
እንዲ ሰማ
ማስተ ካከ
ቀነ ሰ</w>
ስ ማቸው</w>
ቆ ዳ</w>
ጭ ም</w>
ለማ ፍራት</w>
በቀ ዳ
ቅር ስ</w>
ዓይ ነ
አግኝ ቷል</w>
አንቀ ፅ</w>
እርካ ታ</w>
ረ ፍ</w>
ከ ብት</w>
ከፍ ታ</w>
ደጋ ፊ
ቫይረ ስ</w>
i s
ሩ ባቸው</w>
አ ቢ
ከ ደቡብ</w>
ሰማ ያት</w>
መሆኑ ንና</w>
በገ ጠር</w>
ተገኝ ተው</w>
መስተዳ ድር</w>
ጩኸ ት</w>
ሒ ደ
ወ ኪ
ዲ ያው</w>
ስት ሆን</w>
አስተ ማሪ</w>
ፍራ ን
የማ ግኘት</w>
እችላለ ሁ</w>
ሽ ት</w>
አ ቤት</w>
ከ 30</w>
የ በት</w>
እውነ ቱን</w>
መ ቻል</w>
አ ዎ
ይ ተ
ጂ ቡቲ</w>
ጆ ን</w>
ጣ ራ</w>
እንዲ ወጣ</w>
ያል ፍ</w>
ዘ ዝ</w>
ፈ ች</w>
ያው ያን</w>
ጠናቀ ቀ</w>
ወይ ን</w>
ዳግ መኛ</w>
እባክ ህ</w>
በተከታ ታይ</w>
በ ድንገት</w>
ታ ታ
አን ችልም</w>
ጀመ ረው</w>
ድጋ ፍና</w>
ማም ረ
ተ ገን
ዞ ኖች</w>
ያ ፈ
ያለ ች</w>
አበ ራ</w>
ደብ ረ</w>
e l
ከ ስድስት</w>
ይ ስ</w>
የተሰ ጠውን</w>
ያተኮ ረ</w>
በ ኦ
የ ኝ</w>
ጨ ና
ባለ ቤቱ</w>
እና ማ</w>
በም ታ
ዝም ድና</w>
ጢሞ ቴዎስ</w>
ሲ ደረግ</w>
ሰጥ ም</w>
ግድ ግ
የመሰ ለ</w>
ምዝ ገባ</w>
ማ ብ
ሰ ፋ</w>
በ እግ
የ ታቸው</w>
የወ ይን</w>
ላይ ታ</w>
በገ ዛ</w>
ር በት</w>
በ አይ
አ ደረጉ</w>
ትምህር ቱ</w>
ነፃፀ ር</w>
ትናገ ራለች</w>
ዲ ና</w>
ገ ዢ</w>
መቻ ሉን</w>
ያገ ኛሉ</w>
ከ በረ
ጋ ን</w>
ጫ ዎችን</w>
ጉዳ ተኞች</w>
ክብ ረ</w>
የሚገል ጽ</w>
መ ጀመር</w>
ቸ ር</w>
ዖ ን</w>
የ ኦሮሞ</w>
ገ ብር
የተ መሰረ
ዘዋ ዋሪ</w>
የተቋቋ መው</w>
ወደፊ ትም</w>
ተግዳ ሮ
ኔት ወር
ታ ምራት</w>
የ ኮንስትራክሽን</w>
ፍ ፁም</w>
ፓር ኩ</w>
ፓር ኮች</w>
የተሰ ኘው</w>
ሠር ቶ</w>
ስማ ማ</w>
ሲ ቪል</w>
ካ ችሁ</w>
የ ዛ
ምር ታማነት</w>
መ ሄ
ታ ረ
ጅ መንት</w>
በማ ጠናከር</w>
እንደሚ ገባም</w>
ገኘ ም</w>
ለማስ ፋፋት</w>
አካላ ትን</w>
ማ መልከ
በ ሌሎችም</w>
ች አይቪ</w>
እ ዚሁ</w>
መስ ጫ</w>
መንግሥ ቱን</w>
አቀ ፋዊ</w>
በአ ል
አትሌ ቶችን</w>
ይጠቅ ሳሉ</w>
ለ እነዚህ</w>
ከ ግምት</w>
የተ መ
ነበ ርኩ</w>
ለመ ግለጽ</w>
ጠና ቅ
ዲፕሎማ ሲ</w>
ይስተዋ ላል</w>
ሁ ሴን</w>
መ ጓዝ</w>
ሲ ያደርጉ</w>
ጃ ም</w>
መረ ብ</w>
በት ራ
መብ ትና</w>
ገደ ል</w>
ፍል ስጤ
ኦ ፍ</w>
አሳል ፎ</w>
ተሽከርካ ሪዎች</w>
ወታ ደር</w>
Th e</w>
a t</w>
ህ ልም</w>
ማ ገልገል</w>
ን ዛ
የ ኅ
የሚ መራ</w>
ኃላፊ ነቱን</w>
ቆጠ ብ</w>
ሻ ንጉ
በ ፀ
ኛ ለሁ</w>
ጎ ም</w>
የማ ት
መቆ ራረ
መ ደረጉ</w>
ሙ ቀት</w>
አ ዘጋጅ</w>
ዩ ትን</w>
ይ ገለ
በማ ግኘት</w>
እው ነትን</w>
ዝግጅ ቶች</w>
ስፖር ቱን</w>
ቁል ቁ
ራ ሪ</w>
አ ሞ
ኪ ዎች</w>
ውስ ብስ
በማ ዕ
መለ የት</w>
ጀመ ረች</w>
መንግሥ ትን</w>
ደረሰ ባቸው</w>
ሀይ ል</w>
የሚከተ ለውን</w>
ይግባ ኝ</w>
መ ብራ
አ ደር
ከ 15</w>
ከ ንፈ
የ ዝናብ</w>
ያ ነጋገ
ፍ በት</w>
ፕሬዚዳን ትነት</w>
ምፒ ዩ
ተወዳዳ ሪዎች</w>
ክም ናው</w>
ተረጋግ ጧል</w>
ባለሃብ ቶች</w>
ቃ ኝ</w>
ደ ደ
ጤ ን</w>
በተ ባበሩት</w>
ኢንቨ ስት</w>
የምር መራ</w>
የማህ በረሰብ</w>
ለማን ኛውም</w>
ኬሚ ካል</w>
ሕ ል
ከ ዛ
ኳ ት</w>
በማ ሸነፍ</w>
ተሰ ማ</w>
አለማ የሁ</w>
በ ብቃት</w>
በ ግብፅ</w>
የተ ዛ
ማዕ ቀ
ወሓ ት</w>
ሻ ሊ
ጦ ሽ</w>
በመ ል
መለክ ተው</w>
ካር ታ</w>
ሌ ና</w>
ኒ ክ</w>
የሚ ሠራ</w>
አስተ ማ
ዘመ ዶ
ጊዜ ያ
ይ ከፍ
አስመ ዝግ
መ መዘ
ቃ ለ
ያ ገኙ</w>
ገ ም
ጤ ንነት</w>
በአ ትሌ
በየ ዕለቱ</w>
ለ ስ</w>
መ ል</w>
ቤ ቶችና</w>
ተ ላላ
ጎ ልማ
በተ ያዘው</w>
አይ ገባ
ብዙ ዎችን</w>
ጠየ ቀ</w>
ምጣ ኔ</w>
ው ሞ</w>
አለ ብኝ</w>
የቢ ዝነስ</w>
ያስታው ሳሉ</w>
ኮንዶ ሚኒ
ጥ ግ</w>
ለመ ፈጸም</w>
ገል ጻ
የሚፈል ግ</w>
ሮ ቻቸው</w>
አ ቁ
ክ ሪ
ያ መጣ
ማ ውን</w>
የመ ኪና</w>
ሁኔ ታም</w>
ቀጥ ታ</w>
ተወ ያይ
ጓደ ኞቹ</w>
ፈቃደ ኝነት</w>
በድም ሩ</w>
ገፅ ታ</w>
ባ ች</w>
መን ድ</w>
የም ናገ
ዘር ፈ</w>
ተመ ጣ
ይጠቀ ሳል</w>
ሃላ ፊነት</w>
ህል ውና</w>
ሌ ሊ
ቦ ሌ</w>
ቋቋ ሙ</w>
ምስ ል</w>
ተፈ ላ
መ ፈጸም</w>
ማ ደግ</w>
በ ኢኮኖሚ</w>
የ ኅብረተሰብ</w>
o l
ሆ ድ</w>
ይ ፈልጋ
ገባ ን</w>
ቀረ ቡ</w>
የሚሰ ራ</w>
በማሳ የት</w>
ዳሴ ው</w>
1 ኛው</w>
ል ል</w>
ማ እ
ማ ሻሻል</w>
በ በቂ</w>
ባ ትን</w>
ዘ ፍ</w>
ዷ ቸው</w>
ጠ ናል</w>
ፍ ቅር
ግብ ይት</w>
የው ይይት</w>
ሰ ቱ</w>
ሰ አት</w>
በ ጣ
በ ውሃ</w>
በ ስፖርቱ</w>
ኚ ህ</w>
ኤ ች</w>
ጫ ቸው</w>
ፈ ንድ</w>
ፊ ውን</w>
ባለ ቤቶች</w>
ያል ተገ
ባ ት
ቴሌ ኮም</w>
የማህ በራዊ</w>
ተመጣ ጣኝ</w>
ክ ሲ</w>
ጆ ሮ
ገል ገ
የማይ ታ
ጨር ቃ</w>
ተገና ኝ
ስ ጋ</w>
ሸ ና
የ ፈረ
ፎ ረም</w>
አዳ ም</w>
ልጅ ነት</w>
ሠራዊ ቱ</w>
ቅ ርና</w>
ነ ጋ</w>
እ ላለሁ</w>
ቀጥ ሉት</w>
የበኩ ሉን</w>
ክፉ ኛ</w>
ራ ትም</w>
ሯ ቸውን</w>
በ ነበ
ከ 1</w>
እነ ማን</w>
እም ብዛም</w>
ታስ ቦ</w>
ኦሎ ምፒ
ቦ ታ
ኖ ችና</w>
ከ ቀ
የሚ መለከተው</w>
አይ ዘነጋም</w>
ወደ ተ
ውድ ቀት</w>
ተከ ናው
በርካ ቶች</w>
ተፈ ጻ
ራ ሴን</w>
በ ሶማሊያ</w>
ቻ ር
አ ታው
ጸ ል
የተ ዘጋጀው</w>
ጀም ሩ</w>
ጥን ታዊ</w>
ተቋማ ትና</w>
ለ ትምህርት</w>
ል ታ</w>
አ ሪፍ</w>
ይ ፈጠ
ፀ ን</w>
አም ስተኛ</w>
እየ ቀ
አለ ችው</w>
የ ች</w>
የሚ ሆኑ
ሐረ ር</w>
ለ ዓመታት</w>
እ ላ
ወ ከል</w>
የመ ድረ
ድር ም</w>
ንጉ ስ</w>
በማስ መዝገብ</w>
እንደሌ ለው</w>
ተቀም ጧል</w>
ኢትዮጵያ ዊያን</w>
ጥላ ሁን</w>
ሙ ማን</w>
ማ ስ</w>
ው ት
የ ጠቅላይ</w>
ጭ ን</w>
ፀ ዳ
መረ ጥ</w>
ፍር ሃት</w>
በጉ ጉት</w>
ተፈጥ ሮ
ለ ችው</w>
በ ሮች</w>
ጋ ል
የሚ ሳተ
ወጣ ቶቹ</w>
ማህ ጸን</w>
መም ሪያ</w>
የዓ ለማችን</w>
ሐኪ ሞች</w>
በ እያንዳንዱ</w>
ከመ ሆን</w>
አለመ ኖር</w>
ሃገ ሪቱ</w>
ግዚ ቢ
ሊ ሰጠው</w>
መ ከ
ተ ዕለት</w>
ከ እናንተ</w>
ካ ሪ</w>
እንደሚ ለው</w>
ቀ ውም</w>
ክ ንድ</w>
ፍ ትን</w>
በመ ዝ
መል ሰው</w>
ያለ ንን</w>
ረዳ ቸው</w>
የፈጠ ረው</w>
በ ክልል</w>
ኪ ም</w>
ይ ለኛል</w>
ያሳ ያሉ</w>
ከአ ሜሪካ</w>
የሚያስፈል ገው</w>
ቆ ይታ
ወጣ ም</w>
አድር ግ</w>
ዜግ ነት</w>
ተ ጀምሯል</w>
የ ሄ
የ ቅድመ</w>
ደ መቀ
ፃ ናት</w>
ያስ ገ
አቅር ቧል</w>
ማጣ ሪያ</w>
ሞ ተ</w>
ይ መክ
ጎ ልቶ</w>
በሚ ሊዮን</w>
ማዕ ከላዊ</w>
በዓ ሉን</w>
የባ ሕ
ክህ ሎ
ሰርቪ ስ</w>
ከ ዛሬ</w>
ጳ ጳ
ለማ ዳ
ውስ ጣዊ</w>
ተመል ሰው</w>
ከታተ ሉ</w>
ቁሳቁ ስ</w>
ውስብስ ብ</w>
ሟ ን</w>
ከ ሆነው</w>
ዕ ጩ
የ ሁለ
መር ከ
ከብ ቶች</w>
ይረዳ ል</w>
t o</w>
ለ ራሱ</w>
መ ገን
ቃ ጠል</w>
ተ ለ
ኡ ጋንዳ</w>
ቀር ቷል</w>
ምስ ክር</w>
ጋለ ጥ</w>
3 ኛ</w>
ማ ዘጋጀት</w>
ፈ ስ</w>
ብል ጫ</w>
ርዕ ዮ
የተቃ ዋሚ</w>
መጽሔ ት</w>
ምሕ ረት</w>
ል ኛል</w>
ስ ኩ
ቅ ኝ</w>
ታ ዊው</w>
የ ልማትና</w>
ፋ ፍ
ስለ ሆኑ</w>
እያ ልን</w>
ግብ ሩ</w>
ገንዘ ቡ</w>
ገንዘ ቡን</w>
ወንድ ሙ</w>
እርምጃ ዎች</w>
ተደራጅ ተው</w>
ሣ ኤ</w>
ሸ ራ
በ እነሱ</w>
ከ ጅ
አገልጋ ይ</w>
ሜዳል ያ</w>
ማ ችሁ</w>
ረ ሳ
ራ ለሁ</w>
ኢንተርፕራ ይዞ
ለ ውና</w>
የሚ ናገረው</w>
በመ ሳሰ
እነ ዚህ
ያለ ችው</w>
ከፍ ለው</w>
ውድ ቅ</w>
ውጤ ታማነት</w>
አንዳን ዶ
ኢንቨ ስተ
ልጃ ቸው</w>
መጀመ ሩን</w>
መቀመ ጫ</w>
እናገ ኛለን</w>
ኤርሚ ያስ</w>
ት ክል
ግ ሮ</w>
በተ ጠቀ
መው ሰ
አባላ ቱ</w>
ይሠራ ል</w>
ሩዋን ዳ</w>
በ ከተሞች</w>
ኋ ቸው</w>
የለ ሽ</w>
ወንድ ማማ
ዳይሬ ክቶ
ካለ ፉት</w>
በ ቡድን</w>
ከ ግ
ለመ ጀመር</w>
በአ ራ
እንደሚ ያደር
ከበ ረው</w>
ለ ሦስት</w>
ሩ ታል</w>
እያ ልኩ</w>
ንግ ዱ</w>
የሰ ውን</w>
ቡድ ኑን</w>
መፍት ሔ
ሰ ጡት</w>
በ አን
ዋ ለች</w>
ያለ ብን</w>
ምር መራ
አቅራ ቢያ</w>
ለ ተሰ
ቀ ጥ</w>
ታ ትና</w>
ን ሽን</w>
እ ማ
በተ ደረገ</w>
ሞክ ሩ</w>
ለ አምስት</w>
ማ መን</w>
ራ ሷን</w>
ዓ ረ
የ ውም</w>
የ ደርግ</w>
ይ በት</w>
አል ችልም</w>
ዮና ስ</w>
ati on</w>
ባ በር</w>
ምክንያ ታዊ</w>
የቆ ዳ</w>
ፍቃ ድ</w>
ልያ ዎቹ</w>
ሙሉ ጌታ</w>
1 ኛ</w>
ለ እሱ</w>
በ ወር</w>
ባ ደረ
ከ ዛ</w>
ያ ረጋገ
ጐ በ
መስ ለው</w>
ብረ ትና</w>
ከፈ ል</w>
የሚያሳ ዩ</w>
ኤር ም
ሙዚ ቀ
ተመራ ማሪዎች</w>
የአካባ ቢውን</w>
የሚቆ ጠር</w>
ህ ገወጥ</w>
ለ ግል</w>
ሞ ው</w>
ሲ ደ
ነ ትንና</w>
ጠ ች</w>
ፍ ጥረ
ያስ ቆጠ
የሰ ሜን</w>
ውጤ ቶችን</w>
የእ ጅ</w>
ተረ ፈ</w>
የሰው ነት</w>
ማ ቆ
ሳ ችን</w>
ቅ ጥር</w>
ከ ሌላ</w>
የ ችግሩ</w>
የማ ራቶን</w>
እው ቀትና</w>
ውድድ ሮችን</w>
መንግስ ትም</w>
ሊ ኖ
ሎ ጂ
ሮ ጥ</w>
ከ 50</w>
ያ ገኙት</w>
አገ ሬ</w>
ለማ ሟላት</w>
የመ ጠቀም</w>
ማስ መዝገብ</w>
የወ ለ
በጥ ራት</w>
ሻሻ ለ</w>
ባለመ ኖሩ</w>
በ ቦታው</w>
ተ ጥ
አቅ ማቸው</w>
ምስ ጢር</w>
የመስ ጠት</w>
ማሰ ልጠኛ</w>
ህ ጻናት</w>
ሳ ም
ቃ ቅንና</w>
ነ ስተኛ</w>
የ ቱሪስት</w>
ጧ ት</w>
አበ ባና</w>
ዩኒቨር ስቲ
ስታ ን</w>
ቢኖ ርም</w>
ታውቃ ለህ</w>
የ ጽ
የ ድርሻ
የመ ር
አም ናለሁ</w>
ሆነ ችው</w>
አለመ ኖ
የቀረ በ</w>
o r</w>
መ ሪነት</w>
ቂ ና</w>
ጽ ፏል</w>
በመ ባል</w>
መንግ ስታ
ዘመ ነ</w>
አስከባ ሪ</w>
ዘውተ ሪያ</w>
ሲ ወጣ</w>
ተ ደጋጋሚ</w>
ማዕ ረግ</w>
ቀጠ ሉ</w>
አቅጣ ጫዎች</w>
ይፈልጋ ሉ</w>
ም ድርን</w>
ር እ
ሻ ዎች</w>
ቻ ን</w>
ን ዲ</w>
ዕ ጩ</w>
ያ ሉበት</w>
ድ ጉ</w>
አስ ቆጥ
ተገ ኘ</w>
ሚኒስቴ ሩ</w>
ቤ ል</w>
ታ ዬ</w>
አ ሥራ</w>
አ ነጋግ
የ ሁለተኛ</w>
የተ ገለ
አስተ ላል
ካሄ ዱት</w>
ይዘ ዋል</w>
ነግ ረ
ኢንስቲት ዩ
መዳረ ሻ</w>
ሏ ቸዋል</w>
ወ ዴት</w>
ያ ጋጥ
ግ ዢ</w>
ጫ ዋ
ጸ ሎ
እን ፈልጋ
አልማ ዝ</w>
5 1</w>
ቻ ች
እ ሸ
ገ ጹ</w>
የሚ መጣ
መጠ ነኛ</w>
8 5</w>
መ ስ</w>
በ ዕድሜ</w>
ዋ ና
ጎ ርፍ</w>
ለመ ሳተፍ</w>
እየ ገ
መደ በ
ችላለ ች</w>
ሲ ሰጥ</w>
ሳ ር</w>
የ ፍትሕ</w>
ፍ ጆ
ችግ ሮቹ</w>
በስ ተ</w>
ዝር ያ</w>
መመ ሪያዎች</w>
ሥ ዕ
ሦ ስ
ታ ት
ይ ጠፋ
ደር ሰው</w>
መድሃ ኒት</w>
ማ ም</w>
ሟ ሉ</w>
ራ ትን</w>
ተ ሪ</w>
ዊ ም</w>
ፈ ና
የሚ ስ
የመ ከላከል</w>
ሰራ ር</w>
ዝን ባሌ</w>
ኢንጂነ ሪንግ</w>
ሰ ች</w>
ው ንድ</w>
ያ ረጋግ
ገ ርም</w>
ጉ ምሩክ</w>
ጎ ል
ጸ ጋ</w>
ወረ ደ</w>
ትች ላላችሁ</w>
ተሸላ ሚ</w>
መ ቅረብ</w>
ሯ ት</w>
ተ ች</w>
የሚ መለከት</w>
5 6</w>
ሃ ምሳ</w>
በ ሌላው</w>
ኙ ን</w>
አገ ርን</w>
ልማ ቶች</w>
ሠራ ተኞ
በት ዕ
አምራ ቾች</w>
ማ ድረስ</w>
ተ ሃድሶ</w>
ታ ዊነት</w>
ኑ ሮ
የ ግንቦት</w>
ጎ ላ</w>
ውስ ትራ
ደግ ነት</w>
ፈገግ ታ</w>
ለ ፍርድ</w>
ለ ሕዝቡ</w>
መ ጡት</w>
ቲ ቭ</w>
ይ ኑ
ጥ ም
ነበ ብ
ግንባ ታዎች</w>
መክ ፈ
ሃላ ፊ</w>
መ ጫወት</w>
ሥ ፍራ
አ ሁ
ዓ ብ</w>
ዛ ር</w>
የሚያ ነሳ
በየ ቦታው</w>
ባን ዲ
ስር አ
ገለል ተኛ</w>
በተጓ ዳኝ</w>
ኝ በት</w>
አ መሰግ
ፀ ጋዬ</w>
ፈ ነ
በእ ጅ</w>
በማህ በራዊ</w>
ተናገ ረ</w>
ረ ሙ</w>
በ ኢየሩሳሌም</w>
ቤ ታችን</w>
ኤ ም
ነገ ሥት</w>
ጠቀ ስ</w>
አሳ ድ
በቅር በት</w>
ቁር ጥ</w>
ጥላ ቻ</w>
የ ፖሊስ</w>
ዩ ና</w>
ሊ ያደርግ</w>
ስ ህ</w>
ቻ ት</w>
እ ጆ
ፍ ጠ
በም ና
ምት ክ</w>
ተገኝ ተዋል</w>
መቃ ብር</w>
ህ ነት</w>
ዓ ን</w>
ደ ጉ</w>
ፋ ሲ
የበ ዓ
መቀ የር</w>
ዓላ ማው</w>
ር ብ</w>
ታ ካ
ኒ ሳ</w>
ጅ ን</w>
ሳይ ቆይ</w>
ያለ ህ</w>
የግ ብር</w>
ደን በኛ</w>
ድንጋ ጌ</w>
ደገ ፈ</w>
ይካሄ ዳል</w>
መ ጨረሻው</w>
ረ ቡዕ</w>
ሲ መጡ</w>
ሳ ቱ</w>
ባ ርቅ</w>
ተ ናገሩ</w>
ኖ ና</w>
አ ሶ
ከ እነዚህም</w>
ደረ ቅ</w>
በአ ጋ
ምክ ህ
የሚያስ ደ
ከሚ ገኘው</w>
በእ ሳት</w>
ከነ ዚህ</w>
10 ሺ</w>
አማር ኛ</w>
እ ቴ
ደረጃ ዎች</w>
ትች ት</w>
አቡ ነ</w>
ሳ ያስ
የሚ መነ
መምጣ ቱ</w>
ፌደ ሬሽን</w>
በ በጀት</w>
ት ሪ
ፋ ትና</w>
የሚ ጠበቅ</w>
የተ ገደ
በአ ህጉ
ተቀ ይ
ተጫ ው
ፍሬ ም</w>
የዱ ር</w>
ዘጋጁ ት</w>
ል በትን</w>
ስ ምን
ቀ ልድ</w>
አ ወጣ
አ ዕም
የ ጨ
ደራ ሲ
ሀብ ታ
አስፈላጊ ነት</w>
ሻንጉ ል</w>
ፍ ጥ
ፍ ር</w>
በመ ግ
ጠቀ ሙበት</w>
በሰ ላማዊ</w>
ሀብ ታም</w>
አድርገ ህ</w>
ተተ ኪ</w>
በአደ ባባይ</w>
ማ ካሄድ</w>
ቀ ደው</w>
ዳ ሩ</w>
የሚ ደረጉ</w>
የመ ማር</w>
ሕዝ ብን</w>
ያደር ጉ
ማስተ ዋ
ፕሮጀክ ቶችን</w>
ዳረ ስ</w>
የ ሱ
የሚ ዘ
በአ ጭሩ</w>
ሥራ ን</w>
አር አያ</w>
ክር ስትና</w>
ያሳ የው</w>
ጨር ስ</w>
ፌስ ቡክ</w>
እንፈልጋ ለን</w>
ለ ሁለተኛ</w>
መ ጓ
ረ ክ
ስ ካ
በ ዱ
ተ ጉ
ታ ጥ
ና ኝ</w>
ትእ ዛ
ተጠር ጣ
ሕ ጎች</w>
በ ላይ
ተ ይዞ</w>
የአ ሠራ
በዓ ላት</w>
አኳ ኋ
አልተ ቻለም</w>
መቅ ደስ</w>
ሃላ ፊ
የሴ ቶችን</w>
ማስጨበ ጫ</w>
5 3</w>
ህ ንነት</w>
ሊ ትር</w>
ነ ክ</w>
ጠ ኝነት</w>
ጥና ታዊ</w>
እያንዳን ዱን</w>
በፍ ጹም</w>
አልባ ሳት</w>
ት ብ
የ ወቅቱ</w>
ጠ ጋ</w>
ፀ ባረ
የሚ ባለ
በመ ሰረ
አይ ነ
መጥ ፋት</w>
የተሰ ጠ</w>
ማስታወ ቂ
በ1 8
ሁ ትን</w>
መ ከበር</w>
ሙ ዝ</w>
ሜ ው</w>
በ ሙስና</w>
በ ምርጫው</w>
በ ውይይቱ</w>
ቤ ትም</w>
ብ ተው</w>
ቦ ችም</w>
ው ሸት</w>
ፀ ድ
የማ ይችል</w>
ያለ ባቸውን</w>
ለሚ ለው</w>
ስምም ነቱ</w>
ሰው ዬ</w>
ተጠና ቆ</w>
ደቂ ቃዎች</w>
ሰ ሚ</w>
ያስ ቀም
ተሰ ና
ይደር ሳል</w>
ለ ካ
ሪ ፐብሊክ</w>
የሚ ደግ
የመ ጨረሻ
የም ር</w>
ገነ ዝ
እኩ ልነት</w>
ዴኤ ታ</w>
አ ሊ</w>
ጠ በት</w>
በማ ከናወን</w>
የሰ ጠውን</w>
በታ ማ
አመራ ሩ</w>
ወል ድ</w>
ዳር ቻ</w>
ፊል ሞች</w>
አፋ ጣኝ</w>
ፖለቲከ ኞች</w>
የሚደረ ገውን</w>
ተ ደረገ</w>
ጠ ል
እንዲ ገባ</w>
20 16</w>
ጋዜጠ ኝነት</w>
ሻምፒ ዮን</w>
ሽማግ ሌ</w>
በመንፈ ሳዊ</w>
አውቶ ቡ
ተ ባለ</w>
ካ ደረ
የዘ ንድሮው</w>
የጀመ ር
ሃሳ ቦች</w>
ያገ ኛል</w>
ላ ቸውና</w>
ኔ ና</w>
አ ከራ
ይገባ ቸዋል</w>
አግኝ ተው</w>
ምገ ም</w>
እየሰ ጠ</w>
ሆ ንና</w>
ሕ ያው</w>
ማ ጥፋት</w>
ም ቢያ</w>
በ ኢየሱስ</w>
ው ደ</w>
ጤ ፍ</w>
ነገ ራቸው</w>
የተሰ ጣቸው</w>
ገዢ ው</w>
ም ላ</w>
ሴ ቶችና</w>
ቾ ቹ</w>
ጋ ታ</w>
እንዲ ያደርግ</w>
አካ ላዊ</w>
የታ ክስ</w>
ባበ ቅ</w>
ሐዋር ያ
ደርስ ባቸው</w>
ቤተ ክርስቲያን</w>
ሲ ብ</w>
ከመ ካከ
ዝግጅ ቱ</w>
ተሞክ ሮ
ዲሞክራ ሲያዊ</w>
የመጣ ውን</w>
ማክ በር</w>
ፍጻ ሜ</w>
ሰላ ምን</w>
ባሕር ያት</w>
ዐ ይ
ያ ክል</w>
ክር ነት</w>
በም ግብ</w>
ትን ታ
መጽሐ ፉ</w>
ግጭ ቶች</w>
ለ ሰዎች</w>
ን ተን</w>
የ ብዙ</w>
የ በርካታ</w>
ዳ ዊ
ጇ ን</w>
ጠ ፍ</w>
ፋ ለች</w>
የሚ ወጡ</w>
የአ ዕምሮ</w>
የአ መለካከት</w>
እየ ጠ
ልጣ ል</w>
ቅር ሶች</w>
ቀበ ሌዎች</w>
ተጫዋ ቾችን</w>
ማ ሳ</w>
ሸ ባ
ከ አሁን</w>
የ ኑ
የ ቴሌቪዥን</w>
ፀ ጉ
ፈ ቀደ
ሀገ ራቸው</w>
ያሳ ለ
ባይ ሆን</w>
እንዲሰ ሩ</w>
ፈቀ ደ</w>
ቅስ ቀሳ</w>
ረ ቤት</w>
ኔ ም</w>
አ ፈ</w>
ያ ጣ
ጋዜ ጣው</w>
ተደር ገው</w>
ሲ ሳይ</w>
በ ወጣ
ኩ ራት</w>
የ ወደፊት</w>
እነ ዚያ</w>
ህዝ ብና</w>
አረ ቢያ</w>
አሉ ኝ</w>
ሚ ዎቹ</w>
ሳ ቅ</w>
ቹ ንም</w>
ኤ ንድ</w>
ይ ይ
ፒ ያ
አል ሆነም</w>
ሰብ አዊ</w>
የት ኞቹ</w>
መጥ ን</w>
ከራ ሱ</w>
ያህዌ ም</w>
በ200 6</w>
ማግ ስት</w>
የ ፓርላማ</w>
ይ ለዋል</w>
ደ ሰት</w>
ገ ዳ</w>
የማ ንነት</w>
ይኖ ራ
ወረ ራ</w>
ታይ ቶ</w>
ቸዋ ለን</w>
ነ ቱም</w>
ዋ ጋው</w>
ገ ውም</w>
ሻምፒዮ ናው</w>
አስገ ድ
በማን ሳት</w>
የበኩ ላቸውን</w>
ነር ጂ</w>
እጃ ቸውን</w>
ማ ወ
በ እንግሊዝ</w>
ቻ ና</w>
ነ ታ
ና ቸውም</w>
አ ኩ
ዋ ጋት</w>
ዓ ም</w>
ገ ዥ</w>
ጋ ብ
በማ የት</w>
ሰለ ፍ</w>
ታዳ ጊ
e m
ቤ ቶቹ</w>
ወ ድ</w>
ደ ኛ</w>
የሚያ ወ
ከራ ከ
ተስማ ሚ</w>
ለ ህብረተሰቡ</w>
ላ ላው</w>
ረ ፈ</w>
ታው ቅ</w>
ያው ቀው</w>
አዴ ን</w>
መፍት ሄ
ተሸ ክ
ቤተሰቦ ቻቸው</w>
ድክ መ
7 00</w>
መ ተግበር</w>
ድ ፍረት</w>
ተገ ም
ለማስ ፈን</w>
ከባ ከ
ባበ ሪያ</w>
አምላ ክ
ያስተ ም
ገልፀ ው</w>
የፊ ልም</w>
ዝም ታ</w>
አማራ ጮች</w>
ኮሚሽ ነር</w>
መ ዱ</w>
ሮ ቹን</w>
በ እንዲህ</w>
የ ፕሬስ</w>
አደ ሩን</w>
ሲያ ጋጥ
አንዳን ዱ</w>
እርግ ዝና</w>
ምሁ ር</w>
መ ኖ</w>
የ እድገት</w>
ያ ዋ
ጥ ቆ
መን ጃ</w>
አካባ ቢውን</w>
ሻሻ ሉ</w>
ል ቅ
ሰ ፋ
የ ዛሬ
ያ ትር</w>
የሚያደር ጉትን</w>
ደጃ ዝማች</w>
ተጋላ ጭ</w>
ሆ ች</w>
መ ዳን</w>
በ ከፊል</w>
የ ሀብት</w>
የተ ከለ
በተ ደራ
አካ ሄ
አሳ ው
መረጃ ው</w>
ሆቴ ሉ</w>
ፌዴራ ላዊ</w>
ሻ ይ</w>
ኒ ን</w>
ጤ ናው</w>
ግባ ብ</w>
አብ ራ
አድር ጉ</w>
ሰብ ል</w>
ጠየ ቅ
ኢኮኖሚ ና</w>
የያ ዙ</w>
s i
ራ ለን</w>
ከ ኝ</w>
ጀ ግን
ለመ ለየት</w>
እያ ለች</w>
አስተዳ ዳሪ</w>
የሚያደር ገውን</w>
አስተዳደ ራዊ</w>
ላ ችኋል</w>
ስ ሙን</w>
ቱ ኒ
ነ ውም</w>
ዊ ነትን</w>
ጥ ገና</w>
ፈ ሪ
የሚ ሆነውን</w>
የመ ሸ
አም ና</w>
መረ ጋገ
ዋን ጫው</w>
ሆን ክ</w>
1 50</w>
ሞ ቹ</w>
ተ ውና</w>
ኮ ሙኒኬሽን</w>
ጉ ን
ጽ ኑ</w>
እየተ ሠራ</w>
ገንዘ ቤ</w>
ደረገ ች</w>
ስ ነት</w>
ሷ ቸው</w>
ቱ ትን</w>
ዥ ነት</w>
መር ዳት</w>
በሰ በው</w>
ሰ ዎቹ</w>
ከ መስጠት</w>
ያ ማ
ያ መጣል</w>
በተ ና
የሚያ ጠ
ያው ቁት</w>
ወል ደ</w>
ሆስፒታ ሎች</w>
መደምደ ሚያ</w>
ይ ከብ
ከመ ሬት</w>
እው ነቱ</w>
ሀብ ትና</w>
ወለ ዱ</w>
ምሥ ክር</w>
5 8</w>
ከ ንድ</w>
በመ ሳተፍ</w>
ለመ ደገፍ</w>
ለማ ዘጋጀት</w>
አል ታ
ቱሪ ስቶች</w>
ምልክ ቶች</w>
ኢ ሳ</w>
የ ነፃነት</w>
ገባ ኝ</w>
ደራ ሲው</w>
ለማስ ገባት</w>
ነጥ ብ
ሰር ቶ</w>
አዲ ሱን</w>
ተጽ እኖ</w>
ተኩ ል</w>
ረ ና</w>
ሹ መት</w>
ች ህን</w>
ከ አገሪቱ</w>
የ ፆታ</w>
በተ ሰጠው</w>
ገለ ጽ</w>
ትረ ፍ</w>
ለ 1</w>
ላ ስ</w>
ሰ ኝ</w>
ከ ግብፅ</w>
ይ ዤ</w>
ጋ ይ</w>
ጫ ካ</w>
ጽ ና</w>
እየ ቀነሰ</w>
ተከ ሰ
በጥ ናቱ</w>
የለ ንም</w>
ስብ ስብ</w>
ይኼ ን</w>
ማዳ በሪያ</w>
ራስ ህን</w>
ል ዕ
ሰ ተኛ</w>
ስ ዊ
ሽ ው</w>
የተ ገኘ
ችግ ርን</w>
ኮንዶሚኒ የም</w>
ህ ክምና
ረ ሃብ</w>
ሳ ቸውም</w>
ያ ድ
ይ ጫወ
በመ ሰ
ተወ ል
ለ ቀ</w>
ቤ ን
በማ ለ
በር ግ
ክፍ ፍል</w>
ሥራ ም</w>
ተቀ ብለው</w>
ግንባ ታውን</w>
ባል ተ
ሜ ክሲ
የ ፕሬዚዳንት</w>
ድ ሶ
ጎ ጂ</w>
ፌ ደራ
ለው ጡ</w>
ተመ ድ
የተቀ መጠው</w>
በረታ ታት</w>
የሚኖ ሩት</w>
ተነሳ ሽነት</w>
ጤ ን
ለማ ቋቋም</w>
ከባ በር</w>
ምስ ኪን</w>
መታ ሰቢያ</w>
ስደ ተኞችን</w>
በ አንጻ
ቶ ሪ</w>
ኝ ነትን</w>
ዝ ነው</w>
በመ ጋ
በመ ላክ</w>
በማ ግ
200 6</w>
ፖሊ ሲና</w>
ሌክት ሮ
ሕፃ ን</w>
ሀ ላ
ማ ሠ
ቃ ሉን</w>
የሚ ፈለገውን</w>
እንደ ዚ
አስ ከት
ተጠ ብ
አበ ባን</w>
ፈለ ግ
በቅ ጡ</w>
ኤርም ያስ</w>
2 ኛ</w>
ህ ብረተሰቡን</w>
ሪ ል</w>
ከ 3
ው ክልና</w>
ዴ ፓ</w>
እንደሚ ሆኑ</w>
በየ ወሩ</w>
የደረ ሰ</w>
ውሳኔ ው</w>
5 7</w>
ቅ ቡ
ች ስ</w>
ወ ቀ</w>
ፎ ካከ
እንደ ሆነች</w>
ፍቅ ርና</w>
ባለስልጣ ኑ</w>
ሆ ንን</w>
መ ጸ
ሳ ና</w>
እንደሚ ታወቀው</w>
የእ ሱ</w>
ኒው ዮርክ</w>
በቅን ጅት</w>
ሲ ገቡ</w>
በ አንዱ</w>
በ ክብር</w>
አ ዎን</w>
የሚ ባሉት</w>
አል ተሳ
አስታው ሰዋል</w>
ትል ቁን</w>
ሳይን ቲ
u r
ሙ ያው</w>
ሩ ንና</w>
ብ ለ
ን ዴ</w>
አ በርክ
ዕ ን
የ ዜጎች</w>
እያ ከናወነ</w>
የታ የው</w>
መሳ ተፍ</w>
የደ ህንነት</w>
መሥ ፈር
በመስ ኖ</w>
ዳይ መንድ</w>
ሆና ችሁ</w>
የማህ በሩ</w>
ድክ መት</w>
ሕ ገ
በ እን
አ እምሮ</w>
ጥ ሰት</w>
ለመ ታደግ</w>
ፕሮ ፓ
በስ ድስት</w>
ሰብ ኩ</w>
en t</w>
በሌ ለበት</w>
ተፋ ሰስ</w>
ክምች ት</w>
ቢ ሊ
ቧ ን</w>
አ ጠራ
ው ሀ</w>
የ ሶማሊያ</w>
የተ ነገረ
አን ጀ
የመ ምህ
ቅዱ ን</w>
ለማስ ቀጠል</w>
ይሄ ም</w>
ተፈጥ ሯል</w>
ቸገ ሩ</w>
መ ተማመን</w>
ነ ብ</w>
ጓ ጉ
ወሰ ደው</w>
መቀ ሌ</w>
ፈፀ ሙ</w>
ሲ ስተ
ሲ ነሳ</w>
በ ጊዜው</w>
ን ጋት</w>
የ ቡ
የ ድርቅ</w>
ግ ፍ</w>
የተ ሠራ</w>
እንደሚ ሰጥ</w>
ግባ ቸው</w>
የግ ድቡ</w>
ማሳ ካት</w>
ማበረታ ቻ</w>
ሪ ቷ</w>
ስ ኮ
ለመ ለወጥ</w>
በአ ዳማ</w>
ተፈ ራ</w>
ፍራ ፍሬ</w>
ላቀ ሉ</w>
የመሠረ ተ</w>
የዘላ ለም</w>
ለ ምንድነው</w>
ሪ ክ
ባ ውያን</w>
አይ ቶ</w>
ድን ኳን</w>
ለማስ ከበር</w>
ፖሊ ሶች</w>
የምታ ደር
ዮር ዳ
ሐዋ ሳ</w>
ጀግ ኖች</w>
ዕብራ ውያን</w>
ላ ቅ
ቦ ንድ</w>
የ ልጅ</w>
ጅ ቶ</w>
የሚ ጠብ
የሚ ካሄድ</w>
የሚያ መለክት</w>
ወስ ዱ</w>
አመልክ ተው</w>
ምሥራ ች</w>
ዲያ ብሎ
6 3</w>
በ ስፖርት</w>
ኮ ረ
ደ ብ</w>
ጋ ችን</w>
ፖ ል</w>
በማ ካሄድ</w>
እንዳ ሳ
እየ ነ
አካባ ቢያ
ሪያ ዎቹ</w>
የታ ገ
ገና ኝ</w>
አዋ ቂ</w>
ተፅ እኖ</w>
ለመቀ የር</w>
ፖለቲካ ና</w>
ዳይሬክቶ ሬት</w>
ሲ ሚንቶ</w>
ሻ ሽ
በ በት</w>
ከ ፊት</w>
ያ ጋ
ደ ንት</w>
ጨዋ ታውን</w>
ተሳታ ፊ
ላቀ ቅ</w>
ሞላ በት</w>
ለ ቁ</w>
ከ 20
ወን ጌ
የወ ር</w>
እ ፎ
የ እን
ዴ ም</w>
በተ ቻለ</w>
ኃይ ለኛ</w>
መዘ ገቡት</w>
አሰልጣ ኙ</w>
ተካሂ ዷል</w>
አኳኋ ን</w>
ቢ ኔ</w>
ብ ረው</w>
ተ በት</w>
ከ ህዝብ</w>
የ ቲ
ዳ ውን</w>
ጉ ዋ
ጋ ድ</w>
ፁ ን</w>
ፈ ላለ
ያለ ውና</w>
ብሔ ረሰብ</w>
የት ግል</w>
ትን በ
የራ ስን</w>
ብቸ ኛው</w>
አዎ ንታዊ</w>
ማ ልማት</w>
በ 10</w>
ኑ ትን</w>
የተ ነሳው</w>
የለ ብንም</w>
ሠር ግ</w>
ወድ ቅ</w>
ኤክ ስ
ፈገ ግ</w>
ጭበር በር</w>
ማ ቱ</w>
ስ ስ</w>
ተ ዓ
ት ው
ው ህ
የ ፈጸ
የ ኬንያ</w>
ይኖ ሩ</w>
አፍ ር
ባለቤ ቴ</w>
ጎብ ኘት</w>
ብጥብ ጥ</w>
መላእ ክት</w>
ሁከ ትና</w>
v e</w>
ል ክት</w>
የ አንድነት</w>
እንዲ መጣ</w>
እየተ ንቀሳቀ
ታሪ ኮች</w>
ያው ቃሉ</w>
ጠይ ቁ</w>
ወረ ርሽ
ገና ኘ
በታ ላቅ</w>
የመንግሥ ትን</w>
የጎደ ለው</w>
ሟ ላ
እንዲ ውል</w>
እንደሚ ቀጥል</w>
ስለ ም
ተጠቅ ሷል</w>
ሳ ለን</w>
ቀ ልብ</w>
ብ ለው
ኢ ሕ
የ ኛ</w>
ጋ ትና</w>
የሚ ጣ
የሚ ሉትን</w>
የሚ ወጣው</w>
ከሚ ለው</w>
ተመ ላ
መቀ ጠ
ትግ በራ</w>
ኢያ ሱ</w>
ለ ችግሩ</w>
ሲ ልም</w>
በ ሶስት</w>
ጀ ር</w>
ጫ ም</w>
ፅ ሁ
ፅ ህፈት</w>
ፖ ርት</w>
የአ ሰራር</w>
መነ ሻ
የተፈጠ ረውን</w>
ዘዴ ዎች</w>
ተነግ ሯል</w>
ማ ርና</w>
ቀ ስ
መንገ ሻ</w>
መድረ ሱን</w>
ተጠያ ቂ
በትክ ክለ
ተዘጋጅ ቶ</w>
አክለ ዋል</w>
ሙ ከራ
ሲ ኖር</w>
ፊ ቱን</w>
ፍ ስ</w>
የተ ሞላ</w>
የም ን</w>
ጠቅ ላላው</w>
ይገ ር
ሰራ ተኛ</w>
ስን ዴ</w>
የተጠቀ ሰው</w>
የሚታወ ቅ</w>
በ አስቸኳይ</w>
ታ ር
ከፍ ተኛውን</w>
ይገ ኝ
እንስ ሳ</w>
የሚያስፈል ገውን</w>
እል ባት</w>
ጌታ ዬ</w>
ችግሮ ቹን</w>
አመሰግ ናለሁ</w>
l e</w>
ል ፈው</w>
ሲ ኒ
የ ዜጎችን</w>
ዮ ቹን</w>
ደ ሴ</w>
የተ መደ
ለመ ምራት</w>
አር በኞች</w>
ተወዳ ጅ</w>
አያው ቁም</w>
ለ ራሳቸው</w>
ሐ ሙስ</w>
መ ድን</w>
ዌ ር</w>
በመ ጣ
በማ ምረት</w>
አሳ ታ
የምት ችለው</w>
ሥልጣ ኔ</w>
ኤምባ ሲ</w>
ለ ሴቶች</w>
መ ት
በ ሰ</w>
ተ ለዋ
ከ ድ
የሚፈ ጥር</w>
አባላ ትን</w>
ተዋና ይ</w>
ማ ድ
ም ጥ</w>
ብ ሃል</w>
ታ ቱ</w>
ቷ ም</w>
በር ን</w>
አበ ባ
ላ ሊ
ራ መድ</w>
ከ መ</w>
ዘ ሩ</w>
ገ ላ</w>
ነገ ድ</w>
አል ኩ</w>
አካ ሂ
ትር ዒ
ዘግ ይ
ችሁ ና</w>
ሽማግ ሌ
የተቃ ውሞ</w>
ክስተ ቶች</w>
በምዕራ ብ</w>
መቅደ ሱ</w>
7 2</w>
ሲ ሄዱ</w>
ቀ ሪ</w>
የ አስ
ጠ ቁ</w>
ዓይ ኖ
ድርጅ ቶችና</w>
ተቃ ራ
የነበረ ችው</w>
5 9</w>
ሄ ጄ</w>
ሪ ካም</w>
ታ ትም</w>
ን ማ</w>
ከ ሰማይ</w>
የ ፓርቲው</w>
ፐ ር</w>
እን በል</w>
ለመ ማር</w>
የማ ዕድን</w>
ያለ ፈው</w>
ከሚ መለከታቸው</w>
ገና ዘ
ፖለቲካ ው</w>
ማህበራ ዊና</w>
ሐ ዘን</w>
ሠ ልጣ
ከ አውሮፓ</w>
ይ ነህ</w>
በመ ገናኛ</w>
ማህ በረሰቡ</w>
ለማስተ ካከል</w>
ስልጠና ው</w>
ፎቶ ግራ
ሌ ዋ
በ ቻይና</w>
ቴ ኒስ</w>
ዴ ቪ
እንደ ተጠበቀ</w>
እር ሷ</w>
ሥራ ና</w>
ፓር ት
ሚኒስት ሮች</w>
የገ ዛ</w>
ጥያቄ ውን</w>
አቋ ራጭ</w>
መሀ መድ</w>
ሃገ ራት</w>
ሙ ላቱ</w>
ካ ችን</w>
ግ ማ
ጓ ድ</w>
የሚ ቀርቡ</w>
እየተ ቀ
ኢን ሹራንስ</w>
ኃይ ልና</w>
ሰላ ምታ</w>
ቁጥ ጥ
መግለ ጽ</w>
ተፈጥ ሯዊ</w>
አመላ ካች</w>
ገልጻ ለች</w>
ለ ታ
ለ ሞት</w>
ሲ ነፃፀር</w>
ከ ውን</w>
ው ጊያ</w>
ጠ ባብ</w>
ተገ ነዘ
ጥን ካ
ካህ ናት</w>
መ መለ
ነ ሱት</w>
እ ወዳ
ጭ ው</w>
ሕይወ ታቸውን</w>
በ20 15</w>
ተጠና ቋል</w>
መዛሙ ርት</w>
ጨነ ቅ</w>
በጥቅ ሉ</w>
ሐ ቅ</w>
መ ቆም</w>
ረ ከብ</w>
በ ቴክኖሎጂ</w>
ነ ፋስ</w>
ኬ ሚካ
ይ ሳ
የመ ታ
ውስ ንነት</w>
ምን ኛ</w>
በም ስራቅ</w>
በጥ ልቅ</w>
ብሪ ታ
ሰ በት</w>
ቁ ጥሩ</w>
በመ ገንዘብ</w>
መን ጨት</w>
ማኅ በሩ</w>
ጠፋ ም</w>
ተቀም ጠው</w>
ለ ሌላው</w>
ም ታት</w>
ቴ ር</w>
ደ ላ</w>
ዳ ፊ</w>
በማ ግኘ
የአ ህጉ
በአ ም
ምን ዛሬ</w>
ማስ ገባት</w>
ጥቅ ሞች</w>
አድርገ ናል</w>
ካተ ቱ</w>
ይ ከተ
ገባ ና</w>
ጨዋ ታዎችን</w>
በተመሳ ሳይም</w>
ሸን ፍ</w>
ብሩ ህ</w>
ኔትወር ክ</w>
ከ እዚህ</w>
ከ 40</w>
ያ ወጣው</w>
ዳ ኝነት</w>
ፔ ን</w>
አል ፈልግም</w>
ገበ ሬዎች</w>
የምን ች
ቆን ጆ</w>
በመድረ ኩ</w>
ሩ በትን</w>
ቁ ን
በ ደም</w>
ክ ሉ</w>
ዳ ችሁ</w>
ቀድ መው</w>
ደረጃ ም</w>
ይሄ ኔ</w>
ተላለ ፉ</w>
አጠቃ ቀ
ወክ ለው</w>
6 7</w>
ለ አደጋ</w>
ለ ዚሁ</w>
ሚ ስቱ</w>
ሯ ሯ
ተ ዘ
ታ ጣ
የ ረ</w>
የ ኮን
የ ጀርመን</w>
ጻ ፈው</w>
ድርጅ ቱን</w>
በሰ ው
ከማ ድረ
የቦ ርድ</w>
ምግባ ርና</w>
አሸባ ሪ</w>
ም ባቸው</w>
ሰ ሳ</w>
ሳ ኔ</w>
በ ጐ
በ ዩኒቨርሲቲው</w>
ካ ቶ</w>
የ ባንኩ</w>
አስ ርት</w>
ተነ ሳ</w>
ትምህር ቶች</w>
አቅራ ቢ</w>
ቶ ቻ
ኞ ችም</w>
ኢ ስላሚክ</w>
ኮ ራ</w>
በተ ራ
ለማ ንም</w>
ምህ ረት</w>
ቅር ጽ</w>
የምት ለው</w>
ረጋገ ጡ</w>
የእ ሱን</w>
የጥ ን
ሌሎ ችንም</w>
ካለ በት</w>
በፊ ትም</w>
ደሞ ዝ</w>
ለ ሰ
ቀ ው
ኖ ረ</w>
ከ አንተ</w>
ለመ ጠ
ላለ ህ</w>
ውጤ ታማ
ላይ ነት</w>
የአሜሪካ ን</w>
ፌዴሬሽ ኖች</w>
መልአ ክ</w>
ማ ሟላት</w>
በ ቁ</w>
በ ግለሰብ</w>
ጠ ረ</w>
ፀ ጉር</w>
ምር ም</w>
ከመ ድረ
ያሳ ድ
ጥበ ቃና</w>
የደ መ
ሞ ቅ</w>
ሮ ዋ</w>
ቃ ይ
ቴ ና</w>
የ ሩሲያ</w>
ያ ነት</w>
፲ ፱
እንደ ነበረው</w>
በተ ገኙበት</w>
ምክ ክር</w>
ገብ ነት</w>
ተሳት ፈዋል</w>
የሚጠ በቀው</w>
ይቀ ራል</w>
ደርስ በት</w>
የስደ ተኞች</w>
የሚገር መው</w>
c e</w>
ኮ ም
የ ሉም</w>
ያ ንና</w>
ጋ ጥም</w>
የሚ ተ
ደረ ግም</w>
ልጆ ቹን</w>
በግ ማሽ</w>
ማስተ ናገድ</w>
በእርግ ጠኝነት</w>
እስከ አሁን</w>
ኤክ ስፖርት</w>
ውለ ታ</w>
አላስ ፈላጊ</w>
ለ ዚ
ክ ሬ
ደ ነገ
ድ ና
ዓመ ቷ</w>
መጠ ሪያ</w>
አክ ሊ
የመሳሰ ሉትን</w>
ሀ ዋሳ</w>
ሊ ቲ</w>
ላ ማ</w>
እ ጁ</w>
ብረ ታ</w>
ተከት ለው</w>
መ ቆጣጠ
ቀ ኑን</w>
ች ኛው</w>
ን ክ
የ ብሔር</w>
ዷ ን</w>
አስ ባለሁ</w>
ለማ ዋል</w>
መለ ኪያ</w>
ከፍ ተኛው</w>
ግንባ ታና</w>
a s
ሜ ናዊ</w>
ሠ ላም</w>
ቀ ልጣ
ቀ ንድ</w>
ና ወ
ዱ ቄ
ዳ ለች</w>
ጅ ምር</w>
የተ ዘጋጀ
እንደ ዚሁ</w>
አገ ሮችን</w>
ተገ በር</w>
ሥርዓ ትን</w>
ሰነ ዶች</w>
ንቅ ለ</w>
ti on</w>
ቁርጠ ኛ</w>
የሚገል ጹት</w>
አንጋ ፋ</w>
የሚያረጋግ ጥ</w>
5 ኛ</w>
ሕ ጉን</w>
መ ጓደ
ሞ ትን</w>
ቃ ችን</w>
ፓ ውንድ</w>
የሚ ሄድ</w>
ደር ሰዋል</w>
ስተ ኛና</w>
ወር ቁ</w>
ይሰ ጣ
መዋ ጮ</w>
ባለሀብ ቱ</w>
ማስታወ ሻ</w>
መ ነ</w>
መ ቀበ
ማ ማት</w>
ቂ ም</w>
በ አገራቸው</w>
ባ ቡ
ተ ቆር
ይ መለ
ድ ኩ</w>
ሕዝ ቅ
መር መር</w>
ህ ሳስ</w>
ሉ በትን</w>
ኦ ዲት</w>
ዛ ሉ</w>
ጣ ይቱ</w>
እን ኳ
በመ ሸ
በተ ፈጠረው</w>
ያስ ቸግ
ተገ ድ
ኃላፊ ነታቸውን</w>
ገና ኙ</w>
የው ጪ</w>
ዕር ምጃ
ይኼ ው</w>
ገለገ ሉ</w>
አልሸ ባብ</w>
ም ድ</w>
ሯ ቸዋል</w>
ሽ ከረ
በ ብ
በ ሱ</w>
በ ምክር</w>
ኤ ድስ</w>
የ ውድድሩ</w>
የ ሐዋርያት</w>
ደ ችው</w>
ይገ ባ</w>
አው ራ
አለመ ግባባት</w>
ትን ፋ
እውነ ትም</w>
ተሰጥ ቷል</w>
ሕ ሊ
ር ተው</w>
በ ዙ</w>
ች ለናል</w>
ከ ሶስት</w>
ዟ ቸው</w>
ይ ጣን</w>
የተ ፈረ
እንደ ዚያ</w>
መስ ኮት</w>
የም ስራቅ</w>
ይሄ ን
ጠየ ቀው</w>
ችን ንም</w>
የአሠራ ር</w>
ህ ጻ
ም ብ</w>
ቃ ዊ</w>
በ ምር
በ ድል</w>
ቴ ል</w>
ቼ ክ</w>
አ ቸውን</w>
እ ሱ
ዕ ቢያ</w>
የሚ ተዳ
ያለ ነው</w>
አቀ ባይ</w>
በል ግ</w>
የምት ች
ዴሞክራ ሲያ
ማስተ ላለ
ሰው ዬው</w>
ለ ቀረ
ማ ገ
አ ጥር</w>
ኮ ቹ</w>
ጊዜ ውን</w>
ያስፈል ገናል</w>
በህ ብረተሰቡ</w>
በ20 14</w>
ተቋቁ ሞ</w>
ለ ኞች</w>
መ ሻ
መ ታ</w>
በ ድርቅ</w>
የ ጅ
ግ ኝ
በተ ባለ</w>
መሰብ ሰብ</w>
ሥ ቃይ</w>
በ ደረጃ</w>
ቤ ና</w>
ኛ ለች</w>
ከ ግማሽ</w>
ዋ ለ</w>
የ ቀድሞ
ደ ለ</w>
እንዲ ኖሩ</w>
እስ ራት</w>
የተቀ መጡ</w>
ገነዘ ብ</w>
የመፍት ሔ</w>
ል ቁ</w>
ዬ ር</w>
ግ ሩ
በአ ፋ
ባለ ሀብት</w>
የሚያ ገኙት</w>
መብ ትን</w>
ድርጊ ቱን</w>
እንግሊ ዛ
ዕው ቀ
ክን ፍ</w>
ይስ ጥ</w>
ይሰማ ል</w>
ለ እነሱ</w>
ማ ዋል</w>
ሣ ሥ</w>
በ ይ</w>
አ ዕምሮ</w>
ከ ጠ
ግ ግር</w>
ፍ ሳሽ</w>
ለማስ ቀረት</w>
የሚታ የውን</w>
ዘዋ ወር</w>
የህዝ ብን</w>
ብሄረሰ ቦችና</w>
6 6</w>
በ ደርግ</w>
በመ ሬት</w>
የማ ይች
በእ ጁ</w>
ለማስ ጠበቅ</w>
ቢያ ና</w>
ማር ክ</w>
ሕይወ ታቸው</w>
ተመራ ማ
ሱ ቅ</w>
በ ክል
ቢ ን</w>
ቲ ዎ
አ ሉን</w>
ወ ረ</w>
ይ ጣ
እየ ሆኑ</w>
ሃይ ሎች</w>
ታዳ ጊዎች</w>
አስተያየ ቶች</w>
5 ሺ</w>
ሐ ራም</w>
መ ነሳት</w>
ሲ ኖ
ቀ ፉ</w>
ቆ ሎ</w>
በ ቤተሰብ</w>
ቶ ችንም</w>
የ ፌዴሬሽኑ</w>
ያ ገለግ
ደ ኅንነት</w>
ሰራ ዊት</w>
ኦሮ ሚ
ተን ታ
አብዱ ል
መ ጫወ
ቅ ስ</w>
ቋ ት</w>
ከ ዓመት</w>
ገ መት</w>
የተ ቀረ
እንደሚ ባለው</w>
ፍላጎ ትና</w>
ከብ ሩ</w>
ማረ ሚያ</w>
ይረዳ ናል</w>
በሻ ህ</w>
በዋነ ኛነት</w>
ል ደት</w>
ባ ሉትን</w>
ብ ቷል</w>
እ ሴቶች</w>
ጻ ድቅ</w>
በመ ውጣት</w>
ያስ ተዋ
የሚያ ገለግሉ</w>
በር ግ</w>
የህ ብረተሰቡን</w>
ነጋገ ሩ</w>
አስፈላጊ ው</w>
ቀነ ኒሳ</w>
ያቀር ባል</w>
ምፒዩ ተር</w>
መ ኩ
ሽ በት</w>
በ ክ</w>
እ ቃ</w>
ጋ ር
ያለ ኝ</w>
ሁኔ ታ
ተወ ለ
ንስ ሐ</w>
የሚጠ ጉ</w>
አስኪያ ጁ</w>
ሚዛ ናዊ</w>
ኢንስቲትዩ ቱ</w>
ለ ሆኑ</w>
ሔ ዋን</w>
ሙ ዩኒኬሽን</w>
ር ጌ</w>
ሰ ከንድ</w>
ቁ ም
ተ ሩ</w>
ታ ኅ
ቴ ም</w>
አ ዙ
አ ያደር
ካ ራ
ገ ጣ
አን ገት</w>
እየ ሠሩ</w>
መጠ ኑ</w>
ኢየሱ ስም</w>
አስተዳደ ሮች</w>
ይወጣ ል</w>
ሊ ጥ</w>
መ ኝታ</w>
ሬ ውን</w>
ሲ ሸ
የ ሁለቱን</w>
ጋ ርም</w>
የሚ መስል</w>
መጠ ለያ</w>
በጥ ብቅ</w>
ትን ሣኤ</w>
ትራ ፊክ</w>
ከፈ ለው</w>
ለማስተ ናገድ</w>
በስብ ሰባ
ስፖን ሰር</w>
ማኔ ጅመንት</w>
3 0
ከ ጀመ
ካ ፍ
የ ሕዝቡን</w>
ዳ ሚ</w>
ዶ ክ
ጎ ማ</w>
ሰራ ም</w>
ብር ታት</w>
ሔ ክታር</w>
ማ ችንን</w>
ቀ ዶ</w>
ቂ ቱ</w>
ቬ ን
ከ አንዱ</w>
መለ ያ</w>
የግ ሉ</w>
ስላ ለ</w>
አያ ሌው</w>
በበ ለጠ</w>
የሲ ቪል</w>
ወደፊ ቱ</w>
ታቅ ዶ</w>
ድልድ ይ</w>
ህ ጉ</w>
መ ሲ
ማ ሽን</w>
ር ቀ
በ ጦር</w>
የ ኦሎምፒክ</w>
ይ ቀበ
እንዲ ህም</w>
ያስ መዘገበ
ነበረ ኝ</w>
እስከ ዛሬ</w>
አስፈጻ ሚው</w>
ጎበ ዝ</w>
ቆ ስ
ዋ ስት
ደ ባቸው</w>
እንደሚ ናገሩት</w>
አቅ ምና</w>
ስቲ ክስ</w>
መደ ገፍ</w>
የሚች ልበት</w>
ጸሐ ፊው</w>
ኢህአዴ ግን</w>
መቆራረ ጥ</w>
ሳ ህ
ባ ዩ</w>
የ ሳይንስ</w>
ዶ ም</w>
በረ ከተ
አቀ ባበል</w>
አው ደ</w>
የመጀመ ርያ</w>
ተው ታል</w>
በበ ላይነት</w>
ጠረጴ ዛ</w>
ዋ ስ</w>
ይ ለናል</w>
ከተ ጠቀ
አል ፏል</w>
መሰ ጠ
ደመ ወ
ባለሙያ ዎቹ</w>
አሠልጣ ኝ</w>
ያካተ ተ</w>
ደመቀ ች</w>
መ መረ
በ ቁጥር</w>
ካ ፕ</w>
የ ኔ
የ ቀበሌ</w>
ጎ ለ
ጎ ስ</w>
ጽ ም</w>
በአ ቅራ
አል ተሰ
በት ጋት</w>
የገ ቡ</w>
ጽሑ ፉ</w>
ክብ ርና</w>
የሚፈል ገውን</w>
ዘረ ጋ</w>
የጠቀ ሱት</w>
በቀዳ ሚነት</w>
ማ ቀ
ማ ድሪ
የ ክርስቶስ</w>
ደ ረ</w>
ፋ ቱ</w>
የሚ ጫወ
አገ ራቸውን</w>
ፈል ጎ</w>
በተለ ምዶ</w>
እግ ዜ
ተማ ሪዎቹ</w>
በዘ ለለ</w>
በድ ፍረት</w>
ያብራ ራሉ</w>
ተሰማር ተው</w>
9 5</w>
ያ ዙት</w>
ጀ ትና</w>
አይ ን</w>
ዓመ ትም</w>
ወር ቅ
የእ ህል</w>
ከታ ች</w>
ጥረ ቶች</w>
ውሳኔ ዎች</w>
ተለይ ቶ</w>
ለን ባብ</w>
ነጻ ነት</w>
ያግ ዛል</w>
ርዕዮ ተ</w>
ተ ክለ
ተ ጀመረ</w>
የ ንግድና</w>
ፍ ታ</w>
ያደረ ገውን</w>
ወረ ቀ
ያስፈል ገዋል</w>
ተገኝ ቷል</w>
ልዑ ል</w>
6 8</w>
ቆ የ</w>
በ አስ
ት ሮ
ኪ ነ</w>
ጭ ፍ
በመ ከተል</w>
አገ ርና</w>
ተገ ቢው</w>
መብ ላት</w>
ማድረ ጋቸውን</w>
የኢ ጣሊያ</w>
አዛ ውንት</w>
ሙስ ናን</w>
አይደለ ሁም</w>
ኮንት ሮ
ሀ ን</w>
ተ ለው
ች ዋ</w>
ወ ት</w>
የ ጨረ
ያ ር
ጎ ብኝ
የሚ ረዳ</w>
ወደ ዚያ</w>
በም ድብ</w>
አዝማ ሚያ</w>
በሶ ሪያ</w>
በታማ ኝነት</w>
መ ገደ
ሚ ር</w>
የ ጽን
ዮ ችና</w>
ጠ ጡ</w>
በተ ዘዋዋሪ</w>
አይ ፈ
በ20 12</w>
የሀገ ሪቱን</w>
8 3</w>
ሀ በሻ</w>
ሲ ጀመር</w>
ው ሏል</w>
ያ በ
ዴ ድ</w>
ጋ ጭ</w>
የሚ ንቀሳቀሱ</w>
ለማ ሸነፍ</w>
ገባ በት</w>
ሰዓ ታት</w>
አልነበ ሩም</w>
ማ ሰባ
በ ጉባኤው</w>
ው ሻ</w>
የ ብሄራዊ</w>
ያ ዳ
ያ ድር
ጠ ጣ</w>
አስ ነብ
ማስ ፋፋት</w>
አህ ጉር</w>
የተጠቀ ሱት</w>
ተክ ለ</w>
ኢንተርፕራይዞ ች</w>
ቀ ውና</w>
በ ኢንዱስትሪ</w>
ተ ከተ
ከ ስ</w>
የ ፌደራል</w>
ግ ቡ</w>
እንደሚ ኖረው</w>
ይወ ር
ሁለ ተኛውን</w>
እንግ ዲያው</w>
ተናግ ራለች</w>
ጋዜ ጦች</w>
እንዲሰ ፍን</w>
ደረግ ላቸው</w>
ይሰማ ኛል</w>
ያገኘ ነው</w>
መሞ ከር</w>
በ ገበያ</w>
ድ ባቸው</w>
ክር ስት
ፈጥ ኖ</w>
እነር ሱም</w>
ህን ፃ</w>
መሆና ቸውንም</w>
ለ አገልግሎት</w>
መ ህ</w>
ሪ ዎቹን</w>
ታ ጅ
አ ሌ
ዛ ቸውን</w>
ያ ችሁ</w>
ያ መላክ
የተ ቻ
በት ብብር</w>
ብዙ ሃ
ማድረ ጋቸው</w>
መኪ ኖች</w>
ክሲ ዮን</w>
ንፁ ህ</w>
ም ህ</w>
በ ጠቅላይ</w>
ያል ታ
ይሄ ዳሉ</w>
መድ ሀ
በትዕ ግ
ለ ቃ</w>
ለ አካባቢው</w>
በ ሃይማኖት</w>
በ ድርጅቱ</w>
ቀበ ለው</w>
የሚገኙ ትን</w>
አወ ቃ
ካፒ ታ
ሊ ኖራቸው</w>
ረ ውና</w>
ሩ ትና</w>
በ ራሳችን</w>
የሚ ከፍ
በመ ወከል</w>
ዘመ ናችን</w>
መጠ ን
ዕድ ሉ</w>
ተፈ ጽ
ሞ ልቶ</w>
ሸ ክ
በ ቡ
አ ላለ
ዓ ሊ</w>
ድ ሃ</w>
የሚ ናገ
አስ ብ</w>
በሚ ቀጥሉት</w>
ምር ቱን</w>
ወዳ ጅ
የስ ልጠና</w>
ማ ተ
በ ቋ
ተ ካት</w>
ክ ቷል</w>
ው ቅ
ያ ቆ
ይ ንት</w>
ጋ ላ
አባ ልነት</w>
ጻጸ ር</w>
ጨበ ጥ</w>
በምሳ ሌ
ሉ ባቸው</w>
ሊ ን
መ ተዳ
ማ ዋ
ቅ ጽ
ተ ሮች</w>
ኃ ያል</w>
አ ከናው
ያ ሬድ</w>
ይ ቆጠ
ግ ህ</w>
ጎ ራ
ፍ ጡር</w>
አባ ተ</w>
የተቀ መጠ</w>
ብቃ ትና</w>
ፐብ ሊ
የሚያሰ ኝ</w>
ያም ናል</w>
ሚ ስ</w>
ማ ለች</w>
ታ ዲ
ዘ ገበው</w>
ፈ ነ</w>
አቅ ማቸውን</w>
ግራ ና</w>
አለመ ቻ
ተገም ቷል</w>
ል ፉ</w>
ከ አካባቢው</w>
ዱ ላ</w>
አስ ችሏል</w>
አይ ነቶች</w>
ይወ ሰ
ቅር ጫት</w>
ፈለ ገ
በ አንተ</w>
ኗ ቸው</w>
ከ ማለት</w>
የሚ ሄ
በአ መራ
ግብ አት</w>
የታ ዘ
መግለ ጫው</w>
ስለማ ይ
ተሳትፎ ና</w>
ሸለ ቆ</w>
በ ጦርነት</w>
የ አገሪቷ</w>
የ ፈረንሳይ</w>
ጣ ቢያው</w>
የተ ሠ
ጠቅ ሷል</w>
የት ኩረት</w>
ፓርቲ ዎቹ</w>
ማስተ ካከል</w>
ለመስ ማት</w>
ምግ ቦች</w>
እዚ ያም</w>
ይወስ ዳል</w>
ለ ዘርፉ</w>
ሪ ታ
ቪ ዲዮ</w>
ተ ለያ
አ ሃ
የ ታቸውን</w>
የ ዩኒቨርሲቲው</w>
ያ ት
ጂ ን</w>
በመ ምጣቱ</w>
መሳ ሰ
ሰልጣ ኞች</w>
ሜክሲ ኮ</w>
ሞ ኝ</w>
ሴ ራ</w>
በ ለት</w>
በ ኬንያ</w>
ኖ ኅ</w>
ዓ ርብ</w>
ጀ ነ
ለማ ጠናቀቅ</w>
ለማ ቃለል</w>
አገሪ ቷን</w>
መላ ኩ</w>
ፋይና ን
ሚስ ጥር</w>
ጥቃ ቅን</w>
የተጀመ ረውን</w>
የአደ ጋ</w>
ይ ም
ይ መር
ጣ ጣ</w>
ግብ ጽ</w>
ዓይ ነ</w>
ጠን ከር</w>
አሜሪካ ን</w>
ዴቪ ድ</w>
ሊ ደርስ</w>
መ ፈጸ
ሲ ጠናቀቅ</w>
ቅ ናሽ</w>
በ ኤርትራ</w>
ቦ ል</w>
የ ቤተሰ
ደ ጀ
ደ ስተ
በመ ደገፍ</w>
በተ ያያ
ባህ ላ
ወር ዶ</w>
ታማ ኝነት</w>
ስፍ ራው</w>
ድህ ረ</w>
የአር ሶ</w>
ጎረ ቤ
ተባባ ሪ</w>
ሊ ቢያ</w>
ሽ ፈራው</w>
ባ ካሄደው</w>
ድ ካም</w>
ጩ ን</w>
ደን ገ
ማዕ ከላ
ንድ ፈ</w>
ነዋ ሪው</w>
ወለ ል</w>
በ20 13</w>
ማ ይ</w>
የ ቀን</w>
የሚ ገባቸው</w>
በመ ጠበቅ</w>
በአ ነስተኛ</w>
ንግ ተን</w>
ሰማ ቸው</w>
ባል ሆነ</w>
ፈቃ ዱ</w>
ተሰጥ ቶት</w>
i l
ከ ኤ
ፀ ደ
ፎ ቹ</w>
እየተ ሰጠ</w>
በሰ ቡ</w>
ትን ቢ
ስን መለከት</w>
ወለ ደ</w>
ዝና ኛ</w>
በፍ ፁም</w>
ከ1 00</w>
ጓደኛ ዬ</w>
6 4</w>
9 9</w>
ሚ ም</w>
በ ሥልጣን</w>
በ እንስሳት</w>
ዕ ኖ
የ ጉዞ</w>
ይ ቅርና</w>
ድ ያ</w>
ጉ ጉት</w>
ፍ ነው</w>
በአ ቶ</w>
ገባ ሁ</w>
ተው ት</w>
ች ሎ</w>
ዘ ራ
እን ከን</w>
የመ ካከ
ፈጥ ሮ
መፅሐ ፍ</w>
ማምረ ቻ</w>
ውስትራ ሊያ</w>
ለ ምን
መ ፈጠር</w>
ሪ ዋ</w>
ሲ ወጡ</w>
ከ ሰዎች</w>
ዕ ብ</w>
ያ ች</w>
ጾ ታ</w>
የሚ ጥ
ለመ ተግበር</w>
ለማ ለፍ</w>
የለ ባቸውም</w>
ያስፈል ግ</w>
በራ ዊና</w>
ጥቂ ቶች</w>
አብዮ ታዊ</w>
የመነ ጨ</w>
መ ነጋገ
ሳ ካ
ሺ ፕ</w>
በ ዳ</w>
በ ምርምር</w>
ጉ ልበ
እንዲ ሠሩ</w>
ምክንያ ትም</w>
200 5</w>
በል ጅ
ፈጥ ሩ</w>
ብር ቱ
የስ ር
ህይወ ታቸውን</w>
በ ዩ
ተ ገባ
ከ ባለ
የ ቅዱስ</w>
የ ህዝቡ</w>
የ ዓይን</w>
የ ገለጸው</w>
የ ፌዴራ
የሚ ሠራው</w>
ለማ ህ
የማ ምረት</w>
ተጠ ይ
አስተዳ ዳ
ከተማ ዋን</w>
ይቀ ን
ሽከርካ ሪ</w>
ለፍ ነው</w>
ይገኝ በታል</w>
ሕ ብረተሰቡ</w>
ሞ ተር</w>
በ እምነት</w>
ካ ኝ</w>
ወ ሎ</w>
ደ ክ
ገ ዱ</w>
ጩ ት</w>
በሚ ሰ
ጉዳ ቱ</w>
ሁኔ ታን</w>
ይወ ድ
ጨረ ስ</w>
ስፖር ተኞችን</w>
የሰብ ል</w>
ል ቤ</w>
ቲ ና</w>
ከ 3</w>
የ ሁ
ያ ህ</w>
ዶ ክት
የሚ ሰራው</w>
እንዲ መለሱ</w>
ለማ ምረት</w>
ዘመ ናቸው</w>
አገልግሎ ቶችን</w>
ነበረ ባቸው</w>
ያስተ ላል
ሏ ቸውን</w>
ም ዕ
ባ ር</w>
ዛ ን</w>
ለመ ቀጠል</w>
ደር ና</w>
ስተ ካከል</w>
ሕዝ ብና</w>
ከሚ ል</w>
ከሚ ያስ
አቀ ማ
ፈጥ ረው</w>
የቆ ዩ</w>
ትክክለ ኛውን</w>
ጥራ ትና</w>
ሃ ና</w>
ሠ ፈር</w>
በ ሕዝቡ</w>
የ ዋ</w>
የ ችው</w>
የተ ረጋጋ</w>
እንዲ ሳተፉ</w>
ተጠ ሪ</w>
ላለ ፈው</w>
ቆይ ተው</w>
ፈር ስ</w>
ላ ሳ</w>
ቁ ኝ</w>
በ ፅ
ቲ ንግ</w>
ጡ ን
ጥ ይት</w>
ፍ ቅረ
የተ ጠናከረ</w>
እየ ደ
ናገ ኝ</w>
እየተ ሸ
በረ ሃ</w>
ምስ ጋ
ተረ ክ
ባለቤ ታቸው</w>
ውያ ንና</w>
መስጠ ቱ</w>
መዝና ኛ</w>
ሔ ድ</w>
ሲ ሰራ</w>
ቃ ረ
በ ወን
የተ ፃ
የተ ረጋገጠ</w>
በመ ምጣት</w>
የመ ላ</w>
ስለ ነበረ</w>
ተከ ስቶ</w>
ሪያ ችን</w>
የወ ላ
ማስታወ ስ</w>
ኦሊ ምፒ
የተፈጠ ረ</w>
ገጠ መ
በአዋ ጅ</w>
የተደራ ጀ</w>
ተ ሠር
ወ ል</w>
ግ ም
ጫ ል</w>
ከተ ጀመረ</w>
እንደሚ ሰራ</w>
መስ ህ
ገባ ች</w>
አድር ጋ
ሁለ ተኛ
መጣ ና</w>
ቅሬ ታዎች</w>
የዳ ኝነት</w>
ክሌ ር</w>
ይፈጠ ራል</w>
ላ ሊት</w>
ማ ቅ
ማ ሞ</w>
ሲ ስ</w>
በ ቢ
በ ዲ
በ የአካባቢው</w>
ታ ቸውንም</w>
እ ኒ
ካ ድ
ዛ ፎች</w>
ገ ፀ</w>
ጓ ዳ</w>
ቅር ፅ</w>
ዴሞክራ ሲና</w>
የሚች ሉበት</w>
የሌ ለበት</w>
በ200 2</w>
በ200 3</w>
ኦዲ ተር</w>
ምርታማ ነትን</w>
መ ታል</w>
ቆ ቹ</w>
እ ይታ</w>
ዙ ትን</w>
ይ ዳ
በመ ድ
እንዲ ያደር
ለማ ም
የመ ብት</w>
በማ ረጋገጥ</w>
የማ ምረ
እነ ዚሁ</w>
ጽሐ ፉ</w>
ከማ ንም</w>
የጎ ርፍ</w>
ከናው ኑ</w>
ምሥራ ቹን</w>
ጥፋ ተኛ</w>
መንስ ኤ
በጋ ምቤላ</w>
e n</w>
ማ ጅ</w>
ሪ ፐብሊ
በ ኮን
በ ከተማ
ኖ ሯል</w>
ኤ ግዚቢ
የ ብል
ፍ ስ
ፍ ሩ</w>
አለመ ሆኑ</w>
ስምም ነቶች</w>
ከሌ ለ</w>
ርዝ መት</w>
ለ አራት</w>
መ ነጋገር</w>
ስ ማ</w>
ታ ቸውንና</w>
ና ፈ
ጻ ድ
ፊ ደል</w>
ሰማ ይነህ</w>
ለማስ ረዳት</w>
መው ደ
ቴክኖሎጂ ዎችን</w>
ጣሊያ ኖች</w>
፲፱ ፻
ለ ጥቂት</w>
ከ ሙ</w>
ዜ ሮ</w>
የ ና</w>
ይ መጣሉ</w>
አቅ ምን</w>
ሥራ ዎቹ</w>
ተሳ ፋ
ስቃ ይ</w>
አማካ ይ</w>
መፅ ሀ
በ ዚህች</w>
አ ጥ</w>
ክ ሱም</w>
ዕ ውን</w>
ዙ በት</w>
ጋ ግ
ግ ቦችን</w>
የመ ብራት</w>
ማስ ቀመጥ</w>
ተከ ሳሽ</w>
ማስተ ላለፍ</w>
ወንድ ሜ</w>
ሕይወ ቱን</w>
የሞ ባይል</w>
በጎ ች</w>
1 3
መ ረ</w>
እን ዴ
የተ ደረጉ</w>
እንደ ታ
እንደ ማለት</w>
አለ ባበ
በስ ልክ</w>
ሃይማኖ ቶች</w>
ፈፀ መው</w>
ማራ ቶ
መዛ ባት</w>
ፌደ ሬሽኑ</w>
ተግዳሮ ቶች</w>
7 3</w>
ቻ ዎች</w>
ኤ ን
ከ ሌሎቹ</w>
ዛ ና</w>
ይ መል
ዴ ና</w>
ጊ ነት</w>
አስ ቀ
ለማ ክበር</w>
ምር ቱ</w>
ጠበ ቃ</w>
የወ ረዳ</w>
መው ጫ</w>
አጥ ንት</w>
የቀ ረው</w>
በዘ ር</w>
አድና ቆ
ተለይ ተው</w>
ባ ስ</w>
ከ ደረ
የ ቡድኑ</w>
የ ዛሬው</w>
በተ ሟላ</w>
መለ ዋ
በሚ ባል</w>
ከመ ቼ
ለማስ መዝገብ</w>
አለመ ግባ
ዕድሜ ው</w>
መጠና ከር</w>
ብሮ ድካ
ህ ዳር</w>
መ ከላከ
በ ውድድር</w>
በ ክልሎች</w>
ቶ ኝ</w>
ከ አቶ</w>
ፈ ፃ
ለማ ጣ
ዘጋ ጃ</w>
ውጤ ቱን</w>
ታሪ ክና</w>
ከራ ስ</w>
ታስ ታው
በመሆ ኗ</w>
ማስተካከ ያ</w>
I n
ላ ኩ</w>
ል ቀ
መ ዓ
ቲ ቪ</w>
እንደ ው</w>
አን ስተዋል</w>
በመ ግዛት</w>
የስ ልክ</w>
በለ ንደን</w>
ተመራ ማሪ</w>
ታዘ ዝ</w>
የኪ ነ</w>
እንቁ ላል</w>
ሕ ግ
ቃ ችሁ</w>
በ 2009</w>
ው ጥረት</w>
የ መንግሥቱ</w>
ጠ በቀው</w>
አሳ ማኝ</w>
ድም ዳሜ</w>
ደረጃ ቸውን</w>
ግድ ያ</w>
የመጀመ ርያው</w>
ሕይወ ትን</w>
ተካ ፋይ</w>
ይበ ልጣል</w>
ስብሰባ ው</w>
ሽን ፈት</w>
ይነሳ ል</w>
አይቀ ሬ</w>
ቅ ኔ</w>
በ ባህር</w>
ተ ቀር
ታ ቦ
የ ጨዋታ</w>
ጭ ራሽ</w>
ፈ ሳሽ</w>
ፍ ሰ
እንዲ ችል</w>
የአ ፈር</w>
ልጆ ቻችሁ</w>
ስቴ ትስ</w>
ይሰ ጥ</w>
የባ ሰ</w>
አዘ ውት
ምኒ ል
ካሂ ድ</w>
የጠቆ መው</w>
የመፍት ሄ</w>
መዋቅ ራዊ</w>
7 4</w>
በ ጉባኤ</w>
አ ብ</w>
ጋ ሽ</w>
ፈ ም</w>
ለመ ጀመ
ለማ ን</w>
በማ ምጣት</w>
የአ ም
የአ ትክል
ሳይ ል</w>
ሊያስ ከትል</w>
ትችላለ ች</w>
ያነ ሰ</w>
ተሽከርካ ሪ</w>
በረሰ ቡን</w>
ድንጋጌ ዎች</w>
ሀ ት</w>
ለ ኔ</w>
ሬ ድ
ሰ ልጠን</w>
ሲ ገ
ቡ ባዊ</w>
ተ መለሱ</w>
ከ ህዝቡ</w>
የ ሕገ</w>
የ ዚሁ</w>
የ ባህልና</w>
ይ ሰራ
ገ ጾች</w>
እንዲ ል</w>
መር ሆ
የኢ ሕአዴግ</w>
መፅ ሃ
የሚስተዋ ሉ</w>
የሚባለ ውን</w>
4 0
a m
ለ ራ
ለ እናንተ</w>
ሊ ሰጥ</w>
ሊ ከሰት</w>
ሲ ጋራ</w>
ስ ባቸው</w>
ሸ ን</w>
ሸ ክም</w>
ት ፈልጋ
አ የሁ</w>
ዙ ም</w>
የ ክረምት</w>
ያ በረታ
ይ ዋ
ይ ድ</w>
ለመ ሰብሰብ</w>
የመ ፍጠር</w>
ምር ጫዎች</w>
ታወ ቁት</w>
አመ ር
ኃላፊ ነቱ</w>
ስቴ ንሽን</w>
ተደራ ሽነት</w>
አስቀም ጧል</w>
ለ ከፍተኛ</w>
ለ ህዝቡ</w>
ራ ራ
በ ውል</w>
ቤ ቱም</w>
ተ ባቸው</w>
አ ፅ
ደ ፋር</w>
ፀ ሃ
የተ ለመ
እንዲ ደርስ</w>
አል ኩት</w>
ሕዝ ቡም</w>
አንደ በት</w>
የቻ ሉት</w>
ባለመ ቻሉ</w>
ባባ ስ</w>
በቀድ ሞው</w>
ለ ፈ</w>
ሺ ያ</w>
ቀ ችው</w>
ቤ ትን</w>
ት በት</w>
ኒ ኖ</w>
ከ ምን</w>
ከ ግብርና</w>
የ ቱርክ</w>
ዶ ና</w>
በመ ከላከል</w>
የሰ ዎችን</w>
ሁለ ቱንም</w>
በየ ነ</w>
ወዳ ደሩ</w>
በመስ ጠ
የሰብ አዊ</w>
ተቃራ ኒ</w>
6 2</w>
ሽ ቶ</w>
ቅ ደም</w>
ኑ ኤል</w>
ና ቸውና</w>
ዘ ንድ
የ ጌ
የ ባለ
ዶ ን</w>
ፍ ፃሜ</w>
ለማ ልማት</w>
እር ሱም</w>
አብ ር
ከሰ ሞኑ</w>
የገ ቡት</w>
እስራኤ ልን</w>
ጽን ሰ</w>
አገላለ ጽ</w>
ለ ዩ</w>
ቢ ዎቹ</w>
የ ሦስት</w>
የ ኢትዮ</w>
መሆ ን
ይገ መታል</w>
ሸነ ፉ</w>
የዳ ያስፖ
ተልዕ ኮ
ኛ ውና</w>
ከ ነ</w>
ከ አል
የ ኦሊምፒክ</w>
ዳ ትና</w>
ፈ ጻ
ፌ ሶን</w>
ሰራ ጨት</w>
በም ሥራቅ</w>
የቻ ይ
ፍል ሚያ</w>
ዳረ ጉ</w>
በመቀ ነስ</w>
ለአብ ነትም</w>
ሪክ ኛ</w>
5 0
ሃ ም</w>
በ ሺዎች</w>
ቹ ንና</w>
አ ናት</w>
ከ ሃ
ከ ዘርፉ</w>
ደ ስ
በመ መ
እያ የ</w>
ገኘ ቱ</w>
ሆነ ህ</w>
200 4</w>
በሰ በ</w>
ጠየ ቁት</w>
አልነበረ ውም</w>
ከፋ ፍ
ዲፕሎማ ሲያዊ</w>
እመ ቤት</w>
ጥሩ ነሽ</w>
ሲ ደርሱ</w>
ን ቃ
የ ድል</w>
የሚ ቀጥል</w>
አበ ባው</w>
ወዳ ደ
እንግ ልት</w>
ሰላ ማ
የተለ ዩ</w>
ጨመ ሩ</w>
በሕ ገወጥ</w>
አይታ ወቅም</w>
ዲዛ ይ
ሕ ትና</w>
ሠ ፊ</w>
ሳ ም</w>
በ ግንባታ</w>
በ ዓመቱ</w>
ቦ ታውን</w>
ቷ ት</w>
ኃ ያላ
የ ሌሎችን</w>
ያ ሻ
የሚ ሳተፉ</w>
በመ ቀበል</w>
እየተ ከናወኑ</w>
የት ብብር</w>
የት ውልድ</w>
ስለሚ ችል</w>
ታደ ስ</w>
ዕው ቀትና</w>
ጠራ ቀ
ይስ ማማ
የተከሰ ተውን</w>
ል ፎ</w>
ከ ማንኛውም</w>
እንዳ ላት</w>
ተደር ጐ</w>
ሐሳ ቡን</w>
ለማስተ ማር</w>
ትስ ስ
የሚያው ቅ</w>
ተጨዋ ች</w>
ፈፅ ሞ</w>
አፍቃ ሪ</w>
አ ተኩ
ከ ነበረበት</w>
ዘ ጋ</w>
ያ ቃ
ለማ ዳን</w>
ወጣ ቱን</w>
ፖሊ ሲው</w>
በ200 5</w>
ብስ ክሌት</w>
በመካከ ላቸው</w>
የሚረ ዱ</w>
ያስፈልጋ ቸዋል</w>
በ ሀገ
ኔ ታ</w>
እንደ ምና
ለማ ስተዋወቅ</w>
የአ በ
ተከ ላ
ወር ቃ
የነበረ በት</w>
ራስ ህ</w>
የሐ ሰት</w>
ደላ ሎች</w>
ሐውል ት</w>
መ ፈተሽ</w>
ቦ ራ
ት ዮሽ</w>
ቻ ቸውና</w>
አ ቆ
የሚ ከሰ
የሚ ነገር
እንዲ ሸ
ከተ ቋቋ
ችግ ርና</w>
ኢን ጅ
ዕድ ሉን</w>
ማስ ረ
የተቀ ላቀ
የካ ር
የካ ፒ
ደንበ ኞ
የክል ሉን</w>
u n
ሜ ውን</w>
ቶ ቻችንን</w>
ኅ ራ
ያ ጠና
ያ ከናወ
ደ ሰ
ለመ ጠየቅ</w>
መጠ ይ
ገኛ ለን</w>
ይገልፃ ል</w>
a g
መ ተ</w>
ቤ ቷ</w>
አ ነጋ
ከ ገ
የ ፕሪሚየር</w>
ፈ ና</w>
ማህ በረ
አይታ ይም</w>
7 7</w>
ለ ትና</w>
ረ ቱ</w>
ራ ቸውና</w>
ሻ ም</w>
ሻ ን</w>
ሽ ፋ
ቶ በታል</w>
ከ አባ
ከ ክልሉ</w>
ክ ብ</w>
ኮ ሜ
ዋ ዜማ</w>
ያ ጠፋ
ፅ ጌ
የሚ ቀርብ</w>
እንደ ተቀ
መን ና</w>
ድር ድሩ</w>
አጋ ን
የዘ ረ
ደመ ቀ</w>
አስገ ዳጅ</w>
ህል ው
ተገል ጋ
ሰጪ ዎች</w>
በርግ ጥ</w>
እወዳ ለሁ</w>
ኖ ክ</w>
ኖ ችም</w>
ጣ ችሁ</w>
የሚ ቻል</w>
ለመ ለ
በተ ካሄደ</w>
የት ን
ክት ባት</w>
የኤ ጀን
እናን ተን</w>
ትክክለ ኛው</w>
ልበ ስ</w>
ተኝ ነትን</w>
ሽብር ተኝነት</w>
ላ ቀ</w>
መ ፈለግ</w>
ቀ ናል</w>
በ ህዝቡ</w>
የ ሥጋ</w>
ደ ለው</w>
የተ ገኘውን</w>
አስ ፍ
ለመ ቅ
ብሄ ሮች</w>
ሙስ ናና</w>
በአው ሮ
ሽግ ግ
በሙ ያው</w>
እሳ ቤ</w>
ር ካ
በ 1</w>
ቦ ታዎችን</w>
ነ ቢያ
የ ዓመቱ</w>
ፀ ሀ
በመ ለ
አይ ነቱ</w>
በማ ሻሻል</w>
መሆ ናችን</w>
መጣ ቸው</w>
የሚሰ ጣቸው</w>
አሰ ባ
ማለ ታቸው</w>
ሰላ ሳ</w>
መሰረ ቱ</w>
ለመሸ ፈን</w>
ባቀረ ቡት</w>
4 ኛ</w>
ሞ ላው</w>
ት ሆናለች</w>
ጉ ቦ</w>
እን ገኛለን</w>
እንደ ገለጸው</w>
ለመ ድ
ሳይ ቀሩ</w>
ገለ ፀ</w>
መሰ ክ
በበ ጎ</w>
ቅ ብ
ተ ውም</w>
ኒ የም</w>
የ ከረ
ደ ንግ
ገ ኝነት</w>
ጽ ድ
አስ ቴር</w>
የመ ሪዎች</w>
እንደሚ ደረግ</w>
የም ድብ</w>
ስራ ቸውን</w>
መታ ገል</w>
ድንጋ ጤ</w>
ውይይ ቶች</w>
ነገረ ኝ</w>
ፅንፈ ኛ</w>
ኒስቴ ሩ</w>
ፀዳ ጃ</w>
ያስገ ኛል</w>
ፕሮፓ ጋንዳ</w>
ቶ ቿ</w>
ዓ ሣ</w>
ገ ሩ</w>
አስ ደን
ያስ ተማ
ልማ ቱን</w>
የያ ዙት</w>
አና ሳ</w>
በ ነበሩት</w>
አ ያል
ካ ዳ
ፅ ን</w>
ፈ ኑ</w>
በመ ኪና</w>
የአ እምሮ</w>
አስተ ም
መር ከብ</w>
የበ ሽ
አራ ቱ</w>
ተሰጥ ቶ</w>
አውጥ ተው</w>
ልጃ ገረ
ጉዞ ው</w>
ግብዓ ቶች</w>
ፌስቲቫ ል</w>
ዮርዳ ኖስ</w>
ማ ቀነ
ሮ ሎጂ</w>
በ ና</w>
ይ ባል</w>
ዳ ሽ</w>
ጣ ለች</w>
የተ ሠሩ</w>
በመ ሸጥ</w>
እያ ዩ</w>
ያል ቻ
አሸና ፊ
አጠና ክ
አገራ ትን</w>
መቆ የቱን</w>
ድሶ ው</w>
ሀ ቅ</w>
ለ አፍ
በ አገ
በ እስ
በ ቁርጠኝነት</w>
ተ ነጋግ
የ 19
200 3</w>
እግ ረ</w>
አላ ገኘ
በ20 11</w>
ሳምን ቱ</w>
መ ወሰን</w>
ማ ጠናቀ
በ ሳምንት</w>
ባ ውን</w>
ተ ፈጠረ</w>
ታ ደርጋ
ካ ሣ
የ ድጋፍ</w>
ይ ከፈ
ፍ ቺ</w>
ፍ ሰት</w>
እንደሚ ገባው</w>
ተዋ ጊዎች</w>
አጣ ጥ
መዛሙ ር
የጽን ስና</w>
መ ዘርጋት</w>
ብ ዳ
ከ ራሳቸው</w>
ከ ሕዝቡ</w>
ዓ ባይ</w>
የ ብቃት</w>
የ ቁጥጥር</w>
እንደ ነ
በተ ዘጋጀው</w>
መል ካች</w>
እንዳ ይወ
መዘ ንጋት</w>
ስድ ስተኛ</w>
አራ ተኛው</w>
ተሸ ን
ደረገ ም</w>
ጥቃ ቶች</w>
ፍቃ ዱ</w>
ጓደኞ ቼ</w>
አማራ ጮችን</w>
ራ ህ</w>
ሰ ሰ</w>
ሶ ችና</w>
በ ከንቱ</w>
ብ ዮ
ቶ ዶ
ቼ ል
ኮ ራ
ዋ ሉ</w>
ይ ቺን</w>
ፓ ኬ
አቅር ቦ</w>
የቀ ደ
ተጋ ድ
ክርስቲያ ናዊ</w>
የተማ ሪዎች</w>
የደረሰ በት</w>
ተወላ ጅ</w>
o c
ሕ ግን</w>
ቆ ጣ</w>
በ ለው</w>
በ ለጠ</w>
ቻ ቸውም</w>
ኘ ውን</w>
ከ ሕዝብ</w>
የሚ ነግ
የሚ ከሰት</w>
የሚያስ ተዳ
ተከ ላ</w>
ተግባ ሩ</w>
ገበ ያ
ሕይወ ቱ</w>
ፈረን ጅ</w>
በለ ዚያ</w>
ኤል ሳ
ለን ደን</w>
የበለ ፀ
8 8</w>
ለ ረዥም</w>
ላ ትን</w>
ሳ ኦል</w>
ከ ፈል
ከ ዳር</w>
ዘ ሮች</w>
ግ ኝት</w>
የሚ ውሉ</w>
እንዲ ሄድ</w>
በማ ዳ
የእ ሳት</w>
ትር ጓ
እንደማ ያ
መም ረጥ</w>
አንባ ቢ</w>
ይተር ስ</w>
ተላላ ፊ</w>
ይኖራ ቸዋል</w>
ማ ቆም</w>
ሟ ች</w>
ሲ መ
ዓ ለሙ</w>
ዛ ቀ
ተጠ ም
በቀ ውን</w>
ኃይ ማኖት</w>
አሳ ሳ
አድማ ሱ</w>
አጀን ዳዎች</w>
እየሰ ጡ</w>
ሂ ም</w>
ቁ ሳዊ</w>
በ ሮ
ቡ ር
ቡ ንም</w>
ዮ ችም</w>
እንዲ ቻል</w>
ግብ ፃ
ተከ ታይ</w>
ከሰ ባት</w>
ለሚ ሆኑ</w>
መዘ ገብ</w>
ገኛ ቸው</w>
ሸ ው</w>
እ ሚ
ከ ቀኑ</w>
ዜ ሽን</w>
ደ ሉ</w>
ጥ ምረት</w>
መሰ ራት</w>
ፕሮ ፖ
በስ ምም
በእ ጥፍ</w>
የስ ነ
የሆነ ች</w>
እንደነበ ርም</w>
ም ቾ
በ ሰማ
የ ጭ
የ ድህነት</w>
ያ ኛው</w>
ጥ ጥ</w>
በመ ቃወም</w>
አስ ጨ
የመ ያዝ</w>
ላለ ፈ</w>
ሰማ ሩ</w>
ዋን ጫውን</w>
ውያ ንም</w>
ዲያብሎ ስ</w>
ኩ ህ</w>
የ ድምፅ</w>
ጠ ግ
የሚ ወጣ
ለመ ጨረሻ</w>
የመ ለ
የሚያ ጠና
አብ ሮ
ቀረ ጥ</w>
ዝር ዝ
ሰይ ጣ
አስገ ኝ
አያስፈል ግም</w>
ቁልቁ ል</w>
t y</w>
ለ አርሶ</w>
ሎ ተሪ</w>
ስ ው
ደ ማቅ</w>
ከተ ሰ
አብ ቅ
ለተ ወሰነ</w>
የሚፈል ገው</w>
አይኖ ረውም</w>
ቢሮ ዎች</w>
ጭቆ ና</w>
ሰ ውና</w>
ቂ ኝ</w>
ባ ሪ</w>
ታ ችንም</w>
ታ ችሁን</w>
ወ ፍ</w>
የ የ
የ ሌላ</w>
ያ መለከቱት</w>
ጉ ራ
ጣ ፋ
መሠ ዊ
የማይ ባል</w>
አቋ ቁ
መላ ሽ</w>
አስተሳ ሰብና</w>
ተራ ሮች</w>
መጠበ ቂያ</w>
ዘይ ቤ</w>
ሕ ግና</w>
ስ ማማ
ች ስተር</w>
ነ ድ
ኛ ለህ</w>
ደ ብረ
ድ ባብ</w>
ዶ ችም</w>
ፅ ዳት</w>
አም ኖ</w>
እር ባ
ክፍ ሎችን</w>
ሥራ ችን</w>
ወዳ ድ</w>
መጣ ጠነ</w>
መንገ ዶችን</w>
መነ ቃ
ጥቅ ሙ</w>
ኖር ባቸው</w>
ትና ንሽ</w>
ባለሙያ ዎችና</w>
በማስተ ማር</w>
መጠና ቀ
ከመቼ ውም</w>
ቶዶ ክስ</w>
ሞ ከር</w>
በ ጽሑፍ</w>
ተ ሽ
ተ ሻ</w>
ተ ደብ
ኒ ያ
ኒ ክስ</w>
እ ራሱን</w>
ጣ ውን</w>
ፏ ቸው</w>
አስ ቦ</w>
በማ ለትም</w>
የሚያ ገለግል</w>
ግብ አ
ወስ ደ
መደ ብ
ፍላጎ ቱ</w>
ኮሌ ጁ</w>
በአካባ ቢያቸው</w>
መስተ ንግ
ውዝ ግብ</w>
ለ ቤት</w>
ሊ መጣ</w>
ነ ጠላ</w>
ኢ ብራ
ከ ወን
ጤ ናና</w>
የሚ ፈጠ
የሚ መራ
ለመ መልከት</w>
ዓመ ፅ</w>
ጠቅ ም</w>
ጠበ ቅና</w>
ዝግ ጁ
በታ ላቁ</w>
እንዳለ ብን</w>
ምስ ጢ
የዘ ንድሮ</w>
እህ ቶች</w>
የተባለ ች</w>
ተመስ ገን</w>
ዓለማ የሁ</w>
በአንጻ ሩ</w>
ላ ላቸው</w>
ራ ን
ሰ ቡት</w>
ሻ ም
የ ሠራዊት</w>
የ አገራችንን</w>
ግ ሎ
ጢ ሞ</w>
ፈ ተ</w>
የሰ ጡ</w>
ታው ቀው</w>
ሰር ተው</w>
ክርስቶ ስን</w>
እንደሌ ላቸው</w>
ምሽ ቱ</w>
መሰና ክል</w>
ሥፍራ ዎች</w>
ለ ር</w>
ሐ ት</w>
ሯ ችን</w>
ሰ ባቸው</w>
ኒ ሻንጉል</w>
ከ መጠን</w>
ኪ ንግ</w>
የ ቋንቋ</w>
ደ ል
ጣ ዕ
ፑ ቲን</w>
የሚ በልጡ</w>
የመ ዋ
ዘር ላንድ</w>
የሚገ መት</w>
አው ታ
ጨዋ ታ
ክን ው
በአካባ ቢ</w>
9 8</w>
መ ፋ
ሪ ነትና</w>
ሰ ኛ</w>
ሳ ውያን</w>
ቢ ያደር
ባ ችንን</w>
ቧ ን
ከ ምድር</w>
ው ሸ
ጋ ሉ</w>
ጮ ህ</w>
ጴ ጥ</w>
የሚያስ ተም
እም ቅ</w>
የህ ል
ጓደ ኛው</w>
ፕላ ኑ</w>
የሚያው ቀው</w>
ይጠቅ ማል</w>
ንግግ ራቸው</w>
የአፍሪካ ን</w>
የአረ ንጓዴ</w>
ኮሎ ኔል</w>
ፍጆ ታ</w>
ተ ጀምሮ</w>
ኤ ስ
የ ይሁዳ</w>
የተ ያዘ
ገል ጾ</w>
እየ ሳ
20 14</w>
አጥ ን
ትምህር ትን</w>
ተቃው ሞ
ኒስት ሮች</w>
ታታ ኝ</w>
1 1
c h
መ ደ</w>
ኋ ት</w>
እ ሷን</w>
ኳ ታር</w>
ዙ ና</w>
የ ሱዳን</w>
ጮ ቹ</w>
መሰ ን
የሰ ለጠነ</w>
አት ር
አገልግሎ ትን</w>
ሲያ ሳ
ጠንካ ራና</w>
ግር ግር</w>
መመር መር</w>
ስታድ ዬም</w>
ሕንፃ ዎች</w>
ተፈጻ ሚ</w>
መ ፈጠ
ረ ዘም</w>
ስ ዩም</w>
ነ ት
ጋ ቡ</w>
የሚ ንቀሳቀ
የተ ነሱ</w>
ሠራ ም</w>
ራሳ ችሁ</w>
እውነ ታው</w>
መቻ ሉ</w>
ተያ ይዘው</w>
ተደራ ሽ
በው ኃ</w>
አባላ ትና</w>
ሄደ ች</w>
ተሻ ሽ
መስመ ሮች</w>
በአፋ ጣኝ</w>
ደስተ ኞች</w>
ለ ብ</w>
ላ ሉት</w>
መ ኮን
መ ዲና</w>
ቀ ረው</w>
ና ዊው</w>
አ መን
ኩ ር
ገ ፋ
መስ ሎ
ክል ሎችና</w>
ኢን ፎርሜሽን</w>
ሠራ ተኞችን</w>
ያሳ ተ
የደ ስታ</w>
ገኙ ና</w>
ታን ዛ
ድንኳ ኑ</w>
ያስከት ላል</w>
የተዛ ባ</w>
1 20</w>
ህ ብረተሰ
ሊ ፈጠር</w>
ማ ዘውተሪያ</w>
ከ ዘ
ከ ልክ</w>
የ ክለቡ</w>
የ ሳይንስና</w>
ጣ ችን</w>
ጥ ልቀት</w>
ፋ ንታ</w>
የተ ግባር</w>
የመ ል
እየ ሸ
ከሚ ገኙት</w>
ይገባ ሉ</w>
ምፒ ው
አድ ሮ</w>
መንገ ድና</w>
የቆ የውን</w>
በገ ጠ
በ200 4</w>
ምድ ረ</w>
ችሎ ቱ</w>
አገልጋ ዮቹ</w>
ጨም ሯል</w>
ዘለ ቄ
የተገነ ባው</w>
8 6</w>
ል ተን</w>
ስ ቱ
ተ ዘዋ
የ ፖ
የተ ጀመሩ</w>
በመ ሰብሰብ</w>
በአ ማርኛ</w>
የሰ ነ
ቋቋ መው</w>
መብ ቱ</w>
አስታው ሰው</w>
ወጥ ነት</w>
ሰም ቻለሁ</w>
ፖሊሲ ዎች</w>
እንደሚያሳ የው</w>
ረገ ድም</w>
ነቢ ዩ</w>
ቋር ጥ</w>
በተና ጠል</w>
ህ ሊ
ማ ጥናት</w>
ቼ ስ</w>
ከ ቻይና</w>
ደ ዌ</w>
ጀ ሪያ</w>
እንደሚ ጠበቅ
የማ ቅረብ</w>
መሰ ገ
ወደ ቀ</w>
በረ ጅም</w>
የተሰ ራ</w>
የው ሳኔ</w>
መቆ የት</w>
አዘጋጅ ነት</w>
ድራ ማ</w>
ተቋራ ጮች</w>
ሕ ክምና
በ ሥ
ች በትን</w>
አ ሏቸው</w>
የ ደረጃ</w>
ጅ ተው</w>
ፊ ፋ</w>
በማ ቋቋም</w>
እር ከን</w>
ጊዜ ያቸውን</w>
አዳ ጋች</w>
ህይወ ትን</w>
ጥፋ ቱ</w>
ኮሚሽ ነ
የተፋ ሰስ</w>
7 6</w>
ረ ጠ</w>
ሬ ስቶ
በ ሱዳን</w>
በ ክረምት</w>
ና ችንን</w>
ን ዲ
ጠ ኑ</w>
እንዳ ይኖር</w>
ደጋ ገ
ፈላ ጊ
በማድረ ጉ</w>
ውሃ ና</w>
9 2</w>
ሞ ከረ</w>
ቦ ኮ
ተ ቱ</w>
ነ ፋ
እ ጣ</w>
በመ ቅ
የማ ር
አል ገባ
ደራ ደር</w>
ሥልጣ ንና</w>
ይሁ ን
የቀረ ቡ</w>
7 8</w>
e v
ማ ጥ
ም ግብና</w>
በ ወጣው</w>
ቶ ቼ</w>
ቸ ል</w>
ነ ነ</w>
ኖ ም</w>
አ ድ</w>
የ ነው</w>
የ ፓርቲ</w>
የ ሩጫ</w>
ገ ምገም</w>
የተ ዘረ
ከተ ሞችን</w>
በሚ ያደርጉት</w>
እያ ወ
ከመ ጽሐፍ</w>
ፍት ሕ
ተሳ ስ
የተሰ ሩ</w>
መብ ታቸው</w>
ሚያ ዚያ</w>
በመጠ ቆም</w>
ኮርፖ ሬሽኑ</w>
ሰፋ ፊ</w>
ገናዘ በ</w>
ግሩ ፕ</w>
ሁ ነኛ</w>
ር ስት</w>
ሰ ለት</w>
ቀ ሱ</w>
ኔ ስኮ</w>
ከ ርድ</w>
ድ ንግ
ፈ ችው</w>
መን ን</w>
አት ችልም</w>
ጊዜ ውም</w>
ቀበ ልም</w>
አጋ ዥ</w>
ትራ ን
የጥ ናትና</w>
አጥ ነት</w>
ወለ ጋ</w>
ህፃ ን</w>
ገነዘ ቡ</w>
ደጋግ መው</w>
ትዝ ታ</w>
ሜዳሊያ ዎችን</w>
ይሉ ታል</w>
ማስረጃ ዎች</w>
ሊ ኖሩ</w>
ቅ መ
በ ቴሌቪዥን</w>
በ እንግሊዝኛ</w>
ከ ጀመሩ</w>
ጽ ሁ
ጽ ድቅ</w>
አይ ዞ
በአ ባ
እየ ጎ
ምን ቱ</w>
አጠና ክረው</w>
የቅ ጣት</w>
ተመስ ርቶ</w>
መጓደ ል</w>
2 50</w>
ህ መ
ነ ቴን</w>
ኖ ሩበት</w>
እ ሴ
የ ጂ
ዮ ስ</w>
ጃ ችን</w>
ድርጅ ቶችን</w>
አው ቆ</w>
ድም ፁን</w>
ንድ ስና</w>
ደረሰ ኝ</w>
ፕሪሚ ዬር</w>
የሚጠቅ ም</w>
በተቃራ ኒ</w>
ጽንፈ ኛ</w>
ሸና ፊነት</w>
ዱቄ ት</w>
አመር ቂ</w>
መ ከታተል</w>
ሞ ችና</w>
በ ኢህአዴግ</w>
ባ ቢሎን</w>
ታ ል
የ ወንድ</w>
ያ ከናው
ይ ከታተ
አስ በው</w>
አል ፈ
ምክ ረ</w>
ከፍ ቶ</w>
ፈል ገውን</w>
ሁኔ ታና</w>
አቀ ራረብ</w>
ተመ ሥር
ጠን ክሮ</w>
ዮሐ ን
እየመ ጣ</w>
በየአ መቱ</w>
አምባገነ ን</w>
አድርጓ ቸዋል</w>
እቴ ጌ</w>
o s
ሌ ባ</w>
በ እስር</w>
ኤ ፍሬም</w>
ጌ ጥ</w>
የሚ ከተለው</w>
ለማ ዊ</w>
መስ ኖ</w>
የወ ተት</w>
ግለሰ ቦችን</w>
ሄ ድም</w>
ሶ ም</w>
ብ ላት</w>
ቦ ና</w>
ና ቱን</w>
ን ሰር</w>
እ ዚህም</w>
እን ላለን</w>
አል ሰማ
ንያ ን</w>
ያለ መ</w>
እየተ ባባ
ነዋ ሪዎቹ</w>
ተፈ ታታኝ</w>
ማራ ኪ</w>
ሁ ሌ</w>
ለ ሆነው</w>
ሣ ይ</w>
ሴ ም</w>
ቅ ል</w>
በ ፈቃደኝነት</w>
ኪ ስ</w>
የ ዜና</w>
ጀ ማ
እንዲ ካሄድ</w>
አስ ችሎ
ደግ ፍ</w>
ይገባ ናል</w>
ተወ ው</w>
በቅር ቡም</w>
ታውቃ ላችሁ</w>
ል ንም</w>
ሕ ጎ
መ ተላለ
ቦ ቹን</w>
አ ጼ</w>
እን ቆ
አይ ኖር
በማ ደግ</w>
ዘር ዝ
የታ ክሲ</w>
ልም ድና</w>
አንዳ ችም</w>
የሶ ሪያ</w>
ያቀር ባሉ</w>
እንኳ ንስ</w>
ለ ወጣቶች</w>
ቀ ለማ
በ ና
አ ጤ</w>
ዊ ነቱ</w>
ዕ ይታ</w>
ገ ምግ
እየተ ጠቀ
ውድ መት</w>
ልጆ ቼ</w>
መዝ ገቡ</w>
ዳግ ማዊ</w>
ለ ቀጣይ</w>
ረ ሳ</w>
የ ዩኒቨርሲቲ</w>
ይ ላ
ጀ ኔ
ግ ዜ</w>
ፀ ባር
ፍ ራው</w>
የተ ጓ
በሚ ያሳ
የሚያስ ተናግ
ጊዜ ን</w>
በእ ዚህም</w>
የተማ ረ</w>
ኢንቨስተ ሮች</w>
በ ጥ</w>
ታ ፈ
ቴ ቪ</w>
ከ ዳ
ከ አስር</w>
ው በታል</w>
የ ሩ</w>
ደ ባ</w>
የሚ ገልጸው</w>
የም ሥራቅ</w>
እግ ሩ</w>
አቅር በው</w>
የዓ ለምን</w>
አዘጋጅ ቶ</w>
ለማድረ ግም</w>
ግልጽ ነት</w>
ፒያ ሳ</w>
ዶክት ሬት</w>
r a
ሕ ዛ
ሞ ሉ</w>
ተ ከተል</w>
ቲ ቱ</w>
ኦ ፊ
ከ ረው</w>
ዲ ናዋ</w>
አገ ኘ</w>
በተ ቀና
ደግ ም</w>
የግ ብ</w>
የስ ድስት</w>
በላ ቀ</w>
ብዝ ሃ
የመድ ኃ
ሴ ሎና</w>
በ ዝግጅት</w>
ቴ ኳን
የሚ ከናወን</w>
ስለ ምት
ተቀ ላቅ
ተናግ ሮ</w>
የበ ግ</w>
ጋዜጠ ኛው</w>
ቀመ ጡት</w>
ንብረ ቶች</w>
ማዳ በር</w>
እያሳ የ</w>
ንቅና ቄ
የሚያስች ለውን</w>
ፋፋ ትና</w>
ትዕግ ስት</w>
ይቀር ባል</w>
6 9</w>
ማ ሕ
ማ ጭ</w>
ሪ ከርድ</w>
ሲ ሰጡ</w>
በ ራል</w>
ተ ክል</w>
ነ ግራ
ኢ ጣሊያ</w>
ጦ ስ</w>
ፎ ር</w>
ያስ ን</w>
ያስ ገነዝ
ከተ ሉት</w>
በአ ፍ
ልማ ዳዊ</w>
የነ ፃ</w>
ተቋማ ትም</w>
ለብ ሰው</w>
የተቋ ሙ</w>
ካም ፓ
ም ዘና</w>
ቻ ልበት</w>
ን ጋ</w>
እ ልህ</w>
የ ሩ
የ ቁጠባ</w>
የሚ ዋ
በመ መልከት</w>
ለመ ሙላት</w>
ህዝ ቡም</w>
ለማስ ፈጸም</w>
እንደሚያ መለክተው</w>
ሳሰ ር</w>
ይጠፋ ል</w>
u s
ሃ ድ</w>
ለ ፈው</w>
ለ እዚህ</w>
ሊ ባ
ሰ ሌ
ቀ ሉ</w>
ቐ ለ</w>
ኢ ነርጂ</w>
ከ ባለድርሻ</w>
የ እውቀት</w>
ያ ነሳው</w>
የተ መለከተ</w>
አን ዱና</w>
መጠ ነ</w>
አድር ጋችሁ</w>
ሰማ ሁ</w>
የህ ን
የተሰ ጣቸውን</w>
መምህ ሩ</w>
ምድ ራዊ</w>
ያስተ ናገ
መሸ ጥ</w>
ልጃ ችሁ</w>
ተአም ር</w>
ኮንትሮ ባንድ</w>
ለ አንተ</w>
ለ ብቻ
ላ ከ</w>
መ ከላከልና</w>
ሲ ሲ</w>
ሻ ገር</w>
ከ ልጅ
ኪ ሎ
የ ኋላ</w>
የ ቀጠ
የ ንብረት</w>
ጉ ንም</w>
ጸ ያ
ፀ ጋ</w>
በመ ነ
በመ ፍታት</w>
በመ ረጃ</w>
ደረ ጀ</w>
በአ ሜሪካ
አቅ መ</w>
ድም ጻ
ደረጃ ና</w>
ጉባኤ ዎች</w>
ድግ ስ</w>
ለ ሀገር</w>
ሳ ና
በ ባህ
በ ወንጀል</w>
በ ወረዳው</w>
ታ ዝ
ት ጥቅ</w>
ከ ስምንት</w>
ወ ጡት</w>
የ ገና</w>
ጠ ፍቶ</w>
ጨ ስ</w>
የተ ካሄ
በመ ረዳት</w>
እንዲ ጨምር</w>
እንደሚ ቻለው</w>
ወቅ ቶች</w>
አው ር
ቀድ ም</w>
ጠይ ቋል</w>
ቀዳ ማዊ</w>
ለወ ጠ</w>
መከራ ከ
ትንታ ኔ</w>
መ ቅ</w>
ሙ ድ</w>
ማ ኒ
ሬ ሽ
ቂ ዎቹ</w>
በ ሩ
በ እውነት</w>
ቶ ቹም</w>
ቻ ችሁን</w>
አ ደረግ
ክ ረዋል</w>
ያ ተ</w>
ደ ፋ</w>
ጋ ቱ</w>
ግ ዳ
የማ ይችሉ</w>
እየ ጣ
በር በሬ</w>
በረ ራ</w>
ዓይ ነቱን</w>
ተቀ ባይ
ንጉ ሱ</w>
ፈር ዖን</w>
ባለቤ ቷ</w>
ሜዳሊያ ዎች</w>
በዋነ ኝነት</w>
እየተንቀሳቀ ሰ</w>
ል መና</w>
ማ ዕድን</w>
ም ነት</w>
ሰ በር</w>
ቦ ላ</w>
የ ናይ
እንዲ ያው
ማስ ፋፊያ</w>
ተናግ ረው</w>
ብት ሆን</w>
መቀመ ጥ</w>
ዕድገ ቱ</w>
የአፈ ርና</w>
የከተማ ዋን</w>
አልቻል ኩም</w>
ያስቸግ ራል</w>
ሲ መለሱ</w>
በ ኃላፊነት</w>
በ አስር</w>
ቪ ዬ
ን ፅ
ያ ገኘ</w>
ዳ ብር</w>
ጅ ቡቲ</w>
ፍ ተ</w>
የተ ያዙ</w>
አን ቺ
እንዲ ሠራ</w>
ለመ ላው</w>
አም ስቱ</w>
ከመ ቀ
ግለ ፅ</w>
ከአ ሥር</w>
ተር ፎም</w>
መዘ ገ
ገነ ባው</w>
መንፈ ሳ
የሽ ግግር</w>
ተኩ ር</w>
መሬ ቱን</w>
እርግጠ ኞች</w>
በመቶ ው</w>
ጭብ ጥ</w>
6 1</w>
8 ዓ</w>
መ ጀመሩ</w>
ሙ ባቸው</w>
ቀ ኛ</w>
ተ ነጥ
ነ ም</w>
ጎ ን
ፎ ን</w>
ናገ ረ</w>
ፈል ጉም</w>
ተመ ን</w>
ማሳ ደ
አዋ ጁን</w>
በገ ጽ</w>
ሰይ ፍ</w>
የወሰ ደው</w>
ግጥ ሞች</w>
ህ ግና</w>
ሉ ትና</w>
ቆ ላ</w>
በ ኪራይ</w>
የ ችግሩን</w>
ለመ ክፈል</w>
ከመ ደ
ሰማ ን</w>
ይገ ጥ
ደራ ጁ</w>
ሰባ ቸውን</w>
እንዳል ተ
ጥቅ ሶች</w>
የሚያስፈል ጉ</w>
ፈቃደ ኞች</w>
ይደ ነግ
ሁል ጊዜም</w>
ይው ላል</w>
ሦ ስተ
እ ክል</w>
ከ ፌዴራል</w>
ዋ ር
የሚ ከሰቱ</w>
እንደ ማንኛውም</w>
የማ ድረ
ብር ን</w>
የግ ጥም</w>
በጥ ንት</w>
ባል ነት</w>
የቀ ጣ
ቀጣ ና</w>
ምል ከ
የቀረ ቡት</w>
የምና ደርገው</w>
ዘንድ ሮም</w>
ለ መንግስት</w>
መ ሻሻ
ሳ ትና</w>
በ ወቅ
ታ ህሳስ</w>
ነ ግ</w>
ከ ሠ
ያ ገኙትን</w>
ይ ከሰ
ይ ደረግ</w>
ደ ፍ</w>
በመ ነጋገር</w>
እንደሚ መጣ</w>
የማ ያስ
በጥ ሞና</w>
ምሳ ሌት</w>
ቀደ ምት</w>
የተመረ ጡ</w>
ታጋ ይ</w>
ተመልካ ቾች</w>
ሙስሊ ም</w>
የያዘ ውን</w>
መንገደ ኞች</w>
ባንዲ ራ</w>
ሞ ገ
ሲ ሰማ</w>
ስ ክ</w>
ቋ ም</w>
በ ጊ
እ ሙን</w>
ኮ ሙዩኒኬሽን</w>
ዋ ለህ</w>
ዘ ወር</w>
ደ ፋ
ጋ ባ</w>
የተ መዘገበው</w>
የተ ደገፈ</w>
ዳን ን</w>
ብል ጽ
ተከት ሎም</w>
ሰነ ዱ</w>
የሚታወ ስ</w>
ፈላለ ግ</w>
ሞ ባይል</w>
ሲ ሠራ</w>
ጥ ኩ</w>
በመ ገኘት</w>
ደረ ው</w>
በማ ሳተፍ</w>
የሚያ ገለግ
ተሰ ባስ
ገበ ሬው</w>
መጣ ሁ</w>
መዘ ዝ</w>
ቋቋ ምና</w>
ተነ ሱ</w>
የሌ ላውን</w>
የግብ ር
አሜሪካ ና</w>
አሻ ራ</w>
ሊ ላ</w>
መ ሪ
መ መልከ
ሥ ሪያ</w>
ሬ ያለሁ</w>
ሳ ው
ሹ ማ
ቅ ጭ
ዋ ልያዎቹ</w>
ይ ደግ
የሚ ሆንበት</w>
እንደሚ ኖር</w>
የማ የት</w>
ሁለ ትና</w>
እንዲያ ድግ</w>
ጥበ ቡ</w>
አስፈ ሪ</w>
ማር ያ
መሠረ ቱ</w>
የሙ ስ
ወል ዱ</w>
ፍራ ሽ</w>
የሚመ ሩት</w>
በን ቃት</w>
ሕ ፍት</w>
ሙ ሴን</w>
በ ይሁዳ</w>
ክ ሎ
ዘ ገበ</w>
ጸ ጥታ</w>
አን ዲ
አን ተስ</w>
የመ ላው</w>
የአ ራት</w>
እንደሚ ሰ
እንዳ ደረ
የሚያ ገኘው</w>
ገበ ያውን</w>
መሳ ሰል</w>
እንዲሰ ጣቸው</w>
ዝን ባ
ነገሥ ቱ</w>
ወኪ ል</w>
ግድግ ዳ</w>
ፋሲ ካ</w>
9 6</w>
ማ ጉ
ም ኩ</w>
በ ቸ
ብ ሯል</w>
ቶ ማስ</w>
ኸ ር</w>
ፅ ዋት</w>
ለማ ው</w>
በስ ደት</w>
በት ዳር</w>
ስራ ን</w>
ድህ ነትና</w>
ቀዳ ሚው</w>
ለማስተ ላለፍ</w>
እድሜ ያቸው</w>
ሲነ ጻጸር</w>
በተደራ ጀ</w>
7 1</w>
መ ታወ
ሹ መ
በ እናንተ</w>
የተ ሰራው</w>
መለ ኮ
አም ስተኛው</w>
እየተ ስፋፋ</w>
አባ ታችን</w>
ሰጥ በት</w>
የመስ ሪያ</w>
በፊ ቱ</w>
እንስሳ ትና</w>
አዛውን ቱ</w>
በመሳሰ ሉት</w>
ጎለ ብት</w>
7 9</w>
ለ አገራችን</w>
ሴ ና</w>
ቅ ጠል</w>
ቆ ል
ከ መን
የ ፃ
የ ሐሳብ</w>
የ አስተሳሰብ</w>
ያ ማ</w>
ይ ሳተ
ጥ ታው</w>
ጭ ቱ</w>
ፃ ፍ</w>
የሚ ወሰ
የሚ ነሳው</w>
የሚያ ካሂ
ሰማ ት</w>
ታው ስ</w>
ክለ ቦችን</w>
ጥበ ብና</w>
ማሳ ሰቢያ</w>
እንደተ ለመደው</w>
መታ ቀ
ወንጀ ለኛ</w>
ጴጥ ሮ
ዘለ ቀ</w>
ህን ፃ
የሆ ነበት</w>
በጭ ራሽ</w>
መቸ ም</w>
ጀግን ነት</w>
አስነብ ቧል</w>
ሜ ና</w>
በ ድህነት</w>
ብ ሽ</w>
ተ ኝ</w>
ነ ካ</w>
ዊ ነትና</w>
የ ፕሮጀክቱ</w>
የ ኢየሱስን</w>
ጅ ማ
ጨ ፍ
በማ ራቶን</w>
በሚ ያደር
በቀ ኝ</w>
ቀር በዋል</w>
መር ጠው</w>
ባህ ልን</w>
በም ድ
ያስፈል ገው</w>
ገብ ስ</w>
በሽ ታን</w>
ማድረ ግና</w>
ፕሮፌ ሽናል</w>
ቴክኖሎጂ ው</w>
በምት ገኘው</w>
የጣ ሊያን</w>
ጎብ ኚዎች</w>
አውሮፓ ውያን</w>
ያዝ ነው</w>
በቋ ሚነት</w>
ህ ጎች</w>
መ ተማ
ቀ ለል</w>
እ ከ
ከ 25</w>
ከ 60</w>
ኪ ዩ
ጎ ጃም</w>
በመ ረ
በተ ወሰኑ</w>
በተ ስፋ</w>
የማ ል
እንዳ መለከተው</w>
ሳይ ታ
እነ ዚ
ተቋ ቋ
መብ ቱን</w>
ገዳ ይ</w>
አገኘ ሁ</w>
የባሕ ር</w>
ቅቡ ዓን</w>
8 4</w>
ለ ጤና</w>
ስ ቼ</w>
ከ በ</w>
ዦ ች</w>
ይ ዝ
የሚ ፈጽ
እንደ ኔ</w>
በር ሳቸው</w>
በዓ ለማችን</w>
አሉ ና</w>
ሙዚ ቃ
ጥር ስ</w>
አየ ለ</w>
አህጉ ራዊ</w>
አጥብ ቆ</w>
አለመኖ ሩን</w>
መሥፈር ቶች</w>
ህ ሊና</w>
ቅ ጥ</w>
ኝ ነቱ</w>
የ ቁ
ጋ ምቤላ</w>
ግ ሉ</w>
ጣ ዖ
የሚ ጀምረው</w>
በተ መለከተ
ወዳ ጆች</w>
ለው ጥና</w>
ደን ቅ</w>
ተረ ጎ
የምታ ስ
ባሳ ለፍነው</w>
ማጣ ርያ</w>
ገዝ ቶ</w>
ተገንዝ ቦ</w>
ሜት ሪክ</w>
እየሠራ ን</w>
ማድሪ ድ</w>
ለ ስራ</w>
ለ እያንዳንዱ</w>
ሊ ያደርጉ</w>
ማ ዘ
ሲ ወ
ሳ ኝ</w>
ን ባብ</w>
አ ድን
ከ ቦታ</w>
ክ ሬን</w>
ዥ ው</w>
የ ጃፓን</w>
ጓ ጓዝ</w>
እን መለከ
የሚ ገለ
የሚ ሰራ
ጉዳ ይም</w>
እየተ ገነባ</w>
መሠ ራት</w>
አሰ ቃቂ</w>
ፕላ ስቲክ</w>
ለጠ ኑ</w>
ኢየሩሳ ሌ
በመሠረ ቱ</w>
በአጋ ጣሚ</w>
ሀ ያ</w>
ለ ክ</w>
ላ ሪ</w>
ሳ ዑዲ</w>
ስ ኩት</w>
በ ዕ
ተ ምሳሌት</w>
ታ ዋ</w>
አ ኗኗር</w>
እ ት
እ ዛ</w>
ከ ሳምንት</w>
የተ ገለጸው</w>
አን ዳቸው</w>
ለመ ዝ
ያስ ረዱት</w>
አያ ሌ</w>
ተዳ ር
እንቅስቃሴ ው</w>
ቴክኖሎጂ ዎች</w>
አሳይ ተዋል</w>
ጎበ ኙ</w>
የሚከተ ሉት</w>
ጎና ጸ
ጭንቅ ላ
ፍጥረ ታት</w>
ይይ ዛል</w>
ህ ፍት</w>
ሸ ፍ
በ ጀርመን</w>
ነ ቁ</w>
ከ ሥልጣን</w>
ይ ድ
ዱ ንም</w>
ፌ ት</w>
መስ ኮ
ፈል ጉት</w>
አብ ዝ
አመ ቱ</w>
ታሪ ኩን</w>
የት ጥቅ</w>
ከተማ ን</w>
ይሰ ጠዋል</w>
ይታ ይ
መንግስ ቱን</w>
ደረገ ለት</w>
የመስ ራት</w>
የመጀመሪያ ዎቹ</w>
ሜዲ ካል</w>
ሊቃ ውንት</w>
ሲኒ ማ</w>
ማ ዳን</w>
የ ወንዶች</w>
የ ገንዘብና</w>
ጭ ማ
የአ ማርኛ</w>
የም ፈልገው</w>
ደግ ፎ</w>
አስተ ናግ
ከፍ ሉ</w>
አንድ ነትና</w>
መመ ገብ</w>
የድ ሬዳዋ</w>
ተግዳ ሮት</w>
እግዜ ር</w>
ለ ዘ
ለ ችም</w>
ል ቻ</w>
መ ወ
በ ዝ</w>
ና በ
ከ ሆነም</w>
ከ ክርስቶስ</w>
ያ ጭ</w>
ፈ ባቸው</w>
ፉ ክ
እንደሚ ሰሩ</w>
እንደሚ ያደርጉ</w>
ያለ ፉት</w>
እየተ ጓ
ወቅ ቱን</w>
ሰብ ሎች</w>
ገረ ም</w>
መዝሙ ሮች</w>
ይሰማ ቸዋል</w>
በሕ ጉ</w>
ወላጆ ቻቸው</w>
ዳያስፖ ራ</w>
ከመጀመ ሪያው</w>
የምዕራ ብ</w>
በተጠቀ ሰው</w>
d i
መ ሳይ</w>
ር ቆ</w>
በ ርት</w>
ከ የትኛውም</w>
ካ ፋ</w>
ዓ ቱ</w>
የ ሜ
ፋ ችሁ</w>
የተ ዘጋጁ</w>
እንዲ ያስተ
ለመ ወሰን</w>
ወር ደው</w>
የኤ ክ
እኩ ይ</w>
ኢንተርፕራ ይዝ</w>
ሲገል ጽ</w>
ሻሊ ስት</w>
ይመክ ራሉ</w>
ል ኩት</w>
ሴ ቶቹ</w>
ስ ለት</w>
ስ ራቸው</w>
በ 2</w>
ቢ ሰ
ቻ ውን</w>
ከ ያ
የ ኅብረት</w>
ይ ማ
የሚ ናገሩ</w>
ከመ ጀመሩ</w>
ልጆ ቻችን</w>
ከባ ቢ</w>
መው ለድ</w>
የዘ ለለ</w>
እንድን ችል</w>
የእር ዳታ</w>
የተቋቋ መ</w>
ተዘዋ ው
ለ ሦስተኛ</w>
ሊ ታይ</w>
ም ቀት</w>
ሲ ሰሩ</w>
ቅ ናት</w>
ከ ሁለቱ</w>
የ ኒ
ጎ ሳ
እንደ ተጠቀ
አስ ታወቁ</w>
አር ዓ
ተመ ው</w>
ጨዋ ታም</w>
እም ቢ</w>
መጥ ተዋል</w>
አለመ ስ
በማስ ፋፋት</w>
እውነ ተኛውን</w>
ተፈ ሪ</w>
ስፍ ራ
አሸና ፊነት</w>
ነጋዴ ው</w>
የተሻ ሉ</w>
ጃን ሆይ</w>
በ ጠቅላላው</w>
አ ነጋገ
ዋ ር</w>
የ ወዳጅነት</w>
የተ በላ
በአ እም
አስተ ምህ
አመለካከ ትና</w>
የጀመ ረውን</w>
ክረ ምቱ</w>
የቢ ቢሲ</w>
ታም ኖ
ነቢ ይ</w>
የሚያግ ዝ</w>
ፍየ ል</w>
ቴኳን ዶ</w>
ላ ድ
መ ጉ
ሸ ር</w>
ች ያለሁ</w>
ነ ቀል</w>
ክ ቶ</w>
የ እድሜ</w>
ይ ከናወ
ጉ ሙዝ</w>
የሚ ዳ
በሚ ባለው</w>
አባ ባ</w>
ንግ ሥ
ይኖ ረው</w>
የታ ዳጊ</w>
ያደረ ጉትን</w>
እንደማ ት
ወጥ ቷል</w>
አቋር ጦ</w>
መ ተው</w>
መ ገልገ
ሲ ነግ
ቆ ሻሻ
ቦ ታና</w>
ተ ዘርግ
ኑ ንም</w>
ከ ከተማ</w>
ከ ገባ</w>
ዶ ክተሩ</w>
ጻ ሜ</w>
ፕ ሊን</w>
ለመ ልካም</w>
አገ ሩን</w>
አይ ተናል</w>
በአ ፋር</w>
አል ፈለ
አካ ሉ</w>
በጥ ቃቅንና</w>
ገና ኘ</w>
ቆጠ ራ</w>
መላ ክት</w>
ብት ሆንም</w>
ሂደ ቱን</w>
ደበ በ</w>
አቀረ በ</w>
የሚመስ ለው</w>
የማሳ ደግ</w>
ዴኤ ታው</w>
አስፋ ልት</w>
ለ ሀገ
ሬ ሳ</w>
ሹ ክ
ቅ ሶ</w>
በ ዘመኑ</w>
ዌ ይ</w>
ዕ ለ</w>
ጄ ሪያ</w>
የተ ሰራ
በመ ጨመር</w>
የማ ይወ
የም ክክር</w>
ተማ ር
የማይ ቀር</w>
በግ ድ</w>
ብል ፅ
ቆር ጦ</w>
በመካከ ለኛው</w>
ተጠቃሚ ነትን</w>
ካት ት</w>
ሌክትሮ ኒክስ</w>
ሮ ና
ብ አዴን</w>
ካ ገኘ
ኮ ማን
የ ጫ
የ 10</w>
የ መንፈስ</w>
ጉ ዟ
መር ጥ</w>
ክር ክ
ምሳ ሌዎች</w>
ተወ ጥ
አስረድ ቷል</w>
እንደምት ችል</w>
አግባ ብነት</w>
ገር ምም</w>
ልጃ ቸውን</w>
ካፈ ሉ</w>
8 7</w>
ማ ሰላ
ሣ ር</w>
ሶ ሪያ</w>
ሾ ፍቱ</w>
ቀ ንና</w>
ቂ ላ</w>
ኤ ችአይቪ</w>
እ ትም</w>
የ ኢትዮጵያና</w>
ያ ሰብ
ፈ ረው</w>
በመ ቻ
ምን ነት</w>
አቅ ሙን</w>
ሰራ ሽ</w>
የእ ኛን</w>
ቀጠ ልም</w>
ተቃ ር
ጥቅ ምና</w>
ኢትዮጵያው ያንን</w>
አስመልክ ተው</w>
ፊል ሙ</w>
በሊ ቢያ</w>
ሐዋርያ ቱ</w>
አምላክ ህ</w>
u l
ህ ሙማን</w>
ቢ ሉ</w>
ት ሩ
ኳ ሱ</w>
ዊ ን</w>
የ ቱ
የ ጉባኤ</w>
እንዲ መጡ</w>
ድር ሰት</w>
እስ ክ
ረዳ ህ</w>
የሚገ ጥ
ክለ ቡን</w>
ጥበ ብን</w>
ጨር ቃ
ስርዓ ቱን</w>
በረከ ተ</w>
እንስሳ ትን</w>
ሥልጠና ው</w>
ሸቀ ጦች</w>
ወረርሽ ኝ</w>
እንመለከ ታለን</w>
a b
ሊ ወጣ</w>
ል ባ</w>
ል ጇን</w>
መ ዘጋጀት</w>
ኤ ፌሶን</w>
ዓ ለ
ማስ ወገ
ደጋ ው</w>
ስለሚ ሆን</w>
ስምም ነቱን</w>
በፍ ርሃ
እስኪ ያ
የሚጠቀ ስ</w>
ቅርንጫ ፎች</w>
ተኞ ችና</w>
ቢሮ ክራ
ጠናከ ርና</w>
ማ ውጣ
ማ ሰባሰብ</w>
ቅ ብ</w>
በ ፀረ</w>
ኖ ሩት</w>
የ ቴክኒክና</w>
ጽ ዮን</w>
ፎ ረሙ</w>
እንዲ ጠቀሙ</w>
እና ት
እና ያለን</w>
የምት ገኘው</w>
መቻ ቻል</w>
የቀረ በውን</w>
በድ ሬዳዋ</w>
የሚኖ ረውን</w>
መሆና ቸውም</w>
በአዋ ጁ</w>
ቅጣ ጫው</w>
አመስ ግ
የደመ ወዝ</w>
ላ ትም</w>
መ ሞት</w>
መ ጨረሻ
ቀ ጠቀ
አ ን</w>
ከ 200</w>
ኩ ርት</w>
የ ጊ
ያ ኖች</w>
ጅ ጋ</w>
ፍ ጽ
የሚ ቀርበው</w>
ለመ ዋጋት</w>
የመ ሠ
ከፍ ሎ</w>
አብ ይ</w>
ጠቀ ሱ</w>
ታሪ ክን</w>
እም ነቱ</w>
ትር ያ
ተፈ ራር
ቁር ስ</w>
አህ ያ</w>
የሚጠቀ ሱ</w>
ታገ ዝ</w>
ሉዓላ ዊነት</w>
አሮ ጌ</w>
የሚጠቁ ም</w>
ተፈጥሮ አዊ</w>
መ ላክ</w>
ሮ ታል</w>
ሰ ኞች</w>
ሹ ፌ
ብ ራ</w>
እ ዛው</w>
ከ ዓመታት</w>
የ ከተሞች</w>
የ ሕዝቡ</w>
በመ ማር</w>
የማ ዳ
ወጣ ች</w>
ተጠ ን
ምር ጫውን</w>
አብ ነት</w>
አብ ደላ</w>
ጨዋ ነት</w>
እም ነ
ቅድ ስት</w>
የቀ ለም</w>
ተሰጥ ቶታል</w>
ህይወ ታቸው</w>
ፖለቲከ ኛ</w>
ይሠራ ሉ</w>
መቁ ረጥ</w>
አጉ ል</w>
ኢሕ አዴ
የማምረ ቻ</w>
9 4</w>
ሄ ድን</w>
መ ቋ
ሣ ራ</w>
ስ ቱን</w>
በ ላው</w>
ቶ ሊክ</w>
ይ ጀመ
ይ በል</w>
ከተ ቻለ</w>
ነገ ርም</w>
ከመ ግባ
ጠበ ቅም</w>
ሰብ ዓ
የህ ብረት</w>
ለማስ ቻል</w>
ገና ና</w>
ነፃ ነትና</w>
ፈፀ መ</w>
በ20 10</w>
ባረ ብ</w>
የሚፈል ጉትን</w>
ተገኝ ቶ</w>
ቅን ጅት</w>
የተናገ ረውን</w>
አደረጃጀ ቶች</w>
ተወላ ጆች</w>
አሽከርካ ሪዎች</w>
ለ ሌ
ሕ መም
በ ውይይት</w>
ተ መለሰ</w>
ት ሮው</w>
ን ዳ</w>
ኙ በት</w>
ካ ድም</w>
ዘ ም
በሚ ደረግ</w>
በሚ ያደርገው</w>
ስለ ምን
ጀመ ርን</w>
ዳን ስ</w>
ወን ዞች</w>
ንግ ሥት</w>
ሆነ ባቸው</w>
በም ስ
እንደማ ይቻል</w>
ቆይ ታቸው</w>
አሉ ባል
እረ ኛ</w>
የሚቻ ልበት</w>
ለ ቆ
ለ ግድቡ</w>
ማ መቻቸት</w>
ሞ ራ
ሮ ዎች</w>
ቃ ል
በ ይ
ብ ለሽ</w>
ት ከል</w>
ከ ሽ
ከ መሰ
ካ ኔ</w>
ኬ ድ</w>
ዉ ን</w>
ዎ ቿ</w>
ጪ ዎቹ</w>
ስት ሪ</w>
በር ም</w>
አገልግ ለዋል</w>
200 2</w>
ባህ ሪያ
ኮን ጎ</w>
ያያ ዝ</w>
ፕሮጀክ ቱን</w>
አሠራ ሮች</w>
አምላ ካችን</w>
የል ዑ
ትግ ሉን</w>
ገዳ ም</w>
አቅርቦ ትና</w>
እየሰራ ን</w>
አትክል ት</w>
መኩ ሪያ</w>
ኃያላ ን</w>
ሙ ር</w>
ራ ሊ
ር ቀው</w>
ሲ መለከት</w>
ስ ምና</w>
ቤ ው</w>
ቻ ልን</w>
ዋ ቢ</w>
የ ዘመን</w>
የ ሁሉንም</w>
የተ ፈጸ
ያለ ፈውን</w>
ከመ ጣ</w>
የሰ ላምና</w>
መካከ ለኛው</w>
ታሪ ፍ</w>
አዳ ም
ገደ ሉ</w>
ይታወ ቅ</w>
የሚጠ ራው</w>
10 ኛ</w>
የተጣ ለ
ዕቃ ዎችን</w>
ባይኖ ርም</w>
መኳን ንት</w>
በተቋ ሙ</w>
ጥቆ ማ</w>
የኤጀን ሲው</w>
ሆ ነበት</w>
ም ፕ
ም ባ</w>
ስ ያ</w>
በ ሆኑት</w>
በ ፈረንሳይ</w>
በ ጤናው</w>
ቪ ክ</w>
አ ኗኗ
ከ ፖለቲካ</w>
የ ብረት</w>
የ ቴአትር</w>
ጻ ነት</w>
አን ጀት</w>
በሚ ሊ
በር ከ
ፍት ሐ</w>
አጋ ርነት</w>
ግንኙ ነትና</w>
ፈጣ ንና</w>
በድ ረ</w>
ተንቀሳ ቃሽ</w>
ከዛ ም</w>
ቲዎ ሮሎጂ</w>
8 2</w>
ለ ጉዳዩ</w>
ለ ስፖርቱ</w>
ሳ ያስ</w>
በ ግንባር</w>
ታ ለ
ከ 12</w>
ዛ በት</w>
የ እነሱ</w>
በአ ዳ
ሊያ ገኝ</w>
የምና የው</w>
ይዞ ት</w>
ተቆጥ ረዋል</w>
በእኩ ል</w>
6 ኛው</w>
ል ሎ</w>
ረ ቅ</w>
ት ሬ
ን ረት</w>
ኖ ት</w>
እ መር
የ ቤቱ</w>
የ እንግሊ
ያ ችንን</w>
ያ ዘጋጀው</w>
ደ ኅ
የተ መለ
በተ ሳ
በተ ከሰ
በስ ነ</w>
ጨዋ ታን</w>
ይሁ ንታ</w>
ትውል ደ</w>
በቃ ም</w>
ጥራ ትን</w>
የተነ ሣ</w>
ተዘጋጅ ቷል</w>
አንገ ቱን</w>
የሁለ ትዮሽ</w>
ኅራ ኄ</w>
መ ከናወ
ቄ ስ</w>
በ አንቀጽ</w>
ጁ ም</w>
ገ ድል</w>
የተ ሾ
የተ መዘገቡ</w>
እየተ ሰ
በቀ ጥ
በታ ለሁ</w>
ታን ጕ
የአሜሪካ ው</w>
የምናገ ኘው</w>
ቀልጣ ፋ</w>
o m</w>
ለ ፊ
ሕ ብረት</w>
ቀ ደ</w>
በ ነበሩ</w>
ቺ ው</w>
ከ ፈት</w>
ዋ ሽ
የ ፓርቲ
ጠ ለጠ
ፒ ንግ</w>
አይ ልም</w>
የማ ኑፋክቸሪንግ</w>
አል ሰ
እንዳለ በትም</w>
ብዛ ትና</w>
ተግ ሣ
የቅ ን
ደግሞ ስ</w>
የሚያው ቁት</w>
ተከናው ኗል</w>
ሠ ው</w>
ሰ ቢያ
በ ግንቦት</w>
ቴ ድሮስ</w>
ከ ተ</w>
የ ዋንጫ</w>
ይ ጠናቀ
እንደ የ
እንደ ምንም</w>
በመ ሆኑና</w>
እንዲ ፈ
የአ ሁ
ሳይ ኖር</w>
ተና ጋሪ</w>
መጣ ጣኝ</w>
ራሳ ችሁን</w>
ደን ቦች</w>
እኩ ል
ደመ ና</w>
ይባ ላሉ</w>
ተኛ ነት</w>
ሚዲ ያው</w>
ሉዓላ ዊው</w>
አርሶ አደሮች</w>
ማና ቸውም</w>
የሕዝ ብን</w>
የምስ ክር</w>
ጉድለ ቶች</w>
በምሳሌ ነት</w>
ለ ሰላም</w>
ሙ ግ
በ ሱ
አ ር</w>
ገ ፆች</w>
እንዲ ደረግ</w>
አይ ሰማ
አባ ባ
ውድ ነት</w>
በሽ ታውን</w>
አመራ ሮችና</w>
አስታው ስ</w>
ውሳኔ ውን</w>
ጥቃ ቅንና</w>
መጠን ቀቅ</w>
ሃ ው</w>
ል ተው</w>
ሎ ን
መ ገባ
ም እራ
በ ብሄራዊ</w>
በ ሆነችው</w>
ተ ሃ
ከ ነበሩ</w>
የ ኩባንያው</w>
አስ ች
በተ ራ</w>
ደረ ሰው</w>
አቀ ና
ታው ራሪ</w>
አማ ልክት</w>
ነሳ ን</w>
ማን ት</w>
ጠቃ ለያ</w>
አለመ ረጋጋት</w>
ምረ ቃ</w>
የወጣ ውን</w>
ያደርጋ ቸዋል</w>
አሸን ፎ</w>
ተሰብስ በው</w>
እባ ካችሁ</w>
ላ ማ
ላ ሳ
ሮ ዬ</w>
ኑ ር</w>
ከ ግንቦት</w>
ከ ሩቅ</w>
ዋ ል
ጠ ፉም</w>
ጥ ርም</w>
የተ ስፋ</w>
የማ ይገባ
መስ ቀ
አለ ህ</w>
አድር ጌ
የት ር
እም ነትና</w>
ከናወ ኑት</w>
ቤተሰ ቡን</w>
ትር ኢ
አክ ስ
ነፃ ነትን</w>
ረጋግ ጥ</w>
ባሕ ሩ</w>
የግብ ይት</w>
በግብ ር
ጸል ይ</w>
0 3</w>
5 ኛው</w>
ለ ብሔራዊ</w>
ል ሙ</w>
መ ታወቅ</w>
ሳ ሙ</w>
ሾ ችን</w>
ቸ ግር</w>
አ ሲ
ከ ሞላ</w>
ካ ምፕ</w>
የ ሜዳ</w>
ገ ጣሚ</w>
ጓ ሮ</w>
ጸ ባር
አስ ታወ
ከተ መረ
ወስ ን</w>
የደረ ሱ</w>
መቻ ቸ
ከለ ላ</w>
ጻጸ ም</w>
ጆር ጅ</w>
ያረጋግ ጣል</w>
ለ ዜጎች</w>
ሕ መ
መ ኔ</w>
ሩ ንዲ</w>
ሽ ር</w>
ቅ ፅ
በ 3</w>
በ ፈረን
ታ ደር
ደ ይ</w>
ጌ ትነት</w>
ጤ ነኛ</w>
የተ ያዘው</w>
እንደ ዘገበው</w>
በተ ከሰተው</w>
የአ ራ
ነሳ ም</w>
ማን በ
የታ ጀ
የማይ ቻል</w>
አትሌ ቲ
ስላ ላቸው</w>
ይሰ ጠናል</w>
በመቀ ሌ</w>
በመቀ የር</w>
በኤ ሌክትሪክ</w>
ጽን ኦት</w>
ሪዎ ቻቸው</w>
አድርጋ ለች</w>
ማ ለን</w>
ቆ ር</w>
ቦ ይ</w>
እ ኚህ</w>
ከ 5</w>
የ ልምድ</w>
የነበ ራቸውን</w>
እና ቷ</w>
ቢያ ችን</w>
ተር ፍ</w>
የተሳ ካ</w>
እገ ሌ</w>
ኮሚቴ ዎች</w>
ደደ ቢት</w>
ለ የ
ተ ገለጸ</w>
ኦ ን</w>
ካ ሣ</w>
የ ል</w>
የ ልጅነት</w>
ያ ገኘውን</w>
ጽ ን</w>
ፅ ኑ</w>
በመ ምራት</w>
እንዲ ቀጥሉ</w>
አስ ወግ
ለመ ከላከልና</w>
እስ ከማ
አለ ችኝ</w>
ምር ጫ
አባ ታቸው</w>
የሰ ን
በም ድረ</w>
የደ ኅንነት</w>
ይታ ይ</w>
የቆ ዩት</w>
ዘላ ለማዊ</w>
ኤክ ስቴንሽን</w>
ያነሳ ሉ</w>
የፈለ ገውን</w>
ማው ራት</w>
ማ ቋቋም</w>
ም ሰል</w>
ሰ ሎ
ቅ ዱ</w>
ተ ሻለ</w>
ተ በዳ
ኤ ሊ
ኤ ልን</w>
ድ ምር</w>
ጻ ቸው</w>
የሚ ሹ</w>
የሚ ሄዱ</w>
በማ ልማት</w>
በአ ሁን</w>
አም ነው</w>
ይህ ችን</w>
ምህ ን</w>
ንጉ ሴ</w>
ዝግጅ ቱን</w>
ተከታ ዮቹ</w>
የሚደር ሰው</w>
በውስ ጣቸው</w>
ቁሳቁ ሶች</w>
ባቀረ በው</w>
12 ኛ</w>
በማግ ስቱ</w>
ትንበ ያ</w>
ይቆጠ ራል</w>
ሊ ፈ
ሲ ሰሙ</w>
ቃ ብር</w>
ት ምክህ
ኤ ፍ
ከ ቤ
ክ ስና</w>
የ ጦርነት</w>
የ ኢንተርኔት</w>
ይ ጎ
ጥ ኑ</w>
የሚ ሞ
የተ ገ
የተ ሳተፉ</w>
ድር ቁን</w>
እር ሳቸውም</w>
ወጣ ቸው</w>
እየተ ነገረ</w>
ማስ ቀጠል</w>
ሲያ ይ</w>
በስ ኬት</w>
በስ ፍራው</w>
ስፖር ትና</w>
የካ ንሰር</w>
እስካ ሁንም</w>
አረ ብ</w>
የማስ ፋፊያ</w>
የፀ ሐ
ሰበ ውን</w>
ይኼ ንን</w>
በጅ ምላ</w>
ታጋ ዮች</w>
ይወጣ ሉ</w>
ተገናኝ ተው</w>
በትዕግ ሥት</w>
ማተ ሚያ</w>
ላ ችሁም</w>
መ ኰ
ተ ተክ
ቸ ዉ</w>
አ ቧ
የ ጠበቁ</w>
የ ኢኮኖሚና</w>
ደ ኝ</w>
ጥ ቁ
ጽ ፍ</w>
ምህ ዳር</w>
ማስ ፈን</w>
ወሰ ን
ቋቋ ሚያ</w>
በህ ክምና</w>
መላ ውን</w>
ገረ ኝ</w>
ለዋ ወ
መሬ ቱ</w>
አክራ ሪ</w>
በምሳ ሌ</w>
እያደረ ግን</w>
ንጉሡ ን</w>
መመዘ ኛ</w>
በነበ ሩበት</w>
ሳም ሶን</w>
ይሰጣ ቸዋል</w>
ሎ ቻቸው</w>
ስ ላሉ</w>
በ ራቸው</w>
ባ ዘጋጀው</w>
ቸ ው
ች ውና</w>
ኒ ልክ</w>
የ ቴ
የ ፕሮ
ጐ ች</w>
ጹ ን</w>
የሚያ በረታታ</w>
አባ ዜ</w>
በደ ን</w>
ፈረ ም</w>
ምና ለን</w>
ማለ ዳ</w>
ካህ ናቱ</w>
ያስታው ሳል</w>
አይደለ ችም</w>
አብረ ውት</w>
ሎ ቹን</w>
ማ ጋ
ሮ ቢ</w>
ሽ ጉ
ቃ ቄ
ቅ ነት</w>
በ ትምህር
በ ዕቅድ</w>
በ ባህላዊ</w>
በ ሪፖርቱ</w>
ት ተን</w>
ን ጣ
እ ለ
ከ ኋላ</w>
ኮ ንግ
ዥ ና</w>
ያ ካ
ፖ ስት</w>
እንዳ መለከቱት</w>
የሚያ መር
አስተ ው
እየ ፈጠረ</w>
ወጣ ና</w>
ተከ ፋፍ
ሰብ በት</w>
የህ ዳሴው</w>
ወር ዱ</w>
ክብ ደ
መዋ ዕለ</w>
አጠ ገ
መድኃኒ ቶች</w>
በአትሌ ቲክስ</w>
ለመጀመ ርያ</w>
መ ዘር
ማ ሸነ
ሲ ኖሩ</w>
ቀ ኝነት</w>
ብ ተዋል</w>
ታ ራ
ታ ዩ</w>
አ ደረገው</w>
እ ሰጣ
ከ ስራ</w>
ያ ላችሁ</w>
ያ ዘጋጀ
ጋ ብቻ
ጥ ሰ
ጨ ቅ
ጭ በረ
ጻ ፈ</w>
ፎ ርም</w>
የመ ግ
በማ ደራጀት</w>
ችግ ኞች</w>
ሊያ ጋጥ
ደን ቡ</w>
ይመስ ላሉ</w>
መብ ታቸውን</w>
ጉባኤ ውን</w>
ዕለ ታት</w>
ጠላ ቶች</w>
ቀርብ በት</w>
ሸቀ ጥ</w>
አልበ ም</w>
ይሄን ኑ</w>
ህ ኒ</w>
ታ ላችሁ</w>
ች ሽ</w>
ኢ ዴፓ</w>
ከ ኛ</w>
ከ ወጣ</w>
የ ፖለቲካና</w>
ጠ ችው</w>
ጡ ትም</w>
በመ ኖሩ</w>
በመ ንቀሳቀስ</w>
የሚያ ነ
ሁለ ገብ</w>
ተቀ ራር
እንደተ ገለጸው</w>
ጥቂ ቶቹ</w>
ቀዳ ዳ</w>
ማረ ፊ
የጋ ብቻ</w>
ማነ ቆ</w>
ክብረ ወሰ
የተደራ ጁ</w>
በቀድ ሞ</w>
እላ ችኋለሁ</w>
ይቀን ሳል</w>
9 3</w>
ሌ ን
ሮ ኮ</w>
ሲ ንግ</w>
ብ ሉ</w>
ተ ይዘው</w>
ት ሑ
ቷ ታል</w>
የ ሃገ
ያ ካት
ጉ ሮ
እንደሚ ጠበቅ</w>
መለ ያ
እያ የን</w>
አም ር
እር ዳ
መጠ ጣት</w>
ለማስ ፋት</w>
ተር ጓ
በታ ተ
ስልጣ ኔ</w>
ፕሮጀክ ቶቹ</w>
ይኖር ብሃል</w>
ጥራ ቱን</w>
የማስተ ማር</w>
በመጠ ኑ</w>
በማድረ ግና</w>
ዘነ ጋ</w>
አስቀድ መው</w>
ተፈላ ጊ</w>
ር ኩስ</w>
ሲ ዘ
ቀ ሪው</w>
ተ ሀ
ት ህ
ኔ ዎች</w>
ጠ ገ
የተ መለከቱ</w>
እንደሚ ካሄድ</w>
የማ ወቅ</w>
በሚ ጠራው</w>
እስ ረኞች</w>
ወጣ ሁ</w>
በቀ ደ
ያስፈል ጋቸው</w>
ጥና ቱን</w>
ርዕ ይ</w>
እንዲሰ ጠው</w>
የሚመ ጡት</w>
ሃላ ፊዎች</w>
መጻሕ ፍትን</w>
ውን ዴ
የሚገባ ቸውን</w>
የሚሰማ ው</w>
ሄድ ኩ</w>
መንደ ሮች</w>
ጣፋ ጭ</w>
ሎ ስ</w>
ሪ ሁን</w>
ሬ ም</w>
በ እውቀት</w>
ቢ ባልም</w>
ብ ድ
ኙ ም</w>
ው ሃን</w>
የ ሂ
ጠ ኛ</w>
የተ ያዘ</w>
ለመ ደ
አይ ገኝም</w>
ተሳ ፋሪ</w>
አለመ ኖሩ</w>
መዝ ገበ</w>
ከት ውልድ</w>
ለቀ ቁ</w>
ሐረ ግ</w>
አደጋ ን</w>
ለመግ ታት</w>
አመስ ጋ
በ ወጣቶች</w>
በ በዓሉ</w>
ች ውም</w>
ከ ሸ
ዙ ርያ</w>
የ ሬዲዮ</w>
የ ዲሞክራሲ</w>
የአ ክሲዮን</w>
አለ ባት</w>
ሰባ ዊ</w>
የሚጠ ጋ</w>
ነፍ ሰ</w>
እነር ሱን</w>
የመንግሥ ቱን</w>
በሚያስ ችል</w>
የደረሰ ባቸው</w>
መላለ ስ</w>
ዕጩ ዎች</w>
ለ አየር</w>
ራ ዊና</w>
ስ ተ</w>
በ ያ
አ ሳ</w>
ከ መረ
ካ ቀረ
ዳ ይ</w>
ግ ላቸው</w>
ጠ ባ</w>
የተ ጀመረ</w>
አን ገብ
በመ መደብ</w>
ለማ ሰብ</w>
ጊዜ ያቸው</w>
ንድ ፍ</w>
ቱሪ ዝ
ይመለከ ታል</w>
የመድረ ክ</w>
7 ዓ</w>
e a
ለ ራስ</w>
ሊ ገኝ</w>
በ ረው</w>
በ አንደ
በ ፖሊስ</w>
ብ ሎት</w>
ኅ ብረተሰ
ከ ጐ
ከ መሆናቸው</w>
የ ዕቅድ</w>
የሚ ከናወኑ</w>
የሚ መለከቱ</w>
ለመ ሳብ</w>
ለመ ፍታ
አይ ተው</w>
ውስ ጡ</w>
መል ሱን</w>
በረ ክት</w>
ማን ንም</w>
አለመ ሆን</w>
ከተማ ና</w>
ባይ ን</w>
ከፈ ሉ</w>
ለም ግብ</w>
ሌላ ዋ</w>
ሃሳ ባቸውን</w>
የሲ ሚንቶ</w>
ብክ ለት</w>
ሁ ኝ</w>
ለ ሶስት</w>
ሠ ማ
ሪ ነትን</w>
ራ ሹ</w>
ሲ ነገር</w>
በ ሉት</w>
በ ጠንካራ</w>
በ ኢንቨስትመንት</w>
ቢ ችልም</w>
ን ጽ
ኢ ራ
ኤ ድ
ካ ለን</w>
የ ዩ
ዩ ስ</w>
ዳ ለሁ</w>
ጃ ን</w>
በመ ምህ
ነበ ር
በተ ረፈ</w>
ከተ ደረገ</w>
እንዳ ደረገው</w>
ቀጥ ሎም</w>
የት ኛውን</w>
በደ ብዳ
መቀ ነ
ማስተ ዳደር</w>
የሚፈል ጉት</w>
አፍሪካ ዊ</w>
ሂደ ትም</w>
የል ደት</w>
ትረ ፈረ
ነው ር</w>
ታቅ ዷል</w>
ይከብ ዳል</w>
የአትክል ት</w>
ቅ ቆ</w>
በ ተ</w>
በ ጥበብ</w>
በ ያዝነው</w>
ብ ዕ
ቱ ስ</w>
ና ይ</w>
ኛ ዎች</w>
ከ እስር</w>
ካ ቸውን</w>
ዊ ል
የ ሺ
የ ኋ
ደ ሮች</w>
ጥ ስ</w>
በማ ገልገል</w>
መል ቀ
መስ ልም</w>
እያ ገኙ</w>
በረ ዶ</w>
ተቋ ማዊ</w>
ይገ ኝ</w>
የወ ረዳው</w>
አድ ጓል</w>
ይታ ሰ
የዘ ገ
ጥረ ትና</w>
ወያ ዩ</w>
ቋንቋ ና</w>
አወ ዛ
ክፍተ ቶችን</w>
ውለ ድ</w>
የኖ ረ</w>
የአውሮ ፕላን</w>
ተለያ ይ
ይጀመ ራል</w>
e t
ቤ ዛ</w>
ተ ይዟል</w>
ና ለች</w>
ከ ኦሮሚያ</w>
የ ትምህርትና</w>
ገ መድ</w>
ጋ ትን</w>
ፎ ርድ</w>
የሚ ካሄዱ</w>
አል ጋ
እር ሱን</w>
ማዕ በል</w>
በበኩ ሏ</w>
አቤ ል</w>
እሸ ቱ</w>
ሲስተ ም</w>
ቅ ኝት</w>
ቢ ጤ</w>
ታ ገኛ
ዋ ቸዋል</w>
ጣ ሪያ</w>
የተ ካተ
ያስ ተናግ
በአ ቋ
እንደሚ ፈልግ</w>
አለ ብህ</w>
ድጋ ፉን</w>
የት ርፍ</w>
መደ ቡ</w>
ጽሑ ፎችን</w>
ወጥ ና</w>
የማስ ታወቂያ</w>
ጠር ቶ</w>
ሰም ቶ</w>
የሚደር ስ
በማህ በር</w>
አስከ ሬን</w>
ይጀም ራሉ</w>
ሕዛ ብ</w>
ቪዬ ሽን</w>
ለ አካል</w>
ሕ ሊና</w>
ሰ ነበ
ስ ለው</w>
ሽ ልማቱ</w>
በ በሽታው</w>
ት ሆና
ወ ትር</w>
የ ቃል</w>
ጠ ቀ</w>
የተ ሳሰ
በአ ረ
20 17</w>
በር ሊን</w>
አብ ያተ</w>
ግብ ነት</w>
አገልግሎ ትና</w>
ጨረ ቃ</w>
በእ ጃቸው</w>
ፕሬዚዳን ታዊ</w>
በማስ ወገድ</w>
ስፖር ትን</w>
የደረ ሰውን</w>
የምታ ደርገው</w>
ሃሳ ቦችን</w>
በነ ዚህ</w>
የአር ብቶ</w>
የተደ ነገ
ካሳ ሁን</w>
ኦር ቶዶክስ</w>
ሃ ይ</w>
ሊ ል</w>
ላ ከ
ላ ይት</w>
ሕ ጻናት</w>
ማ ቻ
ሰ ንት</w>
በ ኢትዮጵያና</w>
ባ ገኙት</w>
ዝ ግ</w>
ጨ መር
ጫ ው
ፋ ሲል</w>
የተ ተ
ለማ ጎልበት</w>
አይ ቀር</w>
በማ ሰባሰብ</w>
እንደሚ ገል
መሰ ለህ</w>
ከመ ነ
ለማስ ቆም</w>
ስራ ም</w>
የስ ንዴ</w>
ወስ ዷል</w>
ንጉ ሣ
ድርጊ ቶችን</w>
የጠ ፋ
ደገ ም</w>
en t
ስለሌ ለ</w>
ራ ዊው</w>
ቢ ቂላ</w>
ው ደ
የ ቶ
ያ ካሂ
ጠ ህ</w>
በአ ፈ
የማ ያውቅ</w>
ምን ጩ</w>
መር ጦ</w>
ያሳ ዝ
በጥ ር
የታ መ
የቀ ሩት</w>
ክብ ብ</w>
መገ ኛ</w>
በቃ ው</w>
የኦ ዲት</w>
የሚከተ ሉትን</w>
ጠፍ ቷል</w>
መዘግ የት</w>
ያስታወ ሱት</w>
አዘጋ ጆች</w>
8 9</w>
ህ ጎ
ሟ ት</w>
ሩ ባት</w>
በ ውስጥ</w>
በ ጀመ
ት ኩ</w>
ነ ዝ
አ ጠናቀ
ዘ ፋ
ፋ ታ</w>
ፍ ሮ</w>
የተ ጫወ
የተ መጣጠነ</w>
ለመ ምረጥ</w>
መስ ተጋ
ገለ ፁ</w>
ተግባ ሩን</w>
ያሳ ዩት</w>
ኃላፊ ነትን</w>
ወገ ዱ</w>
ጥያቄ ም</w>
የሚታ ዩት</w>
ሰን ሰለት</w>
የሚታወ ቁት</w>
ክሊ ኒ
ገዢ ዎች</w>
መሃ መድ</w>
ጭፍ ጨ
o v
ለ ስድስት</w>
መ ከሰ
መ ተን
በ ጠቅላላ</w>
በ ብድር</w>
ከ ሲ
ጭ ቅጭ
ፅ ዋ</w>
ፈ ረ</w>
የሚ ሆን
የተ ሠራው</w>
በመ ቆ
ለመ ል
ለመ ፈፀም</w>
እስ ክት
አባ ሎች</w>
ኃይ ሉን</w>
የህ ትመት</w>
ተር ጎም</w>
ደን ብና</w>
ትር ፋ
አካላ ትም</w>
ካልተ ቻለ</w>
ሴት የዋ</w>
ሐይ ቅ</w>
ተጠብ ቆ</w>
አወቃ ቀር</w>
ለ ጋዜጠኞች</w>
ማ ለሁ</w>
ሠ ሩት</w>
ሣ ጥን</w>
ስ ውር</w>
በ ዝቅተኛ</w>
በ ሆስፒታሉ</w>
በ ሪዮ</w>
ቪ ዛ</w>
ድ ኩት</w>
የሚ በልጥ</w>
የሚ ፈጠሩ</w>
ለመ መ
አገ ር
አገ ርም</w>
እና ምናለን</w>
ይገ ደ
መጣ ች</w>
የራ ቀ</w>
ዝር ያዎችን</w>
ሃሳ ቡን</w>
ወንድሞ ቹ</w>
መስጠ ቱን</w>
ኬንያ ውያን</w>
አቋር ጠው</w>
ሙያ ተኞች</w>
ሱዳ ንና</w>
የተመሠረ ተው</w>
i r
ሊ ሰራ</w>
ማ ቋረጥ</w>
ረ ሚያ</w>
ቅ ቤ</w>
በ 4
በ ዴሞክራሲያዊ</w>
ባ ም</w>
ከ አንደኛ</w>
የ እውነት</w>
የ ጨረታ</w>
ያ ዋን</w>
ጠ ውም</w>
የሚ ቆይ</w>
የመ ግዛት</w>
እንዳ ለን</w>
ስለ ሺ</w>
ችግ ርም</w>
ግብ ሮች</w>
ፈረ ንስ</w>
በራ ሷ</w>
አያ ዳግ
የቻ ሉ</w>
ተጫዋ ቾ
መሣ ሪያዎችን</w>
የኮ ሌ
መጻ ፍ</w>
ልቦ ለድ</w>
ሉዓላ ዊ</w>
ብሄረሰ ቦች</w>
አስቆጥ ሯል</w>
ኦሮሚ ያና</w>
ወርቅ ነህ</w>
ል ዎ</w>
መ ታወቂያ</w>
ማ ዕድ
ብ ሩን</w>
ታ ለል</w>
ና ፋ
ከ ጤና</w>
ከ 17</w>
ወ ፎች</w>
ያ ዎቹ</w>
ደ ጅ</w>
ጀ ብ</w>
ገ ሠ
ፊ ሊ
ስተ ናግ
እየተ ሻሻለ</w>
ከመ ጋ
ድርጅ ታዊ</w>
ገንዘ ብም</w>
ገበ ታ</w>
የማይ ባሉ</w>
እንቅ ል
ዴሞክራ ሲን</w>
ተነ ስቷል</w>
ቁጥ ርም</w>
ቃወ ሙ</w>
ሚሊ የን</w>
ታዛ ቢዎች</w>
መጠይ ቅ</w>
ሃ ራ</w>
ማ ት
በ ፌዴሬሽኑ</w>
ከ ኮ
ው ንስ
ዝ ራ</w>
የ ሆቴል</w>
ያ መጣው</w>
ዬ ና</w>
ጥ ገኛ</w>
ፅ ም</w>
በመ ክፈት</w>
የመ ዝ
የመ ሥራት</w>
አይ ሰ
ስለ ላ</w>
ባን ኮ
በት ንና</w>
ቤተሰ ባቸው</w>
ተር ጉ
በቀጣ ዮቹ</w>
ሕይወ ትና</w>
አራ ዳ</w>
ተቃዋ ሚ
ስና ይ</w>
ተፋ ሰ
ዕም ነት</w>
ያሉ በትን</w>
የሚጠይ ቁ</w>
አልነበ ራቸውም</w>
የተቀመጠ ውን</w>
የአበ ባ</w>
መ ጨና
ሻ ለቃ</w>
ባ ገኘ
ና ቅ</w>
የ ኖረው</w>
የ ጡረታ</w>
የሚ ሳ
ተጠ ራ
የህ ገ</w>
ስሜ ትን</w>
ሀብ ቶች</w>
አክ ሱም</w>
ዝር ጋታ</w>
ታይ ተዋል</w>
የሕ ን
በቆ ሎ</w>
ጠቀሜ ታው</w>
መፈ ክር</w>
በማድረ ግም</w>
ተቀና ቃ
በተመለከተ ም</w>
ለ ድ
ላ ቻ</w>
መ ካሄድ</w>
ቨ ር</w>
አ ግብ
እ ልፍ</w>
ክ ብት</w>
ዠ ት</w>
የ ገባ</w>
የ ድንጋይ</w>
ይ ዘጋ
ድ ሎች</w>
ነበ በው</w>
ለመ ገንዘብ</w>
ኃይ ሎችን</w>
መጣ በት</w>
አሰ ባስ
ከማ ስተ
መዘ ን</w>
አዋ ሽ</w>
ሰን በት</w>
በጎ ንደር</w>
ኢትዮጵያ ዊ
ጋገ ሩ</w>
አስተናጋ ጅነት</w>
ያልተገ ባ</w>
ስካ ር</w>
ቁጥጥ ርና</w>
ሊ ጉን</w>
ሊ ቀጥል</w>
ሕ ጻ
ረ ጡ</w>
ሰ ገ
ነ ጥበብ</w>
የ እግ
በመ ጣ</w>
በተ ያዘ
የመ ወሰን</w>
ዴሞክራ ቲክ</w>
ጽሑ ፎ
ከረ ጢ
ሠር ተው</w>
ጎና ፀ
አታው ቅም</w>
ዩኒቨርስቲ ው</w>
ቼል ሲ</w>
ል ጄን</w>
ቁ ታል</w>
በ ፓርላማ</w>
በ እርሱ</w>
በ ድርቁ</w>
ብ ህን</w>
ተ ሠ
እ ኛው</w>
ከ ዕለታት</w>
ይ ብ
ዮ ሴ
ዴ ታ</w>
ገ ፁ</w>
ጻ ል</w>
ፋ ውንዴ
እን ጃ</w>
የሚ ፈጸም</w>
የተ ደረገበት</w>
በመ ደበ
ለመ ጥ
የመ ግለጽ</w>
በር ቀቱ</w>
የሚገ ና
የሚሰ ሩት</w>
በግ ሌ</w>
ረጋገ ጠው</w>
ማሳ ወቅ</w>
ስብ ም</w>
እል ቂት</w>
እቅ ዱ</w>
ፅጌ ረዳ</w>
ሊ ሰሩ</w>
ም ራ</w>
ሲ ም</w>
ሲ ቻል</w>
ሸ ሽ</w>
በ ፕሪሚየር</w>
በ ዝምታ</w>
ና ቅ
ኳ ችሁ</w>
ዞ ሩ</w>
የ ጡት</w>
የ ኮሚሽኑ</w>
ይ ሏል</w>
ጭ ቆ</w>
ፊ ታቸውን</w>
እን ጅ</w>
የተ መለከተው</w>
በማ መን</w>
እንደሚ ቀ
አለ ቆ
ምር በት</w>
መረ ቅ</w>
የሚያስ ችለው</w>
ተቀ መጠ</w>
አንዳን ዴም</w>
በል ቡ</w>
የስ ደት</w>
ወረ ፋ</w>
ከዚ ያን</w>
መረጃ ን</w>
ስተዋ ሉ</w>
የኮ ር
የትራ ንስ
ሙ ታን</w>
ሜ ይል</w>
ም ቢ
በ ሜዳው</w>
ቢ ቀር</w>
ተ ቸግ
ዕ ረፍት</w>
ጥ ል
ጸ ረ</w>
የሚ ወጣ</w>
እንዲ ገ
እንዲ ጠናከር</w>
ስት ሮ
የሰ ጠ</w>
የሰ ጡትን</w>
በደ ን
ጨር ሰው</w>
ለም ታ
መና ኸ
እስራኤላ ውያንን</w>
እሳ ቸውም</w>
ማብ ቂያ</w>
በትክክለ ኛው</w>
g h
ር ክ
ስ ሌት</w>
ቁ ጠር</w>
በ ሄ
በ ምክንያ
ብ ንና</w>
ተ ች
ከ አቅም</w>
የ ስፖርቱ</w>
ዩ ኝ</w>
ይ መሰክ
ጣ ለሁ</w>
ፀ ባርቅ</w>
ፋ ሮ</w>
በመ ፈጸም</w>
ነበ ርን</w>
ለመ ጣል</w>
እየተ ጫወ
20 13</w>
ቀር ነት</w>
መር ሀ</w>
ጥበ ባዊ</w>
ስቶ ን</w>
በዘ ጠኝ</w>
ማድረ ግን</w>
የፊ ፋ</w>
ፍቅ ሩ</w>
አንባ ቢያን</w>
ድሪ ባ</w>
ፍቅር ን</w>
ተጥ ሎ
አክሊ ሉ</w>
o o
ህ ዴድ</w>
ሉ ታል</w>
ሻ ዕቢያ</w>
ቁ ረጥ</w>
በ ቅዱስ</w>
ባ ሏ</w>
ባ ቶች</w>
ን ፋስ</w>
ከ ካ
ከ ግል</w>
ካ ና</w>
ካ ድ</w>
ዋ ቸውን</w>
የ ታወ
ጥ ገኝነት</w>
ፓ ትርያ
እንዲ ፈቱ</w>
የመ ዝናኛ</w>
ያስ ባሉ</w>
መስ ታወ
እየ ሄደ</w>
እየተ ሳተፉ</w>
ተና ጋ
ጥበ በኛ</w>
ወስ ኗል</w>
በላ ሽ</w>
በቅ ቷል</w>
ወድ ቆ</w>
ሐሳ ብን</w>
ቆር ጠው</w>
ተኩ ስ</w>
የማስተ ዳደር</w>
ቴክኖሎጂ ን</w>
ፈተና ው</w>
በመቶ ውን</w>
መዘጋጀ ቱን</w>
አልቻል ንም</w>
ድና ቆት</w>
ለ ውስጥ</w>
ቢ ዎችና</w>
ና ዋን</w>
ከ ሕግ</w>
ዓ ቀፍ</w>
የ ሾ
የ ዘመ
የ ወጣት</w>
የ ክፍያ</w>
የ ቱንም</w>
ያ ሸ
ጠ ልጥ
የሚ ከለ
የሚ ተላለ
በመ ተው</w>
እንዲ ሰራ</w>
እንዲ ከበር</w>
እንዲ ሄዱ</w>
መን ም</w>
ባለ ሞ
የሚያ መላክት</w>
መር ካቶ</w>
ወዳ ድነት</w>
ለው ጥን</w>
ይመስ ልሃል</w>
አሰልጣ ኝነት</w>
የሕ ፃናት</w>
ጸሐ ፊውን</w>
የቢ ራ</w>
የገባ ውን</w>
ተከራ ይ
ተመዝግ ቧል</w>
ነግረ ው
መተዳ ደሪያ</w>
8 1</w>
ለ ሁና</w>
ሕ ጋ
በ ቁም</w>
ቢ ጫ</w>
ብ ርት</w>
አ ውስ
ከ ውስጥ</w>
ከ ሀገር</w>
ዚ ን</w>
ዞ ት</w>
ዥ ን</w>
ያ ገለገ
ገ ች</w>
ጠ ጥ
የተ ባሉትን</w>
መን ጋ</w>
እየ ደረሰ</w>
ማስ ፈራ
አመ ፅ</w>
ቅር በት</w>
ድጋ ፎች</w>
ስቲ ንግ</w>
ስለሚ ያስ
መሠረ ትም</w>
ብል ህ</w>
መቻ ቸ</w>
ፀሐ ፊው</w>
ማጣ ራት</w>
የዕ ብራ
ክሊ ንተን</w>
ዮና ታን</w>
ካሜ ሮን</w>
በዓይ ነ</w>
ሰብስ ቦ</w>
ይሰራ ሉ</w>
እንቆ ቅ
ል ጇ</w>
ማ ዘጋጃ</w>
ረ ሃ
በ ኢትዮጵያም</w>
ከ ጥንት</w>
ዙ ፋን</w>
ዛ ን
የ ልዩ</w>
የ ዴሞክራሲያዊ</w>
ያ ጠናቀ
ይ ሉ</w>
ደ ሴት</w>
ድ ህ</w>
ፌ ን</w>
በተ ገኘው</w>
የመ ግባ
ከተ ገኘ</w>
በስ ር
በእ ቅድ</w>
ወንጀ ሎች</w>
አልተ ገኘም</w>
ትዕ ዛ
በቁ ጣ</w>
ለመሸ ጥ</w>
የሚፈጥ ረው</w>
መዓ ዛ</w>
ኢብራ ሂም</w>
ይደነግ ጋል</w>
c on
ሊ ደረግ</w>
ማ ዘጋጀ
ሾ ም</w>
ቀ ዱ</w>
በ አንደኛው</w>
በ ጨዋታው</w>
በ ኢኮኖሚው</w>
ዢ ው</w>
አን ቀሳ
እንዲ መለስ</w>
ለማ ፋጠን</w>
የአ ዳማ</w>
የማ ን</w>
ገል ጋ
በስ ልጣን</w>
ከሰ ሜን</w>
ብር ተኝነት</w>
በጥ ቁር</w>
ገደ ድ</w>
ዋን ጫን</w>
የራ ሷን</w>
የቆ ሻሻ</w>
መሰረ ትም</w>
ወጥ መድ</w>
መለክ ቱት</w>
ተደ ም
ሰይ ፉ</w>
የአን ድን</w>
ለማን ሳት</w>
ልያ ድ</w>
በተቀ መጠው</w>
መቆጣጠ ሪያ</w>
የካፒ ታል</w>
0 4</w>
ሐ ዘ
ሮ ቻችን</w>
ሲ ጀምሩ</w>
ከ 80</w>
ወ ከፍ</w>
ዝ ቀ
ጀ ማል</w>
ጠ ባይ</w>
የሚ ው
ከተ ቃ
ዓመ ፀ
ገል ጧል</w>
በኩ ራት</w>
ተገ በሩ</w>
አማ ን</w>
የወ ጡት</w>
ታደ ል</w>
እግዚአብ ሄ
አሰጣ ጡ</w>
አርቲ ስቶች</w>
ደጃ ፍ</w>
ሐ መድ</w>
ማ ንድ</w>
ሱ ር</w>
ሲ ገኝ</w>
ሼ ክ</w>
ባ ድ
ብ ርድ</w>
ከ ጠቅላይ</w>
ከ ወራት</w>
ይ ከበ
ጠ ሩት</w>
ጦ ታ</w>
በማ ጠናቀቅ</w>
እያ ለሁ</w>
እና ድርግ</w>
የእ ኔን</w>
ኢንዱስት ሪውን</w>
ፓርቲ ዎችን</w>
መሸ ጫ</w>
እንቅስቃሴ ዎችን</w>
ቢኖ ረውም</w>
እየመ ጡ</w>
በሆ ነበት</w>
በጽ ናት</w>
የሚያስከት ለው</w>
ያደረገ ችው</w>
ሙዚቀ ኞች</w>
ርእ ስ</w>
ደራሲ ያን</w>
e d
ሊ ረ
ል ባዊ</w>
ማ ነት</w>
ሻ ዬ</w>
ቀ ንም</w>
በ እርሳቸው</w>
ባ ስተ
ብ ኩ</w>
እ ቃዎች</w>
ወ ጋ
የ ፌዴሬሽን</w>
ጫ ለሁ</w>
ፅ ር</w>
አስ ነ
በተ ጠናቀቀው</w>
ከተ ባለው</w>
የአ ኗኗር</w>
መለ ስም</w>
መሆ ንን</w>
አለ በለዚያ</w>
ንግ ና</w>
ነሳ ሳት</w>
ተማ ሪው</w>
አያ ት</w>
ማኅ በራ
ሐሳ ቦችን</w>
እንደሌ ለበት</w>
ንግግ ሩን</w>
መሆና ችንን</w>
መኳን ን
፲፱፻ ፺
ፍጽ ምና</w>
ሳ ስብ</w>
ሸ ባብ</w>
ቅ ድም</w>
ና ዬ</w>
ው ላ</w>
የ ቢሮ</w>
የ ድንበር</w>
የ ልማታዊ</w>
የ ዘርፉን</w>
የ ባለቤትነት</w>
የ መንግስትን</w>
ጀ ብ
ጠ ቢ
ጣ ኔ</w>
የሚ ነሳ</w>
የተ ጠረ
በመ ከታተል</w>
እንዲ መ
የመ ደ
የአ ዳ
ያለ አግባብ</w>
መሰ ራ
ያል ተሰ
በሰ ባት</w>
ጠበ ቁት</w>
የስ ሜት</w>
አጋ ር
አዳ ምና</w>
በዓ ልን</w>
ነግ ረው</w>
ልን ማ</w>
የብ ርና</w>
ሐሳ ቡ</w>
ስላል ሆነ</w>
አበረ ታ
ከንቲ ባው</w>
ያብራ ራል</w>
ገቢ ዎችና</w>
ችን ንና</w>
መስፈር ቶች</w>
ቱኒ ዚያ</w>
ያመላክ ታል</w>
ታንጕ ት</w>
N W</w>
ለ ምክር</w>
ል ከው</w>
ሲ መለስ</w>
ስ ቶችን</w>
በ ጌ
በ ጸሎት</w>
ው ቁ</w>
የሚ ደረግበት</w>
የመ ጠበቅ</w>
የአ ድዋ</w>
አል ፎም</w>
ወደ ድ</w>
የሌ ለ
ተጠና ቀቀ</w>
የሚገል ጹ</w>
ወደሚ ገኘው</w>
ጭን ቀ
አይሁ ድ</w>
ኮንትራ ክተሮች</w>
ኃይለ ሥላሴ</w>
እንኩ ዋ</w>
ላ ችንን</w>
መ ክብብ</w>
ራ ማ</w>
ሬ ዲዮ
ስ ቱም</w>
ተ ብ
ተ ሃል</w>
እ ቃ
ኮ ላ</w>
የ ዝውውር</w>
ጭ ቶ</w>
የሚ ጎ
የተ ቆ
የተ ሞላበት</w>
እንደ ምን</w>
እንደ መጣ</w>
ደር ግም</w>
በየ ሳምንቱ</w>
የሚሰ ጥበት</w>
ቅረ ቡ</w>
ገብ ቼ</w>
መብ ቶችን</w>
ላይ ሆን</w>
ከፈ ቱ</w>
ዝና ና</w>
ቴክኖሎጂ ና</w>
የጉ ልበት</w>
አዳራ ሹ</w>
አኩ ሪ</w>
ፎቶግራ ፍ</w>
ተቆር ቋ
ምቾ ት</w>
በተቀና ጀ</w>
6 ኛ</w>
ሟ ቸውን</w>
ሲ ከበር</w>
ቀ ለበት</w>
በ ቱርክ</w>
ኪ ስታን</w>
ካ ቢኔ</w>
ጎ ሎች</w>
ፈ ወ
በመ ታገዝ</w>
በማ ር
የአ ጭር</w>
በረ ከቱ</w>
200 0</w>
አር በ
በስ ም</w>
ባን ክና</w>
መው ደድ</w>
ይታወ ቃሉ</w>
ከር ሰ</w>
የነ ፍስ</w>
በዘ ንድሮ</w>
ይጠይ ቃሉ</w>
የተመረ ጡት</w>
ዓላማ ውን</w>
ካሔ ደው</w>
ውህ ደት</w>
ምልከ ታ</w>
ላ ዎች</w>
ላ ትና</w>
በ ዚህ
በ 15</w>
አ ተገባ
ከ ምርጫ</w>
ከ ህብረተሰቡ</w>
ካ ሚ</w>
ክ ተዋል</w>
የ ሞች</w>
ይ ፈጽ
ፈ ጥ</w>
ፋ ቶች</w>
በመ ተግበር</w>
ለመ ክፈት</w>
ኢን ፌ
ሰማ ያ
ያሳ የ
የታ የበት</w>
ተጠቃ ሚው</w>
መዘ ግብ</w>
እንዳይ መስ
ምስ ክርነት</w>
በላ ከው</w>
ትዕ ይንት</w>
የመሰ ሉ</w>
እየሰ ፋ</w>
ጉዞ ውን</w>
ብክ ነት</w>
የሚሠ ሩት</w>
የተመሰረ ተው</w>
ጠናቅ ቅ</w>
እነዚህ ና</w>
ሀብታ ሙ</w>
a li
ህ ንድ</w>
ሪ ከር
ሱ ንና</w>
ሸ ሽ
ቋ ቁ
እ ራሳቸውን</w>
ከ 4</w>
ከ ምና
የ ላይ
የ ኢትዮጵያውያን</w>
የ ዕውቀት</w>
ዲ ሲ
ፈ ነው</w>
እን ሰራ
መን በር</w>
የመ ገንባት</w>
መስ ገን</w>
በሚ ሰጠው</w>
መር ምሮ</w>
ፖለቲ ካል</w>
ሪያ ነት</w>
ገብ ሩ</w>
መሥ ፈርት</w>
የዘ ንድ
የሚጠ በቀውን</w>
ሽከርካ ሪዎች</w>
ተሰጥ ቷቸዋል</w>
ገጠ መኝ</w>
ባር ሴሎና</w>
ቤተሰቦ ቹ</w>
ፖለቲካ ዊና</w>
ዳያስፖ ራዎች</w>
ጠንቅ ቆ</w>
አውቶቡ ስ</w>
የዳያስፖ ራ</w>
በፍርሃ ት</w>
9 00</w>
ለ አገራቸው</w>
ሚ ን
ራ ዘም</w>
በ ሽ</w>
ቦ ቿ</w>
ታ መ
ከ ዕለት</w>
የ ፕሮጀክት</w>
ይ ላቸዋል</w>
ግ ጅጋ</w>
ጽ ር</w>
በአ ቅ
ለያ ይ</w>
የሚገ ኝበት</w>
ጠን ቀቅ</w>
ሀብ ቱ</w>
ነፃ ና</w>
ጓደ ኞች</w>
ሰን ጠረ
የእር ሻና</w>
th i
ቅስ ቀሳ
ሲገል ጹ</w>
እድገ ቱ</w>
አጥብ ቀው</w>
op i
አካሂ ዷል</w>
አርዓ ያ</w>
ል ድ
ሚ ያው</w>
ሞ ታል</w>
ሠ ልፍ</w>
ሲ ጋ
ቀ ሪዎቹ</w>
ኒ ያን</w>
ከ ቤተሰብ</w>
የ ዝግጅት</w>
ያ ቅ
የሚ መጥን</w>
እንዲ ያም</w>
እንዲ ስፋፋ</w>
አስ ራት</w>
ለመ ሰማራት</w>
ባለ ህ</w>
እስ ካል
ንያ ም</w>
ወጣ በት</w>
20 12</w>
ኃይ ልን</w>
በል ፀ
የግ ል
ነበረ ን</w>
ፍላጎ ታቸው</w>
ሻሻ ለው</w>
የሞ ራል</w>
በ20 16</w>
አንጋ ፋው</w>
ያካት ታል</w>
ላ ለ</w>
እ ጃቸው</w>
ከ ኔ</w>
ክ ፋ
ዘ ጠ
ዘ ዳግም</w>
የተ ና
በመ ቀጠልም</w>
የመ ራ
የማ ውቀው</w>
አል ፋ</w>
አል ሰጠ
ንግ ግራ
ከዚ ያው</w>
ባበ ረ</w>
የሌ ለ</w>
ባለሀብ ቶችን</w>
የመጣ ሁት</w>
የማኅ በራዊ</w>
ለእ ዚህም</w>
0 5</w>
ር ዶ
ሶ ስቱ</w>
ተ ብሎም</w>
ታ ሳ
ቸ ር
አ ሜ
ከ ኢየሱስ</w>
ከ ውድድሩ</w>
ከ ዋናው</w>
ዝ ነኛ</w>
ያ ገባ
ዲ ፓርት
የተ ማር
የተ መድ</w>
የተ ጋለጡ</w>
ድረ ስም</w>
ደር ግን</w>
እንደሚ ል</w>
መጠ ንና</w>
ወን ድም
ማስ ፋት</w>
ብዙ ዎቻችን</w>
እንደማ ይችሉ</w>
ጥያቄ ና</w>
ቡድ ኖችን</w>
ተፈ ፃ
ዝና ቡ</w>
የብ ስ
አሳስ ቧል</w>
ውሃ ው</w>
ያደረግ ነው</w>
ለማዳ በር</w>
አስደን ጋጭ</w>
ል ለው</w>
መ ብረ
ሣ ት</w>
በ ቅድመ</w>
ታ ቦት</w>
እ ጩ</w>
ካ ለመ
ዐ ይን</w>
የ እነዚህን</w>
የ ዛፍ</w>
የተ ማረ
አን ቶ
አስ መስ
በማ ፍራት</w>
እው ቅ
ስን ቅ</w>
ተቀም ጠዋል</w>
ገብረ ስላሴ</w>
በሌ ላም</w>
ወንድሞ ችና</w>
የመንግሥ ትና</w>
ለማድረ ግና</w>
የተደረ ገውን</w>
ለ ትውልድ</w>
ሞ ራ</w>
ሬ ቱ</w>
ሲ ዋ
በ ሦስተኛው</w>
ት ጋት</w>
ከ ወንዶች</w>
ኮ ን</w>
ፍ ትና</w>
ነበ ራት</w>
ወን ዶችና</w>
ሲያ ዩ</w>
ተቀ ጥረው</w>
አው ሬ</w>
ጨዋ ወት</w>
በማስ ታወስ</w>
እውነ ታውን</w>
ተመል ከቱ</w>
ዳይሬ ክተ
ጠራ ጠ
የሚመ ሩ</w>
ደረግ ለት</w>
አና ውቅም</w>
ስልጠና ዎች</w>
ሽን ኩርት</w>
9 1</w>
9 ዓ</w>
t er
ሊ ገ
ሊ ው</w>
ሑ ድ</w>
ሶ ቹን</w>
በ 20</w>
ባ ችኋል</w>
ተ ሙ</w>
ቻ ይ</w>
ቼ ም</w>
ኒ ዮ</w>
ከ ስልጣን</w>
የ ክስ</w>
የ ጭነት</w>
የ ሱስ</w>
ይ በል
የተ ከ
በማ ስተዋወቅ</w>
ያህ ልም</w>
አለ ቆች</w>
ጠና ከሩ</w>
የምት ገኝ</w>
በራ ሴ</w>
ማለ ቱን</w>
እንዳል ሆኑ</w>
በድ ብቅ</w>
እገ ዳ</w>
የቦ ንድ</w>
የሸ ማ
ካህ ኑ</w>
የሚወስ ደው</w>
የሚያስች ላቸውን</w>
ማሽ ነ
ፈቅ ደው</w>
ስተካከ ለ</w>
የእስ ልምና</w>
በመግለ ፅ</w>
እርባ ታ</w>
ይጠናቀ ቃል</w>
ለ ምት
ሊ ም</w>
ሐ ና</w>
መ አት</w>
ስ ህን</w>
በ ቲ
ተ ዘግ
ከ ብሔራዊ</w>
ይ ፍ</w>
የሚ ከሰተው</w>
የተ ከናወኑ</w>
እንዲ ቆም</w>
አገ ሮችም</w>
በተ ዋ
በተ ግባ
ነገ ርን</w>
በአ ሰልጣ
በአ ፍሪካ
እንደሚ ገባቸው</w>
ገል ጽ</w>
መረ ምር</w>
ወሰ ዱት</w>
ያል ኩት</w>
ግንባ ሩ</w>
ወዳ ለው</w>
ድጋ ል</w>
የታ ደ
ያደረ ጋቸው</w>
የገ ነ
ለመስ ጠ
ወይዘ ሮዋ</w>
የሞ ቱ</w>
ባለሥልጣ ኖች</w>
የሚጠቀ ሙ</w>
የፍ ሳሽ</w>
ልቦ ናዊ</w>
አሳል ፈው</w>
ቅን ጅ
ማሽ ኖች</w>
አክሲ ዮኖች</w>
ከቀረ ጥ</w>
ምርም ሮች</w>
ገብር ዬ</w>
ያነጋገ ራቸው</w>
3 ኛው</w>
ህ መም
በ ፋ
በ ኔ</w>
ቮ ሊ
ኳ ስን</w>
የ ዲፕሎማሲ</w>
ዶ ቹን</w>
ጂ ታል</w>
ጋ ኒ
ግ ሪ
ጽ ናት</w>
እን ጨ
የተ ፈጸመው</w>
የማ ያው
የሚያ ር
እስ ክን
ተቀ ባይ</w>
ከና ወን
አጥ ቶ</w>
አፈ ወርቅ</w>
ጥቅ ል</w>
ባለቤ ት
የሚያስፈል ጋቸው</w>
ተሰጥ ቷቸው</w>
ተል እኮ</w>
ሰም ተው</w>
ኢትዮጵያ ዊነት</w>
ሀይ ማኖት</w>
ፅን ኦት</w>
መስተንግ ዶ</w>
ለ ደ
ሊ ሰጣቸው</w>
ል ኮ</w>
መ ጪው</w>
ራ ይ
ሰ ዎችና</w>
ሻ ማ</w>
ሽ መልስ</w>
ከ ከፍተኛ</w>
ከ እስራኤል</w>
ያ ዩ
የሚ ፈጠረው</w>
ነበ ሩበት</w>
ወደ ር</w>
በስ ሜት</w>
ግንባ ታቸው</w>
የታ ሰ
እንደተ ባለው</w>
ፓርቲ ና</w>
ተዋ ወ
አንድ ነትን</w>
ሶማ ሊ
ወያ ላው</w>
እያስ ተማ
ጥፋ ትና</w>
ስርዓ ትን</w>
ያገኘ ሁት</w>
የሚን ጸባረ
የድርሻ ቸውን</w>
የኑ ክሌር</w>
ሄ ት</w>
መ ጣት</w>
ቅ ጠ
ታ ውም</w>
ት መ
ና ትም</w>
አ ችን</w>
አ ቃቤ</w>
አ ሏት</w>
ዘ ፀ</w>
የ ቤቶች</w>
የ ሃይል</w>
የ ኃጢአት</w>
ያ ዘጋ
ይ ው</w>
ግ ስ</w>
ጠ ያይ
ችግ ሮችና</w>
ገል ፃ
እየ ቀረበ</w>
ቀር ተዋል</w>
በም ርት</w>
አሰ ል
ፈጸ ሚያ</w>
መኪ ናው</w>
ሕፃ ናትን</w>
ሚስ ቱን</w>
ይጠ ራል</w>
በየት ኛው</w>
ናፍ ቆት</w>
አበርክ ቷል</w>
ለ ችግር</w>
ለ ንግድ</w>
መ ርና</w>
ማ ቸውም</w>
ሞ ከር
ሮ በርት</w>
በ ዋጋ</w>
በ እርሻ</w>
አ ዝና
ከ 500</w>
ካ ደረጉ</w>
ክ ዋ
የ ዋና</w>
የ ሠራው</w>
የሚ ፈጸ
እንዲ ያውቁ</w>
እንደሚ ኖሩ</w>
መረ ዳ
ላለ ፉ</w>
በየ ክልሉ</w>
ነጥ ቦችን</w>
ተነ ፍ
ተደር ሷል</w>
የጎ ንደር</w>
የምና ደር
ብስ ክሌ
ሂደ ዋል</w>
ይጠቀ ማሉ</w>
የን ባብ</w>
ልጠና ው</w>
ቸዋ ለች</w>
አካባቢያ ዊ</w>
9 ኛው</w>
ለ የ</w>
ሏ ታል</w>
ሠ ዓ
ር ነው</w>
ሸ ዋ
በ ክርስቶስ</w>
ነ ቱና</w>
ከ ሱ</w>
ከ ቶ</w>
ከ ርና</w>
ከ ኢህአዴግ</w>
ዘ ዋል</w>
ዘ ሪሁን</w>
የ ሉ
የ ባቸው</w>
ያ ድ</w>
ይ ሁኑ</w>
ዳ ብ</w>
ዳ ኛው</w>
ጭ ስ</w>
እንዲ ሆን
በማ ዋ
እንደሚ ኖ
እየ ገቡ</w>
መር ማሪ</w>
መሳ ሪያዎችን</w>
ስብ ከት</w>
የሌ ላቸውን</w>
ጨር ቅና</w>
ችሁ ትን</w>
የወጣ ቶችና</w>
ሄደ በት</w>
ዓለም አቀፍ</w>
ዘመን ም</w>
እየተባባ ሰ</w>
ለ አን
ለ ከፋ</w>
ል በል</w>
መ ፈፀም</w>
ቀ ዝቃ
ቀ ጭን</w>
በ ሌ</w>
ቦ ምብ</w>
ተ ቀን</w>
ኅ ብረተሰቡን</w>
ኖ ረዋል</w>
ዘ በት</w>
ግ ሬ
የሚ ፈለገው</w>
በተ መረጡ</w>
ለማ ገዝ</w>
አል ዓ
እና ሳ
ድርጅ ቶቹ</w>
የለ ንደን</w>
ድም ቀት</w>
አጥ ጋቢ</w>
ተፈ ት
ኩባንያ ዎችን</w>
በ200 0</w>
ፍሬ ዎች</w>
ከእ ሷ</w>
ገዝ ተው</w>
የተወለ ደው</w>
አብዱ ላ
የበለ ጸ
እየሰራ ች</w>
ጭንቅ ላት</w>
ተንታ ኞች</w>
ትርጓ ሜ</w>
ማ ረው</w>
ሶ ፍት
ቀ ሚስ</w>
ት ኬት</w>
ና ሙና</w>
እ ዳ</w>
ኩ ሽ</w>
ክ ሎች</w>
ወ ላይታ</w>
የ ጀር
ፊ ርማ</w>
በመ ናገር</w>
በተ ፋ
የመ ናገር</w>
በአ ካ
ባለ ችው</w>
ምን በት</w>
የበ ቃው</w>
አሰ ና
የህ ብረተሰቡ</w>
ከአ የር</w>
ደረጃ ቸው</w>
ነዋ ሪዎችን</w>
ኢህ ዴን</w>
ከረ ጅም</w>
የባ ዕድ</w>
እንድን ሆን</w>
የፈጠ ረ</w>
የሚፈ ታ
አካላ ትና</w>
አክራ ሪነት</w>
ስላለ በት</w>
የበረ ራ</w>
የህል ውና</w>
ል ተኝነት</w>
መ ባቸው</w>
መ ቆጠብ</w>
ሞ ትም</w>
በ ምክትል</w>
በ ሜዳ</w>
ብ ንን</w>
ቷ ና</w>
ከ 4
የ ሎ
የ ኢትዮ
የ ጉባኤው</w>
ዳ ችንን</w>
ጨ መረ
ጭ ፍን</w>
ፍ ተሻ</w>
ለማ መን</w>
እየተ ዘዋ
ፈል ጌ</w>
አባ ቷ</w>
አላ የ
ስታ ን
አድ ዋ</w>
በህ ገወጥ</w>
ምት ኩ</w>
ልዩ ነቶች</w>
ምዕራ ባውያን</w>
ሙዚ የም</w>
በማስተ ባበር</w>
ክፉ ዎች</w>
የደረሰ በትን</w>
ተቆጣ ጣሪ</w>
መ ውም</w>
መ ባሉ</w>
ሲ ያደር
ስ ዕል</w>
ቀ ህ</w>
ቀ መጥ
በ ጐ</w>
በ ብዙዎች</w>
ተ መ</w>
ና ዎችን</w>
ከ ድር</w>
ዋ ቱ</w>
ዎ ቼ</w>
ዕ ት</w>
ጮ ኸ</w>
ፈ ሪያ</w>
ባለ ትዳ
እስ ከተ
ወን በ
ወን ድና</w>
አደ ሮችን</w>
ተገ ዝ
ልጆ ቿ</w>
የግ ጭት</w>
የዘ ወትር</w>
መረጃ ውን</w>
የሽ ልማት</w>
አገልጋ ዮ
ስፋ ፉ</w>
ሥፍ ራው</w>
አሸባ ሪዎች</w>
ያስታወ ቁት</w>
ቃላ ትን</w>
ዘረጋ ው</w>
ዓይነ ተኛ</w>
የተነገረ ለት</w>
ሄ ኖክ</w>
ለ ዛሬ</w>
ለ ነገ</w>
ሰ ጠኝ</w>
ሰ ሜናዊ</w>
በ 12</w>
በ ዜጎች</w>
ቡ ንና</w>
ባ ዕድ</w>
ት ዋን</w>
ከ ወር</w>
ኮ ፒ</w>
ጆ ችን</w>
ፈ ሩት</w>
ፈ ራል</w>
ፍ ሰስ</w>
ፓ ሪስ</w>
አይ ፈልግም</w>
ያስ ተዳ
ደር ስም</w>
አባ ቱን</w>
ቀር ብም</w>
ከሚ ባሉት</w>
አው ግ
ከሰ ል</w>
ብል ግና</w>
ውሳኔ ዎችን</w>
አስከ ሬ
ሀሳ ቦች</w>
አካባቢ ዎችን</w>
መጠና ቀቅ</w>
በዙ ሪያው</w>
ati on
ኢንቨስትመን ትን</w>
ባለማ ግኘ
ወዳጆ ቼ</w>
ተግሣ ጽ</w>
h a
ለ ዚያ</w>
ሊ ወሰድ</w>
መ ወሰድ</w>
ሚ ዲያ
ሲ ወርድ</w>
ስ ገባ</w>
በ ፈጣን</w>
በ ሩሲያ</w>
ነ ካ
ኢ አድ</w>
ከ ክልል</w>
ዋ ሚዎች</w>
የ ናይጄሪያ</w>
ጦ ጦ</w>
ፍ ሪ
የተ ካሄደ</w>
የተ ገነዘ
አስ ና
እንደሚ ፈጥር</w>
በሚ ሉ</w>
እያ ደረገች</w>
ገን ቢ</w>
ከአ ጠቃላይ</w>
ጠን ቋ
ገብ ታ</w>
ባል በት</w>
ውል ት</w>
ሌላ ውም</w>
መዛ ግብ
ጠፋ ው</w>
አድማ ጮ
አሜሪካ ውያን</w>
የመጀመሪያ ዋ</w>
ስልጠና ውን</w>
ውር ደት</w>
ፐር ሰንት</w>
የሚገነ ባው</w>
ይጫወ ታል</w>
የምታደር ገውን</w>
በወቅ ቱም</w>
ማ ጭበርበር</w>
በ ኢትዮጵያውያን</w>
በ ሥራው</w>
ች ለት</w>
ካ ላት</w>
ዎ ቹና</w>
የ ጦ
የ ፊት</w>
የ ሁለተኛው</w>
ዳ ለን</w>
ጸ ው</w>
የሚ ከናወነው</w>
የማ ሻሻ
አቅ ዶ</w>
ሪያ ዋ</w>
የበ ቆሎ</w>
አላ ሳ
በግ ር
ከብ ረው</w>
አምላ ኬ</w>
እኛ ስ</w>
መፍ ቻ</w>
ያስች ለናል</w>
ማዳ በ
የተጠ ያ
መጠቀ ሚያ</w>
ይለያ ያል</w>
ሒደ ቱ</w>
ወርቃ ማ</w>
አያዳግ ትም</w>
ሐ ሰተኛ</w>
ሔ ም</w>
ሚ ያዎች</w>
ሣ ይ
በ ባለቤትነት</w>
ተ መለከተ</w>
እ ባብ</w>
ወ ተ
ዋ ቂ</w>
ው ጫ
የ ራሳችንን</w>
ገ ቡም</w>
ጐ ረ
በተ መጣጣኝ</w>
የአ ድ
ስለ ነበሩ</w>
ገል ን</w>
የሚያስ ተላል
እንዲያ ቀርቡ</w>
የማይ ታወቅ</w>
ተደር ገዋል</w>
የሚታ ይበት</w>
ጓደ ኝነት</w>
ባለመ ቻላቸው</w>
ፈጽ መው</w>
ባረ ር</w>
የድ ሮ</w>
በ199 7</w>
እርምጃ ዎችን</w>
ፌስቲቫ ሉ</w>
ስርአ ቱ</w>
ማስተላለ ፊያ</w>
ታኅ ሣሥ</w>
አቀማ መጥ</w>
ቀለማ ት</w>
እንሰራ ለን</w>
ሄ ሮ
ለ ፋ</w>
ላ ልቅ</w>
ሰ ና</w>
ሲ ገባው</w>
ሲ ቀርብ</w>
ሴ ክተር</w>
ባ ዬ</w>
ት ሪክ</w>
ኑ ሮን</w>
ክ በ
የ አገሪቷን</w>
ዱ ኝ</w>
የሚ ኖር
እንደሚ ችልም</w>
አላ ችሁ</w>
በማስ ፋት</w>
በዘ ገባው</w>
የተወሰ ደ</w>
ዳር ግ</w>
እንደሚያስ ችል</w>
ትላ ንት</w>
በተሰ ኘው</w>
ስህተ ቶች</w>
በ5 ሺ</w>
ዋና ዎቹ</w>
ፍጠ ርና</w>
የቀድሞ ውን</w>
6 0
E thi
ስ ሟ</w>
በ ናይ
በ ቶሎ</w>
ቱ ኝ</w>
ን ዴ
ኢ ም
ከ አም
የ ኖሩ</w>
ይ ሮ</w>
የተ ጫዋ
በመ ሠ
በመ ጨረሻው</w>
እንዲ ታይ</w>
አበ ል</w>
የሚያስ ቀም
ተከ ሉ</w>
አማ ረ</w>
ወዳ ደሪያ</w>
ይዘ ህ</w>
አላ ምንም</w>
ማሳ ለፍ</w>
እጅ ጉን</w>
ዝና ናት</w>
ልብ ህ</w>
የብ ሪታ
ተሻ ጋሪ</w>
ሻም በል</w>
i t</w>
ል ባችን</w>
በ ሴት</w>
በ ኮንስትራክሽን</w>
ብ ለ</w>
ቿ ም</w>
ና ጀት</w>
ኤ ፌ</w>
ወ ድም</w>
ዐ ይነት</w>
የ ሆን
ደ ናል</w>
ጋ ም</w>
ጥ ኝ</w>
ፀ ት</w>
የሚ ሠራ
እንደ ነበረ
ያስ መዘገበው</w>
ከመ ጣ
ሠራ ተኞቹ</w>
ቀበ ሌው</w>
ማር ታ</w>
ያላ ቸውና</w>
ስደ ተኛ</w>
አካዳ ሚው</w>
መስራ ች</w>
አርሶ አደሩ</w>
የተጻ ፈው</w>
ተካሂ ዶ</w>
ትርጉ ሙ</w>
ጠያ ቂ</w>
ስምን ተኛ</w>
መ ጡም</w>
ሶ ስተኛው</w>
ቃ ቸዋል</w>
ቅ ህ</w>
በ ኦሎምፒክ</w>
ተ ደጋግሞ</w>
አ ጅ
ኢ ሳያስ</w>
ከ በርካታ</w>
ዋ ናውን</w>
የ ኖር
ፈ ንና</w>
ፍ ተው</w>
ፍ ንት</w>
የሚ ፈጠር</w>
መሰ ጠት</w>
ጠቀ ምባቸው</w>
ብር ም</w>
ብር ቅ</w>
አላ ግባብ</w>
ለሚ መለከተው</w>
የምና ውቀው</w>
ደረገ ችው</w>
የብ ዝ
ቋንቋ ው</w>
እግዚአብሔ ርን</w>
ፈላ ስፋ</w>
ሰም ተናል</w>
ቆጣጠ ረው</w>
በመቶ ዎች</w>
ሜዳል ያዎች</w>
አውሮፕላ ኖች</w>
ጎልማ ሳ</w>
ረ ትና</w>
ራ ጅ</w>
ራ ዊነት</w>
ር ኩት</w>
ሲ ያስተ
ስ ላቸው</w>
ቅ ልጥ
ከ ወደ
ከ ቤቱ</w>
ከ እርሱ</w>
ከ ምሽቱ</w>
ወ ገን
ዋ ዛ</w>
ዎ ቻችንን</w>
ዐ ውደ</w>
የ ዶ
ዲ ድ</w>
ጊ ያው</w>
ጠ ፈ</w>
ጸ ድ
ጽ ዳት</w>
ፋ ለን</w>
የተ ዘ
የመ ኖ
የአ ቅ
የሚያ ድ
በሚ ችል</w>
ስለ ተሰ
ያል ፉ</w>
የስ ኬት</w>
የእ ነ</w>
ቀን ሷል</w>
ዲግ ሪያቸውን</w>
ጨነ ቁ</w>
የሚያቀር ቡት</w>
መረጋገ ጥ</w>
ም ያ</w>
በ 10ሺ</w>
ተ ለያዩ</w>
ን ህ</w>
ኖ ቹን</w>
ከ ጥር</w>
ከ ሃያ</w>
ክ ሯል</w>
ዎ ስ</w>
ዓ ለማችን</w>
የ ሪዮ</w>
የ በልግ</w>
ያ ጡ</w>
ደ ነ
ጭ ል
ፎ ችና</w>
የተ ጠበቀ</w>
የተ ገነባ</w>
በመ ሆና
ለመ ምጣት</w>
ውስ ጡን</w>
ከተ ፈለገ</w>
የአ ባይ</w>
መስ ማማ
እያ ደር</w>
አቅ ኚ</w>
መረ ጠ</w>
ሪያ ዎችና</w>
የላ ትም</w>
ክን ውን</w>
የቦ ር
ስትራቴጂ ዎች</w>
ብሩ ክ</w>
የአውሮ ፓ
ጉዋ ደ
ቦራ ቶሪ</w>
ይታሰ ባል</w>
የኮር ፖ
መ መሥረት</w>
ሜ ል</w>
ቀ መር</w>
በ ዴሞክራሲ</w>
በ ጨረታ</w>
ባ ገኘው</w>
አን ግ
በመ መለስ</w>
ተሰ ብ
ተግባ ራቸው</w>
ያሳ ዩ</w>
አሳ ት
ካል ሆኑ</w>
ደገ ፉ</w>
ዕው ነ
በ20 17</w>
ተደ ንግ
ትና ን
እንዳስ ታወቁት</w>
ዓላማ ዎች</w>
ያብራ ሩት</w>
የዚ ያን</w>
ውኃ ው</w>
በቀረ በው</w>
ንጉሡ ም</w>
ይስማማ ሉ</w>
ቧን ቧ</w>
4 ኛው</w>
ሄ ደን</w>
ማ መላለ
ረ ኛው</w>
ር ምጃ</w>
ስ ማቸውን</w>
በ ቤቱ</w>
በ ኢንተርኔት</w>
ተ ብላ</w>
ታ የ</w>
ት ውስ
ከ 300</w>
ካ ር</w>
ወ ዮ
ዝ ሙት</w>
ያ ኖስ</w>
አይ ኤስ</w>
የማ ረጋገጥ</w>
ያህ ሉን</w>
እየተ ከታተ
ዝግ መተ</w>
አዋ ጭ</w>
ስብ ሃት</w>
ሪፖር ቶች</w>
ባረ ክ</w>
ለዋ ወጥ</w>
በማዕ ከሉ</w>
ተከሰ ተ</w>
በስብሰባ ው</w>
o g
ለ ኅብረተሰቡ</w>
ሮ ይተርስ</w>
ሳ ባ</w>
ተ ሞል
ነ ሐስ</w>
ክ ቱ</w>
ወ ሮ
ወ ግድ</w>
ይ ጮ
እንዲ ቀርቡ</w>
የአ ብዛ
በአ ል</w>
ገባ ችን</w>
ሲያ ን
ተመ ዝ
ስላ ሳ</w>
ሳተ ላይት</w>
ማድረ ጋችን</w>
አገልጋ ይነት</w>
የሚያስፈል ጋቸውን</w>
ሃሳ ብን</w>
ገብረ መድህን</w>
ደም ሴ</w>
የኤር ትራ
እንደምን ችል</w>
00 ሺ</w>
የፋ ሲ
መስተ ካከል</w>
መክፈ ቻ</w>
ጸያ ፊ</w>
ሄ ድበት</w>
ላ ቀረ
ል ስ
ሲ መለከቱ</w>
በ ዛው</w>
ከ ሐምሌ</w>
ኮ ት
የ አንተ</w>
የ እግዚአብሔር</w>
ያ ተረ
ጐ ዳና</w>
በመ ዘርጋት</w>
ለማ በረታታት</w>
ያስ ገድ
መስ ተዋ
የም ሥራ
እያ ገኘ</w>
መር ጡ</w>
ቀበ ሉት</w>
ኮን ሰ
በታ ዳጊ</w>
ጥን ቃቄ
የምና ስ
መክ ረዋል</w>
ባለሙያ ዎችም</w>
አዘ ል</w>
የሚደር ሰውን</w>
አሻ ሽ
ቁል ጭ</w>
በረከ ቱት</w>
ደስታ ን</w>
ገብር ኤል</w>
ቃይ ዳ</w>
ያስመዘገበ ችው</w>
ማስረ ሻ</w>
ብልፅ ግና</w>
ም ስና</w>
ስ መለከት</w>
ቁ መና</w>
በ ለ</w>
በ 5</w>
ቡ ላቸው</w>
ቤ ቶችም</w>
ከ ገቡ</w>
ዎ ታል</w>
የ ፈተና</w>
ጎ ጆ</w>
ጭ ቃ</w>
ለመ ላክ</w>
አይ ካድም</w>
የማ ላ
የም ግብና</w>
የሚያ ል
እስ ላማዊ</w>
ይህ ቺ</w>
ቀር ቦ
የሚያስ ገድ
ቀረ ብ</w>
አር ሰናል</w>
ለው ይይት</w>
ለው ጦችን</w>
ለማስ ታወስ</w>
አጥ ቂ</w>
ተዋ ልዶ</w>
ቆጠ ረው</w>
ተጠና ክረው</w>
አፍሪካ ና</w>
በሳ ምንቱ</w>
የፈለ ግ
ታዛ ዥ</w>
መድሃኒ ቶች</w>
በቀጥ ታም</w>
ለ ጠቅላይ</w>
ሪ ውም</w>
በ ጨለማ</w>
ን ዋይ</w>
ዥ ያ</w>
በመ ክፈል</w>
አገ ና
በማ ያ
ተገ ቢነት</w>
እድ ሉ</w>
ለሚ ደረገው</w>
የጥ ንት</w>
ብቃ ቱ</w>
እንዲቀ ንስ</w>
ሙስሊ ሞች</w>
በእኩ ልነት</w>
ሦስ ቱም</w>
ተወል ደ</w>
የመምህ ራን</w>
ትርዒ ት</w>
ቦኮ ሐራም</w>
w h
ሃ ቅ</w>
ማ ትና</w>
ረ ካ</w>
ሪ ነቱ</w>
ሱ ፐር</w>
ሴ ኔ
ተ ባይ</w>
አ ሀ</w>
እ ሷ
ከ ጎረቤት</w>
ይ ኸ</w>
ደ ገ</w>
ጂ ም</w>
ጳ ጉ
ጵ ስ
በመ ጓዝ</w>
በተ ን</w>
ለማ ሸጋገር</w>
በማ ዋል</w>
ደግ ፈው</w>
እና ታቸው</w>
ባህ ሉ</w>
አው ጪ
መጣ ጠን</w>
አዳ ሪ</w>
የእ ኩ
ማስተ ባበሪያ</w>
አፍ ራሽ</w>
በህ ጋዊ</w>
ስድ ብ</w>
ወጥ ተዋል</w>
ጠራ ር
ቀመ ጠ</w>
ቆር ጥ</w>
ይበ ቃል</w>
ጭን ቅ</w>
ገጥ መው</w>
ተቋቁ መው</w>
በደረ ሰው</w>
ደፍ ሮ</w>
አስተሳሰ ቦች</w>
ኋላ ቀር</w>
ቆይታ ለች</w>
ሊኖ ረን</w>
ማቀነ ባበሪያ</w>
o w
ለ ኛና</w>
ሊ ያስተ
መ ችው</w>
ሲ ል
ቡ ሽ</w>
ኩ ትም</w>
ዋ ልና</w>
ፋ ፋ</w>
እንደ ተገ
የመ ምረጥ</w>
የሚያ ቀርቡ</w>
አል ፈዋል</w>
አለ ቀ
ምር ትን</w>
ወን ዳ
ማስ ረዳት</w>
የምት ባል</w>
መው ረድ</w>
ፋይ ዳው</w>
ተፅ ዕኖ
ኢህአዴ ግም</w>
ተስማም ተው</w>
እንዲሰማ ሩ</w>
አብር ሃ</w>
ምፒው ተር</w>
ሰሌ ዳ</w>
እግዚአብሄ ር</w>
ሀ ዘን</w>
መ ተሳ
መ ጨመ
ሚ ት</w>
ሲ ቀር</w>
ሼ ህ</w>
ቁ ትም</w>
ባ ያ
ቦ ን
ተ ንም</w>
ቼ ዋለሁ</w>
ኟ ቸው</w>
እ ሑድ</w>
ካ ሁን</w>
የ ዘመኑ</w>
የ ሂሳብ</w>
ጅ ብ</w>
ጎ ለብ
ጨ ቃ
ፈ ፍ</w>
እን ሆና
እን ሰጣ
በተ ሳካ</w>
ለማ መልከት</w>
መል ከቱ</w>
የሚያ በቃ</w>
አል ተቀ
እስ ልምና</w>
እየተ ገነቡ</w>
ወቅ ን</w>
በር ክቶ
ሆነ ናል</w>
ከሰ ዓት</w>
ከአ ሁኑ</w>
የጥ ቃቅንና</w>
አስታው ሳለሁ</w>
ምባ ሆ</w>
ብቸ ኝነት</w>
የገለ ፀው</w>
ሰና ይ</w>
ንግግ ሩ</w>
ፃፀ ም</w>
የሚያን ፀባርቅ</w>
የኢን ፎርሜሽን</w>
ብሶ ት</w>
መነቃ ቃት</w>
መለያ የት</w>
ይከበ ራል</w>
m a
ሊ ዝ
መ ውና</w>
ማ ያ</w>
ር ክና</w>
በ ኝ</w>
በ ቡና</w>
በ ዓይን</w>
ን ሰን</w>
ዴ ን
የተ ሻሻሉ</w>
አን ስተው</w>
ለመ ር
ስት ሮ</w>
ግን ድ</w>
ማስ ቀረት</w>
የሚያስ ገኝ</w>
የግ ድ
በት ንሽ</w>
ይገባ ኛል</w>
የለ ብ
ትኩ ስ</w>
መሳ ካት</w>
ዋን ኛ</w>
በህ ይወ
ወይ ንስ</w>
ሆቴ ልና</w>
የተወሰ ኑት</w>
አሰራ ሮችን</w>
ስለመ ሆናቸው</w>
ለብ ሶ</w>
ክህ ደት</w>
እየታ ዩ</w>
ተመዝግ ቦ</w>
የኢን ሹራንስ</w>
it y</w>
ተከታት ሎ</w>
ከተቋቋ መ</w>
ክንው ኖች</w>
ራሊ ምፒክ</w>
አንገብ ጋቢ</w>
ማ በርከት</w>
ሥ ሩ</w>
ራ ሷ</w>
በ ኦሊምፒክ</w>
በ አገሩ</w>
በ ዕቅዱ</w>
ቤ ር
ከ ንግድ</w>
ኪ ው</w>
ወ ጭ</w>
ዙ ማ</w>
የ ዚያ</w>
የ ፈፀ
የ ጅማ</w>
ጎ ደ
ጣ ሬ</w>
ጣ ለን</w>
ፋ ለሁ</w>
ፍ ረው</w>
አይ ፈልጉም</w>
ከተ ቋ
እየተ ጋ
አባ ት
እና ትና</w>
መለከ ትም</w>
ይሆ ና
የት ኞቹን</w>
እም ነታቸው</w>
በት ውልድ</w>
ፈለ ጉት</w>
ኮን ፌዴሬሽን</w>
ታደ ለ</w>
ግድ ቡን</w>
ርዕ ሶች</w>
ድንጋ ዮች</w>
ቀደ ውን</w>
አጠና ቋል</w>
የማህ ጸን</w>
ምሽ ግ</w>
በወ ጉ</w>
ጌታ ሁን</w>
ፍን ጭ</w>
አርሶ አደር</w>
የሚያስከት ለውን</w>
ክፈ ቻ</w>
ል ባቸውን</w>
ም ፖ
ራ በት</w>
ሳ የው</w>
ሻ ሊዝም</w>
ሽ ያ</w>
በ ችው</w>
በ ነበራቸው</w>
ት ለ
ቶ በት</w>
ነ ትህ</w>
አ ከባበር</w>
ክ ምር</w>
የ ቋሚ</w>
የ ሥልጠና</w>
ያ ሰለ
ይ ራ
ይ ቺ</w>
ደ ቀው</w>
ጦ ችና</w>
እንዲ ቆይ</w>
ድር ብ</w>
እየ ገነ
አደ ሮቹ</w>
ነጋ ሽ</w>
ከራ ከሩ</w>
የቆ መ</w>
ቀዳ ጅ</w>
የዳ ዊት</w>
አጠ ባበቅ</w>
መገኘ ቱን</w>
መጀመ ራቸውን</w>
ታዋ ቂው</w>
ትላ ላችሁ</w>
ድምፃ ቸውን</w>
አነጋ ጋሪ</w>
ትሑ ት</w>
ለ ታ</w>
ለ ወጡ</w>
ማ ጠናቀቅ</w>
ሲ ከሰት</w>
በ በ</w>
በ ቃሉ</w>
በ ድንጋይ</w>
በ ኅብረተሰቡ</w>
ኪ ሮስ</w>
ካ ናዳ</w>
ኸ ውን</w>
ዋ ሻ</w>
የ ክርስቲያን</w>
ይ ሻል</w>
ገ ጸ</w>
ጠ ውና</w>
ጽ ዋት</w>
ፀ አት</w>
ፋ ም</w>
ፋ ኑ</w>
አስ ፋው</w>
በተ ፈጥ
በአ ምላ
ወጣ ን</w>
ከመ ሠረ
ተሳ ክቶ
ማን ችስተር</w>
በሽ ታዎችን</w>
ሌሎ ቹን</w>
ከፈ ላቸው</w>
ስኬ ቶች</w>
ዘላ ቂነት</w>
በረታ ቱ</w>
አሰራ ሮች</w>
ሐሳ ባቸውን</w>
የዳ በረ</w>
ጥቃ ቱ</w>
የፈለ ጉትን</w>
ማመን ጨት</w>
መስተዳ ድሩ</w>
በቦ ሌ</w>
ይለያ ል</w>
ይገለ ጻል</w>
ለ ሰባት</w>
ሊ ዮ
ማ ቲ
ረ ቃ</w>
ር ኅራኄ</w>
ቡ ል
ኃ ብት</w>
ኅ ብረቱ</w>
ና ማ</w>
ዚ ያው</w>
የ ውጤት</w>
የ ዶሮ</w>
ጉ ዝ</w>
ፊ ን
የመ ጠ
ናገ ርም</w>
አቅ ማችን</w>
አሳ ፋሪ</w>
ትን ሹ</w>
የው ሸት</w>
ስሜ ቱን</w>
አሸና ፊው</w>
አለማ ቀፍ</w>
የሚወ ክሉ</w>
መጀመ ርያ</w>
አቅራ ቢዎች</w>
የበላይ ነትን</w>
አጫ ጭር</w>
ጳጳ ስ</w>
የበዓ ሉ</w>
እንደነ ዚህ</w>
እንሆና ለን</w>
ሆ ም</w>
ሊ ቅ</w>
መ ከል
ም ንና</w>
ሲ ፈ
በ ሙዚቃ</w>
ቻ ልና</w>
አ ሚ
አ የ</w>
አ ቀር
አ ድን</w>
ከ አደጋ</w>
ካ ባ</w>
ወ ቀሳ</w>
የ ጨርቃ</w>
ጀ ቱ</w>
ጎ ሳ</w>
ጎ ደል</w>
ፊ ታውራሪ</w>
ነበ ብ</w>
የመ ኪ
በማ ጥናት</w>
ህዝ ብም</w>
ፍት ሀ
ቀጥ ልም</w>
በግ ራ</w>
አዋ ቂዎች</w>
ውል ናል</w>
መነ ሻው</w>
ከራ ከር</w>
ለተ ጨማሪ</w>
የካ ህ
በረታ ች</w>
የጀመ ረ
የጀመ ረችው</w>
ባሕ ል</w>
ታይ ምስ</w>
ህይወ ቱ</w>
ተመልክ ቶ</w>
ተመልክ ተናል</w>
አይታ ሰብም</w>
ይጠብ ቃል</w>
ላ ከው</w>
ሐ ሴት</w>
መ ታደግ</w>
ራ ባች</w>
በ ፈገግታ</w>
ቤ ታቸውን</w>
ታ ዎቹ</w>
ቸ ኩ
ከ ቡ</w>
ዚ ያም</w>
የ እናንተ</w>
ገ ሳ</w>
ፁ ህ</w>
የተ ሃድሶ</w>
ውስ ን
የአ ክራ
የአ ቋም</w>
ከመ ጡ</w>
ያል ተጠበቀ</w>
ድን ች</w>
ረዳ ኝ</w>
አማ ኑኤል</w>
በግ ሉ</w>
ገብ ና</w>
ኮን ፈረንስ</w>
ስን ታ
ፍላጎ ታቸውን</w>
መብ ዛት</w>
እንዳለ ውም</w>
መራ ራ</w>
ሕይወ ታችን</w>
ወይዘ ሪት</w>
የተፈጠ ሩ</w>
ስማ ሙ</w>
ይጠቅ ሳል</w>
የሆኑ ና</w>
ፖሊሲ ዎችና</w>
ታሪካ ችን</w>
ያገለግ ላል</w>
ቁም ነገር</w>
ይወሰ ዳል</w>
ነቢያ ት</w>
Ethi opi
ጵስ ዩስ</w>
s h
መ ኛል</w>
መ ወያየት</w>
ሲ ሞት</w>
በ ጦርነቱ</w>
ው ብ
ዞ ችን</w>
የ ውና</w>
ድ ፍን</w>
ዶ ት</w>
ጃ ለሁ</w>
ጲ ላ
መን ደር
ድር ቅና</w>
እንዳ ታ
200 1</w>
ነሳ ቸው</w>
ድጋ ፉ</w>
መሳ ተ
አዳ ነ</w>
ወር ልድ</w>
ተዋ ወቅ</w>
መራ መድ</w>
የጋ ምቤላ</w>
ዝን ጀ
ፕሬዝዳን ቱ</w>
ፌዴራ ሊዝም</w>
ቸዋ ለህ</w>
ምራ ለን</w>
ተደራጅ ቶ</w>
ግብዓ ቶችን</w>
ተሰር ቷል</w>
መከራከ ሪያ</w>
ከመደ በኛ</w>
ማቻ ር</w>
S t
ለ ምርጫ</w>
ሎ ው</w>
መ መስ
መ ፀዳጃ</w>
ም ሌ</w>
ሪ ዞ
ሱ ቆች</w>
ስ ነው</w>
ስ ንና</w>
በ ወርቅ</w>
ተ ጭ
ተ መለ
ከ ስምምነት</w>
ኪ ሱ</w>
ዘ ቅ
እንዲ ውሉ</w>
የመ ልስ</w>
ወቅ በት</w>
ከመ ር
የሰ ይጣን</w>
ኃይ ማኖ
ያደር ገናል</w>
ተማ ሪዎ
አላ ገኘም</w>
ለሚ ካሄደው</w>
ባበ ሩ</w>
ግድ ቦች</w>
መሆኑ ና</w>
የተወሰ ደው</w>
የሚጠቀ ሙበት</w>
ያነ ሱት</w>
መፈ ንቅለ</w>
ያወጣ ል</w>
ዳያስፖ ራው</w>
የኩ ላሊት</w>
መወሰ ኑን</w>
መድሀ ኒ
ብልጽ ግና</w>
አጠናቀ ዋል</w>
ሊ ዝ</w>
መ ሪዎቹ</w>
ማ ጭ
ረ ሱ</w>
ሴ ቶችም</w>
ስ ሞች</w>
በ ከር</w>
ተ ድ
አ ወድ
ክ ለው</w>
ኳ ቸውን</w>
ያ በረክ
ይ ር</w>
ድ ሮች</w>
ድ ጎማ</w>
ጥ ታና</w>
የተ ደረገላቸው</w>
በማ ን</w>
መስ ኖና</w>
በሚ ች
እየ ገባ</w>
በቀ ይ</w>
ይገ ነ
አር ከበ</w>
ብሔ ር
ከሰ ው
ኢንዱስት ሪና</w>
ያህዌ ና</w>
ስደ ትን</w>
አልቻ ለችም</w>
መቆ የቱ</w>
በጉ ብኝ
ዘው ዴ</w>
ስልጠና ዎችን</w>
ይቀጥ ላሉ</w>
አካባቢ ን</w>
የአል ኮል</w>
አሶ ሴ
ባቡ ሩ</w>
ኤግዚቢ ሽን</w>
ለ ሞ
ለ ስፖርት</w>
ለ ራሴ</w>
መ ካሄ
ረ ጋ</w>
ሲ ዮን</w>
በ ጣሊያን</w>
ቢ ቆ
ብ ድርና</w>
ተ ወር
ቴ ው</w>
እ ራት</w>
እ ማማ</w>
ከ ሀ
የ ሥነ
ያ ከብ
ጊ ኒ</w>
ጥ ሎ
ፍ ጥ</w>
ፍ ርም</w>
በተ ፈጠረ</w>
አይ ባልም</w>
ድር ቅን</w>
እር ቅ</w>
ተጠ ቂ</w>
ጠና ው</w>
የጥ ልቅ</w>
የሚች ሉበትን</w>
ተዋ ህ
ያን ኑ</w>
ኢትዮጵያ ዊው</w>
ባክ ቴ
አፋ ር</w>
ዕቆ ብ</w>
መያ ዙን</w>
ፍጻ ሜውን</w>
የማጣ ሪያ</w>
የመጨረሻ ውን</w>
የታገ ዘ</w>
ወንጌ ል</w>
ተጋድ ሎ</w>
አውታ ሮች</w>
ጀኔ ራል</w>
መ ጃ</w>
ሳ ጥን</w>
ቀ ንን</w>
ቂ ር
ቅ ጥ
ቅ ሎ</w>
በ ሉ
በ ባህል</w>
በ ፋይናንስ</w>
በ ዘመናችን</w>
ቶ ቿን</w>
ኖ ተ</w>
አ ፓ</w>
ከ ቤተ</w>
የ ግለሰብ</w>
ጁ ት</w>
የሚ ሻ
እየ ዳ
እየተ ፈጠረ</w>
አለ ፍ</w>
ክፍ ያው</w>
ዘር ፍም</w>
ነሳ በት</w>
የታ ዩ</w>
ከማ ን</w>
ትር ምስ</w>
እንዳለ ባቸውም</w>
በቀጣ ይነት</w>
የመሰ ረት</w>
ከናው ነው</w>
መገኘ ቱ</w>
የተከለ ከለ</w>
እፎ ይታ</w>
e p
ሂ ዱ</w>
ሊ ንግ</w>
ቆ ራጭ</w>
በ ነጋ
ቫ ን</w>
ተ በ
ኢ ስላ
ከ መልካም</w>
ካ ውንስ
ዛ ም</w>
የ ሁለቱም</w>
ያ ቺ</w>
ደ ውና</w>
ገ ፋ</w>
አስ ቡት</w>
ሆኑ በት</w>
ተግባ ሮች</w>
አላ ል
ሥልጣ ኑን</w>
ሊያ መጣ</w>
ባል ሆኑ</w>
የቀ ዶ</w>
ማድረ ግም</w>
ላን ዳ
አስፈጻ ሚዎች</w>
ቤተ ክርስቲያ
የሰማ ይ</w>
እንዲኖ ረን</w>
ተከሳ ሾቹ</w>
አስተላል ፈዋል</w>
ዳዊ ትን</w>
ይከናወ ናል</w>
ለ ጎ
መ ሽ
ሰ ጪው</w>
ሻ ቸውን</w>
በ ሁለ
በ ዕለት</w>
ቴ ራ
ከ ገበያ</w>
ከ ቀድሞው</w>
ዕ ዝ</w>
የ እንግሊዝኛ</w>
ፑ ል</w>
በመ ዋ
የሚያ ገኙበት</w>
አል ባሳ
እየተ ወጣ</w>
ከፍ ት</w>
በቀ ጠ
ታሪ ካቸው</w>
ግንኙ ነቱ</w>
አጥ ተው</w>
ከላከ ሉ</w>
የጠ ላት</w>
ሳን ቲ
ካር ያስ</w>
በነ ጻ</w>
ሚስ ቶች</w>
እየመ ራ</w>
ለቅ ሶ</w>
ቆጣጠ ሩ</w>
በጅ ማ</w>
ላስ ይስ</w>
ያተኮ ሩ</w>
አእም ሮ
የተከፈ ለ</w>
ያለማ ቋረጥ</w>
የሚመጣ ውን</w>
አስገድ ዶ</w>
ብሪታ ኒያ</w>
ንክ ኪ</w>
አውራ ጃ</w>
ይሳተ ፋሉ</w>
ሃ ኒት</w>
ቀ መጠው</w>
በ ጃፓን</w>
ተ ሽ</w>
ኡ ጋን
እ ጄን</w>
ዳ ሪዎች</w>
ጋ ባ
ጽ ፈው</w>
የሚ ጥል</w>
በተ ሰማ
እንደሚ ፈልጉ</w>
እንደሚ ገኝም</w>
እንደሚ ኖርበት</w>
ያለ ና</w>
አለ ሙ</w>
በረ ሃ
ድርጅ ትና</w>
ሥር ጭት</w>
እንግ ድነት</w>
በጥ ቂቱ</w>
የታ ሸ
ቢያ ጋጥ
እንዳይ ሆኑ</w>
መድረ ሱ</w>
ዕር ዳ
ልጅ ቷ</w>
ሃሳ ቡ</w>
አያያ ዝና</w>
ፈቅ ድም</w>
አቀረ ቡ</w>
በሕይወ ታችን</w>
at e</w>
ግብር ናው</w>
ንዛ ኒያ</w>
ተለዋ ጭ</w>
በምክንያ ትነት</w>
ህ ተት</w>
ል ቆ</w>
ሞ ከሩ</w>
ሳ ኦ
ቃ ሊቲ</w>
በ ፕሬዚዳንት</w>
ባ ዮ
ቸ ገር</w>
ዳ ሰስ</w>
ገ በየ
ጐ ብ
ጠ ቢያ</w>
ጨ ካኝ</w>
ፈ ቺ</w>
የተ ሠራ
እንደሚ ያደርገው</w>
ዓመ ታትም</w>
አቀ ፉን</w>
የሚገ ኝ
ትን ንሽ</w>
ጥያቄ ን</w>
በማስ ረጃ</w>
በማስ መልከት</w>
ላይ ና</w>
የሙ ከራ</w>
ልብ ሱን</w>
ይዞ ታዎች</w>
ብቻ ዬን</w>
አለማ ግኘ
አስተያየ ቱን</w>
አሜሪካ ዊ</w>
ወንድሞ ቻችን</w>
ማዳ መጥ</w>
ተጨዋ ቾችን</w>
ቅን ጣት</w>
ሸማ ቾች</w>
ሽብር ተኝነትን</w>
ተነግ ሮ
ኔት ዎ
ድሮ ክ</w>
ከጅ ምሩ</w>
እንደተጠቀ ሰው</w>
ማ ቲም</w>
ሞ ሪ
ሰ ቡን</w>
ሲ ፈጠር</w>
ሳ ስበው</w>
ስ መ</w>
ቅ ት</w>
በ ሜዳ
ታ ችሁ
ት ላለህ</w>
አ ሜን</w>
ኮ ፕ
ወ ህኒ</w>
ው ኑ</w>
ይ ጓ
ጀ ልባ
ጉ ትም</w>
ጋ ሻ</w>
ጌ ታው</w>
እንዲ ቀርብ</w>
ለመ ጨመር</w>
ደር ሰናል</w>
የሚያ መለክተው</w>
ያለ ቅ
በረ ሃብ</w>
ዕድ ሎች</w>
ይገ ና
ሰራ ተኛው</w>
ሰብ ክ</w>
ሊያ ገኙ</w>
ፖሊ ስና</w>
በማስ ቀመጥ</w>
ከፈ ለ</w>
ጥን ዶች</w>
የግብ ጽ</w>
ጎብ ኚ
ጓጓ ዣ</w>
በትን ሹ</w>
ብርቱ ካን</w>
ብሮድካ ስቲንግ</w>
ታንዛ ኒያ</w>
0 2</w>
f or</w>
ህ ዋ
ለ ሌ</w>
ለ ክልሉ</w>
መ ማ
ቃ ም</w>
በ ውና</w>
ብ ሶ</w>
ት ዎ</w>
ነ ፈ
ኒ ያም</w>
ኝ ነቱን</w>
ከ ውጪ</w>
የ 2
የ ሒሳብ</w>
የ ዳይመንድ</w>
በማ መልከት</w>
በማ ናቸውም</w>
የአ ለማችን</w>
እስ ያ</w>
ከፍ ተው</w>
ምር ቃት</w>
በስ ምንት</w>
የስ ዊ
አስተዋ ይ</w>
ብሎ ኝ</w>
ከለ ከ
የመስ ቀል</w>
ልን ገ
በስተ ጀርባ</w>
የተጠቀ ሰውን</w>
አድራ ጊ</w>
አደጋ ውን</w>
እንድና ደርግ</w>
ከሞ ተ</w>
የሚካሄ ደውን</w>
ሊ ሸ
ል ፌ</w>
መ ሪዎችና</w>
መ መስረት</w>
ሙ በትን</w>
ሲ ት</w>
ሲ ባዊ</w>
በ ንጉሡ</w>
እ ጩ
እ ራሱ</w>
ጋ ውን</w>
ግ ለት</w>
አን ድም
በመ ደረጉ</w>
እንዲ ፈጸም</w>
ነበ ው</w>
በተ ገኘ</w>
ከተ ፈጥሮ</w>
በማ ው
ወጣ ቶችም</w>
ገን ዳ</w>
ያል ፋል</w>
እንደተ ናገረው</w>
ስሜ ቱ</w>
እንደማ ይሆን</w>
አያ ነት</w>
ባባ ቂ</w>
ሰን ዝ
ጥረ ትም</w>
አፈጻጸ ሙ</w>
ያነ ጣጠ
በነገ ራችሁ</w>
ጌታ ነህ</w>
ማነ ቆ
እንዳይገ ቡ</w>
በመደ በኛ</w>
የድርሻ ውን</w>
መነጋገ ሪያ</w>
ይከሰ ታል</w>
ሄ ዳ</w>
ለ ቀጣዩ</w>
ላ ልና</w>
ሙ ንም</w>
ቁ ብ</w>
ቃ ዩ</w>
በ ዝናብ</w>
በ ዕውቀት</w>
ብ ድግ</w>
ከ ሆነ
ወ ጫ</w>
የ ሮም</w>
ያ ጣ</w>
ይ ሠ
ይ ዙት</w>
እንዲ ማሩ</w>
ነበ በ</w>
አይ በል
በአ ህ
እንደሚ ጀምር</w>
የሚያ መጣው</w>
ስለ ነበረው</w>
ሠራ ተኛ
ግብ ዣ
አት ራ
በስ ሙ</w>
ቀጥ ለዋል</w>
ከነ ገ</w>
ብርሃ ንና</w>
ተው ኔት</w>
አገራ ትም</w>
ልጅ ን</w>
መንስ ዔ</w>
ተቀና ቃኝ</w>
መለከት ነው</w>
ጀነ ራል</w>
መዛሙር ቱን</w>
የመግባ ቢያ</w>
ለ ቆ</w>
ሶ ና</w>
በ ዓላ
ነ ቃቸው</w>
ና ለን</w>
እ ሄዳ
ኮ ሪ
ዘ ሩት</w>
ዜ ም</w>
ይ ፈጸ
ደ ቡባዊ</w>
ዱ ር</w>
ዳ ኛቸው</w>
ጌ ጣ
ግ ሮ
በመ ስራ
በማ ድረስ</w>
በአ ድናቆት</w>
የማ ሽ
መስ ዋ
ጉዳ ያቸው</w>
እያ ካሄደ</w>
ጨዋ ታቸውን</w>
ስላ ላ
ትን ሳ
እኔ ንም</w>
የነ ገ</w>
በመን ገ
ዲፕሎ ማ</w>
አይደለ ንም</w>
የጸ ጥታ</w>
የሚፈጥ ሩ</w>
እከ ሌ</w>
መገልገ ያ</w>
ለ ተቀ
ለ ነበረው</w>
ሞ ከ
ሮ ችንና</w>
ቢ ቻል</w>
ባ ዎች</w>
ቤ ም</w>
ብ ያለሁ</w>
ተ ዘግቧል</w>
ቶ ላቸዋል</w>
ከ ደርግ</w>
ክ በብ</w>
የ ክለብ</w>
የ ፕሬዚዳንቱ</w>
የ እንጨት</w>
የ ኒው
የ ፌደራ
የ ድርጅቱን</w>
ድ ሉ</w>
ጀ ና</w>
ገ ሉ</w>
ፅ ንስ</w>
የተ ጠቃ
የመ ለየት</w>
ነገ ረን</w>
አል ቆ
ዘመ ቻው</w>
አት ፍ
አው ቀው</w>
የህ ፃናት</w>
እንዳይ ፈጠር</w>
መንገ ዴን</w>
ሀብ ትን</w>
ሃይማኖ ትን</w>
ጥና ቶችን</w>
ቁር ኝት</w>
ለይ ተው</w>
ቀደ ምት
አጠና ቆ</w>
ችሁ ኝ</w>
የሚገኙ በት</w>
አሻ ፈረ
ዕቅ ዶች</w>
የአገ ርን</w>
የተጻ ፈ</w>
ለበ ተ</w>
ዘግይ ቶ</w>
ፋይናን ስና</w>
ለብቻ ው</w>
ሆ ኗ
ለ ልጆቻቸው</w>
ሊ ወጡ</w>
መ ፈተ
ማ ዊት</w>
ማ ኑፋክቸሪንግ</w>
ሞ ን
ስ ሜ</w>
ሽ ኝ</w>
ቀ ሪውን</w>
ች ባቸው</w>
ኑ ሯቸውን</w>
አ ፕ
ኢ ራን</w>
ከ ኦ
ኮ ረብ
ዋ ይ
ግ ረው</w>
ጸ ጋዬ</w>
ፀ ድቅ</w>
በመ ሳ
በመ ጠየቅ</w>
አስ ጸያፊ</w>
ለመ ከታተል</w>
የሚያ ጋል
ሥራ ዬ</w>
ድርጅ ታቸው</w>
ብር ጭቆ</w>
አዳ ዲ
ብራ ሩት</w>
በራ ከቱ</w>
ብል ጭ</w>
ሕይወ ቴ</w>
ተካ ፍ
ታዳ ሚዎች</w>
በን ዴት</w>
መሬ ትን</w>
ትዕግ ሥት</w>
ሕል ውና</w>
ማስታወቂ ያዎች</w>
ለካ ስ</w>
ሳይንቲ ስቶች</w>
ይገር ማል</w>
ሌዋ ውያን</w>
ትንፋ ሽ</w>
ፋውንዴ ሽን</w>
ሂ ላሪ</w>
ለ ነበሩት</w>
ሔ ዱ</w>
መ ከናወን</w>
በ ፈጠ
በ ናይጄሪያ</w>
ብ ለናል</w>
ተ ተ</w>
ተ በላ
ች ዋን</w>
ኖ ን</w>
ኞ ቻችን</w>
አ ጃ
አ ፀ
ከ ኤርትራ</w>
ክ ሱን</w>
ዘ ት</w>
ጋ ራ
ጠ ም
ጠ ጠ</w>
ጽ በት</w>
በመ ግባ
በአ ፄ</w>
እነ ኚህ</w>
አለ ፈ</w>
ሞክ ረው</w>
የማይ በ
ትኩ ት</w>
መዝ ን</w>
ሳተ ፈ</w>
ጀም ራለች</w>
ማድረ ጋ
ኤር ፖርት</w>
መለክ ቱ</w>
ፈን ጂ</w>
ኤል ኒኖ</w>
ከወ ን</w>
የተጋ ነነ</w>
ተረድ ቶ</w>
ተሰብስ ቦ</w>
ማሰባ ሰቢያ</w>
ሰላማ ዊና</w>
ዝግጁ ነት</w>
ያሳተ ፈ</w>
c i
w 16</w>
ህ ንም</w>
ሠ ላምና</w>
ቅ መም</w>
ት ነው</w>
ኝ ቶ</w>
ኪ ዮ</w>
ክ ላ</w>
ኮ ሚኒ
ኳ ል</w>
የ ባን
የ 2008</w>
የ ፋብሪካው</w>
ጋ ሼ</w>
ጡ በትን</w>
ጪ ና</w>
ፈ ሻ</w>
እንደ ሆንኩ</w>
እንደሚ ታ
የማ ም
ዓመ ተ</w>
ከመ ው</w>
ወደ ድ
ሥራ ኤል</w>
ከሚ ሰ
የወ ሲብ</w>
አለመ ቻሉ</w>
ተር ን</w>
መም ሰል</w>
ቆጠ ረ</w>
የቀ ይ</w>
የሚያሳ ዝነው</w>
ጥረ ቱ</w>
ሠር ተዋል</w>
በድ ሉ</w>
ግዛ ቶች</w>
የማኅ በሩ</w>
የሚመስ ሉ</w>
ዘነ በ</w>
የተነሳ ም</w>
ያስቀም ጣል</w>
አሰባ ሰብ</w>
ኮማን ደር</w>
ለ ዴሞክራሲ</w>
ሚ ያን</w>
ማ ከር</w>
ሲ ያልፍ</w>
ሽ ንት</w>
ቅ ማ
በ ጀር
ባ ላት</w>
ቤ ያለሁ</w>
ተ ርና</w>
ከ ጀር
ኩ ማ</w>
ዓ ም
ያ ዩ</w>
ይ ፈር
የሚ ናገር</w>
የተ በ
የተ ሽከርካሪ</w>
ለመ ው
የመ ቆጣጠር</w>
የሚያ ዋ
መሆ ኗ
እየ ሄዱ</w>
ያለ ፉ</w>
አቀ ፍና</w>
ሲያ ቀርቡ</w>
ድጋ ፎችን</w>
መቀ ዛቀ
መንገ ድም</w>
የቀ ረ</w>
ካር ቱም</w>
ተል ሔም</w>
ፈላ ጊዎች</w>
የወጣ ቶችን</w>
መጽሐ ፉን</w>
ከዋ ክብት</w>
ዓለማ ዊ</w>
ኤርትራ ውያን</w>
l y</w>
መ ደራ
ሚ ስት
ስ ያን</w>
ቅ ነሳ</w>
በ ፍትህ</w>
ከ 18</w>
ከ እንስሳት</w>
ከ እነርሱ</w>
ዕ ቅዱን</w>
ይ ከራከ
ፈ ኛ</w>
እንደ ር
እንደ ሆኑም</w>
በመ ወጣት</w>
በመ ምረጥ</w>
በተ ደረጉ</w>
በአ ሥር</w>
መረ ቱ</w>
ክፍ ሌ</w>
የሰ ር
አሳ ቢነት</w>
ፌዴ ራሉ</w>
አዋ ጆች</w>
ወንጀ ለኞች</w>
ብሎ ታል</w>
ከለ በት</w>
ተው ናል</w>
ተሰጥ ኦ</w>
ገብረ ማርያም</w>
በመቀ ናጀት</w>
በባ ቡር</w>
ጦር ነትና</w>
ፅን ሰ</w>
በአህጉ ሪቱ</w>
ማስተዋ ወቅ</w>
የመድኃ ኒት</w>
8 ኛ</w>
f or
ል ጅም</w>
መ ሪው</w>
ማ ተኮር</w>
ቁ ጭት</w>
በ ፖ
እ ሆና
የ ሃሳብ</w>
የ እስራኤልን</w>
ያ ሻል</w>
ዲ ንግ</w>
ድ ብቅ</w>
ጉ ረ
የሚ መለ
የሚ መለከ
እንደ ዛ</w>
እንደ ልብ</w>
ለመ ጓዝ</w>
ለማ ዳረስ</w>
ከተ ው</w>
የሚያ በረክ
እየተ መዘገበ</w>
ያል ተማ
ውጤ ትም</w>
ሲያ ገኝ</w>
ይገ ነዘ
የወ ል
ቢያ ቸውን</w>
ድም ፁ</w>
ስሜ ትና</w>
አመራ ርና</w>
ግል ጋ
ራረ ስ</w>
ባሻ ዬ</w>
አስረ ክ
አጠና ቅ
በማስተ ናገድ</w>
ዓላማ ና</w>
ደጃ ች</w>
በመንግሥ ትና</w>
እኒ ህ</w>
የልዑ ካን</w>
ሂ ል</w>
ሆ ንስ</w>
ሕ ልም</w>
ማ ላ
ሱ በትን</w>
በ ውም</w>
በ ክፍለ</w>
ባ ራ</w>
ብ ኩት</w>
ኪ ር</w>
ዙ ሪያውን</w>
ዞ ረ</w>
የ ክለቦች</w>
የ አንደኛ</w>
የ እናቶች</w>
የ ዲዛይን</w>
ደ ቁ</w>
ጃ ው</w>
ጠ ጠር</w>
ጨ ባ</w>
ፆ ም</w>
ፍ ኝ</w>
የሚ ከብ
አን ቺን</w>
እንዲ ወስዱ</w>
ነበ ትን</w>
የመ ሳ
አይ ለ
ያስ ከተ
እንደሚ ገባ
የማ ው
ጉዳ ተኛ</w>
እና ስተ
በረ ታ</w>
ገንዘ ባቸውን</w>
አር ሲ</w>
ልጆ ችም</w>
እድ ሉን</w>
የበ ቃ
ጥቅ ማ</w>
በእርግ ዝና</w>
ምሁ ሩ</w>
ውጣ ቱ</w>
ሁላ ችሁም</w>
የፊ ታችን</w>
የሚያው ቁ</w>
ኮንስትራ ክ
ምግ ቦችን</w>
የሚነ ካ</w>
ከቀረ ቡት</w>
በትራ ንስፖርት</w>
ማእ ከል</w>
አጠራ ር</w>
እሄዳ ለሁ</w>
0 8</w>
ማ ህ</w>
ማ ካሄ
ሩ ህ</w>
ስ ዎ</w>
በ ፈረ
በ ድንጋጤ</w>
ባ ዛ
ባ ጋጠ
ባ ችሁም</w>
ካ ሊ
ዘ ኑ</w>
የ ኬ
የ ከተ
የ ቃላት</w>
ጫ ጫ
ጻ ፉ</w>
ፍ ናል</w>
በመ ላ
ለመ ካፈል</w>
ለማ ግኘ
የሚያ መነ
ተጠ ግ
ምክንያ ቱን</w>
ማስ ቻል</w>
200 8ዓ</w>
ተከ ናወ
ወረ ዱ</w>
በ200 1</w>
ይባ ስ</w>
የነበረ ች</w>
ትኩረ ቱን</w>
አረጋ ዊ</w>
ከተሞ ችና</w>
በሰብ ዓዊ</w>
ጥም ቀት</w>
ላሊ በላ</w>
ተጠይ ቀው</w>
አሳሳ ቢነት</w>
ያሳዝ ናል</w>
ቮሊ ቦል</w>
0 6</w>
ለ ሕግ</w>
ማ ብቃት</w>
ሞ ባይ
ሩ ሲያ
ሴ ቷ</w>
ሺ ስት</w>
ቅ ዝቃ
ብ በት</w>
ከ የ
የሚ ኖራቸው</w>
እንዲ ወ
አገ ረ</w>
ለማ ጥናት</w>
መስ ጊ
ብረ ዋል</w>
ጠበ ቆች</w>
ግንባ ታን</w>
የት ኛውንም</w>
የግ ማሽ</w>
የታ ላ
ወስ ደዋል</w>
የራ ሷ</w>
ሠር ቷል</w>
ያቀረ በውን</w>
ያን ተ</w>
ለማስተ ዳደር</w>
ቀለ ብ</w>
የሚጠይ ቀው</w>
ተዋና ዮች</w>
የስብ ሰባ</w>
ሰቅ ል</w>
ለገ ሰ</w>
ጎልማ ሳው</w>
በመሰረ ተ</w>
ሕዝቅ ኤል</w>
ሙግ ት</w>
ማመላለ ሻ</w>
0 9</w>
ለ ስደት</w>
ሉ ንና</w>
ሰ ህ</w>
ቅ ባት</w>
በ ጨረ
ቤ ጂንግ</w>
ን ጽሕ
እ ሾ
ወ ሬ
የ ቁም</w>
ይ ግ
ዳ ጊዎች</w>
ግ ቢው</w>
ጓ ት</w>
ፋ ውን</w>
እንደ ደረሰ</w>
በመ ካሄድ</w>
አይ ቼ</w>
የም ችለው</w>
የሚያ ም
ይወ ዳል</w>
ሰማ ህ</w>
ዘጋ ቢ</w>
ባህ ሩ</w>
ያላ ግባብ</w>
ወገ ኖችን</w>
መድረ ኮችን</w>
ኢኮኖሚ ውን</w>
ወጥ ታ</w>
ግለሰ ቦችና</w>
አገራ ችንም</w>
ፍትሐ ዊነት</w>
ገዛ ኸኝ</w>
አረጋ ውያን</w>
ተከሳ ሹ</w>
የሚያግ ዙ</w>
የዘላ ቂ</w>
መዝገ ቡን</w>
አድርጓ ታል</w>
መኰ ንን</w>
የብስ ክሌት</w>
8 ኛው</w>
ል ከ
ል ነው</w>
ሐ ሰት</w>
ሙ ያውን</w>
ማ ከናወ
ሲ ሠሩ</w>
በ የመ
በ የመን</w>
ዘ ውን</w>
የ የራሳቸው</w>
ያ ጠቃ
ያ ሏቸው</w>
ደ ው
ፊ ደ
የተ ባረ
እንደ መሆናቸው</w>
በመ ጫወት</w>
እንዲ ሻሻል</w>
አይ ጠፋም</w>
በአ ባይ</w>
መለ ስተኛ</w>
ወደ ምት
የሚያስ ጨን
ያል ተሳ
ማህ በረሰ
ፈጥ ነው</w>
የህ ይወ
ለማስ ቀመጥ</w>
የእ ለት</w>
ተወ ግ
እንዳለ ብኝ</w>
ጨር ሱ</w>
እያንዳን ዳችን</w>
እንደማይ ቀር</w>
ወላጆ ቹ</w>
መካ ፈል</w>
ወጪ ዎች</w>
ተያያ ዥነት</w>
ዘፈ ኖች</w>
በማኅ በራዊ</w>
የሚሳተ ፉበት</w>
ተጠያቂ ነትን</w>
የዕብራ ይስጥ</w>
ሊ ፈጥር</w>
መ ሪዎችን</w>
ማ ጠቃለያ</w>
ሣ ሌ</w>
ቁ ስል</w>
ባ ደረገ</w>
ተ ንና</w>
ና ቡ
ከ 5
ከ ስር</w>
ከ ቀጠለ</w>
ካ ደረጉት</w>
ክ ሮችን</w>
ወ ፍራ
ዓ ረብ</w>
የ ሃብት</w>
ዲ ቪ
ዲ ቯ
ጆ ችና</w>
ፏ ን</w>
አስ መር
አስ ከፊ
እየ ፈ
ያል ተፈ
የሚገ ርም</w>
ቀበ ሌ
ሌሎ ቹም</w>
አስታው ሷል</w>
ጽሑ ፋዊ</w>
ታይ ነት</w>
አሰራ ርን</w>
አድማ ጮች</w>
መምጣ ታቸውን</w>
ያሰ ኛል</w>
ሐረ ሪ</w>
ከም ታ
ጓደኞ ቻቸው</w>
ይቀር ባሉ</w>
እጥረ ትና</w>
ሽልማ ቱን</w>
ኒስቴ ር</w>
ዓረ ቢያ</w>
ይመለ ሳል</w>
ኮንግ ረስ</w>
m ent</w>
ለ ሆነ</w>
መ ፈለ
ሣ ብ</w>
ሱ ሪ</w>
ቀ ለ</w>
ከ ወጡ</w>
ከ ሱዳን</w>
ካ ዮች</w>
ወ ኔ</w>
ወ ራው</w>
ው ለዋል</w>
ዓ ውደ</w>
ደ ና</w>
ጣ ጣም</w>
ፈ ውና</w>
የአ ሰልጣ
እንደሚ ሆንም</w>
ምር ታቸውን</w>
በር ቀት</w>
አብ ሮት</w>
ተቋ ራጭ</w>
የወ ሊድ</w>
በት ር</w>
በደ ጋ
ኃላፊ ዎችና</w>
ንጉ ሥ
የተሰ ኘውን</w>
የሆነ ና</w>
ተን ከባ
ይስ ሐቅ</w>
ምገ ማ</w>
ሸን ፉ</w>
ቤተሰቦ ቿ</w>
የረ ዥም</w>
ጉድጓ ዶች</w>
ተቀና ጅተው</w>
የኅ ብረተሰቡን</w>
ርእ ሰ</w>
ካሣ ሁን</w>
ሬስቶ ራ
ለ አቶ</w>
ሊ ሠራ</w>
በ ሜ
ብ ሆን</w>
ተ ጨ
ነ ቡ</w>
ዘ ፀአት</w>
የ ህ</w>
ፌ ስ</w>
እን ሠራ
የሚ ተገ
የሚ ሄደው</w>
አስ ፈል
ተሰ ማኝ</w>
ወጣ ቷ</w>
እየተ ሰሩ</w>
ክፍ ፍ
ተና ነሰ</w>
አሳ ድ</w>
እንቅስቃ ሴን</w>
አሸ ነ
ተመል ሼ</w>
ሰር ተዋል</w>
በቅ ሎ</w>
የሚያሳ ት
አግኝ ቻለሁ</w>
የሽ ያጭ</w>
ስና ደርግ</w>
በሕ ጋዊ</w>
ካሂ ዱ</w>
ባሕር ያ
ተጠር ጥረው</w>
ፖር ቹ
የማዕ ከሉ</w>
ሰብሳቢ ነትን</w>
ያነጋገ ር
ኬሚካ ሎች</w>
መፅሃ ፍ</w>
ጠያይ ቅም</w>
ሮ ጡ</w>
ስ ሞ
ተ ፍ
ት ገልጻለች</w>
አ መለ
ከ መስከረም</w>
ዝ ገባ</w>
የ ዘመናዊ</w>
የ ጽህፈት</w>
ይ ቆጣጠ
ይ ይዛ
ፀ ባይ</w>
የተ ቻለው</w>
ደረ ስን</w>
አል ኮል</w>
በሰ ላምና</w>
ተቀ ብላ</w>
ተቀ ዳሚ</w>
የህ ንድ</w>
ጠን ክረው</w>
የምን ኖረው</w>
ትን ቅን
ገና ኘው</w>
ተዋ ጊ</w>
የተቀ ሩት</w>
በቅ ንነት</w>
ጠራ ጥርም</w>
ፍር ሃ
በሕ ክምና</w>
አጣ ሪ</w>
ተፋ ላ
ግጭ ቱ</w>
አመላ ክቷል</w>
በሀ ዋሳ</w>
ይዛ ለች</w>
የሚጠበቅ ባቸውን</w>
አንዳንዶ ቹን</w>
ተሞክሮ ዎች</w>
የተዘጋጀ ውን</w>
መጫወ ቻ</w>
በተያያ ዘም</w>
ሊባ ኖስ</w>
ሬ አለሁ</w>
ቀ ነ</w>
በ ይበልጥ</w>
ባ ክን</w>
ብ ቶ
ብ ቻቸውን</w>
ቱ ሉ</w>
ት ቼ</w>
ት ሮ</w>
ቻ ችንና</w>
ዕ ፅ</w>
የ ቦታ</w>
የ ልጆች</w>
ዮ ፍታ
ጊ ው</w>
የሚ ማ
እንዲ መራ</w>
አይ ቻለሁ</w>
ችግ ራቸውን</w>
እያ ዳ
ግብ ግብ</w>
አመ ጋ
ያደር ስ</w>
ተቋ ር
ደራ ሽ</w>
ጠይ ቅም</w>
ሰጥ ቶናል</w>
የዘ ጠኝ</w>
ተረ ካ
ክርስቲያ ናት</w>
ምድ ሪቱ</w>
መገ ጣጠ
ምረ ናል</w>
በባ ዶ</w>
እንዳስ ታወቀው</w>
የተማ ሩ</w>
የሳ ዑዲ</w>
ክሊ ኒክ</w>
ማግኘ ታቸውን</w>
የጸ ረ</w>
ምሳሌ ያዊ</w>
ማመልከ ታቸው</w>
ሮና ልዶ</w>
በአቋ ራጭ</w>
ሙ በታል</w>
ሳ ዊው</w>
ቆ ራረ
ነ ጨ
አ ከፋ
የ እነሱን</w>
ያ ቸውም</w>
ጃ ሉ</w>
ገ ራ
ጌ ን</w>
ጐ ር
የተ ካ
የተ ትረፈረ
እንደ ተጠ
ለመ ሰ
በቀ ላል</w>
ተቀ መጡ</w>
ኃላፊ ነቶች</w>
እርግ ማን</w>
በታ ተን</w>
ባይ ታ
ተነ ሥ
የኤ ል
የሌ ለውን</w>
ወለ ደች</w>
የሞ ተ</w>
ከስ ደት</w>
ያነሳ ሳ
መልካ ሙ</w>
ያወጣ ውን</w>
ትዕግ ሥ
የአፈ ጻጸም</w>
የሚመነ ጭ</w>
ጻድ ቃን</w>
0 1</w>
n o
r u
ላ ልፍ</w>
ሚ ኒ</w>
ማ ገዝ</w>
ሥ ዩም</w>
ሮ ሜ</w>
ሸ ም
ቁ መ
በ ሕዝ
በ ወታደራዊ</w>
በ ጭንቀት</w>
ባ ደ
ቱ ቦ
ት ማ</w>
ኢ ራቅ</w>
ከ ቻ
ኬ ን</w>
ክ ሩ
ክ ሶች</w>
የ ኃላፊነት</w>
ደ ሙ</w>
ጽ ዋ</w>
ፍ ራል</w>
የሚ ቃ
የሚ ከበረው</w>
ለመ ነጋገር</w>
አይ ረ
ያስ ገባ
በአ መት</w>
እንዳ ሉም</w>
የሚያ ገኙ
ጉዳ ይና</w>
ስተ ጓ
ቀር ቡት</w>
ማስ ፈጸሚያ</w>
የሚያስ ታው
በጥ ይት</w>
ሰጥ ቷቸዋል</w>
ፍላጎ ትን</w>
ድርጊ ታቸው</w>
ሸነ ፈ</w>
ኢትዮጵያው ያንና</w>
ብሎ ኛል</w>
ስደ ሰ
በለ ስ</w>
የኮ ሙኒኬሽን</w>
መቅ ረት</w>
ነገር ዬው</w>
መገለ ጫዎች</w>
የግብ ዓት</w>
ህን ጻ</w>
199 7</w>
ለመግ ደል</w>
ተከታት ለው</w>
ደጀ ኔ</w>
ለማም ለጥ</w>
ጣዕ ም</w>
ድንግ ል</w>
ቀደምት ነት</w>
p ro
ማ ጎልበት</w>
ም ሬት</w>
ረ ሸ
ር ኩ
ሶ ዶ</w>
ቄ ራ</w>
በ ች
በ ፖለቲካው</w>
ተ ጐ
ታ ናሽ</w>
ት ያ</w>
እ ጠይ
ኾ ን</w>
የ ሙሉ</w>
የ ሁት</w>
የ ዕርዳታ</w>
ይ ጨ
ዳ ሰሳ</w>
ጸ ሀ
ጸ ጸ
ጸ ንቶ</w>
ጾ ም</w>
ፓ ልት</w>
የሚ ስማማ</w>
እንዲ ዘ
ለመ መሥረት</w>
በሚ ስ
መረ ራ</w>
ሲያ ቀርብ</w>
የሚሰ ጡትን</w>
ጠብ ቀን</w>
ከራ የት</w>
ሃይማኖ ትና</w>
የምር ጫው</w>
ፕሮግራ ሙን</w>
እንድት ችል</w>
ሌክት ሪ
ፍራ ንስ</w>
ብን ል</w>
የተጠቀ ሱትን</w>
ፈተና ውን</w>
ጎብ ኚ</w>
አብረ ዋቸው</w>
ታዛ ቢ</w>
ይነሳ ሉ</w>
የሚጠበቅ በትን</w>
ደና ቀፍ</w>
ሾፌ ሩ</w>
ጎል ተው</w>
መፍትሄ ው</w>
የመካከ ለኛው</w>
ኮሚሽነ ሩ</w>
2 ኛው</w>
ህ ብረ
ሕ ክምናው</w>
መ ቀ</w>
ረ ጅ
ሱ ፍ</w>
ስ ዕ
ቀ ራ
ቂ ያና</w>
በ ቶ
በ ችግር</w>
ክ ላል</w>
ክ ራል</w>
የ ፐብሊክ</w>
የ ባለሥልጣኑ</w>
ያ በቃ
ይ ቀረ
ይ ነገር
ዮ ቻቸው</w>
ፈ ናል</w>
የሚ ጎዳ</w>
መን ደሩ</w>
ለመ መስረት</w>
አይ ከብ
አል ኩኝ</w>
መሆ ኔን</w>
የሰ ሞኑ</w>
ሰማ ዕ
ድርጅ ትን</w>
ጠን ክ
ገብ ተን</w>
ምስ ኪ
የተቀ ደ
መቻ ች</w>
ልዩ ነቱ</w>
ከታተ ልና</w>
ቅሬ ታቸውን</w>
አስፈላጊ ነቱ</w>
ችሁ በት</w>
ውይይ ትና</w>
ከእ ነ</w>
ልዑ ካን</w>
ጎዳ ናዎች</w>
በመግለ ጫው</w>
መፍትሔ ው</w>
ያስቆጠ ረ</w>
መጓ ተት</w>
እንደዚ ሁም</w>
ታቦ ር</w>
ደኅ ን
c om</w>
ለ ኮ
ል ቡና</w>
መ በ
ሮ ቻቸውን</w>
ሲ ጠ
ሻ ር</w>
ሽ ቅብ</w>
ሾ ው</w>
ኃ ብ
ነ ዳ
ኖ ሮ
አ ታስ
ካ ጋጠ
ወ ዛ
ዘ ቀ
ይ ታደ
ጌ ት</w>
ጫ ቸውን</w>
የሚ ኒስትሮች</w>
የተ ዳ
ለመ ጋ
አገ ኙ</w>
የመ ሪነት</w>
የሚያ መ
አብ ላ
አመ ድ</w>
ቅር ቦት</w>
ሞክ ርም</w>
ለሚ መለከታቸው</w>
ፈጸ ሙት</w>
መው ደቅ</w>
ሰብሳ ቢው</w>
አጠ ገቡ</w>
ቢኖ ራቸውም</w>
ከል ቡ</w>
ሚስ ጥ
በሌ ሊት</w>
መጽ ና
ዘዴ ዎችን</w>
ባልደረ ቦ
አትክል ትና</w>
ተስተ ውሏል</w>
የሚያስደ ስት</w>
ተሰባስ በው</w>
ጭፍጨ ፋ</w>
መጨና ነቅ</w>
4 ን</w>
ሚ ዎችና</w>
በ ባህርዳር</w>
በ ሃገሪቱ</w>
ታ ዋን</w>
ከ 6</w>
ከ አን
ከ ምግብ</w>
የ ድርጊት</w>
ግ ስጋ
የሚ ጓ
ድር ሰ
ደር ቢ</w>
በሚ ዲያ</w>
መሰ ለ</w>
የሰ ነበ
የሰ ጣቸው</w>
ያሳ የ</w>
ያያ ል</w>
መደ ገ
ምም ድ</w>
መራ ቅ</w>
ኤር ፖር
ታይ በት</w>
ቆጥ ረው</w>
በቃ ላት</w>
ሂደ ቶች</w>
ፕሮፌ ሰሩ</w>
የሰማ ያዊ</w>
ኢህአዴ ግና</w>
ማበረታ ታት</w>
ስም ሪት</w>
ደህን ነትና</w>
በመሳሰ ሉ</w>
በግብር ናው</w>
1 ለ0</w>
ሃ ዋሳ</w>
ር ሽ</w>
ር ሳ</w>
በ ከባድ</w>
በ ፀጥታ</w>
ብ ይን</w>
ከ መንገድ</w>
ከ 400</w>
የ ንጉሡ</w>
የ ሠራተኛ</w>
የ ራሳችን</w>
ድ ራል</w>
ግ ሩ</w>
ፊ ዎቹ</w>
ፍ ያ</w>
ለመ ከተል</w>
ለመ ግለፅ</w>
የሚያ ራም
መሆ ንና</w>
በሚ ሆንበት</w>
ከመ ምጣቱ</w>
ሲያ ገኙ</w>
አው ጪ</w>
ይኖ ራቸው</w>
ስር ጭ
የጥ ምቀት</w>
አያ ጠያይቅም</w>
የራ ሴን</w>
አኳ ያም</w>
አስተዋጽ ኦ
ቀን በር</w>
ይጠቀ ማል</w>
ብዙኃ ኑ</w>
አባላ ትም</w>
ከወ ትሮው</w>
ወክ ሎ</w>
ስታድ የም</w>
አከናው ኗል</w>
ለ ወደፊቱ</w>
ሊ ገባ</w>
ላ ውያን</w>
መ መሥ
ም ዘ
ም ከር</w>
ሱ ዳንን</w>
ስ ሄድ</w>
በ ሮም</w>
በ ቱሪዝም</w>
በ ሻምፒዮናው</w>
ቢ ልም</w>
ባ ሰ
ባ ዘ
ነ ናል</w>
ኒ ኮ
ከ ከተማዋ</w>
የ ኮንዶሚኒየም</w>
ዱ ባይ</w>
ጎ ኑ</w>
የሚ ቃጠል</w>
በመ ፍ
በመ ቆጣጠር</w>
ለመ ዘርጋት</w>
በሚ ደረጉ</w>
በሚ ቻልበት</w>
ልማ ዶች</w>
የሰ ደደ</w>
በሰ ዓት</w>
አው ቀ
የወ ር
ጠይ ቃቸው</w>
ፈረ ሰ</w>
ግንኙ ነቶች</w>
አያ ጠራጥርም</w>
ግል ፅ
ከፈ ተው</w>
እንደሚያ ገኙ</w>
ብል ሽት</w>
ተን ኮል</w>
ልን ገር
አድራ ሻ</w>
መጽ ሀ
እንድታ ገኝ</w>
ስትራቴጂ ክ</w>
በረከ ቶች</w>
ማግኘ ቱ</w>
ዘመና ዊው</w>
ሰቀ ሰው</w>
ተንቀሳ ቅ
ይጫወ ታሉ</w>
የዘንድ ሮውን</w>
የተጠያ ቂነት</w>
e x
ሮ ሮ</w>
ሮ ማን</w>
ቃ ቸውም</w>
ቆ ና</w>
በ ኢን
ባ ዮች</w>
ብ ሮች</w>
ት ሕትና</w>
የ የራሳቸውን</w>
ደ ጃ</w>
ግ ዝ</w>
በመ ጪዎቹ</w>
የመ ድን</w>
ከተ ሰጠው</w>
ነገ ን</w>
ልማ ቶችን</w>
ምን ስ</w>
20 11</w>
መረ ተ</w>
ረጋ ጋ
አር ብ</w>
በስ ህተት</w>
እድ ሳት</w>
ስን ቱ</w>
መድረ ኩን</w>
አጥ ፍቶ</w>
ከፈ ተ</w>
የመጀመ ር
ሰር ቷል</w>
ተያ ይ</w>
የሕ ፃ
የሚያስፈል ግ</w>
ለቀ ቅ</w>
የዓ ቃቤ</w>
በወ ሊድ</w>
የሚሸ ፍን</w>
ስያ ሜ
በአር ሶ</w>
ገዥ ዎች</w>
ተጠርጣ ሪዎች</w>
ጨርቃ ጨርቅ</w>
እሆና ለሁ</w>
ሟ ቸዋል</w>
ስ ዋ</w>
ቀ ጣ</w>
ቃ ቱ</w>
ቃ ይት</w>
በ ሬ
ባ ለማወቅ</w>
ባ ይኖር</w>
ታ ሽ</w>
ከ ጨረ
ከ ቀናት</w>
ከ ኬንያ</w>
ካ ህን</w>
ይ ድረስ</w>
ዶ ው</w>
ዶ ር</w>
ጥ ራ</w>
ጥ ለቀ
ፓ ን
በመ ያ
በመ ኖሪያ</w>
እንዲ መሩ</w>
በማ ኑፋክቸሪንግ</w>
በማ መቻቸት</w>
የአ ካ
ሳይ ኖራቸው</w>
ያለ ችውን</w>
ጠቀ ምና</w>
ዘር ና</w>
ከሚ ሰጠው</w>
ስላ ስ
ደረጃ ጀት</w>
የተቀ መ
ፕሮግራ ሞችን</w>
ሰብሳ ቢዎች</w>
መግ ዛ
ሳት ሆን</w>
ሰዓ ቱ</w>
ገመ ቹ</w>
አስፈፃ ሚው</w>
ዕን ቁ
1 30</w>
ሌ ክ</w>
ሲ መልሱ</w>
ቅ ዠት</w>
በ 11</w>
በ ወረቀት</w>
ዋ ለ
ያ ኖ
ጡ ታል</w>
ጭ ጭ</w>
ጽ ፈዋል</w>
ፍ ኩ</w>
ፍ ጮ</w>
እንዲ ጎለብት</w>
የመ ምራት</w>
በማ ሟላት</w>
በአ ሰ
ደር ጉ</w>
የማ በረታ
የም ጣኔ</w>
ያለ ኝን</w>
እየተ ዘጋጀ</w>
አባ ቶቻችን</w>
ክፍ ላችን</w>
ክል ም</w>
ሠራ ሽ</w>
ረጋ ቸው</w>
ሞክ ረዋል</w>
በሰ ነ
በት ናን
ራሳ ቸውም</w>
በግ ድቡ</w>
በራ ከት</w>
ግል ኝ</w>
ነግ ሮ
ሰለ ሰ</w>
ማም ጣ
ወያ ይ</w>
ቋንቋ ቸው</w>
ክረ ም
ጸሐ ፊዎች</w>
ውን ጀ
ካሂ ደው</w>
ያስደ ስተ
መንቀሳ ቀ
የተቋ ማቱ</w>
መንገደ ኛ</w>
አጫ ው
መርከ ቦች</w>
የጽ ድቅ</w>
መጸ ለይ</w>
የፀሐ ይ</w>
መናኸ ሪያ</w>
3 50</w>
ለ ህግ</w>
ሊ ሆን
ሜ ሲ</w>
ስ ጥ</w>
ሻ ን
ሽ ሮ</w>
ቁ ጣ
በ ሬዲዮ</w>
ኒ ና</w>
ኒ ውስ</w>
ን ዋ</w>
ኢ ድ</w>
ከ ኋ
ካ ደረገ</w>
ዛ ውን</w>
የ ቴሌ
የ ንግዱ</w>
ጓ ቸውን</w>
ጠ ጣ
ጫ ን
ጹ ህ</w>
የሚ በል
የተ መሰ
ለመ ተካት</w>
ለማ ሰባሰብ</w>
አል ሆነ
እየ ጠበ
ምህ ንድስና</w>
ገን ብቶ</w>
ከመ ታ
አመ ታዊ</w>
አር በኛ</w>
በል ቶ</w>
ጨዋ ቾች</w>
ጀን በር</w>
ምስ ሎች</w>
የዘ ለቀ</w>
የሙ ቀት</w>
አድርገ ውታል</w>
የጠ ራ</w>
አስቸ ጋ
የሚያሳ ድ
ሃላ ፊው</w>
ታዘ ዙ</w>
መፈ ታት</w>
እንስሳ ቱ</w>
የሚያጋጥ ሙ</w>
መፍጠ ሩን</w>
በስምም ነቱ</w>
አይዞ ህ</w>
እነዚ ያን</w>
የኤክ ስፖርት</w>
ለ ባለ
ለ ሌሎችም</w>
ት ያትር</w>
ኖ ሮት</w>
አ ጠር</w>
ከ ጥፋት</w>
ወ ና</w>
ዓ ምድ</w>
ዝ ናው</w>
ጂ ው</w>
ገ ውና</w>
በተ ጠናከረ</w>
የመ ሳተፍ</w>
የአ ፄ</w>
የአ ፋር</w>
ደር ን</w>
እንደሚ መስል</w>
የማ መንጨት</w>
በሚ ኒስቴሩ</w>
ገበ ሬ
ማህ ፀን</w>
የግ ጦሽ</w>
ስራ ሽ</w>
ገብ ሬ</w>
አሸ ዋ</w>
ሶማ ሊያ
የሴ ቶችና</w>
ፈታ ተ
ማህበራ ቱ</w>
የሊ ዝ</w>
ቋረ ጡ</w>
ተከናው ነዋል</w>
የበዓ ል</w>
መርሆ ዎች</w>
ትፈልጋ ለህ</w>
ሰብዓ ዊና</w>
በጥር ጣሬ</w>
ጭቅጭ ቅ</w>
የማሻሻ ያ</w>
ለ ኢንዱስትሪ</w>
ለ ፌዴራል</w>
ሊ ጠቀስ</w>
መ ደር
መ ተካ
ሠ ልጠን</w>
በ ጣት</w>
በ ፌደራል</w>
ቢ ል
ቾ ችና</w>
ና ታን</w>
አ መልካች</w>
ከ ምርጫው</w>
የ ጽሑፍ</w>
ያ ገኛ
ያ በረከተ
ጭ ፈራ</w>
ጽ ዋ
ፋ ራህ</w>
በመ ጽሐፉ</w>
የመ ቻ
የመ ው</w>
ችግ ሮችም</w>
ሳይ ና</w>
አብ ዲ</w>
አመ ሻ
ጠና ክር</w>
ተከ ብሯል</w>
ክር ክሩ</w>
ለሚ ፈልጉ</w>
ቀበ ልና</w>
የስ ምም
እንዳይ ከሰት</w>
ገና ዘብ</w>
የገ ቡትን</w>
ፈጽ መዋል</w>
ስል ኩን</w>
ሰነ ባብ
ካለ ፈ</w>
ጠባ ቂ
ከፊ ቱ</w>
ህይወ ቱን</w>
መሐ ል</w>
ተም ረው</w>
መያ ዣ</w>
የጠቀ ሰው</w>
መተ ካት</w>
ይነግ ረናል</w>
ማመልከ ቻ</w>
አለባበ ስ</w>
ሎን ቄ</w>
ሀ ብ</w>
ለ ሕዝ
ለ ሆኑት</w>
ል ንና</w>
ል ልቅ</w>
ሰ ዋ
ሰ ሰው</w>
ሱ ባቸው</w>
ቢ ሉም</w>
ተ ኛውም</w>
ታ ችኋል</w>
ቶ ሎ
ኘ ን</w>
አ ድም
ከ 7
ከ ቦ
ው ቤ</w>
የ ትን</w>
የ ንጉሥ</w>
የ ልብስ</w>
ጃ ና</w>
የሚ ጠራ
እንደ ነበርና</w>
አስ ጠንቅ
በተ ሰጣቸው</w>
በአ ባልነት</w>
የማ ስተዋወቅ</w>
ሳይ ት</w>
ያለ ውም</w>
ናገ ሩም</w>
ግብ ም</w>
ሀገ ሪቱን</w>
በየ መንገዱ</w>
አማ ልክ
ስላ ሳ
ኮን ሰር
ሰጥ ህ</w>
ክብ ሮት</w>
የተሳ ናቸው</w>
ንብረ ቱ</w>
ህን ጻ
ስትራቴጂ ካዊ</w>
የሀገ ራችንን</w>
ፈቀ ደው</w>
አቅርቦ ትን</w>
ቅጣ ቱ</w>
ጎር ፉ</w>
ለአፍ ታ</w>
አስጨ ራሽ</w>
ታምኖ በታል</w>
እንሠራ ለን</w>
3 ን</w>
ሙ ኝ</w>
ም ቦ
በ ቋንቋ</w>
ቢ ይ</w>
ት ፎ</w>
ቶ ባቸው</w>
ቶ ቻችሁ</w>
ኢ ኒ
ከ እናት</w>
ዋ ዋ
ዘ ኛ</w>
የሚ ይዝ</w>
በመ ገኘቱ</w>
እንዲ ቆዩ</w>
ለመ ቅረብ</w>
ደረ ግባቸው</w>
ወን ዱ</w>
በቀ ና</w>
ላለ ስ</w>
መር ዝ</w>
ባህ ላችን</w>
በሰ ይፍ</w>
ታሪ ኳ</w>
ተመ ዘ
አለመ ቻል</w>
ፈረ ሰ
ኃላፊ ነትና</w>
አትሌ ቱ</w>
መዘ ገብ
የጥ ቁር</w>
ትምህር ቷን</w>
ተጋ ባ
መክ ፈት</w>
የመስ ክ</w>
መዛ ዘን</w>
በጎ ርፍ</w>
የቢ ሮው</w>
ኮሌ ጆች</w>
በማድረ ጋቸው</w>
re s
መስዋዕ ት</w>
ድብ ደባ</w>
ጠያ ቂነት</w>
የተሳተ ፉበት</w>
የሚሆኑ በት</w>
ይከታተ ላል</w>
ገበየ ሁ</w>
መ ለመ
ሲ ቲ
ሸ መኔ</w>
ቢ ቀ
ቦ ችንና</w>
ከ 70</w>
ዎ ች
የ ሪ
የ 20</w>
ያ መላ
ያ ሉና</w>
ደ ዋ</w>
ገ ጥ</w>
ጥ ህ</w>
ፈ ሪ</w>
ፋ ችን</w>
ፒ ተር</w>
የተ ከናወነው</w>
እንደ ፈጠረ
አይ ሆን
አይ ገርምም</w>
ያስ ገኝ
በአ ሸባ
ደር ም</w>
ባለ ሁለት</w>
የማ ና
ተጠ የ
ውድ ድርና</w>
ውድ ድርም</w>
አካባ ቢያቸው</w>
ያሳ ይ</w>
ከሰ ኔ</w>
የታ የ</w>
መጥ ታ</w>
በግ ምት</w>
ትን ኮ
አያ ና</w>
ገደ ለ</w>
አመለካከ ቶች</w>
የተሰማ ሩት</w>
በመጀመ ርያ</w>
ተመር ቆ</w>
ያየ ሁት</w>
ስፔ ን</w>
ዘገ የ</w>
ካሔ ድ</w>
እንቆቅ ልሽ</w>
ቀዝቃ ዛ</w>
u s</w>
ሄ ዷል</w>
ሆ ኑን</w>
ለ ብሄራዊ</w>
ላ ላት</w>
ል ጂ
ር ቷል</w>
ሴ ል</w>
ቆ ን</w>
ቢ ኖር
አ ርት</w>
ከ ነበረ
ከ ውድድር</w>
ከ እንግሊዝ</w>
ካ ፌ</w>
ዚ የም</w>
ዝ በት</w>
የ ጀርባ</w>
የ ብሄር</w>
ጀ ልባ</w>
ጠ ለ</w>
ጥ ምር</w>
ጥ ሪት</w>
ፋ ሽ
ፌ ዝ</w>
ፍ ባቸው</w>
እን ትና
በአ ቅም</w>
መል ቀቅ</w>
በሚ ስማማ</w>
እር ሻና</w>
ገበ ያን</w>
ጠን ቅ</w>
ትን ተና</w>
የእ ዚህ</w>
በታ ለን</w>
ስብ ዕና</w>
ዓላ ማቸው</w>
አመራ ሮችን</w>
ሚኒስቴ ርና</w>
ከት ግራይ</w>
የተለ ወ
የሚፈ ታ</w>
ደረሰ ም</w>
ውጣ ትና</w>
ፍሬ ው</w>
ሠረ ገ
ታክ ሲዎች</w>
በሙ ሴ</w>
መምህራ ንና</w>
ክህሎ ትና</w>
ትእዛ ዛት</w>
ህክምና ውን</w>
ይም ጣ</w>
ባህላ ዊና</w>
ተሳፋ ሪዎች</w>
መጠናቀ ቁን</w>
እንሰጣ ለን</w>
ሆ ር
ለ ኢንቨስትመንት</w>
ለ እስራኤል</w>
ለ ዘላቂ</w>
ሕ ሙማን</w>
ረ ህ</w>
ባ ብን</w>
ቪ ን</w>
ቪ ላ</w>
አ ሣ
አ ውድ
አ ጠፋ
ከ ቀደ
ዜ ን</w>
ይ ላታል</w>
ደ ሩት</w>
ጐ ንደር</w>
ፈ ጅ
ለመ ቆየት</w>
መስ በክ</w>
አስተ ካክ
ንግ ግር
ፈጠ ራና</w>
ከሰ ተ</w>
መጥ ና</w>
በራ ቸውን</w>
ስብ ሐት</w>
ይታ የ
ሙዚ ቃው</w>
መኪ ናውን</w>
ይል ቅስ</w>
ወራ ሪ</w>
ያስች ላቸዋል</w>
ያገኘ ችው</w>
ይጠበቅ ብናል</w>
ወላጆ ቼ</w>
ማይ ክሮ</w>
አይደለ ምና</w>
ዜጐ ችን</w>
መዳረ ሻ
ተቀና ጅቶ</w>
ዘመና ዊነት</w>
ri c
የፈረን ጆች</w>
ማዕቀ ብ</w>
አሁ ንስ</w>
ተመላ ሽ</w>
የትራንስ ፎርሜሽን</w>
ተደንግ ጓል</w>
2 5
ህ ጉን</w>
ለ ታላቁ</w>
ሙ ጋ
ማ ጠን
ሲ ታወቅ</w>
ሳ ለህ</w>
ሽ ንፈ
ቃ ቅ
በ ነበረ
በ ሦስተኛ</w>
ቢ ሎ
ቢ ገል
ቤ ሪያ</w>
ነ ና</w>
ኒ ቱ</w>
አ ጀማ
ከ መጠ
ከ ሰማ
ከ ከተማው</w>
ከ ሳሽ</w>
ያ ዋ</w>
ያ ሏቸውን</w>
ይ ፋዊ</w>
ጃ ቸውን</w>
ፊ ታቸው</w>
ፋ በት</w>
የሚ ወሰን</w>
በተ ን
ደረ ጉም</w>
በአ ሳ
እንደሚ ደርስ</w>
በሚ ታ
ይህ ስ</w>
እየ ወጡ</w>
በስ ንት</w>
ስታ ንዳ
ማሳ ለ
የሚች ሉትን</w>
ቡድ ንን</w>
የሚታ ይ
የተቀ መጡት</w>
ኢኮኖሚ ክስ</w>
የምር ምርና</w>
አጋጣ ሚውን</w>
ቀመ ስ</w>
የማስ ከበር</w>
ተሳታ ፊና</w>
እያስ መዘገበ
ውይይ ቱን</w>
ተጠር ጣሪ</w>
መሰና ዶ</w>
የማዕ ከላዊ</w>
ስተካከ ሉ</w>
አከራ ካሪ</w>
ፈሪ ሳውያን</w>
ማሠ ልጠኛ</w>
3 ሺ</w>
t h</w>
ሊ ቱ</w>
መ ሥር
መ ድና</w>
ሮ ቿ</w>
ቅ ዳ
ቢ ም</w>
ቢ መስልም</w>
ብ ፁ
የ ፈረስ</w>
ደ ውም</w>
ዶ ኔ
ጀ ማሪ</w>
በመ ኖራቸው</w>
እንዲ ነሳ</w>
የአ ሸናፊነት</w>
እንዳ ደረገ</w>
ምር ኮ
ከመ ፍጠር</w>
አደ ንዛ
በል ን</w>
የወ ታደ
ግራ ፍ</w>
ግንኙ ነትን</w>
ግንኙ ነታቸውን</w>
ካል ኝ</w>
ታላ ቁን</w>
አቋ ማቸውን</w>
አረ ም</w>
ሰነ ዶችን</w>
ወዲ ያውም</w>
ይል ማ</w>
በጉ ልበት</w>
th e
የሚጠቀ ሰው</w>
በሌ ለው</w>
የአገ ራቸውን</w>
ሰና በት</w>
ዘን ድም</w>
በሐ ዘን</w>
በጥቅ ምት</w>
ተገን ብቶ</w>
አይገባ ውም</w>
ሌሊ ቱን</w>
ተጫው ቷል</w>
መት ጋት</w>
መ መደ
መ ቃወ
ማ ቋቋሚያ</w>
ሞ ተዋል</w>
ሟ ገ
ሰ ሪ</w>
ሲ ዳማ</w>
ሲ በዛ</w>
ቆ ጥር</w>
በ ታቸው</w>
በ 10
ቢ ደረግ</w>
ት ባ
ቻ ችንም</w>
ኅ ን</w>
ው ደድ</w>
የ ዝ
የ ጀመረ</w>
የ ፍልስጤ
የ ብረታ</w>
ያ ያሉ</w>
ጂ ኦ
ጨ ር</w>
ፈ ህ</w>
ፎ ረ
በመ ምጣ
እንዲ ቋቋም</w>
አይ ሰጥም</w>
ውስ ጤ</w>
በሚ ገኙት</w>
ደግ ነቱ</w>
ጉዳ ትና</w>
እየ ገለ
እየተ ንቀሳቀሱ</w>
ከመ ላው</w>
እና ቱን</w>
የወ ይ
አላ ለም</w>
በደ ማቸው</w>
ሃይ ሉ</w>
ካል ቻለ</w>
ፓርቲ ያቸው</w>
ግር ጌ</w>
ወል ዲያ</w>
እያሳ ዩ</w>
ስትራቴጂ ው</w>
ሲታ ሰብ</w>
አሸን ፈው</w>
የመቀ ሌ</w>
ይመረ ጣል</w>
ኔትዎ ርክ</w>
ለ ኢ
ለ ፖሊስ</w>
ለ ተጠቃሚዎች</w>
ሻ ት</w>
በ ወረዳ</w>
ኑ ሮውን</w>
አ ሀ
ከ ሩት</w>
ው ሮ</w>
ጄ ነ
ፋ ዮች</w>
አን በሳ
በመ ፅ
ያስ ባል</w>
ባለ ንበት</w>
የማ ነ</w>
የማ ውጣት</w>
የሚያ ወጣ</w>
የሚያ ቀርብ</w>
እየተ ጠናከረ</w>
ወደ ማ
አደ ባባ
ከሚ ጠቀ
በየ ካ
ሲያ በቃ</w>
ሰብ ስበው</w>
በእ ለቱ</w>
አትሌ ቶቹ</w>
መግለ ጫዎች</w>
እገ ም
ይበ ሉ</w>
ይሰማ ሃል</w>
የሚታወ ቁ</w>
ሽማግ ሌው</w>
የማስተ ካከ
ቤተሰቦ ቼ</w>
አክብ ሮ
ተነሳ ሽ
ከቆ የ</w>
መለሰ ች</w>
ተከፍ ሎ</w>
መናገ ራቸውን</w>
ወገኖ ቻችን</w>
ወንድማማ ቾች</w>
ሸክ ላ</w>
መፅሀ ፍ</w>
በደብዳ ቤ</w>
ሸ ጠው</w>
ቆ የው</w>
በ ጊዜያ
ቡ ትም</w>
ቴ ዲ</w>
ነ ቀ</w>
ነ ዉ</w>
አ ጐ
ዘ ካርያስ</w>
የ ጥበቃ</w>
ያ ቋቋ
ዲ ስ
ዳ ስ</w>
ግ ቡን</w>
ጠ ላቸው</w>
ጠ ረን</w>
ፈ ውስ</w>
እንደ ቻለ</w>
በመ መርመር</w>
እንዲ ወስድ</w>
ያስ ከተለው</w>
በማ ክበር</w>
በማ ሰልጠን</w>
አል ቀ
ዓመ ታቸው</w>
ተሰ ራ
ቅር ሶችን</w>
ተገ ር
አው ታር</w>
በል ጆ
ብር ቅ
ጠቁ ሞ</w>
ሳተ ፉበት</w>
የጥ ናቱ</w>
አፍ ንጫ
ተመል ሷል</w>
ለተ ወሰኑ</w>
ተከታ ታይነት</w>
የጀመ ሩትን</w>
ተጠያ ቂው</w>
ተኛ ት</w>
የወሰ ዱት</w>
መጽ ሃ
በ199 9</w>
ሐረ ርጌ</w>
መጽሐ ፍት</w>
ያስቀ መጠ
ዳም ጥ</w>
እውቀ ትን</w>
የመድረ ኩ</w>
ሳህ ሌ</w>
መለዋ ወጥ</w>
የተያዘ ውን</w>
ባህሪያ ት</w>
በልፀ ግ</w>
ለ ሉ</w>
ላ ክ
መ ባል</w>
ሰ ቆ
በ ህ</w>
በ ወሰ
በ ባንክ</w>
በ ጠበቀ</w>
በ ብራዚል</w>
ቢ ዝነ
ተ ገለ
ቼ ው</w>
እ ኖ
ከ ድርጅቱ</w>
የ አንዱ</w>
ዲ ያን</w>
ጠ መንጃ</w>
ፊ ቷን</w>
ፋ ሎት</w>
እን ሄዳ
የሚ ሊ
ለመ ገኘት</w>
በተ ወ
ከተ ሰጣቸው</w>
የአ ብዮ
የሚያ ቀርበው</w>
ገኘ ውና</w>
ማን ነቱን</w>
መጣ ር</w>
ደራ ጀትና</w>
መሳ ፍንት</w>
ወር ሃ
አፍ ሮ</w>
ዝግጅ ትና</w>
ሰባ ተኛ</w>
የሆነ ችውን</w>
በበኩ ሌ</w>
አግኝ ታለች</w>
ነፍ ሴ</w>
የያ ዝ
በሳ ዑዲ</w>
መቅረ ፍ</w>
ክላ ስተር</w>
አክለ ውም</w>
ትከ ሻ</w>
መስሎ ኝ</w>
ሹማ ምንት</w>
መስታወ ት</w>
ለ ጋራ</w>
ል ሂ
ሐ ማ
ሥ ል
ራ ራ</w>
ሹ ት</w>
ቀ ቀው</w>
ቅ ሮ</w>
በ ገቢ</w>
ብ ሌ
ተ ረዳ
ተ ናገር</w>
ና ድ</w>
ን ገረኝ</w>
አ ፉን</w>
ከ አስራ</w>
ዝ ድ</w>
ዝ ሬት</w>
ጸ ሃ
የተ ከበረ</w>
እንደ ቀጠለ</w>
በተ ከናወነው</w>
ለማ ቆየት</w>
መጠ ጦች</w>
ድጋ ፋቸውን</w>
የታ ሰበው</w>
ከማ ኅ
የተሰ በሰበው</w>
አክ ሎም</w>
የሆነ ውና</w>
ኩባንያ ዎቹ</w>
ወል ዴ</w>
የማስ ፋፋት</w>
ተቃዋ ሚዎችን</w>
መዛ ኙ</w>
ጠባ ቂዎች</w>
የቅ ኝ</w>
መግባ ቱ</w>
የፍ ጥነት</w>
ተሻ ግሮ</w>
አዝማ ሪው</w>
መላለ ሱ</w>
በሊ ዝ</w>
ውዝ ዋ
ምኒል ክም</w>
ኢንጅ ነር</w>
ታፈ ሰ</w>
ያስገነዝ ባሉ</w>
በምድ ሪቱ</w>
እንሄዳ ለን</w>
ሎ ሚ</w>
ሙ ማ
ቃ ልና</w>
ቡ ላ
ብ ዥ
ታ ዎችና</w>
ታ ለህ</w>
ና ህ</w>
አ ዚ
ኦ ፕሬ
ከ ሩ
የ ኮንትራት</w>
ይ ይቱ</w>
እን ሂድ</w>
እንደ ሰ
በመ ሥራ
የመ ማሪያ</w>
ድረ ገፅ</w>
ዘመ ኑን</w>
ተጠ ባባቂ</w>
ሀገ ሩ</w>
አር ጀን
በስ ደ
በስ ጦታ</w>
ያው ቀዋል</w>
ደራ ሲና</w>
ለሚ ገኘው</w>
በግ ብር</w>
የምን ፈልገው</w>
ትን ሿ</w>
መንገ ድን</w>
መደ ሰ
የሚያደር ጋቸው</w>
መመ ሪያዎችን</w>
ምዕራ ፎች</w>
ተስፋ ዎች</w>
ህይወ ትና</w>
ሳያ ገኝ</w>
ጠር ሙስ</w>
የሚወ ዱ</w>
በውስ ጤ</w>
የህዝ ብና</w>
ዲፕሎማ ቶች</w>
ማይ ክል</w>
ተወስ ኗል</w>
በድም ቀት</w>
ረድ ፍ</w>
ያቀ ፈ</w>
ግልጽ ና</w>
ትእዛ ዛ
የአህጉ ሪቱ</w>
የቻይ ናው</w>
ኢንጅ ነ
መለኮ ታዊ</w>
በተሳ ሳተ</w>
i c</w>
i st
ሁ ና
ሆ ዬ</w>
ለ ተማሪዎች</w>
ሊ ጎች</w>
ል ጦ</w>
ማ ራት</w>
በ ቱ
በ ኖ
በ ኪ
በ 4</w>
በ እንጨት</w>
ቡ ል</w>
ባ ቱን</w>
ታ ልና</w>
ት ኖ
ን ጅ</w>
ኛ ት</w>
አ ጨ
ከ እን
ከ አገልግሎት</w>
ከ ባህር</w>
የ ባለሙያ</w>
የ ብዙዎች</w>
ያ ሠ
ደ ንና</w>
የሚ ንቀሳቀስ</w>
አገ ኛለሁ</w>
በተ ማ
የአ ክሱም</w>
የማ ያውቁ</w>
ደግ ፉ</w>
ገባ ቸውን</w>
አላ ወ
በጥ ና
ጠይ ቆ</w>
መደ በው</w>
ዜጎ ቿ</w>
የፈጠ ረ
አጀን ዳ
ምባ ብ
እረ ኞች</w>
ተግባራ ዊነት</w>
የሚወስ ድ</w>
የተነ ሱት</w>
ንጹ ህ</w>
ይወስ ዳሉ</w>
አቅርቦ ቱ</w>
መዘጋጀ ታቸውን</w>
ያስቆጠ ረው</w>
አልተሳ ካም</w>
ለማጣ ራት</w>
እገም ታለሁ</w>
i d
ሀ ኪ
ሀ ኪም</w>
ለ ተከታታይ</w>
ሐ ን</w>
ሚ ስቶ
ም ኑን</w>
ሲ ነሱ</w>
ቁ ስ
ቁ ፋሮ</w>
በ ሪ
በ አስተማማኝ</w>
ቶ አል</w>
ን ቨር
የ ፈለገ</w>
ያ ረጋገጠ</w>
ዴ ላ</w>
ጐ ዳ
ጡ ረ
ፈ ይ
ፋ ጠ
የተ ከበሩ</w>
አገ ባ
አገ ዛ
አል ተገ
እየ ታወቀ</w>
እየተ ራ
አመ ኔታ</w>
ከሚ ገኝ</w>
ፈጠ ር
በደ ብረ</w>
የማይ ተካ</w>
የስ ፔን</w>
ማለ ታቸውን</w>
በመስ ከረም</w>
ተዳ ደር</w>
ሕይወ ቴን</w>
የሚያሳ ዩት</w>
አሠራ ሮችን</w>
አምላ ክም</w>
በቃ ኝ</w>
ያልተ ለመደ</w>
ሳያ ገኙ</w>
አድራ ጊነት</w>
አወ ቀ</w>
አቅራ ቢው</w>
ይረዳ ሃል</w>
ጓደኛ ህ</w>
አፋ ፍ</w>
ተኞ ችም</w>
አውቶ ብስ</w>
ለእ ይታ</w>
ነቀ ፋ</w>
ታት ሞ</w>
ተቀይ ሮ</w>
ታጣ ቂዎች</w>
ለዚ ያውም</w>
ትንቢ ቶች</w>
ኪሎ ሜትር</w>
የታጀ በ</w>
አቧ ራ</w>
ስታንዳ ርድ</w>
a d
ለ 2</w>
ላ ኪዎች</w>
ል ብን</w>
መ ሄዱ</w>
ረ ቡ</w>
ራ ቸውንም</w>
ሰ ሮች</w>
ሰ ችው</w>
ቋ ን</w>
በ ሳይንስና</w>
በ ሥራቸው</w>
ቢ ኒያም</w>
ባ ሪያዎች</w>
ት ቷል</w>
አ ዘጋጁ</w>
አ ሰብኩ</w>
ከ 13</w>
ዘ ረ</w>
የ 1
የ ሟ
ጅ ራ
ገ ኝና</w>
እን ቀጥ
በመ ሀል</w>
እንዲ ረ
የአ ዲሱ</w>
እንደሚ ሠራ</w>
የም ሥ
እር ጥበት</w>
ሰራ ዊ
ለማስ ፈፀም</w>
የስ ልጣ
ብራ ራ</w>
ሰጥ ተን</w>
ፈቃ ዳቸው</w>
መንፈ ስን</w>
ተዋ ንያን</w>
ቆይ ታው</w>
ሳሰ ሉት</w>
ዳይሬ ክተሮች</w>
መረጃ ና</w>
አነ ስተኛና</w>
ልዩ ነትን</w>
መጋ ገብ</w>
ባለቤ ትና</w>
ar e</w>
ለማን በብ</w>
ማግኘ ቱን</w>
ተጠበ ቁ</w>
ከጎ ኑ</w>
ቢታ ወቅም</w>
ምሰ ሶ</w>
ልደ ታ</w>
ሙከራ ዎች</w>
የበሽ ታው</w>
ያከናው ናል</w>
ማስወገ ጃ</w>
አወዛ ጋቢ</w>
ስንታ የሁ</w>
አደንዛ ዥ</w>
e g
ለ ግብርና</w>
ማ ጠራቀ
በ ባሕር</w>
ቡ ለት</w>
ብ ሏቸዋል</w>
ቨ ን</w>
ት ነቱ</w>
አ ያሳ
ከ ገጠር</w>
ወ ቀው</w>
ዘ ዳ</w>
የ ጃ
የ ኬንያ
ያ ንም</w>
ደ ደው</w>
ደ ላላ</w>
ዱ ትም</w>
ዴ ይ</w>
ጓ ራ</w>
ጢ ስ</w>
ፊ ን</w>
የሚ ውለው</w>
የተ ጠና
የተ ነገረው</w>
በመ ዲናዋ</w>
እንዲ ተ
እንዲ ይዝ</w>
አስ መስሎ</w>
እንደሚ ሄድ</w>
የማ ለት</w>
ጉዳ ተኞችን</w>
በሰ ባ
ወዳ ቸው</w>
በደ ፈ
ፈረ ሱ</w>
በግ ዞት</w>
ደን ቀው</w>
ጠብ ታ</w>
ይሰ ጡ</w>
እኔ ማ</w>
የኤ ች</w>
ብሄ ረሰብ</w>
ጥቅ ምን</w>
ሽከር ከር</w>
ጠረ ፍ</w>
እንቅስቃሴ ም</w>
በነ ጻነት</w>
en ce</w>
ዝውው ርን</w>
እንደሚያሳ ዩት</w>
ዕርምጃ ዎች</w>
ተወለ ደ</w>
ጲላ ጦስ</w>
ኢስላ ማዊ</w>
a y</w>
ሁ ትም</w>
ሃ ኪ
ለ ነ
ለ ውድድሩ</w>
መ ወያ
ሪ ኮ</w>
ራ ለህ</w>
ሲ ቃ
ሽ ኩ
በ ቻ
በ ብል
በ ልማቱ</w>
ብ ዓም</w>
ቺ ካ
ከ ጋ
ዋ ጥ</w>
ዝ ታ</w>
የ ኦሮ
ይ መሳሰ
ደ ታ</w>
ደ ኑ</w>
ጉ ኝ</w>
ግ ሪክ</w>
ፊ ያው</w>
እን ጠይ
የሚ ወደ
የሚ ቀጥ
እንደ ሆን</w>
በመ ቆም</w>
በመ ገረም</w>
አይ ጠቅ
መል መል</w>
ስለ ምን</w>
እያ ከናወኑ</w>
አድር ጐ
እና ቶችና</w>
የሰ ላ
ከሚ ታ
ካሄ ደበት</w>
በል ጦ</w>
ለማስ ደሰት</w>
ብራ ንድ</w>
የጥ ጥ</w>
እንዳለ ባት</w>
ብርሃ ነ</w>
ለም ለም</w>
የዳ ሰሳ</w>
ተመራ ቂ</w>
ተመራ ቂዎች</w>
ተክ ሌ</w>
ብቃ ታቸው</w>
ግጭ ትና</w>
ቆረ ጠ</w>
ናው ቅ</w>
ዘል ቀው</w>
ደስታ ና</w>
ጸባረ ቅ</w>
ጠባበ ቁ</w>
ከተጠቀ ሱት</w>
ተከላ ካይ</w>
አሉባል ታ</w>
በሚሊ ዮኖች</w>
C h
p er
u m
ህ ያው</w>
ለ ሽልማት</w>
ለ አገሩ</w>
ሊ ያደርገው</w>
ሞ ቃ
ሞ ራል</w>
ሲ ተ
ሲ ለኝ</w>
ሲ ንቀሳቀሱ</w>
ሳ ትን</w>
ሼ ል</w>
ነ ባቸው</w>
አ ወዳ
ኤ ች
እ ቀ
ያ የ</w>
ያ ዕ</w>
ያ ገናዘበ</w>
ድ መት</w>
ገ ጣጠ
ጋ ብ</w>
ጭ ል</w>
ፍ ኖ</w>
የተ ረጋገ
በመ መር
አስ ጊ</w>
ለመ ጎብኘት</w>
አይ መጣም</w>
ነገ ም</w>
የም ዘና</w>
ገል ጾ
አደ ለም</w>
ተቋ ሞች</w>
ተግባ ርም</w>
በሰ ን
የስ ን
ስታ ይ</w>
ስሜ ታዊ</w>
ያዘ ለ</w>
ሥርዓ ትና</w>
ጋዜጠ ኞችን</w>
በላ ዩ</w>
አጠ ያያ
በጉ ልህ</w>
ተክ ሉ</w>
ያም ኑ</w>
ዘመና ዊና</w>
አምጥ ቶ</w>
ምሁራ ንና</w>
ለቀረ በላቸው</w>
i m
ለ ብዙዎች</w>
ማ ሰራ
ሞ ኛል</w>
ሬ ዝ</w>
ሯ ጮች</w>
ሾ ሙ</w>
ቅ ላ
በ እግዚአብሔር</w>
ቼ ና</w>
ኃ ት</w>
አ ጽንኦት</w>
እ ደ
ካ ና
ካ ልን</w>
ኮ ማንድ</w>
ዘ መ</w>
የ ሠራተኞች</w>
የ መንግስትና</w>
የ ፕላስቲክ</w>
ደ ቢት</w>
ዱ ባቸው</w>
ጽ ጌ</w>
ፎ ችም</w>
እን መረ
የተ መለከ
የተ ፈራረ
አለ ቃ
አለ ዚያ</w>
ጠቀ ም
ተማ ሪዎችም</w>
በጥ ናትና</w>
የምት ናገረው</w>
ኮሚ ዩኒኬሽን</w>
ነበረ ብኝ</w>
ትራ ክ</w>
ዜጎ ችም</w>
ተዋ ቸው</w>
ምስ ክር
ላይ ን</w>
ወንጀ ለ
አጣ ብ
ህል ፈት</w>
በማህ በረሰቡ</w>
አስቀም ጦ</w>
የሚስተዋ ለው</w>
አንቺ ም</w>
ሰሎ ሞን</w>
ም ሬ
ሬ ስ</w>
ሰ ሉ</w>
በ ዶ
በ ም</w>
በ 30</w>
በ ዩኒቨርሲቲ</w>
በ ጠላ
በ ምርመራ</w>
ብ ይ</w>
ና ቸዋል</w>
አ ውስትራሊያ</w>
ከ 11</w>
ው ዳሴ</w>
የ ቅር
ያ ሰማ
ዶ ስ</w>
ፈ ውም</w>
ፍ ቱን</w>
የተ መዘገበ
እንደሚ ጠቁ
የሚያ መጣ</w>
ምክ ር
ስት ሄድ</w>
እያ ጣ
አለ ቀ</w>
መረ ባረብ</w>
ህዝ ቦችን</w>
የሰ ባት</w>
ተከ ስቷል</w>
የተሰ ጠ
ረጋገ ጥና</w>
ወር ወር</w>
ስሜ ታቸውን</w>
ቆጠ ቡ</w>
ለማሳ ደግና</w>
የካ ሳ</w>
በቅ ኝ</w>
ቴዎ ድሮ
ታስ ረው</w>
መሸ ፈን</w>
የከ ብት</w>
እቅ ዶች</w>
ይቆ ያል</w>
ከፋፈ ሉ</w>
የአደ ባባይ</w>
አሽከርካ ሪ</w>
በተጠቀ ሱት</w>
በትክክለ ኛ</w>
ተፈጽ ሟል</w>
ቅጽ በት</w>
ፓኬ ጅ</w>
ቆል ቆ
ኢየሩሳሌ ምን</w>
ምእራ ፍ</w>
መስተጋ ብር</w>
7 ን</w>
i l</w>
ህ ራ
ሰ ከን
ሲ ኖረው</w>
ሳ ዩ</w>
ሸ ሚ
በ ሥርዓት</w>
በ ዩናይትድ</w>
ተ ሿ
ቱ ታ</w>
ታ ዲያ
ኚ ነት</w>
እ ጄ</w>
ከ ግብ</w>
ከ ብራ
ወ ጦች</w>
ዋ ንም</w>
የ ሳን
የ እርግዝና</w>
ያ ንግ</w>
ገ ቢዎች</w>
ፉ ባቸው</w>
የሚ ከፈለው</w>
የተ ወደ
የመ ፅ
እያ ለቀ
ገባ ውን</w>
ይገ ድ
ይኖ ሩታል</w>
ባይ ቻልም</w>
ቀጣ ዩን</w>
ኢትዮጵያው ያኑ</w>
ግር ማይ</w>
የጀመ ሩ</w>
ምዕራ ባ
መግ ደል</w>
አንገ ታቸውን</w>
አውቶ ብ
ኢንቨስትመን ትና</w>
ስታድ ዬ
ወት ሮው</w>
ዶክ መን
መድሀ ኒት</w>
በአውሮ ፓ
ለ ወጣቱ</w>
ማ ሬ</w>
ቃ ላቸውን</w>
በ ሰማያት</w>
ቡ ናን</w>
ቢ መጣ</w>
ተ ምሮ</w>
ተ ችው</w>
ኅ ጉ
አ ኃ
ኤ ር</w>
እ ህ</w>
ከ ላ</w>
ከ ሆነና</w>
የ ገለጸ
የ 2007</w>
የ ክህሎት</w>
የ ሆስፒታሉ</w>
ይ ደረግ
ጁ ባ</w>
ጸ ን
እን ጠብ
የሚ ሻ</w>
ለማ መድ</w>
የመ ሩት</w>
ተሰ ጠው</w>
ቀር ና</w>
በረ ንዳ</w>
ግብ ን</w>
ዓይ ኑን</w>
ተገ ን</w>
ሚኒስት ሩን</w>
እኔ ስ</w>
ስፍ ር</w>
ብርሃ ም</w>
መዋ ጋት</w>
የፀ ዳ</w>
መቆ የታቸውን</w>
ብን ሆን</w>
መና ፍ
ቋንቋ ን</w>
አንዳ ር
የወጣ ቱን</w>
ገጥ ማቸው</w>
ተኝ ነትና</w>
ተወስ ኖ</w>
ከቆ ዩ</w>
ተሸክ ሞ</w>
በፅ ናት</w>
ሕግ ጋት</w>
አሻፈረ ኝ</w>
e t</w>
ለ እንስሳት</w>
ማ ከማ
በ ሂ
በ ጥያቄ</w>
በ ግለሰቦች</w>
በ ፕሬዚዳንትነት</w>
ባ ምንጭ</w>
ብ ድ</w>
ተ ቤ</w>
ት መስ
ከ በደ
ከ አርባ</w>
ካ ገኘ</w>
የ መ</w>
የ ግንኙነት</w>
የ ስለላ</w>
ያ ሰባ
የሚ ጫወቱ</w>
አገ ሮቹ</w>
ለማ ቆም</w>
የአ ሸባ
የማ ታ</w>
የማ ሸነፍ</w>
የም ስራ
እር ድ</w>
እየተ ሳ
ገለ ገል
ንግ ድን</w>
በስ ልጠናው</w>
አሰ ም
የምን ሰጠው</w>
መቀ ላቀል</w>
ጀም ረናል</w>
በፍ ል
ንቀሳ ቅ
ብሎ ሽ</w>
የማስ ፈጸም</w>
ፍል ሰት</w>
ፋብሪካ ዎችን</w>
በኢ ሕአዴግ</w>
ገጠ መው</w>
ፊል ጵስዩስ</w>
በመካከ ለኛ</w>
ተወስ ዶ</w>
ታካ ሚዎች</w>
ታኅ ሳስ</w>
ህ በት</w>
ለ እስራኤላውያን</w>
ሊ ረዳን</w>
መ ሳብ</w>
ማ ዎችን</w>
ሲ ፈጸም</w>
ሸ ር
ቅ ሌት</w>
በ ነበረ</w>
በ ሳይንሳዊ</w>
ባ ላችሁ</w>
ከ ሜዳ</w>
ከ ሄደ</w>
ኮ ሙኒ
የ አንዳንድ</w>
ዳ ብሩ</w>
ጫ ሉ</w>
ጮ ኸ
ጸ ጥ</w>
ፍ ኖተ</w>
የሚ በቃ</w>
የተ ወጣ
የተ ገመ
መን ከባከብ</w>
የአ ረብ</w>
የሚያ ጠቃ
ተሰ ማው</w>
ምህ ዳ
አለ ም
ከመ ጀመሪያ</w>
ወደ ታች</w>
የሚያስ ገርም</w>
ብረ ን</w>
መር ጃ</w>
ውጤ ቱም</w>
ዓይ ኖች</w>
ባህ ሉን</w>
በሰ ኔ</w>
ቅዱ ሱ</w>
የምት ሰ
አጋ ጠ
ተር ነት</w>
ተመል ሳ</w>
የካ ቢኔ</w>
ሰው የውን</w>
ምል ል
መዋ ዕል</w>
ግር ዛት</w>
ከፋ ይ</w>
መፍ ራት</w>
ዕለ ተ</w>
ከወ ሊድ</w>
ሪዎ ቿ</w>
ፖር ቱ
ከፈለ ግን</w>
መፃ ፍ</w>
የሚገነ ቡ</w>
እንደዚ ያው</w>
ብለው ታል</w>
አሃ ዝ</w>
ገልፃ ለች</w>
ውጫ ዊ</w>
ኮንሰ ርት</w>
የግድ ቡን</w>
አጠያያ ቂ</w>
7 ኛ</w>
a s</w>
ህ ብረ</w>
ህ ክምናው</w>
ለ አንዱ</w>
ለ ኢትዮጵያውያን</w>
ለ አሜሪካ</w>
ሊ ኮፕ
ሕ መሙ</w>
ሩ ን
ሰ ፈሩ</w>
ሲ ሞቱ</w>
ስ ትም</w>
ቅ ልቅ
በ ገባው</w>
ቢ ያም</w>
ተ በርክቶ
ቻ ሉም</w>
ኀ ዘን</w>
ነ ጃ
ን ክ</w>
ው ኝ</w>
የ ቃ
የ ባለሙያዎች</w>
የ ኬሚካል</w>
ጁ ና</w>
ጊ ቤ</w>
ጽ ንስ</w>
ፊ ያና</w>
እን ገ
የተ ከታተ
አን ድና</w>
እንዲ ረጋገጥ</w>
እንዲ ጠፋ</w>
ለመ ጨረስ</w>
በተ ፈለገው</w>
የመ ኝታ</w>
ነገ ሩት</w>
በአ ጠቃ
በአ ደጋው</w>
የም ታው
በሚ ኖርበት</w>
እያ ደረሰ</w>
መካከ ር</w>
ባህ ሪ
የሚገ ቡት</w>
ባይ ና</w>
ሻሻ ልና</w>
ኢኮኖሚ ክ</w>
ዛሬ ን</w>
እንደሚያ መለክቱት</w>
ቀዳ ሚውን</w>
ብቻ ዋን</w>
አድማ ጭ</w>
ለማር ካት</w>
ወጪ ን</w>
የሊ ቢያ</w>
ከፋፈ ለ</w>
es s</w>
ያሸነ ፈው</w>
መነሻ ነት</w>
ያት ታል</w>
ማራቶ ንን</w>
አጠገ ቤ</w>
ል ኝም</w>
ም ኑም</w>
ሠ ል
ሪ ኮ
ራ ንና</w>
ሲ ሳ
ስ ቀስ</w>
ቅ ጂ</w>
በ ባቸው</w>
በ ጥር</w>
ቢ ሆንስ</w>
ቺ ስ</w>
ች ሁንም</w>
ከ እያንዳንዱ</w>
ካ ራ</w>
የ በሰ
የ ሶስት</w>
ይ ና
ይ ልና</w>
ገ ሚ
ፈ ራቸው</w>
ፕ ሌ
የሚ ተር
የሚ ፈጸሙ</w>
አስ ቤ</w>
አስ መላሽ</w>
በተ ሞላበት</w>
ከተ ጋ
የማ ሰብ</w>
እንዳ ያስ
በሚ ካሄዱ</w>
በሚ ገኝበት</w>
ስተ ና
ከሚ ገባው</w>
ወዳ ጁ</w>
እግ ሩን</w>
እንዲያ ድር
የወ ባ</w>
አላ ው
በጥ ምረት</w>
የታ ችን</w>
ፍላጎ ቶች</w>
መም ረ
ተን ተር
ስተዋ ለ</w>
ቀደ ሙ</w>
በፊ ፋ</w>
ክህ ነት</w>
አክብ ሮ</w>
በሕይወ ቴ</w>
አሮ ጊ
አዘጋ ጆቹ</w>
ግብር ናና</w>
ላድ ሚር</w>
የማበረታ ቻ</w>
ሀ ድ</w>
ሄ ዱም</w>
ል ላል</w>
መ መዝገብ</w>
በ ሃገ
በ ፕሮጀክቱ</w>
ቴ ሽን</w>
ት ችል</w>
ና ጋት</w>
ከ ጣ
ከ ባንክ</w>
ከ ሆንክ</w>
ዚ ክስ</w>
የ ክፍለ</w>
የ ኃይማኖት</w>
ድ ሬ</w>
ግ ሽበት</w>
ጭ ራ
ጮ ክ</w>
ፍ ጡ
የሚ ከታተ
የሚ ረዳን</w>
የተ ገነቡ</w>
የተ ከተለ</w>
እንደ ራ
የመ ደራጀት</w>
ነገ ሠ</w>
የም ድ
ምን ጣ
ዓይ ኑ</w>
ጠበ ቂያ</w>
እንግ ዳው</w>
ከአ ዘጋጁ</w>
እንዳይ ደርስ</w>
የእ ህ
እጅ ና</w>
መንፈ ሱ</w>
ዝር ጋ
አጋጣ ሚም</w>
የተወሰ ነው</w>
ተባ ብሮ</w>
ተባ ብረው</w>
ከናው ናቸው</w>
አንዳ ችን</w>
የዋ ለው</w>
አክሲ ዮ
ተሰም ቷል</w>
ፍትሕ ን</w>
ዮሐን ስን</w>
እንመረ ምራለን</w>
a p
ለ ፖለቲካ</w>
ለ ኑሮ</w>
መ ያዙ</w>
ሶ ችም</w>
በ ዋናው</w>
ቢ ያሳ
ተ በታ
ት ላን
ነ ቃ</w>
ከ 6
ከ ሶ
ከ ሃይማኖት</w>
ከ ዘጠኝ</w>
ኮ ከ
ዊ ያው</w>
ዋ ጋቸው</w>
ዛ ወር</w>
የ ዓመት</w>
የ ፈለገው</w>
የ መንገዱ</w>
የ ችግኝ</w>
ጆ ሴፍ</w>
ፍ ቲ
ፍ ቷል</w>
የተ ኩስ</w>
እንደ ገባ</w>
በአ ሉ
በአ ማራ
መለ ስና</w>
የሚያ ምን</w>
አም ባ</w>
እር ጉዝ</w>
በር ና
ቀር ቡም</w>
የሚያስ ከትል</w>
ፈጥ ረዋል</w>
ተማ ም
ለሚ ኖሩ</w>
ትኩ ሳት</w>
ሥልጣ ንን</w>
ማር ኬ
ስን መጣ</w>
ስብ ስ
ደረጃ ዎችን</w>
ቁጥ ቋ
ልብ ሶች</w>
ግዴ ለም</w>
ቀን ሶ</w>
መሀ ከል</w>
አውጥ ቷል</w>
መስጠ ታቸው</w>
በመካከ ላችሁ</w>
በሲ ቪል</w>
ያስቀ መጠው</w>
በረክ ቱ</w>
ንጋ ቱ</w>
ርካ ሽ</w>
ልንገ ራችሁ</w>
በደፈ ናው</w>
ህ ወሓት</w>
ለ ቂያ</w>
ለ ዘለቄ
ረ ቂ
ሰ ፊው</w>
ስ ንም</w>
በ ድምፅ</w>
ቤ ት
ቭ ላድሚር</w>
ት ናው</w>
የ ከርሰ</w>
ጾ ችን</w>
እንዲ ነግ
ለመ ጫወት</w>
በተ ካሄዱ</w>
ውስ ኪ</w>
እስ ረኛ</w>
ገለ ል</w>
ክል ሎችም</w>
የነበ ረን</w>
ያል ቻሉ</w>
የግ ሪክ</w>
የበ ሽታ</w>
በጥ ራትና</w>
የእ ናት</w>
ተዋ ወቁ</w>
ለተ ሻለ</w>
የሚያሳ ስ
አስተሳ ሰብን</w>
ትዕ ይን
በኢ ራቅ</w>
የማስተ ናገድ</w>
ታዘ ብ</w>
መፈ ራረ
ተኝ ቶ</w>
የተዋ ጣ
ዘል ቆ</w>
እድሜ ው</w>
የተላ በሰ</w>
ይስተዋ ላሉ</w>
ደብዳቤ ዎች</w>
ተቋቋ መ</w>
የሰን ደቅ</w>
ከረጢ ት</w>
t s</w>
ለ ሚ</w>
ለ ፉት</w>
መ ናገሩ</w>
ሙ ትም</w>
ሲ ለው</w>
ሲ ጠፋ</w>
በ 50</w>
በ ሄክታር</w>
በ ንግድና</w>
ባ ዋ</w>
ብ ሏቸው</w>
ት ሄዳ
ቶ ላቸው</w>
ቶ ችህ</w>
እ ሱና</w>
ከ ግንዛቤ</w>
ካ ነሳን</w>
ዘ ጠና</w>
የ ከበ
ይ ደርስ
ዮ ሃ
ደ ወ
ጃ ዎች</w>
ጉ ላቸው</w>
ጻ ፉት</w>
ጻ ሕፍት</w>
በመ ጡ</w>
በመ መስረት</w>
እንዲ ፈታ</w>
በተ ጠ
በአ መዛኙ</w>
መስ ሉ</w>
መስ መሩ</w>
የም ላችሁ</w>
በሚ ኖረው</w>
አስተ ማሪዎች</w>
ሳይ ኖረው</w>
ልማ ትም</w>
ተሰ ሚነት</w>
ገኘ ች</w>
ማስ ገኛ</w>
ከሚ ባሉ</w>
መር ቱ</w>
አቀ ራረ
ድርጅ ቶችም</w>
በሰ ራ
ግንባ ታም</w>
በል ጸ
ቀጥ ቀጥ</w>
በት ጥቅ</w>
የተሰ ጡ</w>
አዳ ኝ</w>
ኮን ቴ
የሚያደር ስ</w>
በማስ ፈን</w>
ዝና ን</w>
በቀጣ ናው</w>
ክብ ሩ</w>
በጎ ዳና</w>
የኮ ምፒዩተር</w>
ወራ ጅ</w>
ምሥራ ቃዊ</w>
የሚጠቀ ምበት</w>
ለአ ጭር</w>
ተመር ጠው</w>
የአን በሳ
ይሞ ታል</w>
አዳራ ሾች</w>
መለከት ኩ</w>
ወደተ ለያዩ</w>
ሠራተኞ ችና</w>
ግማ ሹ</w>
ወርሃ ዊ</w>
C on
ሊ በራል</w>
መ ናን</w>
ማ ሌ</w>
ረ ዝ
ር ንና</w>
ሲ ጠይ
ስ ቀ
ሻ ላይ
በ ጨ
በ ፀሐይ</w>
በ ደረሰበት</w>
ቢ ኖሩ</w>
አ ጸ
አ ሁኑ</w>
ኢ ን</w>
ከ አንዳንድ</w>
ካ በት</w>
ክ ብራ
ወ ጪው</w>
ወ ሲብ</w>
ዚ ያ
ያ የር</w>
ዳ ቸውም</w>
ዳ ውያን</w>
ጥ ፎ</w>
ጨ ውን</w>
የሚ ቀር</w>
የተ መዘገበ</w>
የተ ጎዱ</w>
በመ ቻሉ</w>
ለመ ጪው</w>
ለመ ፈለግ</w>
የመ ሣ
የመ ኖ</w>
የመ ክፈቻ</w>
ያስ ጠ
ከተ ወሰኑ</w>
ከተ ለመደው</w>
የአ ባላ
ባለ ባቸው</w>
መሆ ንም</w>
20 10</w>
መጠ ራ
የነበ ራት</w>
አር ክ
ድጋ ፍም</w>
አሳ ብ</w>
የወ ላይታ</w>
በም ላ
አጋ ሮች</w>
በሽ ብር</w>
የው ል</w>
ውል ህ</w>
ሪፖር ቱን</w>
የቀ ሩ</w>
የነ ር
ርዕ ዩ</w>
አግኝ ተናል</w>
ላቀ ለ</w>
እንቅስቃሴ ውን</w>
ሄደ ዋል</w>
የተወለ ዱት</w>
ያሳስ ባሉ</w>
ሎጂ ስቲክስ</w>
ዋስት ናን</w>
ሬድ ዋን</w>
ያካሂ ዳል</w>
ጋኒ ስታን</w>
ህ ጋ
ሚ ና
ማ ሸ
ማ ቸዋል</w>
ሥ ጋዊ</w>
ቂ ያው</w>
ቆ ላስይስ</w>
በ እድሜ</w>
ብ ሂል</w>
ቻ ቸውንና</w>
ኛ ችን</w>
ኝ ነትም</w>
ኢ ጋድ</w>
ከ አስ
ከ ልማት</w>
ው ሣ
የ እንጀራ</w>
ያ የው</w>
ይ መዘ
ደ ሃ</w>
ዳ ጊ
ጌ ው</w>
ፅ ሑ
ፊ ኔ</w>
ፋ ርማ
የሚ መር
የተ ቆራ
እያ ከናወ
ሳይ ሉ</w>
ሁለ ቴ</w>
ማስ ቀመ
ተገ በረ</w>
እንዲያ ገለግሉ</w>
አላ ቆ
ከማ ረጋገጥ</w>
መደ ም
ጥቅ ማቸው</w>
ባለመ ሆናቸው</w>
በፍ ር
ዘግ ናኝ</w>
ሸን ጎ</w>
ተመር ጠዋል</w>
ገጽ ታዎች</w>
በሞ ባይል</w>
ሄደ ህ</w>
ብላ ተር</w>
ሚሊ ዮ
አህጉ ሪቱ</w>
ትዝ ብት</w>
ስለሌ ለው</w>
ተከሳ ሾች</w>
በመንግሥ ቱ</w>
ደና ቅ
ቃለ ምልልስ</w>
አሳድ ሯል</w>
ተቀይ ሯል</w>
ሕዝቅ ያስ</w>
ትሆና ለህ</w>
ትርፋ ማ</w>
ለ ስላሳ</w>
ሊ በራ
ላ ብ</w>
ሞ ሽን</w>
በ ኑሮ</w>
በ ሒደት</w>
በ ሩቅ</w>
ታ ና
አ ዱ
ከ ቢ
ከ በው</w>
ከ ውሃ</w>
ከ መጠቀም</w>
ካ ፍ</w>
ክ ርና</w>
ዛ ዥ</w>
ዳ ጃ</w>
ግ ሪክኛ</w>
እን ውሰድ</w>
እንደ ያዘ</w>
ለመ ገመት</w>
አገ ሮችና</w>
ከተ ነሳ</w>
ጀመ ረበት</w>
የሚያስ ብ</w>
200 9ዓ</w>
ፕሮ ሰ
አሰ በ</w>
ከማ ቅረብ</w>
ስታ ስ
ወገ ብ</w>
መድረ ሻ</w>
ዋን ጫዎችን</w>
የቀ ብር</w>
ወጥ ተን</w>
ሰው ነቱ</w>
የኢ ዮ
ወድ ቀው</w>
አሸና ፊዎች</w>
መግባ ቱን</w>
መግባ ታቸውን</w>
ጥራ ቱ</w>
ደንበ ኞችን</w>
ይደ መጣል</w>
በመጠ ኑም</w>
በሕይወ ታቸው</w>
ተመዝግ በው</w>
ቻይ ናውያን</w>
አስፋ ፊዎች</w>
አጎ ራባች</w>
መምህራ ንን</w>
እንኩ ዋን</w>
መሰጠ ቱን</w>
አስተምህ ሮ</w>
ዲፓርት መንት</w>
የተትረፈረ ፈ</w>
በጊዜያ ዊነት</w>
ለ ኪያ</w>
ል ቡን</w>
ማ ጨስ</w>
ሲ ውን</w>
በ ፍትሕ</w>
በ ኦሮሚያና</w>
ቦ ታም</w>
ታ ምሩ</w>
ን ዮሽ</w>
ከ ወሰ
ወ ሲባዊ</w>
ያ መለከተው</w>
ይ ዳር
ግ ዛው</w>
ጨ ትና</w>
ፔ ን
አገ ዳ</w>
የመ መለስ</w>
ድር ሳ
እንደሚ ሸ
እና ቀር
ማስ ቀ
ይዘ ውት</w>
መደ ጋገ
ኢንዱስት ሪዎችን</w>
አፍ ጥ
ለማሳ ወቅ</w>
ብል ህነት</w>
ከነ ዚህም</w>
ንቀሳ ቀሳ
ከፋ ዮች</w>
የፈጠ ሩት</w>
ዳረ ግ</w>
ልት ሆን</w>
በነ ዳጅ</w>
አወ ጋ
አወ ሳሰ
ህፃ ናትን</w>
ፊል ጵ</w>
ምግ ልና</w>
ጦር ነቶች</w>
አመላ ክተዋል</w>
ሊታ ሰብበት</w>
ከተሞ ቹ</w>
ቋር ጡ</w>
ዘመን ና</w>
የጀመር ኩት</w>
ተዓ ማኒ
ያሳድ ራል</w>
መሠዊ ያ</w>
ወፍራ ም</w>
u b
ሊ ደ
ሔ ደ</w>
ሞ ሮኮ</w>
ሳ ቁ</w>
ሶ ሳ</w>
በ ንብረት</w>
በ ያዘው</w>
በ ብሔር</w>
በ ፓርቲው</w>
በ ፈጠረው</w>
ተ ራው</w>
ት ውው
ኑ ሮው</w>
ከ ቀድሞ</w>
ክ ሰስ</w>
ዘ ውድ</w>
የ ጠበ
የ ጽሕፈት</w>
የ ሥርዓቱ</w>
ያ መለ
ግ ዛቸው</w>
ጐ ድ
ጵ ያ</w>
ፈ ኝ</w>
ፓ ወር</w>
የሚ ል
የሚ ይዘው</w>
የተ ከተ
በመ ፍራት</w>
በመ ወያየት</w>
ለመ ወዳደር</w>
በተ ለመደው</w>
እያ ረ
እያ ገለገሉ</w>
እር ከ
እር ሷም</w>
ያለ ፉትን</w>
ተቀ ማጭ</w>
ታሪ ክም</w>
ክለ ቦቹ</w>
ዩኒ የ
የታ ነ
በዚ ች</w>
አማካ ሪዎች</w>
የኤ ሌክትሮኒክስ</w>
አቋ ሙን</w>
ተን ሰራ
እህ ቴ</w>
አግኝ ቼ</w>
አምላ ክና</w>
ብን መለከት</w>
የሚገል ፁት</w>
መስጠ ትና</w>
የበኩ ር</w>
የሚጠይ ቀውን</w>
ፌዴሬሽ ኑን</w>
ቆራ ጥ</w>
ስፖን ሰር
መነሳ ሳት</w>
ተፈላ ጊ
የሚወጣ ውን</w>
1 ሺ</w>
ሒ ሳ
ማ ሪ
በ ወደ
በ አንዴ</w>
ተ በሳ
ቲ ዩ
ት ታ
ቸ ርነት</w>
ነ ህ
ና ቀ
ን ዝ
አ ጽ
ከ ቻለ</w>
ክ ነት</w>
ወ ጡም</w>
የ ፈጸመው</w>
ያ ካሄ
ዬ ውን</w>
ጂ ና</w>
ፅ ዋ
የተ ቀጠ
የተ መቻቸ</w>
እንደ ጠቀ
በተ ወሰ
እየ ወሰደ</w>
ወደ ስ</w>
በሰ ቡት</w>
ተቀ ራራ
ጥበ ትን</w>
የምት ኖር</w>
በግ ፍ</w>
ከአ ለም</w>
ተነ ዋል</w>
እንደተ መለከተው</w>
ማስተ ናገ
እውነ ቴን</w>
አሸ ብር</w>
እስራ ትና</w>
ማኅ በረ
ተመል ሰዋል</w>
ሜዳ ዎች</w>
በቅ ተዋል</w>
የደረ ሰባቸውን</w>
መቻ ላቸውን</w>
ትክክለ ኛነት</w>
ያቀረ ቡትን</w>
ጠባ ሳ</w>
ይበ ጃል</w>
ዲሞክራ ቲክ</w>
ባብ ሮ</w>
ድል ድል</w>
ቀርብ ለት</w>
ሾፌ ር</w>
ከማሳ ደግ</w>
ዓረ ፍተ</w>
ታጅ ቦ</w>
የፌዴራ ልና</w>
የፌዴራ ሊዝም</w>
አስችሎ ታል</w>
ሬስቶራ ንት</w>
0 7</w>
o u</w>
u t
ሆ ሳ
ለ ወደፊት</w>
ለ ሥራው</w>
ሊ ያም</w>
ሊ ቨር
ሊ ታወቅ</w>
መ ሩት</w>
ራ ቢ</w>
በ ጉባዔው</w>
በ ፓርኩ</w>
በ ጻፈው</w>
ብ ስብ
ቪ ች</w>
ተ ሹ
ተ መረ
ነ ካው</w>
ከ ገንዘብ</w>
ካ ገኙ</w>
ካ ደረግ
ዘ በኛ</w>
ጣ ቸውም</w>
ፆ ችን</w>
እንደ ቆ
እንደ ተመ
እንደ መሆናችን</w>
በመ ገኘ
እንዲ ጠናቀቅ</w>
ለማ ትረፍ</w>
በማ ሰ
በማ ለፍ</w>
በአ ሥራዎቹ</w>
መስ ማ
ስተ ኛውን</w>
መሰ ሉ</w>
ማስ ጠበቅ</w>
የሚያስ ገኘው</w>
ገንዘ ብን</w>
በስ ዊ
ልጆ ቼን</w>
የበ ጋ</w>
የሚሰ ማ</w>
ከማ ለ
ፈቃ ዱን</w>
የጥ ፋ
የጥ ሬ</w>
የጥ ቅም</w>
ቀጠ ለች</w>
አንደ ኛውን</w>
ተዳ ምሮ</w>
ዕው ነት</w>
እኩ ለ</w>
አራ ዊት</w>
ተው ኔ
እንቅስቃሴ ና</w>
ገረ መው</w>
አዘ ዘ</w>
ይል ቃል</w>
በፊ ልም</w>
የዓ ባይ</w>
የሚወ ድ</w>
ሐኪ ሙ</w>
የሚገባ ን</w>
ደበ ቅ</w>
ንግግ ሮች</w>
የተጣ ራ</w>
ግጭ ቶችን</w>
እንደሚያስፈል ገው</w>
የሆ ድ</w>
ተወስ ዷል</w>
ማህበራ ትን</w>
ተረጋግ ጦ</w>
የመድ ብለ</w>
መለሰ ለት</w>
የጻ ፈው</w>
የሚናገ ረውን</w>
መተላለ ፊያ</w>
2 2
7 ኛው</w>
ለ አባ
ለ ሽያጭ</w>
ሊ ስት</w>
መ ፈረ
ሚ ል
ራ ዎችን</w>
ሰ ግ
ሰ ረ</w>
በ ሥጋ</w>
ቸ ውስ</w>
ች ላቸው</w>
አ ቻ
ኦ ክ
ከ 16</w>
የ ኳስ</w>
የ ሊግ</w>
የ ህዝቦች</w>
የ ሃገሪቱ</w>
የ ዜግነት</w>
ጐ ል</w>
ጥ ኩት</w>
ጪ ውን</w>
ጭ ም
የሚ ተላለፉ</w>
የተ ስፋ
እንዲ ያውቅ</w>
ያስ ታወቀው</w>
ከተ ጠናቀቀ</w>
የአ ሉ
የሚያ መላክ
ምር መራው</w>
ምር ምርና</w>
ኢን ስትራ
ሲያ ችን</w>
ይገ ኙ</w>
የት ግ
በግ ላቸው</w>
ከአ ዋ
ዜጎ ቻችን</w>
አያ ችሁ</w>
እውነ ታዎች</w>
እንዳል ነበር</w>
ለማሳ ለፍ</w>
አረ ቄ</w>
ከፋ ዩ</w>
የእር ሱ</w>
ጨም ሩ</w>
ብቃ ቱን</w>
መሬ ቶች</w>
ተመር ቀው</w>
የጣ ሊያ
በነገ ው</w>
አክብ ረው</w>
የሚለ ውም</w>
ትሪ ሊዮን</w>
የማስተካከ ያ</w>
q u
ሂ ስ</w>
ሊ ሰጡ</w>
ል ሳን</w>
ሕ ብረተሰብ</w>
ሚ ዋ</w>
ሚ ናውን</w>
ሞ ችም</w>
ቆ ሟል</w>
በ 6</w>
በ 13</w>
ባ ይች
ብ ቱ</w>
ተ ማ</w>
ነ ክ
አ ያስደ
እ ያስተ
ከ አማራ</w>
ክ ብርን</w>
ው በ
የ ሄደው</w>
ያ መነ
ዳ ሽን</w>
ጋ ቸውም</w>
ጢ ፋ
ጰ ያ</w>
ፆ ታዊ</w>
የተ ወዳ
የተ ነገረ</w>
በተ ጀመረው</w>
የመ ኸር</w>
ያለ ህን</w>
ወጣ ል</w>
ክል ክል</w>
ኢን ስፔ
ከሚ ባለው</w>
ተመ ቻች
ልጆ ችና</w>
የት ምክህ
የበ ዛበት</w>
በት ላልቅ</w>
ስራ ና</w>
አድ ጎ</w>
የው ሀ</w>
ጀም ስ</w>
ፈረን ጆቹ</w>
የፀ ጉር</w>
ተው ኛል</w>
ጉብኝ ቱ</w>
መመር ያው</w>
ኮርፖ ሬት</w>
የአል ሸባብ</w>
ተሞክሮ ዎችን</w>
ጥንካ ሬ
የሚጫወ ተው</w>
የትር ጉም</w>
ሬዲዮ ና</w>
እንዳይመስ ላችሁ</w>
አልዓ ዛር</w>
1 10</w>
8 ን</w>
l d</w>
ለ ሱ</w>
ለ እግር</w>
ለ ደቡብ</w>
ሜ ካ
ሞ ር
ሞ ግ
ሩ ዋቸው</w>
ሮ ጠ</w>
ሲ ችል</w>
ሲ ሞክሩ</w>
በ ጆ
በ የተ
በ ክለቡ</w>
ቡ ባቸው</w>
ባ ለም</w>
ብ ብ</w>
እ ቅዱን</w>
ከ የካቲት</w>
ከ በርና</w>
ካ ረ
ክ ሪት</w>
ው ጡ</w>
ዕ ገዳ</w>
ዘ ንና</w>
የ ጋዜጠኞች</w>
የ ሄደ
ዩ ኔስኮ</w>
ያ ነገ
ይ መጣ
ዱ ሮ</w>
ጋ ለ</w>
ጭ ር
የተ ተረጎ
ለመ ገናኛ</w>
ለመ ምሰል</w>
በተ ባሉ</w>
የማ ልማት</w>
የም ህ
መለ ሱም</w>
አል መሰ
ጉዳ ይን</w>
ወጣ ትና</w>
ወደ ሆነው</w>
አር ቆ</w>
አው ሎ</w>
ፍት ህና</w>
መጥ ራት</w>
ኃላፊ ነታቸው</w>
ደን ታ</w>
የደ ብረ</w>
ማኅ በረሰቡ</w>
ተፈ ታ
የነ ቃ</w>
አጋጣ ሚው</w>
ለም ሣሌ</w>
ስኬ ታማነት</w>
መሸ ጋገ
የቦ ክስ</w>
ፌደ ሬሽ
የሚለ የው</w>
ይፈጥ ራሉ</w>
ይመ ራል</w>
አካባቢ ዎችም</w>
ጓደኞ ቿ</w>
መልዕክ ቶች</w>
መብራ ቱ</w>
ምርመራ ና</w>
ከመካከ ላቸው</w>
ካራ ቴ</w>
ኤልሳ ዕ</w>
ህብረተሰ ቡም</w>
እንደሚጠበቅ ባቸው</w>
ኤርፖር ቶች</w>
ህ ልማ
መ ዝግ
ማ ግባት</w>
ሴ ሎች</w>
ቅ ል
በ ሃሳብ</w>
ቢ ደረግም</w>
ባ በት</w>
ከ አካባቢ</w>
ከ እግር</w>
ከ ሥነ</w>
ከ ህግ</w>
ኪ ፕ
ዌ ት</w>
የ ወደፊ
ይ ኽ
ጠ ሉ</w>
ጡ ትና</w>
የተ ላለ
በመ ከራ</w>
በተ ማሪዎች</w>
ለማ ነጋገር</w>
በአ ጥ
እየ ባ
እየተ ባሉ</w>
በር ሱ</w>
አባ ል
ከመ ናገር</w>
ባህ ሎች</w>
ቅረ ብና</w>
ድም ፅ
ተሳት ፈው</w>
ተጋ ብ
የያ ዙትን</w>
ግዴ ታውን</w>
ቆር ቆሮ</w>
የተሳ ትፎ</w>
የነበረ ውና</w>
ይበ ላል</w>
ገነዘ ቡት</w>
የተከሰ ተ</w>
አዘጋጅ ተው</w>
ኬንያ ና</w>
በዳ ኝነት</w>
አስተባባ ሪው</w>
ይሉ ኝታ</w>
የሚደግ ፍ</w>
በማለ ዳ</w>
አሳታ ፊ</w>
መስህ ብ</w>
የተካሄ ደውን</w>
ተሀ ድሶ</w>
ቂር ቆስ</w>
4 50</w>
ሉ አላ
ላ ህ</w>
መ ከተ
ሚ ል</w>
ሸ ል
ቃ ኘት</w>
በ ሳ</w>
ከ ሙ
ዷ ት</w>
ግ ልን</w>
ጭ ቷል</w>
ፆ ታዎች</w>
የሚ ለው
የተ ቸ
የተ መራ
የመ ቀበል</w>
እንደሚ ሰጡ</w>
የማ ዘውተሪያ</w>
እየ ቀረ
ተሰ ጠ</w>
እየተ ዳ
በረ ቂቅ</w>
እንዲያ ቀርብ</w>
በት ርፍ</w>
ደራ ጅ</w>
በእ ሷ</w>
የህ ሊና</w>
ከማ ዕ
በግ ቢው</w>
ባይ ባልም</w>
ማለ ፊያ</w>
በሽ ር</w>
ፓርቲ ውን</w>
እንደማ ይገባ</w>
ቡድ ንም</w>
አፈ ታት</w>
አቅጣ ጫዎችን</w>
ብርሃ ኔ</w>
አልነበረ ኝም</w>
እኛ ንም</w>
ያቀረ ቡ</w>
በኢ ፌዴሪ</w>
መምጣ ታቸው</w>
አጣ ዳፊ</w>
መቀመ ጫውን</w>
አለመሆ ናቸውን</w>
ናው ቀው</w>
ተጎ ጂ</w>
መሥራ ች</w>
በአደ ራ</w>
የተሳተ ፉት</w>
ረከ ቡ</w>
ከበረ ውን</w>
መሰጠ ቱ</w>
አስፍ ሯል</w>
ተሃ ድሶው</w>
ታገኛ ለህ</w>
ተፋሰ ሶች</w>
ለጎ ንም</w>
ለ ር
ላ ጅ</w>
ማ ረ</w>
ም ታ
ሰ ዉ</w>
ሽ ቆ
ቀ ራረብ</w>
በ ወረ
በ ህዝቦች</w>
በ አንደኛ</w>
ባ ደረግ
ቦ ክስ</w>
ቫ ን
ተ ፊ
ቱ ር
ነ ትንም</w>
ኑ ንና</w>
ከ ቶ
ከ ሥር</w>
ከ ሁለተኛው</w>
ከ ሶማሊያ</w>
ኮ ማ</w>
ዋ ጭ</w>
ዜ ማው</w>
የ እስር</w>
የ ሁላችንም</w>
ያ ዳግ
ገ መገ
ጥ ሉ</w>
ጸ ልዩ</w>
እን ሰማ
እን ረዳ
ለማ ው
ድረ ገጽ</w>
እንደሚ ኖርባቸው</w>
እንዳ ና
አል ሞ
አል ፎ
በሚ መስል</w>
አይደ ለ</w>
ሆነ ውም</w>
አመ ጽ</w>
ተከ ል</w>
ተከ ስተ</w>
ተግባ ራቸውን</w>
ተቀ ጥሮ</w>
እግ ራቸው</w>
ይዘ ቱ</w>
ፈጥ ር
ፕሬዚዳን ቱን</w>
ከአ ሜሪካ
ማር ኬት</w>
በመስ ክ</w>
እስካ ሁኑ</w>
እንግሊ ዞች</w>
የኢ ራቅ</w>
የኢ ስላሚክ</w>
በገ ነት</w>
ተሸ ል
ወሳ ኝነት</w>
አጠና ቀው</w>
ልጅ ህ</w>
በሳ ቅ</w>
ከፊ ታቸው</w>
አድራ ሻቸው</w>
ጋገ ረ</w>
መሬ ትና</w>
የሸ ቀ
ክራ ሲያዊ</w>
የጉ ምሩክ</w>
ተዘጋጅ ተው</w>
እርምጃ ው</w>
በዛ በት</w>
ለመሸ ጋገር</w>
ከደ ነ
የመነ ሻ</w>
ተአም ራት</w>
ምሰ ሶ
በአራ ተኛው</w>
ድክመ ቶች</w>
ይቀበ ላል</w>
ተሻሽ ሎ</w>
ጣዖ ት</w>
ነግረው ናል</w>
ወንዳ ፍራሽ</w>
ትንቅን ቅ</w>
2 ለ1</w>
A f
ሊ ወስ
ሌ ኒ</w>
መ ፈጠሩ</w>
ሰ ኝነት</w>
ሰ ቢያው</w>
ቆ ምና</w>
በ ሐሳብ</w>
በ ግንባታው</w>
ባ ርነት</w>
ባ ካሄዱት</w>
ቴ ት</w>
ት ሰጣ
ቶ ለት</w>
ከ ቤተሰ
ከ ራው</w>
ከ ችግሩ</w>
ካ ላችሁ</w>
ዝ ዝ</w>
የ ወሰን</w>
ያ ፈራ
ይ ሞክ
ግ መ
ግ ስና</w>
ፀ ጋ
ፖ ር</w>
የሚ ገልጸ
እንደ መሆኗ</w>
አን ኳር</w>
አን ፈልግም</w>
በመ ነሳ
ደረ ገባቸው</w>
የመ ገን
በማ ጎልበት</w>
የአ ቅርቦት</w>
አል ቆ</w>
አካ ቶ</w>
እያ ለ
እያ ልክ</w>
እያ ቀረበ</w>
እያ ቀረቡ</w>
አገል ገ
የሰ ለ
ረጋ ል</w>
ሀገ ርን</w>
ተቀ ብለዋል</w>
ክር ም</w>
ተማ ሪዎችና</w>
የግ ልና</w>
የስ ም</w>
የስ ጋ</w>
ጠብ ቃቸው</w>
የገ ዳ</w>
የው በት</w>
ወንድ ሙን</w>
ፈረን ጆች</w>
ሙዚ ቃዎች</w>
ተጫዋ ቹ</w>
ተሸ ና
የሕ ብረተሰብ</w>
መገ ምገም</w>
መግባ ታቸው</w>
ቋንቋ ውን</w>
የፍ ጥረት</w>
ገጠ ማቸው</w>
የአገ ሩ</w>
አውቶ ሞ
መሰብ ሰቢያ</w>
ጽና ናት</w>
ያስታወ ሰው</w>
እጥረ ቱ</w>
ውቅ ያኖስ</w>
አተኩ ሮ</w>
እየተጫወ ተ</w>
ሶፍት ዌር</w>
ውብ ሸት</w>
ሙጋ ቤ</w>
በየካ ቲት</w>
u c
ለ ተግባራ
ማ ቋረ
ቂ ጣ</w>
በ ሳይንስ</w>
በ ትምህርትና</w>
ቢ ያው
ተ መለከተ
ት ክ</w>
ቶ ባቸዋል</w>
ን በትን</w>
ከ ገባ
የ እያንዳንዱ</w>
ዱ በትን</w>
ዲ ያና</w>
ጥ ፍ
የሚ ባሉትን</w>
የተ ፈ
የተ ሞላ
የመ ጋ
የመ ቶ</w>
መስ ፈን</w>
በሚ ኖሩበት</w>
በሚ ፈቅደው</w>
እስ ረ
እያ በረከተ</w>
ሳይ ነት</w>
ከፍ ቷል</w>
ገንዘ ባቸው</w>
በየ ቤቱ</w>
ለው ጡን</w>
ማን ነታቸውን</w>
የበ ዛ</w>
በጥ ቅም</w>
በታ ለች</w>
ሰጥ ቶታል</w>
ተነ ስተን</w>
መድ ቦ</w>
የራ ሴ</w>
መቻ ላቸው</w>
ስለመ ኖሩ</w>
እንደሌ ለ
ትስ ዋና</w>
ይፈ ታል</w>
የዚ ያኑ</w>
መዋቅ ሮች</w>
የአፈ ፃፀም</w>
የእና ቶችና</w>
የማጣ ራት</w>
ተዓ ምር</w>
ag e</w>
ግሎ ባል</w>
ቡላ ንስ</w>
ህ ግን</w>
ህ ንና</w>
ለ ደቀ</w>
ም ጥ
ራ ች</w>
ሰ ገድ</w>
ስ ኳ
ስ ሰማ</w>
በ ጸ
በ ቡድኑ</w>
ቡ ኝ</w>
ባ ሻ</w>
ታ ምና
ኖ ሯቸው</w>
አ ጭ
እ ጦ
እ ሞክራ
ከ ወደ</w>
ካ ለም</w>
ዓ ተ</w>
ያ ራ
ይ ጠየ
ጅ ም
ጽ ፎ</w>
የሚ ፈጸመው</w>
እንዲ ጠብቁ</w>
ለማ ረም</w>
የመ ግባት</w>
ከተ ረጋገጠ</w>
የአ ጥ
በአ ፍ</w>
አል ሚ</w>
ችግ ራችን</w>
ስተ ዳ
ዳን ት</w>
ታሪ ኮችን</w>
ግንባ ታዎችን</w>
የምት ል</w>
እንዳይ ቀ
የእ ቅድ</w>
ስን ሄድ</w>
ተወ ልዶ</w>
ስለሚ ችሉ</w>
ተነ ካ</w>
ፓርቲ ም</w>
ጥያቄ ዎችና</w>
ተዳ ደሩ</w>
መላ ከት</w>
ባሻ ገርም</w>
መለከተ ውን</w>
የተወሰ ነውን</w>
ምድ ሪቱን</w>
የፀ ጥታው</w>
ወድ ቁ</w>
ያስረዳ ው</w>
መገኘ ታቸው</w>
የሚያስች ላቸው</w>
ወጪ ና</w>
ተጓ ዥ</w>
የኪ ነጥበብ</w>
ከተሞ ችም</w>
ያረጋገ ጡት</w>
ዩኒቨርስቲ ዎች</w>
በአመራ ር</w>
ከመነ ሻው</w>
ሰንጠረ ዥ</w>
መቀዛቀ ዝ</w>
ይይዛ ሉ</w>
ሁ ል</w>
ሄ ድና</w>
ለ ዛ</w>
ለ 3</w>
ለ ኢህአዴግ</w>
ል ህም</w>
መ ቋቋ
መ ቁጠ
ማ ገልገ
ሳ ቸውና</w>
ሽ ኖች</w>
ቅ ባቸው</w>
በ ዐ
በ ገባ
ብ ቃ</w>
ነ ሪ</w>
አ ጭበር
ከ መጠበቅ</w>
ኩ ለት</w>
ው ጥ</w>
የ ፒ
ዳ ባ</w>
ድ ሮም</w>
ድ ሆች</w>
ጌ ም</w>
ጎ ፋ</w>
ጐ ራ</w>
ፅ ያን</w>
የማ ሰ
ሳይ ጨምር</w>
አለ ባችሁ</w>
ዘመ ዶች</w>
ህዝ በ</w>
የሰ ለጠኑ</w>
ጠቅ ስ</w>
በስ ብ</w>
ኢየሱ ስና</w>
ማን ኛ
ጥበ ው</w>
የህ ፃ
ፕሬዚዳን ቶች</w>
ስፖር ተኛ</w>
የሚያሳ ዝን</w>
ሻምፒዮ ናዎች</w>
በሚያ ጋጥ
መፍ ጠሩ</w>
መፍ ቀድ</w>
ተጽ ፎ</w>
ጣል ያ</w>
በ199 6</w>
በ199 8</w>
ጓደኛ ሞች</w>
አንባ ቢ
ተስማ ሙ</w>
ቀይ ሮ</w>
መቁ ጠር</w>
198 3</w>
በአትሌ ቲ
አስከት ሏል</w>
ይመር ጣሉ</w>
ደጀ ን</w>
መፈጠ ሩን</w>
ተዳር ገዋል</w>
ቅንጅ ታዊ</w>
ሄሮ ድስ</w>
p l
ል ቤን</w>
መ ካሄዱ</w>
መ ደንገ
ረ ው
ሮ ቹም</w>
ሲ ምፖ
ቀ ኖች</w>
በ ጠ</w>
በ ባለሙያዎች</w>
በ አንዲት</w>
ብ ክለ
ተ ትና</w>
ኘ ሁ</w>
እ ጆች</w>
ከ ምና</w>
ከ 90</w>
ካ ስትሮ</w>
ዊ ን
ዜ ው</w>
የ ግንባታው</w>
ዮ ት</w>
ዲ ፈ
ዲ ስኩ
እንደ ነበራቸው</w>
እንዲ ጠበቅ</w>
እንዲ ደርሱ</w>
በተ ከናወኑ</w>
ከተ ወሰነ</w>
ነገ ዶች</w>
እንደሚ ኖር
እያ ል
እየተ ደረጉ</w>
መጠ ንም</w>
ህዝ ባ
እና ቶችን</w>
ታው ሰው</w>
በም ሬት</w>
አላ ደረገም</w>
የህ ጻናት</w>
ሚኒስት ሯ</w>
አትሌ ቷ</w>
ስታ ደርግ</w>
የተሰ ባ
ተፈ ቅ
ቀመ ጡበት</w>
በለ ትን</w>
መፍ ሰስ</w>
ጣል ያን</w>
የሚጠቀ ሙት</w>
ብቃ ትን</w>
ካካ ስ</w>
ንብረ ቱን</w>
ይፈጥ ር
ተሽከርካ ሪዎችን</w>
የሰማ ሁት</w>
ተለይ ተዋል</w>
ሲታ ዩ</w>
ትርጉ ሞች</w>
ዘርግ ቶ</w>
የሰፈ ነበት</w>
መውጣ ቱ</w>
ወንድማማ ች</w>
እሰጣ ለሁ</w>
ፍቲ ኔት</w>
ላ ም
ማ ደራጀት</w>
ር ኩበት</w>
ቆ ምም</w>
ቦ ራ</w>
ቪ ያ</w>
ተ ታ</w>
ተ ወሰነ</w>
ታ ችንና</w>
ቸ ኮ
ን ዲስ</w>
ኙ ና</w>
ኤ ልና</w>
ከ ቫይረሱ</w>
ዔ ል</w>
ዛ ዜ</w>
የ ርና</w>
የ ክልሎች</w>
ያ ጠናቀቀው</w>
ዲ ናችን</w>
ጂ ዎችን</w>
ፍ ኩት</w>
የሚ ወሰድ</w>
የተ ደበ
እንዲ ሆንና</w>
ለማ ብቃት</w>
ያስ መዘገቡ</w>
ያስ ወግ
እንደሚ ወስድ</w>
መል ሼ</w>
አል ጄ
አል ኳት</w>
መንግሥ ተ</w>
እየተ ለመደ</w>
ምክንያ ቶችን</w>
ገለ ጥ</w>
ክፍ ለ
ማስ ገባ
ወዳ ለበት</w>
ልጆ ቿን</w>
የማይ ረ
የስ ፔ
ሥልጣ ናቸውን</w>
ደን ቡን</w>
ያላ ነሱ</w>
ቆጣ ቢ</w>
የሙ ን</w>
ለተ ጎዱ</w>
ትምህር ቴን</w>
የቻ ን</w>
ደገ ፍና</w>
ሌላ ኛዋ</w>
መቆ የ
በማን በብ</w>
አንዳ ቸውም</w>
ሀይ ማኖ
ካን ሰ
ኢዮ ዓ
አየ ህ</w>
ያደ ጉ</w>
ዓላማ ም</w>
ጥብ ቅና</w>
ተቋቁ ሟል</w>
በተቀ መጠ
ምሳሌ ዎችን</w>
ከተቀ መጠ
ለተሰ ማሩ</w>
በመጋ ቢት</w>
ዴሞክራሲያ ዊና</w>
e ar
ለ ሕይወት</w>
ለ በዓሉ</w>
ል ትና</w>
ል ኝማ</w>
መ ፈፀ
መ ቃወም</w>
ማ መ
ሣ ይን
ሲ ዳ
ሲ ሉት</w>
ባ ላን
አ ዜ
ከ ሴቶች</w>
ዛ ባ</w>
የ 3
የ ፍልስፍና</w>
የ ብዙዎችን</w>
የ ክርስትና</w>
ያ ድጋል</w>
ዽ ያ</w>
ጋ ዳፊ</w>
ግ ዢ
ጠ ቡ</w>
እን ትና</w>
የሚ መሰ
የሚ ስብ</w>
የተ ተከ
በመ ቁጠር</w>
እንዲ ን
ደረ ስ</w>
የመ ሰብሰብ</w>
ከተ ሸ
አል ፈን</w>
አል ኳቸው</w>
በሚ ወስደው</w>
ዓይ ናቸው</w>
በት ር
አላ ፊ</w>
የህ ዳሴ
የገ ዛ
ማስተ ማሩ</w>
የዘ ገበው</w>
ስድ ስቱ</w>
ከት ዳር</w>
በላ ሸት</w>
ቀም ቴ</w>
ተስፋ ን</w>
ሚያ ውን</w>
ፈራ ም</w>
ሀሳ ቡ</w>
ጠንቀ ቂያ</w>
ማኔ ጂንግ</w>
ተወያይ ተዋል</w>
አበባ ም</w>
ቁን ጮ</w>
አዙ ሪት</w>
ቱሪዝ ምና</w>
አንድም ታ</w>
እንቀጥ ላለን</w>
b y</w>
ለ ጋ</w>
ለ ጦርነት</w>
መ ዘጋ
ማ ደር</w>
ም ስራ
ሬ ትስ</w>
ሲ ገባቸው</w>
ሳ ውን</w>
ሽ ር
ቀ ያ
ቄ ዶ
በ እንደዚህ</w>
ቡ ስ</w>
ቴ ሌ</w>
ኘ ዋለን</w>
ኛ ዬ</w>
እ የመሰ
ከ ጀርመን</w>
የ ለመ
የ ኮንትሮባንድ</w>
ዳ ሪነት</w>
ፊ ቷ</w>
እን ክብካ
የተ ሞሉ</w>
አገ ሯ</w>
በተ ዘጋጀ</w>
ውስ ብስብ
ስለ ቀቅ</w>
እያ ጋጠ
አም ድ</w>
ያለ ንበት</w>
ፈል ገ
ተጠ ቂዎች</w>
የሚያስ ቡ</w>
ተከ ፈ
አሳ ም
አሰ ልጥ
መጥ ረ
የስ ታዲ
እርግ ፍ</w>
ማር ቲን</w>
አፍ ን
ተዋ ጊ
ታማ ኝና</w>
በመስ ኩ</w>
መታ የቱ</w>
የደረ ሱት</w>
ማም ለጥ</w>
ሰን ሰለ
አሰራ ርና</w>
አገልጋ ዮቹን</w>
ታዳ ሚው</w>
አለማ ድረ
ጠር ዝ</w>
ቀላ ጠፍ</w>
የሚስተዋ ለውን</w>
ጉር ሻ</w>
መዘግ ቡ</w>
ጠንቅ ቀው</w>
የተፋ ሰሱ</w>
ተዛ ማጅ</w>
ያደርጉ ታል</w>
ፀባረ ቅ</w>
ግብፃ ውያን</w>
የሚያጠና ክር</w>
መታቀ ዱን</w>
የሚገልጸ ውን</w>
s p
ለ ሴት</w>
ለ ጉዳት</w>
ሊ ጋ</w>
ሊ ገድ
ል ፋት</w>
ሕ ንድ</w>
ሜ ሽን</w>
ም በር</w>
ሞ ዴ
ር ቻ
ሲ ጠበቅ</w>
ሻ ገ
ቁ መት</w>
በ ጃ
ታ ዊውን</w>
ት ታ</w>
አ ድረ
አ ተረ
ከ ራል</w>
ዝ ላይ</w>
የ ዞ
የ አይሁድ</w>
ያ ብ
ያ ደገ
ይ በላ
ድ ሬ
ጥ ቶ</w>
የተ ጫ
የተ ጨማሪ</w>
የተ ፈጸመ</w>
በመ ገምገም</w>
ለመ ገናኘት</w>
በተ ረጋጋ</w>
በተ ገናኘ</w>
የመ ተማመን</w>
የመ ወዳደሪያ</w>
በማ ካተት</w>
ያህ ን</w>
እያ ነ
እር ሾ</w>
መንግሥ ታችን</w>
እየተ ነ
ይወ ዳ
በስ ልጠና</w>
በል ብ</w>
ለሚ ያስ
ከታ ላቁ</w>
እንዳል ነበረ</w>
ልም ዶች</w>
መመ ራት</w>
የጠ ነ
አሠራ ርና</w>
ወታደ ሮችን</w>
ሰን ብ
ሠር ጉ</w>
ሃሳ ብና</w>
ti n
የተሳ ታ
የተሰማ ራው</w>
የፍ ጻሜ</w>
በየት ኞቹ</w>
ሳል ቫ</w>
አካባቢ ም</w>
በአር ብቶ</w>
በጋ ብቻ</w>
199 9</w>
ምራ ች</w>
ማህበራ ትና</w>
ይደር ሳሉ</w>
ምደ ባ</w>
ካሜ ራ</w>
ቻይ ናና</w>
ተፈጻ ሚነት</w>
ሻሽ ል</w>
አስገኝ ቷል</w>
ለሌ ላቸው</w>
አንዳር ጋቸው</w>
ሁ ራን</w>
ለ መንገድ</w>
ለ ትዳር</w>
ም ኩት</w>
ረ ንም</w>
ራ እ
ስ ማን</w>
ስ ያስ</w>
ቅ ጂዎች</w>
በ ወጣ</w>
እ ጠብ
ከ ራቸው</w>
ከ ምድ
ዓ ሳ</w>
ዘ በ
ጂ ን
ጹ ሕ</w>
እን ገነዘ
የሚ ቆጠ
የተ ረዳ
የተ ጠየ
በመ ለወጥ</w>
እንዲ ሠ
እንዲ ከናወን</w>
አገ ሬን</w>
ለማ ሰ
ነገ ሩኝ</w>
የአ ጥንት</w>
የሚያ ምኑ</w>
ምር ጫን</w>
ከና ይ
የግ ራ</w>
የግ ዥ</w>
ጥበ ባት</w>
ብራ ቶሪ</w>
ከተማ ም</w>
ሆኖ ታል</w>
ፍላጎ ቱን</w>
በማስ ቀረት</w>
ምስ ክሮች</w>
ደብ ተር</w>
ስል ሳ</w>
ይቀ መጣል</w>
ግዴ ታቸውን</w>
ሕፃ ናትና</w>
የዓ ረብ</w>
ጥራ ዝ</w>
ሸን ኮራ</w>
ጦር ነቱን</w>
ጓደኛ ዋ</w>
ተዘጋጅ ተዋል</w>
የሚደ ነግ
አመጣ ጥ</w>
ጠናቅ ቁ</w>
የሚሆኑ ትን</w>
ይመለ ሳሉ</w>
ለአን ዴና</w>
ትባ ላለች</w>
ሀ ሰን</w>
ለ ኢየሱስ</w>
ሊ ሄድ</w>
ላ ር</w>
ል ቀው</w>
መ ከሰት</w>
ማ ጌ
ሞ ግዚ
ሪ ን
ሰ ፊና</w>
ሳ ሙና</w>
ሴ ተኛ</w>
በ 25</w>
ባ ዛር</w>
ነ ርስ</w>
ኞ ቹም</w>
አ ዊና</w>
ኡ ዲ</w>
ከ ትና</w>
ከ ላቸው</w>
ከ ሙስና</w>
ክ ብረት</w>
የ ልማቱ</w>
የ ቤተሰቡ</w>
ዳ ሬ
ጭ ካኔ</w>
ፃ ቸው</w>
የተ ጎ
እንዲ ከፍል</w>
ለመ ምህ
በተ ጋ
ለማ ኅ
የመ ሥሪያ</w>
አይ ቻ
በአ ትክል
የማ ለ
ስት መጣ</w>
እየ ፈጠሩ</w>
የሚያስ ረዱት</w>
አገሪ ቱም</w>
ድርጅ ታችን</w>
ተና ነ
ወዳ ት</w>
ፈጥ ርም</w>
እም ነታቸውን</w>
እንቅ ፋቶች</w>
ስን ቱን</w>
አሸ ንፈ
መግለ ፅ</w>
ከረ ች</w>
አቅጣ ጫ
መሣ ሪያ
ተኩ ሩ</w>
ተመር ኩ
ቀና ጀት</w>
ፍቃ ደኛ</w>
ከሌ ለው</w>
ጉባዔ ውን</w>
አብራር ቷል</w>
ሴት ዮ</w>
የተራ ራ</w>
የፈረን ጅ</w>
ኋላ ቀርነት</w>
ምሁራ ኑ</w>
ጐበ ዝ</w>
አፅ ድ
ኢሕአዴ ግን</w>
የሸማ ቾች</w>
ation al</w>
ኮንስትራክ ሽንና</w>
ይቆጣጠ ራል</w>
እንጠይ ቃለን</w>
ለ ተመ
ለ ውድድር</w>
ሊ ወስድ</w>
ሕ ያዋን</w>
መ ጨ
መ ዓት</w>
ሚ ላን</w>
ሱ ልኝ</w>
ሷ ት</w>
በ ቢሊዮን</w>
በ ክፉ</w>
በ ደግነት</w>
ነ ትህን</w>
ና ጋ</w>
ከ ሉት</w>
ከ ሕገ</w>
ከ ቁጥጥር</w>
ካ ክል</w>
ዋ ው</w>
ው ዲ</w>
ው ላችሁ</w>
የ ፌስቡክ</w>
ጉ ላት</w>
ጨ ቋ
ፀ ሎት</w>
በመ ከላከያ</w>
በተ ናገረው</w>
በተ ሰራው</w>
የአ ምል
በአ ክብሮት</w>
መስ ፋፋ
እንዳ ለም</w>
አል ጠ
መሆ ኔ</w>
እስ ከሆነ</w>
ችግ ኞችን</w>
ስተ ውል</w>
መሰ ማራ
ሰብ ዕና</w>
ከሰ ጠው</w>
የስ ምንት</w>
አጋ ሮቹ</w>
ማሳ ተፍ</w>
ተነ ስታ</w>
ፓርቲ ን</w>
የሚች ልበትን</w>
ከበ ድ</w>
መታ ዘ
ኢኮኖሚ ን</w>
ስል ቶች</w>
በገ ፍ</w>
ተወዳ ድረው</w>
ነፍ ሳት</w>
ስደ ተኞቹ</w>
ተው በታል</w>
የብ ሮ
የማህ ፀን</w>
በነ ዋል</w>
አዘ ገ
on e</w>
ዓላማ ችን</w>
ሊቀመን በሩ</w>
ማግኘ ታቸው</w>
በጭ ፍን</w>
የአትሌ ቶች</w>
ጠነ ቀ
ተጎ ጂዎች</w>
ተመዝግ በዋል</w>
ስም ህ</w>
አውሮፓ ና</w>
ይር ጋ
የአዋ ሽ</w>
የአዋ ጁ</w>
ማቆ ሚያ</w>
ይኑ ር</w>
በአቅራ ቢያው</w>
ይወድ ቃል</w>
አጋን ንት</w>
ንቅናቄ ው</w>
እንደሚገል ጹት</w>
ኢንፌ ክሽን</w>
የፋሲ ካ</w>
ካውንስ ል</w>
ሎ ታል</w>
ሚ ናቸውን</w>
ማ ሟ
ማ ኒ</w>
ሬ ታ</w>
ስ ሎ</w>
ሶ ግ</w>
ቅ ኝ
ቆ ችን</w>
በ እነርሱ</w>
ቤ ቴል</w>
ን ት
ኦ ክራሲያዊ</w>
ከ ሴት</w>
ከ እጅ</w>
ወ ራሽ</w>
ዊ ነታቸው</w>
ዓ ድዋ</w>
ይ ዋ</w>
ይ ቆጥ
ዳ ድ</w>
ፀ ጥ</w>
እን የው</w>
የተ ለያ
የተ ከናወነ</w>
እንደ ሚ</w>
አን ዱ
የመ ያ
የመ ፍታት</w>
ከተ ዋ
ከተ ጠ
በማ ተኮር</w>
ችግ ራቸው</w>
ያለ ሁት</w>
በቀ ደም</w>
ውድ ቀ
ዓይ ኔ</w>
ሞክ ሮ</w>
በስ ፔን</w>
አሳ ር
የግ ዢ</w>
በት ሕትና</w>
ፈረ ድ
ስላ ደረ
ማለ ትን</w>
ፓርቲ ዎችም</w>
ቀጠ ልኩ</w>
በዚ ያች</w>
ማስተ ማ
ዋን ጫዎች</w>
አንደ ኛና</w>
የተቀ ዳ
የቀ ዳ
ጥቅ ሱ</w>
እንደሚያ ገኝ</w>
ተረ ጉ
የካ ቶሊክ</w>
አግ ሮ</w>
ናይ ሮቢ</w>
የሚጠ ራ</w>
ነፍ ሰ
አገልጋ ይህ</w>
የአው ቶ
አፍሪካ ው</w>
በመን ገዱ</w>
ሰም ቼ</w>
እየታ ገ
ስብሰባ ውን</w>
የተቋቋ ሙ</w>
የሠ ላም</w>
በሐ ሰት</w>
በየአ ቅጣጫው</w>
ድምፃ ዊ</w>
ከበር በት</w>
ዕብራ ይስጥ</w>
ሳላ ዲን</w>
አውሮፕላ ኑ</w>
ፍልስጤ ማውያን</w>
ቁልቁ ለት</w>
ታዳጊ ዎችን</w>
ፎካከ ር</w>
አጠቃቀ ምና</w>
ከመጋ ቢት</w>
ተፈፃ ሚ</w>
ይከራከ ራሉ</w>
እያስመዘገበ ች</w>
ሀ ምሳ</w>
ለ ወራት</w>
ለ ዴሞክራሲያዊ</w>
ለ በጎ</w>
መ ወለድ</w>
ሚ ዎችም</w>
ሜ ሮን</w>
ሮ በት</w>
ሸ ፍ</w>
ቡ ብና</w>
ቪ ደንት</w>
ን ቅ</w>
አ ወን
ኦ ነግ</w>
ከ ቻሉ</w>
ካ ታ</w>
የ ባለድርሻ</w>
የ ሥርዓተ</w>
ዶ ውን</w>
ፋ ፈ
አን ተነ
እንዲ ነሱ</w>
አይ ሻ
በማ ወቅ</w>
የማ ለፍ</w>
የሚያ ገኙ</w>
የሚያ ነሱት</w>
አል መጣም</w>
እየተ ደረገላቸው</w>
ከፍ ት
አብ ዲ
በቀ ለም</w>
ሥራ ዎችም</w>
ተገ ኙ</w>
በየ ዘርፉ</w>
ሲያ ከናውን</w>
በሰ ሜናዊ</w>
መለከ ትን</w>
በስ ነ
በደ ሴ</w>
ከአ ዳ
የጥ ገና</w>
በማስ መሰል</w>
ሀብ ቱን</w>
ምስ ር</w>
ብል ት</w>
ተያ ይዞ
ጠፋ በት</w>
ለመቀ ላቀል</w>
er s</w>
ይኼ ኔ</w>
አምባሳ ደሩ</w>
or g</w>
የኦ ር
የመረ ጠው</w>
ሥልጠና ና</w>
ማና ቸውንም</w>
ስነ ስርዓት</w>
ባልደረ ባ</w>
ጠባበ ቅ</w>
ስተናገ ዱ</w>
በትራ ፊክ</w>
አስመዝግ ቧል</w>
የማይታ ሰብ</w>
የጀመር ነው</w>
ሪፐብሊ ካን</w>
ፕሮፖ ዛል</w>
ዝንባ ሌ
አስች ሏቸዋል</w>
መዛግብ ት</w>
እሞክራ ለሁ</w>
c om
መ ሮጥ</w>
ም ቢ</w>
ሰ ለ</w>
ሱ ታል</w>
ሲ ኒያ</w>
ቁ ትና</w>
በ 8
በ ኒውዮርክ</w>
ቱ ላ</w>
ት ሰ
ቶ ልናል</w>
ን ሶ</w>
ኝ ህ</w>
አ ደረጉት</w>
ከ 14</w>
ከ አገራቸው</w>
ዛ ዊ</w>
የ ፋብሪካ</w>
የ ድህረ</w>
ያ ሰራ
ይ ሊ</w>
ይ ሞክራ
ዲ ጂታል</w>
ጡ ባቸው</w>
ጣ ር</w>
ጧ ን</w>
ፀ ብ</w>
ፋ ሽን</w>
ፖ ች</w>
የሚ ቀጥለው</w>
የተ መዘገቡት</w>
እንደ ቻሉ</w>
የአ ጋ
የአ ካዳ
ባለ ድርሻ
የማ ረ
አል ደ
ስለ ምና
እየ ጠፋ</w>
አብ ሯቸው</w>
የሚያስ ብል</w>
ብረ ር</w>
ተቋ ረጠ</w>
ያሳ ደ
አሳ ቢ</w>
የግ ሪክኛ</w>
ጠይ ቀ
መደ ብር</w>
ትር ፉ</w>
ፈቃ ድና</w>
ይናገ ር</w>
ተዋ ው
በዘ ፈቀደ</w>
ፈጽ ሟል</w>
ተራ መስ</w>
ሰይ ድ</w>
ስፋ ትና</w>
ወንድሞ ቼ</w>
አሳል ፏል</w>
በሙ ያቸው</w>
እሳ ቸውን</w>
ውለ በለ
መካ ድ</w>
እንድታ ደርግ</w>
ሀሳ ቡን</w>
እናገ ኘዋለን</w>
ሲን ጋ
የስብ ከት</w>
መላእ ክ
በእግ ሩ</w>
ur e</w>
እፎ ይ</w>
አለመቻ ሉን</w>
ካድ ሬዎች</w>
የሚነገር ለት</w>
ስው ራን</w>
አልገባ ኝም</w>
አልፈለ ገም</w>
አውስ ተዋል</w>
አተገባ በር</w>
ተሰብ ሳ
ጨቃ ጨ
ግልጋ ሎት</w>
ቶሎ ሳ</w>
እንገነዘ ባለን</w>
5 ን</w>
ለ ጐን</w>
ሲ ጠየቁ</w>
ስ ቅ
ቀ ብ</w>
ቄ ን</w>
በ ኅብረት</w>
ቢ በዛ</w>
ብ ትና</w>
ቦ ር</w>
ቻ ቸውንም</w>
ኦ ህዴድ</w>
ከ ሆ
ከ አገራችን</w>
ከ ቦታው</w>
ኩ ባ</w>
ካ ቢ
ክ ታ
ኮ ና</w>
ወ ገና
ዙ ፋ
ዟ ት</w>
የ ሥር</w>
የ ከፋ
የ 40</w>
የ ሩሲ
ያ ገለ
ይ ሮ
ይ ሰጥ
ደ ሴቶች</w>
ጮ ችና</w>
ፉ በትን</w>
ፒ ንስ</w>
የሚ ወሰደው</w>
የተ ፈፀ
በመ ረዳ
በመ ተማመን</w>
እንዲ ነሳ
መን ገር</w>
ከተ ሳ
የሚያ ገኙትን</w>
ስት ናገር</w>
በር ነት</w>
ዘር ዘር</w>
ሁለ ተኛና</w>
አመ ቻች
ፓር ኮችን</w>
በስ ማቸው</w>
ወስ ደን</w>
የተሰ ና
የገ ፉ</w>
የጥ ላቻ</w>
ምስ ረታ</w>
በላ ሸ
የባ ቢሎን</w>
የጠ ረ
አረ ፍ</w>
አንቀ ጾች</w>
የነበረ በትን</w>
ይበ ዛል</w>
እየመ ረ
ለአ ለም</w>
አሻ ንጉ
በ199 2</w>
ፈተና ዎችን</w>
በተቃ ዋሚ</w>
ar y</w>
ያደ ገው</w>
አሠልጣ ኞች</w>
በመር ህ</w>
ou n
ይሞ ታሉ</w>
ያሳስ ባል</w>
ውሰ ዱ</w>
ልደ ቱ</w>
አሶ ሳ</w>
የምንች ልበት</w>
ማዕከላ ትን</w>
gh t</w>
ተቆርቋ ሪ</w>
እንጠብ ቃለን</w>
ሃ ያ
ለ ግንባታው</w>
ለ ፓርላማ</w>
ለ ንጉሡ</w>
ሮ ችንም</w>
ሲ ባሉ</w>
ቃ ትና</w>
ቆ ማ</w>
ቆ ታል</w>
በ አንድም</w>
ኀ ፍረት</w>
አ ጓ
እ ሽ
ከ አባቱ</w>
ኩ ላቸው</w>
ኮ ስ</w>
ወ ዱ</w>
ው ጥን</w>
ዎ ቿን</w>
ዘ ችው</w>
የ 15</w>
የ ይዞታ</w>
ደ ሙን</w>
ዲ ሪ</w>
ዴ ው</w>
ጠ ቦ
ጠ ቦት</w>
እን መር
የተ ከበ
የተ ውጣ
በመ ገን
እንዲ ጠቀም</w>
እንዲ ሳተፍ</w>
የሚያ ህል</w>
ጉዳ ዮችም</w>
አስተ ር
ሕዝ ቤ</w>
ወደ ቁ</w>
ውጤ ታቸው</w>
ተከ ፈተ</w>
እም ቢ
የማይ ሰጥ</w>
ፕሬዚዳን ትና</w>
ስታ ና</w>
ቀሳ ቀስ</w>
ነግ ራቸው</w>
ፋይ ል</w>
ያስተ ላለፈው</w>
ቀም ጥ</w>
ስለመ ሆኑም</w>
ባለሀብ ቶቹ</w>
ወያ ኔ</w>
th at</w>
ሁላ ችንንም</w>
ቁል ፉ</w>
ሙሉ ነት</w>
የስብ ሰባ
ሰብሳቢ ነትና</w>
ተጉ ዘው</w>
አልታ የም</w>
አያደር ግም</w>
ምዕ ተ</w>
ጡን ቻ</w>
አጠናክ ራ</w>
ግብአ ቶች</w>
ዋሽ ንግተን</w>
ትርኢ ት</w>
መስዋ እ
የማይበ ገር</w>
የአንበሳ ውን</w>
ይሞክራ ሉ</w>
7 ቱ</w>
ሁ ሉና</w>
ሃ ቸው</w>
ለ መ</w>
ለ ውጤት</w>
ለ ቀጣ
ሉ ሲ</w>
ሊ ፈታ</w>
ም ፅዋ</w>
ሞ ቹን</w>
ሩ በትና</w>
ሬ ቻ</w>
ር ህራ
ሮ ዛ</w>
ሲ ንቀሳቀስ</w>
ቁ ራ
በ ሊጉ</w>
በ ፕሮግራሙ</w>
በ ሩዋንዳ</w>
ባ ሉ
ቤ ልዩ</w>
ተ ጨን
ቻ ርድ</w>
ን ባ
አ ና</w>
አ ሮን</w>
አ ጽና
አ ደረገች</w>
እ ሱንም</w>
ከ ዋና</w>
ዋ ንስ</w>
የ ብርሃን</w>
የ ፌዴራሉ</w>
ይ ት
ዶ ክተ
ገ ሰ
ጸ ባርቅ</w>
ፍ ኑ</w>
የሚ ጠየ
በማ ጣት</w>
ያለ ባት</w>
እየተ ቃረ
ምር ታማ</w>
መሰ ለው</w>
ከመ ግለጽ</w>
ዕድ ሎችን</w>
የሚያስ ተ
መር ዶ</w>
ቅር ስነት</w>
ሰራ ተኞችን</w>
የወ ይዘ
መጣ ችሁ</w>
በእ ጃችን</w>
አድ ካሚ</w>
መደ ላ
መብ ዛ
በማስ ረዳት</w>
አክ ሎ</w>
ሰባ ቱ</w>
ግል ገል</w>
አስታው ሶ</w>
ፈር ሱ</w>
የተወሰ ዱ</w>
ቴክኒ ካል</w>
an ce</w>
የሲ ቪክ</w>
ቆጣጠ ርና</w>
ስለሌ ላቸው</w>
ሴን ት
ኪዳ ነ</w>
የመሸ ጫ</w>
እንግሊዛ ዊው</w>
ታስታው ሳለች</w>
ተመሥር ቶ</w>
እየተጓ ዘ</w>
ጨቅ ላ</w>
ለመፍታ ትም</w>
ማዕድ ናት</w>
ተደም ጠዋል</w>
ጠራጠ ርም</w>
የሚንጸባረ ቅበት</w>
o b
ለ ቤተሰቡ</w>
ሊ ካሄድ</w>
ላ በት</w>
ሎ ፕ
መ ከፋፈል</w>
ሚ ናል</w>
ማ የትና</w>
ማ ትረፍ</w>
በ ፌስቡክ</w>
ባ ጭ</w>
ከ ማን
ከ ሁለቱም</w>
ከ 800</w>
ከ መረብ</w>
ው ግ
የ 12</w>
የ ጋዜጠኝነት</w>
የ ጤፍ</w>
ዩ ባቸው</w>
ገ ፀ
ጐ ረቤት</w>
ጠ ራቸው</w>
ጻ ጻፍ</w>
የሚ ጠብቁ</w>
በመ ርዳት</w>
እንደሚ ታየው</w>
መለ ያየ
በሚ ካሄ
እስ ጢፋ
ፈል ና</w>
አቅ ኚዎች</w>
ከመ ደበ
አቀ ንቃ
በስ ድ
ማህ ሌት</w>
የት ናን
ማን ነትን</w>
በት ግል</w>
መጣ ህ</w>
ስር ቆት</w>
አጥ ተዋል</w>
የኤ ችአይቪ</w>
ለመስ ኖ</w>
ተሳት ፏ
የሆነ ን</w>
መመ ሪያው</w>
ልብ ስና</w>
ዕው ቀቱ</w>
ተደ ሰ
መግ ፋት</w>
የዳ ኞች</w>
በውስ ጧ</w>
የሴ ካፋ</w>
በ199 4</w>
የረ ሃብ</w>
ያደ ገ</w>
ግጥ ሚያ</w>
አድርጎ ኛል</w>
የተጣ ለበት</w>
በቁ ጭት</w>
ሴት ዮ
የሀ ዋሳ</w>
ሄዳ ችሁ</w>
ማስረጃ ዎችን</w>
የእና ቶችን</w>
ተቆጣ ጣ
እብ ድ</w>
ይከተ ላል</w>
ማሳደ ጊያ</w>
ተጠን ቀቁ</w>
ባለትዳ ሮች</w>
አትራ ፊ</w>
1 ን</w>
ህ መሙ</w>
ለ ቃ
ለ ድርጅቱ</w>
ለ ድርቅ</w>
ሣ ው</w>
ሲ ስ
ሲ ጫወቱ</w>
በ የት</w>
በ 18</w>
በ ሶማሌ</w>
ቡ ሩ</w>
ኛ ልና</w>
ኦ ማር</w>
የ ታወቁ</w>
የ ሥዕል</w>
ያ ነበብ
ጠ ገቡ</w>
ፃ ል</w>
የመ ለወጥ</w>
ስለ ሆነው</w>
ተሰ ጣቸው</w>
ተሰ ልፈው</w>
ወን በሮች</w>
አገልግሎ ትም</w>
ተገ ቢና</w>
ተነ ፈ
ተነ ስቼ</w>
ሰባ ኪዎች</w>
እንዳል ቻሉ</w>
ስምም ነቶችን</w>
ወጥ ቼ</w>
ቀጣ ጠል</w>
ሰው ነታችን</w>
አሉ በት</w>
ካለ ል</w>
ተስፋ ው</w>
ተጠቅ ሟል</w>
ሐሳ ብና</w>
በኢ ስላሚክ</w>
ደንበ ኛው</w>
ቤተሰቦ ቻቸውን</w>
እል ል</w>
የን ፁህ</w>
የመድ ሃኒት</w>
ተስማም ተዋል</w>
የሚያረጋግ ጡ</w>
አሟ ልቶ</w>
ማስጨበ ጥ</w>
ግድግ ዳው</w>
ከንፈ ር</w>
ያስተም ራል</w>
ከማድረ ጉም</w>
ብዙሃ ኑ</w>
ተሠር ቷል</w>
ሬድ ዮ</w>
መኮን ኖች</w>
ህንፃ ዎች</w>
አመስጋ ኝ</w>
ሴኔ ጋል</w>
ብርቅ ዬ</w>
L i
a r</w>
p o
ላ ው
ሥ ልት</w>
ር ቁ</w>
ስ ሕ
ስ ፓ
ቀ ማ
በ 40</w>
በ ድንበር</w>
በ ድርድር</w>
በ ወቅታዊ</w>
ተ ፈጸመ</w>
ቲ ያትር</w>
ነ ታቸውና</w>
ነ ስተኛና</w>
አ ፉ</w>
እ ያስተናገ
ከ አይ
ከ ታሪክ</w>
ዊ ነቱን</w>
ዕ ጦት</w>
የ ውስ
የ ሊጉ</w>
የ ቅርስ</w>
ጭ ተው</w>
የሚ በረታታ</w>
የተ ፈቀደ
እንዲ ደር
እንዲ ቀር</w>
መን ታ</w>
ምክ ርና</w>
ጉዳ ቶች</w>
እያ ደረግ
እየ ደረ
ምር ቶቻቸውን</w>
ሕዝ ቦችን</w>
ቀር ተው</w>
ግብ ፅና</w>
ታው ቁ</w>
በስ ታዲ
ከሰ ሃራ</w>
አድ ሃ
ብራ ና</w>
ስሜ ቶች</w>
ቆይ ተናል</w>
በህ ብረት</w>
ቁጥ ጥሩ</w>
ወንድ ወሰን</w>
የሙ ሽ
የጎ ረቤት</w>
ዋነ ኞቹ</w>
የቀረ ውን</w>
ተወዳ ጅ
ነፍ ሱ</w>
ችሎ ታው</w>
በሚያ ገኙት</w>
የእር ሳቸው</w>
ፕሪ ም
ትራንስ ፎር
መደረ ጉንም</w>
የተን ጸባረ
ኃጢአ ተኞች</w>
ተገንዝ በው</w>
ዋጋ ውን</w>
አልሸ ሸ
ሌሊ ሳ</w>
ምርመራ ውን</w>
ተለው ጦ</w>
ይወር ዳል</w>
አሌ ክ
የሚከሰ ተውን</w>
ብዝሃ ነት</w>
እመር ታ</w>
2 ለ0</w>
ለ 2
ለ ራሳችን</w>
መ ጡበት</w>
ማ ጨ
ማ ቆየት</w>
ስ ታል</w>
ቅ ሪ
በ ወረዳ
በ ሐዋሳ</w>
ቢ ዩ</w>
ቻ ለች</w>
ች ልና</w>
ች ልበት</w>
ኢ ቴቪ</w>
ከ 7</w>
ከ እነ
ከ ፌዴሬሽኑ</w>
ከ ክለቡ</w>
ኮ ችና</w>
የ ዕለቱ</w>
ይ ፈለ
ይ ሠራ</w>
ጌ ጤ</w>
ጸ ና</w>
ፈ ቅድ
የሚ ሉና</w>
በመ ጣል</w>
በመ ተን
ለመ ዳን</w>
አይ ሆኑም</w>
በማ ንም</w>
አል ረሳ
እየ ኖሩ</w>
እየተ መራ</w>
ይወ ሰናል</w>
ክፍ ላ
ሕዝ ብም</w>
ከመ ምህ
የሰ ራው</w>
ውጤ ትን</w>
በየ ሁለት</w>
የሚገ ዛ</w>
ያው ቁታል</w>
ገበ ያዎች</w>
ልጆ ቻችሁን</w>
እንግ ዲ
ለሚ ቆጠሩ</w>
በእ ጄ</w>
የህ ብረቱ</w>
ወስ ጥ</w>
በራ ሪ</w>
ይሄ ኛው</w>
ያዘ ች</w>
የቻ ለችው</w>
ፈፀ ሚያ</w>
አስረ ግ
አገራ ትና</w>
ti on
ስና ስብ</w>
በጉ ር
የፍ የል</w>
ለዋ ወጡ</w>
ይኼ ም</w>
ጦር ነትን</w>
መጽሐ ፋቸው</w>
ግጥ ሙ</w>
የአባ ቱን</w>
ዘወ ት
ስፔ ሻላይ
ስም ዖን</w>
ከዋ ክብ
የከተማ ውን</w>
ተአም ራዊ</w>
እንዳይገ ባ</w>
ምርም ሮችን</w>
ልዕ ልና</w>
ካፒታ ሊዝም</w>
እየጎ ለበተ</w>
የሙስ ሊም</w>
ስተናግ ደው</w>
የሕን ፃ</w>
1 ሺ
w it
ለ ዛሬው</w>
ሒ ልተን</w>
መ ቁ</w>
ሙ ታል</w>
ማ ትን</w>
ማ በርከ
ሞ ቶ</w>
ሞ ሐመድ</w>
ረ ዱን</w>
ሰ ሊጥ</w>
ቅ ሉ</w>
ቋ ቸዋል</w>
በ ጠበ
በ ሕዝቦች</w>
በ አገራዊ</w>
ቡ ናና</w>
ቭ ዥን</w>
ተ ለጥ
ች ት</w>
ኑ ኝ</w>
አ ከባ
እ ለቱ</w>
ከ እውነት</w>
ኮ ር</w>
ኾ ነ</w>
ዛ ዛ</w>
የ ቴሌኮም</w>
ይ መለከተ
ዲ ቅ</w>
ጀ ምርም</w>
ጅ መን
ጪ ም</w>
ፈ ተን</w>
እንደ ጀመረ</w>
ለመ ደም
ለመ ወያየት</w>
አይ ሁን</w>
ያስ ፈለገው</w>
መስ ሎት</w>
መስ ፈሪያ</w>
የም ና</w>
መለ ኪ
ጀመ ር
ለያ ቸው</w>
የሰ ፈሩ</w>
ዘር ፈ
ዕድ ልን</w>
አደ ሮችና</w>
ያል ተመ
ፈጠ ን</w>
ተገ ምግ
በል ዩ
እም ነትን</w>
አላ ገኙም</w>
ቀበ ሮ</w>
የታ ቀደው</w>
ከማ የት</w>
ያላ ሰለሰ</w>
የው ይይቱ</w>
ጠናቀ ቅም</w>
ትምህር ቶችን</w>
ሜዳ ልያ
የሚያሳ ል
የሽ ንት</w>
ተራ ራማ</w>
ስርዓ ቶች</w>
ቤተ መንግስት</w>
ደጋግ ሜ</w>
ተነሳ ስቶ</w>
በአካባ ቢ
ይጠብ ቃሉ</w>
ሜት ሮች</w>
እንቁ ጣጣ
ልባ ም</w>
ጠናከ ሪያ</w>
በመሠረ ተ</w>
ተገን ብተው</w>
ፈነ ዳ</w>
የዛሬ ውን</w>
ርቀ ቶች</w>
እየተሸ ጠ</w>
አሶሴ ሽን</w>
አንተነ ህ</w>
9 ኛ</w>
ለ ኪ
ለ ለውጥ</w>
ለ 10</w>
ለ ጥያቄ
ለ አዲሱ</w>
መ ወሰኑ</w>
መ ኢአድ</w>
ሙ ሴ
ሙ ላ</w>
ማ ቸውና</w>
ሞ ኝነት</w>
ሠ ፈ
ረ ቱን</w>
ሱ ትም</w>
ሶ ታል</w>
በ ሆነ
በ ወጪ</w>
በ ዓይነቱ</w>
በ ነፍስ</w>
በ ፈቀደ</w>
ቱ ር</w>
አ ስ</w>
አ ቪዬሽን</w>
እ ዝ</w>
ከ ገጽ</w>
ኬ ክ</w>
የ ፍትሐ</w>
ዩ ንቨር
ጉ ትና</w>
ጉ ንና</w>
ጠ ለ
ጦ ቢያ</w>
ፋ ንታ
እን ስት</w>
የሚ ጠብቅ</w>
የተ ጠናቀቀ</w>
እንደ ሱ</w>
አስ ቻለው</w>
የመ ከራ</w>
አይ ተን</w>
ያስ ቻለ</w>
ከተ ራ
እንደሚ ጀመር</w>
እንደሚ ሳተፉ</w>
ተሰ ርቶ</w>
ያለ ቀ
በር ታ</w>
ንግ ስት</w>
ተገ ባ</w>
አስተዳ ደግ</w>
ክለ ቦችና</w>
ይዘ ል
እንግ ዳ
በደ ማቅ</w>
የለ ምና</w>
ስሜ ን</w>
ቡድ ናቸው</w>
ቡድ ንና</w>
ከር ካሪ</w>
ተፈ ና
ስልጣ ናቸውን</w>
መታ ገ
ብል ስቶን</w>
የጎ በ
የደረ ሱበት</w>
የምና ው
ማራ ለን</w>
ይቀ ራሉ</w>
በበ ጋ</w>
በመን ከባከብ</w>
እያደ ጉ</w>
በባ ቢሎን</w>
ይረዳ ቸዋል</w>
ይደ ሰ
መመር መ
አደጋ ዎችን</w>
አዝ መራ</w>
የዚ ካ</w>
የሕዝ ብና</w>
ያስፈልጋ ሉ</w>
አስከባ ሪዎች</w>
አምጥ ቷል</w>
የሚቀር ቡት</w>
አስተላል ፏል</w>
ሥዕ ሉ</w>
ትው ፊ
በማግኘ ቱ</w>
የመሠ ረት</w>
ያስተናግ ዳል</w>
ዲቯ ር</w>
ፈይ ሳ</w>
ታዲያ ላችሁ</w>
ይሞክ ራል</w>
ርቻ ሮ</w>
ለ ነበሩ</w>
ለ ስምንት</w>
ላ ሞች</w>
ል በ</w>
ሠ ዓሊ</w>
ር ቃ</w>
ሳ ምራ
ቄ ም</w>
በ ኔ
በ 14</w>
ቶ ሊ
አ ኪ
ኤ ዲ
እ ራስን</w>
ከ 35</w>
ው ይ</w>
የ አስር</w>
ያ ዘጋጁት</w>
ይ ቱን</w>
ይ መር</w>
ይ ቃወ
ዱ ትና</w>
ዲ ቱ</w>
ድ ኑ</w>
ጉ ል</w>
ጋ ሻው</w>
ፋ ን
እን ማራለን</w>
የሚ ከናወ
የሚ ፈጽሙ</w>
የተ ከናወ
የተ ጠናቀቀው</w>
በመ ዘዋወር</w>
እንዲ ወሰድ</w>
የመ ላ
ከተ ለ
ነገ ራት</w>
እንደሚ ጨምር</w>
ተሰ ሎንቄ</w>
በር ግጥም</w>
መጠ ኑን</w>
አባ ወራ
የነበ ሩና</w>
ከሚ ያደር
ሰማ ንያ</w>
ባህ ሪው</w>
ረዳ ና</w>
እድ ሎች</w>
ኃላፊ ዎቹ</w>
ተር ስ</w>
ማዕ ዘን</w>
ግንኙ ነታቸው</w>
መግለ ጻ
ጥቅ ጥቅ</w>
ትውል ድን</w>
ንቀሳ ቃሽ</w>
ti c
ብስ ራት</w>
ብስ ጭት</w>
ቀነ ስና</w>
በማሳ ወቅ</w>
በኢ ሜይል</w>
ማጣ ጣም</w>
የመጣ ችው</w>
በምት ኩ</w>
ቸገ ረ</w>
ዕድገ ትን</w>
ተተ ኪ
የጠቀ ስ
ፍጻ ሜ
የማኅ በረሰብ</w>
የጎደ ላቸው</w>
የሰፈ ረው</w>
ቃጠ ሎ</w>
ምሁራ ንን</w>
በአል ጋ</w>
የሚያነሳ ሳ</w>
በአውሮ ፕላን</w>
መሻሻ ሎች</w>
አብዝ ቶ</w>
ዲፈ ቻ</w>
ለ ሀገሪቱ</w>
ለ ሀገራችን</w>
ላ ችሁን</w>
መ ጎ
ሙ ሳ</w>
ሙ ያዎች</w>
ማ ግለ
ም ድርና</w>
ሩ ለት</w>
ራ ዬ</w>
ሶ ፍት</w>
ቀ ስቃ
በ ውጤት</w>
በ ከፈ
በ ክርስቲያን</w>
ቦ ታል</w>
ቱ ሬ</w>
ታ ንያ
አ ሰማ
ከ ሜዳው</w>
ኮ ርያ</w>
ዋ ብ</w>
ዕ ል
ዘ ች</w>
ዱ ታል</w>
ጠ ልጠ
ጣ ሚው</w>
የተ ፈለገውን</w>
አን ቱ</w>
በመ ደራጀት</w>
እንዲ ከፍሉ</w>
የመ መ
በአ ምስ
እንደሚ ቀጥሉ</w>
የሚያ ከብ
አል ወጣ
ጉዳ ያችን</w>
ክል ሉን</w>
እው ቀቱ</w>
ሲያ ገለግሉ</w>
ሲያ ጋጥም</w>
ተቀ በሉ</w>
እግ ሬ</w>
የታ ችኛው</w>
የማይ ሆን</w>
ማሳ ሰቢያ
ማዕ ድ</w>
ስን መለስ</w>
ቀሳ ውስ
ይታ ዘ
መነ ሻና</w>
መኖ ርን</w>
በህ ገ
ስልጣ ንን</w>
ሰው የውም</w>
ስል ኩ</w>
በቅ ደም</w>
ግለሰ ቡን</w>
ጠራ ጠር</w>
አሠራ ሩ</w>
አሠራ ርን</w>
ባረ ሩ</w>
ተደ ማ
አዘ ዋዋ
ልቦ ለ
መጠየ ቁ</w>
ፊል ሞችን</w>
በ199 3</w>
ፍቅ ሬ</w>
እሳ ቱ</w>
መፃ ህፍት</w>
ግልጽ ነትና</w>
ሽልማ ቶች</w>
የሚያከናው ነው</w>
በማዕ ከላዊ</w>
ሦስ ቱን</w>
አወጣ ጥ</w>
ተሳታፊ ዎቹ</w>
ጎብኝ ተዋል</w>
ታደርጋ ለህ</w>
የተበላ ሸ</w>
መገባ ደጃ</w>
የካህ ናት</w>
5 0ሺ</w>
ሀ ለሁ</w>
ለ ምና
ል ጠው</w>
ል ታስ
መ ኝ
መ ደራጀት</w>
ሙ ል
ማ ፅ
ማ ሊ</w>
ሠ ለ
ቀ ኛል</w>
በ ባለ
በ ሆቴል</w>
በ ዳዊት</w>
በ ሌላኛው</w>
በ ከፋ</w>
ቢ መጣም</w>
ብ ጦ</w>
ቦ ሽ</w>
ተ ዘዋዋሪ</w>
ቱ ቦ</w>
ታ ሪ</w>
ቸ ን</w>
ቻ ዎችን</w>
ከ 8
ከ እርሳቸው</w>
ዛ ፉ</w>
የ ዋስትና</w>
ጐ ራ
ጣ ጠር</w>
ጥ ባቸው</w>
የሚ ቀረ
የሚ ጠብቀው</w>
የተ ደረጉት</w>
በመ ሰማራት</w>
ነበ ቡ</w>
ለመ ብላት</w>
በማ ድ
የአ ዲ
የአ ብርሃም</w>
ባለ ፈም</w>
እንደሚ ጠይቅ</w>
የማ ሻሻል</w>
መል ከ</w>
መስ ማማት</w>
መለ ስን</w>
ልማ ን</w>
እየተ ካሄዱ</w>
እየተ ጠቀሙ</w>
ወን ዙ</w>
አባ ልና</w>
ማስ ቻ
ማስ ቆም</w>
አት ችሉም</w>
ተቀ ዳ
እንግ ዶ
ብር ሀ
ፈለ ቀ</w>
ተስ ማማ
ለማስ ጀመር</w>
ገና ኛና</w>
በታ ላ
ስን ደርስ</w>
ማለ ታችን</w>
ባል ተናነሰ</w>
ይሰ ው
አያ ድር
መብ ቶችና</w>
ተቃ ወ
ማኅ በረሰ
ተሸ ጋግ
ጠባ ብነት</w>
ዕለ ቱን</w>
እንደምት ፈልግ</w>
ጠር ተው</w>
ከ1 50</w>
ዘለ ዓለም</w>
የተጣ ጣ
በዛ ብህ</w>
አስቀም ጠዋል</w>
ይገኙ ባቸዋል</w>
አቡ በከር</w>
አሸን ፏል</w>
ታሪካ ቸውን</w>
አሥ ርት</w>
ለመታ ገል</w>
ታድ ያ</w>
ዘመዶ ቻቸው</w>
ያማ ከለ</w>
ሀላ ፊነት</w>
የብል ግና</w>
ልጃገረ ዶች</w>
ፍትሕ ና</w>
ይድ ነቃቸው</w>
አሰል ቺ</w>
አጣብ ቂኝ</w>
እናቀር ባለን</w>
ሎ ቻችን</w>
ማ ኑ
ማ ወቅና</w>
ቀ ብ
ተ ሠርቶ</w>
ት ሞ
ኒ ትና</w>
ኔ ውን</w>
ን ዋ
አ ያለሁ</w>
ከ ኢኮኖሚ</w>
ከ ዞኑ</w>
ክ በት</w>
ወ ሊድ</w>
የ ጀ
የ ጌታ</w>
የ ቁሳቁስ</w>
ያ ፀደ
ዳ ርና</w>
ጨ ቱ</w>
ፓ ን</w>
የሚ ጨ
በመ ሳብ</w>
የመ ታደስ</w>
የማ ር</w>
አል ወሰ
እያ ለን</w>
እር ሳቸውን</w>
ጠቀ ምም</w>
ሥራ ዎቻቸውን</w>
አት ኩ
ጠቅ ለል</w>
እግ ረ
እግ ረኛ</w>
በርካ ቶችን</w>
እም ነታችን</w>
እንዲያ ከናውኑ</w>
ከማ ል</w>
ሥልጣ ኑ</w>
ፓርቲ ዎችና</w>
አያ ቴ</w>
ላይ ዜሽን</w>
እስኪ ደርስ</w>
ተካ ሂደዋል</w>
መሸ ከም</w>
ያን ንም</w>
በፊ ትህ</w>
ፈራ ራት</w>
ባህር ያት</w>
ዕቅ ድና</w>
ስታዲ የሙ</w>
መሆና ቸውንና</w>
መዳ ፍ</w>
የሚሰማ ቸው</w>
መዳረ ሻዎች</w>
ብዝ ኃ
የሚጠቅ ሙ</w>
መጽሔ ቶች</w>
ረብ ሻ</w>
የወረ ደ</w>
ጳጳ ሳት</w>
በወጣ ትነት</w>
ማወ ቃችን</w>
አለመግባ ባቶች</w>
ተቀራር ቦ</w>
መልቀ ቂያ</w>
ያዩ ታል</w>
Ethiopi a</w>
ሰከን ዶች</w>
መናፍ ስት</w>
ስተና ግድ</w>
ለዘለቄ ታው</w>
ለ ኩ
ለ እጅ</w>
ላ ዩ</w>
ሎ ቻቸውን</w>
ማ ፋጠን</w>
ሠ ላሳ</w>
ሩ ስ</w>
ሰ ጣት</w>
ሲ ቀርቡ</w>
በ ዬ
ቦ ታቸው</w>
ተ ጉዞ</w>
ተ ጨም
ት ት</w>
ኅ ብረ
ን ኮ
ኖ ቻቸው</w>
ኛ ላችሁ</w>
ከ ጥቅም</w>
ከ ፈለገ</w>
ካ ወ
ወ ቀሳ
ዉ ት</w>
ዛ ምቢ
ዜ ና
የ ሱ</w>
የ ጫት</w>
ያ ዬ</w>
ግ ዥና</w>
ጠ ባቸው</w>
ጽ ናና</w>
ፀ ደቀ</w>
ፍ ፃ
ፕ ን</w>
በመ ተካት</w>
እንዳ ረጋገ
የሚያ ህ
እያ ሻ
አም ቦ</w>
መንግሥ ታቸው</w>
እነ ሱንም</w>
እየተ ና
ይወ ጣ</w>
ክፍ ሉን</w>
ገኘ ሁ</w>
ከሚ ኖሩ</w>
ከሚ ያደርጉት</w>
ተገ ረ
ተግባ ርና</w>
ወዳ ለ</w>
ወዳ ጆቹ</w>
ስቲ ን</w>
በግ ጥም</w>
በሽ ተኛ</w>
እንደማ ል
ጠየ ቃቸው</w>
ዋን ዳ</w>
እንዳል ሆነም</w>
ባለመ ቻ
ተጋ ር
ክርስቲያ ኑ</w>
ሶማ ሊያን</w>
ታስ ቧል</w>
ሰበ በት</w>
ተወዳዳ ሪነት</w>
የቅ ማንት</w>
ላን ተ</w>
ምባ ገነ
ኢትዮጵያ ዊቷ</w>
መፅ ሄት</w>
የሚወ ጡት</w>
በማህ በረሰብ</w>
አምባሳ ደሮች</w>
ቦር ሳ</w>
የሠ ለጠነ</w>
ያሉ ትም</w>
የተቋ ሙን</w>
በሕይወ ቱ</w>
የምስ ረታ</w>
በፓ ሪስ</w>
ሥዕ ሎች</w>
አሁ ንማ</w>
አበርክ ተዋል</w>
ኤክስ ፐር
የናይ ል</w>
ሰነበ ታችሁ
ምባብ ዌ</w>
Af ric
ለ ብቻ</w>
ለ ግንባታ</w>
ል ሳ
ሐ ብ
ሕ ዋ
ሕ ዴድ</w>
መ ቻቸው</w>
መ ከለ
መ ቐለ</w>
ሚ ናው</w>
ማ ጤን</w>
ሩ ናል</w>
ሪ ውና</w>
ሳ ዎች</w>
በ ኑ
በ ሥራ
በ ጽህፈት</w>
በ ባህልና</w>
በ ቅዱሳን</w>
ቻ ም</w>
ቻ ልኩ</w>
ቼ ዝ</w>
አ ጫወ
እ ጇን</w>
ከ ብር
ከ ጦር</w>
ከ 10
ከ ሆነች</w>
ዘ ማ
ዘ ነ</w>
የ ኢ</w>
የ ነገር
የ ሠርግ</w>
ይ ዩ</w>
ይ መራ
ደ ወል</w>
የተ ፈጥ
የተ ካሄዱ</w>
እንዲ ገነቡ</w>
የአ መጋገብ</w>
የማ ገልገል</w>
መለ ወጫ</w>
ይህ ቺን</w>
ገል ና</w>
ወን ዞ
ክል ኝ</w>
ህዝ ባችን</w>
ከመ ኖሪያ</w>
የሰ ፋ</w>
ታው ያን</w>
ማን ነቱ</w>
ኃላፊ ና</w>
ብራ ራት</w>
ማሳ ያዎች</w>
ሰላ ስል</w>
እኔ ው</w>
አጥ ፊ</w>
ተዋ ግ
እንዳል ቻለ</w>
ረጋግ ጡ</w>
ሳሰ በ</w>
በላ ሹ</w>
አረ ጋ</w>
ሊያስ ከት
ከል ካይ</w>
በቆ የው</w>
ፍረ ድ</w>
ጓደኛ ቸው</w>
ሙኒ ክ</w>
ተመልካ ቹ</w>
ተቆጥ ሮ</w>
የሚቻ ልበትን</w>
ታታ ሪ</w>
አቁ ሞ</w>
ያረጋግ ጣሉ</w>
በላይ ነህ</w>
ሠልጣ ኞች</w>
ክርስት ያን</w>
ሪፐብሊ ካ
ኪዩ ብ</w>
ማሰላ ሰል</w>
ይመሰክ ራሉ</w>
አንቀሳ ቃ
አብዱላ ሂ</w>
ያበረክ ታል</w>
ናቡ ከደነ
ብፁ ዕ</w>
ዮሃ ንስ</w>
ፕሮሰ ሲንግ</w>
ስፖንሰር ሺፕ</w>
ተቀራራ ቢ</w>
ፕሪም የር</w>
ሂ ሳ
ለ ንም</w>
ለ ምና</w>
ለ ህክምና</w>
ሊ ቀርብ</w>
ላ ቦራቶሪ</w>
ሕ ዳሴ</w>
መ ማሪያ</w>
ሣ ል</w>
ሩ በታል</w>
ራ ቁ</w>
ሱ ኝ</w>
ሲ ችሉ</w>
በ ሎ
በ ካይ</w>
ባ ሬ
ባ ጠቃላይ</w>
ብ ሌን</w>
ተ ቸ
ተ አማ
ታ ጠቅ</w>
ት ሪ</w>
ከ ጉ
ከ ደረሰ</w>
ክ በርና</w>
ዜ ናው</w>
የ ሩቅ</w>
ይ በቃ
ደ ፉ</w>
ዲ ያስፖ
ዳ ገት</w>
ድ ፍ</w>
ድ ሉን</w>
ገ ዛው</w>
ጓ ን</w>
ጥ ልኝ</w>
ፃ ው</w>
የሚ ቲዎሮሎጂ</w>
እንደ ታየው</w>
በመ ከናወን</w>
አስ ገብቶ</w>
ለመ ጻፍ</w>
አይ ወ
በማ ጥፋት</w>
በአ ዕም
መል በስ</w>
መስ ከር</w>
እያ ገ
እየ ጠበቀ</w>
እየተ ከታተሉ</w>
ምን ጮችን</w>
አለ ቃው</w>
ገለ ፀው</w>
መሰ ማራት</w>
በቀ በሌ
ከመ ገናኛ</w>
ገኘ ን</w>
ተቋ ሙን</w>
ባህ ላቸውን</w>
በየ ወቅቱ</w>
ሞክ ሯል</w>
ጨዋ ወ
የምት ለ
ከባ ሕ
ከባ ድና</w>
መደ ቦች</w>
ሳተ ም</w>
መው ታል</w>
አመራ ርነት</w>
እንዳል ካቸው</w>
አቋ ምና</w>
መራ ና</w>
ተከታ ዮቹን</w>
ወታደ ሮቹ</w>
ምሥ ጢር</w>
ምሥ ክርነት</w>
ተጽ ዕኖ
ኮር ስ</w>
ስና የው</w>
ለዋ ለች</w>
የተመረ ጠው</w>
አየ ር
አንባ ቢዎች</w>
ሰጪ ነት</w>
ou r
ማቅረ ቡ</w>
ያደረግ ነውን</w>
አሟ ልተው</w>
ዳዊ ትም</w>
ከጀመ ረበት</w>
ወረቀ ቶች</w>
ያመላክ ታሉ</w>
ተሸን ፎ</w>
ጠራር ጎ</w>
ጌጣ ጌ
ግስጋ ሴ</w>
ሰነበታችሁ ሳ</w>
9 ን</w>
w or
ለ ቁ
ለ እርሱ</w>
ሉ ስ</w>
ሐ ሪ</w>
ሚ ክ
ማ ጥቃት</w>
ረ ፉ</w>
ሩ ጫው</w>
ሲ ዎቹ</w>
ስ ጠኝ</w>
ሸ ግ</w>
ሽ ረት</w>
በ ገና</w>
በ ክሱ</w>
ብ ራል</w>
ከ 8</w>
ከ ጫፍ</w>
ከ መሆናቸውም</w>
ካ ፌ
ካ ለህ</w>
ክ ሰ
ው በትና</w>
ዕ ዋ
የ ሬ
የ ሙት</w>
የ ዘመናት</w>
የ ኔን</w>
ያ ሟ
ያ ገለገሉ</w>
ጁ ቬን
ጡ ንም</w>
ፊ ልድ</w>
ፍ ሎ
አን ዱም</w>
አን ጠልጥ
በመ ዳ
እንዲ ገኝ</w>
አይ በ
ከተ ሰማ
በማ ወ
መስ ሪያ
አል ን</w>
ስለ ሆነች</w>
እየ ወጣ</w>
መሰ ግን</w>
በል ባቸው</w>
በል ጅነት</w>
ብር ሀን</w>
የምት ኖረው</w>
ፕሬዚ ደንት</w>
በራ እይ</w>
ዋን ኛው</w>
ቁጥ ሮች</w>
ነግ ሬ
የተወሰ ኑትን</w>
ተከታ ተ
መጋ ዘን</w>
ፍር ስ</w>
ከፊ ታችን</w>
ዕለ ታዊ</w>
ፈላ ስ
ውረ ስ</w>
የዋ ህነት</w>
ካን ተ</w>
በማስተ ላለፍ</w>
ግዙ ፉ</w>
ንብረ ታቸውን</w>
አድርጎ ት</w>
መስተዳ ደር</w>
ነው ጥ</w>
ፌስ ታል</w>
በ198 7</w>
ጀግ ናው</w>
ተጋላ ጭነት</w>
ጠረጴ ዛው</w>
የጠየ ቅ
የሄ ዱት</w>
ዕጩ ነት</w>
ግኝ ቶች</w>
ያነጣጠ ረ</w>
ተረካ ቢ</w>
አዘገ ጃ
ህ ብረቱ</w>
ለ ላ</w>
ለ ሁለቱም</w>
ለ እነርሱ</w>
ሊ ረዳህ</w>
ሎ ችንና</w>
መ ሠራ
መ ባባስ</w>
ማ ድ</w>
ሞ ዝ</w>
ረ ፋ
ረ ጠው</w>
ሪ ቻርድ</w>
ራ ተን</w>
ሳ ችንን</w>
ስ መጣ</w>
ቀ ፎ
ቁ ስ</w>
በ 6
በ አንቺ</w>
በ ሐምሌ</w>
ተ ሊ
ተ ሰ</w>
ነ ጠ
ኑ ኑ</w>
ና ሙ
ና ድ
ን ንና</w>
ዋ ቅ
የ ች
የ ዐ
የ 1</w>
የ ግለሰቦች</w>
የ ሃያ</w>
የ ሜዳሊያ</w>
የ አስተዳደሩ</w>
ይ ሰብ
ደ ነግ
ጋ ቢው</w>
ጠ ገብ</w>
ጥ ነው</w>
እንደ ተሳ
እንደ ወጣ</w>
ለመ መርመር</w>
ለማ ደ
ያስ ገባ</w>
የአ ብ
ባለ ጸጋ</w>
የማ ደርገው</w>
መል ኩን</w>
እንዳ ለች</w>
አል ባት</w>
አባ ቡና</w>
ከመ ዝ
ሆነ ኝ</w>
አት ን
አት ላን
ሲያ ካሂድ</w>
በሰ ንበት</w>
በሰ ለጠነ</w>
ብሔ ረ
የግ ፍ</w>
የገ ደ
ግድ ብን</w>
ተን ኮ
ፎር ብስ</w>
ብሎ ን</w>
ፈረን ሳይ
ጠራ ራ</w>
መጋ ዘ
ቀድሞ ም</w>
መፍ ረስ</w>
የዋ ህ</w>
የወጣ ቱ</w>
አምባሳ ደ
ሰጠ ውም</w>
አዘጋጅ ቷል</w>
የኖ ሩት</w>
ሸማ ቹ</w>
ከ200 3</w>
ሥነ ምግባር</w>
ጃን ሜዳ</w>
ንዳ ች</w>
እንኩ ዋንስ</w>
በመል ሶ</w>
ቢሊ የነ
በዩ ኔስኮ</w>
በመስጠ ትና</w>
ሽጉ ጥ</w>
የመግ ቢያ</w>
ይገደ ዳሉ</w>
በየተ ራ</w>
a m</w>
ሁ ህ</w>
ለ ነገ
ለ አቅመ</w>
ሊ ነሳ</w>
ሏ ችሁ</w>
ሙ ንና</w>
ራ ጌ</w>
ራ ቱን</w>
ሰ አ
በ ኢትዮ</w>
በ ብቸኝነት</w>
ቢ ዎችን</w>
ቧ ቸዋል</w>
ከ ለው</w>
ኬ ላ</w>
ወ ረው</w>
ዋ ንና</w>
ው ሾች</w>
ዕ ተ</w>
ዕ ጣን</w>
የ ቋ
ያ ዛ
ያ ደግ
ዬ ዎች</w>
ዲ ሾ</w>
ገ ንን</w>
ጉ ባቸው</w>
ጐ ዳ</w>
ጥ ብ</w>
ጥ ርት</w>
ጧ ቸውን</w>
የሚ ፃ
እንዲ ገነዘቡ</w>
የመ ቅ
በማ ምረ
የአ ፍ
የሚያ የው</w>
የሚያ ካትት</w>
እየተ ናገረ</w>
አለ ምን</w>
አባ ዱላ</w>
ከመ ግ
ሥራ ችንን</w>
ማስ ታገ
ድርጅ ትም</w>
ተገ ደዋል</w>
ሲያ ሸንፍ</w>
በስ ሩ</w>
በል ምድ</w>
የግ ምገማ</w>
እንዲያ ገለግል</w>
አሰ ለ
ብራ ቅ</w>
ግንኙ ነቱን</w>
አቅር በነዋል</w>
ተፈ ቀደ
ከነ ሱ</w>
ትውል ዱ</w>
አንፃ ራዊ</w>
ምዕራ ባዊ</w>
መኪ ናዎች</w>
ጸሐ ፍት</w>
ከል ባቸው</w>
በመጀመ ርያው</w>
ቪዥ ን</w>
ያገኘ ናቸው</w>
መሐ ሪ</w>
ይጠ ባበ
ያስታው ቃል</w>
ፌዴራ ልና</w>
የን ጹህ</w>
በካ ናዳ</w>
ቁሳቁ ሶችን</w>
የተናገ ሩትን</w>
የተሸ ፈነ</w>
በመታ ገል</w>
ድብ ርት</w>
ሙሽ ራው</w>
የሚያከናው ኑት</w>
ወኪ ሎች</w>
በምታ ደርገው</w>
የሚደግ ፉ</w>
ሬስቶ ራን
የቦር ዱ</w>
እጩ ዎች</w>
አይበል ጥም</w>
ያነጋገር ናቸው</w>
ይመሳሰ ላል</w>
እንሰማ ለን</w>
ማጌ ዶን</w>
ለ ከተማዋ</w>
ለ ፕሮጀክቱ</w>
ላ ጭ</w>
መ ጡ
መ ጫ
መ ቋረጥ</w>
ሞ ተው</w>
ሪ ነታቸው</w>
ር ት
ሲ ስተር</w>
ሲ ጠየቅ</w>
ሴ ሎ
ቁ ጠባ
በ ሙያ</w>
በ ደረሰ</w>
ቢ ሆን
ቦ ረ
ተ ገለፀ</w>
ቲ ቶ</w>
ቶ ለታል</w>
ቶ ሪያል</w>
ኃ ያል
ኑ ኃ
ና ለም</w>
ኤ ደን</w>
ከ ኢየሩሳሌም</w>
ካ ጋ
ዋ ታል</w>
ዛ ዝ
ዛ ምቢያ</w>
የ ባል
የ ደንብ</w>
የ ብሔሮች</w>
የ ዶክትሬት</w>
የ ፋይናንስና</w>
ያ ሲን</w>
ዱ ብ</w>
ግ ሽ
ግ ሃል</w>
ጣ ቱን</w>
ጦ ቹ</w>
ፍ ጹ
የሚ ለኝ</w>
እንደ ደረ
ለመ ላቀቅ</w>
የማ ፍራት</w>
እየተ ጣ
እየተ ነሳ</w>
አባ ትህ</w>
በስ ውር</w>
በት ንም</w>
ሚኒስት ርነት</w>
ወስ ድም</w>
መልክ ዓ</w>
የጥ ቅ
አቅር በናል</w>
የዘ ይት</w>
ልም ዳቸውን</w>
ሰነ ዝ
ተመሳ ሳይነት</w>
ወሳ ኙ</w>
እያስ ከተለ</w>
ከናው ኑት</w>
ትግ ልና</w>
በመካከ ላችን</w>
የሚደ ነቅ</w>
ፌስ ቱላ</w>
እየገ ፋ</w>
መቀጠ ሉ</w>
መቀጠ ሉን</w>
የሚሄ ዱት</w>
ፈፃ ሚ</w>
አዘውት ሮ</w>
ታደርጋ ለች</w>
oc i
የዘገ የ</w>
ብሔር ተኝነት</w>
ዲቪ ዚ
ኢንጅነ ሪንግ</w>
ቺካ ጎ</w>
h o
j w</w>
ለ አካባቢ</w>
ለ 40</w>
ላ ገ
መ ተግ
መ ሪዎ
ሙ ሰ
ሚ ቲዎሮሎጂ</w>
ራ ንን</w>
ር ፉ</w>
ስ ቶቹ</w>
[...]
