#version: 0.2 - Trained by `huggingface/tokenizers`
á Ī
á ī
á ĭ
á Ĭ
á Į
Ġ áĬ
Ġ áĭ
Ġ áĪ
áĬ ķ
á į
Ġ áī
áī µ
áĭ į
Ġ áį
Ġáĭ ¨
ł áĪ
áĪ į
áĪ Ń
áĪ Ŀ
áĪ µ
áĪ Ī
áī ½
Ġáį ¢
áĬ ĵ
ĠáĬ ¥
áī °
áĮ Ī
áĭ «
áĮ į
áĭ Ń
áĭ °
áĪ ĺ
ĠáĬ ł
Ġáī ł
áĬ Ĳ
ĠáĪ ĺ
áĭ µ
áĪ ¨
áī ¥
áĪ «
áī ³
Ġáĭ¨ áĪ
Ġ áĮ
áĪ ĭ
áī £
ĠáĬ¥ áĬķ
Ġáī łáĪ
áĪ ħ
áī ł
ĠáĬ łáĪ
áĪ Ľ
ĠáĬ ¨
ĠáĬ Ĳ
áī ¸
Ġáī °
áĬ Ń
ĠáĪ Ī
áĬ ¨
áī Ģ
áĪ °
áĭ ³
áĮ ¥
áĭ ¨
áī¸ áĭį
Ġáĭ Ń
áī ħ
Ġáĭ¨áĪ ļ
áī łáĪ
Ġáĭ «
áį į
áĪ ³
áĪ Ĩ
áĬ «
áĪ ª
áĪ ī
Ġáį £
áĬ ł
áĭ Ī
áĮ ł
áĭ ĭ
İ áī½
Ġáĭ Ī
áĮ ĭ
áī ±
áį Ī
Ġ "
áĮ £
áī ¶
ĠáĪ Ľ
áĭ ²
ĠáĬĲ áĭį
áĪ ļ
ĠáĪ µ
áĪ ®
áĬ Ľ
áĭ İáī½
áĬ ¥
ĠáĪ Ŀ
Ġáī ¥
ĭ áĭŃ
ĠáĬ¥áĬķ áĭ°
áĬĲ áīµ
áĬ ĳ
Ġáĭ¨ áī°
áĭ ļ
áĪ ģ
áī ĥ
Ġáį ¤
áĪ ©
áĬ ĸ
ĠáĪ °
áĭ Ŀ
áĭ ĺ
Ġáĭ į
ĠáĪ ĭáĭŃ
Ġ áĮį
áĭ Ĭ
Ġáī £
áĬ Ŀ
Ġáĭ °
áĭį áĬķ
áĪ ŀ
áīł áīµ
ĠáĪ ²
áĭ ®
ĠáīłáĪ ĺ
ĠáĬ¥áĬķ áĭ²
áī »
áī½ áĬķ
áĬķ áĭµ
Ġáī µ
áĭĭ áĪį
áĬ łáĪ
áĪ İ
áī ¡
áĭļ áĪħ
áĪ ±
áĪĨ áĬķ
ĠáĮ ¥
áĪĪ áĭį
áį ĭ
áĮĪ áĪŃ
áĪ ½
ĠáĬłáĪ µ
ĠáĪ į
Ġáĭ ĵ
áī ¢
áĮ ħ
áīłáĪ Ń
áĮ Ģ
áĪ ¬
ĠáĪ ģ
Ġ áĮĪ
áĬ ©
áĮ łáĪ
áĭ ľ
áī¶ áī½
áĮ ī
Ġáĭ¨ áĪĺ
Ġáĭ µ
áĭ ±
áĬķ áĮį
áĪµ áīµ
áĬ Ķ
áĪĨ áĬĳ
Ġáī Ģ
áĭ Ľ
Ġáīł áī°
áĪ Į
áĪ ¥
áĭ° áĪŃ
áį Ĭ
áĭ ĵ
ĠáĬ Ń
áĬ ¢
áĪ »
ĠáĪĪ áĪĺ
áī¸áĭį áĬķ
Ġáĭ ĺ
Ġ ?
áī ²
áĪ Ļ
ĠáĪĪ áĪĽ
ĠáĭĪ áĭ°
áĪ Ĭ
áĪĪ áīµ
áĪĪ áĪĿ
ĠáĬł áĭŃ
áī Ĩ
áĭ ©
áĭ° áĪ¨
áī ¹
ĠáĪ ¥
áĮ ĥ
Ġáĭ¨áĪļ áĭ«
ĠáĮį áĬķ
ĠáĮ ĭ
ĠáīłáĪ Ľ
áī ģ
Ĭ áĭľ
ĠáĬ¥ áĭ¨
áĪµ áĮ¥
áī ĭ
áī° áĬĽ
ĠáĪ Ĩ
ĠáĬ ¢
ĠáĪ Ĭ
áĭ ķ
áĭ ´
ĠáĬłáĪ Ī
Ġáī ¢
Ġ 1
áī ¦
Ġáĭį áĪµáĮ¥
Ġáī ¤
áĬ Ĵ
ĠáĮ ī
ĠáĬł áĬķ
áĮ «
áĬ ®
áĮ ¨
ĠáĪ ³
áĪª áĭ«
áĮ ½
Ġáī ³
áĭµ áĪŃ
Ġáīł áĬł
áĬķ áĪĿ
áīµ áĭ®
áĮ Ń
ĠáĬ¥áĬķáĭ° áĪļ
áīµ áĬķ
áĮ µ
ĠáĮ Ĭáĭľ
áĪ Ħ
áĮµ áĭ«
áīµáĭ® áĮµáĭ«
áĮ ¡
áīµ áĬĵ
ĠáĮĭ áĪŃ
áī ¤
áīłáĪ ¨
áĭµ áĪ¨
Ġáĭ¨ áĬł
áī ´
Ġ )
áĪ ²
ĠáĬ¥áĬķ áĭ³
áĮ İ
Ġáĭ¨áĪ Ľ
ĠáĬĲ áīłáĪŃ
áĮĪ áĬ
â Ģ
áĭ Ļ
áĪŃ áīµ
Ġ âĢ
áĪ¨ áīµ
Ġáī£ áĪĪ
áĮĪ áī£
áĪ® áī½
ĠáĬ «
ĠáĬ¥ áĬĵ
áĪĨ áĬĲ
Ġáĭ¨ áĪĿ
ĠâĢ ¦
ĠáĬł áĮĪ
áĪ« áīµ
ĠáĪ ļ
ĠáĬłáĪ į
Ġ 2
áī± áĬķ
áĪĭ áĪį
áį ĸ
ĠáīłáĪ ļ
Ġáį į
áĪ İáī½
áį ī
áĪ ĥ
ĠáĪ ķ
ĠáĪµ áĪĪ
ĠáĬ¨ áī°
Ġáī ½
áĪµ áī°
ĠáĪ ħ
áĭ ¶
áī Ĥ
ĠáĮ ł
áĮį áĪŀ
Ġ !
áĬ ¤
áĮį áī£
Ġáĭĵ áĪĺ
áī ·
áĪ ľ
Ġáĭ« áĪĪ
áĬĵ áĪį
áĪ¨ áĮĥ
Ġáĭ° áĮįáĪŀ
áĭ İ
áĬķáĮį áĪ¥
Ġáį Ī
áĬķ áĭ«
ĠáĪĺ áĬķ
áĬ ŀ
Ġáĭ ķ
Ġ '
Ġáī ħ
áĪª áĬ«
ĠáĬ¥ áĭ«
áĪħ áĬķ
áĪ łáĪ
áĪ Ĳ
ĠáĪ¥ áĪ«
ĠáĪĿ áĬķ
áĮ Ĥ
áīµ áĪĿ
áī³ áĪį
ĠáĬ ĵ
ĠáĮī áĭ³
ĠáĬł áĬ«
áĪĺ áĪĪ
0 0
áĬ¢ áīµáĭ®áĮµáĭ«
ĠáĬ¥ áĪµ
áĪ ¸
áĮĪ áĭµ
áĭŃ áĪĿ
ĠáĬłáĪµ áī°
áĭ« áĬķ
áĪĭ áī¸áĭį
áĮ ¸
áī½ áĪģ
áĪĺ áĬķ
ĠáĬł áĬķáĭµ
Ġáī½ áĮį
áĪ ´
ĠáĬĲ áĮĪáĪŃ
ĠáĪģ áĪī
áĪĽ áīµ
Ġáĭ ĭ
áį ĥ
ĠáĪĿ áĬŃ
ĠáĬ ĥ
áĭ² áĪµ
áĮĢ áĪĺ
Ġ (
áĬĲ áĭį
áĪ ¶
ĠáĪ Į
ĠáĪĺ áĪĨáĬĳ
áĬ ĭ
áĬ¨ áĪį
áĭµáĪ¨ áĮį
ĠáĬ ķ
áĪ° áī¥
áĬ¨ áī°
áī³ áīµ
áī¥ áĪŃ
ĠáĪ³ áĭŃ
áĪ¨ áĭį
ĠáĬ¥áĭ¨ áī°
áįĪ áĪį
áĭ³ áĬķ
Ġáĭ¨áĪ Ĩ
áĮ ¤
áĮł áĬĵ
ĠáĪĺ áĪµ
áī£ áī¸áĭį
Ġáĭ¨ áĬĲ
áį ħ
ĠáĪ° áĭį
áĭİáī½ áĬķ
ĠáĬ¨ áĪĺ
Ġáī¥ áī»
ĠáĪĺ áĪį
áĪ ķ
áĮ »
ĠáĬłáĪ ĺ
áīħ áĪŃ
áĬķ áĪµ
ĠáĬłáĪ Ŀ
áī° áĭį
áĭ ¬
áĪĿ áĬķ
áĪĽ áĪª
ĠáĪ Ģ
áĪī áīµ
Ġáī¤ áīµ
áī³ áī¸áĭį
áĪĪ áĭ«
áĬ ³
áĬ ª
áĬĽ áĭį
Ġáĭµ áĪŃ
Ġáį ķ
ĠáĬĵ áī¸áĭį
áĬĶ áī³
áĭ Į
áĬĭ áĪĭ
áĮĪáĬ ĺ
áĮĪ áĪį
Ġáĭ« áĪħ
áĪĪ áĪģ
ĠáĪ Ļ
áī£ áī¢
áį İ
Ġáĭ« áĪµ
ĠáĬ ®
Ġáī ģ
áĭ« áĭį
áĮ Ĩ
áĬķáĮįáĪ¥ áīµ
áĭĿ áī¥
Ġáĭ¨áĪ °
áĪŃ áĪĿ
Ġáĭ¨ áĬ¥
ĠáĬ¨ áįį
áĪ« áĭĬ
áīłáĪ ©
ĠáĪģ áĬĶáī³
áĪĭ áīµ
áĮ Ĭ
Ġáīł áĬ¥
áĪĪ áĬķ
áį Ģ
áĭĪ áĮ£
áĮ ĵ
áī Ħ
áĬ¨ áīµ
áĮĪ áĭį
áīħ áĪĿ
áī¥ áĪ¨
Ġáĭ¨ áĬłáĪ
áĮł áīĢ
áĪĪ áī½
Ġáīł áĬĭáĪĭ
áĮĪáĬ Ļ
áī£ áĪį
áī° áĪŃ
áī½ áĪį
áĭ¨ áīµ
Ġáī¥ áĭĻ
áĮĪ áĪ«
áĬķ áĬĵ
áĪļ áĭ«
Ġáĭ Ŀ
áĪĭ áĬŃ
áĬĵ áīµ
áī³ áĭĪ
áį ķ
Ġáĭ° áĪ¨áĮĥ
áĭŃ áĪħ
áī³ áĭį
ĠáĮ ¨
ĠáĬł áĭµáĪŃ
ĠáĪ° áĭİáī½
ĠáĮ Ģ
ĠáĭĪ áĭŃáĪĿ
áĪ Ķ
ĠáĬŃ áįį
áĬŀ áī½
áĪį áĮ£
Ġáī ¦
áī¦ áī½
áĭ ŀ
Ġáīł áĬłáĪ
ģ áĬķ
ĠáīłáĪ ĭáĭŃ
ĠáĬł áī¶
Ġáĭ« áĪĪáĭį
ĠáĪ ĥ
áĬĲ áĭļáĪħ
áĬ¥ áĬķ
Ġáī° áĪĺ
áĪĿ áĪħ
áĮłáĪ Ń
ĠáĪĿáĬŃ áĬķáĭ«
ĠáĬłáĭŃ áĭ°
áĪģ áĪĿ
áĭİ áī¹
áī£ áīµ
ĠáĪĺáĪĨáĬĳ áĬķ
áĮĪ áĪĪ
áī³ áĭĬ
ĠáĭĵáĪĺ áīµ
áĮĪ áĬķ
ĠáĪ² áĪĨáĬķ
Ġáĭ ³
ĠáĪĺ áĬ«
áĪŃ áĪµ
áīĢ áĪŃ
áĭŃ áĭĪ
áī· áĪį
áĪĿ áĬĵ
áĭļ áĭ«
ĠáĪ «
áĭ« áĪµ
áĬĸ áĪŃ
ĠáĬł áīł
áĭ® áĬķ
áĪ¨ áĭ³
áĬ ĺ
Ġáī¥ áĪŃ
áįį áĪªáĬ«
áĪĪáĭ« áĭ©
áĬĲ áĪ³
ĠáĪĨ áĬĲ
Ġ 3
áĮ¥ áĪŃ
áĭµ áĬķ
áĮ ¦
áĮł áīĥ
ĠáĬ¥áĪµ áĬ¨
áĪį áīħ
áį Ĵ
áĪ Ģ
ĠáĭĪ áīħ
áĪ½ áĬķ
áĭĵ áīµ
áĮł áīł
ĠáĬ¥áĬķáĭ° áĪĨáĬĲ
ĠáĬ¢ áīµáĭ®áĮµáĭ«
áĮį áĪİ
áįĬ áīµ
Ġáī Ĩ
áĪĿ áĪ®
ĠáĬ¥áĬķáĭ² áĪģáĪĿ
áĪĺ áĪµ
áĪ ı
ĠáĪĺáĬķ áĮĪáĭµ
ĠáīĢ áĬķ
ĠáĬłáĮĪ áĪį
Ġáĭ¨ áĮį
ĠáĪĽ áĪµ
áį Į
áĬ ¦
áĮ£ áīµ
ĵ áĪŃ
ĠáīłáĪ Ń
áĪį áĬŃ
ĠáĬ ¤
áĪ¨ áĪµ
áĪ° áĭį
áĮł áĭį
áĭĺ áĮĭ
áĮĪ áĪª
áĬŃ áĪį
ĠáĪµ áĪ«
áĪ° áĪĽ
Ġáī½áĮį áĪŃ
ĠáĬĥ áĭŃ
Ġáĭ¨áĪļáĭ« áĪµ
ĠáĬ¨áįį áī°áĬĽ
ĠáĬłáīł áī£
áīłáĪ «
ĠáĪĽ áĪĪáīµ
ĠáĬ¨ áĬł
ĠáĪĺáĬ« áĬ¨áĪį
áĪ¨ áĮĭ
áĮĪ áĬĿ
áī£ áĪĪ
áīł áī°
ĠáĪĿ áĪŃ
áĭ° áĭį
áĭĪ áĪ°
Ġáī° áīĭ
áīłáĪ į
Ġáī¥ áĪİ
ĠáĪĺ áĪ°
ĠáĬĲ áĮĪ
áĬĽ áĪį
áĪ« áĪį
Ġáī ¡
ĠáĭŃ áĪħáĬķ
áĪĭ áĭŃ
ĠáĪ ´
áĪ ¯
ĠáĬł áĭ°
áĪĬ áĭ®áĬķ
áĭ« áīĦ
ĠáĮīáĭ³ áĭŃ
áĭĵ áĪĪáĪĿ
áī ¨
áī¶ áī½áĬķ
ĠáĬł áī£
áīĢ áĭį
áĪĭ áįĬ
ĠáĬł áīĢ
áī¥ áīµ
áĪĺ áĮ£
ĠáĪĨ áĬĸ
ĠáīłáĪ Ŀ
Ġáīł áīĢ
áĪĭ áĭį
áĪ³ áīµ
áĪłáĪ ¨
áīł áĭį
ĠáĬłáĪ ĭ
ĠáĭĪáīħ áīµ
ĠáĪ ĭ
ĠáĪ Ĳ
ĠáĬ¨áī° áĪĽ
ĠáīłáĪ µ
ĠáĬ¥áĬķ áĮĤ
áĮ ª
Ġáĭ¨ áĪµ
Ġáĭį áĮ¤
ĠáĭŃ áĪħ
áĪĺ áĪŃ
Ġáī° áĮįáī£
áī³ áī¸áĭįáĬķ
Ġáĭ¨ áĭį
ĠáĬł áī¥
áĬ© áĪį
áĭĺ áī¥
áī° áĭĭáĪį
Ġáĭĺ áĪŃ
áĬķáĮį áĪµáīµ
áĬ« áĪĦ
áĬĸ áī½
áī± áĪĿ
ĠáĬ¥áĬķ áĭ´
áīł áĭļáĪħ
áĬ ĥ
ĠáĭŃ áī½
Ġáī ĥ
áĪī áĪĿ
ĠáĬłáĭŃáĭ° áĪĪáĪĿ
ĠáĬł áīµ
Ġáī¢ áĪĨáĬķ
ĠáĪ ½
áĪ© áĬķ
ĠáĪļ áĬĴ
ĠáĮ İ
ĠáĬłáĬ« áī£áī¢
ĠáĬł áĮĪáĪŃ
áįĪ áĭį
áĬĿ áĬĲáīµ
áĪª áĬŃ
ĠáĮ¥ áĭ«áīĦ
áĭŃ áĬĲáīµ
áĮį áĪŃ
áĮł áĬķ
ĠáĪĿáĬŃáĬķáĭ« áīµ
Ġáīł áĭ¨
ĠáĬłáĮĪáĪį áĮįáĪİ
Ġáĭ« áĪį
Ġáĭ¨ áĭĪ
ĠáĪĺ áĬķáĮįáĪ¥áīµ
áĭ° áĪĿ
áĪģ áĬķ
łáĪ «
ĠáĪ ľ
áĮĢáĪĺ áĪªáĭ«
áī¢ áĭ«
ĠáīłáĪ °
áī¸ áĭĭáĪį
Ġáī¦ áī³
Ġáĭķ áĭµ
ĠáĮĪ áĪį
Ġáĭ ¶
áĬĵ áĭį
ĠáĪ ¨
áįĸ áĪŃáīµ
Ġáĭ¨áĬĲ áīłáĪ¨
áįį áīµ
áīĢ áĪ¨
Ġáīµ áĪĿáĪħ
ĠáĪ¥ áĪŃ
ĠáĬ¥áĬķáĭ² áĪħ
áĪ© áīµ
ĠáĬłáĪ ī
ĠáĪ ŀ
áĪŀ áĬŃ
Ġáĭį áĭµ
áįĭ áīµ
Ġáĭ«áĪħ áĪį
áī° áĪ°
áĬ ħ
ĠáĬ¨ áĪļ
áĮĪ áĬĵ
Ġáĭ¨áĪ ħ
áī ¼
áĪĭ áĪī
áĬł áĬķ
ĠáĬ¢ áĬķ
áĬ Ļ
áīłáĪ ĺ
áĪĺ áĭį
áĪĨ áĬĵ
Ġáĭ¨ áĬ¢
áĬ ¬
áĪĪ áĭĭáĪį
áĭ® áī½
áĪ° áĪ«
ĠáĭµáĪŃ áĮħ
áĭ°áĪ¨ áĮĪ
Ġáįķ áĪ®
áĭĪ áīħ
áĬ« áī³
áĪ³ áī¥
Ġáī° áĬĵ
áĪĿ áĪŃ
áĪ³ áĭŃ
Ġáīł áĭļáĪħ
Ġ 4
áĮį áī¥
áĪ± áĬķ
áĪŃ áĭµ
ĠáĬłáĪ ³
ĠáĬłáĪ °
Ġáĭ¨áĪĨ áĬĲ
áīĥ áĪį
Ġáī° áīĢ
áĮ¨ áĪĽáĪª
ĠáĬ¥áĬķáĭ² áĭ«
áĬŃ áīµ
ĠáĬł áĭį
áī¤ áīµ
áĪ Ł
áĭ¶ áī½
áĪµ áįĭ
Ġáį ĵáĪŃ
áĪĪ áī²
Ġáĭ¨áĪĽ áĭŃ
áĪ¨ áĭĭáĪį
áĭ³ áĭ°áĪŃ
ĠáĪ º
áĪ± áĪµ
ĠáĬłáĪ Ľ
áĪµ áĪĪ
áĮ½ áĪĲ
áĮĪáĪª áī±
ĠáĪĽ áĬķ
áĭ« áĪħ
áĪĺ áĪ¨
áīĢ áīµ
ĠáĪ Ń
Ġáīł áįĬáīµ
áĪ³ áĪĮ
áĭŃáĭĪ áīµ
ĠáĪ³áĭŃ áĪĨáĬķ
Ġáĭ¨ áĬ¢áīµáĭ®áĮµáĭ«
ĠáĪĪ áĬł
Ġáį ĸ
áĬ® áĬĸ
áĭ¨ áĪ±áĪµ
ĠáĬłáĪ Ń
ĠáĮ ½
áĮį áĪ«
áĪį áĪĿ
ĠáĭĵáĪĺ áī³áīµ
áĬ¨ áĪŃ
áĪĭ áĪĽ
ĠáĬ¥áĬķáĭ´ áīµ
ĠáĪ² áĭ«
áĪı áĪį
áĪª áĭİáī½
áĬĲ áĪµ
áĮ ģ
áĬ« áĪĿ
áĬ Ĺ
Ġáĭ« áĪī
Ġáĭµ áĪ¨áĪµ
áĬķ áīµ
áĭ«áĪħ áĭĮ
ĠáĬ¥ áĭį
áį ĵ
Ġáĭĺ áĪĺáĬķ
ĠáĪĮ áĪİáī½
Ġáĭ ľ
áĮ£ áĪĿ
áĬĵ áĮĪ
áĭ¨ áĭį
2 00
áĬĲ áīłáĪ¨
Ġáĭ¨áĪļ áĪį
áī½ áĭį
áĪłáĪ «
áĪĪ áĭŃ
áĮ ¹
áĮĭ áĪį
ĠáĬ¥ áĪŃ
áįĸ áĪŃ
ĠáĪĽ áĪħ
áĮłáĪ «
Ġáį Ĭ
áĪ« áĪ²
Ġáī° áĭĪ
áĪĪáī² áĬ«
ĠáĮ Ń
Ġ 5
Ġáĭĵ áĪĪáĪĿ
ĠáĬ¨ áĪĽ
Ġáī° áī¥
áĮį áĪį
ĠáĬŃ áĪį
áĮĨ áī½
áīµ áĪŃ
ĠáĬĥ áĪĭáįĬ
ĠáĬ¥ áĬĶ
áĪŀ áī½
áĬĲ áĪ±
ĠáĪĺ áĪłáĪ¨
áĪĭ áĪĪ
áĭ°áĪ¨ áĮī
áĮį áĬĺ
ĠáĪĽ áĭµáĪ¨áĮį
ĠáĪį áĮħ
ĠáĬ¥áĬķ áĬ³
áī½áĬķ áĬķ
áĪ £
áĭ± áĪµ
ĠáĪģ áĪĪáīµ
ĠáĬ¨ áĬ¥
áĪĭ áĪĿ
ĠáĪĪ áĭį
áĬ¨ áĪĭ
áĬ¨ áĬĵ
áĭ¨ áĪŃ
ĠáĭŃáī½ áĪĭáĪį
áĪĿ áĬĲáīµ
áĪĺ áĪį
áĪ ·
áĭ ¥
áĮ Ĭáĭľ
ĠáĬłáĮĪáĪįáĮįáĪİ áīµ
áĬķ áĬķ
áĭ² áĪħ
ĠáīµáĪĿáĪħ áĪŃáīµ
áįĪ áĪĪ
ĠáīłáĪĺ áĪĨáĬĳ
áĪŃ áĭ«
áĮłáĪ ¨
Ġáīł áĬ©áĪį
áĭį áĭ«áĬķ
ĠáĪį áĪĽáīµ
ĠáĬł áĭ²áĪµ
ĠáĬ ¦
ĠáĭŃ áĮĪáī£
áīł áĬł
Ġáĭ¨ áī³
áĮĪ áīµ
áĭ² áĭ«
áĬŃ áĪµ
áĪ« áī¸áĭį
áĮ½áĪĲ áįį
ĠáĬłáĪ ģáĬķ
áĪ³ áī¸áĭį
áīħ áĭµ
áĪĨ áĬĵáĪį
ĠáĮįáĬķ áī£
áĮ Į
áĮĪáĬĺ áĭį
ĠáĭŃ áĪĨáĬĵáĪį
ĠáĪĮ áĪĭ
ĠáĬł áīħ
ĠáĪļ áĪĬáĭ®áĬķ
Ġáĭ Ľ
áĭĿ áī¡
ĠáĭŃ áĮĪ
ĠáĪµ áĪĿ
ĠáĬ ª
ĠáĭĪ áĪŃ
Ġáĭ«áĪħ áĭĮ
Ġáī°áĬĵ áĮį
áīłáīµ áĬķ
áĬŃ áĪŃ
áĪ¬ áīµ
Ġáĭ¨ áīµ
ĠáĪĺ áĪ¨áĮĥ
áĮł áīµ
Ġáī£ áĪħ
ľ áĪªáĬ«
áīħ áĪ¨
Ġáĭ¨áĪ ¥
ĠáĬłáĬķ áĭ±
áĮĪ áī¡
áĮ Ĳ
áĪ¬ áĭļ
áĭį áĪĿ
áĭ° áĮį
áĬ¨áĬĵ áĭĪ
Ġáīħ áĭ±áĪµ
áĬłáĪ Ŀ
ĠáĬ ©
Ġáī ´
ĠáĪĺ áĪĨáĬķ
áĮį áĪĪ
áĪĺ áĪ«
áĭ« áĭĺ
áĬ¥ áĬĲáĭļáĪħ
áīĢ áĪĺ
áĪĭ áī½áĪģ
ĠáĮĪ áĬķ
ĠáįĵáĪŃ áī²
ĠáĬ¥áĬķáĭ³ áĭŃ
ĠáĭĪ áĬķ
Ġáĭ¨áĪļ áĪ°
áĮį áĬķ
áĮł áīħ
áĪ¬áĭļ áĭ³áĬķ
áĮĢ áīµ
áĮ¨ áĪ¨
áĪĻ áĭ«
Ġáĭµ áĮĭ
áĭ° áīµ
áĬĲ áī±
áįĪ áĮ¥
áīĥ áīµ
ĠáĬ¥áĬķáĭ° áī°
Ġáīł áĮ¥
Ġáĭĭ áĬĵ
áī» áī¸áĭį
ĠáĪį áĭ©
Ġáĭ¨áĪ ķ
áĪ³ áī°
ĠáĭĪ áĭŃ
ĠáĬ¥ áĮħ
ĠáĬłáīĢ áįį
áīł áī¥
Ġáĭ ²
ĠáĭĪ áĮ£
áĪĽ áĭŃ
ĠáĬ¥áĬķ áīħ
áĪĿ áįĴ
áĭĺ áĪŃ
Ġáīł áĮ£áĪĿ
áĬ®áĬĸ áĪļ
áĭ³ áĬķáĭµ
Ġáĭ¨ áĪį
áĬ¨ áĭļáĪħ
Ġáĭ¨áĪĿ áīµ
áĪ« áĪŃ
áĮ¡ áīµ
ĠáĬłáĪµáī° áĭ³áĭ°áĪŃ
áĬ¤ áĪį
áĪĦ áĭµ
áīµáĪĿ áĪħ
áī°áĬĽ áĭį
Ġáĭĺ áĪĺ
Ġáī° áĬ¨
ĠáīłáĪŃ áĬ«áī³
áĪ º
áĭį áĪį
ĠáĮ £
ĠáĬ¥ áĭµ
áī ª
áĭ°áĪŃ áĮį
áĮĭ áīµ
ĠáĪĬ áĭ«
áĪįáĮ£ áĬķ
áĬĴ áī¨
Ġáĭ ©
ĠáĪµ áĪŃ
Ġáīµ áĬ©
ĠáĬłáĪĪ áĪĺ
1 9
ĠáĪĺ áĬķáĮįáĪ¥
ĠáĮį áī¥
ĠáīłáĪĽ áĪĪáīµ
ĠáĬł áĮĭ
ĠáĬłáĪµ áįĪ
ĠáĪĪ áĪļ
ĠáĬłáĪĿ áĪĭáĬŃ
Ġáīĥ áĪį
áī¥ áĪ¨áīµ
áĭ° áĬķ
áĭŃ áīµ
áĮįáĬĺ áīµ
ĠáĪĪáĪĽ áĪµ
áįī áīµ
ĠáĪĺ áĪŃ
áĪ¨áĮĭ áĮĪ
ĠáĪļáĬĴ áĪµáīµ
áĪĨáĬĳ áĪĿ
áĬĸ áĪ©
áĮĪ áĬĲ
Ġáĭ¨áĪĨ áĬĳ
ĠáĬ¨ áĪĨáĬĲ
áĪį áĬĵ
Ġáī¥ áĪĪáĭĭáĪį
áĮłáĪ ©
ĠáīłáĪ Ļ
áĬŃ áī°áĪŃ
áĪµ áĬĵ
áīłáĪ Ī
Ġáī¥ áĪĶ
Ġáī° áĮłáīĥ
áĭŃ áĪħáĬķ
Ġáĭ«áĪĪ áĭįáĬķ
áĭ¨ áĬł
ĠáĪµ áīµ
áĭĭ áĬķ
áĬĲ áĮĭ
ĠáĬ¥áĬķáĭ³ áĪĪ
áī° áĬŀáī½
áīĢ áĮ¥
áĬ¥áĬķ áĭ°
áīł áĭ«
Ġáĭ¨áī° áĪĪáĭ«áĭ©
Ġáĭĵ áĭŃáĬĲáīµ
áĪ® áī½áĬķ
áĭ« áĭĬ
áĪ° áī£
áĪŀáĬŃ áĪ«áĪ²
áĮ İáī½
áīł áīĥ
ĠáĬ¥áĬķ áĭµ
Ġáīģ áĮ¥áĪŃ
ĠáĮ¨ áĭĭ
áĭ°áĪ¨ áĮĪáĭį
áį ¦
áĮłáīĢ áĪĿ
áĬĵ áĭĬ
áī³ áī½áĬķ
áĬķ áī°
ĠáĪĿ áĬķáĪĿ
áĭ° áĪ«
ĠáĪĪáĪĽ áĭµáĪ¨áĮį
áįĪ áĮ¸
áĮłáīł áīħ
Ġ 6
ĠáĮł áīħ
ĠáĭµáĮĭ áįį
áĪŃ áĪ²
ĠáĬł áĭµ
ĠáĪ Ħ
áī³ áĭŃ
Ġáĭ Ļ
áĮĪ áī¢
áĮĭ áĪ«
áĬ¨ áįį
áĬĳ áĬķ
ĠáĪĽ áĭķ
áī³ áĪĽ
ĠáĬł áĭ«
Ġáĭµ áĬķ
ĠáĪĽ áĪ³
ĠáĪ² áĪį
Ġáĭ¨áĪĿ áĬķ
Ġáī¥ áĪĪáĭį
áīĢ áĭµ
ĠáīłáĪĺ áī¶
áĬ ¸
áī¥ áĭĻ
áĬ¨ áĪ°
áĭĽ áīµ
ĠáĬ¨ áĭļáĪħ
ĠáĪĺ áĮ¥
ĠáĪĪ áī°
áĬ« áī£áī¢
Ġáī£áĪĪ áĪĻáĭ«
áī¹ áĬķ
áĪĽ áĪŃ
áĮł áĭŃ
Ġáĭ¨áī° áĪ°
áĬ¨ áĪ«
áĪĺáĪĪ áĬ¨áī°
áĪĿ áīµ
ĠáīłáĪ ģ
áĪŃáĪ² áī²
áįĪ áĪŃ
ĠáĮ¥ áĪ¨áīµ
ĠáĬ® áĪļ
áīµáĪĿáĪħ áĪŃáīµ
ĠáĬłáīµ áĪĮ
áī½ áĪī
ĠáĪģ áĪĪ
áĪµ áīĥ
ĠáĬłáĮĪ áĪ®áī½
áĪį áĬķ
ĠáĪĺ áĬķáĮįáĪµáīµ
ĠáīłáĪ Ĩ
Ġáīł áĭĵ
ĠáĮĢ áĪĿáĪ®
áĪ¯ áĪį
áī¥ áĪ«
áĮ¥ áī¥
ĠáĭįáĮ¤ áīµ
ĠáĬ¥áĬķáĭ°áĪļ áĭ«
Ġáīł áīµ
áĬ¨áī° áĪĽ
ĠáĭŃáĮĪáī£ áĪį
áĪ¥ áĪ«
Ġáī° áĪµáįĭ
Ġáī°áĬĵáĮį áĪ¨áĭĭáĪį
áīł áī³áĪį
ģ áĬĳ
Ġáį Ģ
ĠáĬķ áĮį
áĭĽ áĪ¬
áĭ°áĪ¨ áĮį
ĠáĪĺáĪłáĪ¨ áīµ
áĬĴáī¨ áĪŃáĪ²áī²
ĠáĪ Ĥ
áįĸ áĪĪáī²áĬ«
áĭ± áĪµáīµ
áĪ» áĪ»
áįį áĪ«
áĮ¨áĪ¨ áĪ»
ĠáĪ ª
Ġáĭĺ áĬķáĭµ
áĮĪ áī¥
áĬŃ áĪĿáĬĵ
áĪµáĪĪ áĭļáĪħ
áĪĭ áĮĬ
áĪ° áĮ¥
ĠáīłáĪĽ áĭµáĪ¨áĮį
áĭ°áĪŃ áĮī
áĪī áĬķ
áĭĪ áĭ°
ĠáĮįáĬķáī£ áī³
ĠáĪĪ áĬ¥
áĪ¨ áĬķ
áĮį áĮ¥
ĠáĬł áĭ³
Ġáįį áĪĭ
ĠáīµáĬ© áĪ¨áīµ
ĠáĮĪáĪį áĮ¸
áĪĪ áĪĽ
2 0
Ġáĭ« áĪ³
ĠáĭĽ áĪ¬
ĠáĮ¥ áĪ©
áĪµáīĥ áĪ´
ĠáīłáĪ Į
áīĢ áĪ³
Ġáīł áĭį
áī §
áĬł áĭ´
áīĭ áīĭ
Ġáī°áĮłáīĥ áĪļ
áī°áĪ° áī¡
Ġáĭ¨ áĪ«
ĠáĪĻ áĪī
áĪµ áĪ«
ĠáĬĥáĭŃ áĪį
ĠáĪ łáĪ«
ĠáĮįáĬķ áĬĻ
ĠáĪĺ áĭµáĪ¨
Ġáĭ¨ áĪĪáĪĿ
áĪĪ áĭįáĬķ
ĠáĬĲáĮĪ áĪ®áī½
ĠáĮ¨áĭĭ áī³
áĬĲ áĮĪáĪŃ
áĬĲáīµ áĬķ
áĬĲ áĮĪ
ĠáīłáĬł áĬķáĭµ
áĬłáĪ ģáĬķ
áĪ ¹
ĠáĬ¥áĬķáīħ áĪµáīĥáĪ´
áĪį áĮłáĬĵ
áī¥ áĬķ
ĠáĪĿáĬŃ áĪŃ
áĪµ áĬķ
áī» áĪį
áĪ¬áĭļáĭ³áĬķ áīµ
Ġáī¢áĪĨáĬķ áĪĿ
áī ¾
áĮ ®
¦ áĪµáīµ
áĬĲ áīłáĪŃ
ĠáĪ° áī¥
áī° áĪ°áī¥
Ġáīł áīł
áĪµ áī³
áįĪ áīµ
ĠáĬ ³
áĮĪáĪ« áī½áĬķ
áīħ áĬĵ
Ġ2 0
Ġáī¤ áī±
ĠáĮĪáĬķ áĭĺáī¥
ĠáĬłáĪĪ áīłáīµ
ĠáĬł áįįáĪªáĬ«
Ġáī°áīĭ áĪĽáīµ
áĪĺ áĭµ
Ġáī¤ áī¶áī½
ĠáĪĪáĭį áĮ¥
ĠáĬł áīħáĪĿ
áĮłáĪ į
áĭ« áĭĿ
áĪŃáĪµ áī²
Ġ 7
áī° áĬķ
Ġáīµ áĪįáīħ
ĠáĭĺáĪŃ áįį
Ġáĭ« áĪīáīµ
áĪĬ áĭ«
áīłáĪ Į
Ġ2 00
Ġáī°áī¥ áĪİ
ĠáĪĺ áĪĪ
áĪĺ áīµ
ĠáĪĺ áīĢ
ĠáĬŃáįį áĪį
« áīµ
Ġáī£ áĬķ
áĭ° áĬĽ
ĠáĪµ áĬķ
ĠáĭĿ áĮį
ĠáĪĺ áĪĨáĬĵ
Ġáĭ¨ áī£
ĠáĬłáĪĪ áĭį
áīłáĪ ĭ
Ġáī³ áĪªáĬŃ
áī£ áĭŃ
Ġáĭ¨ áĪĪ
áĬĵ áĮĪáĪ«
áĪİ áĮĤ
Ġáĭµ áĪĿ
Ġáī½áĮį áĪ®áī½
áĭĺ áĭį
ĠáĬłáĪ ¨
áĮ Ħ
Ġáĭ¨ áĮ¥
ĠáĬ¥ áĬĲáĭļáĪħ
Ġáĭ ´
áī£ áĪĪáĭį
ĠáĪ ¸
áĮł áī¥
áĪ ¾
ĠáĮ ¦
áĪµ áī´
áĪ³ áĪį
áįĮ áĭ´
áĭ±áĪµáīµ áĪª
ĠáĭŃ áĪĦ
ĠáīłáĪ ķ
áĭ° áĮĭ
áī¡ áī¥
ĠáĮīáĭ³ áĭ®áī½
áĪĺ áĭĺ
áĪ³ áĬĶ
Ġáī£ áĭŃ
ĠáĭĪ áĬķáĭµ
ĠáīłáĪĻ áĪī
ĠáĬł áĭĭ
Ġáī ĭ
áĭ°áĪŃ áĪµ
áĮłáĬĵ áīĢ
Ġáĭ¨ áįĪ
ĠáĭŃ áĪĺáĪµ
áĪ» áĪĪ
Ġáīµ áĬķ
Ġáī° áĪĽáĪª
ĠáĪ¥áĪŃ áĭĵáīµ
Ġáĭĭ áĮĭ
áī° áīµ
Ġáĭ¨áĬĲ áīłáĪ©
áī º
ĠáĪµ áĪľ
áĭļáĭ« áĪĿ
áĪĪ áĪħ
ĠáĬłáĭ° áĮĭ
ĠáĭµáĪŃáĮħ áīµ
áĪŃáĪĿ áĮĥ
áĬ¥ áĬĶ
áĪĿáĬķ áīµ
áĮ¤ áĬĵ
Ġáį Į
ĠáīłáĪļ áĪį
Ġáĭ¨áĪ Į
ĠáĪĪ áĪĿ
ĠáĪ ¶
áī£ áĬķáĭ«
Ġáĭ« áĪĭáī¸áĭį
Ġáĭ¨áĬĲáīłáĪ¨ áĭį
ĠáĬŃáĪį áĪį
áĬŃ áĪĪ
ĠáīłáĪ «
áĪĭ áī¸áĭįáĬķ
áį İáī½
Ġáį ĭ
áĪĪ áĪĺ
ĠáĬŃ áĪĪ
Ġáīł áĬ¢áīµáĭ®áĮµáĭ«
áĪĽ áĬĸ
ĠáįįáĪĭ áĮİ
áĬĽáĭį áĪĿ
Ġáīµ áĪŃ
áĬĲáīµ áĬĵ
áĭ³ áĪŃ
áĬķ áĮ«
ĠáĮĪáĪįáĮ¸ áĭĭáĪį
áĬ¥ áĪŃ
áĭļ áĪģ
ĠáīĢ áĭ°áĪĿ
áĬł áĬķáĭµ
áī£ áĪī
áĪĮ áĪİáī½
Ġ 8
ĠáĪį áĪĽ
áīĭ áĪį
áĪ° áĪŃ
ĠáĪį áī¥
ĠáĮ¥ áīħáĪĿ
ĠáĪĺ áī¥
áĪ« áĬķáĪµ
áĮł áĭ¨
Ġáīł áĭ°
áĭ¨ áī°
Ġáī¡ áĭµáĬķ
ĠáĬ« áĪį
áĬĵ áī¸áĭį
áĪĭ áĭĬ
áĬłáĭ´ áĮį
ĠáĬĲ áįĥ
ĠáĪĿáĪŃ áĮ«
áĭĪ áĪŃ
Ġ .
ĠáĪĺ áĮłáĬķ
áĪĺáĪĪ áĬ¨
áĮ£ áĪį
áĭŃ áĪĽáĬĸ
ĠáĪį áĮĨáī½
ĠáĬĲ áĭĭ
Ġáīł áī³
áī¥ áĬĿ
Ġáīłáī° áĪĪáĭ«áĭ©
ĠáĪĽ áĪµáī°
áĭ¨ áĪĺ
ĠáĪķ áĭĿáī¥
áĪ« áĬķ
ĠáīłáĪ į
ĠáĪ° áĭĵáīµ
áī¥áĪ¨ áī°áĪ°áī¡
ĠáĭŃ áĪĭáĪį
áĮĪáĬķ áĭĺáī¥
ĠáĬłáĮĪ áĪ«áīµ
áĮ ¿
ĠáĮį áĭµ
ĠáĭĪ áĮ¥
áī¦ áīµ
ĠáįķáĪ® áĮĢ
ĠáĬłáĭµáĪŃ áĮİ
áĬķ áĭ³
Ġáĭ¨áĪ¥ áĪ«
ĠáĭŃ áĪ°
Ġáĭ« áĭ°áĪŃ
ĠáĪ »
áĪ¨ áĭµ
ĠáĬ¢ áĭ¨áĪ±áĪµ
Ġáĭ¨ áĮĪ
ĠáīĨ áĭŃ
ĠáĮł áĬķ
ĠáĮĪ áī¥
áĭŃ áĬķ
áĬŃ áĬĸ
Ġ1 0
ĠáīĢ áĪŃ
ĠáīłáĪ ħ
áĪĺ áĪ°
ĠáįĪ áīĥ
Ġáī° áĭ°áĪŃ
ĠáĬ³ áĪµ
ĠáĬłáĬ« áĪĭáīµ
ĠáĪ° áĮ¥
Ġáĭįáĭµ áĭµáĪŃ
áī¶ áī¹
ĠáĮįáĬķáĬĻ áĬĲáīµ
ĠáĮ łáĪ
Ġáĭ ®
áĮ£ áĪļ
ĠáĪµáĪĪ áĪļ
áī¥áĪŃ áĬĵ
áĭ° áĮĪ
ĠáĮ¦ áĪŃ
ĠáĬłáĬ« áĪį
áĭİáī½ áĬĵ
ĠáĭŃ áĪįáīħ
Ġáīłáī° áĮ¨áĪĽáĪª
ĠáĪĺ áĪ¥
áĪĽ áĬķ
áĬ¨ áī¥
Ġáī°áĮįáī£ áĪŃ
ĠáĪĺáĬķ áĮĪ
áīĨ áĮ£
áĭ ·
ĠáīłáĪĽ áĪµ
ĠáĪħ áĭĿáī¥
ĠáĬł áīħáĪŃ
áĮ¿ áĪį
Ġáĭ¨áĪ° áĭį
ĠáĪº áĪħ
ĠáĮī áī£
áĬ¥ áĬĵ
áĬ¨ áĪĪ
áīłáĪĺ áĪĨáĬĳáĪĿ
ĠáīłáĪ ½
ģ áĬķáĪĿ
ĠáĮ ¤
áĪ ĳ
áĬł áī¶
áī¥ áĪĶ
áĮ ¢
Ġáįĸ áĪĬ
Ġáĭ¨áĪļ áĮĪáĬĻ
Ġáīł áĬ¢
Ġáĭį áĪ³áĬĶ
áĭŃ áĪį
áĪĪ áī±
áīĤ áīµ
áĬķ áīĭ
Ġáĭ¨áĭį áĮŃ
ĠáĪĺáĪį áĬ«áĪĿ
Ġ 9
áĭ³ áĮħ
áĭĪ áĪµ
áīĤ áĭ«
áĪ³ áĪ³áĭŃ
áĭ« áĪį
Ġáĭ¨ áĭĵáĪĪáĪĿ
Ġ1 9
ĠáĪĺáĪ° áĪ¨áīµ
ĠáĪľ áīµáĪŃ
áĪµ áĮłáīµ
ĠáĬłáĪµáįĪ áĪĭáĮĬ
ĠáĪĺáĪį áĬ©
ĠáĬ¥áĮħ áĮį
áĬŀ áī¹
áĬ© áīµ
ĠáĪĺ áĭį
áĬŃáĬĸ áĪİáĮĤ
ĠáĬ¨ áĬłáĪ
ĠáĪĺ áī¥áīµ
áĪĪ áĬ«
ĠáĪµ áī¥
ĠáĭŃ áĬĵáĮĪáĪ«
ĠáĪĨ áĬĲáĭį
Ġáĭ¨ áīł
áį ģ
Ġáĭ¨áĬł áįįáĪªáĬ«
ĠáĬ¥áĬķ áĮį
áĭĿ áĬĵ
áĪĿ áĭµ
ĠáĭŃ áī»
áĬķáĮį áĭµ
áĬł áĭ²áĪµ
áĭŃ áĬĵ
ĠáĬ¥ áĬĽ
ĠáĪ ±
áĬ« áĪį
áĭĺáĮĭ áĮĢ
ĠáĪĺ áĪĺ
áĪĭ áĪŃ
áīħáĪ¨ áī¥
áĪĭ áĪ½
áī£ áī¥
ĠáĬ¥áĬķáĬ³ áĬķ
áĮ §
Ġáĭ¨ áįĸáĪĪáī²áĬ«
áĮłáīĥ áĪĭáĭŃ
Ġáĭ«áĪµ áįĪáĪį
ĠáĪļáĬĴáĪµáīµ áĪŃ
Ġ /
ĠáĪĺáĬķ áįĪ
Ġáĭ¨áĪĨ áĬĲáĭį
áįį áĮłáĪŃ
ĠáĮ Į
áĬĸ áĪ¨áĭį
ĠáĮĭ áĭľ
ĠáĪģáĪī áĪĿ
áīĢ áĪµ
áĮĵ áĪį
áī» áī½áĬķ
ĠáĪ´ áī¶áī½
ĠáĬłáĪĽ áĬ«
áĮ£ áī¸áĭį
ĠáĭŃáī» áĪĭáĪį
áĪĭ áīħ
ĠáĬ¥áĬķáĭ³ áĪį
ĠáĪĬ áĪĨáĬķ
ĠáĬ© áī£áĬķáĭ«
ĠáĭĻ áĪªáĭ«
ĠáĬķ áĮī
áĭ¨ áĪĿ
áĬķáĭµ áĬķ
ĠáĮĪ áī¢
Ġáĭ¨ áĭķ
ĠáĬłáĬķ áĭ³áĬķáĭµ
Ġáĭ¨ áīĢ
áĬ¨ áĪ¨
ĠáĪĺ áĪ¬áīµ
áĮ ©
áĮħ áīµ
Ġáĭ© áĬĴáī¨áĪŃáĪ²áī²
Ġáĭ¨ áīĨ
áīĢáĭµ áĪŀ
áīłáĪ °
áĪµ áī°áĬĽ
Ġáĭ¨ áĭĺ
áĮįáī£ áĪŃ
áĪ³ áĪ°
áĬ® áī½
áĬĹ áĪį
Ġáīł áĮį
áįĪ áĪ«
áĬł áīµ
áĪ± áĪĿ
ĠáĬł áīĭ
ĠáĬł áĬŃ
áĭ³ áĪį
ĠáĬłáĪ ¸
áī³ áĭ°
Ġáī° áīĥ
Ġáĭ° áĪŃ
Ġáįķ áĪ¬áĭļáĭ³áĬķáīµ
áĭĪ áĮ¥
ĠáĪĪáĪĽ áĪ³
áĭĬ áīµ
ĠáĬłáĪµáī° áĭ«
ĠáĬłáĪį áī°
Ġáīł áįį
Ġáĭĵ áĪĭáĪĽ
áĪ Ĥ
Ġ1 2
áĬĵ áĮĪáĪŃ
áĪĺáĪĪ áĪµ
ĠáĪĺ áĪª
áĭ¨ áĪļ
ĠáĬł áĮ¥
áĪ³ áī¸áĭįáĬķ
ĠáĪĺ áĮ½áĪĲáįį
ĠáĬ¥ áĪĿáĬĲáīµ
ĠáĪĺ áĭµ
áĪĻ áīµ
ĠáĭŃ áī³áĭĪ
áĮĪáī£ áĭį
áįĪáĪį áĮį
ĠáĬłáĪµáī° áĭĭ
Ġáĭ¨ áĭ°
Ġáĭ° áĬķ
ĠáĬłáĪĿ áĪµáīµ
Ġáī° áĮĪáī¢
áĭŃáĪħ áĪĿ
áĪ³ áī¢
Ġáīł áĬĲ
áĬĲ áī±áĬķ
ĠáĮ «
ĠáĪĽ áĬħ
áįĪ áĮłáĪ¨
ĠáĭŃáĮĪ áĬĽáĪį
áĮĪ áĬĽ
ĠáĮ ¸
áįĪáĮ¥ áĪ®
áĪĪ áĬĿ
áīłáĪį áĮ¥
Ġáīł áĭĪ
ĠáĪĺ áĪĿ
áīłáĪ« áĭĬ
Ġáī£ áĪį
ĠáĭĪáĮ£ áī¶áī½
ĠáĭŃ áĭŀ
ĠáĪļáĬĴ áĪµáī´
Ġáĭ¨áĪĺ áĮĢáĪĺáĪªáĭ«
áĪ® áįĵ
Ġáĭ¶ áĪĭáĪŃ
áĮ« áĭĪ
áĭĿ áī¦áī½
Ġáī° áĪ³áīµ
áĬ¨ áī³
ĠáĮ¨ áĪĿáĪ®
Ġáīħ áĪŃ
ĠáĬ¥ áĬĲ
ĠáĪ´ áīµ
ĠáĬłáĪµ áī³áĭį
áīł áĬłáĪ
ĠáĬĲ áĮ¥áī¥
áĭį áĬĵ
áĮł áįĭ
Ġáĭ¨áĪļ áĪĪáĭį
áīłáĪ¨ áī³
ĠáĪ¨ áĮĪáĭµ
Ġáĭ¨áĬłáĪ Ŀ
Ġáīłáī° áĪĪáĭŃ
áĬ« áĪ«
áĭĪ áĮ¡
áĬŃáĪį áĪī
áĪ¨ áĮ¥
áĭ°áĪ¨ áĪ°
áī¡ áĬķ
áīµ áĪį
Ġ1 5
áĭŃ áĪģ
Ġáī¡ áĭµ
áĪĪ áĭŃáĪĿ
áĭ« áī¸áĭį
Ġáĭ ŀ
Ġáĭ«áĪį áī°
ĠáĪ° áĪĭáĪĿ
ĠáĪĺ áĬĸ
áĪĽ áī¸áĭį
ĠáĪĺ áĮįáĪĪ
ĠáĬ ĸ
Ġáī° áĪ³
áĪ¶ áī½
ĠáĮĪ áĪĪ
áĭĺ áĬķ
ĠáĪĺ áī³
Ġáīłáīł áĬ©
áįĪ áĬķ
ĠáĪķ áĮį
áĭĿ áĪĿ
áĮī áĪĿ
Ġáįį áīħáĪŃ
áī° áĬĵ
áĬłáĪĿ áĪĭáĬŃ
áĪ¨ áĪ°
áĪµ áī±
Ġáī°áĪĺ áĪį
áīĢ áĪĿ
ĠáĬĲ áīłáĪ©
ĠáĪĪ áĪĿáĬķ
Ġáī¥ áĭ¬
áĪ« áĮŃ
ĠáĬ¥ áĪŃáĪĿáĮĥ
ĠáĪĿ áĪµ
ĠáĬ¨ áī£
áī¡ áīµ
áĬ¨áĪĭ áĬ¨áĪį
ĠáĬ¥ áĬ®
áĬ¢ áĭ¨áĪ±áĪµ
Ġáīł áĭµ
ĠáĪµ áī³
Ġáīł áĭĵáĪĪáĪĿ
áī» áī¸áĭįáĬķ
áĪĭ áĬķ
Ġ1 1
ĠáĪĿ áĪĭáĪ½
ĠáĮ ĵ
áĪį áįį
áī¥ áĭĽ
áĮĪáĪĪ áĮ¹
áĭķ áĪ«
áĪĻ áĬķ
ĠáĪķ áĭŃáĭĪáīµ
Ġáĭįáĭµ áĭµ
ĠáĬł áįĪ
ĠáĪļáĬĴáĪµáī´ áĪŃ
Ġáīł áĭĺ
áĪ ł
Ġáīł áīħáĪŃ
áĪµ áĪĽ
áĪĿ áĬŃ
áĭ³ áĪļ
Ġáĭ¨áī° áĬĲáĪ³
áĮ¥ áī³
áĭ± áĬķ
áĪµ áī¥
áī£ áī¸áĭįáĬķ
áĮ£ áĬķ
ĠáĬ¥áĬķáĭ° áĬĲáīłáĪŃ
Ġáĭį áĪĥ
ĠáĬłáī£ áĪĭáīµ
áĪ½ áĬĳ
áī¾ áī½
áĪĺ áĮ¡
áī½áĪį áĪĿ
áĬ«áī£áī¢ áĭį
Ġáĭ¨áī° áĪ»áĪĪ
áĭ³ áīµ
áĭĭ áĬĵ
áĭŃ áĪ¬
ĠáĭŃ áĬĸáĪŃ
áīłáĪ µ
Ġáĭ¨áĪ Ļ
ĠáĬł áĮį
áĬķ áįĪ
ĠáĭŃ áĮĪáĪį
ĠáĪ² áĪī
ĠáĪĺ áįįáīµ
áĭ° áī¥
áĬĸ áĪĿ
Ġáĭ¨áĪį áĪĽáīµ
ĠáĭŃ áī³
áĪ³ áĭĬ
ĠáįĬ áīµ
áĪ« áĭŃ
áĮ¥ áĪ¨áīµ
áĪĪ áĭ¨
áĮ£ áĮ«
Ġáī° áĮĪáĪį
Ġáī¢ áĪ®
áī£ áī£
Ġáĭķáĭµ áĪį
áĪ¨áĮĭáĮĪ áĮ¥
áī ¿
áĬ¨áįį áī°áĬĽ
áĭ« áĭŃ
áĪĥ áĪį
áĬ« áīµ
áīģ áīµ
Ġáī£ áĪĪáĭį
Ġáĭ¨ áĬ¤
áĬ«áĪĦ áĭµ
áĪħ áĬłáĭ´áĮį
áĭ³ áĭ°
áĭ°áĪ¨ áĮĥ
áĭŃ áĪĦ
ĠáĪĿ áĭµáĪŃ
áį ĵáĪŃ
áī¨ áĪµáīµ
ĠáįįáĪĭáĮİ áīµ
áī½ áĪĪáĭį
áĪĪ áĭļáĪħ
áĬķ áīĢáĪ³
áĭ² áĭ«áĭį
Ġáĭľ áĮİáī½
ĠáĮł áīģ
ĠáĮį áĪį
ĠáĪĺáĪĨáĬĵ áī¸áĭįáĬķ
áĭ« áĪĿ
áĭĪáīħ áī±
áĬ«áĪĦ áĭ°áĭį
Ġáĭį áĭŃ
áĮħ áĪĿ
áĭµ áĪµáīµ
áĬĵáĮĪ áĪ©áīµ
Ġáīĭ áĬķáīĭ
ĠáĪµáĪľ áīµ
ĠáĪĺ áĬĲ
ĠáĪĺ áĭĿ
áĮ¦ áĪŃ
ĠáĮĪ áīłáĭ«
áĮł áĬĲ
ĠáĪĢ áī¥áīµ
Ġáī°áĮįáī£ áĪ«áĭĬ
ĠáĬłáĮĭ áĮ£áĪļ
ĠáĪĿ áĪŃáīµ
áĭ± áīµ
áĪį áĪĽáīµ
áī¸áĭį áĪĿ
ĠáįĮ áĭ´
ĠáĪ¥áĪ« áĭİáī½
ĠáĬłáĭŃ áĬĲáīµ
ĠáĭŃ áĪģáĬķ
Ġáĭĵ áĭŃ
áĭ° áīł
ĠáĪµ áįĸáĪŃáīµ
áīłáī° áĪĪáĭŃ
ĠáĬ®áĪļ áī´
ĠáĬ¥áĬķáĭ° áĪĽáĭŃ
áĪµáī° áĭĭ
Ġáĭ¨ áĮİ
ĠáĬłáĬ«áī£áī¢ áĭİáī½
ĠáĬ¨ áĭĪ
Ġáĭ¨áĪļ áī³
ĠáĭŃ áĪĭáĪī
ĠáīłáĪļ áĭ«
Ġáĭ¨áĪ ģ
ĠáĪ ¦áĪµáīµ
ĠáīłáĪ ¨
áĪ¸ áĬĲ
ĠáĬĲ áīłáĪ¨
áĪĺáĬķ áīµ
ĠáĪ ©
ĠáĮ¤ áĬĵ
áĪĺ áĭĭáĪį
áĮłáĪ Ī
ĠáĬłáĪ ģáĬķáĪĿ
áĪŃáĪĿ áĪŃ
ĠáīłáĪĨ áĬĲ
ĠáĬŃ áĪŃáĪµáī²
ĠáĪĲ áĪ³áī¥
Ġáĭ¨ áīµáĪĿáĪħáĪŃáīµ
Ġáī£áĪĪáĪĻáĭ« áĭİáī½
áĬ¥ áĪµ
áĬĲ áĮį
ĠáĬ¥áĬķáĭ² áĪĨáĬķ
ĠáĮĪ áĬĵ
áĪģ áĪĪáīµ
Ġáīµ áĬŃ
Ġáĭ³ áĭŃáĪ¬
ĠáĪŃ áĭķ
ĠáīłáĬł áĭ²áĪµ
áĮĭ áĪļ
áĪĪáĭį áĪĿ
ĠáĮį áĪĪ
Ġáĭ¨áĪ Ģ
áĪĨ áĬĸáĪĿ
áĪį áĬĿ
ĠáĪļ áĬĵ
áĪ© áĪĿ
ĠáĮīáĭ³ áīµ
áĪģ áĪīáĪĿ
áĭ³ áĭ³
áĪłáĪ ©
Ġáįį áĪŃáĭµ
ĠáĬłáĪ «áīµ
áĬ¨ áįĭ
áī· áĬķ
áĪĿáĬŃ áĬķáĭ«
Ġ1 4
ĠáĭĪ áĮª
Ġáī£áĪĪ áĪĺ
ĠáĭŃ áĪĨáĬķ
áĭĺáĮĭ áĮħ
áĪ° áĬķ
áĮĢáĪĺ áĪ¨
áĮį áĬĵ
ĠáĬłáīħ áĮ£áĮ«
Ġáīł áīĤ
ĠáĭµáĪŃ áĮĬ
ĠáĪľ áĭ³
áĭ¨ áĬ¢áīµáĭ®áĮµáĭ«
ĠáįķáĪ® áĮįáĪ«
áĪ¬ áĪ½áĬķ
ĠáĪ łáĪ
Ġáī° áĮł
áĪĪ áįį
ĠáĪĿ áĪ³áĪĮ
Ġ1 3
áĭ« áĭĻ
Ġáĭ¨áĪĺ áĬķáĮįáĪ¥áīµ
Ġáī°áĪ³áīµ áįİ
áĪĺ áĭĿ
Ġáĭ¨ áĮ¤áĬĵ
áĭĭ áĪļ
ĠáĪį áĮĨ
Ġáī³ áĭį
áĮĪ áĭĽ
áī¥ áĪªáĬ«
ĠáĭĪ áĮ£áīµ
áĪĽ áĪį
áĮł áĬĽ
ĠáĭĪ áĪ¨áĭ³
áī¶áī½ áĬĵ
áĪµ áī¶
áīłáīµ áĪĿ
ĠáĪµ áĪĭ
ĠáīłáĪ ¥
ĠáĮ¥ áĬĵáīµ
áĪį áĬ«áĪĿ
Ġáĭĭ áĬķáĮ«
áĬ¦ áĪ®
áĭįáĪį áĭµ
ĠáĭĪ áĪ«áīµ
áī½ áĪĭ
áĮ£ áĭŃ
ĠáĮŃ áĪĿáĪŃ
áĭ³ áī³
áīĢ áĪį
ĠáĬ« áĪĪ
Ġáĭ¨ áĬ«
Ġáī¢ áĪĬáĭ®áĬķ
Ġáī ±
Ġáĭ¨áĪļ áįĪ
ĠáĬ¢ áĬ®áĬĸáĪļ
20 1
Ġáī° áĪ°
áĮĪ áĪ¨
Ġáĭ¨áĪ ĭ
ĠáĬ¥ áĪ±
ĠáĭŃ áĬĸ
áĮĪáĪĪáĮ¹ áīµ
áĭ³ áī¸áĭį
ĠáĬł áī£áĪį
ĠáĭŃ áīłáĪįáĮ¥
Ġáīłáī° áĪĺáĪĪáĬ¨áī°
ĠáĬłáĪĺ áĪĪáĬ«
ĠáĪĽ áĮįáĬĺáīµ
áĭĿ áĪŃ
ĠáĮłáĬķ áĬ«áĪ«
Ġáĭ¨ áĬ®
áĮ¨ áĭĭ
Ġáĭ¨áĬ¢ áĬķ
Ġáĭ¨ áī»
Ġáĭ´ áĪŀáĬŃáĪ«áĪ²
áĭĽ áī¤
ĠáĭŃáĪħáĬķ áĬķ
áīłáĭļáĪħ áĪĿ
ĠáĬ ĳ
ĠáĪĽ áĭµáĪ¨
Ġáī¥áĪĶ áĪ«áĭĬ
ĠáĪ° áĪŃ
áĭ« áĭ«áĭĺ
áīĢ áĭĭáĪį
áĮĪ áĭ°
ĠáĬ¨ áĬĲ
áĭĺ áĪ®
Ġáĭ¨áī° áīĢ
ĠáĪĺáĪį áĪµ
áĭĵ áĪĺ
ĠáīłáĬłáĪ ģáĬĳ
áĪ» áĮĪáĪŃ
áĪ« áĪī
Ġáīł áĮįáĪį
áĬŃ áĪ®
ĠáĬ¨ áĪ°
áĪ° áĭµ
ĠáīĢ áĮ¥
Ġáī¤ áī°
áĪİ áīµ
áĭŃáĪĽáĬĸ áīµ
ĠáĭµáĪŃ áĪ»
áĭĺáĪŃ áįī
áĪ± áīµ
áī§ áĪį
ĠáĬ¥áĬķáĭµ áīµ
áĮĭ áĪª
áī³ áįĬ
ĠáĪĨ áĬĹáĪį
ĠáīłáĪ½ áī³
áĪŃ áīħ
áĪĺáĪĪ áĬ¨áīµ
ĠáĪĤ áĭ°áīµ
áĭ°áĪŃ áĮĪáĭį
áĭµ áĪ©
ĠáĬ¥ áĮįáĪŃ
áĬĽ áĭįáĬķ
ĠáĬłáĬķ áī°
ĠáĬ ¬
áĪĿáįĴ áĬŃ
áĭŃ áĪģáĬķ
ĠáĪµáĪĪ áĪĨáĬĲ
áīĨ áĪĿ
ĠáĬłáĪį áĬĲáīłáĪ¨
ĠáĬ ħ
áįį áī³áīµ
áĮĪáĬĵ áĬĽ
Ġáīł áīħ
Ġáī° áĮ«
ĠáĪ¥áĪŃ áĭĵ
ĠáĪ ®
Ġáī° áĬ¨áīµ
áĪĮ áĪĭáĭį
ĠáīłáĬł áĬķ
áĭ« áīµ
Ġáĭ¨áĪĺ áĮ£
áĪħ áĪį
Ġáī° áĪ«
Ġáĭį áĮª
áī½ áĮį
Ġáī£áĬķ áĬŃ
ĠáĬłáĪ ľáĪªáĬ«
ĠáĭŃáĬĵáĮĪáĪ« áĪī
áī± áīµ
áīłáĪ¨ áĪ°áī¥
áī£ áĭĬ
Ġáĭ¶ áĬŃáī°áĪŃ
áĬĲ áĪŃ
Ġáīł áī¥
ĠáĬłáĪĭ áī¸áĭį
áĪį áĪµ
Ġáĭ¨ áĭĪáĮ£
áīĢáĪŃ áī¥
ĠáĪ° áįĬ
ĠáĬłáĪŃ áĪ¶
ĠáĪĺáĮįáĪĪ áĮ«
Ġáĭ¨áĬ¢ áĬ®áĬĸáĪļ
áĮĪ áĪ©
áĬ¥ áĬĽ
áĬŀ áī½áĬķ
Ġáĭ¨áĪļáĭ«áĪµ áī½áĪį
áį ı
áĮłáĪ ĺ
áĪ° áĪ©
Ġáī »
áĭļ áīĥ
ĠáĪĺ áī°
Ġáĭ¨áĪ ŀ
áĬª áĭ«
áįį áĬĵ
ĠáĬłáĮĪ áĪª
áīł áĭĭáĪį
ĠáĬłáĪį áįİ
Ġáĭ¨áĪļ áī½áĪį
áĪĪáĪĿ áĪ³áĪĮ
Ġáī´ áĬŃáĬĸáĪİáĮĤ
áĪĨáĬķ áĪĿ
ĠáĮ½ áĪĳ
Ġáĭ¨ áĬķáĮįáĭµ
ĠáĮī áĭŀ
Ġáīģ áĮ¥
áĭ¨ áĪģ
áĪŃ áĮ«
áĮĢáĪĺ áĪŃ
ĠáĬ¢áĬķ áĭ±áĪµáīµáĪª
áī´ áĬķ
áīłáĪĪ áĮł
áĪ® áĪµ
Ġáĭ¨ áīĢáĪ¨
áĪ« áĭį
Ġáĭ¨áĬłáĪĿ áĪĭáĬŃ
ĠáĪĪáĪĽ áĮįáĬĺáīµ
Ġáĭ¨ áįį
ĠáĬĥáĪĭáįĬ áĬĲáīµ
áįİ áĪŃ
ĠáĪĺ áĭĭ
áĪĥ áĬķ
ĠáĪĺ áĪ³
Ġáī° áįĪ
áĪµ áįĴ
áĬ¥áĪŃ áĮįáĮ¥
ĠáĮīáī£ áĬ¤
áĬ« áĪģáĬķ
Ġáį ħ
áĪ¨áĭ³ áīµ
ĠáĬķ áī¥áĪ¨áīµ
ĠáĭĪ áĭ³
áĮĭ áī¸áĭį
áĮĬáĭľ áĭį
ĠáĪĪ áĬłáĪ
áįĪáĪį áĮī
áĪĮ áĬŃáīµ
áĮįáī£ áīµ
áĪĽ áĬĿ
áĮ£ áĪª
áĮłáĪ ĭ
ĠáĭįáĮ¤ áī³áĪĽ
áĪ· áĪį
Ġáĭį áĮŃ
ĠáĮ¥ áīłáīĥ
200 9
Ġáī°áĮĪáĪį áĮ¿áĪį
áĬ¨ áī£
ĠáĪµáī¥ áĪ°áī£
ĠáĪĿ áĮįáī¥
Ġáįĸ áĪĪáī²áĬ«
áĮĢ áĬķ
áĪµ áĪŃ
Ġáĭ¨áĪļ áĪĨáĬĳ
ĠáĬ¨ áĭį
áĪŀ áīµ
Ġáĭ«áĪµáįĪáĪį áĮĭáĪį
áįį áĬķ
Ġáī ¶
Ġáīµ áĪ«áĬķáĪµ
áĬª áĬĵ
Ġáī¥ áĪĦ
áĬķ áĮī
áĬ¨ áīłáĪŃ
ĠáĬĲ áĬĿ
ĠáĪµ áįįáĪ«
ĠáĬķáĮį áĭµ
Ġáį ĵ
ĠáĬ¥áĭį áĬĲ
áĪĲ áĬķáĪµ
ĠáīłáĪĺ áĪĨáĬķ
ĠáĮ¥ áĬĵ
Ġáĭķ áīħáĭµ
ĠáĬĵ áīµ
áįĪáĮ¸ áĪĿ
áĪĺ áĪ©
áī¦ áī½áĬķ
ĠáĬłáĮį áĬĿ
áī£ áī¸áĭĭáĪį
Ġ1 7
ĠáĪĢ áĮĪáĪŃ
Ġáīł áĮī
ĠáĬłáĪµáī°áĭ« áĭ¨áīµ
áīłáĪ© áīµ
ĠáĪĺáĪµ áĮłáīµ
áĪ³ áĪ°áī¥
ĠáĬ¥áĭ« áĪĪ
áįĸáĪŃ áī°áĪŃ
áĭį áĪ®áįĵ
ĠáĮ¥ áĪŃ
áĪĺáĪĪ áĬŃ
ĠáĬłáĪĺ áĪįáĬŃ
ĠáĪĺ áī¶
ĠáĬł áįį
áĭķ áĬĸ
áĬĿ áĪĿ
áĪį áĪĽ
áĪĬ áĭĿ
áĮĭ áĭĬ
áĭ© áīµ
áĮįáī£ áī¡
ĠáĮ¥ áĬķ
Ġáī£áĪĪ áįĪáĭį
Ġáī¢ áĭ«
áĮŃ áīµ
áĪŁ áĪį
áĮĭ áī¢
áįķ áĪ®
Ġ1 6
áīĭáīĭ áĪĿ
áĮł áīģ
áĪĿáįĴ áĭ®
ĠáĭĿáĮį áĮħáīµ
Ġáĭ¨áĪµ áĪ«
áĬ¨áĬĵáĭĪ áĬķ
ĠáĬłáĭµáĪŃ áĮĪáĭį
Ġáĭ¨áĮį áĪį
ĠáĪĺ áĮ£
Ġáĭ« áĭį
ĠáĪį áĬŃ
áĭ³ áĬĵ
áĪ¨ áī¥
áĮ¥ áĪĿ
áĪĿáĬŃáĬķáĭ« áī±áĪĿ
Ġáĭ¨áĪĿ áī³
ĠáĬ¥ áĭļáĪħ
áįĬ áĭ«
áĬ¨ áįĪ
áĬ¥áĬķ áĭ²áĪħ
Ġ1 8
áĪ« áĬŃ
áĭ Ķ
Ġáį İ
áĬĲáĪµ áī°áĬĽ
áĪĺáĪį áĬ¨áīµ
ĠáīĢ áĬĵáīµ
Ġáĭ¨ áī¥
áĭ« áīĤ
áĮĢ áĪį
Ġáĭ¨áĪĿ áĬĵ
ĠáĪĺ áĪĿáĪħ
Ġáī£áĪĪ áī¤áīµ
ĠáĭŃáī½ áĪĭáĪī
áĭ³ áĪ´
áīłáĪ ī
ĠáįķáĪ®áĮĢ áĬŃ
áĪŃ áĬĵ
áīłáīµ áĬĵ
Ġáĭķáĭµ áĮĪáīµ
ĠáīłáīłáĬ© áĪĭáī¸áĭį
áĪĺ áĪĿ
áĭ² áīµ
Ġáįį áīµ
áĮłáĬĵ áĬ¨áĪŃ
Ġáĭµ áĪį
áĪŃáĭ« áĪĿ
Ġáī£ áĪ»áĮĪáĪŃ
Ġáī¥ áĪį
ĠáĬª áĪİ
áĬĲ áĬĽ
Ġáī°áĪĽáĪª áĭİáī½
áĭ°áĪ¨áĮī áīµ
áĮį áĭļ
áĬĲáīłáĪ¨ áĭį
áī¤ áī±
ĠáĪĪ áĭļáĪħ
ĠáĪĺ áĬķáĮį
ĠáįĪáīĥ áĭµ
ĠáĬłáĪ łáĪ«
áĪĪáĭ« áĭ¨
áĬłáĪ Ī
áĬ¨ áĭļáĭ«áĪĿ
áĬĲ áī³áī¸áĭį
áī¥áĪ¨ áī°áĪ°áī¥
áĪ° áī¡
áĪ« áĪĿ
áĮł áĬĿ
ĠáĭµáĪŃáĮħ áī¶áī½
áĬĵ áįĬ
ĠáĪµ áĪįáĮłáĬĵ
ĠáĮłáīħ áĪĭáĭŃ
ĠáĪµ áĬ¬
ĠáĮī áĭµ
Ġáĭ¨ áĭ«áĪħáĭĮ
áĪŃ áĬŃ
ĠáĮ¥ áīħ
Ġáĭ¨áī° áĭĪáĪ°
áĮĪáĬķ áī£áīµ
áĭŃáĪģ áĬķáĬĵ
ĠáĪĺáĭµáĪ¨ áĬŃ
áī² áĬŃáĪµ
Ġáī°áīĭ áĪĿ
ĠáĭĪ áĭ²áĪħ
áĮĭ áĮį
Ġáĭ¨áĪļ áīĨ
Ġáī¥ áĪıáĪį
áĪĨáĬĲ áĭį
ĠáĭĪ áĪ¨
ĠáĬ¨áī£ áĭµ
áĮĪ áĭĭáĪį
Ġáĭ¨ áī´
Ġáīł áĮĭáĪ«
Ġáĭ¨ áĮĭáĪ«
áĪĭ áĪĭ
Ġáī¥ áĪĭ
áĭį áĮ£áīµ
áĪ« áĪ½
áĪ° áĮ¡
áĮĪáĬĻ áīµ
áĪĭ áīĤ
ĠáĪĥ áĪ³áī¥
áĪµáīµ áĬĵ
áĪ« áī¸áĭįáĬķ
áĬ¨áī³ áī°
áĭ ¢
ĠáĪĮ áĪĭáĭį
áĭĪ áĪĪ
Ġáĭ¨áĪļáĭ« áĪ³
áī «
ĠáĮ Ĩ
áĮĪ áĪĿ
ĠáīłáĬ¥ áĪŃ
áī½ áĬĭ
Ġáĭ¨ áĬŃ
ĠáĬłáī¥ áĭĽ
ĠáĬł áĬ³
Ġáĭ« áĪĭ
ĠáīłáĪ Ģ
áĪ° áīµ
áĮĭ áĭŃ
áī¶ áĪµ
áĭ³áĬķ áĭ±
áĮ® áī½
áĪĺ áĬĵ
Ġáĭ¨áĪħ áĭĿáī¥
áĪ° áĮłáĭį
Ġ2 5
áĪ¨ áī°
áĪ£ áĪªáĭ«
áĬ« áĪª
ĠáīłáĬł áĮĪáĪªáī±
ĠáĪĺ áĮł
ĠáĪµ áįĸáĪŃ
áĪħ áĬĵ
ĠáĪµáĪĿ áĪĿáĬĲáīµ
áĬ¨ áĭ«
ĠáĭĪ áĪµ
Ġáīł áī£
áĬ¨ áĭį
ĠáĭįáĭŃ áĭŃáīµ
ĠáĬłáĪĺ áĪ«
ĠáīłáĬł áĮįáī£áī¡
áĪĢ áī¥
Ġáĭ¨áĪ ´
ĠáįĸáĪĬ áĪ²
Ġáĭ¨áĪ ĥ
áīĢ áĬķ
1 0
áĪĭ áī½áĬķ
áĪģ áĪĪ
µ áī°
Ġáī° áĮ¨áĪĽáĪª
ĠáĮ¥ áīłáī¥
ĠáĪ³ áĪĿáĬķáīµ
áĮĪáĪį áĮįáĪİ
áįĮáĭ´ áĪ«áĪį
ĠáĬ¨ áĪµ
áĭ© áĬķ
áĪĿ áĮ£áīµ
Ġáĭķáĭµ áĪľ
ĠáĬłáĬķ áįĥ
áĬĲ áī¶áī½
áī² áīµ
áīłáī° áĮ¨áĪĽáĪª
1 5
áį ĭáĭŃ
ĠáĪĪ áĪħ
áĪį áīģ
ĠáĬ¨áī° áĪŀáī½
ĠáĮ¥ áīĤáīµ
áįĪ áįĢ
ĠáĬłáĭŃ áīĢ
áĬłáĪ į
áī¨áĪµáīµ áĪĺáĬķáīµ
áĬ ¼
áĭ° áĪį
Ġáĭ¨ áĭµ
ĠáĬ¥áĬķáĭ°áĪļ áĮĪáī£
áĪĽ áĪ½
ĠáĪķ áĮĪ
Ġáī°áĪ³ áī³áįĬ
áīłáĪĮ áĪĭ
ĠáĬŃáįį áĪİáī½
ĠáīµáĪĿáĪħ áĪŃ
áĪ° áĭĭáĪį
áĮ½ áĬ¦
Ġáī¥ áĪĪáĬķ
áĮĢ áĪĿ
Ġáĭ¨áĪļ áĪĺ
áįĪ áĪ¨
áĮ§ áĪį
Ġáĭ¨áĬĲáīłáĪ¨ áĭįáĬķ
áĪģ áīµ
áĪľ áĬķ
ĠáĬ¨ áĪĿ
ĠáĮİ áĬķ
ĠáĬłáīµáĪĮ áī¶áī½
Ġáī°áĮ« áĭĭ
ĠáĭŃ áĭĺ
ĠáĪĪáĪĺ áīĢ
Ġáīłáī° áĪĪáĭŃáĪĿ
áĭ Ł
áĪ¬ áĪ½áĬĳ
ĠáĪĢ áĮĪ
ĠáĭĪ áĮĪ
ĠáĪĽáĭķ áĬ¨áĪį
áīłáĪ ĭáĭŃ
ĠáĭŃáĮĪáĪį áĮ»
áĮ¥ áĬĲáīµ
ĠáīłáĪĮ áĪİáī½
ĠáĬ¨ áĪļáĭ«
ĠáĭµáĪĿ áįħ
áĬŃ áĪ²
áī³ áĭ²áĭ«
ĠáĮ Ĳ
áīłáĪ Ŀ
áĪ»áĪ» áĪį
ĠáĪ° áĬĲ
Ġáīł áĮİ
áī³ áĪŃ
ĠáĬ¥áĪµ áĬª
Ġáī°áĭĪ áĬ«
áĭ ĳ
áĭ² áĪ±
Ġáĭ¨áĬł áĮĪáĪªáī±
Ġáįĭ áī¥áĪªáĬ«
áĪ³ áĪī
ĠáĭĪ áī³áĭ°
ĠáīµáĪŃ áĮīáĪĿ
ĠáīłáīħáĪŃ áī¡
áįİáĪŃ áĪľ
áĮłáīł áīĢ
áĪĮáĬŃáīµ áĪªáĬŃ
áĮĪ áīł
áįī áĬķ
áĮ¥ áĬĵ
Ġáĭ° áĪĿ
áĮĪ áĭįáĬķ
ĠáĪ² áī£áĪį
áĭĪ áĭµ
áĮĪáĬĲ áī£
Ġáī°áĪĺ áĪ³áĪ³áĭŃ
áĬĸ áĪ«áī¸áĭį
áĭĪáĮ£ áīµ
áĮŃ áĪŃ
ĠáĪĺáĬĲ áĪ»
Ġáĭ¨ áĪĪáĭįáĪĿ
Ġáī° áĪ¸
ĠáĬ¥áĬķáĭ°áĪļ áĭ«áĪµ
áī³áĭĪ áīĢ
ĠáĭŃ áĬ¸
Ġ3 0
ĠáįĪ áī°áĬĵ
áĭļ áĭ«áĭį
áĭĽ áĭĿ
áĬ¦áĪ® áĪļáĭ«
áĪŀ áĬķ
Ġáīħ áĭµ
Ġáĭ¨ áī¤
Ġáĭ¨áĪļ áĪĪáĭįáĬķ
ĠáĪģáĪĪ áī°áĬĽ
Ġáī£áĪĪ áĪ¥
áīłáī°áĮ¨áĪĽáĪª áĪĿ
áĪ® áĭį
áĭ´ áĪŀáĬŃáĪ«áĪ²
Ġáĭ° áī¥
ĠáĪĺ áĪ£áĪªáĭ«
áĮĢáĬķ áĪ²
áī³ áĪī
áĭ°áĮĭ áĮĭáĪļ
Ġáĭ° áĪµ
ĠáĪ¥ áĬĲ
ĠáĬłáĪµáī°áĭĭ áĮ½áĬ¦
áīĨáĮ£ áĮłáĪŃ
ĠáĪĺáĬķáįĪ áĪµ
Ġáĭ¨ áĬ¨áī°áĪĽ
áīłáĪ« áīµ
ĠáīĢ áĭµ
áįĸ áĪĬ
Ġáĭ¨ áįĢ
Ġáĭ¨ áīłáĪĪáĮł
ĠáĬłáĪĺáĪĪáĬ« áĬ¨áīµ
áī³ áĬķ
ĠáĬ¥áĭį áĬĲáīµ
áĪ³áī° áįį
ĠáĬ¥ áĪĿ
áĪĭáĪĽ áĭĬ
Ġáī°áĬ¨áīµ áĪİ
áĪį áĪħ
Ġáĭ¨áī° áĪĺ
ĠáĪ°áī¥ áĪ³áī¢
o n
ĠáĬ® áĬķ
Ġáīµ áĭįáĪįáĭµ
ĠáĪĨ áī´
áĮłáīĢ áĪĻ
ĠáĬłáĬķáįĥ áĪŃ
ĠáīłáĪĺ áĪµ
ĠáĬłáĪįáĬĲáīłáĪ¨ áĪĿ
áĪĪ áĪį
áĪİ áī¹
ĠáĪĺáĪĺ áĪªáĭ«
áĬĲáĮĭ áĮĪáĪŃ
Ġáĭ¨áĪ ½
ĠáĬ¥áĭµ áĮĪáīµ
áĬ¨ áĪī
áĮĢáĪĺ áĪ¨áĭį
ĠáĬłáĪĺ áīµ
áĪª áįĸáĪŃáī°áĪŃ
áīłáĪŃ áĬ«áī³
áĭİáī½ áĪĿ
Ġáĭ¨áĬł áĮĪáĪŃ
ĠáĪĻ áĭ«
ĠáĬłáĬķ áīĢ
ĠáĪĺ áīĨ
ĠáĪ ī
áī¶ áĬķ
áī½áĪģ áĬķ
ĠáĪĿ áĭķáĪ«
áĮ» áĪļ
ĠáĪį áĪĿáĭµ
ĠáĪµ áĪį
áĪĻ áĪŃ
áīĢáĪŃ áī¡
Ġáĭ¨áĪļ áī£áĪį
Ġáīł áīģ
áĮ¥ áĬķ
Ġáī£áĪĪ áįīáīµ
ĠáĪĺ áĮį
áĬķ áī²
Ġáī¥ áīµ
áī¡ áĪŃ
ĠáĬłáĪĪ áī£áī¸áĭį
Ġáĭ¨áĮį áĬķ
áĪĦ áĭ±
ĠáĬłáĭĭ áĮħ
áĬ¥ áĭļáĪħ
áĭİáī¹ áĬķ
ĠáīµáĬķ áĪ½
Ġáĭ«áĪĪ áīłáīµ
ĠáĬłáĪ° áĪįáĮ£
ĠáĬķáĮī áĪ¥
ĠáĬ¥ áĮ¥áĪ¨áīµ
áīłáĪ ³
ĠáĮ ħ
áĪ³áī° áįī
áĮł áī£
Ġáīłáĭĵ áĪį
Ġáĭ¨áĪĨáĬĲ áĭįáĬķ
Ġáĭ« áĪĭáī¸áĭįáĬķ
ĠáĪħ áĭŃáĭĪáīµ
Ġáīł áĭķ
ĠáĬŃáĪĪ áī¦áī½
áĪħ áĬĲáīµ
áĪĨáĬĵ áī¸áĭį
ĠáĪĺ áĬĸáĪŃ
ĠáĬ¥áĬķáĭ°áĪļ áī½áĪį
áĮĪ áīµáĬĵ
ĠáĪĺáĪµ áĪ«áīµ
ĠáĬĲ áĮĭ
ĠáĬŃáĪį áĪİáī½
áĪŃ áĪĽ
áĭĭ áīµ
ĠáĪ« áĪ±áĬķ
Ġáĭ¨áĬł áĭ²áĪµ
áĭµ áĪľ
áįİáĪŃáĪľ áĪ½áĬķ
áĭĵ áĭĬ
áī¥áĪĶ áĪŃ
ĠáĪĽáĪħ áīłáĪŃ
áĭµáĪŃ áĮħ
Ġáī£ áĪķ
áĪ° áĪį
Ġáĭ® áĪĲáĬķáĪµ
ĠáĪĢ áī¥
Ġáĭ¨áĪļ áĮĪáī£
ĠáĪ» áĪĿáįĴáĭ®
Ġáĭ«áĭ°áĪŃ áĮĭáĪį
áī» áĪĪ
áĪĭ áīģ
ĠáĪ« áĪµ
áįĪ áĮłáĪŃ
ĠáĬ¥áĬķáĭ³ áĪĪáĭį
ĠáĮ¥ áīĥáīµ
Ġáĭ¨áĪĺ áĬķáĮįáĪµáīµ
áĮī áĬķ
Ġáĭ¨áĪļ áĮĪáĬĺáĭį
ĠáĬłáĪĽáĬ« áĬĿáĬĲáīµ
Ġ2 4
Ġáĭ¨áĪļ áī½áĪī
Ġáĭ¨áī° áī£áĪĪ
áĭį áĪİ
áĪµáī° áĬ«
Ġáĭ³áĭŃáĪ¬ áĬŃáī°áĪŃ
Ġáī³ áĪĭáīħ
Ġáĭ¨áĪĺ áĪįáĬ«áĪĿ
Ġáīł áĮĢáīµ
ĠáĪĽ áĪĪ
Ġáĭ¨áĪĽ áĪµ
ĠáĮ¦áĪŃ áĬĲáīµ
áĪ³ áĬĿ
Ġáīłáī° áĭ«áĭ«áĭĺ
Ġáĭŀ áĬķ
ĠáĬ¥áĬķ áĭµáĬķ
áī£ áĪ¨
ĠáįĵáĪŃáī² áĭİáī½
ĠáĪ° áĬķ
ĠáĪĬ áĮį
ĠáĬłáĪĺ áĪ«áĪŃ
Ġáī° áĬĲ
áĬ®áĬĸ áĪļáĭ«
Ġáīł áĮĪ
ĠáĭĪáĭŃ áĭĺáĪ®
áĮĪáĪ« áī¸áĭį
áīĢ áīħ
áĪĺ áĪ³áĪ³áĭŃ
Ġáĭ¨ áĮĪáĬķáĭĺáī¥
e r
áīłáĬłáĪ ģáĬĳ
ĠáĬłáĪ «
áĮ¨ áīµ
Ġáĭĺ áĮĪáī£
ĠáĬłáĪµáī° áĪ³áĪ°áī¥
áĪª áĭį
ĠáĮ¥áĭ«áīĦ áĭİáī½
Ġáī£áĪħ áĪį
áĭ³ áĮĬ
áĪ® áī¹
ĠáīłáĬłáĪ Ŀ
áĭµáĪŃ áĪ»
ĠáīłáĪĺ áīĢ
ĠáĪ¥ áĪįáĮ£áĬķ
Ġáĭ³ áĪŃ
ĠáĪ° áĭİáī½áĬķ
áĭĭ áĪĪáĪģ
Ġáī½ áĪİ
ĠáĬłáĪĪ áĬĿ
Ġáīł áĬŃ
áĪ¨ áĪĿ
áį Ķ
áĭĺ áĪĺ
ĠáĪĽ áĪŃ
áĪį áīłáīµ
Ġáī° áĮłáīħ
áĮĢ áĪŃ
ĠáĪħ áĮĪ
a n
ĠáĭŃ áįĭ
ĠáĮł áī¥
ĠáĬł áĬĲáĪµáī°áĬĽ
áī£ áĪŃ
ĠáĭĺáĪĺ áĬĵáĭĬ
Ġáĭķ áīĥ
ĠáĬłáĭµáĪŃ áĮĵáĪį
áĪĲ áįĬ
Ġáĭ¨áĪķ áĭĿáī¥
ĠáīĢ áĪĭáĪį
ĠáĮįáĪį áĮ½
ĠáĬ¨áĬł áĬķáĭµ
áĬ ļ
ĠáĪĿáĬŃ áīµáĪį
Ġáĭ¨áī° áĪĪáĭ¨
áĬĽ áĪī
ĠáĬ¥áĪµ áĬ«áĪģáĬķ
ĠáĮį áī¥áĪŃ
Ġáĭ¨áĪļ áĪīáīµ
áĮį áĪĿ
áĪĪ áĬĽáĪį
Ġáī° áįħ
Ġáĭ« áĬķ
áĪĮ áĪĭ
áĭį áĭį
ĠáĪĪ áĪķ
áĬ«áĪĦ áĭ°
ĠáĮ£ áī¢áĭ«
Ġáĭķ áĭį
áīĥ áī¸áĭį
ĠáĬłáīĭ áĪĿ
ĠáĮłáīģ áĪĺáĭĭáĪį
áĪ¬ áī³
áĭĪ áĮĪáĭµ
Ġáī¥ áīĥáīµ
i n
ĠáĬ¨ áĪĮáĪİáī½
ĠáĪĺ áĪĭ
Ġáīł áĬ¨áįįáī°áĬĽ
áĮĪáĪĪ áĮ¸
áĭ¨ áĬłáĪ
ĠáĬĥáĭŃ áĪİáī½
ĠáĬł áĮłáĬĵ
ĠáĭŃ áīĢ
áĭ¬ áĬķ
ĠáĭŃáī³áĭĪ áīĥáĪį
áĪµáī° áĪŃ
ĠáĮįáĬķ áĭĽáī¤
Ġáī° áĮłáĬĵ
áĮłáĭ¨ áīħ
ĠáĭĿ áīħ
ĠáĬłáĪµ áĪĺ
ĠáĮĪ áĮ½
áĪ ¡
áī¡ áĬĵ
00 0
áĭĿáī¡ áĬķ
Ġáī° áĭ°áĪ«
ĠáĪķ áĭŃáĭĪ
Ġáĭ¨áĬłáĪ ľáĪªáĬ«
ĠáĪĺáĪį áĬŃ
ĠáįķáĪ®áĮĢ áĬŃáīµ
Ġáįį áĪ¬
ĠáīłáĬł áįįáĪªáĬ«
áĭ³ áĭį
Ġáĭ° áĪµáī³
áĮįáī£ áī¥
ĠáĬ¥áĭµ áĪį
áĭ £
áĬ¢ áĬķ
áĪ° áĪĪ
áĭµ áī¥
Ġáĭ« áĭ°áĪ¨áĮĪ
áĭĪáĪ° áĬķ
Ġáĭįáĭµáĭµ áĪ®áī½
ĠáĪĺ áĮ¨áĪ¨áĪ»
ĠáīłáĪµ áī°
ĠáĬłáĬ³ áĭ«
áĮ¦ áī½
áĭ³áĭ³ áĪª
ĠáĮ Ĭ
áīĢáĮ¥ áĪį
ĠáĪĿ áĪ¥
Ġáĭ¨ áĭĭ
áĬ¥ áĬķáĮį
Ġ2 2
Ġáĭ¨áĪµ áįĸáĪŃáīµ
ĠáįķáĪ®áĮįáĪ« áĪĿ
áĮĭ áĮ¥
Ġáĭ¨áĬł áĭ¨áĪŃ
ĠáĮį áĪ«
Ġáīł áĭĪáīħáī±
ĠáĬłáĪĪ áĪĽ
áĬłáĬķ áĭ³áĬķáĭµ
ĠáĪĨ áĪµáįĴ
Ġáĭ¨áĪļáĭ« áĭ°áĪŃáĮī
Ġáī°áĬ¨ áī³
áĬ®áĬĸáĪļáĭ« áĭĬ
ĠáĮĪ áī¥áĪ¨
ĠáĬłáĪµ áī¸
áįĪáĪį áĮĭ
ª áĭ«
Ġáį ĭáĭŃ
áįĪáĪį áĮĪáĭį
áĭĪ áĭŃáĪĿ
ĠáĭĪ áĪĭ
áĭ³ áī¤
áĮ ¾
áĭµáĪ¨ áĪµ
Ġáī° áĭ«áĭŃ
áī» áĪī
Ġáīłáī³ áī½
ĠáĬŃáĪŃáĪµáī² áĭ«
áī¥ áĪİ
ĠáĪµ áĭµáĪµáīµ
áī³ áī½áĬķáĬķ
ĠáĬł áĭ°áĪŃ
áĪ« áī´
ĠáĭŃ áīħáĪŃ
ĠáĭŃ áĭĺáĭį
Ġ2 1
áĭĪáĮ£ áĭį
ĠáĪĺ áī¼
Ġáĭ¨áī° áī£áĪĪáĭį
áī´ áĭİ
áī¥ áī¶
ĠáīµáĬŃ áĬŃáĪĪ
áī¥ áī»
Ġáĭ¨ áĭ³
áĬĴ áīµ
áĮ£ áĮ¥
áĭ· áĪį
áĪĪ áīłáīµ
áĬĲ áī³áī¸áĭįáĬķ
ĠáĭŃáĮĪ áĬĽáĪī
áī Ń
Ġáĭ¨ áī¤áīµ
ĠáĬŃáįį áĪĪ
ĠáĬ¥ áĬĲáĪ±
áīł áĭ°
ĠáĬ¥áĭ« áĬķ
Ġáĭ¨áĬĲáīłáĪ© áīµ
áĮ» áĮ¸
ĠáĬłáĪ ħ
ĠáīłáĬł áĮĪáĪŃ
Ġáī° áĪ°áĮ¥
áĮł áĭĭáĪį
áĪŀ áĬĳáĬķ
áĬĵ áĬķáĪµ
ĠáīłáĪĮ áĪĭ
áĭŃáĪħáĬķ áĬķ
Ġáīµ áĭķ
ĠáĬ¥áĬĲáĭļáĪħ áĬķ
ĠáĬ¥ áĬ©áĪį
ĠáĪĺáįįáīµ áĪĶ
t h
ĠáĬĲáĭĭ áĪª
áīł áĬ¥áĪŃáĮįáĮ¥
ĠáĭŃ áįĪ
ĠáĬĸ áĪ®
Ġáĭ¨áĪĺ áĬķ
áĭ¶ áī¹
áĬķ áĬĲáīµ
ĠáĬ¥áĬķáĭ° áĪĮ
ĠáĪĺ áĪªáĭİáī½
áī± áĬĵ
áįĥ áĬĵáīµ
ĠáĪµáĪŃ áĭĵáīµ
ĠáĬ¢áīµáĭ®áĮµáĭ« áĭįáĭ«áĬķ
áĮĪáĪįáĮįáĪİ áīµ
ĠáĬ¥ áīħáĭµ
Ġáī° áĬķ
ĠáĬłáĪµ áĪ¨áĭµ
áĮ¥ áĪ¨
áĪĺ áĬĲ
Ġáĭ¨áĪļ áī°
Ġáĭ¨áĪĨáĬĳ áīµ
ĠáĮĢ áĪĺáĪŃ
ĠáĪĺ áĬŃ
áīĢ áĭ°
áĮł áĭįáĬķ
ĠáĪ° áĪĭ
áĭ¨ áĪ©
ĠáĬ¨ áĪį
áĪ° áī¦áī½
Ġáĭ« áĪµáī°
ĠáĬłáĬķ áĭ³áĬķ
ĠáĪĪáĪĺ áĪĨáĬķ
áĬ¨áĪĭ áĬ¨áĭ«
ĠáĬ¥áĬĵ áĬķáī°
ĠáĪļáĬĴáĪµáīµ áĪ©
ĠáĪĪáĪĺ áįįáī³áīµ
ĠáĪª áįĸáĪŃáīµ
ĠáĪĽáĪĪáīµ áĪĿ
áĪŃáĪµ áī¶áĪµ
áĭ° áĬĽáĭį
Ġáī³áĭį áīĭáĪį
ĠáĪĿ áĮįáī£áĪŃ
ĠáĪį áĬķ
áĮĢáĪĺáĪªáĭ« áĭį
Ġáĭ¨áĪĿ áĮįáī¥
Ġáī°áīĥ áĭĭáĪļ
áī° áĬĵáĪį
áīłáĪ ¬
áĮĭ áĭľ
ĠáĪ³ áĭ«
Ġáī°áīĭ áĪĽ
ĠáĬŃáįį áĭ«
ĠáĮĪáĪį áįĢ
ĠáĪµáĪĪ áĪĺ
Ġáī¤ áī°áĪ°
Ġáĭ¨áĪļ áĪī
Ġáīģ áĪŃ
áĬ« áĪĤ
áĭĿ áĮį
áī³ áĪĿ
áĬł áĭŃ
ĠáĪĪáĪĿ áĬķáĭµáĬķ
Ġáĭĺ áĭ´
áīħ áĬķ
ĠáĬ¥áĬķáĭ° áĪĽ
Ġáī¡ áĬĵ
ĠáĪĿ áĬķáĭµáĬķ
ĠáīłáĪµ áįĭáīµ
áĮĭ áĪĪ
Ġáīł áįĪ
áĬ¨áĬĵáĭĪ áĬĳ
ĠáĮį áĭ´
áĪĺáĪĪáĬ¨áī° áĭį
ĠáīłáīĢ áĪĭáĪī
ĠáĬŃ áī¥áĪŃ
ĠáĬłáĪ¸ áĬĵáįĬ
ĠáĪ ł
áĪ° áĪµ
áĪµáĪ« áĬ¤áĪį
Ġáīµ áĮįáĪį
Ġáĭ´áĪŀáĬŃáĪ«áĪ² áĭ«áĭĬ
ĠáĪĿ áī¹
Ġáī¦áī³ áĭİáī½
ĠáĬłáĪĽ áĪ«áĮŃ
ĠáĪĽ áĭ¨áīµ
200 8
áĭ© áĬĴáī¨áĪŃáĪ²áī²
áī£ áī³
ĠáĪĺ áĪ¸
ĠáĪĽ áĪ«
ĠáĬłáĭŃ áī½áĪįáĪĿ
ĠáĪĪáĪĺ áĪµáĮłáīµ
ĠáĪĽáĪµ áī³áĭĪ
ĠáĪµ áĪħ
áĪ´ áīµ
áĪŃáīµ áĪ«
ĠáĬłáĪłáĪ« áĪŃ
áĮłáĭŃ áīħ
ĠáĮł áĭŃ
Ġáĭ¨ áĮ¦áĪŃ
ĠáĪĺáĬķáĮĪ áĭ¶áī½
Ġáĭ¨áī° áī£
ĠáįĪ áĮ¥
ĠáĬłáĪĿ áī£
5 0
ĠáĪłáĪ« áī°áĬŀáī½
ĠáĬł áĭĪ
áĪ´ áĬķ
ĠáĪĿáĬķ áĮŃ
ĠáĪĨ áĭŃ
Ġáĭ¨áĬł áĬķáĭµ
áĭĵáĪĺ áī±
áĪ¥ áĪ«áīµ
ĠáīłáĪĺ áĪµáĮłáīµ
áĬķ áįĥ
ĠáĪĺáĬķáĮįáĪ¥ áī³áīµ
áĮįáĭļ áĬł
Ġáī° áĮĭ
Ġáĭį áĬĥ
áĮ¨ áī£
Ġáĭ« áīĢáĪ¨
ĠáĬ¥áĬķ áĪµ
ĠáĪĪáĪĺ áĪµ
ĠáĮĢ áĪĿ
áĪĿ áĬķáĪĿ
áī° áĬĿáĬĲáīµ
áį Ĳ
áĮĪáĪª áī±áĬķ
áīĢ áĮ£
áĮłáĬĵáīĢ áīħ
áĪ³ áĬķ
³ áĭįáĪİ
ĠáĭŃáĪĺáĪµ áĪĭáĪį
ĠáĭĪ áĪ³áĬĿ
áĪĿ áĪ¨áīµ
áĬĵ áĭŃ
Ġáī° áĭĭ
áĪ³ áĬ«
áīłáĪ Ľ
áīĥ áĪī
áĭ° áĪ°
áīł áī³
ĠáīłáĪ« áĪ±
Ġáĭ¨áĪļ áĭĪ
áĮī áĭ³
Ġáĭ¨ áīłáĪĭáĭŃ
ĠáĮĮ áī³
ĠáĮłáĪ ĭ
ĠáĪį áīµ
áīħáĪŃ áī¥
Ġáĭ Ĳ
áĪŀ áĪĭ
Ġ2 3
Ġáĭ¨ áĭ«áĭĺ
ĠáĬŃ áįī
áįĸáĪŃ áī±
ĠáĬłáĪ ¥
ĠáĬĳ áĪ®
ĠáĬ¥ áĪħ
áī¥ áī¥
ĠáĪĿ áĪģ
ĠáĪ« áĪ±
áĬĴ áĬŃ
Ġáī°áĭ°áĪŃ áĮİ
áĪµ áī²
áĪĨáĬĲ áĪĿ
áĭĪ áĭŃ
ĠáĬĲáĭĭ áĪªáĭİáī½
ĠáĬłáĮĪáĪª áī±
Ġáĭ¨áĪļ áĪĨáĬķ
áĮł áĬĿáĬĲáīµ
ĠáīłáĪĽ áĪ³
t i
Ġáī° áĮ½
ĠáĪĿ áĪįáĬŃ
áĬ¨ áĬķ
áĬŃ áī°
ĠáĪĺ áīħ
Ġáĭ¨áĪļ áĮĪáĪį
ĠáĬŃáĪĪ áī¥
ĠáĭĿ áĪŃ
áį Ĩ
Ġáĭ«áĪī áīµáĬķ
ĠáĪĺ áĭĽ
ĠáĬ¥áĬķáĭ° áĪĺ
19 9
ĠáīłáĪĺ áĮłáīĢáĪĿ
áĭµ áĭµáĪ©
áĭį áĪµ
ĠáĪĪ áĪµ
ĠáĭŃ áī£
áĭµ áĭµáĪŃ
áĭ³ áĪĽ
ĠáĪ° áĪ«
áĬ¨áī° áĪį
áĭ² áĭ®
áĭĺáĮĭ áĮģ
áī³áĭĪ áīħ
Ġáī°áĮł áĭ«áīĤ
áĪĿ áĪ©
Ġáĭ« áĪĺáĪĪáĬŃ
áĮĵ áĭĿ
ĠáĭĿ áĪĿ
Ġáĭ° áĮĭ
ĠáĬ¥ áĪŃáĪµ
ĠáĪįáĭ© áĬĲáīµ
ĠáĮįáĭµ áī¥
áįĵáĪŃ áī²
ĠáĬ¨ áī³
ĠáĬŃ áīµ
áīĢáĪĺ áĮ¥
ĠáĭŃ áĮłáīł
áī½ áĪıáĪį
ĠáĬłáĭŃáīĢ áĪŃáĪĿ
áīłáĪ« áī¸áĭį
áīģ áĪĿ
áĪ¨ áĭ±
áīĤ áīĥ
áĮ ģáĬķ
áĪĬ áĪĿáįĴáĬŃ
ĠáĬł áĮĢ
Ġáī£áĪĪ áĪĢáī¥
ĠáĪĺáĪ³ áĪªáĭ«
áĭ°áĪŃ áĪ±
ĠáĪµáĪ« áĭİáī½
áĪ«áī´ áĮĤ
ĠáĬĲ áįį
ĠáĪĺ áĮ»
Ġáĭ¨ áīĢáĭµáĪŀ
ĠáĬ¢ áĬ®áĬĸáĪļáĭ«áĭĬ
áĪĽ áĪī
áĮ£ áĬĿ
ĠáĭĪáĬķ áĭ¶áī½
Ġáīħ áĪ¬áī³
áĪħ áįĪáīµ
áĪĪ áīĢ
Ġáīł áĭļáĭ«
áĪ¨ áī³
áĬ¨ áĬĵáĭį
áĭ ī
Ġáīłáī° áĭ°áĮĭáĮĭáĪļ
ĠáĬłáĭ³ áĭ²áĪµ
áī½áĪĭ áĪĪáĬķ
áĮłáīħ áĪĭáĭŃ
áĮĢáĪĺ áĪ©
áĪĨ áĬĹ
áĮī áīµ
ĠáĪ± áĭ³áĬķ
áĬ¨ áĪĺ
Ġáī°áĮįáī£ áĪ«áīµ
ĠáĬłáĪ¨ áĮĭáĮį
ĠáĬ¥áĬķ áī½áĪĭáĪĪáĬķ
ĠáĪĽáĪµ áĪ¨áĮĥ
áĪ¸áĬĲ áįį
ĠáĮĭáĭľ áĮ£
áĪĭ áī¸áĭĭáĪį
ĠáĭµáĪŃáĮĬ áīµ
ĠáīłáĪĺ áī°
Ġáĭ¨áĪ ³
ĠáĭĪáĮĪ áĬĸáī½
ĠáĬł áĭ¨áĪŃ
áĭµ áĬĵ
áĬŃ áī³áĪŃ
Ġáīł áĭļáĪģ
áĬĲ áĪħ
ĠáĬ¥áĬķáĭ³áĪĪ áīłáīµ
áī¥áĭĽ áĬĽáĭį
ĠáĭĪ áĪį
ĠáĭĿ áĬĵ
ĠáīłáĪĿ áĬķ
ĠáĪĽáĪħ áīłáĪ«áĭĬ
áĪ« áī½áĬķ
ĠáĪĬ áīĢ
áĪĽ áĪ¨
áĬķáīĢáĪ³ áīĢ
áī¥ áĪ®
áĭ«áĬķ áĪµ
Ġáī°áīĢ áĪĿ
ĠáĪµ áĭ°
ĠáĪĺáĪ¥ áĪ«áīµ
áĮĪáĬĺ áĭįáĬķ
ĠáĬłáĪ° áĪ«áĪŃ
áĪ ¼
ĠáĪķ áĭĿáī¦áī½
ĠáĬ¥áĬķáĭ° áĪĿáīµ
Ġáī¡áĭµ áĬĸáī½
Ġáī° áĪŀáĬŃ
áīłáĪ ½
ĠáĪ Ĵ
áĮĪ áĪĺ
Ġáĭ¨áĪĺ áĪµ
ĠáĬ¢áīµáĭ®áĮµáĭ« áĭĬ
ĠáĭŃáĪħ áĪĿ
Ġáĭ¨ áĭļáĪħ
ĠáĬ¨ áĭļáĭ«
áīĢ áįį
ĠáĮĪ áī£
Ġáĭ¨ áĭ°áĪ¨
ĠáĬ¨ áĮ¥
Ġáī½áĮį áĪ®áī½áĬķ
ĠáĬłáī¥ áĪ®
ĠáĪĺ áĮĢáĪĺáĪªáĭ«
áĪ« áĪµ
ĠáĬ¥áĪµ áĪ«
áĮĭ áĬĵ
áīĨ áĮ¥
ĠáĪĺ áįį
áīł áīł
Ġáĭ¨áĪĺ áĪ³áĪ°
ĠáĬķáĮį áĮįáĪŃ
áĪĪ áīħ
áĮį áĭµ
ĠáĭŃáĮłáīł áīĥáĪį
áĭĭ áīĤ
ĠáĪĿ áĪŃáĪĿáĪŃ
áĭį áĪŀ
Ġáĭ¨áĬ¥ áĪŃ
áįı áĪį
ĠáĬ¥áĭ« áĪī
áĮį áĪĮ
áĪĮ áīµ
ĠáĪħ áĭĿáī¦áī½
ĠáĮĪáĪį áĮ¿áĪį
ĠáĬ¥áĬķáĭ² áĪģ
ĠáĬłáĪį áī»
ĠáĪĬ áĭ«áĪµ
áĪª áĭĿáĪĿ
ĠáĪ° áĪĪ
ĠáĭŃ áĪĺ
ĠáĪ ¹
áĪĽ áĪµ
ĠáĭĵáĪĺ áī±
áĭŃ áī³
ĠáĪĪáĪĽáĪ³ áĭ°áĮį
áī´áĭİ áĪµ
áīł áĬ¢áīµáĭ®áĮµáĭ«
ĠáĪĺáĬķáĮį áĪµ
Ġáĭ¨ áĭĵ
áĭĭ áĭķ
áĭ° áĬĵ
ĠáĪ« áĪ³áī¸áĭįáĬķ
ĠáĪĺ áĮįáī£
ĠáĬĥáĭŃ áĪĪ
³áĭįáĪİ áĪµ
áīµ áĬĲáīµ
áī¥áĪĶ áĪ«áĭĬ
áĪ¨áĪ° áī¦áī½
áĪµáī° áĬĵ
áī» áĪįáĪĿ
e n
áīĥ áīĦ
ĠáīłáĪļ áĮĪáī£
áĪİáī½ áĬķ
ĠáĪĽ áĬķáĪĿ
áĪĭ áĪĪáī½
áĪĬ áīµ
Ġáĭ¨áĮį áĭµ
ĠáĪĿáĪŃ áĪĺáĪ«
ĠáĪŀ áīµ
áĭĺ áĭĭ
áĪĺáĪĪ áĪ±
Ġáĭ¨ áī±
áĭ¨ áĬķ
Ġáĭ¨áĪĿ áĪŃáĮ«
Ġáĭ¨ áīħ
ĠáĬ ĭ
áĭĺ áī°
ĠáīłáĮįáĪį áĮ½
ĠáĪĺáĪĨáĬĳ áĬķáĪĿ
áĮįáĪ« áĭŃ
Ġáīł áī¤
ĠáĪĨ áĬĵ
ĠáĬ©áī£áĬķáĭ« áĭİáī½
áĭĺáĮĭ áĮĢáīµ
áĮĬ áĭ«
áĮį áĪī
ĠáĬ¢áĬķ áī°áĪŃ
ĠáĪħ áĬŃáĪĿáĬĵ
áĮ£ áĪī
áĪŁ áĪĭ
ĠáĮīáī£ áĭĶ
áįĪ áī°
áĪ« áĪª
ĠáĬ¥áĬķáĭ° áĮĪáĪĪáĮ¹áīµ
Ġáĭ° áī¡áī¥
ĠáĬ¢ áĪħáĬłáĭ´áĮį
ĠáĪ ¦
áĮ£ áī±
Ġáĭ¨áĭį áĪĥ
áĬ¥ áĭį
áĪ» áĪį
ĠáĬ¥áĬķáĭ° áĮĪáĬĵ
ĠáĪµáĪĪ áī°
áĬĵáĮĪ áĪ©
Ġáī° áĪŃ
Ġáĭĭ áĪµáīµáĬĵ
Ġáĭ¨áī° áīĢáĪĺ
áĭ® áĪŃ
ĠáĪĺáĪµ áĪĺáĪŃ
Ġáī° áĮĪáĬĿ
ĠáĬ¥áĬķáĭ² áĪĨáĬĳ
ĠáīĢ áīłáĪĮ
Ġáĭ¨áĪĽ áĪħ
ĠáīłáĬłáĪ Ľ
áĪĥ áī¥
ĠáĬłáĭŃáĭ° áĪį
ĠáĭĺáĪŃ áįİáī½
Ġáī¥ áĬķ
Ġáĭ¨áĪļ áĮĪáĬĿ
áĪĪáĭļáĪħ áĪĿ
Ġáī£ áĪī
áīł áĭĽ
áįĭ áĬķ
Ġáīł áĬ¨áī°áĪĽ
áīł áĭ¨
Ġáĭ¨ áĮī
ĠáīłáĪĽ áĬķ
áĭĪ áĭ«
ĠáĪĺáįįáīµ áĪĦ
Ġáĭ¨áĪļ áĪĨáĬĲáĭį
ĠáĪĿáĬŃáĬķáĭ« áī¶áī½
Ġáĭ°áī¥ áĭ³áī¤
ĠáĪĺ áĮłáīĢáĪĿ
áĪĺ áī»
áīł áĮ¥
ĠáĬ¥áĬķáĭ° áĪĨáĬĳ
ĠáīĢáĭµ áĪŀ
ĠáīłáĪ ³
ĠáĪĺáĪłáĪ¨ áī³áĭĬ
áĭĭ áī¸áĭį
ĠáĪ¥ áĪįáĮłáĬĵ
áī½áĬĭ áĪį
ĠáĭŃ áĪ°áĪĽ
ĠáĬ¥áĬķáĭ³ áĪīáīµ
ĠáĬ¤ áĮĢáĬķáĪ²
áĬ¥áĬĵ áĪĿ
Ġáīł áĬ®
áįĭ áĪį
ĠáĪ»áĪĿáįĴáĭ® áĬĵ
ĠáĪ° áĪĽ
áī» áĪĪáĪģ
áĪĽ áĮįáĪĮ
Ġáī³ áĭ²áĭ«
áĬ¨ áĭļáĭ«
áĪłáĪ¨ áī°
ĠáĬ¥áĪŃ áĭ³áī³
Ġáī°áĭ«áĭŃ áĭŀ
ĠáĭŃáĪĺáĪµ áĪĪáĬĽáĪį
áĭµ áĮĪáīµáĬĵ
ĠáĪĺáĪ¨áĮĥ áĭİáī½
Ġáĭ« áĭ°áĪ¨áĮĪáĭį
Ġáī¥áĪĦ áĪ«áĭĬ
áĪ® áįķ
ĠáĪĪáĪĺ áĬ¨áĪĭáĬ¨áĪį
ĠáĭĪ áĭĺáī°
ĠáĪģáĪī áĬķáĪĿ
Ġáīµ áī½
Ġáĭľ áĬĵ
Ġáĭ¨ áįķ
áĭ³ áĪ¨
áĬĴ áĪįáĬŃ
ĠáīłáĪģ áĪĪ
1 2
áī£ áĬ¤
áĬĳ áīµ
áĮįáĭļáĬł áī¥áĪĶáĪŃ
áĭį áĪ°áĭµ
ĠáĮ ĥ
ĠáĪ° áī£áīµ
ĠáĪĺ áĬ¨áĪ«
ĠáĭŃáī³áĭĪ áĪ³áĪį
Ġáĭ ±
áĪĭ áĪ´
áĭµáĪŃáĮħ áī±
áī¥ áĪį
ĠáĬĲáĮĪ áĪ®áī½áĬķ
áīģ áĬķ
áĪ°áĪĽ áĪ©
Ġ200 8
ĠáĬłáĪµáĪĺ áĪįáĬŃ
ĠáĪģáĬĶáī³ áĭİáī½
Ġáī³ áĪµ
áĬĵáĮĪ áĪ¨áĭį
Ġáī° áĪ¨
áī½ áĬĵ
Ġáī°áīĢ áī£
áĭŃ áī¶
áĬĴ áĭ«
ĠáĬ¥áĭ« áĭ°áĪ¨áĮĪ
ĠáĪ¶ áĪµáīµ
ĠáīµáĪ«áĬķáĪµ áįİáĪŃáĪľáĪ½áĬķ
áī£ áīłáĪŃ
ĠáĬĲ áĬķ
áĮ¡ áĬķ
ĠáįĪ áĮ½
ĠáīłáĪ ŀ
áĬ¨ áĪĿ
ĠáĬ¥áĪŃ áĮį
ĠáĬłáĭŃ áĪĺáĪµ
áĬĺ áīµ
ĠáĮĪáĪįáįĢ áĭĭáĪį
ĠáĬ¨ áĬ¢áīµáĭ®áĮµáĭ«
áĭ³áĭ° áĪ©
ĠáĬ¥áĬķáĭ² áĭ«áĭį
áĪĽ áī¸áĭįáĬķ
ĠáĪĻ áĪµáĬĵ
ĠáĭŃ áĭ°áĪ¨
ĠáĪĺáĬķáĮįáĪ¥ áī±
ĠáĬłáĪµáĪ¨áĭµ áī°áĭĭáĪį
ĠáĪĽ áĮ£
Ġáĭ¨áī° áįĪáĮ¥áĪ®
ĠáĪ ¬
ĠáĪŃ áīĢáīµ
áĮ« áĭį
Ġáįķ áĪ¬
áĪļ áĬĴ
´ áĮ¥
ĠáĮ¥ áĪª
Ġáĭķ áĪĪáīµ
áĪĭáĪĪ áįį
áĪµáī° áĭį
Ġáĭ¨áĪĺ áĮ¨áĪ¨áĪ»
áĭ³ áĪĿ
Ġáīł áĭŃ
áī³ áī½áĪģ
áĭµ áĪĿ
Ġáī°áįħ áĭķáĬĸ
ĠáĬĲáĮĭ áĭ´
ĠáĪĺ áĬªáĬĵ
ĠáĬ¥áĭ¨ áĪ°áĪ«
áī³ áĪĪáī½
Ġáĭ° áīĤáīĥ
ĠáīłáĪ ĥ
áīģ áĪŃ
ĠáĬ« áĪĪáĭį
ĠáĬł áĭĿ
ĠáĪłáĪ Ń
ĠáĬłáĮĢ áĬķáĭ³
áĪĺ áĬķáĮįáĪ¥áīµ
áĮ¨áī£ áĮŃ
áī¥ áī¥áĪŃ
ĠáĪ° áĭŃ
ĠáīłáĪ ĭ
ĠáĮĢ áĪĺáĪ¨
áĪ¨áĮĭ áĮį
ĠáĬ«áĪį áī°
ĠáĮ½áĪĳ áįį
áĮł áĬŀáī½
Ġáĭ° áĪĺ
ĠáĬłáīµáĪĮ áīµ
áĬķ áĪ°áĪŃ
ĠáĮł áīĥ
ĠáĬĲáįĥ áĬĲáīµ
ĠáīłáĪ Ī
áĭ´ áīµ
Ġ2 8
ĠáĭĪ áĮĪáĬķ
ĠáĬłáĪĺáĪ« áĪ®áī½
Ġáī£áĪĪ áĪµ
áįĭ áī¸áĭį
áĬĲ áĪ°
Ġ2 6
ĠáĮ¥ áĪĭ
ĠáĬłáīħáĪŃ áī¦áīµ
Ġáī ²
áĭĪ áĪ«
áĭ° áĪĽ
ĠáĬ¥áĬĵ áīµ
ĠáĪĽ áĭĪáīħ
Ġáī°áĭĪáĬ« áĭ®áī½
ĠáĬłáĪµáī¸ áĮĭáĪª
Ġáī°áĪŀáĬŃ áĪ®
áĪ½ áĬ¨áĪŃ
Ġáī£áĪĪ áįĪ
ĠáĬ¨ áĭļáĭ«áĪĿ
Ġáī°áī¥ áĪıáĪį
ĠáĬł áī£áīµ
áįĪ áĮłáĪ©
ĠáĪĿáĪŃ áĮ¥
Ġáī½áĮį áĪ©áĬķ
ĠáĪµáīµ áĪ«áī´áĮĤ
áĭĽáĪ¬ áĭį
áĬ¨ áĪ©
áĬĵ áĬķ
ĠáĪĺ áĪĢ
áĭ« áĪĪáĪģ
áī½ áĭįáĬķ
áĪĭ áīĢ
ĠáĪĪáĪĽ áĭĪáīħ
Ġáĭ¨ áĬ¦
áī½ áīłáīµ
ĠáĪľáĭ³ áĪĬáĭ«
áĬĸ áī½áĬķ
Ġáī°áĪĺ áĪįáĬŃ
áī» áĪĪáĭį
ĠáĮį áĪĿáīµ
ĠáĬłáĬķ áĪµáī¶
ĠáīłáīĢ áĮ£áĭŃ
áīĥ áĭĪ
ĠáĬ¨ áĪħ
Ġáĭ« áĮĪáĬĺ
áīµ áĪĮ
áĪĭáĭį áĭ«áĬķ
áĪ³ áĭį
ĠáĪ° áĮª
a l
áĪ° áĮ£áī¸áĭį
ĠáĬĭ áĪĭ
ĠáĪĺ áįįáĮłáĪŃ
áĬĸ áĪŃáĪĿ
áĪį áĭµ
ĠáĬł áĭĽ
ĠáĪĺáĪ° áĪį
ĠáīµáĬŃáĬŃáĪĪ áĬĽ
Ġáī½áĮį áĪ©
ĠáīłáĪģ áĪīáĪĿ
Ġáĭ¨áĮį áī¥áĪŃáĬĵ
ĠáĬ®áĪļ áĪ½áĬķ
ĠáīģáĮ¥ áĮ¥áĪŃ
áĮĢ áĪĿáĪŃ
ĠáĪĽáĬķ áĬĽáĭįáĪĿ
ĠáīłáĪģ áĪĪáīµ
áĪħ áĪŃ
ĠáĪĪ áĭĪ
Ġáĭ¨ áĬĥ
ĠáĮłáīĥ áĪļ
Ġáĭ«áĪµ áĪ¨áĭ³
ĠáĬ¥áĬķáĭ³ áĪī
áĪµ áĪĿ
o r
ĠáĬ¥áĭ« áĪµ
Ġáī° áī½áĪıáĪį
ĠáĮ¨ áĪŃ
ĠáĮĬáĭľ áĭ«áīµ
ĠáĪĺáĪį áĭķ
áĭ¥ áĬķ
ĠáĬł áĮłáīĥáĪĭáĭŃ
ĠáĪĿ áĬĵ
ĠáĭĪáĬķ áĮĢáĪį
3 0
ĠáĪ² áĪĨáĬĳ
Ġáī°áĭ°áĪŃ áĮĵáĪį
áĬłáĪ µ
Ġ2 7
ĠáĪħ áĮį
Ġáĭĭ áĬĲáĬĽ
ĠáĬ¥áĭ¨áī° áĭ°áĪ¨áĮĪ
áĭ« áĪī
áĪ« áįĬ
áī½ áĪĿ
áĪª áĪļ
Ġáī³ áĪĽáĬĿ
ĠáĬĲáĭį áĬĵ
áĬĲ áīħ
ĠáīłáĪ ¶
ĠáĬ¢áīµáĭ®áĮµáĭ« áĬķ
áĪŃ áī¶
Ġáĭ° áĪħáĬķ
ĠáĮł áĭ¨
Ġáĭ¨áĪļ áīĢ
ĠáĭŃáĬĵáĮĪáĪ« áĪį
áĬķ áĬ©
áĮĪáī£ áīµ
áī° áĬŀáī½áĬķ
ĠáĪĺáĪĪ áĪµ
áįį áī¶
ĠáĪµ áĮĭáīµ
áĮłáĪ Ŀ
ĠáįĪ áĮ£áĬķ
áĪ³ áĪ½
ĠáĬłáĭµ áĪ«
Ġáīłáīµ áĬŃ
áĮįáĪĪ áĮ½
ĠáĬłáĬķáīĢ áĮ½
áįķ áĪİ
áĬłáĬķ áĭ³áĬķ
Ġáī³ áĪªáĬ«
ĠáĪħ áĭŃáĭĪ
1 4
áĬ¨ áī±
áĪ¬ áĬķ
Ġáĭ¨áĪ Ĳ
ĠáĬ¨ áĮį
áĭįáĬķ áĪĿ
áĭį áĮ£
ĠáįĮáĭ´ áĪ¬áĪ½áĬķ
ĠáįķáĪ®áĮĢáĬŃ áī¶áī½
áĪĺ áĮ¥
áĪ¨ áįį
áĬ« áī°
ĠáĮ¥ áĪ«áīµ
ĠáĬłáĪµ áĬªáĭ«
ĠáĪµ áī´
áĭĿ áī£áĭĬ
ĠáĪĽáĪħ áīłáĪ¨áĪ°áī¥
áĬ¨áĬĵáĭĪ áĬĲ
1 6
Ġáĭ¨áĭĪ áĪŃáīħ
ĠáĪĪáĪĽ áĪĪáīµ
áĬķ áĬŃ
Ġáĭ¨áĪļ áĬĸáĪ©
áĬĶ áīµ
ĠáĬłáĪį áī£
Ġáī¤ áī°áĪ°áī¥
áįĭáĭŃ áĬĵáĬķáĪµ
ĠáĬłáĪĺáĪįáĬŃ áī°áĭĭáĪį
Ġáī°áīĢáī£ áĭŃáĬĲáīµ
áĮ«áĭĪ áīµ
áī¥áĪŃ áĪĥ
áĭĺáĮĭáĮĢ áĭį
áĬ¬ áīµ
áī³áĭĪ áīĢáĭį
Ġáĭ¨áĪĺ áĪ°
áĭ¨ áĬ¥
ĠáĪĭáĭŃ áĪĿ
ĠáĭŃáĮĪáĪįáĮ» áĪī
ĠáĪĨáī´ áĪį
Ġáĭ¨áĮį áī¥
áĭ°áīł áĬĽ
áĪ« áīµáĬķ
áĬ¨áī° áĪĪáĭį
áĪµ áī°áĬĽáĭį
áĪĽ áĪĬáĭ«
Ġáĭ¨áĪ¥ áĬĲ
ĠáīłáĬ¥ áĮħ
áĬķáĮį áĪĬáĭĿ
áĪŃ áįį
ĠáĪĪ áĬ¢áīµáĭ®áĮµáĭ«
Ġáī Ĥ
ĠáĬł áĭĺáĮĭáĮħ
áĬĲ áīłáĪ©
Ġáĭ¨ áī¦
Ġáĭ¨áĪļáĪ° áĮłáĭį
ĠáĪ° áĪĿ
Ġáīł áĭ°áĬķ
áĪµáī° áĭĭáĪį
áĪĺáĮ£ áĪį
áĪ³ áĪµ
áįĪáĮłáĪ¨ áĭį
ĠáīĢ áĮ£
áĮİ áĬķ
Ġáĭ¨áĪĺ áĮ½áĪĲáįį
áĪķ áĬłáĭ´áĮį
ĠáĪĺáĭµ áĬĥ
áįį áĪ«áīµ
áĮ£ áĭį
Ġáĭ¨áĪļáĭ« áĭį
áįĪáĪĪ áĮĪáĭį
áĪ¨ áĪŃ
ĠáĪĿ áĪ¥áĪ«
Ġáĭ¨áĪļáĭ« áĭ°áĪŃáĮį
Ġáĭĺ áĪĭáīĤ
áīłáī° áĪĪáĭŃáĪĿ
ĠáĪĲ áĪ³
ĠáįĸáĪĪáī²áĬ« áĭĬ
áīĢ áĭ°áĪĿ
áĪ¨ áĮħáĪĿ
áī½áĮį áĪ©
ĠáĪĺ áĪµáī°
ĠáĪĢ áĪ³áī¥
Ġáĭ¨ áĮł
áĮį áĭ³
áĪĽ áĪ©
ĠáĪĻ áĭļáīĥ
Ġáīł áĬ¤
áĭĪáĪ° áĬĲ
áĭ¶ áī½áĬķ
ĠáĪĽ áī¥áĪ«
áĪķ áįĪáīµ
áĬķáĪµ áĪ³áīµ
áĪ® áĬķ
ĠáĪĺáĪĨáĬĵ áī¸áĭį
Ġáĭ¨áĬłáĪ ĺ
ĠáĮĵ áĭ°áĬĽ
ĠáīłáĪ° áĭį
Ġáīłáī° áĮįáī£áĪŃ
Ġáĭ¨ áĭ°áĪ¨áĪ°
Ġ ]
Ġáī£áĪĪ áī¤
áĭĭ áĪ³
Ġáĭ¨áī° áĮłáīĢ
ĠáĭĪáĭ° áįĬáīµ
Ġáĭ«áĪĪ áĪĺ
ĠáĪĪ áĬ¢
ĠáĪµáĪĪ áĬĲáīłáĪŃ
áĬķáĭµ áĬĲáĭį
ĠáĬłáĬķ áĮ»
áįĥ áįĢ
ĠáĪĪáĬł áĬķáĭµ
Ġáīłáĭ¨ áĮĬáĭľáĭį
áĪ³ áī½áĬķ
áĪĪ áĭµ
áī° áĬ®
áĪ¨ áĮį
ĠáĪį áĪĿ
ĠáĪħ áĭĿáī¡
ĠáĭŃ áĬĲ
Ġáī ¸
áĮ¥ áįĭáīµ
ĠáĪķ áĬŃáĪĿáĬĵ
áī¥ áĬĵáĪį
áĪħ áĪĿ
áĮ¨ áĪĺáĪ¨
ĠáĪĨáĪµáįĴ áī³áĪį
Ġáī° áĪį
ĠáĬłáĪĺ áī³áīµ
áĬłáĪĿ áĪµáīµ
ĠáĬĲ áĮ¥
Ġáĭ¨áĪĽ áĭ«
ĠáĪ°áĮ¥ áī¶
ĠáĮįáĪĪ áĪ°áī¦áī½
ĠáĬł áĭ«áĪµ
áĬ« áĭŃ
Ġáī¥ áĭĽáīµ
Ġáī£áĪħ áĪŃ
Ġáĭ« áĪ°
ĠáĬ¥áĬķáĭ°áĪļ áĪĨáĬķ
ĠáĮł áīĢ
áįĪáĪĪ áĮį
Ġáĭ¨áĪ łáĪ«
áĬŃ áī¶
ĠáĬ¥ áĮį
áĪ¯ áī¸áĭį
ĠáīłáīĢ áĮ¥áī³
ĠáĪ° áĪŀáĬĳáĬķ
áĪ¸ áīµ
ĠáĪĺáĪµ áĬŃ
ĠáĬł áĮįáī£áī¥
áĭŀ áĬĳ
áĬ¨áĭļáĪħ áĪĿ
áĭľ áĮİáī½
ĠáĮ¨áĭĭáī³ áĭİáī½
áĪĭ áĬķáĭµ
ĠáĭµáĬķ áĮĭ
ĠáĭŃáī£ áĪĭáĪį
áĪĭ áĪļ
ĠáĪĥ áĪ³
ĠáĬłáĭ° áĪ©
áĬ¨áĪ° áīµ
Ġáĭ¨ áī£áĪĪ
áĬĵ áĪ½
ĠáĪµ áĪĭáĪį
áĬ¤ áĪĭáĭįáĭ«áĬķ
ĠáĪµáĪħ áī°áīµ
áī³ áĭİáī½
ĠáĬłáĭŃ áĮĪáī£
ĠáĬ¥áĬķáĭ³áĪį áĪĨáĬĲ
ĠáĭŃ áĮłáĭŃ
Ġáīł áī¥áĭĻ
áĮĭáī¢ áīµ
ĠáĬłáĪ Ĭ
áĬĳ áĪĿ
áī£ áī£áĭŃ
Ġáī° áĬĲáĪµ
áĭ¨ áĪĽ
ĠáĬłáĪµáįĪ áĮ»áĪļ
ĠáĬ¨áĭį áĮŃ
áĪ¨áĭ³ áĭį
Ġáīł áĬķ
ĠáīłáĪĺ áĬķ
áĮĪáĪį áĮĪáĪį
Ġáīł áĭĭáĬĵ
áĬĸ áĪ¨
áĭŃ áī±
áĭ° áĪµ
áĭ° áīħ
ĠáĪĺáĬķáįĪ áĪ³áĭĬ
1 8
Ġáĭ¨áĭĪ áĬķ
áĬ³ áĪŃ
áĮłáĪ ī
Ġ2 9
ĠáĪĪ áĪĮáĪİáī½
ĠáĮį áĪĿ
áĪĽáĪª áĭİáī½
Ġáĭ¨ áĮĪáĪĪáĮ¹áīµ
ĠáĬłáĮĪáĪį áĮĭ
ĠáĪģáĪĪ áī±
Ġáĭ¨áĪĺáĮĢáĪĺáĪªáĭ« áĭį
ĠáĬ¥áĭ¨ áī³
áĬ«áĪĦ áĭ±
ĠáĭŃ áĮłáīłáīħ
Ġáĭ¨áĪķ áĮį
áįĪáĪĪ áĮĪ
ĠáĬŃ áĪµ
áįķáĪİ áĪĽ
ĠáĪĺ áĮ¨
Ġáĭ¨áĪļ áī£áĪĪáĭį
ĠáĪļ áĭ²áĭ«
ĠáĬŃáĪŃáĪµáī² áĭ«áĬķ
ĠáĬłáĪµáĪĺáĪįáĬŃ áī¶
ĠáĪĺáĪį áĬ¥
ĠáĬłáĪĿ áĪ«
áĪ´ áī¶áī½
Ġ4 0
Ġáīł áĭĭ
áĪ² áĭ«
Ġáĭ¨ áī¢
ĠáĬłáĪĪ áī¥áĬķ
áĪ° áĮł
ĠáĪķ áĭĿáī¡
áĬłáĬķ áī°
ĠáĪ İ
áĪĺ áĮ½áĪĲáįį
Ġáīł áįĬ
Ġáĭ¨áĪ ¶
ĠáĬ¥áĬĶ áĪĿ
ĠáĮįáĬķ áī¦áīµ
ĠáĬłáĬķáĭµ áĪĿ
Ġáīł áīĨ
áīħ áĭ±
Ġ200 7
ĠáĪ £
Ġáī³ áĪª
ĠáīłáĬłáĪ µ
áĪĿ áĪ¨
ĠáĬ Ĵ
áĪ« áī¢
áĪĺáĭĿ áĮĪáī¥
áĪµáīµ áĪ«áĬŃ
ĠáĬł áĬĵ
Ġáī¥ áĭµáĪŃ
ĠáįĸáĪĬ áĪµ
ĠáĬłáĪµáī°áĭ« áĭ¨
áĪĪ áĮĭ
ĠáĮĢ áĪŃ
ĠáĬ¥áĬķáĭ³áĪĪ áī£áī¸áĭį
ĠáīĢáĪŃ áī¶
áĪ ¦áĪµáīµ
Ġáī° áĪ°áĪĽ
áĬ³ áĬķ
Ġáĭ¨áĪļáĪ° áĮ¥
ĠáĮ« áĬĵ
ĠáīłáĬł áĮłáīĥáĪĭáĭŃ
áįķáĪ® áĮĢ
áĮī áĪŃ
áīł áĬ¥
áĭ¨áĪ© áĪ³áĪĮ
áĪĽ áĭį
e s
áĬĳ áĪ®
ĠáĬłáīµáĪĮ áī²áĬŃáĪµ
áĭ« áī¸áĭįáĬķ
áĪª áīµ
áĬĺ áĭį
áĭ¨ áĪħ
áįĪ áī³
áĬ¥ áĪĿáĪ®
ĠáĪĪáĪĺ áįįáĮłáĪŃ
áĪĪ áĬł
ĠáĬł áĮł
ĠáĪĥ áĪĭáįĬ
Ġáĭ¨áĬ¢áĬķ áĭ±áĪµáīµáĪª
Ġáĭ°áĮĭ áįĬ
ĠáĬ¥áĭį áīĢáīµ
Ġáĭ«áĪħáĭĮ áĬķ
ĠáĬł áī³
Ġáĭ¨áĬ¥ áĮįáĪŃ
áĪª áĬķáĮį
áī£áĪĪ áįĪáĭį
áĪĬ áĭ«áĬķ
ĠáĬ¨ áĪģáĪĪáīµ
áĭ®áĪŃ áĮĬ
áĪĮ áīª
áĪĭ áĪµ
ĠáĮł áī£
ĠáĪĺáĮ¥ áįİ
ĠáĪµ áĬĵ
ĠáĬ¥áĬķáĭ³ áĪµ
Ġáį ī
ĠáĬł áĭ°áĪ¨áĮĥ
Ń áĪ¶
ĠáĬłáĭį áĮ¥
ĠáĪĺáĮ» áĪķ
ĠáĪĺáĪµ áĪªáĭ«
áĭ°áĮĪ áįį
Ġáī£áĪĪáĪ¥ áĪįáĮ£
áĭĪ áĬķ
Ġáī° áįĪáĮ¥áĪ®
áĮĨ áī¹
áĪĪáĪĺ áĭ°
Ġáīµ áĪµ
ĠáĬ¨ áĪķ
Ġáĭ¨áĪļ áī½áĪĪáĭį
ĠáīłáĪ° áĮ¡áīµ
áĪĪ áĪ½
áĭ«áĬķ áĭ³áĬķáĭ±
ĠáĬłáįĪ áĮ»áĮ¸
ĠáĭĪáĭŃ áĬķáĪĿ
ĠáĮłáīĢ áĪľ
áĬĲ áī¥
áĪĭ áĪĪáĪĿ
Ġáī¥áĭĻ áĪĿ
ĠáĬłáĬķáĭµ áĬĲáīµ
ĠáĭĪáĪŃ áīħ
Ġáīłáįį áĮ¥áĬĲáīµ
ĠáĪĺáĪ¥ áĪªáĭ«
áĪ° áī¢áĭ«
ĠáĭĻ áĪŃ
ĠáĬł áĭİ
ĠáĪº áĪķ
áĪĺáĪĪáĬ¨ áī³áī¸áĭį
ĠáīĢ áĭ³áĪļ
Ġáĭĭ áĬĵáĭį
áįĥ áĪļ
ĠáĭŃ áĮłáīĢ
Ġáĭ¨áĪĮ áĪĪáĭį
áĪ¨ áĪ±
Ġ5 0
áĭļ áĭ«áĬķ
áĪĬ áĬŃ
ĠáīłáĪĺ áĬķáĮįáĪ¥áīµ
ĠáĪŃáĭķ áĪµ
Ġáīµ áĪįáīģ
ĠáĪĺáĪ° áĪ¨
Ġáīłáī°áĮ¨áĪĽáĪª áĪĿ
áĮĪ áĭĿ
áī³ áĬĵ
ĠáĮ Ĥ
ĠáĪĪ áĪļáĭ«
áĬ¨ áĬ¥áĬĲáĭļáĪħ
áĮĭ áĪī
1 7
ĠáĪĺ áįħ
Ġáī°áĪĺ áĪ«
ĠáĪĺ áĮĪáĪĪ
áīłáĬł áĬķáĭµ
áīłáĪ ģ
ĠáĬ« áĪŃ
ĠáĬ« áĪ³
ĠáĪĽáī¥áĪ« áĪªáĭ«
ĠáĬłáĭŃ áī»áĪįáĪĿ
áĪª áĪµ
áĬ¨ áĬł
Ġáĭ°áĬķ áī¥
ĠáīłáĬĲ áįĥ
áĪĿ áī£
áĪ« áĬĴ
áĬĵ áī¸áĭįáĬķ
áĮĪ áĪĭ
ĠáĪĪ áĪ°
áĬł áĭĬ
áĭ® áī½áĬķ
ĠáĪĪáĪĽ áĪ¨áĮĭáĮĪáĮ¥
Ġáī°áĭĪ áĭ³áĭ³áĪª
áĪ¨ áĬĽ
ĠáĬłáĪµáī³áĭį áīĢáĭĭáĪį
ĠáĪĪ áĭĺ
ĠáĬŃáįį áī°áīµ
áĪĺáĪĪáĬ¨ áī±
i s
Ġáīł áīĥ
ĠáīłáĬł áĬ«áī£áī¢áĭį
ĠáĬ¥áĬķáĮį áĭ²áĪħ
áįİ áĬ«
Ġáī¥áĭĻ áĬĥ
ĠáĭŃ áĬ¼
ĠáĬłáĬķ áĭ²áīµ
ĠáĬłáĭ° áĪ®áī½
Ġáĭ¨ áĬķ
ĠáĮĵ áĭ°
ĠáĭŃáĭ°áĪ¨ áĮĭáĪį
áĪĪ áī³áĪį
áįĪ áĭĭáĪį
áįĪ áĮ½
áĬ¨ áīłáĪ¨
áĬ« áī½
ĠáĪĽ áĭ³
ĠáīłáĪĺ áĪĨáĬĵáī¸áĭį
Ġáī°áī¥ áĪĪáĭį
áĬ¨áĪ¨ áĪĿ
áīĢ áĬĵ
ĠáĭĪ áĭ³áĮħ
áīĥ áĭĭáĪļ
áĪ½ áīµ
Ġáīłáĭ¨ áĭĵáĪĺáī±
áĬŃ áĪ®áī½
áįĪ áĪ©
ĠáĬĥ áĮ¢
ĠáīłáĪ ´
ĠáĭĪ áĪ¬
ĠáĪĪ áĪ«
áĪ» áĭį
áĪĪ áĭĭ
áĪĭ áīµáĬķ
áĮĪáĬĺ áīµ
ĠáĪĦ áĭ°
Ġáīĭ áĪļ
ĠáīłáĪ¥ áĪ«
ĠáĪµáĪĪ áĪļáĭ«
ĠáĪĿáĬŃáĬķáĭ« áī±áĪĿ
áĬ¥áĬķ áĭ²
Ġáĭ¨áĪļ áĪĺáĮ£
ĠáįĪ áĪŃ
Ġáīł áĭ«áĪħáĭĮ
Ġáĭ°áĬķ áīł
áīĨ áĪŃ
áĪĿ áĪ«áīµ
ĠáĪļ áĪµáīµ
áĭĽ áĭį
ĠáĭĿáĮį áĮħ
ĠáĭŃ áĪ¨áĭ³
áĮª áĭį
ĠáĬł áĭ«áĭį
ĠáĬŃ áĪŃ
ĠáĮįáĭ´ áī³
ĠáĪĽ áīħáĪ¨áī¥
Ġáīł áĭĺáĪŃáįī
ĠáĬ« áĪī
ĠáĬłáĬķáĮ» áĪŃ
áĭµ áĪ¶
áĪĿ áĬĵáĪį
Ġáĭ° áĮį
áĪ· áĬķ
áī¥ áĬĲáīµ
áĭĵ áī±
ĠáĬłáĮĪ áĪ«áĭĬ
áĬŃ áĬĴáĬŃ
Ġáĭ¨áĪļáĭ« áĪ³áĭŃ
ĠáĬ¢áĬķ áī¨áĪµáīµáĪĺáĬķáīµ
Ġáī ª
ĠáĬłáĭŃáĭ° áĪīáĪĿ
áĬ¬ áĬķáĭ«
ĠáĭŃáĬĸáĪŃ áīłáī³áĪį
áĬķ áīħ
ĠáĪĺ áĮĪáĬĵáĬĽ
áĪĭáĪĪ áĪħ
áĪĺáĭĺ áĮĪáī¡
áĪĽ áī½
Ġáĭ¨áĬł áĬķ
Ġáī¢ áĭ«áĬķáĪµ
ĠáĪ½ áĪĽáĮįáĪĮ
áĮ¹ áĪĿ
áĬĲáĮĪ áĪ©
ĠáĪĽ áĪĺáĬķ
áĬ¥ áĬĲáĪ±
Ġáĭķ áĪŃáĪĿáĮĥ
Ġáī°áĬĵáĮį áĪ¯áĪį
ĠáĪ° áĪĭáĪĽáĭĬ
ĠáĬł áĮłáīĥ
ĠáīłáĪµáī° áīĢáĪŃ
ĠáīĨáĭŃ áī·áĪį
ĠáĭŃ áĭĪ
áĪŃ áįĸ
áĪĺ áĬķáĮįáĪµáīµ
Ġáĭµ áĪ¨
áĬ¬ áĪ½áĬķ
ĠáĪĺáĬĸ áĪªáĭ«
ĠáīĢ áĪ¨
Ġáīł áīµáĪĿáĪħáĪŃáīµ
áĪĪ áī¥
áĭ¨ áĬ¢
ĠáĬłáīĢ áįī
áĪµáĪ« áīħ
ĠáĪĢáĮĪ áĪ«áīµ
Ġáį ¦
Ġáĭ« áĬĲáĪ³
áĬĲ áĭįáĬķ
Ġáĭ¨ áįĬ
Ġáī¥áĪĶ áĪŃ
Ġáĭ«áĪĺáĪĪáĬŃ áī³áĪį
áĮĪáĬķ áĭĿ
Ġáĭ¨áĪļáīĨ áĮłáĪ©
ĠáĬŃ áĪµáī°
ĠáĬ¨ áīĢ
ĠáĮīáĭ³ áĭ©
ĠáĪĪ áĪĻ
áī² áĬŃ
Ġáĭ¨áĪħ áĬŃáĪĿáĬĵ
a r
áĮį áĪª
Ġáīłáī° áĪĺáĪ³áĪ³áĭŃ
áĪį áī¶
ĠáĮĪáī¥ áī¶
ĠáĬŃáĪŃáĪµáī²áĭ« áĬĸáī½
ĠáĬłáĪ »
áĪµáĪĪ áĪĨáĬĲáĪĿ
áīł áīħ
ĠáīµáĬŃ áĬŃáĪį
áĭ³ áĪī
Ġáĭľ áĮĭ
ĠáĪĿáĭķáĪ« áįį
áĪ¸ áĮĭ
áĮĪ áĮ¥
ĠáĭŃ áĪĨáĬĵ
ĠáĭĺáĬķáĭµ áĪ®
Ġáĭ¨áĬ¤ áĪĮáĬŃáīµáĪªáĬŃ
ĠáĪĺ áĮ½
ĠáĮ¥ áįĭáīµ
áĭµ áīħ
ĠáĭĪáī³áĭ° áĪ«áĭĬ
áĭ® áī¹
ĠáĭŃ áĮłáīģ
ĠáĬ¥áĬķáĭ°áĪļ áĪīáīµ
áĬŃ áī±
ĠáĪĭ áĪĪ
áī£áī£ áĪª
ĠáĭŃ áĪģ
áĪŀ áī½áĬķ
ĠáĪĺ áĪĲ
Ġáĭ¨áī° áĬĵáĮĪáĪ©áīµ
áĬĲáĮĪ áĪ¨
Ġáĭ¨ áĭĪáĪ°
ĠáĬ¥áĬķáĭ³ áĭ«
ĠáĪ½ áĪįáĪĽáīµ
Ġáĭ¨áī° áĪ³
ĠáĬłáĪĪ áī½
áĬ¨ áįĬ
áĮ¥ áįį
ĠáĪ¥áĪ« áĭį
áĮĪ áīłáĭ«
áĭ²áĭ«áĭį áĪĿ
áĭ° áĭµ
ĠáĪĨáĬĸ áĪĿ
ĠáĪĺ áĭĺ
Ġáī£áĪĪ áĭµáĪŃáĪ»
áĪİ áĪĿáįĴáĬŃ
Ġáī¥áĪİ áĪĿ
ĠáīĢ áĬĵ
áĪĬ áĬĵ
ĠáīłáĪĿ áīµ
ĠáĬ¨ áĬ¢
Ġáīłáī° áĬ«áĪĦáĭ°áĭį
áĪĲ áĭŃ
ĠáĪĥ áĭŃ
ĠáĪĺáĬķáĮįáĪ¥ áī³áĭĬ
Ī áĪĿ
ĠáĬ¥ áĪ±áĬķ
áĬ³ áĭŃ
ĠáĪµ áĪĿáĬķáīµ
Ġáĭ¨ áĬª
áĪ¨ áįĪ
Ġáĭ«áĪ³ áĭ«áĪį
ĠáĮ ´áĮ¥
áĪ¾ áī½
áĬķáĭµ áĪ®
áĬĵ áĬķáī°
ĠáĪĺ áĭ°áĪ¨áĮī
áī£ áī½áĬķ
ĠáĪĽáĪħ áīłáĪ«áīµ
Ġáĭ¨áī° áĪĺáĪ¨
ĠáĮĪáĪĪ áĮ»
Ġ th
Ġáĭ¨ áĬŃáĪįáĪī
áĬŃ áī¥
Ġáĭ« áĭ°áĪ¨
ĠáīłáĪĺáĪĨáĬĳ áĪĿ
áĬŃáĪį áĪį
Ġáīłáĭ° áī¡áī¥
ĠáĪĨáĬĲ áĭĭáĪį
ĠáĭŃáĪ° áĮ£áĪį
áīłáĪ ļ
ĠáĮĬáĭľ áĪĿ
ĠáĭĺáĪĺ áī»
áĪĬ áĬķ
ĠáĪĦ áĬŃáī³áĪŃ
ĠáĬ¬ áĬķáĭ«
1 3
áīĨ áĭŃ
áĪĪ áĬĵáĪį
ĠáĪ¥ áĮĭ
ĠáĪħ áī¥áĪ¨áī°áĪ°áī¡
áĪĺáĭĺ áĮĪáīł
Ġáī° áĮ¨áĭĭ
áĬķ áī³
ĠáĬŃ áĬķ
ĠáĭŃáĪĦ áĬķ
Ġáī° áĪµáĪĽ
Ġáĭ¨áĬł áĭįáĪ®áįĵ
áĬĲáĪ³ áīµ
Ġáĭ¨áĪļ áĪĺáĪ«
ĠáĭĿáĮį áĮģ
Ġáĭ¨áī° áī£áĪī
ĠáīłáĪ Ĳ
ĠáĬ¨ áĪĭáĭŃ
áĮĪáĪª áī·
Ġáī¡áĭµ áĬĳ
Ġáĭį áĪµ
Ġáĭĺ áĮį
ĠáĬłáĪĪáĪĺ áĪĨáĬĳ
áĬłáĪ ģáĬķáĪĿ
Ġáĭ¨ áĮĪáī£
Ġáī½ áĪıáĪį
Ġáī «
ĠáĬ¨ áĪĨáĬĳ
áĭĿ áĬĲáĪµ
áī¢ áīµ
ĠáĬĲáĮĪ áĪ¥
áĮ¨ áĪŃ
ĠáĪĽáĪ³ áĭ«
áĭķ áĪĿáĪ®
ĠáĪ² áĭ«áĪµ
ĠáĬ¥áĭ¨ áĪĨáĬĲ
ĠáĬ¥áĬķáĭ° áĪĿ
áĭ¨ áĭįáĬķ
ĠáĪĨ áĬĳ
áĮ¦ áī³
Ġáī° áĬĲáĪ³
áĮį áĮįáĪŃ
áĬ© áĬķ
áĬŃ áīłáĪŃ
Ġáį Ĵ
ĠáĪĺáĪį áĪ¶
ĠáĪĻ áĬ¨áĪ«
ĠáĪĥ áĭŃáĪĽáĬĸ
ĠáĭŃáĬĸ áĪ«áĪį
áį Ħ
ĠáĪĺ áī£
áĬ ľ
áīĢ áī½
ĠáįĢ áĪ¨
1 1
Ġáĭ¨áī° áĬ¨áĪ°
áīµáĬķ áĬĵ
ĠáĬłáĭŃ áĪĨáĬķáĪĿ
ĠáĬłáĪĪ áĪĿ
ĠáĮį áĭĽáīµ
ĠáĪµáĪĪ áĭļáĪħ
ĠáīłáĬł áī¥áĭĽáĬĽáĭį
áĬ¥ áĬĲ
ĠáĬ¨áĬł áĬķ
áĭ° áĪ©
ĠáīłáĬ¥áĪŃ áĮįáĮ¥
Ġáĭ¨áĪĽ áĭµáĪ¨áĮį
ĠáĬłáĬķ áī¥áī¥
Ġáĭ¨áĬł áĬ«áī£áī¢
áĬ® áĬķ
ĠáĪįáĪĽ áīµáĬĵ
áĪªáĪļ áĭ¨áĪŃ
ĠáĪĽ áĪ¨áĮĭáĮĪ
ĠáĭĽáĪ¬ áĪĿ
ĠáĬ¤ áĪį
19 8
áĪį áīĥ
ĠáĬ¨ áĭ°
Ġáī° áĭ°
ĠáĬłáĪĪ áĬķ
ĠáĪĺ áĬĵáĮĪáĪŃ
áīĨ áīµ
ĠáĪ Ķ
ĠáįĪ áĪį
ĠáĪĤ áĭ°
áĮĥ áī¸áĭį
ĠáĬłáĬķ áĭ³
áĭ« áī½áĬķ
áĮĪ áĭ±
áĭ«áĪµ áįĸ
áĬ¨áĪĪ áĬĽ
ĠáĬŃ áī¥
Ġáī°áĭ°áĪ« áĪ½
ĠáĪ³áĭŃ áĬķáĪµ
ĠáĭĿáĬĵ áī¥
ĠáīĢ áĭŃ
áĪĿ áĪ¨áĭį
Ġáĭ¨áī° áĪĺáĪ°
Ġáīłáī° áĪĪáĭ«áĭ¨
ĠáĬłáĪĽ áĪ«
Ġáĭ¨áĮĪ áīłáĭ«
ĠáĬ¨ áīµ
ĠáĪµ áĬĲ
ĠáīłáīĢ áĮ£
ĠáįķáĪ® áįĮ
áĪ¬áĭļáĭ³áĬķ áī±
áįį áĪ¬
áĪĭáī½áĬķ áĪĿ
Ġáĭ¨ áįĮáĭ´áĪ«áĪį
áĭ¨ áĪµ
áĪĽ áĭĬ
ĠáĬłáĬķ áĭ°áĬĽ
áĭŃ áĬ¼
áĬķ áī¶
áĭ¨áīµ áĬĽáĭįáĪĿ
Ġáī£áĪħ áĪĭáĭĬ
áĮĪáĪĪáĮ¸ áĭį
Ġáĭ¨áĪļ áĮł
áĪ¨áĬķ áĪ³áĭŃ
ĠáĬ¥áĭįáĬĲ áī°áĬĽ
ĠáīłáĪ ©
áĭ¨áĪ©áĪ³áĪĮ áĪĿ
Ġáĭ¨ áĭ´áĪŀáĬŃáĪ«áĪ²
ĠáĬłáī¥ áĪ¨áĭį
Ġáīł áĬŃáĪįáĪī
ĠáĪĺ áĭ°
áĬ© áĪĿ
ĠáĪłáĪ« áĭĬáīµ
ĠáĭŃáĪĨáĬĵ áĪī
áĬŃ áĪ©
Ġáĭ¨áĪ ²
ĠáĪĪ áĮ¥
ĠáīłáīµáĬŃ áĬŃáĪį
áĪµáīµáĪ«áĬŃ áĪ½áĬķ
áĪĪáĪĿ áĬķ
áĭĪáĪµ áĭµ
ĠáĪĽáĬħ áīłáĪŃ
áĪį áĮĬáĭľ
áĭµ áĪ®áĪµ
Ġáĭ¨áĭį áĭµáĭµáĪŃ
áī£ áīµáĪĿ
áįħ áĬ¦
Ġ [
ĠáĬ¥áĭ¨áī° áĪ°áĪ«
Ġáĭ¨áĬłáĪ µ
áī£ áĪĽ
ĠáĪĺ áĪ«
ĠáĪĺ áĪĦáĭµ
áįķ áĪ¬áĭļáĭ³áĬķáīµ
ĠáīłáĪĽ áĭŃ
ĠáĬ¥áĬķáĭ³ áĪĭáī¸áĭį
áįĪáĪįáĮį áĪĿ
áĮĪáĬĲ áĭĺ
Ġáīĥ áĪĭáīµ
ĠáĪĽ áĪ¨
Ġáī¥áĪŃ áĪĥ
áĬķ áī³áĪį
áĭ®áĪŃáĮĬ áĪµ
ĠáĬłáĪµáī³áĭį áīĭáĪį
ĠáĮį áĭĻ
Ġáī¥áĪĶ áĪ¨áĪ°áī¦áī½
áĮĪ áĪĽ
áįģ áīµ
áĪį áī¥
áĭĽ áĪį
ĠáĪįáī¥ áĪµ
ĠáĪ¥áĪ« áĭįáĬķ
Ġ o
áīł áīĢ
ĠáĪĺ áĪ¬
Ġáī¥áĪŃ áĪĥáĬķ
áī¶ áī¹áĬķ
ĠáĭĪáĭ° áĪļ
áīĥ áĭŃ
ĠáĬłáĭµáĪŃ áĮĪáĭĭáĪį
ĠáĬł áĭĺ
áīĢ áīłáĪį
Ġáĭ¨ áĭ²
Ġáīł áĬĥ
áī¢ áĪ²
Ġáīłáĭį áĮŃ
ĠáĭįáĮ¤ áī¶áī½
Ġáī°áĮłáīĥáĪļ áĬĲáīµ
áįĪáįĢ áĪĿ
áĭµ áĮį
áĮ£ áĪĬáĭ«
áĪŁ áĪĭáīµ
Ġáĭ¨áī° áĭ°áĪ¨áĮĪ
ĠáĮį áĪŃáĪĽ
Ġáĭ° áĪ«áĪ²
áĪĻ áĬĵ
Ġáīłáĭ°áĬķ áī¥
Ġáĭ¨áĪ ¸
ĠáĬłáĪ°áĪįáĮ£ áĬĿ
Ġáĭ¨ áįĭáĭŃáĬĵáĬķáĪµ
ĠáĬłáĪµ áīĢáĭµáĪŀ
Ġáĭ³ áĭĬáīµ
ĠáĬħ áī¥áĪ¨áīµ
áīłáĪ »
ĠáīłáĪŃ áĪµ
ĠáĪĺ áĬĵ
ĠáĬ¨ áĪĮ
Ġáī°áīĥ áĭįáĪŀ
ĠáĪµáĬ¬ áīµ
ĠáĪĺáĪĿ áĮ£
ĠáĮ ¡
áīĥ áĪµ
ĠáĪĿáĪįáĬŃ áīµ
áĪ¸ áĬķ
áĭŃ áī·áĪį
ĠáĪĺ áĪĨáĬĹ
Ġáĭ¨áĪĽ áĬķ
ĠáīłáĬĭáĪĭ áĪĿ
áīłáĪ ªáĭ«
ĠáĮį áĮŃáīµ
Ġáĭ¨áĪĪ áīłáīµáĪĿ
áĭŁ áĪį
ĠáĮ¥ áīĥ
áī ¬
ĠáĪ° áĬĶ
ĠáĪ¥ áįįáĪ«
Ġáĭ¨áĪ° áĪĭáĪĿ
ĠáĮ½ áĪķáįĪáīµ
áī¥ áīħ
áĬ¥ áĪ±
áĪ´ áįį
ĠáĪĮáĪİáī½ áĪĿ
ĠáĬ® áĪĮ
áĪŃ áĬķ
áīĢ áĮłáĪį
Ġáīł áī¦
ĠáĭŃ áī°
ĠáĬ¥áĬķáĭ² áĪ°
Ġáīħáĭµ áĪļáĭ«
ĠáĪµ áĪįáĮ£áĬķ
Ġáĭ¨áĬł áĮĪáĪªáī±áĬķ
áĪĺáĪµ áĪį
ĠáĪĺ áĪĺáĪŃ
áĪĮáīª áĭ¥áĬķ
Ġáīł áĭµáĬķ
áīł áĭĪáīħáī±
ĠáĬłáĪ³ áĪį
ĠáĮ ³áĭįáĪİáĪµ
áĪĭ áī±
áĭ«áĭĺ áĭį
ĠáĮ½ áĪħáįĪáīµ
ĠáĭĿáĪŃ áĭĿáĪŃ
Ġáī£áĪĪáĪĢáī¥ áī¶áī½
ĠáīłáĬ¢ áĬķ
áĬ¥áĬķáĮį áĭ²áĪħ
Ġáĭ¨áĪ½ áī¥áĪŃ
áĬ« áĪªáĭİáī½
áįĵáĪŃ áĪĭáĪĽ
áī£ áī½áĪģ
ĠáĪłáĪ« áī°áĬĽ
ĠáĬłáĬ« áĪĦáĭµ
ĠáĬ¥áĬķáĭµ áī³
áĪµ áīłáĭį
ĠáĬ ¡
áĭĽ áĪª
Ġáī£ áĪīáīµ
Ġáĭ«áĪµ áī½
áĮłáĪ Ľ
áĮĪ áīłáĭį
áįĪ áĬĲ
ĠáĬ¥áĭ¨ áĮ¨áĪĺáĪ¨
ĠáĬ¥áĬķáĭ°áĪļ áĮĪáĬĿ
ĠáĮīáĭ³ áĭ©áĬķ
ĠáĭĿáīħ áī°áĬĽ
Ġáī³ áĭ³áĮĬ
Ġáĭ¨áĪĺáĪ³áĪ° áĪī
ĠáĬ¥áĬķáĭ²áĭ« áĮĪáĬĻ
áĭ° áĮįáĪŀ
Ġáĭ¨áĬ« áī²áīµ
áĪ¸ áĮ¥
ĠáĭĪ áĭ²áĭ«áĭį
Ġáīµ áĬ¥
Ġáī½áĪİ áī³
Ġáĭ¨áĪ° áī¥
Ġáī°áĮ½ áĭķáĬĸ
ĠáĬ¨ áĮĬáĭľ
áĭµ áĪ®
ĠáĪĺáĬķ áĪµ
Ġáīł áĭ³
áĭľ áĬł
áĬķ áī£
ĠáĬł áĭ²áĪ±
áĮłáĪ¨ áĭį
Ġáĭ¨áĪļ áī³áĭŃ
áĭĿ áĭ³áĬķ
áĭ ĸ
ĠáĪµ áĪĻ
Ġáīłáī¥ áĭĽáīµ
áĮĪ áĪĺáīµ
áĪĺ áĬĳ
Ġáīł áīĥáĪį
ĠáĪ¥áĪ« áĭİáī½áĬķ
áĬĲ áī³áī½áĬķ
ĠáĪĿáĪŃ áī¶áī½
áĮĦ áĪªáĭ«
áī° áĬ©
ĠáĪĺ áĪ¨
ĠáĪĽ áĪ°áī¥
ĠáĬ¥áĭ« áĪ³
ĠáĪĪáĪĺ áĮĢáĪĺáĪªáĭ«
áīĭ áĪ¨áĮ¥
6 0
ĠáĮį áī¥áĪŃáĬĵ
Ġáĭ¨áĪļáĭ« áĪµáī°
ĠáĪĺ áĮłáīłáīħ
ĠáĭĪáĬķ áĭĿ
áĭµ áĮĪáīµ
Ġáĭ¨áĪĺ áĬķáĮįáĪ¥
áĪĮ áĪĿ
ĠáĭĿ áĪŃáĭ«
áĭ³ áī¸áĭįáĬķ
ĠáĮįáĬķáī£ áĪŃ
Ġáĭ¨áĪļ áī½
ĠáĪĺ áĬ¨áĪĭáĬ¨áĪį
ĠáĪħ áĪį
ĠáĪĪáĪĺáĪµ áĪ«áīµ
ĠáĬłáĪī áīµ
Ġáīłáĭį áĪµ
ĠáĬłáĪµáī°áĭĭ áįħáĬ¦
Ġáĭ° áĪ¨
áĪ° áīł
ĠáĪ² áĬĲ
áī£áī¸áĭį áĪĿ
Ġáĭ¨ áĮ½
áīł áīħáĪŃ
ĠáĪĪ áī¥
áĪ«áĬķáĪµ áįĸáĪŃáīµ
Ġáīł áīĢáĪŃ
ĠáĬ¨ áī¤
áĭ¨ áī±
ĠáĭŃ áĮłáīħ
áĮ ĩ
ĠáĪĺ áī»
ĠáĬ¥áĬķáĭ°áĪĨáĬĲ áĪĿ
áĭĪ áĪ©
áĭĪ áĪ¨
ĠáĪĿ áĬĵáĪį
Ġáīł áĮ½
áĪµáī°áĬ« áĬ¨áĪį
áĭ¨ áĭļáĪħ
ĠáīłáĪĽ áĪħ
ĠáĪ³ áĪĪ
ĠáĮİ áĭ³áĬĵ
ĠáįĪáĮ½ áĪŀ
áĪĪáĬĿ áĪĿ
áĬĲ áĭĭáĪį
áī£ áĪª
áĪŃáĭ« áīµ
áĭĬ áĭį
Ġ A
Ġáĭ¨ áĬħ
Ġáįį áĪŃ
áĪ°áī¥ áĪ°áī¥
áĪ³ áīģ
áĬĴ áĬ¬áĪ½áĬķ
ĠáĬ« áįĴ
áĮ¥ áĮ¥áĪŃ
áĮĪáī£ áī¸áĭį
áĬ« áĬķ
áĭ« áĮŃ
Ġáīµ áĭĿ
áĮįáī¥ áįħ
ĠáĮ Ħ
ĠáĬ¥ áĪ«
áĬ¥áĬķáĭ² áĪģáĪĿ
áĪŃ áĬĲáīµ
ĠáĮį áĪŃ
ĠáĬª áĪ«áĭŃ
áī» áī½áĬķáĬķ
áĮ¥ áĪ©
ĠáĮĪáĬķ áĭĺ
Ġáĭ¨áĪ« áĪ±áĬķ
áĮ¥ áīħ
ĠáĪ© áĮ«
ĠáĪĿ áĪį
ĠáĪ¥ áĪįáĮ£
áĪµáįĭ áįĭ
ĠáĭŃáī³ áĭ«áĪį
ĠáīµáĪµ áĪµáĪŃ
áĬ¸ áĭį
ĠáĬłáĪµáĬªáĭ« áĮħ
áĬŃ áĬŃáĪŃ
ĠáĬ¦ áĪĬáĪĿáįĴáĬŃ
4 0
áĭŀ áī½
áĮłáī¥ áīħ
ĠáĬĲ áī½
Ġáīħ áĬķ
ĠáĬĲ áĮ»
Ġáĭ¨áĪ« áĪ±
Ġ s
áĪı áī¸áĭį
áĭ« áĪľ
ĠáĪĿ áĬĴáĪįáĬŃ
ĠáĭŃáĬ¸ áĭįáĪĿ
ĠáĭµáĪŃ áīħ
Ġáīł áī´
áĬĲ áīł
ĠáĬ¨áī° áĪĪáĭ«áĭ©
ĠáįĪ áĮ£áĪª
Ġáī¦ áĪŃáĭµ
ĠáįĬ áĪį
Ġáĭ¨áĪļáĭ« áĭ°áĪŃ
áĪģ áįį
áĪ¬ áĭ³
ĠáĪ³ áī¢áĭ«
ĠáįĪáīĥ áĭ°áĬĽ
ĠáīħáĪŃ áĬķáĮ«
áĭ³ áĪľ
áīĥ áī¤
áįį áī³
Ġáĭ«áĪį áĪĨáĬĲ
áīłáĪ¨ áĪ°áī¡
ĠáĬ¨áĪĺ áĪĨáĬĳáĪĿ
áįĪáĮ¸ áĪĺ
ĠáĬŃáįį áī°
Ġáĭ¨áĪĭ áīĢ
áĪĥ áīµ
ĠáĭŃáĪħáĬķ áĬĳ
Ġáĭ« áĭ°áĪ¨áĮī
áĭĪáĪ° áĭµ
áĬķ áĮĵ
ĠáĪį áī¦
áĬ¥áĬķ áĭ²áĭ«áĭįáĪĿ
áįį áĪ¨áīµ
ĠáĮĪ áĭ¢
ĠáĪĿáĬĵ áĪĿáĬķ
Ġáī³áĪªáĬ« áĭĬ
áī£ áĬŃ
ĠáĬ¨ áįĬ
Ġáĭ¨ áīģ
ĠáĬĥáĪĭáįĬ áĭİáī½
ĠáĮłáīħ áĪĭáĪĭ
Ġáĭ°áĪħáĬķ áĬĲáīµ
Ġáī° áĭŃ
ĠáīłáĪļ áĮĪáĬĺáĭį
Ġáī¥ áī¸
ĠáĭŃ áīĨ
Ġáĭ¨áĪļáĭ« áĭ°áĪŃáĮĪáĭį
ĠáĪĺ áĬ¨áĪĭáĬ¨áĭ«
ĠáĬłáĭį áĪ®áįĵ
áĬķáīĢáĪ³ áīĢáĪµ
áĮĪ áĪµ
áĪµ áĪį
ĠáĬł áįĭ
Ġáī°áīĢ áī¥
áĬ¥áĬĶ áĪĿ
ĠáĬ«áĪį áĪĨáĬĲ
ĠáĪµáī´ áīµ
Ġáĭ¨áĪļ áĭ°áĪ¨áĮį
ĠáĬ¥ áĭįáĬķ
ĠáĪĺáĭį áĪ°áĭµ
áĮĭ áĭį
áĮĪ áĭĻ
áĪİ áĬķ
áĬŃáī° áĪ©
ĠáĬ¥áĭµ áĪľ
ĠáĭĪ áĪ°
áĭİ áī»áī¸áĭį
ĠáīłáĪĿ áĭµáĪŃ
áĭ¥ áĪĿ
áĪĪ áĭĪáĮ¥
ĠáĬłáī¥ áĭ®
áĪģ áĪī
áī¡ áī²
ĠáĬŃ áĪŃáĪµáī¶áĪµ
áĭķ áīĨ
ĠáĪµáĪĪ áĪĽáĭŃ
ĠáĭĪáĮ¥ áī¶
áĬ© áĪ¨áīµ
áĪ« áīµáĬĵ
Ġáĭ¨ áįįáīµ
áĭ°áĪ« áĮĢ
ĠáīłáĪ« áĪ³áī¸áĭį
ĠáĬ¥áĭį áīħáĬĵ
ĠáĬ¨ áī¥
áĬĲáīłáĪ¨ áīłáīµ
áīłáīħáĪŃ áī¡
Ġáĭ° áĪ³
Ġáĭ³ áĬķ
ĠáĪĿáĪ¥ áĬŃáĪ®áī½
áĪŃ áĭ³áī³
áī¥ áĪħ
ĠáĬ¥áĭ« áĭ°áĮĪ
áī¡ áĭµ
áĮį áĭĽáīµ
áĪĿ áĪĮ
ĠáĬł áī¥áĪ¨
áĪĪáĪĽ áĪŃáĭ«áĪĿ
ĠáīłáĪĽ áīħáĪ¨áī¥
ĠáĪĺáĪµ áĮł
áīµáĪĿáĪħ áĪŃ
áĬķáĮĵ áĭ´
ĠáĬŃ áī¥áĪ¨
Ġáī°áĮ«áĭĭ áī¾áī½
Ġáĭ¨ áĮĪáī¢
áĮĢ áĪ«
Ġáĭ¨áĭ° áī¡áī¥
ĠáĪĽáĪ« áī¶áĬķ
ĠáĪ½ áī¥áĪŃ
áĬŃ áĪ¨áĭį
áĬĸ áĪªáĭ«
áĬĸ áī¹
ĠáĮĪ áįħ
áįĮáĭ´ áĪ¬áĪ½áĬĳ
áĪĽ áĪĺáĬķ
áī» áĭŃáĬĵ
áĭ© áĪĿ
ĠáīłáĪĺ áĬ«
áĬ¥áĬĲáĭļáĪħ áĬķ
ĠáĬłáĪ ½
áĭ¶ áĬŃáī°áĪŃ
áĭĺ áĪ¨
áĪ¨áĮĭ áĮĭáīµ
ĠáĭŃáĪĺáĪµ áĪį
ĠáįĪ áĮłáĪ«
áĮĪ áĮį
áĭĭ áĪŃ
áĭ°áĪ¨áĮĥ áĭį
áĪ«áįĬ áĬŃ
áĭ« áĬĳ
ĠáĬłáĪ³ áĪµ
ĠáĪ°áĬĲ áĭµ
ĠáĬ© áĬķáī³áĪį
ĠáĬ Ķ
ĠáĬłáĪ łáĪ
ĠáīĨáĭŃ áī³
Ġáĭ¨áīł áĬ©
Ġáĭ¨áĪĺáĬķ áĮĪáĭµ
áĬĲ áĪ½
áī¿ áĬķ
Ġáīł áĬĲáīłáĪ¨áĭį
Ġáĭį áĪį
Ġáī°áĮĪáī¢ áĭįáĬķ
áĬ¨áī³áī° áĪį
áĮį áīłáĪŃ
Ġ S
ĠáĪĿ áīµ
áĪ®áįķ áĪĭáĬķ
áĬĵ áī±
ĠáīłáĬłáĪ ľáĪªáĬ«
ĠáįĬ áĪįáĪĿ
áĬķáīĢáĪ³áīĢ áĪ±
áī½ áĪīáĪĿ
ĠáĬłáĭµáĪŃ áĮĭ
2 5
Ġáī° áĮ¨áī£áĮŃ
áī¶ áī»áī½áĬķ
ĠáīłáĬł áĮĪáĪ«áī½áĬķ
ĠáĪĿáĬķ áĭĽáĪª
ĠáĬłáĪµ áī³áĭĪáīĢ
ĠáĪµáī³ áĭ²
áī¥ áĪµ
áĮĭ áĬķáĭ³
áĪĲ áĭĬ
ĠáĬ¨áĬł áĭ²áĪµ
ĠáĭĺáĪŃ áįī
áĪ¨áĮĭáĮĪ áĮł
áĪĪ áĭ¨áīµ
áĬ¥ áĭŃ
Ġáī£áĪĪáĪ¥ áĪįáĮ£áĬķ
áīłáĬł áĮłáīĥáĪĭáĭŃ
ĠáĬłáīħáĪŃ áī¦
áĮł áĮ¥
Ġáĭ«áĪĪ áįĪ
ĠáīłáĬ¥áĮħ áĮī
ĠáĪĪáĪĺ áĮĪáĬķáī£áīµ
Ġáĭ¨áĪĿ áĪŃáĪĿáĪŃ
ĠáĪĥ áĭŃáĪĽáĬĸáīµ
Ġáĭ¨áĬłáĪ µáī°
Ġáī°áĪĺ áĪŃ
ĠáĪĪáĪĽ áĭ¨áīµ
Ġáī° áī°
áīĢ áīµáĬĵ
áĬ« áĪ¬
áĭĽ áĬķ
ĠáĪŃáĭķ áĪ°
Ġáĭ¨áĪĺ áĪ¬áīµ
Ġáĭ¨áĭĪ áĭ°
áīħáĬĵ áīĦ
ĠáĪĺáĮĪáĪĪ áĮ«
ĠáĪĽ áĪŃáĭ«áĪĿ
Ġáī£ áĪµ
Ġáīħáĭ±áĪµ áĬķ
ĠáĬłáĪĪ áīĥ
áĭĭ áĪª
áĭķ áĪį
Ġáĭ¨áĪļ áĪ°áĪ«
ĠáĮį áī¢
áĬĵ áīµáĬĵ
áĪĿ áĪĿ
Ġáĭ¨áĬłáĪĿáĪĭáĬŃ áĬķ
ĠáĭĪáĭŃ áĪµ
ĠáĮ¥áĬķ áīĥáīĦ
áĪ³ áĭ°áĪŃ
ĠáĪħ áī¥áĪ¨áīµ
ĠáĪĥ áī¥áīµ
áĭ©áĬĴáī¨áĪŃáĪ²áī² áĭį
ĠáĪĺ áĪ¨áĭ³áīµ
áĮ½ áĬĵ
ĠáĮįáĪĪ áĪ°áī¥
ĠáĬŃáīµ áīµáĪį
áĭĭ áĪĪáĬķ
áĮ¨ áĪĿáĪŃ
ĠáīłáĬłáĪĿ áĪĭáĬŃ
áĪ° áĬĵ
áĬ ¡
áĮ¨ áīł
áīł áĬķ
áĪŃ áĬĽ
ĠáĮĪ áĭ°áĪĽ
áĪĻ áĪĿ
áĪ¨ áĪĿáīµ
ĠáĪ³ áĬķ
ĠáĪĺ áĮĭáī¢áīµ
Ġáĭ° áĬ«
ĠáĭŃáĬ¸ áĭį
ĠáĪĺáĮ»áĪķ áįįáīµ
Ġáĭ¨áĪļ áĮĪáī£áĭį
ĠáĪ² áī³áĭŃ
áĭĪ áĭ³
áī¦ áī¹
ĠáĬ¥ áĪ±áĪĿ
áĬł áīµáĪŃ
áī³ áĭįáĬķ
ĠáĪ°áī¥áĪ³áī¢ áĬĲáīµ
Ġáī° áĭĺáĮĭáĮħ
Ġáīµ áĬĵ
Ġáĭ¨áĪ´ áī¶áī½
Ġáĭ« áĪĺ
Ġáįį áĪįáĪµ
ĠáĭµáĬķ áĮĭáĭŃ
Ġáĭ°áĪ³ áĪĪáĬĿ
áįĭ áĪµ
ti on
ĠáĬł áĭ°áĪ¨áĮĪ
Ġáī°áĪ« áĪ«
ĠáīłáĪ° áĪĭáĪĿ
Ġáī£áĪķ áĪŃ
áĭ¨áĬł áĭ²áĪµ
áĮ» áĪľ
ĠáĪĺ áīĥ
Ġáīµ áī¥áī¥áĪŃ
ĠáĬŃ áĪħ
ĠáĬ¥áĬĶ áĬķ
Ġáĭ¨áī°áĪ° áĮłáĭį
Ġ ,
áĪłáĪ« áĭį
Ľ áĪ«
ĠáĪĺáĪĿáĪħ áĪŃ
áĬķ áīłáīµ
a t
ĠáĮī áī¥áĬĿ
Ġáī° áĬ«
ĠáĮ¥ áĪįáīħ
ĠáīĢáĮ¥ áĪİ
Ġáĭ« áĭ°áĪ¨áĮīáīµ
ĠáĬł áĮ£
áĬł áī£
ĠáĬłáĭŃáĮĪáī£ áĪĿ
áĭ Ĳ
ĠáĬłáĭ³ áĪ«áĪ½
áĭĪ áĭĿ
ĠáĪĿ áĬķáĭµáĬĲáĭį
Ġáĭ¨áī° áīĭáīĭ
Ġáĭĺ áĮłáĬĿ
Ġáĭ¨ áĮĪáĪĪ
áĮĢáĪĺ áĪŃáĭ«
áįĮ áĭ°
áĭķáīĨ áī¥
ĠáĬ¥áĪŃ áĪ»
áĮĪ áĭ³
Ġáī¥áĭĻáĬĥ áĬķ
áĮĪáĬĵ áĬĿ
ĠáĬłáĭŃ áī³
áĪ¨áĮĭ áĮĭ
áīĨ áĪµ
200 7
ĠáĬ¤ áĬŃáĪµ
Ġáīµáī½ áĪĭáĪĪáĪħ
Ġáĭ¨ áĭ¨
ĠáĭŃáĮĪáĪįáĮ» áĪį
Ġáĭ¨áī° áĮ£
Ġáĭ¨áĪĿ áĪŃ
Ġáī¶ áĪİ
ĠáīłáĪļ áĭ«áĪµ
ĠáĪĽáĪ³ áĭ°áĮį
Ġáĭ¨áĪļáĪ° áĮ¡
áī³áĭĪ áīģ
Ġáī° áĭį
ĠáĬ¥áĬķáĭ² áĭ«áĪµ
ĠáĮĢ áĪĺáĪ©
ĠáĬ¥áĬķáĭ° áĪĿáĬķ
áĪĭ áĪĭáīħ
§ áĪ¨
Ġáĭ¨áī° áĪĪáĭ«áĭ¨
Ġáĭ° áīĢ
ĠáĮ¸ áĪĲáįĬ
ĠáĪ° áĪĽáĭŃ
ĠáĭĪáĬķáĭµ áĪŀáī½
ĠáĮłáī£ áīĤ
ĠáĪĺ áĮįáī£áīµ
áĭĽ áī¸áĭį
áįĵ áĬķ
ĠáīłáĭĭáĬĵ áĬĲáīµ
Ġáĭ¨áĪ ©
ĠáĮ¥ áĪ¨
Ġáĭ¨áĬ¥ áĬĶ
Ġáī» áĭŃáĬĵ
áĭ° áĪĺ
ĠáĪĺ áĬ®
ĠáĪĪ áĪį
Ġáĭ¨áī° áĮĪáĬĺáĭį
áĭµ áĪį
Ġáī³ áĭĭáīĤ
áĬĲ áĬ«
Ġáĭ°áĪŃ áĪ¶
Ġ 0
Ġáīħáĭµ áĪĺ
ĠáĪĿ áĬŀ
áĭ° áįį
ĠáĬ¥áĭ¨ áīĢ
áī£ áĭį
ĠáīłáĪķ áĭŃáĭĪáīµ
Ġáĭ¨áĪļ áįĪáĪįáĮī
áĬ¨áī° áĪī
áĪĪ áĪĪ
ĠáĪĪáĪĽáĪ³ áĬ«áīµ
ĠáĪĽ áĪ¨áĮĭáĮĪáĮ¥
áīĤ áīħ
Ġáĭ¨ áįĸáĪĬ
ĠáĬłáĭ° áĪ«
ĠáĪµáĬ¬ áī³áĪĽ
ĠáĪĪ áĭ«áĪħáĭĮ
ĠáĪķ áĮĭáĭĬ
áĪ ¦
áĬŃ áĪŃáĪµáī²
áĬ¥áĪµ áĬ¨
áĪ°áĪĽ áĭį
Ġáĭ¨áĪļ áĪ¸
ĠáĬ¥ áĪį
ĠáīłáĪļ áĮĪáĬĻ
áī£áĪĪ áįīáīµ
ĠáĮ ¢
Ġáĭ¨áĪļ áĮĪáī¡
ĠáĬłáĭµ áĪĽ
Ġáĭ¨áī£ áĪħáĪį
áĭ« áĬĶ
Ġáĭ«áĪµ áī³áĭį
áī¡ áĭµáĬķ
ĠáĪķ áĬķáįĥ
Ġáĭ« áĭĪ
ĠáīłáĪĺ áįįáĮłáĪŃ
ĠáĮĨ áĪ®
áī³ áĬĿ
ĠáĪµ áĮ¦áī³
ĠáĪĪáĪĺ áĪ¥áĪ«áīµ
ĠáĬłáĭµ áĬĵ
áĮīáĭ³ áĭ©
ĠáĬ¥áĬķáĭ² áīĢ
áĪ¬áĭ³ áĭĭ
Ġáī°áĪµáįĭ áĭ¬
ĠáĪĺáīĢ áĮłáĪį
Ġáĭ¨áĪĥ áĭŃáĪĽáĬĸáīµ
áĮł áĬĳ
ĠáĬ¥áĭ¨ áĪłáĪ«
ĠáĮłáĪ Ń
áīł áĭĵ
ĠáĬ¤ áĪŃ
áĮłáĬķ áīĢ
áĬłáĬķ áĭ±
áĪµ áĬŃ
Ġáīł áĮŃ
ĠáĪ³ áīµ
áĪĽ áĪĽ
ĠáĬ¥áĬķáĮį áĭ³
ĠáĪį áī³
ĠáĪĽáĪ¨áĮĭáĮĪ áĮ«
áī£ áĬķ
ĠáĮłáīĢáĪľ áī³
ĠáĮįáĭĻ áįį
ĠáĬ¨ áĪ«
áįį áĪį
ĠáĪĿ áĭµ
Ġáĭ¨áī° áĭĪ
ĠáĭįáĪµáĮ¥ áĪĿ
ĠáĪĪáĪĺ áī³
ĠâĢ ĭ
áĮłáīł áīģ
ĠáĬłáĪ¥ áĪŃ
áĬ¨ áīµáĬĵ
ĠáĬłáĪµ áĪŃ
ĠáĪµáĪĿ áĪĿ
ĠáĪĺ áĮĭ
ĠáĪĪáĪĽ áĪµáī°
ĠáĬłáĪįáī» áĪĪáĪĿ
ĠáĪĺ áĭ«áĭĿ
áĪĽ áī½áĬķ
ĠáĪĿáĪŃ áī³áĪĽ
Ġáĭ¨áī° áĮĢáĪĺáĪ¨áĭį
ĠáĭŃ áīĢáĮ¥
áĭįáĬķ áĬĵ
ĠáĪģ áĪįáĮĬáĭľ
Ġáĭ¨áĬ¢áīµáĭ®áĮµáĭ« áĬķ
ĠáĪĺ áīĢáĪĺ
ĠáĪĽ áī³
ĠáĪµ áĬķáīµ
ĠáĪĪáĪĽ áīħáĪ¨áī¥
áīª áĪį
ĠáĬĲ áĮį
Ġáĭ¨áĪģ áĪĪ
ĠáįĭáĭŃ áĭ³
Ġáī°áĪ°áĮ¥ áī¶
áĪĭáī¸áĭį áĪĿ
ĠáĬłáī£ áī£áĪį
áĬĵáĮĪ áĪ¨
áĪ¨ áī¤áīµ
ĠáĪĺ áĭ°áīłáĬĽ
ĠáīłáĪĽ áĪµáī°
Ġáĭ« áĮĭ
ĠáĪµ áĭ«áĪľ
ĠáĬķ áī¥áĪ¨
ĠáĪ¥áĪŃáĭĵ áī±
Ġáīħ áĮ£áīµ
ħ áĮī
áĪį áĬ®
Ġáĭ¨áĪļ áĮĪáĬĺáĭįáĬķ
ĠáĭĪáĬķáĭµ áĪĿ
áĮĪáĬĲ áī¡
ĠáĬłáī¥áĭĽ áĬŀáī¹
Ġ3 5
Ġáĭ¨áĪĻ áĭ«
áĪª áī±
áįĬ áĭį
Ġáĭ¨áĪļ áĭ°áĪ¨áĮĪáĭį
áīĨ áī½
Ġáĭ°áĪŃ áĪ·áĪį
Ġáĭ¨áĪĻ áĭļáīĥ
Ġáīł áĮįáĬķ
ĠáĬ« áĪĭ
Ġáĭ«áĪĪ áī£áī¸áĭį
ĠáĭŃ áĮĪáĬĻ
ĠáĬ¥áĪµ áī²
Ġáī° áĪ½áĬ¨áĪŃ
ĠáĪĪáĪĽ áĬķ
Ġáĭ¨áĪĽ áĪµáī°
ĠáĪĪáĪĽáĪµ áĭĪáĮĪáĭµ
Ġth e
ĠáīµáĬĵ áĬķáīµ
áĬ¤ áĬł
ĠáĬ¥áĬķáĭµ áĬĵ
ĠáĬ¥áĬķáĪµ áĪ³áīµ
ĠáĭŃáĮłáĭŃ áīĥáĪį
ĠáĪĥ áĭ«
ĠáĪĺáĬķ áĭ°áĪŃ
Ġ c
Ġáĭ¨áĪļ áĬĵáĮĪáĪ©áīµ
áĬ« áĪŃ
áĪģ áĪĪáī±
áĪĿ áī¤
Ġáĭ¨áĪļ áĮłáīĢ
áĮĮ áī³
Ġáĭ¨áī°áĭĪáĪ° áĬĲ
ĠáĬł áĮĪáĬĺ
ĠáĪĿ áĪħ
áĬłáĪ Ń
áĮłáĪ ®
ĠáĬ¥ áĮĪáĭĽ
Ġáĭ¨áī³ áĪªáĬŃ
ĠáĬłáĪĿáĪĭáĬŃ áĬķ
ĠáĪ°áĪĭ áĪĿáĬĵ
Ġ C
ĠáĬ¥áĬķáĭ² áĬĸáĪŃ
áīħáĪ¨ áįį
áįĪáĮ¸ áĪĻ
ĠáĪĺáĬĸ áĪ©áĬķ
ĠáĬĲ áĪħ
áīĥ áĪĪáĪģ
ĠáĪĿáĪģ áĪ«áĬķ
ĠáĬ¨ áĮİ
Ġáĭ² áĮįáĪª
ĠáĬłáįĪáĮ»áĮ¸ áĪĿ
áĬĵ áīµáĬķ
Ġáī° áĪĪáĭŃ
ĠáĬłáĪµ áīĢáĪĿ
ĠáĮĪ áīł
áī¸ áīµ
Ġáī° áįĪáĮ¥
áĭŃ áĭĿ
ĠáĪ¨ áĮħáĪĿ
áįĪáĪĪ áĮī
áĬ« áī¤
áĪ¬ áĪ½
ĠáīłáĬ¥ áĬĲáĭļáĪħ
Ġáĭ¨áĭķ áĭµáĮĪáīµáĬĵ
ĠáĬ® áĪŃáįĸ
Ġáĭ¨áī° áĭ°áĪ¨áĮĪáĭį
Ġáīµ áĮį
ĠáĬ¨ áĬķ
áī¶áī½ áĪĿ
áĭĪáĪ° áĬĳ
ĠáĪĽáĪ³ áĭ¨áīµ
ĠáĪģáĪĪ áī°áĬĽáĭį
áĪ»áĪ» áĭ«
áĭ° áĭĭáĪį
ĠáĪĺ áįĪ
Ġáĭ¨áĬłáĪ į
áīłáĪ¨áī³ áī½
ĠáīłáĪĿ áĪŃáĮ«
Ġáĭ¨ áĮ¸
áĪĽ áĪĽáĬĿ
ĠáĪĲ áĬª
ĠáĪ° áĭĵ
ĠáĪĥ áĭŃáĪį
áĭ¨ áĪķ
ĠáīłáĪļ áĪĺáĪĪáĬ¨áīµ
ĠáĮłáīħ áĪ°áĭĭáĪį
Ġáĭ«áĪµáĪ¨áĭ³ áĪī
Ġáĭ¨ áĮĢáĪĺáĪ¨áĭį
áĪĪ áĮ¥
áĬł áĭ«
Ġáĭ¨áĪļáĭ«áĪµ áī½áĪī
áĪĮ áĬķ
ĠáĭĪáĪĭ áĮĨáī½
Ġáĭ¨áĬ¥ áĬĽ
ĠáīłáĪĨ áĬĲáĭį
ĠáĪĽáĬķ áĬĲáīµ
Ġáĭ¨áįĪ áĮłáĪ«
ĠáĬ¢áĬķ áĮĤ
ĠáĭĪáĪ¨áĭ³ áĭİáī½
Ġáī°áĪį áĭķ
áĪ¨ áįįáīµ
áĭ¨ áĪĻ
Ġáĭ« áĪĭáīµ
áĭĺ áĭĿ
áĭĪ áĪį
Ġáī¥ áīħ
Ġáī£ áĭ°áĪ¨áĮīáīµ
áĬķáĪµ áī²áīµ
Ġo f
Ġáĭ¨áī° áĮĪáĬĺ
áĪ¶ áī½áĬķ
ĠáĪ² áĪĺáĮ£
ĠáīłáĭĪ áĬķ
áįĪáĪį áĮĪáĭįáĬķ
ĠáīłáĪĺ áĮĢáĪĺáĪªáĭ«
ĠáĪĽ áĮ¥
ĠáĪĪáĪĽ áĪĿáĮ£áīµ
ĠáĪĪáĬł áĮĪáĪŃ
ĠáĬ¥áĬķáĭ°áī° áĬĵáĮĪáĪ©áīµ
ĠáĪħ áĭ³áĪ´
Ġáĭ¨ áĭµáĪŃ
áĮİ áīµ
Ġáĭ«áĪį áĪĨáĬĳ
Ġáĭ¨áĪĺáĮ£ áĭį
áīł áĭįáĬķ
Ġáī¥ áĪĪáĪħ
áĬĸ áĪµ
áĬķáĭµ áĪ®áĭį
ĠáĭµáĪŃáĮħ áī±
ĠáĬ¥áĬķáĭ°áĪļ áī½áĪī
áĬķáĪµ áĬĵ
ĠáĮ¥ áįĭ
áĮĵ áĭĻ
Ġáĭ¨áĭĭ áĮĭ
áĪĭ áĮŃ
áī¶ áī»áī¸áĭį
ĠáĪĺáĮ¥ áī·áĪį
áĭŃáĪģ áĭ³
áī¸ áĬ³áĭŃ
Ġáĭ¨áĪļ áĮłáīłáīħ
áĭĭ áĪĭ
áĪĭ áĪĪáĪģ
Ġáĭ¨ áĮ£
áĪļ áĭİáī½
ĠáĬłáĭµáĪŃ áĮĪ
áĪģáĪĪ áī°áĬĽáĭį
ĠáĮĬ áĭ®áĪŃáĮĬáĪµ
áįĭ áĭį
Ġáĭ¨áĮįáĬķ áī£áī³
áī¥áĪŃáĪĥ áĪĿ
ĠáĭŃ áĪ»
áĬĿ áĬķ
Ġáĭ¨áĪħ áĭ³áĪ´
áĭ° áīłáīµ
Ġáĭ° áĪ¨áĪ°
ĠáĭµáĬķ áĮĪáīµ
ĠáĪĺáĭĿ áĪĻáĪŃ
áĭ«áĪµáįĸ áĪ«
ĠáĬ¥ áĪ·
áĪĺ áĬĽ
ĠáĪĺáĬķáĪµ áĬ¤
i t
áĬ© áī£áĬķáĭ«
ĠáĬ« áĪµ
áĪĪáĭį áĮ¥
áĬĲáĮĭ áĮį
áĪµáįĭ áįĭáīµ
ĠáĪĺáĪįáĭķ áĬŃáīµ
áĮł áįī
áĮ¨ áĭį
Ġáīģ áĪįáįį
áĪªáĭ« áĭį
Ġáī³ áĪĭáīģ
Ġáĭ¨áĬłáĪ Ń
ĠáĪĺáī¥ áī¶áī½
áĭį áīĢáīµ
áĪĿ áĮ£
ĠáĪĪáĪĺ áĪĺáĪĪáĪµ
ĠáīłáĪĨ áĬĳ
ĠáīłáĪ« áĪµ
Ġáįį áīĥ
ĠáĪ°áī¥ áĭĵáĭĬ
áĬĽáĭįáĬķ áĪĿ
ĠáīłáĪĺ áĮ¥
áī» áī½áĪģ
Ġáĭ¨áĬł áĮĪáĪįáĮįáĪİáīµ
i c
áĭ² áĬĵ
Ġáĭ¨áĪħ áĮį
áĬĴáī¨ áĪŃáĪµáī²
Ġ T
áĬĲ áīĥ
Ġáī£áĪħ áĪª
áĪģáĪĪ áī°áĬĽ
ĠáĭŃ áĭ°
ĠáīłáĪĺ áĬķáįĪ
ĠáĬłáĪĬ áĭ«áĪĿ
ĠáĪ ¾
ĠáĬłáĬķ áĭ·
ĠáĬ¥ áĮįáĭļáĬłáī¥áĪĶáĪŃ
Ġáī° áįĭ
ĠáĮĪ áĭ¥
Ġ3 1
áĬķáĮī áĪ¡
ĠáĪĺáĪ°áĪ¨ áī³áĭĬ
áī° áĪ¨
Ġáī¤ áī±áĬķ
áĪº áĪħ
áī¸ áĮį
ĠáĮį áĮ¥
áįĭ áĪŃ
ĠáīłáĬł áĮŃáĪŃ
áĪĬ áĭĿáĪĿ
áĭķ áĭµ
ĠáĬ¥áĬĽ áĪĿ
áįĲ áī¥
áĪĺ áĬĵáĪį
ĠáĪĺáĮ¥ áī¶
ĠáīłáĬłáĬķ áĭ³áĬķáĭµ
Ġáĭ¨áĪ Ħ
áĪī áĬĵ
Ġáĭ°áĮįáĪŀ áĪĿ
ĠáīµáĪŃ áįį
ĠáĬ¨ áĭµ
ĠáĬłáĪĭ áĭį
ĠáĬ¥áĭ«áĬķ áĭ³áĬķáĭ±
Ġáī¥ áīĥ
áĪĺáĪį áĪµ
ĠáĪµáĭ° áī°áĬŀáī½
ĠáĮį áĮŃ
áĮĬáĭľ áĪĿ
Ġáĭ¨áĪļáĪĨáĬĳ áīµ
ĠáĪ½ áĮįáĮįáĪŃ
áĬ¨áĪ° áī±
ĠáĬł áĭ¨
áīł áī£
ĠáĪĪáĪĿ áĪ³áĪĮ
áĪ¨ áĮ¡
áĪłáĪ Ń
ĠáĪĺáĮį áī¢áĭ«
Ġáĭ¨ áĪ¨
ĠáĬ¨ áĪ¥
Ġáīłáĭ¨ áĭ°áĪ¨áĮĥáĭį
áĮįáĪ« áī¸áĭį
Ġáĭ¨áī° áĪĪáĪĺáĭ°
Ġáī£áĪĪ áīłáīµ
ĠáĬ¨áĬ¥ áĬĲáĭļáĪħ
ĠáīĢ áĭįáĪµ
Ġáī¥áĭĻ áĭİáī½
ĠáīĨ áĪŃ
ĠáĬ¦ áī£áĪĽ
ĠáĬ¥ áĪ³áīµ
áīłáĪ ®
ĠáīłáĪĺ áĬķáĮįáĪµáīµ
áīĢáĮ¥ áĪĪáĭį
Ġáĭ¨áĪ« áĪ³áī¸áĭįáĬķ
ĠáĪ°áĪ« áī°áĬŀáī½
ĠáĬ« áĪĭáī¸áĭį
áĪĪ áĬĽ
ĠáĬł áĭ°áĪ¨
ĠáĮ£ áĪįáīĥ
Ġáī° áĪ»
ĠáĪĺáĪįáĬ¥ áĬŃáīµ
Ġáĭ¨ áĭ°áĪĿ
Ġáĭ¨ áĮĭ
ĠáīłáĪĺ áĮ¨áĪ¨áĪ»
áīĭ áĬķáīĭ
ĠáĬłáĬķ áīº
ĠáĮ´áĮ¥ áĪ®áĪµ
Ġáĭ° áĪŀ
áįķáĪİáĪĽ áĪ²
áĬĲ áĬķ
ĠáĪĺáĭµáĪ¨ áĬ®áī½
Ġáī° áĮłáĪŃ
ĠáĪĪ áī³
ĠáĮĭáĭľ áĮłáĬĽ
Ġáī°áĪĺáĪį áĬ¨áīµ
ĠáĬ¨ áĭĵáĪĪáĪĿ
Ġáĭ« áĭĺ
Ġáĭį áĪµáĬķ
ĠáĮį áĪĽáĪ½
Ġáīµ áĪį
ĠáīłáīłáĬ© áĪī
ĠáįķáĪ¬ áĭĿáĭ³áĬķ
Ġáĭ¨áĪĺ áĮ¡
Ġáī° áĪĿ
ĠáĭµáĪĿ áĮ½
ĠáĬ¥áĭ«áĬķ áĭ³áĬķ
áĭĭáĭķ áīµ
Ġáīł áī£áĪĪ
áī£ áīłáĪ©áīµ
Ġáįį áĪĪáĮĭ
Ġáī°áĮłáĬĵ áĬŃáĪ®
Ġáĭ°áĬ« áĪĽ
áīł áĭĿ
ĠáĪĽ áĮįáĬĺ
ĠáĪķ áĭĿ
áįį áĪŃáĭµ
ĠáĬłáĪ° áįĭ
Ġáĭ¨áĬĥ áĭŃáĪį
Ġáī°áĬĲáĪµ áī¶
ĠáīĢ áĪĪáĪĿ
ĠáĬ¢áĬķ áī¨áĪµáīµ
ĠáĪĪ áĪģáĪĪáīµ
áīĢ áĬĳ
ĠáīĢ áĪµ
ĠáĭĪáĬķ áĮĢ
ĠáĪ½ áįĭáĬķ
áīµáĪĮ áī²áĬŃáĪµ
áī° áĪħ
ĠáįķáĪ®áįĮ áĪ°áĪŃ
áīłáĪĺ áĮ¨áĪ¨áĪ»
Ġáĭ« áĭĪáĮ£
Ġ w
ĠáĬłáĪ° áĮ£áĮ¥
Ġáĭ«áĭ°áĪŃ áĮĭáĪī
Ġáīł áįĢ
áīħ áĪį
áīł áĭļáĪģ
áī¤ áĬķ
Ġáĭ¨áī´ áĬŃáĬĸáĪİáĮĤ
Ġáĭ¨ áĮĪáī¡
ĠáĬł áī¤áī±
Ġáī° áĮĪ
ĠáĪĪ áīµ
áĬ³ áī¸áĭį
Ġáĭ¨ áĬĶ
áĪµ áĪĬ
áĭ¨ áĪį
ĠáĪĪáĪĺáīĢ áĬĲáĪµ
áĭŃ áĭŃáīµ
ĠáĬ¥áĬķáĭ° áĭļáĪħ
ĠáĪį áĮĦ
ĠáĪ³áĭŃ áīĢáĪŃ
ĠáīłáĪĺáī° áī£áīłáĪŃ
ĠáĪ¦ áĪµáī°áĬĽ
Ġáĭ¨ áĬ¨
áĭµ áĭĭ
ĠáĭŃ áĮ¨
áĪĥ áĭµáĪ¶
ĠáĬķ áīħáĬĵáīĦ
áĭĪáĪŃ áīħ
Ġáīłáĭĵ áĪĺáīµ
áĮĪáĪĪ áĮįáĪį
Ġáī°áĭĪ áĪµ
áĪĦ áĪ«áĭĬ
Ġáĭ¨áĬ¥ áĪµáĪ«áĬ¤áĪį
Ġáĭ¨áīłáĪĭáĭŃ áĬĲáīµ
ĠáĭµáĬķáĮĭ áĮĮ
Ġáĭ¨ áĬ¨áįĭ
áĮ£ áī¸áĭįáĬķ
Ġ1 00
ĠáĬłáĪ³ áĪ³áī¢
ĠáīłáĪĺ áĪĭáĭį
Ġáī£áĬķ áĬ®áī½
Ġáĭ¨áī° áĪĪ
áĬ© áīłáīµ
áĮłáĪ« áĭį
ĠáĭĽ áįį
áīĢ áĭįáĬķ
áĪ³ áī½áĪģ
áĮ¦ áīµ
áĬĵáĭį áĭ«áĬķ
Ġáĭ¨áĪĮ áĪĭáī¸áĭį
Ġáī°áĬ¨áī³ áī³áĭŃ
áĭĺ áĬĲáĮĭ
ĠáĪį áĬĵ
áīĭ áĪĻ
Ġáīł áĭµáĪŃ
áīł áĭļáĭ«
ĠáĬĲáĮĪ áĪ©
áĭ°áĪŃáĮī áīµ
Ġáĭ¨áĪĿáĬķ áī½áĪĪáĭį
áĭĪ áīģ
áįĭ áī¥áĪªáĬ«
áĪµáĪĽ áĪĽ
Ġáī¤áī°áĪ° áī¦áī½
ĠáĬĥáĭŃ áĪĪáĪĽáĪŃáĭ«áĪĿ
Ġáĭ¨ áĭ°áĬķ
áĪ³ áī½áĬķáĬķ
ĠáīłáĬłáĪ ĺ
áĭ°áĪ« áĮĢáīµ
Ġáī± áĪªáĭĿáĪĿ
ĠáĪµ áĪĭáĪĪ
áĪĺáĪĪáĬ¨ áī±áīµ
ĠáĬ¥áĬķáĭ³ áīµ
ĠáĭĿ áĭįáĭį
áĪĺáĪį áĬ¨
ĠáĬłáĪĺáĪįáĬŃ áī·áĪį
ĠáĪļ áĪĬ
Ġ p
áī¢ áĭ«áĭį
áįį áĪŃ
Ġáĭ² áĪŀáĬŃáĪ«áĪ²
Ġáĭ¨áĮİ áĪĭ
ĠáĬłáĭŃáĪĺáĪµ áĪĪáĬĿáĪĿ
áīłáĪ ħ
Ġ3 2
áĪµ áī¶áī½
ĠáĪ°áĮ¥ áī·áĪį
ĠáĪ°áĮ¥ áī°áĭĭáĪį
ĠáĮłáĪ ¨
ĠáĮĪ áĭ°áī¥
ĠáĭŃáĮĪáĪį áįĥ
Ġáĭ¨áĪļáī³ áĭ©
ĠáĪĺáĪĿáĪħ áĪ«áĬķ
Ġáĭ¨áĪ łáĪ
ĠáĪĺ áĪŀ
ĠáīłáĬ¥ áĬķ
Ġ6 0
ĠáĭŃ áįĪáĮ¥
áĬ© áĬĿ
Ġáĭ¨áĪĺ áĪ¨áĮĥ
áĬ® áĪį
ĠáĪĺáĪµ áĬ®áī½
ĠáĬłáīł áīł
ĠáĬłáĪĭ áīµ
Ġáĭ¨ áī¥áĪŃ
áĮĪ áĪī
áīĭ áĪļ
Ġáĭ¨áĬł áĬ«áĪį
áĪĪáī² áĬ¨
ĠáĪĺáĭµ áĪĥ
ĠáĮĪ áĭĿ
áĭ´ áĬķ
ĠáīłáĪļ áĪĪáĭį
áĭĭ áĬĵáĭį
áĬ® áīµ
ĠáĭĪ áĭµ
áĭĺ áĪĿ
ĠáĬłáĪĭ áĪµ
ĠáīłáĪķ áĮį
ĠáĪĬáīĢ áĪĺáĬķ
ĠáĪ°áĪĪ áĪŀáĬķ
ĠáĪĽáĪµáī³áĭĪ áīĤáĭ«
áĬł áĭİ
áĪĪáĪĽ áī½áĬķ
áĬŃáĪĪ áī¡
áĮłáĪ ªáĭ«
áĮłáĪ« áĪį
Ġáīµáĭķ áĭĽáĭĿ
áĪĪ áĪĻ
ĠáĪĬ áĬĸáĪŃ
Ġáĭ¨áĮł áīĨ
r e
Ġáĭ¨ áĬĳáĪ®
áĪ° áĪ¨
Ġáĭ¨áĪĺ áĮĪáĬĵáĬĽ
ĠáĮĪáĪįáĮ¸ áĭį
Ġáī£áĪĪáĪµ áĪįáĮ£
áīĥ áĪĪáĬķ
ĠáĪĪ áīĢ
Ġáīł áĬ¦áĪ®áĪļáĭ«
áī³áĭĪ áĪµ
ĠáĮį áĮ¥áĪĿ
ĠáĬłáĪĽáĬ« áĭŃáĬĲáīµ
ĠáĬłáĪī áī³áĭĬ
² áį
áĮ ³
Ġáĭ¨áī° áĭĺáĮĭáĮĢ
ĠáĭĪáī³áĭ° áĪ®áī½
ĠáĬłáĪĪáĪĺáĪĨáĬĳ áĬķ
Ġáī°áĪįáĭķ áĬ®
áĬ« áĬ¤áĪį
áĭİ áī»áī½áĬķ
áī£ áĪīáīµ
Ġáĭ¨áĬł áĬ«áī£áī¢áĭį
ĠáĬłáī¥ áĪ«áĪŃ
Ġáī£áĪį áī°
áĬ¨ áĪµ
áīĢ áĬĿ
áĬ¥ áĪ±áĪĿ
áĬ¤ áĪµ
ĠáīłáĪ ľ
Ġáĭ¨áĪļ áĪłáĪ©
ĠáĪµ áĪįáĬŃ
áĭĿ áĬķ
ĠáĬ¨áĪĽ áĭµáĪ¨áĮį
áĪ° áĭįáĬķ
Ġáĭĵ áĭŃáĬķ
áĪŃ áĪ±
áĪ« áī±
áīł áī±
áįģ áĪĿ
áĭ° áĭ°
áĭĪ áīµ
áĪ°áī£ áĪ°áī¥
áįĭ áįĭáīµ
ĠáĮįáĪĿ áĮĪáĪĽ
áī² áĬķ
ĠáĬłáīħ áĪ«áī¢
ĠáĬłáĮłáīĥ áīĢáĪĿ
áĪ¨ áĮł
áĪ° áĪĻ
ĠáĪĽ áĭį
ĠáīłáĪĺ áī³
áĮİ áĭ³
áī· áī¸áĭį
áī¾ áī½áĬķ
áĭ° áĮī
ĠáĬ¥áĬķáīħ áįĭáīµ
Ġáĭ° áĪµáī°áĬĽ
Ġáī¢ áĬĸáĪŃ
ĠáĪ³ áĪį
áĪĭáĪį áīħ
áĪµáī°áĬĵ áĮĪáĭµ
ĠáīłáīĢ áĬķ
áĮĢáĪŃ áĪĺáĬķ
ĠáĪĪáĪĻ áĪī
ĠáĬ¥ áĬ¤áĬł
áĪĺáĮ£ áĭį
ĠáĪķ áįĥ
áĮłáĪ© áīµ
ĠáĮĭáĭľ áĮłáĬŀáī½
áĪ³ áĪ³
áĬ¨áĪĭ áĭĬ
ĠáĪĺ áĮłáĭ¨áīħ
Ġáī°áĮłáīĥ áĪ½
áĪŀ áī¹
áīĢáĪĺ áĮ¡
áīł áĭĵáĪĪáĪĿ
ĠáĪĺáĬķáĮįáĪµ áī³áīµ
áĭĿ áĮĪáī£
Ġáīłáī° áĪ»áĪĪ
áĮłáĭ¨ áīģ
áįĭ áĪª
áĮ» áĬĵáīµ
áĬĵáĪ½ áĬĵáĪį
Ġ I
áĭ°áĪŃ áĮĭ
ĠáĪĿáĬķ áĮ®áī½
ĠáĪĺáīĢ áĬĲáĪµ
áĭĺ áĬĵ
áĬ¨áī° áĪŀáī½
ĠáīłáĭŃ áįĭ
Ġáĭ¨áĪ Ĭ
Ġáī° áĪ¨áĮĭáĮį
áĭ² áĬķ
áĬĸ áĪ©áīµ
áīĢáĪŃ áīłáĭį
áĪį áĬĵáĪį
ĠáĬ¨ áĬĲáīłáĪ¨áĭį
Ġáī° áįİáĬ«
ĠáĪĪ áĮİáĬķ
Ġáī½ áĪĪáĭĭáĪį
ĠáīłáĮ¥ áĬķ
ĠáĪĺáĭµáĬĥ áĬĴáīµ
ĠáĬ¥ áĭļáĭ«
Ġáĭ¨áī° áĪ¨
ĠáĭŃáīħáĪŃ áī³
Ġáĭ«áĪĪ áĬķ
Ġáĭ¨áĪļáĮĪáĬĻ áīµ
ĠáĬ¥áĪµáĪ« áĬ¤áĪĭáĭįáĭ«áĬķ
ĠáĬ¢ áĭ®
ĠáĬłáĮĪ áĪ«áī½áĬķ
ĠáĬ¨áĬł áĮĪáĪŃ
ĠáĮĪ áīłáĪ¬
ĠáĮīáĭ³ áĭ®áī½áĬķ
ĠáĪī áīĥáĪµ
áĭ« áĭ«
ĠáĪĺ áĮĢáĪĺ
Ġáĭ¨áĪļ áī£áĪī
áĭ« áĪĪ
ĠáĬ¨ áīłáĭ°
ĠáĪĪ áĪģáĪīáĪĿ
ĠáĬłáĪĿ áĪĭ
áĪĥ áĭĬ
áĮĪáĪ« áĪį
ĠáĪĽ áĪ½
áĬ¥ áĬĸ
áĮĪáĪĪ áĮįáĪī
ĠáĭŃ áĪłáĪ«
ĠáĭŃ áĪĺáĮ£áĪį
áĬ« áī¸áĭį
áĬłáĪ ĺ
áĮĪáĬĵ áĬĻ
ĠáĭŃ áįĪáĪį
Ġáĭ¨áĪļ áĭ°áĪŃáĪµ
áīĥ áĪ«áĬĴ
Ġáīģ áĮŃ
ĠáĬłáĭ° áī£áī£áĭŃ
Ġáĭ¨áĭį áĪµáĮ¥
ĠáīµáĪ«áĬķáĪµ áįĸáĪŃáīµ
ĠáĬłáĪµáī° áĭ³áĭ°
áĪĪáī½ áĭį
ĠáĭµáĬķ áīħ
áīł áĬŀáī½
áĮħ áĬĲáīµ
áīµáĬĵ áĬķáīµ
ĠáĭŃáĬĸáĪŃ áī¥áĬĵáĪį
áī£ áī±
áĭĪ áīµáĪŃ
ĠáĪĪáĪħ áĭĿáī¥
ĠáĬłáĪµ áĭ°
áĬŃ áī¸
Ġáĭ¨áĪļ áĬĸáĪŃ
áįķ áĪ«áĭŃ
ĠáĬ¥áĬķáĭ²áĭ« áĭ°áĪŃáĮī
áĪĽ áĪĮ
áįĪ áĬĵ
ĠáĪĿ áĪ½áīµ
áīłáĬł áĭ²áĪµ
áĪĪáīµ áĬķ
Ġáĭ¨áĬ¢áĬķ áī¨áĪµáīµáĪĺáĬķáīµ
ĠáĬ¥áĬĲáĪ± áĪĿ
áĬĲ áįį
Ġáĭ¨áī° áĭĭ
ĠáĪ² áī³
ĠáĬłáĪµáįĪáĪĭáĮĬ áĭįáĬķ
Ġ P
ĠáĪĺáĭĽ áĪĻáĪŃ
áĪĺ áĬĵáĭĬ
Ġáĭ¨áī° áĪ°áĪĽáĪ©
ĠáĪ³ áĪĻ
ĠáĪģáĪī áĬķ
ĠáĪĺáĪĢ áĪį
Ġáī ¼
Ġáĭ¨ áĭ«áĭĻ
ĠáĮĪáī¥ áī°áĭį
ĠáĬłáĬŃ áī¥áĪ®
ĠáĬ¨ áī£áĪĪ
ĠáĪµ áĪĪáĪĿ
áĪĥ áĪĪáĪģ
áĭĪáĮ£ áī¶áī½
ĠáĬ¥áĬķáĪµ áĪ³
áĭ³ áĭµáĪŃ
ĠáĭŃáĬĸ áĪ¨áĭĭáĪį
áīĢ áĬĲ
° áĪįáĮ£
áĪį áīĢáīµ
ĠáĪĺ áĭ³
ĠáĪĺ áĮ½áĪĲ
áĪĭ áīµáĬĵ
Ġáĭ¨áĪ° áĮłáĭį
áĮ«áĭĪ áī±
ĠáĪĪ áĪĢ
ĠáĬ¥áĬķáĭ° áĬĲáīłáĪ¨
áĮĪáĬĻ áīłáīµ
áĮĲ áī½
áĪ«áĪĿ áįķ
o m
Ġáī° áĬŃ
ĠáįįáĪĭ áĮĲ
Ġáĭ¨áī°áī£ áīłáĪ©áīµ
Ġáĭ¨áĬ¥áĪŃ áĪ»
áĬĲáĪ³ áĭį
ĠáĪĪ áĪ°áĭį
Ġáĭ« áĪĪáĪĿ
Ġáī£ áĪĭáī¸áĭį
áĮİ áī¥
áī¥áĪ¨áī°áĪ°áī¡ áĬķ
áĭ° áĪĪ
ĠáīłáĪ ¬
Ġáīħ áĭ±
ĠáĬ¨áĪĽ áĪµ
ĠáĪĺáĪ° áĪĭáī½áĪģ
ĠáįĮáĭ´ áĪ¬áĪ½áĬĳ
ĠáīłáĪĺ áĭ«áĭĿ
ĠáĪħ áĮĭáĭĬ
ĠáĮ¥ áīģáĪŃ
ĠáĬłáĮĪ áĪ«áī¸áĭį
áī· áī¸áĭĭáĪį
Ġáĭ¨ áī¥áĭĻ
áīł áīģ
Ġáī³ áĪĭáĪĭáīħ
Ġáī°áĪĺáĪįáĬŃ áī·áĪį
Ġáĭ¨áĪ° áĪĽ
áīĢáĪ¨ áīł
ĠáĪĺáĭį áĮ£áīµ
Ġáĭ¨ áĬ¦áĪ®áĪļáĭ«
ĠáĪĽ áī´áĭİáĪµ
ĠáĬłáī¥ áĭ±
áĭ¨ áī£
áĬ¥áĬķ áĭ´áīµ
ĠáĪĺáĬ® áĬķáĬķ
ĠáĬłáĭµáĪŃ áĮĪáĬķ
Ġáīĥ áĪĪ
ĠáĪĦ áĭ¶
ĠáĮĪáĮ½ áī³
áī³ áīµáĬķ
áįĪ áĮ¥áĪŃ
áī¦ áī³áĭį
Ġáīłáĭµ áĮĭáĪļ
ĠáĬĲáĮ¥ áī¦áī½
áĭ«áĭį áīħ
Ġáĭ¨áĬ® áĬķ
ĠáĪĴ áĭ°áīµ
Ġ3 4
áĮĪáĬĿ áĪĿ
ĠáĪµáĪŃ áĭĵ
áĭĵáĪĺ áī³áīµ
ĠáĬłáĭµáĪŃ áĮĮ
áĪµ áī¡
áĮį áĪµáīµ
ĠáĬ¨ áīĨ
Ġáĭ¨áĪļáī³ áĭ¨áĭį
ĠáĪħ áĪĺáĪĿ
ĠáĬłáĪµáī° áī£áī£áĪª
Ġáĭ¨áī°áĪ° áĬĺ
ĠáĬ¥áĬĲ áĪĨ
ĠáĬ¥áĬķáĭ°áĪĮ áĪĪ
áĪĺ áī±
Ġáĭ¨áī° áįĪáĮłáĪ¨
áīłáī° áĪĺáĪ³áĪ³áĭŃ
ĠáĪĺáĬķáĮį áĪµáī±
áīł áĬ¥áĬĲáĭļáĪħ
áĪĿáĪŃ áĮ«
áĭ«áĭĿ áĭ«
áĪ ĵ
ĠáĪĺ áĪĺáĪįáĬ¨áīµ
áī¥ áĬĵ
Ġáĭ¨áĪ ±
ĠáīłáĪĺ áĪĺ
Ġáĭ¨ áįĵáĪŃáī²
Ġáĭ¨áĬ¥ áĬķáĪµáĪ³áīµ
ĠáĭµáĬķ áīłáĪŃ
áī½ áĮįáĪŃ
ĠáīłáĪ »
ĠáĬłáĪ¨áĮĭáĮį áĮłáĭĭáĪį
ĠáĪĺ áĮĪáĬķáī£áīµ
áĪŀ áī±
Ġáĭ¨áĪļ áĬĸáĪ¨áĭį
Ġáĭ¨áī° áĬ¨
ĠáĪ² áĭ°áĪŃáĪµ
Ġáīłáī° áĭ°áĪ¨áĮĪáĭį
ĠáĬķ áĮ¹
áī¼ áĬķ
áĭ« áĭ«áĭĻ
Ġáī¢ áī£áĪį
ĠáĬ¥áĬĵ áī¶áī½
áī±áĬķ áĬĵ
áĬŃáĪį áĪİáī½
ĠáĪĺ áĭ³áĪ¨
ĠáĬ¥áĬķ áĪĺáĪįáĬ¨áīµ
áĮĨ áī»áī¸áĭį
ĠáĬłáĭĭ áĮģ
Ġáĭ¨ áĭĽáĪ¬
áīĢ áĪ©
ĠáĪĪ áĭĵáĪĪáĪĿ
Ġáĭ¨áĪļ áĭĪáĪµ
áĮ£ áĪ¬
ĠáĬŃáĪŃ áĬŃáĪŃ
áĬĲ áī·
áĭĵ áĪĭáĭĬ
áĮłáĬĵáīĢ áīģ
Ġáĭ« áĬķáĬķ
áĮĵ áĭµ
ĠáīłáīĢ áĪĪ
ĠáĮ« áĪĽ
ĠáĪĺ áīħáĪ¨
áĮī áī£áĬ¤
Ġáīłáī° áĪĪáĭ¨
áĮĪ áĪ¬
áĮłáĪ Ļ
ĠáĪĺáĪµ áĪİ
áĭ¬ áĭį
áĮłáĬķáīĢ áīĤáĭ«
Ġáĭ¨ áĮłáīĢ
ĠáĪµ áĮĭ
ĠáĪĺáĬ« áĬ¨áĪĪáĬĽ
áĬĲ áĬĽáĭį
áĪ° áĭİáī½
áĬĲáīµ áĪĿ
ĠáĬłáĭµáĪŃ áĮĲ
áĪ« áĪ«
ĠáĭŃ áĭĽ
ĠáĬ¥áĭ« áĭ°áĪ¨áĮī
áįİáī½ áĬķ
Ġáĭ¨áĪ°áī¥ áĭĵáĭĬ
áĬĵ áĭŃáīµ
Ġáīł áĭĿ
ĠáĭŃ áĪī
ĠáĪĪáĪĽ áĭµáĪ¨áĪµ
áĭķ áĪĪáī±
ĠáĪĽáĪµáī° áĪĽáĪŃ
Ġáīł áĮ¤áĬĵ
áįĪ áĪŃáīµ
ĠáĬłáĪį áīĢáĪ¨
ĠáĬ®áĪļáī´ áĭį
áĭ°áĬĵ áīĤ
Ġáīł áĬ¦
ĠáĬłáĪį áĮĭ
ĠáĪµáĪĪ áĪĽ
Ġ3 3
Ġ5 00
ĠáĪĪáĪķ áĭĿáī¥
ĠáĪĪáĬ¢ áĭľáĬł
áĬĿ áĬĵ
Ġáī£áĪĪ áĪĽ
áĮĪáĪĪ áĮį
Ġáīł áĮĬáĭľ
ĠáīłáĪ ī
áĬŃ áĪĿ
ĠáīłáĪķ áĮĪ
ĠáĭĪáĪ¨ áīĢáīµ
ĠáĪĪáĪĺ áĮįáī£áīµ
ĠáĬ® áĬ¨áī¥
ĠáĬĥáĮ¢ áĬłáīµ
Ġáĭ«áĪµáī½ áĪĭáĪį
ĠáĭŃ áĭĪáĪµ
ĠáĪĽ áī¥
áĪĭáįĬ áĬĲáīµ
Ġáĭ¨áīµ áĪ«áĬķáĪµáįĸáĪŃáīµ
áįĢ áĭį
áīĤ áĭİáī½
áīłáĪ¨áī³ áī³
áĭ«áĭį áīģ
Ġáī¥áĪŃ áī±
Ġáĭ¨áĪļáĭ«áĪµ áī½
Ġáĭ¨áīĨ áĭ¨
ĠáīłáĪ¨ áĬ¨áīµ
áĪ¨ áīĥ
ĠáĬłáĪĽáĬ« áĪª
ĠáĬ¥áĬķáĭ°áĪļ áī»áĪį
áĬ¨áīµ áĪį
Ġáĭ¨áī°áĪĺ áĪłáĪ¨áī°
áĭį áĪī
áįĭ áĭĬ
áĮłáĬĵáīĢ áīĢ
ĠáĬłáīħáĪŃ áīłáĭĭáĪį
áĭĿáĬĵ áĬĽ
Ġáĭ¨áĪļáĭ«áĭ°áĪŃáĮī áīµ
ĠáĪĺáĮįáī£ áī£áīµ
áĬĿ áīµ
áī³áī¸áĭį áĪĿ
ĠáĬ® áĬķáīµ
ĠáĬ¨áĬł áįįáĪªáĬ«
ĠáĪĭáĪĪ áįīáīµ
áĭķ áĪĪáīµ
ĠáĪį áĮģ
an d
ĠáĬ®áĪĮ áĮħ
e d
Ġáīł áĬ«
áĪµáī°áĭĭ áĭĪáīħ
Ġáĭ«áĭį áīĥáĪį
áī¸ áĭĭáĪĪáĪģ
ĠáĬłáĭŃ áĬĸáĪŃáĪĿ
ĠáĪĺáĪµ áĬ¨áĪ¨áĪĿ
ĠáĬ¨áĬ¥ áĪ±
ĠáĮ »
áĬ¥áĬĵ áĬķáī°
áįĪ áī±
áĪĻ áĭ«áĭį
ĠáĬ¨áĪĺ áĪĨáĬĳ
áĭ° áī¡áī¥
ĠáĪĽ áĪ»áĪ»áĭ«
áĮłáĪ ª
Ġáĭ¨áĪħ áī¥áĪ¨áī°áĪ°áī¥
ĠáĪĪáĪĽ áĮłáĬĵáĬ¨áĪŃ
ĠáĪĺáĮł áĮ¥
Ġáĭ¨áĪļáĭ« áĪ°
ĠáĪĨ áĬľ
ĠáĭĵáĪĺ áī³áĭĬ
áĮĪáī¢ áĭį
áĪĭ áĮĨáī½
ĠáĬłáĬķáĭ± áĬķ
in g
áī¡áĭµ áĬĳ
áĪģ áĭµ
ĠáĭŃáĮĪáī£ áĭĭáĪį
Ġáī´ áĭİ
Ġáĭ« áī¥áĪ«
ĠáĬłáĪŃ áī²
7 0
áĭ¨ áī³
áĪª áĬķ
áĬ¢áĬķ áĭ±áĪµáīµáĪª
áĪŃ áĭ³áīµ
ĠáĪĿ áĭµáī¥
Ġáī¥ áĪ«
ĠáĪĺáī¼ áĪĿ
ĠáĬŃáĪµáī° áīµ
áĭ¨ áĬłáĪĿáĪĭáĬŃ
áįĭ áĪī
ĠáĪģ áĪĮáĪĿ
ĠáĪĬ áĪĨáĬĳ
áĮĪáĬķ áĭĺ
ĠáĮįáĬķáī£ áī³áĭį
ĠáĬłáĪ¸ áĬķ
áī¥ áĪ©
áīłáĪ ķ
Ġáĭ¨áĭ«áĪħáĭĮ áĬķ
áĬĲáĪ± áīµ
Ġáĭ¨áĪį áĪĽ
ĠáĪµáī³áĭ² áĭ¨áĪĿ
áĬķ áĪ°
áī° áĮĪ
áĬ¥áĬĽ áĪĿ
áĪĿ áĪ³
Ġáĭ¨áĬł áĮĪáĪ«áī½áĬķ
ĠáĪ« áĭķ
áĬĲ áī°áĬĽ
Ġáī°áīĭ áīģ
ĠáĪĪáĬ¥ áĬĶ
Ġáī¶ áĬķ
áĪµ áĬ®
áĮĥ áī¸áĭįáĬķ
ĠáĪĺáĬķáĮĪ áĭ±
ĠáĬ¥áĪŃáĮį áĮłáĬĽ
áī° áĭįáĬķ
áĪ« áī½áĪģ
ĠáĭŃ áĪ¸
Ġáī³áĭį áīĥ
áĪĿáī¤ áĪĭ
áĪĺ áī¼
Ġáīł áįĸáĪĪáī²áĬ«
áīł áĬŃ
Ġáĭ¨áĪļ áĪĺáĮ¡
ĠáĬłáĭį áī¶
áĭĺáĪĺ áĬĵáīµ
áĮį áĪ¥
áĬł áĬŃ
áĭĺ áĬķáĭµáĪ®
Ġáī¥áĭĻ áĪĥáĬķ
ĠáīłáīħáĪŃ áī¥
ĠáĬ¥ áĭ¬
áīĢ áī±
Ġáĭ¨áĬł áī£
ĠáĮ¥áĬķ áĬ«áĪ¬
ĠáįĵáĪŃ áĪĭáĪĽ
ĠáĬ¨ áĪ°áĭį
áĪĺáĪĪ áĪ°
ĠáĬłáĪµáī° áĪĽáĪĽáĬĿ
Ġáĭ¨áĪļáĪ° áĪ©
áĮİ áĬĵ
ĠáĪĽáĭµáĪ¨ áĮī
Ġáĭ¨ áĮĬáĭľ
áĪĺ áĭ°
áĪ« áīħ
áĪĪáīµ áĪĿ
Ġáĭ¨áĪģ áĪĪáīµ
áĪĪ áī³
ĠáĭŃáįĪáĪį áĮĭáĪį
Ġáĭ¨ áĮĢáĪĺáĪ¨
ĠáĬ¨ áĪĥ
ĠáĪ« áĪ³áī¸áĭį
áīĢáĪ³ áīĢáĪµ
ĠáĪĺ áĮĪáĬĺ
áīł áĬłáĬķ
áĮ¸ áĬķ
ĠáĬ¥áĭ¨áī° áī£áĪĪ
ĠáĪĽáĪµáī° áĬ«
ĠáĬķáĮī áĪ¡
áĪį áīµ
áĮĪ áĬĽáĪį
ĠáĬ¤ áĪĮáĬŃáīµáĪªáĬŃ
Ġáĭ¨áĪµ áĬĲ
Ġáī¥ áĪ©
Ġáī£ áĪªáĭ«
ĠáĬłáĪĿáī£ áĪ³áĭ°áĪŃ
ĠáĬ¨ áĪģáĪīáĪĿ
ĠáĪ³ áĪĿáĬķ
ĠáĬłáĪµáįĪ áįĥáĪļ
Ġáĭ¨áĪ ľ
áĬĿ áī³
áĪ®áī½ áĬĵ
áįĮáĭ´ áĪª
Ġáīģ áĪ³áīģ
áĬĹ áĬĹ
Ġ200 9
ĠáĬłáĪŃ áī¥áī¶
ĠáĮĮ áī³áī¸áĭį
ĠáĭŃáĬĸáĪŃ áī£áī¸áĭĭáĪį
ĠáĬ¥áĭįáĬĲ áī³
ĠáĬłáĭ«áĭį áīħáĪĿ
Ġáĭ¨ áĮłáīłáīĢ
ĠáĬ¥áĬķáĭ°áĪĺ áĪĨáĬĳ
ĠáĬ¦ áĪ®
áĬ¨áī°áĪĽ áĭĭ
Ġáīłáĭ° áĪµáī³
Ġáĭ¨áī°áĭĪáĪ° áĬĳ
áĪĽ áĪħ
áĮ¥ áĪ¨áĭį
ĠáĭĺáĪĺ áĬĳ
Ġáįİ áī¶
áĪ¨ áĬĵáĪį
Ġáĭ³áĬķ áĬ¤áĪį
áĭ° áĬĲ
ĠáĭįáĭŃ áĭŃ
ĠáĬ«áįĴ áī³áĪį
ĠáĬ¥ áĪħáĪį
Ġáįį áĮ¹áĪĿ
ĠáĮ£áī¢áĭ« áĭİáī½
ĠáĬ¥áĬķáĮį áĪĬáĭĿ
Ġáĭ¨áī° áĬĲ
8 0
áĭ° áĪĭ
áĪ¨ áīł
Ġáī³ áĪĽ
Ġáī°áĮ«áĭĭ áī½
ĠáĬł áī»
ĠáĪĽ áĬĲáĪµ
ĠáĭĪáīħ áī³áĭĬ
áīĢáĪĺ áĮłáĭį
áĪ°áĪ« áĭį
Ġáĭ¨áįĢ áĪ¨
áĭĪáĭŃ áĭĺáĪ®
Ġáīł áīħáĭµ
áĮ£ áĮ£
ĠáĪĺáĪ° áĪ¨áī°
ĠáĪĺ áĪĺáĪĪáĪµ
Ġ a
ĠáīłáĪĺ áĪĿ
áĬ¢ áĪħáĬłáĭ´áĮį
ĠáĪķ áįĥáĬĵáīµ
ĠáĪĺáĮ¥ áī°áĭį
Ġáĭ¨áī° áĪ°áĪĽ
áĮłáīł áīĢáĭį
áĭĿáĪŃ áĭĿáĪŃ
Ġáĭ³ áĮįáĪĿ
Ġáĭ Ĭ
áīł áĬĲ
ĠáĬĥáĭŃ áĪĮ
áĪ¨áĮĭ áĮįáĮ¥
ĠáĮłáĪĭ áīµ
Ġáī£áĪĪáĪµ áĪįáĮ£áĬķ
áī° áĪĿ
Ġáĭµ áĬŃ
áĬ® áĪŃ
ĠáĮŃ áĪĽáĪª
áĬ¨áĪĪ áĬĽáĭį
ĠáĮīáī¥áĬĿ áīµ
áĬ¨áĬĵáĭĪ áĬĲáĭį
ĠáĪĺáīĢáĪĺ áĮ«
ĠáĪĪ áĬķ
áĪľ áīµ
áĪĲ áĪ´
áĪļáĭ« áĪµ
áĬĸáĪ© áĪĿ
ĠáĭŃáĮĪáĬĻ áīłáī³áĪį
Ġ t
Ġáĭ« áī°áĬ®
ĠáĬĲáīłáĪ¨ áī½
ĠáĭŃ áĮłáī¥
ĠáĬłáĪĿáĪ« áī½
ĠáĬłáĪĭáĭį áīħáĪĿ
Ġáĭ¨áī° áīĥ
ĠáĪĬáīĢáĪĺáĬķ áīłáĪŃ
áĭ¨ áĪ°
ĠáīłáĪĺ áĭįáĪ°áĭµ
Ġáīł áĭļáĭ«áĭį
Ġáī³ áīħ
Ġáĭ¨áĪķ áĭŃáĭĪáīµ
ĠáĪĽáĬħ áīłáĪ¨áĪ°áī¥
Ġáĭ¨áĪĽ áĭķ
áĪį áĬ©
áĪĺ áĪĭáĪĪ
áī´ áĪį
Ġáĭ¨áĪĿ áĪŃáīµ
ĠáĪĺáĪŃ áĪħ
áĮ¢ áĪŃ
Ġ E
ĠáĪĺ áĮĵ
ĠáĪĽ áĪĿáĮ£áīµ
ĠáīłáĭļáĪħ áĪĿ
ĠáīĢáĪŃ áī¦
áĪĿáĪ¨ áī»
ĠáĭĵáĭŃ áĬĲáī±
ĠáĪĪ áī£
áĬ« áįĪáĪį
ĠáĭĪ áĪ°áĬķ
áĮĵ áĭ³
ĠáĭĵáĭŃ áĬĲáī¶áī½
ĠáĪ ¼
áĭµ áĪµ
áĪ¨ áĭ±áīµ
áĭĽ áĪĿ
áĮłáĬĵ áĬ¨áĪ¨
ĠáĬłáĭ° áĮĪáĬĽ
Ġáīł áĮĭ
áĭ¨ áĪ°áĭį
áĬł áī¥áĭĽ
Ġáįį áĮ¥áĬĲáīµ
áī¥áĪ¨ áī±
áĭĿáĬĵ áī¥
áĭ³áĪį áĭ«
ĠáĭĪáĪį áĭ°
ĠáĪµáīµ áĪį
áįķáĪ®áĮĢ áĬŃáī±
Ġáĭ¨áī° áĮĪáĬĻ
Ġáĭ¨áĪķ áĬŃáĪĿáĬĵ
ĠáĪįáĪĽ áĭµ
Ġáĭķ áĮ£
ĠáĭĪáĮ£ áī±
áĭ° áĬĿáĬĲáīµ
ĠáīµáĬ© áĪ¨
áīĢ áĪ°
ĠáĪį áĭįáĭį
Ġáĭķ áĪŃáĭ³áī³
ĠáĬłáĪĭ áĪĽ
ĠáĬłáĮłáĬĵ áĬŃáĪ®
Ġáĭ¨áĪļ áĮłáĭŃ
ĠáĪĽ áĪĪáįį
ĠáĮį áī¦áī½
ĠáīłáĪĺ áĪĦáĭµ
Ġáįĸ áĪĪáī²áĬ¨
Ġáĭ¨áī» áĭŃáĬĵ
áĪ¨ áī¡
ĠáĬ¨ áįĪ
áĬ¥áĪµ áĬ«áĪģáĬķ
ĠáĬĲáįį áĪµ
ĠáĭŃáĮłáīģ áĪĽáĪī
ĠáĪĺáĪŃ áĪĥ
Ġáįįáīµ áĪĲáĭĬ
ĠáīłáĪĽ áĪ°áī¥
ĠáīłáĪģáĪĪ áī°áĬĽáĭį
ĠáĬĲáĮĭáĭ´ áĭİáī½
áĭİáī½áĬķ áĬĵ
ĠáĪģáĪĪ áī±áĪĿ
áĪī áīłáīµ
Ġáī¥áĪĭ áĪĪáī½
áĪĿáī£ áĪ²
áĭ° áĪĪáĭį
ĠáĪĿáĬķ áĮĬáĭľáĪĿ
Ġáīģ áĪĿ
ĠáĭŃáĬĲ áĮĪáĪ«áĪį
áĭŃ áĪµ
ĠáĬ¨ áĮĢáĪĺáĪ¨
Ġáĭ¨áĬ¥ áĬķáĮįáĪĬáĭĿ
ĠáĪµ áĪįáĮ£
ĠáĪĻ áĪ´
ĠáĪ½ áĭ«áĮŃ
Ġ19 9
ĠáĬ¥ áīĥ
áĪ« áĪĪáĬķ
ĠáĪĪ áįĬáīµ
ĠáĪĬ áī£áĪį
Ġáĭ¨áĪĭ áī¸áĭįáĪĿ
ĠáīłáĪħ áĮĪ
Ġáī£ áĭ°áĪ¨áĮĪáĭį
Ġáĭ² áĭĽ
áĮĪáĬĲáī£ áĭį
áĮĪ áįĭ
Ġáĭĺ áĮĪáī£áĭį
ĠáīĨ áĪ»áĪ»
Ġáĭ¨áĮįáĬķ áĭĽáī¤
ĠáĭŃáīĢáĮ¥ áĪĭáĪį
ĠáĬ¥áĬķ áĬŃáī¥
ĠáīłáĪĺ áĮįáĪĪáĮ½
Ġáįį áĮ»áĪľ
Ġáĭ«áĭ°áĪŃ áĮĪáĭĭáĪį
áĬł áī¸áĭį
áįĭ áĬŃáī¸
ĠáĪĪáĪĺ áī°
ĠáĪĺáīĢ áīłáĪį
áĪĪ áĪµ
áĭ¨ áĭ«áĪħáĭĮ
ĠáĬ¥áĬķáīħáĪµáīĥáĪ´ áĭİáī½
ĠáĭĪáĪµ áĭ¶
Ġáī« áĭŃ
Ġáī° áĪ°áī¥
áĮłáīĢáĪĻ áīłáīµ
Ġáĭ¨ áĭľ
áĪŃ áĭ±
ĠáĬ¨ áĪŀáīµ
ĠáĭŃ áĭĪáĮ£
ĠáĪķ áĮī
ĠáīłáĪ Ĥ
ĠáĪĪ áī¥áĭĻ
áĬ¨ áĬĲ
ĠáĪĺáī¥ áĪ«áīµ
Ġáī¥áĪĶáĪ¨áĪ°áī¦áī½ áĬĵ
ĠáĭŃ áĮĢáĪĿ
áĪĲ áĪµ
ĠáĪĺáĬĸ áĪ«áī¸áĭįáĬķ
ĠáĬłáĭ°áĪ¨áĮĥ áĮĢáīµ
áī¤ áĪį
Ġáĭ³ áĬĽ
Ġáīłáĭ¨ áĬł
ĠáĪĺ áĪĽáĪŃ
áĭĺ áĪ¨áĮĭ
ĠáĬłáĬķ áĭ°áĬĽáĭį
áĬŃ áĪ°
áĮ¥ áĪį
Ġáĭ« áĬĲ
áĮ£ áĬĶ
ĠáĪ¨ áīĤáīħ
áĪĺ áĬĿ
áīł áĬĽ
áīĢ áīłáĪī
ĠáīłáĬ¥ áĪ±
ĠáĬłáĬķ áĭ´
áĪ³áĭŃ áĭ«áĪµ
ĠáĪ° áī£
Ġáįį áīħ
áĮĪáĪĪ áĮ½
áĪĺáĪį áĬ«áĪĿ
ĠáīłáĪ ª
ĠáĬ¨áĪĺ áī¶
áĭĪáĪ° áĭ±
o u
áīł áĮ£áĪĿ
Ġáĭĺ áĭį
ĠáĬ¥áĭ¨áī° áĬ«áĪĦáĭ°
ĠáĪĪáĭĺ áĪĭáĪĪáĪĿ
Ġáīł áĮ¦áĪŃ
áĮĪáĪŃ áĪĿ
ĠáĪĪáĪĺ áĪ¨áĭ³áīµ
áī³áĭĪ áīĤáĭ«
ĠáĪ´ áī¶áī½áĬķ
áĭĪ áĬķáĭµ
Ġáĭ¨áī° áĭįáĮ£
Ġáįķ áĪĭ
ĠáįĵáĪŃ áĬŃ
ĠáĬłáĮĪáĪįáĮĭ áĭ®áī½
ĠáĬĲ áī£
Ġáī³ áĭĽ
ĠáĪļ áĭ«áĭĿáĭ«
áĮ ´
ĠáĪĪ áĪ¨áĮħáĪĿ
ĠáĮłáīħ áĪ°áĭį
áīĢ áĪĭ
áĬ® áĪļ
áī¥áĪŃ áī¥
ĠáĪµáĪ« áĭį
Ġáīłáīµ áĬ©áĪ¨áīµ
Ġáĭ¨áī° áĭĪáĪĪ
Ġ b
ĠáĭĺáĪĺ áĬĵáīµ
ĠáĭŃ áĭ°áĪŃ
ĠáĬŃáįį áīµ
ĠáīłáĪ° áĪĽáĭŃ
áįĪáĪĪ áĮĪáĭįáĬķ
ĠáĪĽáĭķ áĬ¨
ĠáĮįáĪį áįħ
ĠáĮ¥áĬĵ áī¶áī½
¥ áĪŃ
Ġáĭ¨áĪļ áĬ¨áī°
ĠáĪĪáĪĺ áĮłáīĢáĪĿ
ĠáĮŃ áĬķ
ĠáĪĿáĪµ áĬŃáĪŃ
áĪ¨ áĪ³
Ġáī¥ áīģ
ĠáīłáĬł áĬ«áī£áī¢
Ġáĭĺ áĭŃáīµ
ĠáĪ« áĬ¥áĭŃ
ĠáĭĪáĮ£ áī¶áī½áĬķ
ĠáįķáĪ¬áĭĿáĭ³áĬķ áīµ
ĠáīłáĪ Ĭ
ĠáĬ¥ áĭļáĭ«áĭį
ĠáĭŃ áīłáĪį
ĠáĪĮ áĪĬáīµ
áĭ¬ áĪĿ
áĬ¥áĪŃ áĪ³áī¸áĭį
áĪŃ áī°áĭį
Ġáī° áīĨáĮ¥
Ġáī¤ áī¶áī½áĬķ
ĠáĬ¨áĪļ áĮĪáĬĻ
ĠáĬłáĭµ áĪĽáĪµ
ĠáĪĪáĬ¥ áĬĽ
Ġ M
ĠáĬ¨ áĪĿáĬķ
Ġáī° áĬ«áĪĤ
ĠáĭŃáĬĸ áĪ«áĪī
1 00
Ġáīł áī¢
áĪ² áĪį
áĮĪáĬĵ áĬĺ
áĮįáĭ³ áĪ®
áĮħ áī°áĭį
Ġáĭĺ áĭŃ
ĠáĮįáī¥ áįħ
Ġáī°áĪĽáĪª áĭİáī½áĬķ
áīĢáĪ¨ áī¡
ĠáĪłáĪ ĭ
áĪ¨ áī¤
Ġáĭį áĪŃ
ĠáĪ² áĮĪáĪį
Ġáĭµ áĪħ
áĮłáīĢáĪĿ áīłáīµ
ĠáĬł áīłáĪ¨áī³áī½
Ġáīµ áī½áĪĭ
ĠáĮī áĪįáĪħ
ĠáĬª áĭ³áĬķ
Ġáĭ¨áī°áĪĺáĪ° áĪ¨áī°
ĠáīĢ áĮ£áĭŃ
ĠáĪĪáĪĺ áīħáĪ¨áįį
ĠáĬ® áĪĻ
ĠáĬłáĪłáĪ į
Ġáī° áĭĭáĬĵ
ĠáĬ¥áĬķáĭ² áĬĸáĪ¨áĭį
áĪİ áĪĿ
Ġáĭ¨áĪĿ áĪĪáĭį
Ġáī¥áī» áĭįáĬķ
Ġáĭ¨áĪĨáĬĳ áīµáĬķ
ĠáīłáĪĺ áĮĢáĪĺáĪªáĭ«áĭį
ĠáĬłáĬ« áĭ³áĪļ
Ġáĭ¨áĬ¥ áĪŃáĪµ
ĠáįĢ áĪĲáįĬ
ĠáĪĺáĭ³áĪ¨ áĪ»
áĪĿ áĪ«áĪį
áĮ» áįĪ
ĠáĬłáĭį áĪ«
ĠáīłáĪĺáĪµ áĪ«áīµ
áĬĵ áĮĢ
Ġáĭį áīłáīµ
Ġáĭ¨áī°áī£áĪĪ áĭįáĬķ
Ġáĭ¨áĪĽ áĪ³
áĭĭ áĪĪáī½
Ġáĭµ áĪħáĬĲáīµ
Ġáĭ¨áī¤ áī°áĪ°áī¥
ĠáīµáĬ¥ áĭĽáĭĿ
áĭ³ áī½áĬķ
áĮ¥ áĪ®
Ġáĭ¨áĪļ áĪĺáĪµ
ĠáĪĽ áĪ°
áĪĪáĪĺ áĭ°áĭį
áĭķáĪ« áī¥
ĠáĬ¨ áĬŃ
áĪ½ áĪĿ
ĠáĬ¢ áĬķáĪµáī²áīµ
ĠáĪħ áĭĿáī£áĭĬ
áĪįáĮ£ áĬĳ
áĭį áĭ°
Ġáĭ¨ áīħáĪŃáī¥
ĠáĬ¨ áĮĪ
ĠáĬ¨ áīł
ĠáĬ¨ áĭ¨áīµ
ĠáĬ¨ áĪĢ
ĠáīłáĬ¥ áĬĽ
ĠáĪĺ áĬĸáĪ©
ĠáīłáĪĺ áĬĲáĪ³áīµ
ĠáīĢ áĬĿ
áĮ¨ áĪĺáĪŃ
áĮĪáĬĽ áĪĪáĬķ
ĠáĬĲ áĮŃ
áĭ¨ áĭĵáĪĪáĪĿ
ĠáīłáĬ¢ áĬ®áĬĸáĪļ
ĠáĬ¥áĬķáĬŃáī¥ áĬ«áī¤
ĠáĪħ áī¥áĪ¨áī°áĪ°áī¥
ĠáĪĺáĪĨáĬĹ áĬķ
ĠáĬł áĭ²
ĠáĬł áī¡
Ġáī¢ áĪĨáĬĳ
áĪĪáĬł áī¥áĬĲáīµ
Ġáĭ¨áī° áĭ«áĭ«áĭĺ
áĮ§ áī¸áĭį
ĠáĬł áĬ¥áĪĿáĪ®
Ġáĭ¨áĪļ áĪłáĪ«
Ġáĭķáĭį áīĢáīµ
Ġáĭ¨ áīµáĪĿ
ĠáĮ ®
ĠáĬłáĪ° áĪ«
ĠáĬłáĮł áĮĪáī¥
Ġáĭ¨ áī¡áĬĵ
áīĥ áīħ
Ġ3 7
áĬ Ģ
áīł áĭĻ
ĠáīłáĬłáĪ Ń
ĠáĬłáĭ« áĭ«áĭĿ
ĠáĪµáĪĪáĪĺ áĪĨáĬĳ
áĪĺ áī½
áĬŀ áī¹áĬķ
Ġáĭ¨áĬ¥ áĬķ
áĪ¥áĪ« áīħ
áĭ² áĪģ
ĠáĪ° áīłáī¥
ĠáĪĬ áī³
áĪ¶ áĪµáīµ
ĠáĬ®áĪļ áĪ½
ĠáĭŃáĭĺ áīµ
ĠáĬ¥áĭ¨ áĪ°
ĠáĭŃáįĪáĮ¥ áĪ«áĪį
áĮĪ áī±
áĭ³ áĭĬ
ĠáĭĪ áĭ²áĭ«
Ġáĭ¨áī° áĪ¸
áĪ® áī¹áĬķ
ĠáĬłáĪĿ áĬĵ
ĠáĪĺáĪ° áĬĵ
áīłáĪ½ áī³áĭį
ĠáįįáĪįáĪµ áįįáĬĵ
Ġ f
áĭ° áĪ®áī½
Ġáĭ¨áī° áĬķ
Ġáīłáĭ° áĪį
ĠáĪĪáĪĺ áĮłáīłáīħ
ĠáĮĬáĭľ áĭį
ĠáĪĺáĪĪ áĪ°
ĠáĪ°áĪŃ áīª
ĠáĪ¥ áĮĭáīµ
áĪ¨ áĬŀáī½
áĪ« áī¶áĬķ
áĪĭ áīµáĪĿ
áĬĴ áĪµáīµ
ĠáĮłáīģ áĪĺáĭį
Ġáĭ¨áīĢáĭµáĪŀ áĭį
ĠáīłáĬ¥ áĬĶ
áī£áĭŃ áĪį
Ġáĭ¨áīĨ áĭ¨áĭį
áįĭáĬŃáī¸ áĪªáĬķáĮį
ĠáĬł áĮ¥áī¥
áĪ« áĬĵ
ĠáĬłáĪ ®
ĠáĪĿ áĮį
ĠáĬ¥áĬķáĭ°áĪļ áĮĪáĬĻ
áĭŃáĪĦ áĬķ
áĪ¸áĮĭ áĮĪáĪŃ
áĪłáĪ į
l e
Ġáī¥ áī³
ĠáĪ¥ áĪĭáĪ´
áī½áĬĭ áĪĪáĪģ
áĭ³ áĭŃ
áĭĪáĪ° áĭ°
ĠáĬłáĬķáĭ³áĬķ áĭ¶áī¹
Ġáīłáī° áĪ°
Ġáĭ´ áĬ¤
ĠáĪĽáĭµáĪ¨ áĮĭ
ĠáĪĺáĭĭ áīħáĪŃ
áĪµ áīĢáĪ³
áī° áĬŀáī¹
ĠáĬ¨áĪĺ áĬķáĮįáĪ¥áīµ
ĠáĪµáĪ« áĭİáī½áĬķ
Ġáĭ¨áĮĪ áĮłáĪŃ
ĠáĮ¤áĬĵ áĪĽ
áĪĪ áĭ°
áĭŃ áĭĻ
Ġáī³ áĭ°áĪ°
Ġáĭ¨áĪĢ áĮĪáĪŃ
áįĲ áĪŃ
áīłáĪģ áĪĪ
ĠáīłáĪ´ áī¶áī½
Ġáī° áĬĲáĮį
ĠáĬłáĭŃ áī½áĪīáĪĿ
ĠáĬł áĮŃáĪŃ
Ġáī° áĮĪáĬķáĭĿ
áĪ³ áī½
ĠáįĪ áĪĪ
áī³áĭĪ áīģáīµ
áīµ áĪĺáīµ
áĭįáĬķ áīµ
áĪĭáĪĪ áįī
Ġáĭ©áĬĴáī¨áĪŃáĪ²áī² áĭİáī½
áĪĿáĬĵáĪį áī£áīµ
ĠáīħáĪŃáĬķáĮ« áįį
áĬķ áĭ°áĪŃ
áį ĳ
ĠáĪĽ áĭŃ
Ġáĭ° áĪħáĬĵ
Ġáĭ¨áĭį áĬĥ
Ġáĭľ áĪĽ
áĭ¨áĪļ áĪį
áīĢ áĪ¨áīµ
áĪµáĪĪáĭļáĪħ áĪĿ
áīłáĪ¨áī³ áī»
áĮį áĪ©
áĪ° áĮ£
ĠáīłáĪ° áĮłáĭį
áīłáĬł áĮĪáĪªáī±
ĠáĪ°áĮ¥ áī°áĭį
ĠáĪĺ áĪ¥áĪ«
ĠáīłáĪļ áĭ°áĪ¨áĮĪáĭį
Ġáĭ¨áĪ° áĮ¡áīµ
ĠáĪĿáĪµ áĮĭáĬĵ
ĠáĬłáįĪ áįĥáįĢ
áįĭ áī¸áĭįáĬķ
áįĬ áī±
áĭ¨áĬł áįįáĪªáĬ«
Ġáįī áĬŃáĬŃáĪŃ
ĠáĬ¨ áĬķáī²
áĭ³ áĭµ
áĪļ áĬķáī¶
áĮ¸ áĭį
ĠáĪĨáĬĲ áĬķ
ĠáĮīáĭµ áĪĪáīµ
Ġáī°áĭĪáĬ« áĭŃ
Ġáįĭáī¥áĪªáĬ« áĭİáī½
Ġáīł áĮĪáĬķáĭĺáī¥
áĪ° áĬĵáĪį
áĮĪáĪ« áĪļ
áĪĺáĭĺ áĮĪáīłáĭį
ĠáĮ« áįį
ĠáĬłáĪ³áĪµ áīłáĭĭáĪį
ĠáĭŃáĪ» áĪĭáĪį
Ġáī´áĭİ áĭµáĪ®áĪµ
áĪĪ áī°
ĠáĪĪ áĮĪáīłáĭ«
ĠáĪĪáĪĽ áĬ¨áĬĵáĭĪáĬķ
ĠáĬłáĮĭ áĪŃ
áĪĭ áĪĪáĬķ
áĬĴ áĭį
ĠáĪ³ áĬķáī²
áĪ¶ áĬķ
áĪĺáĪ¨ áĮ¡
Ġáīł áĭĻ
Ġáĭ¨ áī³áĭĪáīĢ
ĠáĮ ©
Ġáī° áĮįáĭ³áĪ®
áĬ© áĪµ
Ġáįįáīµ áĪķ
ĠáĪĪ áĬĲ
áĬ¨ áĪĽ
Ġáĭ¨áĪļ áī»áĪĪáĭį
ĠáĪĽ áī´
Ġáī£ áĪĭ
ĠáĪļ áĪµ
ĠáĬĥáĭŃ áĪī
ĠáĬ¥ áīħ
áīł áĭĺ
ĠáĪĪ áĬłáĪĿáĪĭáĬŃ
ĠáĪ² áĮĪáī£
ĠáĮ¥ áīĤ
ĠáĮī áĪį
áĪĢ áĪį
ĠáĬĲáīłáĪ¨ áĭį
áĪį áĭ«
áĪ° áīłáĭį
Ġáĭ« áĮĪáĬĻ
áĬ® áī½áĬķ
áī½áĪģ áīµ
ĠáĪĺáīĨ áĭ¨
áĪļáĬĴ áĪµáīµ
áĪĭáĪļ áĬŃ
Ġáĭ¨áī° áĮĭ
ĠáĬłáĪµ áĭ°áĬĵáīĤ
ĠáĬ« áĪīáīµ
áĬ¥áĪµ áī²
ĠáĮłáī¥ áīĨ
ĠáĬ¥ áĪ´áīµ
áĪ« áĪ¨áī¥
ĠáĬ® áĪªáĭ«
ĠáĬ¦ áĪİáĪĿáįĴáĬŃ
ĠáĬ¥áĪµáĪ« áĬ¤áĪį
Ġáĭ¨áĭĪáĬķ áĮĢáĪį
áĪ« áĪ¹
áī¤ áī°áĪ°
Ġáī°áĪĺ áĭĿáĮį
Ġáīłáįį áīħáĪŃ
ĠáĪĪ áīħ
áĪª áī³
áĬĶ áĬķ
Ġáīłáī° áįĪáĮ¥áĪ®
áĪĦ áĭ°
Ġáĭ¨áī£ áī¡áĪŃ
ĠáĬ¨ áįĭ
áĭĪ áĭ³áĭ°áĪŃ
ĠáįĢ áĪĲáĭŃ
ĠáĪ¸ áĭĭ
ĠáĪĺ áīĨáĮ£áĮłáĪŃ
áī² áĭ«
ĠáĬ¥áĬĵ áĭį
áĮĪáĪį áĮĭ
áĬĶ áĪ«áĪį
ĠáīłáĬ¥ áĪŃáĪµ
ĠáīłáĪį áĭ©
h e
Ġáĭ¨áĪ »
ĠáĬ¨áĭĪ áĭ²áĪģ
ĠáīłáĪ½áī³ áĭİáī½
ĠáĬ¥áĬķáĭ² áī³
Ġáī°áīĢ áī¥áĪİ
ĠáĪĽáĬħ áīłáĪ«áĭĬ
2 4
ĠáĪĽ áĭµ
áĭĺ áĮį
ĠáĬłáĭŃ áĪģ
ĠáĬ« áĬķáĪ°áĪŃ
ĠáĪķ áĭĿáī¡áĬķ
ĠáĪĮáĪİáī½ áĬķ
ĠáĭĪáĬķ áīłáĪŃ
Ġáĭ¨áīĢáĪ¨ áīłáĭį
áĭ«áĭ« áĭ¥
ĠáĮį áĭ¥
Ġáī³ áĬŃáĪ²
ĠáĪķ áĪĺáĪĿ
Ġáĭķ áĮ©
áĬ¨áįĭ áįĪáĪį
áĬ¨ áįĪáĪį
áįĪ áĪµ
Ġáĭ¨áĪĿ áĬŃáĪŃ
áī½ áĪİ
ĠáĪĺ áĬª
áĭİ áī»áī¸áĭįáĬķ
ĠáĬ¨áĬ¥ áĬĶ
ĠáīłáĪģ áĭĭáĪĭ
Ġáīł áĭĿáĪŃáĭĿáĪŃ
ĠáĪĪ áĮį
ĠáīłáĪĺ áĮ½áĪĲáįį
ĠáįĪ áĪ¨áĬķ
ĠáĬłáĪµáī° áĬĵ
áĭİáī¹ áĪĿ
Ġáī°áīĢ áĬĵ
áĭ³áĭ³ áĪªáĭİáī½
Ġáĭ¨áĬª áĪ«áĭŃ
áĭŃ áĭŃáī±
áĮ¸ áī£áĪ¨
áĮĪáĬĿ áīłáīµ
ĠáĬ¥áĭ¨áī³ áĭ¨
áĪª áĪµáīµ
áĮįáī£ áī£áīµ
áīłáĪĭ áī¸áĭį
Ġáĭ¨áĭĪáĮ£ áĭį
ĠáĭĪ áĮį
ĠáĬłáĪµ áĪ«
Ġáĭ¨áĬłáĪ ¨
ĠáĪĪáĪĽáĪ³ áĭ¨áīµ
ĠáĪī áĭĵáĪĭáĭĬ
Ġáĭķáīĥ áĭİáī½
áįĮáĭ° áĪ«áĪį
ĠáĪĺ áįįáī³áīµ
ĠáĪģ áĪĭáī½áĬķáĪĿ
ĠáĪĪáĪĽ áĪ»áĪ»áĪį
áĭ´ áĪį
Ġáĭ¨áĬ¢ áĭ¨áĪ±áĪµ
Ġáĭ³áĭŃáĪ¬ áĬŃáī°áĪ©
ĠáīģáĪŃ áĮłáĬĿáĬĲáīµ
áīłáĪ Ģ
Ġáĭ¨áĪĺ áįįáīµ
ĠáĬłáī¥áĭĽ áĬĽáĭį
ĠáĬ¥ áĪĺ
áĬŃ áįĪáĪį
ĠáĭŃ áĪµ
áįĪ áĪĭáĮĬ
Ġáī¤ áī³áī¸áĭį
ĠáĬ¥áĪµ áĬ«
ĠáĬłáĮĪáĪįáĮįáĪİ áī¶áī½
ĠáĬłáĮĪáĪįáĮįáĪİ áī±áĬķ
ĠáĬ¨ áĪĺáĬķ
ĠáĬ¥áĬķáĭ°áĪļ áĬĸáĪŃ
áĮ» áįĪáĭį
áĮĪ áĪ«áīµ
áĭ° áīĢ
áĭ± áĪĿ
ĠáĬłáĬķ áīłáĪ³
áĭĺáĪŃ áĮĭáīµ
ĠáĬ¥áĬķáĭ°áĪļáĭ« áĪ³
ĠáĪ°áĭŃ áĮ£áĬķ
áĬķ áī³áĭĬ
Ġáĭ¨áī° áĪĭ
Ġáĭ¨áī° áĪŀáĪĭ
áĮŃ áīłáĪŃ
áĬŃáĪį áĬĵ
áĪ© áĬĵ
áĭ±áĪµáīµ áĪªáĭİáī½
ĠáīłáĪŀ áīµ
Ġáī Ħ
Ġáĭ¨ áĭľáĮİáī½
áĬĲ áī´
áĪĺáĮ£ áĪĿ
Ġáĭį áī¥
ĠáĪĽáĪµ áĮłáĬķáīĢáīĤáĭ«
áĬłáĬķ áĭ°áĬĽáĭį
Ġáĭ¨áĪ« áĪµ
ĠáĮĢáĪŃ áī£
ĠáĮ¢ áĪŀ
Ġáĭ«áĪĪáĪĿ áĬķáĪĿ
áĪĪ áįī
áĪĬ áĭµ
Ġáī°áĮ¨áĭĭ áī¾áī½
ĠáĪĺáĪĿáĮ£ áī±áĬķ
áĪµ áĪĭáĪļáĬŃ
áĪ« áĪĪáī½
áĪ¯ áĬķ
ĠáĬ¢áĬķáī°áĪŃ áĬĵáĪ½áĬĵáĪį
áĪ¨ áĬ¨
áĪ« áī¢áĭ«
ĠáĬŃ áĪĬ
áįĪáī° áĪ½
ĠáĬłáĭ°áĪ¨áĮĥ áĮĢ
Ġáĭ³ áĮį
Ġáī° áĪĭ
ĠáĪĢ áĪ³
5 00
Ġáĭ¨áĪļ áī»áĪį
áįĪáĮ¸ áĪĺáĭį
áĮĪáĬĽ áĪĪáī½
ĠáĬłáĮĪáĪª áī±áĬķ
áīĥáĭĪ áĪĿ
áĪµáīµ áĪ«
áĬ¦áĪ® áĪŀ
Ġáĭķáĭį áīħáĬĵ
ĠáĮłáĭŃ áīĢáĭĭáĪį
ĠáĭŃáĪģ áĬķáĬĵ
ĠáīłáĪĺ áĮįáī£áīµ
áĪ½ áĬĲáīµ
áī± áĬķáĪĿ
Ġáĭ¨áī´ áĬŃáĬĴáĬŃ
ĠáĪĪ áĭ¨áīµ
ĠáĪĪáĪĺ áĬĸáĪŃ
ĠáĪ½ áĪįáĪĽ
ĠáĪĪ áĪªáįĸáĪŃáī°áĪŃ
áĮ¥ áĭ«áīĦ
áĪ³ áĪ«
ĠáīłáĪĺ áĪįáĬ«áĪĿ
áĮħ áī¶
ĠáĭĪáĭ° áī°
Ġáĭ¨áĬĲ áįĥ
áĬ¨áī³ áī³áĭŃ
ĠáĪĽáĪĺáĬķ áĮ«
Ġáĭ¨ áĮŃ
áĮĭ áĭ¬
ĠáĪŃ áī¥áĪŃáī¥
ĠáĬ¥áĬķáĭ²áĭ«áĭį áĪĿ
Ġáīł áĭĽáĪ¬áĭį
áĬĳ áįĭáĬŃáī¸áĪªáĬķáĮį
áĮİ áĪįáīłáīµ
Ġáī°áįİáĬ« áĬ«áĪª
áĪ°áĪĽ áĪ«áīµ
áī¥ áĬķáĪĿ
áīł áīĢáĮ£
Ġáī°áĪ° áĪĿ
áĮ« áīµ
ĠáĪĺáĮ½ áĪĶ
ĠáĬ¨ áĬłáĪĿáĪĭáĬŃ
áīº áĬķ
áĬĲáĪŃ áĪ±
áĭĪ áĪŃáĭµ
Ġáī¢ áĪ«
ĠáĬłáĬķáĭ³áĬķ áĭ´
ĠáĬłáī¥áĪ«áĪŃ áī°áĭĭáĪį
áĮł áī½
ĠáĪ« áĪµáĬķ
áĬ¥áĬĲáĪ± áĪĿ
ĠáĪĺ áīģ
áīµ áĪ®
ĠáĪĪáĪĺ áĭµáĪ¨áĪµ
Ġ m
ĠáĭĪáĭ° áĬĭáĪĭ
Ġáī³ áĬŃáĪµ
ĠáĪ¨ áĭµ
Ġ4 5
ĠáĬ¥áĬķáĭ³áĪį áī°
ĠáĮį áī¥áĪ¨
Ġ7 0
ĠáĭĪáĭ²áĭ«áĭį áĬĳ
Ġáĭ¨ áĭ±
ĠáĮī áĪįáīłáīµ
Ġáī½ áĪİáīµ
ĠáĬĵ áĭŃ
Ġáĭ³ áī¦
áīłáī° áĪĪáĭ«áĭ©
Ġáĭ¨ áĭĺáĪŃáįī
áī³ áĭ°áĪŃ
áĭ® áĪĲáĬķáĪµ
ĠáĮ¨áĪŃ áĪ¶
Ġáĭ¨áĪĽ áĬħ
Ġáįķ áĪªáĪļáĭ¨áĪŃ
Ġáī£áĪĪáĪĺ áĪĨáĬĳ
áĭĪáĪĪ áĭµ
ĠáĮĬáĭľ áĭ«áĭĬ
ĠáĬ¥ áĪ³
áĪ¶ áī¹
Ġáī£áĪĪáĪ¥áĪįáĮ£ áĬĵáīµ
áĬĲ áī¶áī½áĬķ
áĭ°áĪ¨ áĪ±
áĮİ áīł
áī¥ áĪ°áī£
ĠáīłáĪ ®
áĬ¨ áī¥áĪŃ
Ġáĭ« áīĢ
áĪ¬ áĪµ
áĬĵáī¸áĭį áĪĿ
áĬ ½
áĭµáĪ¨ áĬ©
ĠáĪĽáĪµ áĬ¨áīłáĪŃ
ĠáĬ §áĪ¨
ĠáĬ¥ áĪº
ĠáĬ¨ áĭĺ
áįĪ áīĢáĭ°
ĠáĬ¤ áĪŃáīµáĪ«
ĠáĬ®áĪŃáįĸ áĪ¬áĪ½áĬķ
Ġáī° áĪ¾
áĭ¨ áĬ¤
Ġáī£ áĭ¶
áĭ°áĪ« áĮģ
áĪĳ áįį
ĠáĬ¥áĬķáĭ² áĪ°áĮ¥
ĠáīĢ áĪª
ĠáĪµáĪĪ áĪĮ
ĠáĬ¨áĬ¥ áĬĲáĪ±
áī° áĪ«
áĬĿ áĪĽ
Ġáīµ áĪ«áĪĿáįķ
ĠáĮĭ áī¥áī»
ĠáĬłáĭį áĪ®áįķáĪĭáĬķ
áĬŃ áĪĪáĭį
áĭ³ áĭ©
ĠáĬ¥áĬķáĭ° áĮĪáĪĪ
áĭİ áīµ
ĠáįĪ áĮĪáĮį
ĠáĬłáĪµáī° áĪĽáĪª
áĭĪáĮ£ áī±
ĠáĬłáĪ¨ áĮĭ
ĠáĬłáĪħ áĮī
áĪĺ áĪĭ
áĮ¡ áĪĿ
ĠáīłáĬłáĪ į
ĠáĪĺáĪ¥ áĭĭáĭķáīµ
Ġáĭ¨ áĭĺáĪŃ
Ġáĭ¨áĪļ áĮłáĭŃáīħ
ĠáĪĪáĪĺ áīĨáĮ£áĮłáĪŃ
ĠáĬłáĬķ áĮĪ
ĠáĪĽáĬķ áĬĽáĭįáĬķáĪĿ
ĠáĬ¥áĬķáĭ°áĪļáĭ« áĭ°áĪŃáĮį
áįĲáī¥ áĪĬáĬŃ
Ġáīł áĭ²
ĠáīĢ áĮłáĪĪ
Ġáĭ¨áĬł áĭį
ĠáĬ¥ áĮ¥áįį
áĬŃ áĬķ
ĠáĭŃ áĭŁáĪį
Ġáĭĺ áįį
ĠáĪĬ áĮī
ĠáīłáĪ ¦áĪµáīµ
áĭĪ áīĢ
áĬłáĪ ľáĪªáĬ«
ĠáĪĿáĪ¥áĪ« áīħ
áĭ³ áĮį
Ġáī³ áĪ³áī¢
ĠáĪģáĬĶáī³ áĭİáī½áĬķ
Ġáĭ¨áĬĲáīłáĪ© áīµáĬķ
ĠáĪĺáĭµáĬĥ áĬĴ
áĪĪ áĪĭ
áī³ áĪĪáĪģ
áĪ¥ áĪŃ
áĮ» áįį
áĭĳ áĭ²
Ġáī¥áī¸ áĬĽ
Ġáĭ« áīĢáĪŃ
áĬłáĪ µáī°
Ġáī° áīĨáĮ£
Ġáĭ¨áĪļáĭ« áĬķ
áĬ« áįĪ
ĠáĪ° áĪľáĬķ
áĭĭáĪŃ áĭ«áĭį
ĠáĪ² áĪīáĪĿ
Ġáĭ¨áĪĨáĬĲ áī½áĭį
ĠáĪĿáĬĵáĪį áī£áīµ
áĭŃ áĮ£áĬķ
ĠáĬ¥áĬķáĭ° áĬĲáīłáĪ©
áįĭ áīµáĬĵ
ĠáĪĪáĪĺ áĪ¸
ĠáīłáĪĽáĪ³ áĭ°áĮį
Ġáĭ¨áī° áĬĵáĮĪáĪ¨áĭį
áĬ¨áī° áĪĪ
ĠáĮįáī¥ áĭĵáīµ
ĠáīłáĪķ áĭĿáī¥
áĭĭáĭķ áīµáĬĲáīµ
Ġáī¥áĪŃáĪĥ áĬĳ
ĠáĬłáĪµ áĬ¨áįĬ
áĭį áĬĲáīµ
áĭ° áĭ±
Ġáī£ áī¡áĪŃ
ĠáĬłáĮĪ áĭĽáĭĿ
ĠáĬ¨ áĭ«áĪħáĭĮ
áĮĢáĪĺ áĪ©áīµ
ĠáĬ¢áĬķáī°áĪŃ áįķáĪ«áĭŃ
Ġáī° áĭ«áĭ«áĭ¥
Ġáĭ¨áī° áĪŁáĪĭ
ĠáīĢ áĮłáĪ®
ĠáĬ¥ áĮģáĬķ
ĠáĬł áįĪáĪŃ
ĠáĬ¨ áĬ¤
áĮ¥ áīĤáīµ
áĪ°áĪĽ áĭŃ
Ġáĭ¨áĪļ áĪµáī°áĭĭ
Ġáĭ¨áĪļ áĭ°áĪŃáĪ±
áī¡ áĪĿ
Ġáįį áĪį
ĠáĪĽáĬħ áīłáĪ«áīµ
ĠáĪµáĪĭ áĪĪáĭį
ĠáīµáĪį áĪįáīħ
Ġáī°áĮįáī£ áĪ«áīµáĬķ
áĬĵáĭŃáīµ áĭµ
Ġáĭ¨áĪļ áĪ°áĪĽ
ĠáĬ¢ áĪķáĬłáĭ´áĮį
Ġáĭ¨áī°áĭįáĮ£ áĮ¡
ĠáĬłáĪµ áĮĪáĬķáĭĿ
ĠáĪį áĭĳ
Ġáĭ¨áĪļ áįĪáĮ¥
ĠáĬłáīĭ áĪŃ
ĠáĪĺáī³ áĭ¨áīµ
ĠáĬłáĪįáīĢáĪ¨ áĪĿ
ĠáīłáĪ ²
áĭ¨ áĭĪ
Ġáĭ¨áĪĺ áĭµ
ĠáĪĻ áĭļ
ĠáĪķáĮĪ áĭĪáĮ¥
Ġáĭ¨ áĭµáĬķ
áĭĭ áĮģ
ĠáĬŃáĪį áĪĭáĭĬ
ĠáĬ¢áĭ¨áĪ±áĪµ áĬķ
áī¤ áī°
Ġáī£áĪĪ áĪĥáī¥
ĠáĪĦ áĭ°áĭį
áĬĸáĪ¨áĭį áĪĿ
áĮĭ áįĭ
Ġáīµ áĭ³áĪŃ
ĠáĮ¨ áĪ¨áī³
áīłáĪĪ áĭį
ĠáīłáĪģ áĪĪáī±
áĪģáĪĪ áī±áĪĿ
Ġáĭ¨áī°áī£ áĪīáīµ
ĠáĪĢ áĭŃ
ĠáĪĺáĪĺáĪŃ áĭ«
áĭĪ áĮį
ĠáĪĪáĬł áįįáĪªáĬ«
áĬ¨áī°áĪĽ áĭį
áĮĢáĬķáĪ² áĭį
áįĸáĪĬ áĪµ
Ġáīł áĬķáĮįáĭµ
áīłáĪ ±
ĠáĪĺáĪĿ áĮ£áīµ
Ġáĭ¨áī» áĪĪáĭį
Ġáīłáīģ áĮ¥áĮ¥áĪŃ
áĮĭ áĪĪáĪģ
ĠáĪĽ áĬĶ
Ġáĭ« áĮĪáĬĽ
áĮł áįį
ĠáīłáĪĺ áĪĭ
ĠáĬłáĪµ áĬ¨áī£
ĠáĪĮ áĪİáī¹
áĭĺáĮĭ áĮĥ
áĬķáī° áĬķ
ĠáĪĽ áĮłáĬĵáĬ¨áĪŃ
Ġáīłáī° áĮĪáī¢áĭį
Ġáĭĭ áĬĲáĬĽáĭį
áĮ ³áĭįáĪİáĪµ
áĮĪ áī°áĬĽ
áĪĽáĬķ áĬĽáĭįáĪĿ
ĠáĬłáĪįáī» áĪīáĪĿ
áĪĽ áĪªáĭ«
ĠáĪĪ áĬ«
ĠáĪ° áĪŀáĬķ
ĠáīłáĬł áĭįáĪ®áįĵ
Ġáĭ¨áĪ° áĮ¡
ĠáīĨáĭŃ áī°áĭĭáĪį
áīĥ áĬķ
ĠáĪĪáĪĺ áĬĵáĮĪáĪŃ
ĠáĬłáĪĿ áĪįáĬ®
Ġáĭ«áĪħ áĪī
áĬķáī£ áĪĮ
ĠáĮ¥ áĪ«
ĠáĬłáĬķáĭµ áĬķ
ĠáīłáĬ¨áī°áĪĽ áĭĭ
Ġáĭ¨áĪĺ áĬĲ
áĪĺáĪ« áĭį
ĠáĪĺáĭ°áĪ¨áĮī áĬķ
ĠáĭŃ áĪį
ĠáĪĺáĪĨáĬĳ áĪĿ
áĬķáįĪ áĬĽ
ĠáĪĺáĭĭ áīħ
Ġáĭ¨áĪ ª
Ġáĭ° áĮĥ
áīĨ áĬĵ
áĪµáī² áĬŃ
Ġáīł áĭĽ
ĠáĭŃ áĬķ
áĭ° áī£áī£áĭŃ
Ġáĭ¨áĪļáĭ« áĪĺ
ĠáĪĺáĪŃ áĪĲ
áĬ¨áĪ° áī°áĭį
ĠáĬłáī¥áĭ® áīµ
áĭĭ áĪŃáĭ«áīµ
Ġáī¥ áĬŃ
ĠáĬłáĪĺ áīº
ĠáĭĪáīħ áīµáĪĿ
ĠáĪ³áĭŃ áĬķ
áĬħ áī¥áĪ¨áī°áĪ°áī¡
ĠáīłáĪħ áĭĿáī¥
Ġáīµ áĪĭáĪĪáī½
áĪĻ áĪµ
áīĨ áĮłáĪŃ
áĪĪáĪĺ áĪĨáĬĳ
ĠáĪįáĪĽ áī³áĭĬ
ĠáĪħáĪį áĭįáĬĵ
ĠáĬ¨ áĪŀ
ĠáĭŃ áĪµáī°áĭĭ
Ġáĭ¨áī° áĪ»
ĠáīµáĬķ áī¢áīµ
Ġáĭį áĪİ
ĠáīłáĪĽ áĭµáĪ¨
Ġáįķ áĪĭáĬķ
Ġáĭ¨áĪ ī
ĠáĬ¨ áĭ¨
áĬ« áĪĶ
áĪª áĬĲáīµ
ĠáĮ¥áĬĵ áīµáĬĵ
ĠáĬłáĬķáĭ³ áī½
Ġáĭ¨ áīłáĪĪ
áĬ¨ áĪĭáī¸áĭį
Ġáĭ¨áĪļ áĭįáĪį
Ġáĭ© áĬĴáī¨áĪŃáĪµáī²
áĭĿáĮį áĮħáīµ
Ġáį Ķ
áĪ¨ áĬĿ
ĠáĪľ áĭ³áĪįáĭ«
ĠáĮ¥áĪŃ áĮ¥áĪŃ
ĠáĪ³áĪĻ áĬ¤áĪį
Ġáį Ĩ
áĮ¥ áīłáī¥
Ġáĭ¨áĪļ áĬķ
ĠáĬ¥áĬķáĭ² áĭĪáĮ¡
ĠáĪĪáĪĺ áĬķ
áĮ® áī½áĬķ
Ġáī°áĪµáĪĽ áĪĿ
ĠáĪĽáĪ¨ áįĬáĭ«
áĬķ áĬĽáĭįáĪĿ
áī¶ áī»áī¸áĭįáĬķ
áĬ¥ áĪ·
ĠáĬ¥áĪµ áĪŃ
ĠáĪĺ áīĭáīĭáĪĿ
ĠáĬ« áĪĿ
ĠáĪįáī¦ áĬĵ
ĠáĪĪ áĭĺáĪĺáĬĵáīµ
áįį áĪµ
ĠáĬ¥áĬķáĭ² áī°
ĠáĮ¨ áĪŃáīħ
áĬĵ áĪµ
áĬł áĬł
ĠáĪħ áįĥáĬĵáīµ
áī½áĪģ áĪĿ
Ġáĭ°áĪĺ áĭĪáĭĿ
áĬ¨ áīłáĪ©
Ġáī£áĪĪáĪĻáĭ« áĭİáī½áĬķ
áįĪáĪ« áĪ¨
ĠáĭľáĮİáī½ áĬķ
ĠáĪĪ áĭŃáī¶
áĪŀ áĬĳ
áīĨ áĭ¨áīµ
ĠáĬ« áĪħ
áįĥ áĪľ
Ġáī´ áĪĮ
Ġáĭ¨áĪļáĮĪáĪį áĮ¹
Ġ d
ĠáĬ¥áĬķáĭ² áĬĸáĪ«áī¸áĭį
áĮłáī¥ áīģ
ĠáĬ¨áĪį áī¥
ĠáĬ¥áĪħ áīµ
ĠáĪĺ áĮłáĬĲ
áī¸áĭį áĬĵ
áĬĽ áĭİáī¹
ĠáĪ° áįĭ
Ġ3 8
ĠáīłáĪĽáĬķ áĬĽáĭįáĪĿ
ĠáĬłáĭįáĮ¥ áī¶
ĠáĬ¨ áĭĵ
ĠáĪĭ áĪĪáĭį
Ġáīłáīħ áĬķ
ĠáĬłáĪħ áĪĺáĭµ
Ġáī°áīĥáĭĭáĪļ áĭİáī½
áĬª áĬķ
Ġáĭ¨ áĭ¶
áĪĪ áįĪ
áĮł áĮ£
ĠáĪĿ áĭĿáĮĪáī£
Ġáī¥ áĭĿ
ĠáĬ¥áĬķáĭ² áĪ°áĮ¡
áĮİ áĪį
ĠáīłáĬ¥ áĮįáĪŃ
ĠáĬłáĪµáī°áĭ³áĭ°áĪŃ áĬĵ
ĠáĪ½áĪĽáĮįáĪĮ áĭİáī½
Ġáīµ áĪĭáĪįáīħ
áĪŀáĬŃ áĪ«
Ġ8 0
Ġáĭ¨áī» áĪĪ
Ġáĭ¨áīĢáĪ¨ áīł
áĬķáĮī áĪ¥
Ġáīłáĭĺ áĪĭáīĤ
Ġ and
áĮ ¼
áĪĭ áĮħ
Ġáī° áīł
ĠáĪ² áĪĦáĭµ
áĭµáĪ¨ áĭį
ĠáĪħ áįĥ
ĠáĪĪáĪĺáīĢ áīłáĪį
áĭįáĭ«áĬķ áĬķ
áīĢáĭµáĪŀ áĭį
Ġáĭ¨áįį áīħáĪŃ
ĠáĭĿáĭįáĭį áĪŃ
a tion
Ġ B
Ġáīł áīµáĬķ
Ġáī´ áĬłáīµáĪŃ
Ġáĭ¨áĪĪ áĬĿáĪĿ
áĭŃáĪį áīģ
ĠáĬłáī¤áī± áī³
áĮłáīĢ áĪ°áĭį
áĮĪáĬĲ áĭĺáī¥
Ġáī£áĭŃ áĪĨáĬķáĪĿ
ĠáīłáĬłáĪĿ áĪµáīµ
ĠáĪĺ áĪĪáĭ«
ĠáĪĺ áĮĪáĬķáĭĺáī¥
Ġáī¢ áĭĿáĬĲáĪµ
áĪłáĪ Ī
áī£áī¸áĭį áĬĵ
áĬĴ áĪµ
Ġáĭ¨áĭĪ áĮ¡
ĠáĪĽáĬķ áīłáī¥
ĠáĪįáĮĨ áī¹
áĭ°áĮįáĪŀ áĪĿ
Ġ N
áĬħ áĬķáĬĲáīµ
200 6
áīħáĭµ áĪĺ
áĮ¨áĭĭ áī³
Ġáĭ¨áĪ³ áĭŃ
ĠáĬ¥áĬķáĭ°áĪĿ áī³
¸ áĬĵáįĬ
áĪ ¿
ĠáĪĪáĪĽ áĭ³
áĪµáĪ« áĬ¤áĪĭáĭįáĭ«áĬķ
ĠáĭŃáĪĦ áĭ³áĪį
áĪ®áįķ áĪĭ
ĠáīłáĪĺáĮ¥ áīĢáĪµ
áĪ® áĪĿ
Ġáĭ« áĮį
Ġáĭ« áĭķáīĨáī¥
Ġáĭ¨áĬł áīħáĪĿ
Ġáįķ áĪ¬áĭļáĭ³áĬķ
ĠáĬłáĬŃ áĪ«áĪª
áĪĺ áĬķáĮįáĪ¥
Ġáīł áĭ¨áīµáĬĽáĭįáĪĿ
Ġáīģ áĮ£
ĠáĪĺáĪĪ áĭĪáĮ¥
Ġáĭ¨áįĢ áĮ¥áī³
ĠáĪĺáĮ¨ áĪĺáĪŃ
áĮ£ áĭĬ
áīĥ áīĤ
áĭĿ áĪĽáī½
áįĭ áĮłáĬķ
áī¦ áī»áī¸áĭį
ĠáĪĽáĭµáĪ¨ áĮīáĬķ
áĭ°áĪ¨ áĪ°áĭį
áĮĭ áĮ£áĪļ
áīĨ áĪ«
ĠáīłáīĢ áĪį
ĠáīĢáĮ£ áĭŃáĬĲáīµ
ĠáīłáĪĺ áĪŃ
áĪİáī½ áĬĵ
ĠáĬłáĪµáī° áĭ³áĭ°áĪ©
Ġáįķ áĪ¬áĭļáĭ³áĬķáī±
19 6
ĠáĪĽ áĭįáĮ£áīµ
ĠáĭĪáĮ¥ áī°áĭį
ĠáĪĺáĪįáĭķ áĬŃ
ĠáĭŃáĮĪáĪįáįĥ áĪī
Ġáĭķ áīħ
Ġáĭ¨áĬ¥ áĭµáĮĪáīµáĬĵ
ĠáĪµáĪŃ áĮŃáīµ
Ġáĭ¨áĪģ áĪīáĪĿ
áĪ®áĬķ áī¶áĪµ
ĠáĬŃáįįáī° áī¶áī½
¥ áĪ«
ĠáĭŃ áĬĲáĪ³
áĭĭ áĪĿ
Ġáī³ áĬķ
Ġáī°áĪĺáĪį áĪ¶
ĠáīłáĮī áĭ³áĭ©
áĬŃáĪŃáĪµáī² áĭ«áĬķ
ĠáĬ¥áĬķ áĮĢáĪ«
áįĪáĪį áĮĭáī¸áĭį
ĠáīłáĬ¥ áĬķáĮįáĪĬáĭĿ
Ġáĭ³ áĬŀáī½
ĠáĬ¨áĭļáĪħ áĪĿ
ĠáĪįáĮĨ áī½áĬķ
Ġáĭ¨áī¤ áī°
áĭķ áĪĪ
ĠáĪ°áĪĪ áī£
ĠáĪĪáĪĺ áĪĦáĭµ
Ġáĭ¨áĪĿ áĪµ
Ġáĭ¨áĬĲ áĮĪ
ĠáĪĿáĪŃ áī¶áī½áĬķ
ĠáĪĽáĪµáī° áĭĭáĪį
ĠáĬ¨áĬłáĪ µ
ĠáĮ¥áĬĵ áī±
áĭ° áī°áĬŀáī½
áĭ ¤
ĠáīłáĪ Ħ
áĪ° áĪŀáĬĳáĬķ
ĠáĭĿ áĬķáī£áĪĮ
Ġ3 6
áĮ¨áĭĭ áī³áĭį
Ġáĭ«áĪĭ áīµáĬķ
áĪµáī² áī«
ĠáĬ¨ áĪ¦áĪµáīµ
Ġáĭ¨áĪļ áĬ«áĪĦáĭ°áĭį
áĮĭ áĬķ
Ġáĭį áĮ£
Ġáĭ¨áĪĺ áĪĨáĬķ
ĠáĬ¥áĬķáĭ² áīĢáĮ¥áĪį
ĠáĪħ áĭĿáī¡áĬķ
ĠáĮįáī¥ áĭ£
Ġáĭįáĭµáĭµ áĪ©
ĠáĪĺáĬķáĮįáĪµ áī³áĭĬ
ĠáĪĺ áĭĺáĮĭáĮĢ
áĪĽ áĪĿ
Ġáī¥ áĪ¨áīµ
ĠáĪĺáĭµáĪ¨ áĪµ
áĬłáĪĪ áĪģ
Ġáī°áĪ³áī³áįĬ áĭİáī½
ĠáīłáĬĲáįĥ áĬĲáīµ
2 1
ĠáĬ¥ áįĪáĪįáĮĭ
áī£ áĪĪáĪģ
ĠáĬ¥áĬķ áī£
ĠáĪĽ áĬĲ
áĭ® áĬĸáī½
áĬ©áī£áĬķáĭ« áĭį
Ġáĭ¨ áįĭ
áĭ° áī±
áĭ³ áĭĬáīµ
áĬ« áĭį
Ġáĭ¨áĬ¢ áĪħáĬłáĭ´áĮį
Ġáĭ® áĪ´áįį
Ġáĭ¨áĪĺáĪ³áĪ° áĪīáīµ
ĠáĪ«áĭķ áĭŃ
Ġáīł áĬ©
áĪ¨ áĬŃ
ĠáĪĪáĪĺ áĮį
ĠáĪļ áĬ«áĬ¤áĪį
áīĢáĪ¨ áī¡áīµ
ĠáĪĺáĪ¨áĮĥ áĭİáī½áĬķ
Ġáĭ¨áĪĻ áĪµáĬĵ
ĠáĬłáĪ½ áĬ¨áĪŃ
áīĨ áĮłáĪ©
áĪµáī° áĬķ
ĠáĪ°áĭİáī½ áĪĿ
ĠáĪĪáĭį áĮ¦áī½
ĠáĪļ áĭĽ
Ġáīł áįķ
ĠáīłáĪ ±
ĠáĬ¨ áī¤áīµ
ĠáĪĪ áī£áĪĪ
ĠáĪµáĪ« áĭįáĬķ
áįĨ áī½
áī ®
áĭ« áĬĵ
ĠáĪĺ áĭĪáĮ£áīµ
ĠáĪĺ áĮĪáĬĺáīµ
Ġáĭ¨áĪļ áĭĺ
Ġáįį áĪ«
ĠáĪĺáĪłáĪ¨ áī°
Ġáĭ¨áĪļ áĪĪ
ĠáĪĽ áĬ¨áĬĵáĭĪáĬķ
ĠáĭµáĪŃ áĭµáĪŃ
ĠáĬłáĪ³ áĭŃáī·áĪį
ĠáĭŃáī³ áĪĺáĬĵáĪį
ĠáīłáĮ¥áĬķ áīĥáīĦ
Ġáīł áĬĲáīłáĪ¨áīłáīµ
Ġáĭ«áĪĪ áĪĽ
ĠáĪľ áĮĭ
ĠáīĭáĬķáīĭ áĭİáī½
Ġáī° áĬŃáĪĪ
áĮĵ áĭ°
áĮįáĬķ áī¦áīµ
Ġáĭ¨áī¥ áĭµáĪŃ
áĮ¾ áī½
Ġáīµ áĮĪáĬĽáĪĪáī½
áĬ© áīµáĬķ
áīłáĪ¨ áĬ¨áī°
ĠáĪħ áĭĿ
Ġáī°áīĭ áĪĻ
Ġáĭ¨áĪħ áĭŃáĭĪáīµ
ĠáĪĺáĪĲ áĪĺáĭµ
áĬĲ áĭĺ
ĠáīłáĪĺ áĮł
ĠáĬłáĪŃ áī£
áĭĽ áĬĿ
áĮİ áĭ±
áĪ¯ áĭĬ
ĠáĮİ áĪ«
ĠáĪĺáĭĽáĪĻáĪŃ áī±
áĭµ áĪĽ
Ġáĭ« áĭ°áĪ¨áĮį
áĮĪáĪ« áī½áĬķáĬķ
áĪı áīµ
Ġáī°áĭĪ áĭ³áĮħ
ĠáĪĪáĭį áĮŃ
áĮłáĭŃ áīĢáĭį
Ġáĭ¨áĭķ áĭµáĪľ
Ġáīł áĬª
ĠáĬłáĪ Ł
Ġáī° áĮĪáĬķ
áįĪ áī»
áĮī áĪį
áīģ áĪŁáĪį
Ġáīħ áĭ³áĪľ
Ġáĭ¨áĬĲ áĭ³áĮħ
Ġáī¥áĭĻ áĭİáī¹
ĠáīłáĮį áī¥áĪŃáĬĵ
ĠáĪµáī³ áĭµ
i l
Ġáī° áĪ°áĪŃ
ĠáĪĪ áĮĬáĭľáĭį
Ġáī° áī£
ĠáĪĽ áĪĿ
Ġáĭ¨áĪļáĭ« áĮį
áĬ® áĪĿ
ĠáįĪ áĪĭáĮĬ
áĬĲ áī·áĬķ
ĠáĪĪáĪĺ áĪŃáĭ³áīµ
áĪĻ áīłáīµ
Ġáī¢ áĪĨáĬĳáĪĿ
ĠáĪķ áĮİáī½
Ġáĭ¨áī°áīĢ áĬĵáĮĢ
áĮįáĭµ áī¡
áī³ áī½
Ġáĭ«áĪĪ áīłáīµáĬķ
ĠáĪĮáĪĭ áĭįáĬķ
ĠáĬłáĭ« áĪĮ
áīłáĬ¥áĪŃáĮįáĮ¥ áĪĿ
en t
2 2
áīĢ áĪ¨áĭį
áĪ½ áĬĵ
ĠáįĪ áĬķáī³
Ġáĭįáĭµáĭµ áĪ©áĬķ
áĬ¨áī£ áĬ¨áī¥
áĭĪáĭŃ áĪµ
áĭ¨ áīµáĬĵ
ĠáĬłáĪµ áĮĪáĪ«áĪļ
ĠáīłáĬłáĪ µáī°
áĬ¥áĭį áĬĲáīµ
áĬ ¾
ĠáĪĺ áĭ°áĪ¨áĮį
ĠáĬ¨ áĪ¨
ĠáĪĪáĪĺ áĭįáĪ°áĭµ
ĠáĬłáĬķ áī£áī¢
ĠáĪĺáĪµ áĪĽáīµ
áīłáĪį áĮ¡
19 7
Ġáī° áĪ¨áĭµ
Ġáĭ¨áī° áĮĢáĪĺáĪ¨
ĠáĪ² áĪ°
ĠáĮĪ áĬĲáīµ
áĮ¦ áī½áĬķ
ĠáĬ¥áĪŃ áĪ±
Ġáĭ¨áīµ áĪ«áįĬáĬŃ
ĠáĬł áĬĲáĮĭáĮĪáĪŃ
áĪĺáĪĪ áĬŃáīµ
áĪ³áī° áįĪ
ĠáĬ¥áįĪáĪįáĮĭ áĪĪáĪģ
Ġáī°áīĭáĪĽ áīµáĬķ
áĮ¨ áĬĲ
ĠáĪĽáĬķ áĪ³áīµ
Ġáĭ¨áĬłáĪĺ áĪ«áĪŃ
ĠáĭŃ áīĢáĪŃ
áįĭ áī±
ĠáĪ³áĭŃ áĪĨáĬĳ
ĠáĬ¨áĪĺ áĪµ
áī½áĮį áĪ©áĬķ
áįĶ áĬķ
Ġáĭ«áĪĺáĪĪáĬŃ áī³áĪī
áĮĪ áĬĵáĪį
ĠáĬł áĭ°áĪ¨áĮī
ĠáĪĽ áīħáĪ¨
Ġáī¢ áĭ«áĪµ
Ġáī°áĪĺ áĪ«áĮŃ
Ġáĭ¨ áī¥áĪĶáĪ«áĭĬ
ĠáĬ¨ áĭĭ
áīĢ áĭ°áĭį
Ġáĭ¨áĪļ áĪĺáĪĪáĬ¨áī³áī¸áĭį
Ġáĭ¨áĪļáī½ áĪīáīµ
áĪ¨ áĪ°áī¥
áįį áĪĪ
áĮ¨ áĬķ
ĠáīłáĪĢ áĮĪáĪªáī±
Ġáĭ¨áĪļáĪĺáĪ« áĭį
áĪį áĮħ
áī£ áīłáĪį
ĠáĪĪ áĬłáĬķ
ĠáĪĺáĪ£áĪªáĭ« áĭİáī½
o l
áĪµ áī¦
áī£ áī³áĭį
ĠáīłáĪ ¸
áĮ¥ áĪİ
ĠáĬ¥áĬķáĭ² áĮĪáī¡
Ġáīłáī° áĭ°áĪ¨áĮĪ
ĠáĮĪáĪĪ áįĥ
áĪĺáī» áī¸áīµ
áĬĵ áĭ³
ĠáĪĪ áĪ¥áĪ«
ĠáĪģáĬĶáī³ áĭį
ĠáĪĮáĪĭ áĬĽáĭį
áī¥ áĬĽáĪį
áī£ áīµáĬĵ
Ġáĭµ áĪ«
ĠáĪĪáĪĺ áīĭáīĭáĪĿ
ĠáīłáĪļ áĬ«áĪĦáĭ°áĭį
ĠáĬ¨áĬ¥ áĬĽ
ĠáĬ¥áĬķáīħ áĪįáįį
ĠáĬł áĭķáĪĿáĪ®
áĪĽ áī±
ĠáĬ¥áĬķáĭ² áįĪáĮłáĪŃ
áĪ» áĪĪáĪģ
áĮĪáĬĵ áĬĺáīµ
ĠáĭŃáĮłáīĢ áĪ³áĪī
Ġáĭ¨áī°áĪ³ áĪ³áī°
áĪį áĮ¥
áĬŃ áĪİ
Ġáĭ¨áĪļ áĮłáīģ
Ġáī£ áĪ³
Ġáīłáī° áĭĪáĪ°áĬĲ
ĠáĪ³ áĭ«áĪµ
áĮĵ áĮĵ
Ġáįįáīµ áĪĥáĭĬ
áĭĳ áĪµ
ĠáĪĪ áĮĪ
ĠáĭŃ áĭį
ĠáĮį áįĬáīµ
łáĪ« áĪŃ
ĠáĬ¬ áĪļ
ĠáĬ¥ áī£áĬŃ
ĠáĪĺ áīµ
áīĥ áī¸áĭįáĬķ
ĠáīłáĪĺ áĮĪáĬķáī£áīµ
ĠáĮįáĬķ áī¥
áĮ« áĭĭ
Ġáĭ¨áī° áĪłáĪ«
áĬķ áĮĭ
ĠáĬ¥ áĬ©
ĠáĪĺ áĮłáīĢ
áĬ® áĪ«
ĠáĪ¨ áĭ³áīµ
áĬł áĮĪáĪªáī±
áī» áĪĭáī¸áĭį
Ġáīµ áĭįáĪį
ĠáĬ¥áĬĲ áĪ±áĬķ
áĪµ áĮĭ
áĬĲ áĪªáĬķáĮį
áĮĭ áī½
áĭŀ áĪŃ
Ġáī£áĪħ áĪįáĬĵ
Ġáī°áĮĭ áĪĭáĮŃ
ĠáĮĢáĪĿ áĪ¯áĪį
ĠáĪĺ áĪĭáĭį
áĮĪ áĪ¨áĭį
Ġáĭ¨áĬ¥ áĪĿáĬĲáīµ
Ġáĭ¨áĬ¤ áĪŃáīµáĪ«
ĠáīłáĮįáĪį áįħ
ĠáĬ¥áĬķáĭ² áī½áĪī
Ġáĭ¨áĪĺ áī°
ĠáĪĺáĪµ áĪ«
ĠáĬłáĭį áīĥáĪĪáĪģ
ĠáĮįáī¥ áĭĵ
áĮłáĪĭ áīµ
ĠáĪĢáĮĪ áĪ®áī½
Ġáīłáī¤ áī°
ĠáĬ¨ áĬłáĪĿáĪµáīµ
ĠáĬłáĮĭ áĪĽáĪ½
áĬĲ áī³áī½áĬķáĬķ
áī³ áĭ¨áĭį
áĬ« áĪļ
Ġáĭ¨áī° áĭ«áĭ«áĭĻ
Ġáĭ¨áĮ¥ áīłáī¥
Ġáĭ«áĪµáĪ¨áĭ³ áĪį
ĠáĬ¨ áīħáĪŃáī¥
áī» áĪĪáĪĿ
áĮħ áĪĽ
ĠáĮĪ áĪĭ
ĠáĬ¥áĬķáĭ³áĭŃ áĪĨáĬķ
ĠáĮĪáĪĪ áĪį
Ġáī°áĪĺáĪ« áĪĽáĪª
Ġáī° áĪĥáĭµáĪ¶
áĭŃáĪħáĬķ áĬķáĪĿ
Ġáī°áĮłáīħ áĪĺáĭį
áĪĺáī¼ áĪĿ
áĪ° áī¡áĬķ
ĠáĪµ áĭµ
Ġáĭ¨áī° áįĪáĮłáĪ¨áĭį
ĠáĬłáĭ³ áĪĿ
ĠáĪłáĪ« áĭĬ
ĠáĬłáĭµáĪŃáĮİ áī³áĪį
ĠáĪĪ áĪĮáĪĭ
áĭµáĪŃ áĮį
áĭ¨áĪĺ áĮĢáĪĺáĪªáĭ«áĭį
ĠáīłáĪĽáĪµ áĮĪáī£áīµ
ĠáĪįáĭįáĭį áĮ¥
Ġáĭ¨ áĬ©
Ġáī° áĮİ
áĭ¨ áĪ¨
ĠáĪĪáĪĺ áĪĿ
áĪĺáĪ¨ áĮ¥
ĠáīłáĮ¥ áĪ©
ĠáĬłáĪ¨ áĬķáĮĵáĭ´
ĠáīłáĪħ áĮį
ĠáĬłáĪ¨áĮĭáĮį áĮ§áĪį
ĠáĪĺáĬķ áīĢáĪ³áīĢáĪµ
ĠáĪĪáĬł áĮĪáĪªáī±
ĠáĮłáīģ áĪŁáĪį
ĠáĬłáĪŃáĪ¶ áĬł
áĮĢáĪŃ áī£
áīł áĬĭáĪĭ
áĪ° áĪ±
Ġáī¥ áĪĭáī½áĪģ
áī³áĭĪ áīħáĪĿ
Ġáĭ¨áĪļáĭ«áĪµ áĬ¨áīµ
Ġáĭ¨áī£ áĪħáĪŃ
áĬĵáĭŃ áĮĦáĪªáĭ«
áĭĪáĭ« áĭ¨áīµ
ĠáĪ° áįĪáĪŃ
áĭ«áĬķ áĭ³áĬķ
ĠáĬ¤ áĪĿáī£áĪ²
áĪµáī¥ áĪµáī¥
ĠáĪ² áĬĵáĮĪáĪŃ
áĪķ áĭĿáī¡
201 5
áī° áĪ®áī½
áĭĺ áįį
áĭ«áĬķ áĬķ
ĠáĬłáĪĿ áĮ¥
ĠáīłáĪµ áī²áĭ«
ĠáĪµáĪį áīµ
ĠáĪĽáĪĪ áī´
ĠáĬķáĮ¹ áĪķ
Ġáĭ¨ áĬĵ
ĠáĪĪ áīłáĪŃáĬ«áī³
Ġáĭ¨áĪĺ áĬĸáĪŃ
áĪĪáī½ áĪĿ
Ġáĭ¨áĪĮ áĪİáī½
Ġáīłáī£ áĪħ
ĠáĪĺ áĪĥáĪį
Ġáĭ¨áĬ¥ áĬĵ
áĪ¹ áĪ«áĬķáĪµ
áĮĭáĪĪ áĮ¡
ĠáĬłáĭĿ áĪĽ
ĠáĬłáī¥áĪ¨ áĬķ
ĠáĬłáĪµáĭ° áĪ³áī½
2 3
Ġáī° áĬłáĪĿ
áĮħ áĬĵ
áĪ» áī¸áĭį
ĠáīłáĬłáĪĽ áĪ«
Ġáĭ¨áĪĺ áĬĸáĪªáĭ«
áĬŃ áĪī
ĠáĭŃ áĪĺáĮ£
Ġáĭ¨áĪļ áĭ²áĭ«
ĠáĪ° áĪįáįį
Ġáĭ° áī¥áĪ¨
ĠáĪ® áĪĿ
ĠáĮ¥áĪŃ áĮ£áĪ¬
ĠáĬłáī¥áĭĽ áĬĽáĭįáĬķ
Ġáī£áĪĪ áĪĻáĭ«áĭį
áĬĵáĪį áĭµ
Ġáĭ¨áĪ° áĪĪ
ĠáīłáīĢ áĪµ
Ġáī°áĪĺáĪį áĬ«áī½
áĮį áĪ®
ĠáĪĺ áįĥ
ĠáĪĽ áĪ°áĪį
ĠáīĨáĭŃ áī¶
áįĪáĪ« áĭį
ĠáĬłáĪĺáĪĪáĬ« áĬ¨
ĠáĬ¨áĬĲ áĪĽ
ĠáĭĪáĭ³ áĮĦ
Ġáĭ« áĬĶ
ĠáĬłáĪī áĪĭ
áĬĲáĮĪ áĪ¨áĭį
ĠáĬłáĪ« áī°áĬĽ
Ġáĭ¨ áįĵ
ĠáĪĺ áĪ»áĪ»áĪį
áīł áī¡
Ġáĭ« áĪĺáĮ£
Ġáī£ áĬķáĭµ
ĠáĪĭ áĪĪáĪĺ
ĠáĭŃáĮłáīłáīħ áī£áī¸áĭĭáĪį
áīłáĪĺáĮ¨áĪ¨áĪ» áĪĿ
ĠáĬłáĬŃáī¥áĪ® áīµ
ĠáĬ¨ áĪ³
ĠáĪĽ áĪĿáĪ¨áīµ
áĭĭáĬķ áĭ³
Ġ in
Ġáĭ¨áĬł áīµáĪĮáī²áĬŃáĪµ
áĪį áī³
áĪĪ áīĨ
ĠáĬĲ áĭ³áĮħ
Ġáĭ¨áĪį áī¥
ĠáĬ¨áĬķáī² áī£
2 8
ĠáĬ¥ áĪģáĭµ
ĠáĪĪáĪĺ áĭĪáĮ£áīµ
áĭķ áĭµáĪľ
ĠáĮĪáĪĪ áĮ¸
Ġáīł áī±
ĠáīłáĬłáĪ «áīµ
ĠáīłáĪµ áĪ«
ĠáĮ¥áĭ«áīĦ áĭİáī½áĬķ
áī° áĬĵáĭĬ
áĭ° áī£
ĠáĪĺ áĭ°áĪĿ
áĪĭ áī³áĪį
áĬĸ áĪ¨áĬķ
ĠáĬ¥áĬķáĭ²áĭ« áĮĪáĬĿ
Ġáĭ¨áĮ¥ áĪ«áīµ
ĠáĪĥáĭŃáĪĽáĬĸ áī³áĭĬ
áĪİ áĬĵ
áĪĿáĬķ áī±
áĮĵ áī¸áĭį
ĠáĬłáĭĽ áĭ¥
Ġáĭ¨áĪļáī½ áĪĪáĭįáĬķ
ĠáĪĽáĪħ áīłáĪ©
ĠáĭµáĪĿ áįĥ
ĠáĪįáĪĽ áīµáĬķ
ĠáĪ² áĭ°áĪ¨áĮį
áĮĥ áįĵáĬķ
Ġáĭ¨áĪļáĭ« áĮĭáĮ¥
Ġ3 9
ĠáĭŃáĪ° áĪ«áĪį
Ġáī£áĪį áĭ°áĪ¨
ĠáĪįáĮĨ áī»áī¸áĭįáĬķ
Ġáĭ¨áĪ´ áīµ
ĠáĪĽáĭķáĬ¨ áĪĭáīµ
áĬ¨ áĪĭáĭŃ
ĠáīłáĪĺ áĪ°
áĭķ áĬĵ
Ġ D
áĪĪ áīģ
ĠáĪĺ áĪ¨áĮĭáĮĭáīµ
Ġáĭ¨áĪ ®
ĠáĮį áĪ©áĪĿ
ĠáĭŃ áĪĪáĭ«
Ġáĭ¨áī° áĬ«áĪĦáĭ°áĭį
ĠáĪģ áĬ¨áīµ
Ġáīħ áĪµáīĢáĪ³
ĠáĬ¨ áĪŃ
ĠáĪĪáĪĺ áĪĨáĬĳ
Ġáī¤ áī°áĪ°áī¡
ĠáįĪ áī³áĬĿ
ĠáĬ«áĪĪ áįĪáĭį
ĠáĬ¥ áĪ³áī¸áĭį
áīłáĪ ¶
áĪµáī° áĬĵáĮĪ
ĠáĬłáĪĿáī£ áĮĪáĬĲ
áĭ Ĵ
áĬĲ áĮ¥áī¥
Ġáī° áĮį
Ġáīłáī° áī£áĪĪáĭį
áīĭ áĪŃ
áĬ¨áĬĵ áĭįáĬķ
áī¥ áĪ«áīµ
áįĪ áīħáĭµ
ĠáīłáĪĺ áĮ£
ĠáĪª áįĸáĪŃ
ĠáĬ¥áĬĽ áĬķ
ĠáĪĺ áĬĲáĪ³
áĮĭ áī¸áĭĭáĪį
ĠáĪĿ áĬĲáĭį
Ġáī¥ áĬĵ
ĠáĮį áĭ¢
Ġáīłáī° áīĥáĪ«áĬĴ
áī¨ áĪŃ
áĮłáĪĺ áĭį
ĠáĮ ģ
ĠáĬ¨ áĪĮáĪĭáĭį
Ġáī³ áī½
áĪĭáĪĪ áįĪ
Ġáĭ¨áįį áĪŃáĭµ
áįķáĪ® áĮįáĪ«
Ġáī°áĭĭ áĮĬ
Ġáĭ°áĮĭáįĬ áĭİáī½
ĠáįįáĪĭáĮĲ áīµ
ĠáĭĪ áī°áīµ
Ġáĭ¨áĪĺ áĮ¡áīµ
ĠáĬłáĪį áĭ«áĪĿ
Ġáĭ¨áĭĪ áĬķáĭµ
ĠáĬ¢áĬķ áĭ±áĪµáīµáĪªáĭİáī½
áįĮáĭ´ áĪ¬áĪ½áĬķ
ĠáĪµáĪħ áī°
Ġáĭ¨áĪļ áĬĲ
áĬ¥ áĪĿ
ĠáīłáĪĺ áĮªáĭį
Ġáĭ°áĪ¨áĮĥ áĭįáĬķ
ĠáĬłáĭ°áĮĭ áĭİáī½
ĠáĭĺáĮĪáī£ áĭİáī½
Ġáī°áĪ¾ áĪĺ
Ġáĭ¨ áĪĪáĭįáĮ¥
áĭ° áĪªáĭ«
áĭµáĪ¨ áĬŃ
ĠáĬĥáĪĭáįĬ áĭį
Ġáĭ² áī£áī£
ĠáĮ© áĬ¸
ĠáĪĿ áĪķ
ĠáīłáĪĺ áĪ¥áĪ«áīµ
áĬłáĪ ĭ
Ġáĭ¨áĪĺ áĬ¨áĪĭáĬ¨áĭ«
Ġáī³ áĭŃ
Ġáī³ áĭŃáī¶
Ġáĭķ áĭ³
ĠáĪŀ áĮĪáĪµ
ĠáĬ¥áĪŃ áĬ«áī³
áīĢáĮ¥ áĪī
Ġáĭ¨áī°áĪ° áĮł
ĠáĬ¨ áĪ¥áĪ«
áĭ® áĪ½
ĠáįĪ áĬķ
ĠáĪĺáĪµ áīĢáĪį
ĠáīłáĪķ áĭŃáĭĪ
Ġáĭ¨áīł áĮİ
Ġáī°áĮłáīħ áĪŀ
áīłáĪĽ áĪĪáīµ
ĠáĪĺáĬĸ áĪ«áī¸áĭį
ĠáĬ¢áĬķáĭ±áĪµáīµáĪª áĭį
áĮĪ áĪ«áĭĬ
áīĢ áįī
Ġáĭľ áĬĵáĭĬ
Ġáĭ¨áĭ«áĭĺ áĭį
Ġáī£áĪķáĪŃ áĭŃ
ĠáīłáĭĺáĪĭáīĤ áĬĲáīµ
ĠáīłáĪĽ áĭįáĮ£áīµ
áĭŃ áĬĲ
Ġáĭ¨áĪļ áĬ«áĪĦáĭµ
áĮŃ áĬķ
ĠáĪ°áĭį áĭ¨áĭį
Ġáĭ¨áĪĮ áĪĭ
áī« áĭŃ
áĬłáĬķáĭ³áĬķ áĭ¶áī½
ĠáĪµ áĬ³áĪŃ
áīĨ áĪĻ
ĠáĬ¥áĬķáĭ³ áĬķ
ĠáĮĪáĪĪ áĮ¹
ĠáĪĺáīħ áĭ°
Ġáī°áī° áĬª
áī£ áī³áĪį
ĠáĪĪ áĮĭ
Ġáĭ¨áĪļ áĬĲáĪ±
ĠáįĭáĭŃ áĬĵáĬķáĪµ
ĠáĪį áĮĥ
áĪ¸ áī£áī¥
Ġáĭ¨áī± áĪªáĭĿáĪĿ
ĠáīłáĬłáĪĽ áĬ«áĭŃ
ĠáĮĵáĭ° áĬŀ
áĪķ áĪŃ
áĮį áĪµ
áīł áĬ¢
áĪĿáĭµ áĬĵ
ĠáĬłáĭ°áĪŃ áĮĭáĪĪáĪģ
ĠáĬł áĬĲáĪ³
áĮ¥ áĬĵáīµ
áĬ¦ áĪį
ĠáĭŃáī³ áĭ«áĪī
Ġáĭ¨áĪŀ áīµ
ĠáĭĪáĭ³ áĭµ
ĠáĬłáĮįáĬĿ áī¶
Ġáĭ¨áįĸáĪĬ áĪ²
áĮ£ áĪĬáĭ«áĬķ
ĠáĬ¢ áīµáĭ®
ĠáĪµáĪŃ áĬłáīµ
Ġáĭ¨áĬŃ áī¥áĪŃ
áįį áĪ®
ĠáĬ¥áĬķáĭ³ áĪĭ
ĠáĭĪáĬķáĭµ áĪŀ
Ġáī°áĪĺáĪį áĬ«
o p
áĮĪ áĭĺ
Ġáīł áįįáīµ
áīĢ áĭ±
Ġáĭ« áĮ£
áĮĨ áī¼
ĠáĪĽáĪµ áĭĪáĮĪáĭµ
Ġáĭ¨áīł áĮĢáīµ
Ġáīłáĭĺ áĪĺáĬĵáĭĬ
ĠáįĮáĭ´ áĪ¬áĪ½
Ġáĭ¨ áĮĪáī£áĭį
áīł áĭµ
ĠáĪĪáĪĽ áĬ«áĪĦáĭµ
áĮ¡ áīłáīµ
ĠáĮłáīħ áĪ¶
ĠáĪµáĬķ áĪį
Ġáīł áĮ¸
Ġáĭ¨áĪļ áĭ°áĪŃ
áĭĺ áĪĺáĬķ
ĠáĬ¥áĬķáĭ°áĪļ áĬ¨áī°áĪĪáĭį
áĮ ¬
áĪ³ áĪĪáī½
ĠáĬ¥áĬķáĭ² áĭĪáĮ£
Ġáį Ĳ
áĪŃ áī¥
ĠáĬł áĬĲ
áĬĶ áĪį
ĠáĭĺáĪŃ áįīáĬķ
ĠáĬłáĮįáĬĿ áī°áĭĭáĪį
Ġáī°áĬ¨áī³ áĭ®áī½
áĭµ áĮī
áīĥ áĪĪáī½
ĠáĬłáĪµ áīĢáĭµ
áĮ¤ áĬķ
áĪĪáĬķ áī°áĬĵáĭĬ
ĠáĭŃáĭŀ áī³
ĠáīłáĪĢ áĮĪáĪŃ
e l
áĪĪ áĭĪ
áĭļ áĪį
ĠáĮłáĬķ áīħ
áĪĿ áĬĲáĭį
Ġáī° áĪ¨áīµ
ĠáĪĪáĬł áĭ²áĪµ
Ġáī¥áĪĦ áĪ¨áĪ°áī¦áī½
ĠáĬłáĪ°áĪįáĮ£ áĬŀáī½
ĠáĬ¥áĬķáĭ°áĪĽ áĭ«
ĠáĬłáĭµáĪ« áĮİáīµ
áĪĭ áĪĿáĬĵ
Ġáĭ¨áĪļ áĪ³áī°áįī
ĠáĬ¥áĭ¨áī° áĬ¨áĬĵáĭĪáĬĲ
ĠáĪĭ áĪī
áīĢáĪ¨ áīłáĭį
ĠáįĪáĮ¥ áĪ¯áĪį
áĪ¨ áī±
ĠáĭŃ áĪŀ
Ġáĭ¨áĬłáĪ Ľ
áī¢ áĭį
ĠáĬ« áĪŃáĭµ
áĬ¤ áĪĿ
áĭİ áĬķ
ĠáīĨ áĬķ
200 3
ĠáĬłáĭĭ áīĤ
Ġ R
áīłáĪ Ļ
ĠáĬ¥áĬĵ áĪµ
ĠáĪ¥áĪ« áī¸áĭįáĬķ
ĠáĪŀ áĬŃ
ĠáĪĿáĭķáĪ« áī¥
áĪĺ áĪĻ
áĭµ áĪŀ
áĪĽ áīħ
áīłáĬł áĮĪáĪ«áī½áĬķ
ĠáįĮ áĭ°
ĠáīµáĪŃ áĮī
ĠáĬ¢áĬķáĪµáī²áīµ áĭ©áīµ
ĠáĬ¨áĪĺ áĬķáĮįáĪµáīµ
Ġáĭ¨áīµ áĬĽáĭį
áīłáĪ¨áī³ áī³áīµ
Ġáī° áĮłáĪª
áī³áī¸áĭį áĬĵ
Ġ F
ĠáĪĪáĪĽ áĮ¥áįĭáīµ
áĮİ áĪĿ
ĠáīłáĪĿ áĪ³áĪĮ
áĮįáĪĪ áĪ°áī¥
ĠáĭĺáĮį áī§áĪį
ĠáĬ¤áĪį áĭ«áĪµ
s t
áĮłáīħ áĪĭáĪĭ
áĮŃ áĪ©
ĠáĪķ áĭĿáī£áĭĬ
áĪŀáĬŃ áĪŃ
áĭį áĭµ
Ġáī° áĬ¨áĪĭ
ĠáĬ¥áĭ¨ áĪ°áĪ©
ĠáĪĺáĪµ áįĪáĪŃáīµ
ĠáīłáĮ¥ áĪįáīĢáīµ
Ġáīłáĭį áĭµáĭµáĪ©
ĠáĪ³áĬķáī² áĪĿ
Ġáĭ¨ áĬŃáĪįáĪį
ĠáĭŃ áĮįáī£
ĠáĪĿ áĪµáĪ«áīħ
ĠáĪ² áĬĵáĮĪáĪ©
áīłáĪŃ áĬŃ
áĭ© áĬĴáĬ¬áĪ½áĬķ
ĠáĪ¶ áĪµáī°áĬĽ
áĮĭáĭľ áĮłáĬŀáī½
Ġáĭ¨áĬłáĪµáī° áĭ³áĭ°áĪŃ
áĪĿ áĪµ
ĠáĪĭ áĪį
ĠáĪ½ áĬķ
ĠáĬ®áĬķ áĪµáīµáĪ«áĬŃáĪ½áĬķ
ĠáĮ¥áĪĭ áī»
Ġáīħáĭ± áĪ³áĬķ
áĪĺ áīłáīµ
áī£ áĪĪáĬķ
áĪħ áĭĿáī¡
ĠáĪµ áĭ°áīµ
ĠáĮł áĭĭáīµ
19 5
áīµ áĪįáĬĵ
ĠáĬł áī¥áĪŃáĪĥáĪĿ
áī¦ áĬķ
Ġáĭ¨áĬł áįĪáĪŃ
áĮłáĬĵáīĢ áīĢáĭį
ĠáĬłáĬŃ áĪ²
ĠáĪµáįĸáĪŃ áī°áĬŀáī½
ĠáĬ¥ áĮ¦áīµ
áĭ³ áī½áĪģ
áĭĭ áĭŃ
ĠáīĢ áĪį
Ġ3 00
áĪłáĪ¨ áī±
áīłáĬł áįįáĪªáĬ«
Ġáĭŀ áĬĸáī½
ĠáįķáĪ®áĮįáĪ« áĪŀáī½
ĠáĬ¥áĬķáĭ°áĪļáĭ«áĪµ áįĪáĪįáĮį
ĠáĪĽ áĪ¸áĬĲáįį
áĭ¨ áĪļáĭ«
Ġáĭį áĪµáī¥áĪµáī¥
áĬª áĪĿ
ĠáĬłáĬķáī° áĪĿ
ĠáĭµáĪį áĭµ
ĠáĬłáĭŃáĪĺáĪµ áĪįáĪĿ
ĠáĪĺ áĮĪáĪĺáīµ
áĪ¬ áĭµ
ĠáĬķ áĮ¥áĪ¨
ĠáĪĽáĪµáī° áĪŃ
ĠáĮ½áĪĳ áįİáī½
ĠáīłáĬ¥áĪŃ áĮį
Ġáī°áĪ¸ áĪĭáĪļ
Ġáĭ¨áĪĺáĪµ áĬĸ
9 0
ĠáĪĽ áĭ°áĮį
ĠáĭįáĪµáĮ¥ áĬĵ
ĠáĬłáĪį áįĪáĭį
áĭ°áĪ¨áĪ° áīłáīµ
ĠáĬŃáĪħ áĪİáīµ
áĪ¨ áĬ«
áĬ¨ áĪªáĭ«
áĭĬ áĭ«áĬķ
ĠáįĪ áĬķáĭµ
ĠáĪĺáĬ«áĬ¨áĪį áĪĿ
ĠáĪŃ áĭĿ
áĮ¨áĪ¨ áī³
áĮĭ áĮŃ
áĪĺáĪµ áĪ¨áīµ
áĪĪáĬ« áĬ¨áīµ
áĪµáįĴ áī³áĪī
ĠáĪµáįįáĪ« áĭİáī½
ĠáĮħ áĪĽ
Ġáī°áĬĲ áĪµáī°áĭį
ĠáĬĲ áīħ
áĭ¨ áĭĭ
Ġáĭ« áĪĿáĬĵ
ĠáĬ« áĪľ
ĠáĬ¥áĭ« áĭ¨
ĠáĬłáĪŃ áĬłáĭ«
áĭĺáĭĭ áĭĭáĪª
áį »
áĪ³ áĪĪáĪģ
ĠáĪĽ áīłáĪ¨áī³áī»
ĠáĪĪáĪĺ áĭįáĮ£áīµ
Ġáī°áĮłáĭ«áīĤ áĬĲáīµ
Ġáī°áīĢáĪĿ áĮ¦
Ġáī°áĪŃ áī³
ĠáĪĺáĪµ áĪĺ
áĬ¥áĬĵ áĪĭáī½áĪģ
áĭ³áĭ° áĪªáĭ«
Ġáīłáīħáĭµ áĪļáĭ«
áĬŃáĪ° áĬŀ
áįį áĭ«
ĠáĪĿ áĮ£áĬĶ
áįī áĪĿ
ĠáĮł áĮħ
ĠáĭįáĮ¤ áī±
Ġáīł áįĮáĭ´áĪ«áĪį
ĠáĬ¨ áĮĪáī£
Ġáĭ¨áī° áĮĪáĬĻáīµ
áĪģ áĬĶáī³
Ġáĭĺ áĭĪáīµáĪŃ
áīĭáīĭ áĪĻ
ĠáĪĽáĮ£ áĪªáĭ«
a c
Ġáī° áĮĢáĪĿ
Ġáĭ¨áī° áĬĲáĮĪáĪ¨
Ġáī³ áĭŃáī·áĪį
ĠáĬłáĪ¸ áī£áĪª
Ġáīł áĮįáī¥
ĠáĪĺáĪµ áĮ«
Ġáīłáįį áĪŃáĭµ
áĪŃ áĪ³
Ġáĭ¨áī° áĪ°áĪ«
ĠáĬķ áįģ
Ġáī¦ áī³áĭį
ĠáĬłáī£ áī´
Ġáĭ¨áĪļáĭ«áĪ³ áĭ¨áĭį
áįį áīħáĪŃ
ĠáīłáĪĽ áĭĺáĮĭáĮĢáīµ
ĠáĬ¢ áĪ³
ĠáĪĥ áī¥
ĠáĬ¥áĬķáĭ°áĪĨáĬĲ áĬĵ
ĠáĬ¨ áĪĲ
áįį áī±
ĠáĮ¥ áĪİ
áįĭ áĬĵ
áĮ¤ áīµ
áĬŃáĪį áīµ
Ġáīłáī³ áĪªáĬŃ
ĠáĬłáįį áīĥ
ĠáĭĪáĭ³áĮħ áĬĲáīµ
Ġáĭ¨áĪļ áĪ¨áĭ³
áīĥ áĪ½
ĠáĪĪáī° áĪĪáĭ«áĭ©
áĬ¨áī£ áīłáĪŃ
ĠáįĪáĮ¥ áĪ®
áī° áĪªáĭ«
áĭ¨ áĪĢ
ĠáĭŃ áĬĸáĪ©
áĭĪ áĪĵ
ĠáĬ¨áī° áī£áĪĪ
áĬ¦ áīµ
áīłáĪĺ áĮĢáĪĺáĪªáĭ«
ĠáĪ²áĭ« áĭ°áĪŃáĮį
ĠáĪĺáĬķáĮįáĪ¥ áīµáĬĵ
ĠáīĢáĮ¥ áĪıáĪį
ĠáīłáĪģáĪĪ áī±áĪĿ
ĠáĬĲáī£ áĪ«áĭĬ
ĠáĭŃ áĭĺáĬķ
áī¶ áīµ
áīĥ áĪĪáĪį
ĠáĬłáĪ° áī£
áĪ¾ áī¹
áĪŃ áĪ½
ĠáīłáĪĺ áĪĪáĭ¨áīµ
Ġáĭĵ áĪĪáĪĽ
áĪŁ áĪī
Ġáī°áĭĪ áĪį
ĠáĪµáī¥áĪ°áī£ áĭİáī½
ĠáĬĥáĮ¢ áĬł
ĠáĪĺ áĬ¨áī°áĪį
áīł áĬĵáĪį
ĠáĪį áĮģáĬķ
áĭ± áĬĵ
áĭ¨áī° áĪĪáĭ«áĭ©
Ġáĭ³áĪŃ áī»
Ġáĭ¨áįįáīµ áĪħ
áĭį áĪŃ
Ġáĭ¨ áĭŃ
áī½ áīµ
Ġáīł áĭ©
áĮĭ áī£
ĠáĮį áĭĽ
Ġáĭ° áĮĭáĮį
Ġ4 2
ĠáĮ¥áĬķ áī³áĭĬ
ĠáĪĨáī´ áĪİáī½
ĠáĪĿáĬĵáĪį áī£áīµáĪĿ
ĠáĬĲ áĬŃ
Ġáĭ« áĭ¨
Ġáĭ« áĮĪáĬĺáĭį
Ġáĭ«áĪµ áīĨ
ĠáĬ¤ áī½
Ġáĭ² áįķáĪİáĪĽáĪ²
Ġáīł áĮĢ
áĪ¨ áĭ³áĬķ
Ġáĭ¨áĪļ áĭ°
áĬł áĮĪáĪŃ
Ġáĭ¨áī° áīĥáĭĭáĪļ
Ġáī£ áĪŃ
ĠáĪĪáĪĺ áĮįáĭĽáīµ
Ġáī¢ áĪį
ĠáĮİáĬķ áĭ°áĪŃ
áīł áĮį
ĠáĭŃ áĮ¥
ĠáĪĽ áįįáĪ«áīµ
Ġáĭ¨áĬĲ áĪĲáĪµ
Ġáĭ¨áĪ° áĪ«
Ġáĭ¶ áĪ®
ĠáĪµáĪŃ áĭĵáī±
Ġáĭ«áĪĿáĬĵ áĪī
ĠáĬ¨ áīµáĬĵáĬķáīµ
áįĪ áĪ°
Ġáĭ¨áī° áĭ°
Ġáĭĵ áīĥáī¤
áĮİ áĪĪ
áĭĪ áĭ°áĭį
áĬłáĪ Ľ
áĪµáī° áĪĿ
ĠáĪĺáĪµ áįįáĬķ
Ġáĭ¨áī£ áĬķáĬŃ
ĠáĬ¥áĬķáĭ°áĪĽáĭŃ áī½áĪį
ĠáĬłáĬķáĭ³áĬķ áĭ¶áī½
Ġáĭ¨áī°áĬ¨áĪ° áī°áĭį
áĮ´ áĭĽ
Ġáĭ¨áĪļ áī³áĭĪáīĢáĭį
ĠáĪļ áĪµáĮ¥
Ġáĭ¨áĬłáĪ ĪáĪĿ
Ġáīłáĭ¨ áīĢáĬĳ
Ġáĭ¨áĪļáĭ«áĪ³ áĭ©
áĪį áĭ©
áī¥ áĪĭ
áī³ áĪª
áī¶ áī³áĪį
ĠáĪĽ áĭ¶
ĠáīĢ áĪĪ
áĪ¥ áĪ¨áīµ
ĠáīłáĪļ áįĪáĪĪáĮĪáĭį
Ġáĭ¨áĪĿáĬķ áĪĪáĭį
áĪįáĮłáĬĵ áĭį
ĠáīĢáĪŃ áīłáĭį
ĠáīĢáĮ¥ áī°áĬĽ
áįĪáĮ½ áĪĿ
Ġ G
áĪį áī°áĭį
ĠáĬ¥áĬķ áīģ
áī¢ áĭİáī½
Ġáĭ¨áĪĽ áīµ
Ġáĭķáĭµ áĮĪ
ĠáĬ¦ áĭ²
Ġáĭ« áĭ°
ĠáĮ¥ áĪ¬
ĠáĬ¥áĭ« áĭ°áĪ¨
áĪ£ áĬ¤
áįķáĪ® áįĮ
ĠáĬ¨áĪĨáĬĳ áīµ
áĭ° áĭįáĬķ
ĠáĪĪ áĪįáĪĽáīµ
ĠáĪĺáĪµ áĭĭáĭķáīµáĬĲáīµ
ĠáīłáĪŃ áĬ«
ĠáĭµáĪŃáĮĬ áī¶áī½
ĠáīłáĭįáĪµ áĮ¡
áĮĵáĭ³ áĬĿ
ĠáĬłáĪµáĮĪáĬķáĭĿ áīłáĭĭáĪį
áįĪ áīħ
áĪŁ áī¸áĭį
áįįáĪ« áĭį
Ġáĭ¨áĮ¥ áĬĵáīµ
áĬ«áī° áī±
ĠáĪĲáĪ³ áī¦áī½
Ġáĭ¨áĮłáīĨ áĪĻáīµ
ĠáĬ¨ áĪĿáīµ
ĠáĪĿ áĪŃáĪĿ
ĠáĪħ áĬķáįĥ
ĠáīħáĪŃ áī¥
ĠáĬł áīłáĪ«
ĠáĪĺ áĭ°áī¥
Ġáĭ¨áĪļ áĮłáīħ
ĠáĪĽ áĮ£áīµ
áĪ½ áĬķáĬĵ
Ġáĭĭ áīµ
Ġáī´ áĪĮáīªáĭ¥áĬķ
ĠáĪ¥áĪŃáĭĵ áī¶áī½
Ġáĭ¨ áĭµáĪŃáĮħáī±
áĪĽ áĭįáĭ«áĬķ
ĠáĪ² áī°
Ġáĭ¨áĬłáĪ °
ĠáĭĺáĪŃ áįĪ
áĭ´áĪŀáĬŃáĪ«áĪ² áĭ«áĭĬ
ĠáĬ¨ áī¦
áĬĴ áĪµáī´
âĢ ĭ
ĠáīłáĪļ áĮĪáĬĿ
áĪĲ áįį
ĠáīĨ áĭ³
áĬ¨áįį áĪį
Ġáĭ¨áĪģ áĪĪáī±
áĭ° áĬŀáī½
áĭ¨ áĪ«
Ġáĭ¨áĪļ áĭĪáĮ¡
áĭķ áĬ¨áĪī
Ġáĭ¨áĪļáĪĺáĮ£ áĭį
áĪĽ áĭĿ
Ġáĭ« áĪĿ
ĠáĭĪáĭ° áĭļáĪħ
Ġáĭ¨áĬĲ áīłáĪ«áī¸áĭį
Ġáĭ°áĪ¨áĮĥ áĬķ
Ġáĭ¨áĪµ áĬ³áĪŃ
áĬļ áĭİáī½
ĠáĪĺ áĭ«
áĮł áĭ«áīĤ
Ġáĭ¨áī° áįĭ
ĠáĬłáĪĺ áĪ°
ĠáĪĢ áĮĪáĪªáī±
ĠáĪ²áĭ« áĭ°áĪŃáĮī
ĠáĬłáĮĭáĮ£áĪļ áĭİáī½
ĠáĬł áī°
áī¥ áĪĪáĭį
áĪļ áĬķ
ĠáĮ¥áīħáĪĿ áīµ
ĠáĮĢáĪŃ áĪĺáĬķ
ĠáĪĪ áĪĨáĬĳ
ĠáĪĬ áĪ°
áĮĤ áĬķáĮį
áĮĪáĪ« áī¸áĭįáĬķ
Ġáīł áĮĲ
ĠáĪĿ áĪĭ
ĠáĪĪáĪĺ áĭ«áĭĿ
áĮĭáĪĪ áĮ¥
áįĬ áīµáĪĿ
ĠáīłáĬł áĭ¨áĪŃ
Ġáī½ áĪĭ
Ġáĭ¨áĪ° áĮł
ĠáĪĽáĭķ áĬ¨áĪī
ĠáĪĺáĮ¥ áīĢáĪµ
ĠáĪĺáĪ³áĪªáĭ« áĭİáī½
Ġáĭ¨ áĬ¨áįįáī°áĬĽ
ĠáĬ¥áĬĵ áĭ°áĪŃáĮĭ
ĠáĬłáī£ áī¶áī½
Ġáĭ¨áĭ°áĪ¨ áĪ°áĭį
ĠáĪ³áĪĿáĬķ áī³áīµ
áīĥáīħ áĬķáĬĵ
ĠáĬ¨ áī¥áĭĻ
ĠáĪµáĪĪ áĬĲáīłáĪ¨
ĠáīĨ áĪŀ
ĠáĪĲ áĪĿáĪĮ
Ġáĭ¨áĭķ áĪĪáīµ
áĮłáĪĽ áī¸áĭį
áĭĭ áĮħ
Ġáĭ¨áĪĺ áĪ¨
áīłáĪ« áĪį
áĭŃáĪįáīģ áĬķáĪĿ
áĪ³ áīµáĬĵ
Ġáīµ áĪĨáĬĵ
ĠáĬ¢ áĭ¨áĪ©áĪ³áĪĮáĪĿ
Ġáī¢ áĬĸáĪ©áĪĿ
ĠáĬ¥áĬķáĭ°áĪļ áĮłáīłáīħ
ĠáĬ¥áĬķáĭµáīµ áĪĨáĬķ
áĬłáĭŃ áīª
áįĨ áī³
áĬĵ áįį
áīĥ áĮłáĪį
ĠáīłáĪ° áįĬáĭį
áĪĿáįĴ áĭ®áĬķ
Ġáĭ¨áįĪ áĪ¨áĬķ
áĬ¨áī³áī° áĪī
áī¥ áĮ¥
áīĥ áĬĿ
ĠáīĨ áĪ®áĬķáī¶áĪµ
áĪı áĬķ
Ġáĭ«áĪ³ áĭ¨
Ġáĭ¨áĪļáĮĪáĪį áĮ½
Ġáĭ¨áĮįáī¥ áįħ
ĠáĪĺáĪµáī° áĭ³áĭµáĪŃ
áĬĹáĬĹ áĪŃ
áĪĽ áĪŃáĭ«áĪĿ
Ġáĭ¨áĪļáĭ« áĬ¨áĬĵáĭį
ĠáĬĲáīłáĪŃ áĬĵ
áĮĤ áĭİáī½
ĠáĪ°áĭį áĬĲáīµ
ĠáīłáĬłáĪ ĪáĪĿ
Ġáĭ¨áĪ¥ áĪįáĮ£áĬķ
áī¥áĭĽ áĪĿ
ĠáīłáĮĪ áĮłáĪŃ
Ġáī° áĮĪáĪĿ
ĠáĭŃ áīł
ĠáĪ² áĬ«áĪĦáĭµ
ĠáĪĪáĪĽ áĮĪáĪįáĮĪáĪį
ĠáĬłáįįáĪªáĬ« áĬķ
Ġáī³áĪµ áī¦
áĮį áĬĲáīµ
áĬŃ áĪĭ
áĬ« áī°áīµ
ĠáĬ¥áĬķáĭ² áĪī
áĮłáīĢ áĪµ
ĠáĬ¨áĬłáĪ ľáĪªáĬ«
ĠáĬ¨áĬłáĪ «áīµ
Ġáĭ¨áĭķ áĭµáĮĪáīµ
ĠáĭŃáĮłáīģ áĪĽáĪį
ĠáĬ¥ áĪĪáīµ
ĠáĬł áĭĪáĮ£
Ġáĭ¨áĪĿ áĭµáĪŃ
ĠáĬ¥áĬķáĭ²áĭ« áĭ°áĪŃáĮį
Ġáī°áĮł áīģáĪŁáĪį
ĠáĬł áīĨáĮ£áĮłáĪŃ
áĪ» áĪ½
ĠáĬħ áī¥áĪ¨áī°áĪ°áī¥
ĠáĪĿáĬŀ áīµ
Ġáĭ Į
Ġáĭ¨áĪļ áĪĨáĬĲ
áĮł áĬĵáĪį
áįĸ áĬķáĪ°áĪŃ
ĠáĭĪáĮ£áī¶áī½ áĬĵ
ĠáĬłáĭµáĬĵ áīĨáīµ
áīł áĬ¥áĭļáĪħ
ĠáĪµ áįĭáīµ
Ġáī³ áĪĿ
áĮĪáĬĻ áĪĿ
ĠáĬ¨áĬ¥ áĬķáĮį
ĠáĪĪáĪļ áĮĪáĬĻ
ĠáĮ¸ áĪİáīµ
ĠáĪĪáĪĽ áĭįáĮ£áīµ
ĠáīłáĪĽ áĮłáĬĵáĬ¨áĪŃ
Ġáī¤ áīµáĬĵ
ĠáĬłáĮĪ áĪĭáĪĪ
Ġáīħ áĪŃáĪµ
ĠáĮĪ áĪĿ
áī°áĪŃ áĬĶáīµ
Ġáĭ¨áįĪ áĮłáĪ¨
Ġáĭ¨áĪĺáĪ° áĪ¨áī°
Ġáī°áĪ½áĬ¨áĪŃ áĬ«áĪª
Ġáĭ¨áĪĺ áĮłáĮ¥
áīģ áĬĵ
ĠáĬłáĪį áī»áĪį
ĠáĪľ áīµ
ĠáĬłáĪ³ áĭŃ
200 2
ĠáĬłáĪµáī°áĭ³áĭ°áĪŃ áĬķ
Ġáī°áĬ¨ áī³áīµ
ĠáĪĽáĭķ áīĢáįį
áĬ¸ áĬĿ
áĬłáĭ´ áĮįáĬķ
Ġáĭ® áĪĲ
ĠáĬ¨áĬķ áī±
áĭĿ áīĥ
ĠáĬłáĪ³ áĭĽáĬĿ
ĠáĬ¨ áĪģáĪī
ĠáĮĪ áĪĺ
áīĨ áĭ©
ĠáĮł áįį
ĠáĮ¨ áĪĪáĪĽ
Ġáĭ¨áī³ áĭ¨
ĠáĪĿáĪ¥ áĬŃáĪŃ
ĠáĪĨáĬĵ áĪĪáī½
ĠáĭŃáĮĢáĪĿ áĪ«áĪį
Ġáĭ¨áĪļ áīĢáĪŃáī¡
ĠáīłáĪ° áĪľáĬķ
ĠáĮŃ áĬķáīħ
áĪ¨áĮĭáĮĪ áĮ¡
Ġáĭ¨áĪĢ áĮĪáĪªáī±
ĠáĮīáĭµ áĮĵáĭµ
áĭį áĭ«áĬĳ
áĪĺ áī³
ĠáĪĻ áĪµáĪĬ
ĠáĬłáīħ áĪĻ
ĠáįĮáĭ´ áĪ«
ĠáįķáĪ¬ áĪµ
ĠáĭŃáĮłáīłáīħ áīłáī³áĪį
ĠáĪĺáĬŃ áįĪáĪį
áĬłáĬķáĭ³áĬķ áĭ´
áĮįáĪ¥ áīµ
ĠáĬ¥ áĮ¥áĪ¨
ĠáĪĺ áĮĢáĪĺáĪŃ
Ġáī° áĪµ
Ġáī³ áĮį
áĮłáĬķ áĬ«áĪ«
ĠáĬłáĭµáĪ« áĮĬ
ĠáĬ¨ áĪ©
áīĭ áī¸áĭį
ĠáīłáĮī áī£áĬ¤
Ġáīł áĭĪáĪŃ
áĬĸáĪŃ áīłáīµ
ĠáĬĶ áīµ
Ġáī°áĪ½áĬ¨áĪŃ áĬ«áĪªáĭİáī½
ĠáĪĽ áĪĪáī±
ĠáĪĽ áĮĪáĪįáĮĪáĪį
áĬ¥ áĭ«áĬķáĭ³áĬķáĭ±
áįĥ áĪ©
ĠáĬłáĪĪáĪĺ áĬĸáĪŃ
áĮ¢ áĬłáīµ
ĠáĪĺáĮį áĭĽáīµ
ĠáĭŃ áĬ¨
ĠáĭŃ áĬ«áĪĦ
ĠáĪĺáĪ° áĪĪáĬĿ
Ġáĭ¨áĪļáĪ° áĮłáĭįáĬķ
Ġáĭ«áīĢáĪ¨ áīłáĭį
ĠáĬ¥ áī¥
ĠáĬł áīĥ
ĠáĬ¥áĪµáĬ¨ áĪļ
ĠáĪģáĪĪ áī±áĬķ
áĮłáī¥ áīĢáĭį
ĠáĬ¥áĬķáĮį áĭ¶áī½
ĠáĬ¨áĭĪ áĬķ
ĠáĮĢáĪĿ áĪ¨áĭĭáĪį
áĮ¨áĪŃ áīĥ
Ġáīµ áĬĵáĮĪáĪ«
ĠáĪĪáĪĺ áĪĺ
ĠáĪĺáĪµ áįĪáĪŃ
Ġáĭ¨áĭĪ áĮª
ĠáĭŃáĪ° áĮ£áĪī
Ġáĭ¨áĪĺáĮĢáĪĺáĪªáĭ« áĭįáĬķ
ĠáĮ ³
áįį áĪĿ
ĠáĬķ áĭĳáĪµ
ĠáĪ³áĭŃáĬķ áĪ³áĭĬ
ĠáĪĪ áĭŃ
ĠáĮīáĭ³ áī°áĬŀáī½
Ġáī£áĪħáĪŃ áĭŃ
Ġáī° áĮī
ĠáĬłáĪ³ áĭµ
ĠáĬłáįĪáįĥáįĢ áĪĿ
Ġ L
áī° áĭĪ
ĠáĬ¥áĬķáĭ° áĪĨáĬķ
ĠáĮ¥ áī¥áīħ
Ġáī¥áĪĶ áĪ®áī½
áī³ áĪĪáĬķ
ĠáĪ° áĪļ
Ġáī£ áĪįáĬķ
ĠáĪ² áĮĢáĪĿáĪŃ
ĠáĪģ áĪĪáĬķáī°áĬĵáĭĬ
ĠáĪĬ áĬĸáĪ¨áĭį
áĬĲáĮĭ áĮĪáĪ©
ĠáīłáĪĺáĬķ áĮĪáĭµ
ĠáĪļáĭ²áĭ« áĭİáī½
Ġáĭ¨áĮĪáĪĪ áįģáīµ
áĪį áīĨ
Ġáīł áī¤áīµ
ĠáĭŃ áĮĪáĬĿ
Ġáĭ¨áĪļ áĭĪáĮ£
Ġáī¥ áĮ¥áī¥
áĮĪáĪĪ áĮĪáĪī
Ġáĭ¨áĮ¥ áįĭáīµ
Ġáĭ«áī°áĬ® áĪ¨
áĭ³ áĮĥ
ĠáįĵáĪŃ áĬ®áī½
ĠáīµáĪĿáĪħáĪŃ áī³áī¸áĭįáĬķ
áĬ«áī° áī°
ĠáĬ¥áĬĵáĭ°áĪŃáĮĭ áĪĪáĬķ
áĪĺ áĭįáĬķ
Ġáĭ¨áĪĺ áĬªáĬĵ
Ġáĭ¨áĪ° áĭİáī½
ĠáīłáĬĲ áīłáĪ©
ĠáĬłáĪ ı
áĮłáīĢ áĪ±áīµ
ĠáĬ¥áĪŃ áĪ³áī¸áĭį
áĮįáĪĪ áįħ
ĠáĬłáĮĭ áĮ¥
ĠáīłáĬłáĬķáĭµ áĬĲáīµ
áĭĺáĭį áī°áĪªáĭ«
Ġáĭ«áīĢáĪ¨ áī¡áīµ
ĠáĭĿáĪŃáĭ« áĭİáī½
Ġáį ²áį
ĠáĪĺ áĮ¡
Ġáĭ¨áī° áĭ«áĭĺ
Ġáīłáī° áĮ¨áī£áĮŃ
ĠáĪĪáĪĽ áįįáĪ«áīµ
ĠáįĪ áĮ£
áĭįáĪį áīµ
ĠáĬķáĮį áĮį
ĠáīłáĬ¥áĪŃáĮįáĮ¥ áĪĿ
ĠáĪĿáĪį áĪįáĪµ
áĭĺ áĭĻ
áĪŀ áĬĵ
ĠáĪĺáĪį áĬ«
ĠáĬłáĪ° áĮ£
201 4
áĬłáĬķáĭ³áĬķ áĭ¶áī¹
ĠáĮĪáįħ áī³
áĬ °
áĭ¨ áĬŃáĪįáĪī
ĠáĮį áĪ«áĪĿ
ĠáĪĿáĬŃáĬķáĭ« áī³áĭĬ
áĪµáī°áĬĵ áĮį
áī¥ áĭ®
Ġáĭ¨áĪļ áįĪáĪįáĮį
ĠáĬŃ áĪĿ
Ġáĭ¨áĪħ áĭĿáī¡áĬķ
áī§ áī¸áĭį
ĠáĬħ áī¥áĪ¨áī°áĪ°áī¡
ĠáĬ¨áĮ¥ áīĤáīµ
ĠáĪĺ áĮĵáĭĿ
áĪ¨ áīµáĬĵ
Ġáĭ« áĪ¸áĬĲ
ĠáĬłáī£ áī±
áīłáīĥ áĭį
ĠáĪĺáĭĿ áĮĪáī¥
Ġáī°áĮĪáĬĿ áī°áĭį
ĠáĬĲ áī¢
áĪ± áĬĵ
Ġáĭµ áĪ®
ĠáĬ¨áĪĽ áĪ³
áī§ áĬķ
áĪį áĬĽáĪį
áĭ° áĪļáĭ«
ĠáĬĲ áīłáĪ«áī¸áĭį
ĠáĭĪ áī³áĭ°áĪŃ
ĠáīłáĬ©áĪį áĪĿ
3 5
áĪ¨ áĭ°
áĭ³ áĭįáĭ«áĬķ
ĠáĬłáĬķ áī°áĬķ
Ġáī°áĭŃ áĭŀ
áĭ¨ áĬ«
Ġáĭ¨áĪļ áīĢáĪŃáī¥
Ġáĭ³ áĭ«áĪµáįĸáĪ«
200 5
ĠáīĢáĪŃ áī§áĪį
ĠáĪĺáĪĿ áĪ«áīµ
áĭĺáĬĲáĮĭ áĪĿ
ĠáĬ¥áĬķáĭ°áĮĪáĪĪ áįģáīµ
ĠáĭŃ áĭŃ
áįĪ áĪ¨áĭį
áĮ£ áĪ«
ĠáĬłáĪµ áĬ¨
ĠáĮĬáĭľ áĬĵ
áįĢ áĬķ
ĠáĪłáĪ į
ĠáĪµáįĸáĪŃ áī¶áī½
áĬ¨ áīł
áĭ± áīłáīµ
ĠáīłáĬł áīħ
ĠáĬłáĬ«áī£áī¢ áĭį
áī½áĪĭ áĪĪáĪģ
ĠáīģáĮ¥ áĪ«áī¸áĭį
Ġáĭ¨ áĮĢáĪĺáĪ©áīµ
ĠáĪĺ áī»áĪį
áĭĽ áī£
ĠáĬłáĮĪáĪį áĮį
áĬ«áĪĦ áĭ±áīµ
Ġáĭ© áĪ®
Ġáĭ¨áī°áīĭáīĭ áĪĺáĭį
ĠáĭŃáĮ¨ áĪĿáĪ«áĪį
Ġáĭ« áĪ¨
Ġáĭį áĭĿ
áĭĽ áĪī
ĠáĬłáĭµáĪŃ áĮĵ
Ġáīłáīµ áĮįáĪ«áĭŃ
ĠáĬ¨áĬĲ áīłáĪ©áīµ
ĠáĬ¥áĬĵáĭį áīĥáĪĪáĬķ
áĮ¥ áīłáīµ
ĠáĪĿ áĪ½
áĪ¥ áĪĭáĪ´
áĭĵ áĭĽ
ĠáĬ¥áĬķáĭ°áĪļ áĪ°áĮ¥
áĪĦ áĭ³
ĠáĪµáĪĪ áĪĨáĬĳ
Ġáĭ«áĪĪ áī½
áĭ° áī¡
áĭ° áĪ°áīµ
áĮł áĮ¡
áīĨ áĪĽ
áĬ¤ áĬķ
Ġáī°áĬĵ áĮĪáĪ¨
áįĥáįĢ áĪŃ
áĭ« áĬĸáī½
áī¢ áĬĶ
ĠáĪĥ áĮĪáĪŃ
ĠáīĨ áĪ®
áĭ ł
ĠáĬ¥áĬķ áĮ¨áīµ
áĭĭ áĪŃáĭ«
ĠáĪĪáĪĺ áĮįáĪĪáĮ½
Ġ4 4
Ġáĭ¨áĪĽáĭŃ áī³
ĠáĬłáĮįáĬĿ áī·áĪį
ĠáīłáĪ º
áĪª áĬĵ
ĠáīłáĬł áĬ«áĪį
áĪĦ áĪŃ
ĠáĮł áī£áī¥
ĠáĪĺáĪµ áįĭáįĭáīµ
ĠáĬłáĭµáĪŃ áĮī
ĠáĪŀ áĭ´áĪį
áĭĪáĭ° áįĬáīµ
Ġáĭ©áĬĴáī¨áĪŃáĪ²áī² áĭį
ĠáĬĲáīłáĪ¨ áīłáīµ
áĮĪ áĮ£
áĭµ áĬ«
ĠáĭŃ áĪĺáĪĪáĬ¨
ĠáĬ¥áĭ¨áī° áĬķ
ĠáĭĺáĪĺ áĭµ
ĠáĪµáīµ áĪĨáĬķ
áĪĺáĪĪáĬŃ áī°áĭį
ĠáĭĪáĪµ áĭ°áĭį
ĠáĬĴ áĭį
ĠáĬ¨ áīµáĪĿáĪħáĪŃáīµ
ĠáĪĨ áĬķ
ĠáĬłáĪį áĬ©
ĠáĬłáĬ« áĪĭáīµáĬķ
Ġáī°áĬ¨ áįį
áĪµáī³ áĬķ
Ġáĭ¨áĬłáĪĿ áĪµáīµ
ĠáĪ°áĪ« áī°áĬĽ
áĭ« áĪĪáĬķ
áī£ áĪĪáī½
áĬ¥ áĬŃáīµ
ĠáĬłáĪµ áĪĺáĭĿ
ĠáĮĢ áĮįáĬĵ
Ġáĭ¨áĪ« áĪ³áī¸áĭį
ĠáĬ¨áĪļáĭ« áĪµ
Ġáĭ¨áĪļáĮĪáī£ áĭįáĬķ
ĠáĪĨáĪµáįĴ áī³
ĠáĬ¦áĪ® áĪļáĭ«
ĠáĬ¥ áī½áĪĭáĪĪáĪģ
ĠáĮĪ áĮ¥
Ġáĭ² áĭ«
ĠáĪĽáĭ³ áīłáĪªáĭ«
ĠáīłáĪĤ áĭ°áīµ
Ġáĭ¨ áĮĲ
Ġáĭ¨ áįĵáĪŃáĪĭáĪĽ
áĪ³ áī±
Ġáī£ áĭĪáĮ£áĭį
áīĢáĪŃ áī¡áīµ
ĠáĬª áĪ³áĪ«
ĠáīłáĪ¥ áĬĲ
Ġáĭ¨áĪĽáĪħ áīłáĪ«áĭĬ
ĠáĬłáĪµáī°áĭ«áĭ¨ áī³áī¸áĭįáĬķ
áĭŃ áĬ¸
áĬŃ áįĪáīµ
Ġáĭ« áĭµ
ĠáĬ¢ áĭ«
ĠáĪ³ áĪĿ
ĠáĭĵáĪĺ áī³áīµáĬķ
ĠáĬłáĬ« áĪĤ
áīĢáĪĺ áĮł
Ġáĭ¨áĪļáĪ° áĮ¡áīµ
ĠáĪĺáĬķáĮįáĪ¥ áīµáĪĿ
ĠáĮ¥áīħ áĪµ
Ġáĭ¨áĬ¨áī°áĪĽ áĭĭ
ĠáĪ¬ áĭ²áĭ®
áī¸ áĪŃ
áīĢ áĬĽ
Ġáĭ¨áĪĽ áĮįáĬĺáīµ
ĠáĪĺáĪĨáĬĳ áĬķáĬĵ
ĠáīłáĪį áĪĽáīµ
Ġáĭ°áĬķáīł áĬŀáī½
ĠáīłáĪĽ áĬħ
ĠáĪĺáīĨ áĪ«
áĪį áįī
áĪ° áĪĭáĪĿ
Ġáĭ¨áī£ áĪħ
ĠáĭŃ áĪĺáĪ¨
Ġáĭ¨áī° áīĭ
áĬłáĪ ī
ĠáĬ¥áĬķáĭ°áĪļ áĭ°áĪ¨áĮį
ĠáĬłáĪµáī° áĭ³áĭ³áĪª
áĬ³ áīµ
áĮĪáĪ« áī±
áįķ áĪ¬áĭļáĭ³áĬķáī±
ĠáĬĲáĮĪ áĪ©áĬķ
ĠáīłáĪħ áĭŃáĭĪáīµ
Ġáĭ¨ áĬĸáĪ¨
ĠáĬł áĭĺáĮĭ
ĠáĬłáĪ ª
Ġáĭ¨áĪĺ áĬ¨áĪĭáĬ¨áĪį
áīłáĪ¨ áĬŃ
ĠáĬłáĭ³ áĪĽ
áĭĸ áĬķ
ĠáĭŃ áĬĲáĮį
áĬ« áī½áĪģ
áīĨ áĪĺ
áĪĪ áĬĲáĮĪáĪ©
ĠáĭĪ áĬª
áĭ¨áĭį áĮŃ
ĠáįĢ áĮ¥áī³
ĠáĬ¥áĬķ áĬ©
ĠáĪĽ áĬ¥
ĠáĪĽ áĬŃáīłáĪŃ
áĪ® áī»áī¸áĭį
áĮłáĬĵ áīħ
áĮĪáĪį áĮĪ
ĠáĪĺáĭµáĪĥ áĬĴ
Ġáĭ¨áĭĪ áĪŃ
Ġáī°áĭĪ áĭ³áĭ³áĪªáĭİáī½
ĠáĪĬáĭ« áĭ°áĪŃáĮį
Ġáīłáĭį áĪĥ
ĠáīłáĬĥ áĭŃáĪį
ĠáĬ Ģ
áĬķ áĮ»
ĠáĪ° áĮł
Ġáī³ áĮĭ
áĭĻ áĬķ
áĪĭáĭŃ áī³
ĠáĬłáīµáĪĮ áī¶áī½áĬķ
áīłáĪĭ áĪ¸
ĠáĭŃáĪĦ áĭį
ĠáĪįáĮĨ áī»áī¸áĭį
áĭ¨áĬłáĪ ľáĪªáĬ«
ĠáĬłáĬķ áī½áĪįáĪĿ
Ġáĭĭ áĬķ
ĠáĬłáįįáĪªáĬ« áĭįáĭ«áĬķ
áĮłáī£ áīłáīħ
ĠáĬ¥áĬķáĭ°áĪĮ áĪĪáĭį
áīłáīĢ áĮ£áĭŃ
ĠáĬŃ áĬķáĭµ
áĮłáĪ« áī¸áĭį
áĭ³áĪļ áĭį
áĪ« áī½áĬķáĬķ
áī£ áīµáĬķ
áįį áĪ¨áĪµ
áĪĻ áĪĭáīµ
áĮĥ áĪĿ
ĠáĪģáĬĶáī³ áĭįáĬķ
Ġáī°áĭĪ áĭ«áĭŃ
Ġáįİ áīħ
Ġáĭ«áĮĪáĬĽ áĪī
ĠáĬĲ áĪĲáĪ´
áĪģ áīłáīµ
Ġáī£ áĪ«áĬŃ
ĠáĪ² áĭĪáĮ£
áĮĥ áĬķ
ĠáīłáĪĽ áĭ«
ĠáīłáĪĽ áĮįáĬĺáīµ
Ġáĭ¨áĪĽ áĮ£
ĠáĪĻ áĭ«áĭĬ
Ġáĭ°áĬķáīł áĬĽ
ĠáĪĺáī» áĪīáĬķ
ĠáĭŃáĪµáī°áĭĭ áĪĭáĪį
ĠáīµáĬĵáĮĪáĪ« áĪĪáī½
áĪ°áĪĽ áī¸áĭį
Ġáĭ¨áĪĮ áĪĪ
ĠáĪ°áĬķ áĭ°áīħ
ĠáĬ¢áĬķáī¨áĪµáīµ áĪĺáĬķ
ĠáĪĽ áĪĽ
áī¦ áĪį
ĠáĬ« áĪ¬
ĠáĬłáĪĺ áĮ£
ĠáĪŀ áī°
Ġ4 3
ĠáĬł áĮ½
áĭĭ áĪĪáĪħ
ĠáĮĢ áĮį
Ġáī«áĭŃ áĪ¨áĪµ
áĭĪ áĬ¨áĪį
áī½áĬķ áĪĿ
áī¡ áĭķ
áĮħ áĪĺáĬķáīµ
ĠáĬ¥áĭ¨áī° áĪłáĪ«
ĠáĪĿáĬŃáĬķáĭ« áī±
ĠáīłáĪĿ áĪŃ
áĭĽáĪ¬ áĪĿ
ĠáĪĿáĪŃáĮ« áĭį
ĠáīłáĪĽ áĪ¸áĬĲáįį
Ġáī¥áī» áĪĿ
Ġáī°áĪĺ áĭµ
Ġáĭ¨áĪĽáĭŃ áī½áĪį
ĠáĬ¥áĬķáĭ°áĪļáĮĪáī£ áĪĿ
ĠáĬłáĪ³áĪį áįİ
ĠáĪĽ áĪĺáĪįáĬ¨
ĠáĪ² áīĢ
ĠáĪ² áī²
ĠáĪļ áĭĽáĬķ
ĠáĬ¨áĪĺ áĪĨáĬķ
ĠáĭŃáĮłáīħ áĪ³áĪī
ĠáĮĪáīł áĭ«áĭį
áį» áį
Ġáĭĺ áĪĪ
áī¥áĪŃ áĪĥáĬķ
ĠáīłáĬ¥ áĪµáĪ«áĬ¤áĪį
ĠáĪ« áĪ³áī½áĬķáĬķ
áĮĪáī¡ áīµ
áĭĺáĭĭ áĭĪáĪŃ
ĠáĪįáĪĿ áĪĿáĭµ
ĠáĬłáĪµáĬ¨áī£ áĪª
Ġáĭ¨ áĪ¨áĮħáĪĿ
ĠáĭŃ áī½áĪį
ĠáĮĪ áī¡
ĠáĪĪáĪĽ áĪµáįĭáįĭáīµ
ĠáĬłáĭµáĪŃ áĮį
ĠáĬłáīĢ áįĭáĭĬ
Ġáĭ¨áī°áĪ° áĮłáĭįáĬķ
Ġáĭ¨áī°áĪ° áĬĺáĭį
ĠáĬŃáī¥áĪ¨ áĭĪáĪ°áĬķ
e c
áĬŃ áĬĵ
áĭ¶ áĪļáĬĴ
ĠáīłáĪĿ áĬķáĪĿ
áĭ°áĮĪ áįĪ
ĠáįĪáī°áĬĵ áĭİáī½
áī¸ áĮĪáĪ©
áĭĵ áī¥
áĪľ áĭ³
áĮĢáĪĿ áĪ©
ĠáĮĢáĪĺáĪŃ áĬ©
ĠáĬ¨áĮį áĪĿáīµ
áĮīáī£áĬ¤ áĭį
ĠáĪĪ áĪ½
Ġ9 0
áĬ¨áįĭ áįĪ
Ġáĭ²áĭĽ áĭŃáĬķ
Ġ W
áĪĽ áī½áĪģ
ĠáĬ¨ áĬĥ
Ġáĭ¨áĪµ áĪįáĮ£áĬķ
ĠáĬłáĪĿáĪ« áī¾áī½
Ġáīł áīłáĪŃáĬ«áī³
ĠáĪĺáĪĿ áĪªáĭ«
ĠáĪĺáī° áĪĽáĪĺáĬķ
ĠáĬłáĮįáĬĿ áī°áĭį
áĬ¨áįĪ áĪĪáĭį
ĠáĭĿáĮįáĮħ áī¶áī½
áĪĪ áĪŃ
ĠáĬ¥ áĪ°
áĪĭ áĪ³
ĠáĪ² áĪ°áĮ¥
áĮħ áĮį
ĠáĪĪáĪĺ áĬķáĮįáĪ¥áīµ
ĠáĬłáĬķ áī¥
áĭİ áī¿
200 4
ĠáĬ¦ áįį
áĪĿáįĴ áĭ©
áĭ¨áĪļ áĪĪáĭį
Ġáĭ¨áī¢ áĭĿáĬĲáĪµ
ĠáĬ¨áĭµ áĪħáĬĲáīµ
Ġáĭ³áĮį áĪĺáĬĽ
ĠáĪĪ áĮī
áĭ¨ áĪĿáĬķ
Ġáĭ¨áĪļáĭ« áĬĲáĪ³
ĠáĬłáĪį áĬĲ
áĮĪáĬĺ áĪĿ
Ġáĭ¨áĭĪáĮ£ áī¶áī½
ĠáĪĺ áĪĥ
ĠáĬ¥áĬķáĭ² áĮĪáī£
Ġáĭ¨áĬ¨áī°áĪĽ áĭį
Ġáĭ¨áĬħ áī¥áĪ¨áī°áĪ°áī¥
áĪµáĬŃ áĪĮáīµ
áįĭáī¥áĪªáĬ« áĭį
Ġáī°áĪ¨áĮĭáĮį áĮ§áĪį
áĭĪáĪĵ áīµ
Ġáĭ¨ áĮ¨
áĪĺ áī°
áĪĺ áĬķáĭµ
áĪĬ áī²
ĠáīłáĮ¥ áĬĵáīµ
ĠáĪĬáĭ« áĪ³
ĠáīłáĪĺáīĢ áĮłáĪį
ĠáĪ°áĪĽ áĭ«áĭĬ
Ġáĭ ļ
Ġáĭ¨ áī¡áĭµáĬķ
áĭ¨ áĮį
áĪī áīµáĬķ
Ġáĭ¨áĬł áī¶
ĠáĪ°áĭį áĭ¬
ĠáīłáĪĽáĪµ áĪĺáĭĿáĮĪáī¥
Ġáĭ¨áĪĿáĪŃ áĪĺáĪ«
áĭį áīĢáĭį
áĮł áīħáĪĿ
ĠáīłáĪĺ áĬķáĮįáĪ¥
ĠáĬłáĪĪ áī¥áĬĿ
ĠáīłáĬł áĭ²áĪ±
ĠáĬłáĪµáī° áĪ³áĪ°
áĮ¦ áĪ½
ĠáĮĪáī¥ áī°áĭĭáĪį
Ġáĭ¨áĪļáīĨ áĮłáĪŃ
Ġ H
áĮĢ áĭį
Ġáĭ¨áĪĺ áīĢ
ĠáĭĿ áĪĿáĭµáĬĵ
ĠáĪĽáĪµ áĮ¨áīł
ĠáīłáīĢ áĭµáĪŀ
ĠáĪĺáĪĿ áĮ£áī±
áĮĢáĪĺáĪŃ áĭ«áĭį
áĭ ¦
áīł áĭĽáĪ¬áĭį
ĠáĬ¨ áĭĪáĮ£
áįĪ áĬĳ
ĠáĪĬ áīĥ
áĪħáĬķ áĬĲáīµ
ĠáīłáĬ¥ áĬ©áĪį
ĠáĮ¨ áĪĿ
ĠáĬłáī£ áī£
ĠáĪ¥áĪŃáĭĵ áī±áĬķ
áĬļ áĪħ
ĠáĪĽáĪ°áĪį áĮłáĬĽ
áĭ¨ áĬĲ
Ġáĭ¨áĪļ áĭ°áĪ¨áĮī
áĮĪáĪŃ áĪĺáĭį
ĠáĪĪáĪĺ áįĪáĮ¸áĪĿ
áīĨ áĪ¨
ĠáĬłáĬķáĭµ áĭ¬
ĠáĬłáĮĪáĪį áĮĭáĭŃ
Ġ4 00
ĠáīłáĮ¥ áĪ«áīµ
ĠáĪĺáī¥ áīµáĬĵ
áĪł áĭĬ
áĮ¥áĬĵ áī±
Ġáĭ¨áĭ°áĪ¨ áĪ±
ĠáįĪ áįħ
áĪĿ áįħ
áīĢ áīµáĬķ
áĬ¥ áĪ³áī¸áĭį
ĠáĪ° áĭįáĬķ
Ġáĭĺ áįĪáĬķ
Ġáī°áĪĺ áĮ£
ĠáĭįáĮ¤ áī¶áī½áĬķ
ĠáĪ» áĪĿáįĴáĭ®áĬķ
áĮłáĪĪ áĭ«
áĭĺáĪĺ áĬĵáĭĬ
Ġáĭ«áĪµáī³áĭį áĪ³áĪī
ĠáĪĺ áĬ¨áīłáĪŃ
ĠáĬĲ áī£áĪŃ
ĠáĪ° áĬŀ
ĠáĬ¥áĭ« áĬ¨áĬĵáĭĪáĬĲ
áĮłáĭ¨ áīĢ
ĠáĪħáĭĿáī¥ áĬķ
ĠáīłáĪĽáĪ³ áĭ¨áīµ
2 6
3 3
áĪĽ áĬķáĪĿ
áĬ¨ áĪĻ
áĪ° áĪĿ
Ġáīłáī° áĬ¨áī³áī³áĭŃ
áĮ¨ áĪŃáĪµ
Ġ19 8
Ġáĭ¨áĮİ áĭ³áĬĵ
Ġáĭ´áĬ¤ áī³
áī° áĭĭ
áĪ« áĪĪáĪģ
áĪĭ áīĢáĪį
ĠáįĪ áīµ
ĠáĪĮ áĪĭáĪĿ
ĠáĪģáĬĶáī³ áĪĿ
Ġáĭ¨áĮį áī¥áĪŃ
ĠáĬ¢áĬķ áī¨
ĠáĮŃáĬķ áīĢáīµ
Ġáīł áī¥áĪĶáĪ«áĭĬ
Ġáī° áĮĪáĬĵáĬĿ
áĭ³ áĪª
Ġáīµ áī¶
áĮłáĭŃ áīģ
Ġáī¥áĪį áĮ«
Ġáĭ¨áī°áīĢáĪĺ áĮł
áĪĭ áĪĭáĭį
áī² áīŃ
áī¤ áī°áĪ°áī¥
ĠáĪĺáĬķáĮĪ áĪ»
ĠáĬ¥áĬķáĮį áĪĬ
ĠáĭŃáĮłáīĢ áĪ³áĪį
Ġáĭ¨áĪģáĪĪ áī°áĬĽ
ĠáĬ¥ áĬłáĬł
Ġáĭ¨áĪļ áĪĦáĭµ
áĬ¥ áĪ«
ĠáĪĬ áĪ°áĮłáĭį
áĪĪ áįĪáĭį
ĠáĮ ¾
áīł áĬŃáĪįáĪī
ĠáĮ¥ áĮĪáĬĵ
áĭ· áī¸áĭį
ĠáĪĽáĪŃ áīĨáĪµ
ĠáĬ¢áĬķáĮĤ áĬĲáĪŃ
Ġáĭ¨ áĭĿ
Ġáīł áĮĪáĭĽ
áĪĽ áĬĵ
áĭ³ áįĬ
ĠáĪĬ áĭ°áĪŃáĪµ
Ġáįį áĮ¡
ĠáĪĽáĪħ áīłáĪ«
áĬ¨áīłáĪ¨ áĭį
ĠáĭµáĪħ áĬĲáīµáĬķ
Ġáĭ¨ áĬŃáĪĪ
áĪ« áĮ®áī½
áĮİ áĪ«
ĠáĬłáī£ áĭŃ
áĪ»áĪ» áĪĪ
Ġáī°áĪĺáĮ£ áĮ£áĬĿ
ĠáĪ² áĪĺáĮ¡
ĠáīłáĪĺ áī£áĪį
Ġáīµ áĭį
áĭ°áĭį áĪĿ
ĠáīłáĪĿ áī³
ĠáĬĥáĪĭáįĬ áĬĲáī±áĬķ
Ġáĭ¨áĪĽáĪħ áīłáĪ¨áĪ°áī¥
ĠáĬł áĮ¥áĪŃ
Ġáī° áī£áī¥
áĭĺ áĬĲ
ĠáĬłáĪµ áĪĺáĪµ
ĠáĪļ áĪµáī°áĪŃ
Ġáĭ¨áĪ¥ áĪŃ
Ġáī¥áĪį áĪ¹
áī° áĪª
ĠáĪĺ áĪĺáĭĺ
ĠáĪĽ áĪ»áĪ»áĪį
ĠáĪį áī¡
ĠáīłáĬł áĮĪáĪįáĮįáĪİáīµ
ĠáĪħ áĪįáĪĿ
Ġáĭľ áĮĲáī½
Ġáī°áĬ¨ áĬĵáĭį
áīĢáĮ¥ áĪīáīµ
Ġáĭ¨áĪļáįĪ áĮ¥áĪŃ
Ġáīłáī¥ áīĥáīµ
áĪį áĭįáĬĵ
ĠáĬł áīģ
ĠáĬł áĬĲáĮĭ
áĪļ áĭį
ĠáĪ° áĪ«áĭĬ
áįĬ áĭİáī½
Ġáīłáīł áīĤ
Ġáĭ¨áĮĪ áĭĽ
ĠáĪĿáĪµ áĪį
Ġáī£áĪī áīłáīµ
ĠáĪĥáĪ³ áī¦áī½
ĠáĪĺ áĭĪáĪ°
ĠáĬ¢ áĪ³áĭŃáĭ«áĪµ
Ġáĭ¨áĬłáĪ ĽáĪ«
ĠáĮ¨ áĪĿáĪ¨áĭį
ĠáĭĵáĪĪáĪĿ áĬķ
áīµáĪŃ áįį
ĠáĬŃáĪĪ áī¡
Ġáī£áĪĪáĪµáĪįáĮ£ áĬĵáīµ
áīł áĭļáĭ«áĬķ
áīħ áĪĪ
ĠáĬłáĭŃ áĭĺáĬĲáĮĭáĪĿ
ĠáĬ¥áĬķáĭ°áĪļ áĪĪáĭį
ĠáĬłáĪį áī³
Ġáĭ¨áĪļáĭ«áĪµ áįĪáĪįáĮĪáĭį
ĠáĬłáīħ áĪ«áī¢áĭ«
Ġáĭ¨áī°áīĢáĪĺ áĮ¡
4 5
ĠáĪĺ áįĪáĮ¸áĪĿ
áįĭ áįį
ĠáĮĪáī¥ áī·áĪį
ĠáīłáĪĮáĪİáī½ áĪĿ
ĠáĪ°áĪŃáīª áĪµ
ĠáĬ¥ áĪ¨áįįáīµ
ĠáĬ¨ áĬ¥áĬķ
áĪĻ áĪĽáĬķ
Ġáĭįáĭµ áīħ
Ġáī°áīĭáĪĽ áīµáĬĵ
Ġ áĮĪáĪŃ
ĠáĭŃ áī³áĭŃ
áĬ« áĭĬ
Ġáĭµ áī¥
áĭ© áīłáīµ
Ġáĭ¨áīµ áĭ³áĪŃ
áĬ¥áĬķáĭ° áĪļ
ĠáĭŃáĪĦ áĬķáĬķ
ĠáīłáĪĺáĬķáįĪ áĪµ
ĠáĬ¥ áĪĭáĪĪáĪģ
Ġáĭį áĪĢ
áĪŀ áĬ¨áĪŃ
ĠáīĢ áĬĲ
áĬłáĪĿ áī£
ĠáĭµáĬķ áĮĪáī°áĬĽ
Ġáĭ«áĪ³ áĪµ
Ġáī£áĪĪáĪĺ áĬĸáĪ©
ĠáĬłáĬŃáĪ² áĭ®áĬķ
Ġáīł áįħ
ĠáĮ¥ áĮį
ĠáĪĽáĭķ áĬ¨áĪĭáĭĬ
Ġáįįáīµ áĪħ
Ġáĭ¨áīłáĬ© áĪīáĬķ
Ġáĭ¨ áĭĽ
ĠáĬ¨ áĪĮáĪĭ
Ġáī° áĭķáĪĪáīµ
ĠáĭŃ áįĪáĪįáĮĭ
áĪŃáĪĿ áĭ«áĪµ
áĪĭáĪĪ áįīáīµ
ĠáĪĺáĬķáĮĪ áĭ±áĬķ
áĮįáĭļ áī¢
Ġáī°áīĢáĪĿ áĮ§áĪį
Ġáĭ¨áĪļáĬ¨áī° áĪĪáĭįáĬķ
ĠáĪµ áįĶ
Ġáĭ¨áĬł áĭŃ
Ġáįį áįģáĪĿ
ĠáīłáĪ° áĪĭáĪĽáĭĬ
ĠáĪĺáī³ áĪ°áī¢áĭ«
201 2
ĠáĬŃáįī áĬĽ
Ġáĭ« áĭ°áĪŃáĮī
Ġáĭ«áĪ³ áĭ«áĪī
Ġáĭ¨áīĢáĪ¨ áī¡
ĠáĬ¨ áĪĻ
Ġáī° áĮ£
áĭĭ áĮĭ
áĭĭ áĪ½
ĠáĬŃ áĪ¨áĪĿáīµ
ĠáĭĪáĭ° áī¥
áįī áīłáīµ
ĠáĪĻ áīĢáīµ
áĪłáĪ¨ áīµ
ĠáĪĺáĪĪ áĬªáĭ«
Ġáī°áĪĺáĪį áĪ°áĭį
Ġáī°áĭ°áĪ« áĮħáī°áĭį
ĠáĭŃáĪ¨áĭ³ áĪį
Ġáī°áĪµáĪĽ áĪļ
Ġáī° áĭ³
Ġáĭ¨áĪļ áĬĵáĮĪáĪ¨áĭį
Ġáĭ¨áī° áĬĵáĮĪáĪ¨
ĠáĪ° áĬłáīµ
Ġáī£ áĪįáĬĵ
áĪ°áĪĽ áĪ«
áī¾ áī¹
Ġáīµ áĮįáĪ«áĭŃ
Ġáĭ¨áĪĺ áĪ°áĪĪ
ĠáĬª áĭ³
ĠáĪĽáĪµáī³áĭĪ áĪ»
Ġáīµ áĮįáĪī
áĪ½ áĬĵáĪį
áĬķáĮį áĪµ
ĠáĪĽáĪµ áĪĺáĭĿáĮĪáī¥
ĠáīłáĪ° áĭİáī½
Ġáĭ¨áįĪ áĮłáĪ¨áĭį
áĬ¨áī¥ áĪ©
áĭ°áĪ¨áĪ° áī£áī¸áĭį
Ġáĭŀ áĪŃ
ĠáĬ¥áĪŃáĪĿáĮĥ áĭİáī½
ĠáĬłáĪĪáĪĽ áĭ¨áĪģ
Ġáī°áĮĢáĪĿ áĪ¯áĪį
áĪĺ áĮĢáĪĺáĪªáĭ«
áĪ« áĬķáĬĵ
áĮ¥ áĪ¬
áĪ² áĬ«
ĠáĮİ áĪįáī¶
áĮ½áĪĲ áįī
Ġáĭľ áĮİ
ĠáĪĦ áĭ±
ĠáĪĢáĮĪ áĪ«áĭĬ
ĠáīłáĪĽáĪħ áīłáĪ«áĭĬ
a s
Ġáĭ¨áī° áĪĽáĪ¨
áĬłáĪ ŃáĪ¶
Ġáīłáī° áĪ«
ĠáĬ¤ áĪĿ
ĠáĬ¨áī°áĪĽ áĭĭ
Ġ4 1
ĠáĪĺáĪĪ áĭ¨áīµ
ĠáĬłáīħáĪŃ áī§áĪį
Ġáī°áīĭáĪĽ áī±
ĠáĬĲáĮĪáĪ¥ áī³áīµ
ĠáĭŃ áĮłáįĭ
Ġáĭ¨áī° áĪ³áī°áįī
áĪªáĭ« áī¸áĭį
áĮłáīł áīĤáĭ«
áī¶áī½áĬķ áĬĵ
ĠáĬ¨áĪĨáĬĲ áĭį
Ġáįħ áĪģáįį
Ġáīłáĭķ áĭµáĪľ
áĪ¨ áĪĻ
Ġáī° áĬķáīĢáĪ³
Ġáĭ¨áĪĺ áĮĢáĪĺáĪŃáĭ«
ĠáĬ¥áĬķáĭ°áĪļ áĪ°áĪ«
Ġáĭ¨áĭĪ áĭŃáĬķ
ĠáĪĪáĪĽáĪµ áīĢáĮłáĪį
Ġáĭ¨áĭ¨ áĪ«
Ġáĭ¨áĪļ áĪĺáĪĪáĬ¨áīµ
áīłáĪ ´
ĠáĬłáīħáĮ£áĮ« áĭİáī½
Ġáī£áĪĪáī¤ áī¶áī½
áĪ® áĮ¥
ĠáĪĿ áĮįáī£
áĬĸ áĪ«áīµ
ĠáĪģ áĪ´áĬķ
áĪ» áĬķáĮī
Ġáī°áĪĺ áĪµáĪŃ
Ġáī¤áī¶áī½ áĬĵ
áĪį áĪį
ĠáĪĪáĪĺ áĮĢáĪĺáĪŃ
áĭ¶ áĪĿ
ĠáĮł áįĭ
áĬłáĬķ áĭ°áĬĽ
ĠáĮĨ áĬķ
ĠáĪĺáĮ½áĪĶ áīµ
áĪĿ áīĢáīµ
áĪĭ áĬĵ
ĠáĪĽ áĬĲáĭį
ĠáĪĽ áĬ«áĪĦáĭµ
ĠáĪĽ áĭĺáĮĭáĮĢáīµ
ĠáĬ¥áĬķáĭ² áĪ°áĪ©
áĪĭáĪĪ áįĬáĭ«
Ġáįİ áĪ¨áĪĿ
ĠáĬ¥áĪĿ áī¥áĭĽáĪĿ
ĠáįĬáĪį áĪŀáī½
ĠáĪĺ áīħáĪ¨áī¥
ĠáĪ² áĬĲáĪ³
ĠáīłáĪĺ áĪ³áĪ°
ĠáĬ¥áĭ¨ áĪ°áĮł
ĠáĪĺáĭµáĪ¨ áĬ©
áīłáĪ° áī¡
ĠáĪĺáĮĢáĪĺ áĪ©áĬķ
áīł áĮİ
áīĢ áīģ
áĬłáĪ «áīµ
Ġáī¢ áĪµ
áīµáĬĵ áĬķ
áĬĭ áī¸áĭį
áĪŁ áĬķ
ĠáįĮ áĪµáī²áī«
áĭ° áĪµáīµ
ĠáĪĺ áĮĪáĬķ
Ġáī° áĮ¨
áī¶ áĪª
ĠáĬ¥áĬķáĭ° áĬĲ
ĠáĮĪ áĭµ
ĠáĬ¥áĬĵ áĮĪáĬĽáĪĪáĬķ
áĪĺáĪį áĪ±
ĠáĪĺáĬķáĮįáĪ¥ áī±áĬķ
áĭ« áĬķáĪĿ
áĬŃ áĪ«áĪī
áĭ® áĪŃáĬŃ
áī´ áĮĮ
Ġáĭ«áĪĪ áī¥áĬķ
áĬĲáĪŃ áĮĤ
áĪŃ áĮĭ
áĪ« áĭįáĬķ
ĠáĭŃ áĭ°áĪ¨áĮį
Ġáī£ áĭ«
ĠáĬłáĪĪ áĬĵ
Ġáĭ«áĪĪ áī½áĭį
áĭ°áĪ¨áĮĪ áĭįáĬķ
201 3
Ġáĭ¨áĮī áī£áĬ¤
ĠáĭµáĪ¨ áĮĪ
ĠáĭŃáĪłáĪ« áĪį
ĠáĬł áī³áĭį
Ġáīħ áĮ¥áĪŃ
ĠáĪĺáĬķáĮįáĪ¥ áīµáĬķ
Ġáī°áįĪ áĮ»áĪļ
ĠáĬ¢áĬ®áĬĸáĪļáĭ«áĭĬ áĬĵ
áĭ« áĭķáīĨáī¥
ĠáĭŃ áĪĪáĬĽáĪį
áĮĭ áī¥
áĪĽáĪª áĭį
áįĢ áī£
áĭĭáĬķ áĮ«
ĠáĪĺáīĢ áĭ¨áĪŃ
Ġt o
áĬł áĭ²áĪ±
Ġáīħ áĬĿ
áĪĭáī¸áĭį áĬĵ
áĭ³áĮħ áĬĲáīµ
Ġáĭįáĭµáĭµ áĪ®áī½áĬķ
áĪĪ áĭ©
áĪ¬ áĭį
ĠáĪħ áĮİáī½
Ġáĭ¨áĮį áĪĪ
áī³áĭ° áĪ«áĭĬ
áįĵáĪŃáī² áĭį
ĠáīłáĬ¨áī°áĪĽ áĭį
ĠáīµáĮį áīłáĪ«
Ġ h
Ġáĭ¨ áĪŃ
áĪĿ áĬĳ
Ġáī° áĭ°áĪ¨áĮĪ
ĠáĭŃ áĮĪáĪĪ
áĮĭ áįį
ĠáĪĽ áĬŃáĪ°áĬŀ
áĬĴ áĪ³
ĠáĪĺáĪĺáĪªáĭ« áĭİáī½
áīłáĬĲ áĮĪáĪ«áī½áĬķ
ĠáĬłáĪĿáĬĵ áĪĪáĪģ
áĬ ¹
áĬķ áĬ¦áīµ
Ġáīł áĮįáī¥áįħ
áĬ« áī½áĬķ
Ġáī³ áĪĿáĪ«áīµ
Ġáĭ¨áĬłáĪ Ī
Ġáĭ¨áĪį áĮħ
ĠáĪ¶ áĪĽáĪĬáĭ«
ĠáīłáĭµáĬķ áĮĪáīµ
áī£ áīłáĪªáĭ«
Ġáĭ¨áī° áĭĺáĮĭáĮĢáĭį
áĭľ áĪĽ
áĪĢ áī¥áīµ
Ġáĭ¨áĭį áĭŃáĭŃáīµ
Ġáĭŀ áĪ®
ĠáīłáįĪ áīĥ
ĠáĪĺáĪįáĬ¥ áĬŃ
2 9
Ġáĭ¨ áĭ©
áī° áĬĿ
Ġáīł áįĵ
ĠáĪĺ áĭĿáĬĵáĬĽ
Ġáī¥ áĪ®
ĠáĪ² áĬĸáĪŃ
Ġáĭ¨áĪĺ áĪµáĮłáīµ
Ġáĭ«áĪĪ áĬķáĬķ
ĠáĬ¥áĭ¨áī° áīĢ
áĪįáĬŃ áīµ
Ġáĭ¨áĪļáĭ«áĪµ áįĪáĪįáĮī
áĪĺáĭĺ áĮĪáī¥
ĠáĬ«áĪŃ áī³
Ġáī°áīĢáī¥ áĪĪáĭį
ĠáĪĽáĪµáĮ¨áīł áĮ«
ĠáĪĺ áī¸
áĪĭ áī½áĬĭáĪį
áĬłáĪ ³
Ġáĭ¨áĪĺ áĮłáīĢáĪĿ
ĠáĪĪáĪĽ áĪŁáĪĭáīµ
áĬĴ áĬķ
ĠáĪĺáĪµ áĬĸ
ĠáĪĲ áĭŃ
áĪĺáĪŃ áĪĺáĪŃ
ĠáĭµáĮĭáįį áĬĵ
ĠáĭµáĬķ áĬ³
áĬ¨áĪ° áī°
Ġáī°áįĪ áĪĭáĮĬ
2 7
áīł áĭĪ
Ġáī° áī£áĪĪ
áĬ¨ áĪ³
áĬ¨ áĭĪ
Ġáĭ¨áĪĺ áĪĭ
ĠáĪĪáĪĺ áĪ³áī°áįį
ĠáĭĵáĪĺ áī±áĬķ
Ġáĭ«áĪĪ áī£áī¸áĭįáĬķ
ĠáĬłáĪµáī° áĪĭáĪį
ĠáīłáĮ¥ áīĤáīµ
ĠáĪĽáĭķ áĪ¨áĮį
ĠáīłáĮī áĮīáīµ
ĠáĪĪáĪķ áĭĿáī¡
ĠáīłáĪģáĪĪ áī°áĬĽ
ĠáĭŃáįĪáĪįáĮĭ áĪī
ĠáĭŃ áĪµáĪĽ
Ġáī¥ áĪµ
ĠáĮ¥ áīł
áīłáĪ¨ áĬ¨
ĠáįĪ áĪ¨áĬķáĪ³áĭŃ
áĪ¯ áī¸áĭįáĬķ
Ġáĭ¨áīµ áĮįáĪ«áĭŃ
ĠáĭįáĪµ áĮ£áĭĬ
ĠáįįáĪ« áįįáĪ¬
Ġáĭ¨ áĭĿáĬĵáī¥
áĮ¥ áĬĳ
áĭįáĬķ áĭµ
áī¦ áī¿
ĠáīłáĬ¥ áĬĲáĪ±
áĭ°áĪŃáĮį áĪĿ
ĠáīµáĪĿáĪħáĪŃ áī±áĬķ
ĠáĬłáĪµáī°áĬĵ áĮĭ
áĪ¨ áĬ¨áī¥
ĠáĬłáĪ ŀ
ĠáĬłáīłáī£ áĬĵ
ĠáĪª áįĲáī¥áĪĬáĬŃ
ĠáĪ© áĪ²áĭ«
áĭ« áĭ¨
áī£ áĭĶ
ĠáīłáĪ łáĪ
Ġáī° áĬ®áĪŃ
ĠáĬłáĪį áī½áĪįáĪĿ
áĪ¸ áĪ«
ĠáĬķ áīģ
áĬª áĭİáī½
áĭ¨áĪĺ áĬķáĮįáĪ¥áīµ
áĭ¨áĪģ áīµ
ĠáĪħáĮĪ áĭĪáĮ¥
Ġáĭ¨áĪĺáĮ¨áĪ¨áĪ» áĭį
Ġáĭ¨áĪįáĪĽ áīµáĬĵ
áĮŃáīłáĪŃ áīłáĪŃ
áĬķ áĭ´
Ġáį ĳ
áĮį áī¶
áī£ áĪªáĭİáī½
ĠáĬłáĪµ áīĨáĮ¥
áĮĪáĪ« áī½áĪģ
áīłáĭį áĭµáĭµáĪ©
Ġáī°áĭĺáĮĭáĮħ áī¶
Ġáī³áĭįáīĥ áĪĪáĪħ
Ġáĭ¨ áĬ¦áĪ®áĪŀ
áĪĽ áĪ¨áĭį
áĮĭ áĪŃ
ĠáĬłáĪĺ áĪĭ
áī°áĪŃ áĪµ
áīłáĪ° áīł
áĪĮáĬŃáīµ áĪ®
áĮł áįĪ
ĠáĪĽáĪµ áįĭ
áĪĺáĭĿ áĪĻáĪŃ
Ġáīµáī½áĪĭ áĪĭáī½áĪģ
Ġáī£ áīµ
ĠáĬ¨áĪļ áĮĪáĬĺáĭį
Ġáĭ¨áī³ áĪĭáīģ
ĠáīłáĮį áĭµ
áĭ¨áĪļ áĪĪáĭįáĬķ
ĠáĪĿáĪķ áĪ¨áīµ
v e
ĠáĬł áįĦ
Ġáī° áĭĺáĪŃ
áĮ¨ áīłáĮ¥
ĠáĪķ áĪĬáĬĵ
áĪı áī¸áĭĭáĪį
áĪĭáī½áĪģ áĪĿ
ĠáĪĺáĪŃ áĬ¨
Ġáī°áĭ°áĪŃ áĮĪáĭį
Ġáī°áĮ½ áĬ¥áĬĸ
Ġáĭ¨ áĬŃáĪį
áįĪ áīĢáĭµ
ĠáĪ° áĪįáĮ£
áĪĺáĬķ áĮĪáĭ±
áĪ¨áĭ³ áī¸áĭį
ĠáĮįáī¥ áĭŃáīµ
ĠáįķáĪ®áĮĢáĬŃ áī±
ĠáĪ½áī¥áĪŃ áī°áĬĿáĬĲáīµ
áīłáĭĵ áĪī
áĮĭ áĮ¥áĪĿ
Ġáįį áĮĨ
Ġáī½ áĪĭáĪĪáī½
ĠáĬĵ áī½áĪģ
ĠáĪĺáĪª áĬĲáīµ
ĠáĪĿáĪµ áĮ¢áĪŃ
áĬ¨áįĬ áĪį
Ġáĭ¨áĬłáĪµ áī¸áĬ³áĭŃ
ĠáįĸáĪĪáī²áĬ¨ áĬŀáī½
áĪ« áĪĺáĭµ
ĠáĬ¥áĬķ áįĪáĪįáĮĭ
áĬ¨ áĮĬáĭľ
Ġáīµ áī°áĭį
ĠáĮĪ áĮłáĪĺ
ĠáĪĿáĪŃ áīµáĬĵ
Ġáī° áĭ°áĮĭáĮĭáĪļ
Ġáĭ¨áĪļ áĪĺáĪĪáĬ¨áī°áĭį
ĠáĬ¨áĬ¥ áĬĵáĬķáī°
ĠáĪĽáĭµáĪ¨ áĪµ
ĠáĪĺáī° áĮįáīłáĪŃ
ĠáĪĺáĭµáĪĥ áĬĴáīµ
ĠáĬ¨áĪĺ áĮ£
Ġáĭ¨áĭĪ áīħ
ĠáĮĪáĪį áĮ¾
ĠáīĢáĪŃ áī·áĪį
ĠáĬłáĪĽáĪ« áĮ®áī½
áĪµ áĭ«
áĪ»áĪ» áĪī
Ġáīłáĭµ áĪĿáĪ©
áĭ« áī½áĪģ
áīĢ áĭĿ
áĮĭ áī³
ĠáĪĽ áĭ°
áĭ°áĮĭ áĭį
ĠáĪĺáĭĭ áĮ®
Ġáĭ¨áįķ áĪ¬áĭļáĭ³áĬķáīµ
ĠáīłáīĢáĮ£ áĭ©
ĠáĪĲáĬª áĪŀáī½
ĠáĬł áĬĲáĮĭáĮį
Ġáī° áĪłáĪŃ
ĠáĪĪ áĮİ
Ġáĭ¨áī° áĪ«
ĠáĬ¥áĬķáĭ² áĪĺáĮ£
áĭĵ áĬķ
ĠáĬķ áĭµ
Ġ4 6
áī¤áīµ áĬĲáīµ
ĠáĪµáĬķ áĭ´
áįĸáĪĬ áĪ²
Ġáī°áįħ áĬ¥áĬĸ
ħáĮī áĪªáī±
ĠT he
ĠáĬ¨ áīħ
Ġáĭ¨áī° áĪĺáĭĺáĮĪáī¡
ĠáĪĨ áĭµ
áĭķ áĪĿ
áī´ áĭį
áĮİ áĭµ
Ġáī°áĬĵ áĮĪáĪ©
áĭ¨áĪĺ áĮĢáĪĺáĪªáĭ«
áīłáĪ° áī¥
Ġáīłáī£ áĪħáĪŃ
áĪĺ áĮł
Ġáīł áĭ¨áīµ
áī¥ áī°áĭį
áĬŃ áĬķáĭ«
ĠáĪĪ áĬŃ
ĠáĪ² áĮĪáī¡
Ġáīłáī° áī£áĪĪ
ĠáīłáĬłáĪ «
áĬĻ áĬķ
áĬŃáīµ áĪį
ĠáĪĻáĪī áĮĮáī³
Ġ20 15
Ġáī£áĬķ áĬ©
ĠáĮīáĭµ áĪĪ
ĠáĮ¥áĪĭ áĪģáĬķ
ĠáĬ¨áĭ° áī¡áī¥
ĠáĪĿáĪŃáī³áĪĽ áĬĲáīµ
Ġáĭ¨ áĮĭáĭľ
Ġáĭ¨áĪļ áī³áĭĪáīħ
áĪ» áĭįáĬķ
áĪ¹ áĬķ
áĭĪáĪµ áĭ±
ĠáĪĺáīħ áĭ°áĪµ
Ġáī°áĮĪáĬĿ áī°áĭĭáĪį
ĠáĪĪáĪ« áĪ³áī¸áĭį
ĠáīłáĭĪáĬķ áĭ¶áī½
ĠáĬ¥ áĪĽ
Ġáĭ¨áĪ ¬
áĪĽ áī´áĭİáĪµ
ĠáĬ¨ áĭµáĪŃ
áĬ¨ áĪģáĪīáĪĿ
áī» áīµ
ĠáĬ¥áĭ« áĪįáĬķ
áĮįáĬķ áī£áī³
ĠáĪª áįĸáĪŃáī°áĪŃ
Ġáĭ¨áīĨ áĭ©
ĠáīłáĪĢ áĮĪáĪ«áī½áĬķ
ĠáĪĺáīĥ áī¥áĪŃ
ĠáĭĺáĭŃ áī¤
Ġáīł áĬĲáīłáĪ¨
ĠáĪĽ áĭĪ
Ġáī°áĪĺ áĪµ
ĠáĪĺáĪŃ áĪĨ
áĪª áĪĿ
ĠáĮĪ áĮ£áĪļ
áĪĪáīµ áĬĵ
ĠáĬłáĭŃ áī¶
áĭ´ áįĵ
Ġáī¢ áĬĸáĪŃáĪĿ
áīµáĬķ áĪ½
ĠáĪ³áĭŃ áīĨáĭŃ
áĮĪáĪį áĮ½
ĠáįĵáĪŃáī² áĭį
Ġáī°áĮłáīĥáĪļ áĭİáī½
Ġáĭ¨áĪ°áĭį áĬĲáīµ
Ġáī£áĪĪáĪĥáī¥ áī¶áī½
ĠáĭŃáĬ«áĪĦ áĭ³áĪį
áĬ¨ áĬĿ
ĠáĬłáĭį áĪ®áįķáĪĭ
áīłáĪĪ áīµ
áĭĺáĮĭáĮģ áīµ
áĪ»áĬķáĮī áĪį
ĠáĪ² áĬķ
áīłáĪ© áĬķ
ĠáĪĭ áĪµ
ĠáĭŃáĮĪ áĪĺ
ĠáīħáĪŃ áĪ¶áī½
ĠáīģáĪŃ áĮ¥
ĠáĮĭáĭľáĮ£ áĭĬ
ĠáĬłáĭµáĪŃáĮĪ áĪħ
Ġáĭ¨ áĬ¨áįĪ
ĠáĭŃ áĭ¤
Ġáĭ« áĮĪáĬĻáīµ
áĮ£ áĬĵ
áīłáĪŃ áĬ¨áīµ
Ġáĭ¨áĪĪ áĪ½
ĠáĬłáĪµáįĪáĪĭáĮĬ áĬĲáīµ
áĭĪáĭµ áīħ
áĪµáī¡ áĬŃ
áī½ áĬĿ
Ġáīł áī³áĪĽ
áĬĲ áī±áĪĿ
ĠáĪĺ áī¥áĪ«
ĠáĪĺ áĮ«áĭĪáīµ
áĬŃ áĪ«áĪ²
áĭ³ áĭµáĪ©
áĪ² áī¥
ĠáĪ¥áĪ« áī¸áĭį
Ġáĭ¨áĬ¥ áĮħ
ĠáīłáĪĻ áĪµáĬĵ
Ġáĭ¨áĪļáįĪ áĮ½
ĠáĪĪ áīµáĪĿáĪħáĪŃáīµ
ĠáĪħ áĮ»áĬĵáīµ
áī½áĪį áīłáīµ
ĠáīłáĪĿ áĮįáī¥
ĠáĪĪáĪ« áĪ±
Ġáĭ¨áĬª áĬĲ
áĬķ áĮĢ
Ġáĭ¨ áīħáĪŃ
ĠáĬ¥ áĭļáĪģ
áī° áĪĺ
Ġáĭ¨áĪļ áĪĺáĪ¨
áī´ áĬŃáĬĸáĪİáĮĤ
áĬ¨áī£ áĭµ
Ġáĭ¨ áīħáĭµáĪĺ
ĠáĬ¨ áĭļáĪģ
Ġáĭ« áįĪ
ĠáīłáĪĽ áĮ£
ĠáīłáĪļ áīĢáĮ¥áĪĪáĭį
ĠáĬłáĪ¨ áī¢áĭ«
Ġáī°áĮ« áĭį
áĬŃáĪ² áĭ®áĬķ
áī°áĬ® áĪŃ
ĠáĬ¥áĬķáįĪáĪįáĮĭ áĪĪáĬķ
r o
ĠáĬ¥ áī£
áĮĪ áĪªáĭ«
áĭµ áĪ¬
áĭ® áī°
Ġáĭ«áĪµ áĭ°
ĠáĪ¨ áĭ¥áĪĿ
Ġáī°áīĢ áĭŃ
áĭ¨áĬł áĮĪáĪªáī±
ĠáĭķáĭµáĪľ áĭ«áī¸áĭį
Ġáī°áĮłáĬĵ áīĨ
ĠáĪĿáīµ áĬŃ
áĭŃ áĭĺáĭį
ĠáĪĺ áĮłáĭ¨
áī³ áĬĶ
áĭ¨ áĪĥ
áĬł áī¥
ĠáĮĭ áĭĿ
ĠáĪķ áĭ«áĭį
áĪľ áĬĵáĭĬ
ĠáīłáĬ¥ áĭį
áĭ³áĪĽ áĭĬ
ĠáīłáĪ ¦
áĪ³ áĭ©
áĪ® áīµ
áĮ¨ áĬĵ
áī¤ áī¶áī½
ĠáĬ¥áĭµ áĮĪ
ĠáĪ°áī¥ áĬłáĭĬ
ĠáĬłáĪįáī° áī»áĪĪáĪĿ
Ġáĭ¨áĭļáĪħ áĬķ
Ġáĭ¨ áįĮ
áĪ» áĬĵ
ĠáīłáĬł áĭį
ĠáĪ¨ áĪĥáī¥
áĪłáĪ« áīµ
ĠáĭŃáĮĪáī£ áī¸áĭĭáĪį
Ġáįİ áĪŃ
Ġáī°áĮ«áĭĭ áī¾áī½áĬķ
ĠáīłáĬ¢áĬķ áĭ±áĪµáīµáĪª
Ġáįįáīĥ áĭµ
ĠáĬ¨áĬ¥áĬķáĮį áĭ²áĪħ
Ġáīł áĬŃáĪįáĪį
áīĢ áī¥
Ġáĭ« áĮĪáĬĽáĪį
áįį áĪī
ĠáĪµ áĪĽáī¸áĭį
áĮ¨ áī¥
ĠáĪĿáĬķ áĭĽáĪ¬
Ġáĭ¨áĪ° áĮłáĭįáĬķ
ĠáĪĪáĭļáĪħ áĪĿ
ĠáīłáĬ® áĬķ
ĠáĪĪáĪĺáī³ áĭ°áĮį
Ġáĭ¨áĬ®áĬķ áĪµáīµáĪ«áĬŃáĪ½áĬķ
ĠáĬłáĪŃáī² áĪµáīµ
áĮ ´áĮ¥
ĠáĬ¨ áĪ±
ĠáĪĪ áįįáĪŃáĭµ
Ġáĭ¨áĪĽ áĪ«áī¶áĬķ
áįĢ áī£áĪ¨
ĠáīłáĬ¢ áĭ¨áĪ©áĪ³áĪĮáĪĿ
ĠáįķáĪ®áĮĢáĬŃ áī¶áī½áĬķ
ĠáĭŃáĭ°áĪŃ áĪ³áĪį
Ġáĭ¨ áīłáĪ¨
Ġáĭ¨ áįħ
áĭ¨ áĭĺ
ĠáĭĪ áĪ«
ĠáĪ° áĪį
áĪ¥ áĪįáĮ£áĬĳ
Ġáįį áĮ¥áĪ¨
Ġáīģ áĪįáīģ
ĠáĮ½ áĪģáįį
áĮĪáĪĿ áĮĪáĪĿ
Ġáĭ¨áĪļáĪĺ áĬĲ
áĪ¦ áĪµáī°áĬĽ
ĠáĬł áįħ
áīĢ áĭŃ
ĠáĭĪ áįį
Ġáĭį áĮĬáĭ«
ĠáĪį áĮĩ
áĬ¥áĬĲ áĪĨ
ĠáĪĤáĭ° áī±
ĠáĬłáįĭ áĮ£áĬĿ
ĠáĪĺáīĨáĪ« áĪ¨áĮ¥
áĪĺ áĪ¨áĮĥ
áĭ¨ áĭĽáĪ¬
ĠáĪĽ áĮįáĪµáīµ
Ġáĭį áĬŃáĪįáĬĵ
ĠáīłáĪĺ áĪį
áįĭ áĪĪáī½
ĠáĬłáĪµ áĮĪ
ĠáīłáĪĽ áĬ¨áĬĵáĭĪáĬķ
ĠáĬ¥áĬķáĭ°áĪļ áĪĨáĬĳ
ĠáĮ½ áįıáĪį
ĠáĪµáī¥ áĪµáī¥
ĠáīłáĪĺáĬķáįĪ áĪ³áĭĬ
Ġ g
ĠáĬ¥ áĪ¸
ĠáĬłáĪµ áĮĪáī¥
Ġáĭ¨áĪĺ áī³
áĭ¥ áĭį
ĠáĪįáĪĽ áī¶áī½
áĪµáī¥ áĪ°áī£
ĠáĪļáĭĽ áĬĵáĭĬ
Ġáĭ¨ áĬ¬áĬķáĭ«
Ġáīł áĭŀáĬĳ
ĠáĭŃ áĬĳ
Ġáĭ« áĬŃáĪį
áĪ³ áĪ°áĪŃ
áĬł áįįáĪªáĬ«
ĠáĬ¢ áĪħ
ĠáĪĺáĮ¥ áįĭáīµ
ĠáĪª áįĸáĪŃáī±
Ġáī£áĭŃ áĪĨáĬķ
ĠáĬł áĭµáĬķ
áī£ áĭįáĭ«áĬķ
áĪ° áī°áĬĽ
ĠáĭŃ áĪĪ
Ġáĭ¨áĪļ áĭ°áĮį
áĭĭ áĪµ
ĠáĬ¥áĬķáĭ° áī³
Ġáĭ¨áĪļáĭ« áĪ¨áĮĭáĮįáĮ¥
ĠáīłáĪĽ áĬ«áĪĦáĭµ
ĠáĪĬ áīµáĪŃ
áĪĺáĬķ áĮĪáĭµ
áĭĪáĪµ áĭ°áĭį
201 1
Ġáĭ¨ áĮĢáĪĺáĪŃ
áīĢ áĪĪ
áįĪ áĪ¨áĬķ
Ġáīłáī° áĮĵáĭ³áĬĿ
Ġáĭ¨áĪļáĭ« áĮĪáĪĪáĮįáĪī
ĠáĬłáĬķ áĮĭáįĭ
áĮ« áĬķ
ĠáĬłáĮĪáĪįáĮįáĪİ áī±
ĠáīłáīħáĪŃ áīłáīµ
ĠáĬłáĬķáīĢ áįħ
Ġáīł áī¡áĭµáĬķ
áĪ° áĪ³
ĠáĭŃ áīłáĪĭ
Ġáĭ¨áĪļ áĭ°áĪ¨áĮĪáĭįáĬķ
Ġáĭ« áĪĺáĮ£áĪį
ĠáĪĽ áĮ¥áįĭáīµ
Ġáīµ áĬĵáĬķ
áĪİ áī¹áĬķ
ĠáĪĪáĪĺ áĪĪáĭĪáĮ¥
ĠáĬłáĬ« áĪĭáĭĬ
Ġáīģ áĮłáī£
ĠáĪĪáĬ¥ áĪ±
ĠáĬ¨áĪµ áĭµáĪµáīµ
ĠáĬ¥áĭ«áĬķáĭ³áĬķ áĭ³áī¸áĭį
áĮ¸áī£áĪ¨ áīħ
Ġáĭ¨ áĭŀáĬĳ
Ġáĭ¨áī° áĬ«áĪĦáĭ°
ĠáīłáĪĺ áĭĿ
ĠáīłáĪĺ áĪĭáĬŃ
Ġáĭ¨áī°áĪ° áĮ£áī¸áĭį
ĠáĮįáĬķáī£áī³ áĭİáī½
Ġáĭ¨áīĨ áĭ³
áīłáĪ° áīłáĭį
Ġáĭ¨áĭĵ áĪĪáĪĽáī½áĬķ
ĠáĪĽáĪµáī°áĬ« áĬ¨áĭ«
áīĥ áī½áĪģ
áĬķáĮį áĭ¶
Ġáĭ¨áĬ¥ áĬĲáĭļáĪħ
áī£áĪį áĪĿ
ĠáīĨ áĪĿ
ĠáīłáĪĿ áĬĵ
ĠáĮįáī¥ áĪ©
áĮĭ áī±
ĠáĪ² áĪĺ
ĠáĪĢ áĮĪáĪ«áī½áĬķ
áįįáĪ« áĪ½
áīłáīĢáĮ£ áĭŃáĪĿ
áīħ áĪī
Ġáĭ¨áĪĺ áĪĽáĪŃ
ĠáĪĪáĪĺ áĭ°áĮĪáįį
Ġáī¢ áī³
Ġáįį áįĥáĪľ
áĬ³ áĬķáĬķ
ĠáĬłáĬ³ áĬĭ
ĠáĪĺáĮłáĬĲ áĬĽ
ĠáĭµáĪ« áĪĽ
Ġáīł áĭ°áĪĿ
ĠáĪĺ áĪĦ
áīł áĬĵ
Ġáī° áī£áī£áĪª
Ġáĭ« áĮĭáĮ¥
áĭĭ áĮĭáīµ
Ġáī¥ áĪ¶
Ġáĭ¨áī° áī°
ĠáīłáĪĺ áĪ³áī°áįį
áĭĽ áĬĴáĭ«
Ġáīłáī° áĬ«áĪĦáĭ°
Ġáĭ¨áĬł áĬŃ
ĠáĪĻ áĪ½
Ġáĭ¨áĬ¥ áĭį
ĠáĪ« áĪ·áĬķ
áĪ°áĮ¥ áĪĿ
ĠáĭĵáĭŃ áĬĲ
Ġáĭ¨áī± áĪªáĪµáīµ
áĮĪáĬĲáĭĺ áī¡
ĠáĬ¥áĭ¨áīĢ áĬĲáĪ°
Ġáĭ¨ áĮłáįĭ
ĠáīłáĪĽ áĭ¨áīµ
áĬłáĭ´ áĬķ
áįĪáĮ½ áĪĻ
Ġáĭ¨áįįáīµ áĪķ
áĬłáī¥áĭĽ áĬŀáī¹
áĪį áĪĻ
áī¸ áĭĭáĪĪáĬķ
Ġáī° áĮĪáĭ°
áīĨ áĭ¨
Ġáĭ¨áī³ áĬŃáĪµ
ĠáĪĪáĪħ áī¥áĪ¨áī°áĪ°áī¡
áĪªáĪµ áī¶áī½
ĠáĪĽáĭµáĪ¨áĮĭ áī¸áĭįáĬķ
ĠáĬ¥áī£áĬŃ áĪħ
c e
áĬ¨ áĬ¥
Ġáĭ¨áī° áĪłáĪ©
áĭĬ áī·
ĠáīłáĬł áĭ°áī£áī£áĭŃ
ĠáĬł áĭĻ
ĠáĪĺ áĮłáĪªáĭ«
áĪ¨ áīħ
ĠáĬ« áĪ£
ĠáĬŃáįį áĪī
ĠáĬ¤ áįį
ĠáĬ¤ áĬķáĭµ
ĠáīłáĪ° áĪĽ
áīłáĪĺ áĮĢáĪĺáĪªáĭ«áĭį
ĠáĪĪáĪĽáĪµ áĬ¨áīłáĪŃ
ĠáĪįáĪĽ áī±
Ġáĭ³áĭŃáĪ¬ áĬŃáī¶
áĪĿ áĪĿáĬĲáīµ
Ġáī° áīĨ
áĬ¨ áĬķáĭµ
Ġáĭ¨áĪļ áĬķáīĢáĪ³áīĢáĪ±
áĬ« áī¶
áĮ¡ áĪ¨áī³
ĠáĬłáĪį áĪĨáĬĲáĪĿ
ĠáĬłáĪ³ áĭį
ĠáīłáĪĽáĬķ áĪ³áīµ
Ġáīłáī´ áĬŃáĬĸáĪİáĮĤ
áĬ §áĪ¨
áĬķ áĮĥ
áĪį áī¦
ĠáĪ² áĪ³áĭŃ
ĠáĪĪáĪĽ áĪµáī°áĬ«áĬ¨áĪį
ĠáĮĭ áĪ«
áĪĿáĪħ áĪŃáīµ
Ġáĭ¨áīĢ áīłáĪĮ
ĠáĬłáĭİ áĬķáī³áĭĬ
ĠáĬłáĭĿáĪĽ áĪļáĭ«
ĠáĪĺ áĮĪáĭ°
ĠáĮĪ áĭĽ
Ġáĭ¨áĪĺ áĪŃ
áĭĽ áĭ¥
Ġáĭ¨áĬł áĭķáĪĿáĪ®
áĭĪáĮ£ áĪĿ
Ġáĭ¨áĪĺáĮ£ áĭįáĬķ
ĠáĬŃáīµ áīµáĪįáĬĵ
áĪ° áĬĲ
ĠáĭŃ áĪĺáĪŃ
áĮĭ áĭµ
áĮ£ áĪĪáī½
Ġáĭ¨áĪĺ áĪłáĪ¨áī°
ĠáĬĲáīłáĪŃ áĬ©
ĠáĬ¨áĪĺ áĪµáĮłáīµ
Ġáĭ¨áī³ áĭ¨áĭį
ĠáĪĺáĭį áĮ£
ĠáĪĽáĬĲ áīĨ
Ġáĭ¨ áīĥ
ĠáĬ¥áĬķáĭ² áĭ°áĪ¨áĮį
Ġáī£áĪį áĪĨáĬĲ
Ġáī£áĪķ áĪŃáĭ«áīµ
Ġáī°áįĪáĮ¥ áĪ¯áĭĬ
Ġáĭ¨áĪļ áĪ¨áĭ±
ĠáĮį áī£
áī´ áĪŃ
Ġáī¥áĭĻ áĭįáĬķ
áīłáĪ½ áī³
ĠáĬł áĭĺáĭį
áĪİ áĪĿáįĴ
áĪĮ áĪİáī¹
áĪĬ áĪµáīµ
Ġáĭ¨áĭ° áĪĺ
ĠáĬłáĪįáī£ áĪ³áīµ
Ġáĭ¨áĪļáĭ«áĭ°áĪŃ áĮĪáĭįáĬķ
ĠáĬłáĪª áįį
áĪĿ áī¥
ĠáĬ¥ áĮĥáī¸áĭįáĬķ
áī¥ áīĥáīµ
Ġáī° áĬĿ
Ġáī° áĬ©áĪį
ĠáīłáĪĺ áĮį
ĠáĪĪáĪĺáīĢ áĭ¨áĪŃ
ĠáĬ¢áĭ® áī¥
Ġáīł áĮİáī½
Ġ4 8
áĬ¥áĬķáĭ° áĭļáĪħ
Ġáīłáīµ áĭķ
áĬ¥áĬķáĮį áĪĬáĭĿ
áĪĭáīĢ áĪī
ĠáĬ¥áĭ« áĪµáī°
ĠáĬ¨áįį áī³
ĠáĪĺáĪŃ áĭ³áīµ
ĠáĮ¥áĬĵ áī³áĭĬ
ĠáīĢáīłáĪĮ áĭİáī½
Ġáīł áĬ¨áī°áĪŀáī½
ĠáĪĪ áĪ¦áĪµáīµ
ĠáĮī áĪĿáĪ©
ĠáīłáĬ¥ áĪ³áīµ
Ġáīłáĭĵ áĪī
Ġáī°áĪ¸ áĬŃ
ĠáĬŃáī¥ áĭ°áīµ
Ġ l
ĠáĭŃ áĬ¨áįį
áĮł áĬĽáĭį
Ġáĭ° áĪĭ
Ġáĭ¨áĪļáĭ« áĮĪáĬĻ
áĮ¡ áĬĵ
ĠáĬ¤ áĪµ
áĮįáĬķ áī£áī³áĭį
ĠáĪ°áĪŃ áī¶
ĠáĬ¢áĬķáĮĤ áĬĲáĪªáĬķáĮį
ĠáĬ¨ áĪ¶
ĠáĭŃ áĪĪáĭĭáĪį
ĠáĭĪ áĭ´áīµ
ĠáĪĽ áĪĿáĪ¨áī»
Ġáĭ¨áī° áĭ°áĪ«áĮĢ
ĠáĪĪáĪĺ áĪĪáĭ¨áīµ
áīĭ áĪĿ
áī¦ áĪ«
áĪķ áĮĪ
Ġ5 5
ĠáĬłáĭµ áĪ®
Ġáĭ¨áĪĪ áĬķáĪĿ
ĠáĪ© áīħ
Ġáĭ¨áĪļáĭ«áĭ°áĪŃáĮī áīµáĬķ
áĪ½áĬ¨áĪŃ áĬ«áĪª
Ġáī°áĪĺáĪ« áĪĽáĪªáĭİáī½
áīłáĪģáĪĪ áī°áĬĽáĭį
ĠáĮĪáĪĪáĪį áī°áĬĽ
ĠáĪĪáĪĽ áīĭáīĭáĪĿ
ĠáĪ´ áĪ«
áīĢáĭį áĪĿ
ĠáĮİ áĪįáĪĽ
Ġáĭ«áĭį áīĥáĪī
áĭ¶áĪļáĬĴ áĭ¨áĪĿ
Ġáĭ¨ áĭµáĪŃáĪ»
áĭ³ áĮįáĪĿ
ĠáīłáĪĺ áĮĪáĬķáĭĺáī¥
áī¢ áĬĲáīµ
áĪĻ áĪŃáīµ
ĠáīłáĪļ áĪĬáĭ®áĬķ
ĠáįĢ áĮĭáĭ¬
Ġáĭ°áĪŃ áĮį
ĠáĪĿáĭµáĪŃ áĬķ
áĭ° áĬķáīµ
áĭ³ áĪ©
ĠáĭŃ áĪ°áĮ¥
áĭĭ áĭĪáīħ
Ġáĭ¨áī° áĬĲáĪ±
Ġáīłáĭ¨ áĭķáĪĪáī±
áĪĻáĭ« áĭİáī½
ĠáĪĪáĪĽáĪµ áįĪáĬķ
ĠáīłáĪĮ áĪĭáĭį
ĠáīµáĪĿáĪħáĪŃ áīµáĬĵ
ĠáĪĿáĪģ áĪŃ
ĠáĪĿáĪįáĬŃ áī¶áī½
ĠáĮĪ áĮłáĪŃ
ĠáĪĺáĭĿ áĪĻ
Ġáĭ¨áĮİ áĭ°áĪĪáĭį
ĠáĬ¥áĬĵáĬķáī° áĪĿ
Ġáĭ¨áī°áīĢáĪĺ áĮłáĭį
ĠáĬłáĭŃáĪģ áĭ³áĭįáĭ«áĬķ
áį ²áį
áīł áįį
ĠáĬ¨ áīģ
áĪ© áīµáĬķ
ĠáĬłáĪĿ áĪµáī°áĬĽ
Ġáī´ áĬŃáĬĴáĬŃ
ĠáĬķáĮī áĪł
201 6
áīµáĪĿáĪħáĪŃ áīµáĬĵ
ĠáĬ¥áĪ³ áī¤
Ġáĭ¨áĪļáĪĨáĬĲ áĭįáĬķ
Ġáīł áĭļáĭ«áĬķ
áĬ¨ áĬłáĬķáĭµ
áĭ¨ áĬĿ
ĠáĪ² áĪ°áĪ«
ĠáīĢ áĪįáī¥
Ġáĭ© áĬĵáĭŃáīµáĭµ
áī¥áĪ« áĭįáĭ«áĬķ
3 1
ĠáĪĪ áĬłáĪĿáĪµáīµ
Ġáĭ¨áĪļ áĬĲáĮĪáĪŃ
ĠáĪ² áĪĦáĭ±
ĠáĪĪáĪĽ áĭĺáĮĭáĮĢáīµ
áĪ² áĬķ
Ġáī´ áĬŃ
áĪµ áĪĭáĪ´
áĭµ áĬ©
ĠáĪĪ áĪģáĪĪáī°áĬĽ
áĭ³ áĪ½
áĬł áĭį
áīħáĪĿ áīµ
áĪ°áĭį áĭ¨áĭį
ĠáĮ½ áĬĳ
ĠáĮ¨áĭĭ áī³áĭį
ĠáĮįáĭµ áī¡
ĠáīłáĪ¶ áĪĽáĪĬáĭ«
ĠáĬĲáĮĪáĪ¥ áīµ
Ġáī³áĪĽ áĬĿáĬĲáīµ
áĬ®áĪļ áĪ½áĬĳ
ĠáĬ¨ áĮī
ĠáĭŃ áĬ¨áī¥
Ġáĭį áĪ¨áĭµ
áĬķáĮį áĮįáĪŃ
ĠáĪĪáĪĺ áĭį
ĠáĬ® áĪĿ
Ġáĭ¨áĬ¥ áĭµáĮĪáīµ
ĠáĪ« áĪ´áĬķ
áĪĭáĪĪ áįĪáĭį
Ġáī¢áĪ® áĭį
Ġáĭ¨áĪĢ áĮĪáĪ«áī½áĬķ
Ġáīł áĭĺáĪŃ
ĠáīłáĪļ áī£áĪį
Ġáĭ«áĪµ áī³áĭĪ
Ġáĭ°áĪ¨áĮĥ áĭİáī½
áĮįáĬĵ áĪĪáĪģ
ĠáĬ¥áĬ©áĪį áĬĲáīµ
Ġáīµáī½ áīµ
Ġáĭ¨áīłáĬ© áĪĭáī¸áĭįáĬķ
áĮĪ áĪ°
Ġáĭ¨áĪĽ áĭ«áĪµ
Ġáĭ«áĪµ áīĢáĪĿ
ĠáīłáĪµ áįĸáĪŃáī±
ĠáĬłáĪī áĬĿ
Ġáĭ¨áĬ¢ áįĮáĭ´áĪª
ĠáĪ²áĭ« áĮĭáĮ¥
áĮłáĪ« áĮłáĪŃ
áĪ· áī¸áĭį
Ġáįĭ áĬķáī³
ĠáĮ©áĬ¸ áīµ
ĠáĪ² áīªáĪį
áĪµáī° áĪĭáĪį
ĠáįĪ áĪ¨áĪµ
Ġáĭ¨áĬłáĪ ģáĬĳ
áī£áĪĪ áĭįáĬķ
ĠáĪĽáĪħ áĮ¸áĬķ
áĪĺáĪ° áĪį
áī³ áī±
ĠáĪĪ áĪĮáĪĭáĭį
áĭĿ áĭ«
áĭķ áī¢áĭ«
áĪĪáĪģ áĪĿ
áĪįáĮ£ áĬĶ
ĠáĬ¥áĬķáĭ°áĪĨáĬĲ áī½
ĠáĬłáĪĽ áĪŃáĬĽ
ĠáĪĺáĭĽ áĪĻáĪŃáīµ
Ġáĭ¨ áĬĽ
áĬĵ áĮłáĪį
ĠáĪĺ áĪ³áī°áįį
áĬŃ áĪĮ
ĠáĬ¥áĬķáĭ° áī°áĪ°
ĠáĬ¥áĬķáĭ² áĭįáĪį
áĭ°áĪŃ áĮĭáī¸áĭį
ĠáĬ¥áĬĲ áĪĽáĬķ
Ġáī°áĬĲáĪ³ áĪ½áĬĲáīµ
áĪ« áĬķáĬķ
Ġáĭ¨áĪļ áī£áĪīáīµ
áĮĭ áī½áĪģ
ĠáĪ¥áĪ« áĬķ
áĪĿáĪŃ áĮ«áĭį
áĭ¨áĬł áĬķáĭµ
3 00
áĭ« áĭİáī¹
áīĢ áĮ¦áī½
ĠáĬ¥áĬķáĭ² áĬĸáĪ©
áīģ áīłáīµ
áĪªáĭ« áī¸áĭįáĬķ
áĪ¸ áĪ½
áĮĢáĪĿ áĪ¨áĭį
ĠáĬł áĮłáĪ«
áīł áĮħ
Ġáĭ¨áī° áĮĪáĪĪ
ĠáĬ¥áĬķáĭ² áĭ°áĪŃáĪµ
áĭ¶ áī¹áĬķ
ĠáĮł áįįáī¶
ĠáĬłáī£ áĪĭáīµáĬķ
Ġ7 5
Ġáĭ¨áĪĢ áī¥áīµ
ĠáīłáĪ łáĪ«
áĪ© áīłáīµ
ĠáĬŃ áī¡áĪŃ
ĠáĮ¤ áĬķáĬĲáīµ
ĠáĬłáĪµáī³áĭį áĪ°áĭĭáĪį
Ġáī» áĭŃ
áĬķáīĢáĪ³áīĢ áĪ°
áĪ¸áĬķ áįį
Ġáīłáī¦ áī³áĭį
ĠáĮ¢áĪŀ áī´áĭİáĪµ
ĠáĬ¥áĬķ áīłáĪį
ĠáĭŃ áī£áĪį
Ġáĭ¨áī° áĬ¨áĪĪ
Ġáĭ¨áī° áĪ¨áĮĭáĮĪáĮł
Ġáįį áĪ«áĬķ
áĪĿáĪħ áĪ«áĬķ
200 0
ĠáīłáĪĮ áĪĪáīłáīµ
ĠáĪ°áĬĲ áĭ¶áī½
ĠáĪ°áĪĭ áĪĿáĬķ
Ġáĭ¨áįĸáĪĬ áĪµ
ĠáĪĲáĬª áĪĿ
ĠáĪĺ áĭ«áĭĻ
áĭ³ áĭ²áĪµ
ĠáĪĪáĪĽáĪµ áĮłáīłáīħ
ĠáĪĤ áĪ³áī¥
ĠáĪ¸ áĪĽ
ĠáĬ¨áĪĿ áĬķáĪĿ
Ġáī°áīĢáĪĿ áĮłáĭį
Ġáĭ¨áĬłáĪĺ áĪĪáĬ«áĬ¨áīµ
Ġáī°áįĪáĮ¥ áĪ¯áĪį
ĠáĬ®áĪļáĪ½ áĬĲáĪŃ
áĪĿ áĮįáī£áĪŃ
ĠáĪĪ áįį
ĠáīłáĪĺ áīħáĪ¨
ĠáĮ¥ áĪ°áīµ
ĠáĬ« áĮĪáĬĺ
ĠáĬłáĮĪ áĪ©
ĠáĬłáīłáī£ áĬķ
Ġáĭ¨áĬĲáīłáĪ¨ áī½áĭį
Ġáĭ¨áī´ áĪĮáīªáĭ¥áĬķ
Ġáī°áĪŃ áįİ
áĪĪ áĪļ
áĪĺ áĭ±
ĠáĬ¥áĬķáĭ² áĪĺ
Ġáĭ¨áĪļáĭ« áĪĺáĪĪáĬŃáīµ
ĠáĬ¨áĬł áĭįáĪ®áįĵ
áīłáĬł áĮĪáĪŃ
Ġáīłáĭĵ áĪīáĬķ
Ġáī°áĭ°áĪŃ áĮĲ
áĪµáī°áĬĵ áĮįáĭµ
ĠáĪĺáĭ°áĪĿ áĭ°áĪļáĭ«
ĠáĬ¥ áĮģ
áĮį áī¡
ĠáĬł áĬ¨áĪ«
áĪµáī° áĪ®áī½
Ġáī°áĬ¨ áĪ³
ĠáĪĺáĮįáĪĪ áĮ½
Ġáī°áĬ¨áīµ áĪĪáĭį
áĪįáĪĽ áī±
Ġáī°áįĭ áĪ°áĪµ
Ġáī°áĭĭáĬĵ áĭŃ
Ġáĭ¨áĬłáĪ° áĪ«áĪŃ
ĠáĮīáĪĿáĪ© áĬŃ
áĬĵ áĬĵ
ĠáĪĺ áĭĪ
Ġáī° áĮĵ
áĬ¨ áĭįáĬķ
Ġáĭ¨áĪļ áĬĸáĪ©áīµ
áĭĭ áĪĪ
áĪģ áĪĭáī½áĬķáĪĿ
ĠáĬ¥áĭ¨ áĬĲ
ĠáĬłáĪĪ áī½áĭį
ĠáĬ¥áĭ« áĪįáĬ©
áĪĪáĭ« áĭŃ
ĠáĬ®áĪļ áĪ½áĬĳ
ĠáįįáĪŃ áĪĥáīµ
ĠáĮįáĮŃ áī¶áī½
Ġáĭ¨áĪ Ĥ
ĠáĪĽ áĪŀ
ĠáĬłáĪµ áī¥
ĠáĬłáĮĪáĪŃ áĬķ
ĠáĪ¨ áĭ³
ĠáĬłáĪĺáĪįáĬŃ áī°áĭį
ĠáĪĺáĮ¨áĪ¨áĪ» áĭį
ĠáĭµáĬŃ áĪĺáīµ
áĬĵ áĮĪáĭµ
áĭ« áīµáĪŃ
ĠáĬ¨ áĬĭáĪĭ
Ġáī° áįĪáĪ«
áĪ³ áĬĵ
áĬł áĮĪáĪ«áī½áĬķ
áĭĺ áīł
ĠáįĪ áĪª
áĪłáĪ Ľ
ĠáĬŃáįį áįįáĪį
ĠáĬĲáĮĪ áĪ¨
ĠáĪĽáĪ³ áĬ«áīµ
ĠáĪĪáĬ¥ áĬĲáĪ±
áīłáĪĭ áĪ½
Ġáĭ¨áĬłáĬ«áī£áī¢ áĭįáĬķ
ĠáĪĪ áĭķ
áĮł áī±
áīłáĪŃ áīµ
ĠáĪĮ áĪĬ
Ġáĭ«áĪµ áĪĺáĭĺáĮĪáīł
áĬłáĬķ áĭ²áīµ
Ġáĭ¨áĬ¢ áīµáĭ®
Ġáīłáīħ áĮ¡
u s
áĪĿ áĪ³áĪĮ
ĠáĬ¥ áĪ´
áĪĺ áĪ³áĪ³
áī¥ áīĥ
áī¥ áĪĥáĪį
áĪ° áĮ¡áīµ
Ġáĭį áĪ¸áīµ
áĭ© áī±
Ġáĭ¨áĪ° áĭįáĬķ
áĭĪáĪŃ áĬŃ
ĠáĭĪáĪĭ áĮħ
Ġ n
áĪ Ĵ
ĠáĬłáĪµ áĬ¨áīµ
áĪ» áĭ¬
áī¤ áī³áī¸áĭį
ĠáĬ¥áĪµáĬ¨ áĪĺ
áĭĺáĪŃ áĪĭáĬķáĭµ
áĮįáĮ¥ áĪĿ
ĠáĪĺáĪ¥ áįĪáĪŃ
ĠáīłáīħáĬķ áĮħáīµ
ĠáĬłáĬ³áĬĭ áĬķ
i g
r a
ĠáĬł áĬ©
ĠáĬ¨ áįĬáīµ
Ġáĭ¨áĪļ áįĪáĪĪáĮĪáĭįáĬķ
áįĪ áĪĭáĪĪ
Ġáīłáī° áĪ°áĮłáĭį
Ġáī³ áĭ³áĪļ
ĠáĬ¥áĬĵ áī´
áĮĨ áī½áĬķ
ĠáĬŃáĪį áĪī
Ġáĭ¨áĪĪ áī¥áĬķáĪĿ
ĠáĬ¤áĪŃ áĪļáĭ«áĪµ
e t
áį ģáĬķ
ĠáĪĺ áĮ¸
ĠáīłáĪĺ áĮłáīłáīħ
áĬłáĪ «
ĠáīłáĬł áĮĪáĪªáī·
áĮ» áĪĪáī½
áĬ¬ áĪļ
Ġáī¥áĪĶ áĪ¨áĪ°áī¥
Ġ15 0
Ġáī°áĬ«áĪĤ áĭ·áĪį
áĭ¨ áįĮáĭ´áĪ«áĪį
Ġáĭ« áĪ¨áĮĭáĮį
Ġáīµ áĪĭ
áĪ°áī¥ áĭĵáĭĬ
áĮłáĬĵ áĬŃáĪŃ
Ġáĭ«áĪĪáĭį áĬĵ
ĠáĮ¥áīħ áĪŀáī½
Ġáī° áĪŀ
ĠáĭĪ áĪĪáĭµ
áĭĬ áĬĲáīµ
ĠáĪĪáĪĺ áĪĽáĪŃ
ĠáĬ¥áĬķáĭ°áĪļ áīĢáĮ¥áĪį
ĠáĬłáīĢ áī£áīłáĪį
ĠáĭĪáĭŃ áĬķ
Ġáĭĺáĭ´ áĭİáī½
áĮİáī¥ áĬĺáīµ
Ġáĭ¨ áĮĢ
Ġáĭ¨áī° áĭ«áĭĻ
áĭĺ áĮĪ
áĪ½ áĭį
áĮĨ áĪ®
Ġáī°áĬĵ áĮįáĪ«
Ġáĭ¨áĪĿáīµ áī½áĪĪáĭį
ĠáĪĿáĪ¥áĪ« áī½
áįķáĪ®áĮĢ áĬŃ
ĠáĬł áīłáĪŃáĬŃ
ĠáĪ² áĪļáĬķáī¶
ĠáĬ¥áĭ« áĪĪáī½
Ġáīłáĭ¨ áī¦áī³áĭį
Ġáī°áĮłáīħ áĪ·áĪį
ĠáĮłáĭ¨ áīĢ
ĠáĪµáĪĻ áĬĿáĪĽ
ĠáĪĿáĮį áī¦áī½
Ġáĭ¨áĪĺáįįáīµ áĪĶ
Ġáĭ¨áĭ± áĪŃ
ĠáĪĬ áĭ°áĪ¨áĮį
áī¦ áĪŃ
áĪĦ áĭ°áĭį
Ġáĭ¨áīµ áĮįáĪį
áĭ¨áĬł áĮĪáĪŃ
ĠáĭĪáĪ¨ áĪ«
áĭ³áĪ¨ áĮī
ĠáĮłáĪ¨ áĮ´áĭĽ
Ġáīł áĬ¨áįĬáĪį
ĠáĪĺ áĪ°áī¥áĪ°áī¥
ĠáĪĪ áĭĵáĪĺáī³áīµ
áĭ¨ áĭ°
áĭ¨ áĬŃ
ĠáĪĽ áĭĭáĪį
ĠáĪĽ áĪįáĪĽáīµ
áĬ¥ áĭļáĭ«
ĠáīłáĪĺ áĭį
ĠáĪĪáĪĺ áĪĿáĪ«áīµ
ĠáĪĽáĪħ áīłáĪ¨
ĠáĪĪáĪĽáĪµ áĮĪáī£áīµ
ĠáĬ¤áĮĢáĬķáĪ² áĭį
ĠáĭµáĬŃ áĪĺ
Ġáī°áĬĲáĮį áĪ¯áĪį
ĠáĬ¨ áĮįáī¥áįħ
áīĢ áīłáīµ
Ġáĭ¨áī° áĪĺáĪĪáĬ¨áī°
áĭĵ áī°
áĪĪáĪĿ áĭ¶
áįī áīµáĬķ
Ġáīħ áĮ½
áī³áī¸áĭįáĬķ áĪĿ
Ġáĭ© áĬĴ
ĠáĬłáĬŃ áĪĪáĭĭáĪį
ĠáīłáĬŃ áī¥áĪŃ
ĠáĬłáĪ¥ áĪ«
ĠáĭŃ áĭĪáĪ°
ĠáĬ¤ áĬķ
Ġáĭ¨áĪļáĭ«áĪµ áįĪáĪįáĮĪáĭįáĬķ
Ġáĭ¶ áĬĵáĪįáĭµ
ĠáĪĺáĭµáĪ¨ áĪ±áĬķ
ĠáĬ¨áĬłáĪ į
áĬĸáĪ«áī¸áĭį áĪĿ
ĠáīłáīĢáĮ£ áĭŃáĪĿ
Ġáĭ°áĪŀ áĭĿ
ĠáĪĺ áīĨáĪĿ
áĬ¨ áĪģáĪĪáīµ
áīĢ áĪ±
áĭ® áī¹áĬķ
ĠáīĢ áĬķáĭµ
ĠáĪĪáĪĽ áĭĭáĪį
Ġáĭ¨áĪļáĭ« áĭĪ
ĠáĪĽáĪµáī° áĬĵáĮĪáĭµ
áĭ¨áĪĺ áĮ½áĪĲáįį
ĠáĮīáī£áĬ¤ áĭį
áįįáĪ¬ áĪĿ
Ġáĭ¨áī°áīĥ áĭįáĪŀ
ĠáĪĺáīħáĭ° áĪ±
ĠáīĨáĬķ áĮĨ
Ġáī° áĭĺáĮį
áĪ° áĬĿ
áįĪ áĪŃáĪµ
ĠáĬ¥áĭ¨ áĪłáĪ©
ĠáĪĪáĬł áī¥áĬĲáīµ
ĠáĪĦ áĮĦ
ĠáīµáĬķ áĪ£áĬ¤
ĠáĪķáĭĿáī¥ áĬķ
Ġáĭ¨áĭ° áĪħáĬķáĬĲáīµ
Ġáīł áīłáĪĭáĭŃ
ĠáĪĪ áĪ¨
Ġáĭ¨áĪļ áĭĪáĮ£áĭį
áĪĻ áīµáĬķ
ĠáĬłáĭŃ áĬķ
áĮĥ áī½áĬķ
ĠáĬłáĪĺ áĪĪ
Ġ6 5
ĠáĪ¸ áĪĪáīĨ
Ġáī°áĪ° áĬĵ
ĠáĪµáĭ° áī°áĬŀáī½áĬķ
Ġáī³áĪª áĬ®áī½
Ġáĭ¨áĬĲáįĥ áĬĲáīµ
áĭ¨ áĪĲ
Ġáĭµ áĪĥ
ĠáĬ« áĭ°áĪ¨
ĠáĬłáĪį áĮĪáī£
ĠáĬ¨áī° áĮĢáĪĺáĪ¨
Ġáĭ¨áĬ¥ áĬĲ
áī³áĭį áīħ
Ġáĭ¨áĭį áĮª
Ġáĭ«áĪ³ áĭ¨áĭį
ĠáĬłáĮĪáĪª áī·
ĠáĬłáĭ«áĭį áīģáĪĿ
ĠáĬ¥áĪį áī£áīµ
Ġáĭ³áĭŃáĪ¬áĬŃáī¶ áĪ¬áīµ
áĪµ áĪĲ
ĠáĪĺ áī»áĪī
áĮ¥ áĪ«áīµ
Ġáĭ¨áĪļ áīĢáĪŃ
ĠáĪĽ áīĨ
Ġáĭ¨áī° áĭ°áĪ¨áĮī
áĪģ áĬĳ
ĠáīłáĪĺ áĬ¨áĪĭáĬ¨áĪį
áĪªáĭ« áĪį
ĠáĬłáĮĪ áĪ®áī½áĬķ
ĠáĬ¥áĬķáĭ°áī° áĮłáīłáīĢ
ĠáīµáĬķ áī³áĬĶ
áĪ« áī¸áĭĭáĪį
áįĭ áįĭ
Ġáĭµ áįįáĪ¨áīµ
ĠáīłáĪĽ áĪĿáĪ¨áīµ
Ġáī¤ áī´
ĠáĬĥ áĭ«áĪį
áįĴ áī³áĪį
ĠáĪĺáĭį áĪ°
ĠáīµáĪįáīģ áĬķ
áĪĿáįĴáĭ© áī°áĪŃ
áĪªáĭ« áĬĵ
Ġáĭ¨áĪĽáĭŃ áī½áĪī
áĬĹ áĬķ
ĠáĪĽáĪ³ áĪ°áī¢áĭ«
Ġáĭ¨áī°áĬĲáĪ³ áĭį
ĠáĬłáĪĺáĪĭ áĬ«áī½
áĭ« áĭİáī½
áĬĽ áĪĪáĪģ
Ġáĭĺ áįĪ
áīª áĭµ
áĭĺáĪĺ áĬĳ
Ġáĭ¨áĭĪáĭ° áįĬáīµ
4 00
áĮį áī¦
ĠáĬ¨ áįĢ
ĠáĭŃ áĪ°áĪ«
Ġáĭ¨áĪļ áĮłáīłáīĢáĭį
áĭĪ áĭ²áĭ«áĭį
áįĪ áįħ
Ġáĭµ áĪ¬áĭ³áĭĭ
áĮĥ áĪį
ĠáĬ¥áĭ¨ áĪĨáĬĳ
áī¤ áī´
ĠáĬłáĪį áĬĲáīłáĪ©
Ġáī½áĮįáĪŃ áĬķ
ĠáĪµáĪŃ áĬł
áĬłáīµ áĪĮ
ĠáĬłáīĭ áĪ«áĮŃ
áĬŃáĪ² áĬ®
ĠáīģáĪŃ áĮłáĬĽ
ĠáīµáĬ¥ áĭĽ
ĠáĬłáĭµáĪŃáĮĪ áĬĵáĪį
ĠáĬłáī¡ áĬĲ
Ġáĭ¨ áīłáĪŃáĬ«áī³
áĪµ áī²áĬŃáĪµ
Ġáīł áĮł
ĠáĪĺ áĪŃáĪĿ
ĠáĭŃ áĮ«áĭĪ
áĬĽ áĬĵ
ĠáĬ¥áĬķáĭ° áĪĿáĬĵ
Ġáĭ¨áĬł áīµ
áįİ áī¹
Ġáĭ¨áĬłáĪ ŃáĪ¶
Ġáĭ¨áĪ´ áī¶áī½áĬķ
ĠáĬŃáĪµáī° áī¶áī½
ĠáĪ²áĬĲ áįĥáįĢáĪŃ
Ġáĭ¨ áĭ°áĪŃáĮį
áĭ¨ áĬ¥áĬĽ
áĬł áĭµ
Ġáĭ¨áĪĽ áĬķáĬĲáīµ
ĠáĬ¨áĬł áī£
ĠáĬłáīħ áĪĽáī¸áĭį
áĮłáįĭ áĪĿ
áĭĪáĪĪ áĭ±
Ġáĭ°áĪ¨ áīħ
e m
áĬ¨ áĬĲáĭļáĪħ
áĬ« áĬ«
ĠáĪ² áĪįáĪĿ
áĭ³áĪļ áĬĲáīµ
ĠáĬ¨áĪ« áĪ±
Ġáī º
áī° áĪ©
ĠáĪĺ áĭ²áĬĵ
áĬ¨ áĪ¨áĭį
áĭ¨ áįĸáĪĪáī²áĬ«
áī² áĬķáĮį
áĬ® áī¹
áī³áī¸áĭįáĬķ áĬĵ
201 0
Ġáĭ¨áī°áĮ£ áĪĪ
áĪĪ áĬŀáī½
áīłáĪ ¥
áĬ© áĬĵ
áĬĴ áĪĽ
ĠáĪĥ áĮĪáĪ«áīµ
ĠáĬłáĬ«áī£áī¢ áĭįáĬķ
Ġáĭ¨áīł áĭĽ
Ġáī°áĮłáĬĵ áīĭáĪį
ĠáĪĥáĪĭáįĬ áĬĲáīµ
áĭĪáĬķ áĭ¶áī½
áĭ« áĪ³
ĠáĪĺ áĮłáĪĪáĭ«
Ġáĭĺ áĪ¨
ĠáĪĬ áĪ°áĮ¥
ĠáĬłáĪĪ áĪĺáĪµ
áĪ£ áĪ¥
ĠáĬ¥áĬĲ áĪŃáĪ±
ĠáĬłáĪµáī¸ áĬ³áĭŃ
áĬ¨áĬķ áī±
Ġáī¥áī¸ áĬĽáĭį
ĠáĭįáĪµáĬķ áĬĲáīµ
ĠáįĮáĭ´áĪ¬áĪ½ áĬĸáī½
Ġ is
áĪŃ áĭĵáīµ
áĪµ áĪĻ
ĠáĬ¥ áĮ©
áĪĺ áĬĶ
áīł áĮī
ĠáĪµ áĪĽ
ĠáĬ¥áĬķáĭ² áĪ³áī°áįī
áĮ¨ áĪĪáĪĽ
ĠáĪĿáĬķ áĬĽ
áįĥ áįį
ĠáĪĢ áĭŃáĪį
Ġáĭ¨áįĬ áĪįáĪĿ
Ġáī ¬
Ġáīł áĭ±
Ġáī° áĭĵ
Ġáĭ¨áĪļ áĮłáīĢáĪĻ
áĭ® áī¥
áĪĶ áĭµ
ĠáĬłáī¥áĭĽ áĬĽáĭİáī¹
Ġáĭ¨áĮįáĬķ áī¦áīµ
Ġáĭ¨áī°áįĪáĮłáĪ¨ áĭįáĬķ
áĪµáīµáĪ« áĪĬáĭ«
ĠáĬŃáĪĿ áī½áīµ
áĮ´áĮ¥ áĪ®áĪµ
áĪĺáĪ³áĪ³ áĭŃáĪĿ
ĠáĪĪ áĮįáĪį
ĠáīłáĪļ áĭ°áĪ¨áĮį
ĠáĬ¨áĪĺ áĬ«
ĠáĬ¨áįįáī°áĬĽ áĭįáĬķ
ĠáĭįáĮ¤áī³áĪĽ áĬĲáīµ
ĠáīłáĪĺáĪµ áĬĸ
ĠáĬ¥áĭ«áĪ³ áĭ¨
ĠáĬłáĭįáī¶ áī¡
ĠáĪĽáĪµáī°áĬ« áĬ¨áĪį
u r
áīµ áĪµ
áīµ áĪ¨
Ġáīł áĭ°áĪ¨áĮĥ
ĠáĪĺ áĪ¨áī¥
ĠáĬ¨ áĭĽ
Ġáĭ« áĭĪáĮ£áĭį
áįį áĪĭ
áĭ® áĪ´áįį
ĠáĪĺáĪį áĬłáĬŃ
áĪķ áīµáĬĵ
ĠáĪ« áĪ´
ĠáĪĽáĪµ áĮĪáī£áīµ
áĪĺáĮ£ áĮłáĬĲ
ĠáĮ¥áĭ«áīĦ áĭį
áĪŀáĬŃ áĪ©
Ġáīłáīģ áĪŃ
Ġáī°áīĭáīģ áĪŀ
ĠáĬł áī¤áīµ
áī£ áī½
áĭ¨ áīµáĪĿáĪħáĪŃáīµ
áĭĵ áĪī
ĠáĬłáĪĿ áĬĸ
ĠáĪĪáĪĽáĪµ áīĢáĪ¨áīµ
ĠáĭĪáĬķáĭµ áĪĻ
áīłáĪī áīµ
ĠáĪµáįĸáĪŃ áī³áĭĬ
ĠáīµáĪĿáĪħáĪŃ áī¶áī½
199 7
áĪŃ áĭ³
ĠáĬ¥ áĭŃáī³
Ġáĭ¨áĪļ áĪĦáĭ±
áĭĿ áīħ
Ġáĭ¨áĪĺ áĪĿ
Ġáįį áĪ³áĪ½
Ġáĭ¨áĪµ áĪįáĮłáĬĵ
ĠáĭµáĪŃáĮħ áī¶áī½áĬĵ
áīĭáīĭ áĪĺ
ĠáĪĪáĪ° áĭİáī½
ĠáĬłáĪĺáĪ° áĮįáĬĵáĪĪáĪģ
Ġáĭ¨ áįĨáī³
ĠáĬ¨ áĪ°áĪĽáĭŃ
ĠáĪĪ áĪĥ
Ġáĭ° áįĭ
ĠáĬłáīĢ áī£áĭŃ
ĠáĪĪáĬł áĭ°áĮĭ
ĠáĬ¥áĭį áĬĲáīµáĬķ
ĠáĮ£ áĪĬáĭ«áĬķ
ĠáĪħáī¥áĪ¨áī°áĪ°áī¡ áĬķ
ĠáĬłáī¥áĭ± áĪį
áĪļáĬĴáĪµáīµ áĪ©
áĪµ áī±áĬķ
áīł áĭŀáĬĳ
áĬł áī¸áĭįáĬķ
ĠáĬ¥áĬķáĭ² áĪłáĪ©
ĠáĬłáĪµ áī£áĪĪáĪģ
áī¢ áĪ®áĭį
ĠáĬłáĪį áįĪáĪįáĮįáĪĿ
ĠáĭŃáīĢ áĪ«áĪį
ĠáĬłáĮłáīĥ áīĢ
áį ©
áī³ áīµáĬĵ
áī³ áīµáĪĿ
áī£ áĬķáĭµ
áĪħ áĪ³áĪµ
ĠáĬ¨ áĭķ
áĬŃ áĪ½áĬķ
ĠáĪĪ áĪŀáīµ
áįį áīµáĬķ
ĠáĪĽ áĪŁáĪĭáīµ
ĠáĬ¥áĬķáĭ° áĬĲáīłáĪ¨áĭį
ĠáīĢ áĪįáĭµ
áĮįáī£ áī£
áĪĺáĬķ áĮ¨áīµ
ĠáĮİ áĪŃáįį
ĠáĪ¨ áī¡áĭķ
ĠáĪ°áī¥ áĪį
Ġáīłáī³ áĪĭáīħ
ĠáīłáĬ¢ áĭ¨áĪ±áĪµ
ĠáĪĺáĭį áĮ«
Ġáī¡áĭµ áĬĳáĬķ
áĮĪáĪ¨ áĪĿ
Ġáĭ¨áĬ® áĪļ
Ġáī£áĪĪáī¤áīµ áĬĲáīµ
ĠáĪĥáĭŃ áĪİáī½
Ġáīłáī³áĪĽ áĬĿáĬĲáīµ
áĪ¨ áī£
áĬŃ áĪ«áĪį
áįį áĬĸ
Ġáī£ áī¢
Ġáīłáī° áĮĪáĬĻáīłáīµ
ĠáĪ³ áĪĭ
ĠáĪļ áĪµáī±
Ġáī°áĪ³áīµ áįĪáĭĭáĪį
ĠáĬ¥ áĪ´áī¶áī½
ĠáĬ¨ áī¥áīµ
áīĥ áī½áĬķ
Ġáįį áīº
ĠáĬ¥áĪµ áĬŃ
Ġáī¦ áĪĮ
ĠáĭĽ áįİáī½
áĬ¨áĬĵáĭį áĬĳ
Ġáī³áīħ áĭ¶
Ġáĭ¨ áĮ«
áĪį áĭŃ
áĪŃ áįī
Ġáīłáī° áī£áīłáĪ©áīµ
ĠáĪļ áĭ«
Ġáĭ¨áĪµ áĭ°áī°áĬŀáī½
Ġáĭ¨áĭĪ áĪ¨áĭ³
ĠáĬĥáĪĭáįĬ áĬĲáī³áī¸áĭįáĬķ
Ġáĭ¨áĪ¶ áĪĽáĪĬáĭ«
Ġáĭ¨áī°áĪĪ áĭ©
áī£ áĪħ
Ġáī° áĪĪáĭĭ
ĠáĪĪ áī¥áī»
Ġáĭį áĪħ
ĠáĪħ áĪĬáĬĵ
Ġáĭ¨áĬĲ áīłáĪ«
Ġáĭ«áĪµáįĪáĪį áĮĪáĬĵáĪį
Ġáĭ ĭáĭŃ
áĭŃ áĪĺáĬķáĭµ
ĠáĬłáĪ ĥ
Ġáī° áĪĽ
áĪī áĬķáĪĿ
áĮĭ áī¡
ĠáĪ² áĭĪáĮ¡
Ġáī£áĪĪ áĪĢáī¥áīµ
Ġáĭ°áĪ¨áĮĥ áĪĿ
ĠáīħáĪŃ áĮ½
ĠáĮĪáĬķáĭĺ áī¡áĬķ
ĠáĬĵáĭŃ áĮĦáĪªáĭ«
ĠáĮĪ áī¥áĪŃ
ĠáīłáĪĽ áĮįáĬĺ
Ġáĭ¨áīµ áĬŀáī¹
áĭ°áĮĭ áĮĪ
ĠáĬ«áĪĪ áīłáīµ
Ġáĭ¨áįķ áĪ¬áĪµ
ĠáĪĺáĪĢ áĪĺáĭµ
ĠáĮĦ áĬĶáĪ«áĪį
Ġáĭ¨áĪļáĮĪáĪįáĮ¹ áīµ
ĠáĮ³ áĮ³
ĠáĬ¥ áįİ
ĠáĪµ áĪĻáĬķ
Ġáĭ¨áī° áĭĺ
Ġáĭĵ áĪ£
Ġáĭ«áĪĪ áĬĲáĭį
áĮ¤ áĬĵáĭį
ĠáĮİ áĪ¨áī¤
ĠáĬ¨áĬ¥ áĪŃ
Ġáĭ«áĪ³ áĭµ
ĠáĮ¨áĭĭáī³ áĭİáī½áĬķ
áĬ¥áĪŃ áĪ±
Ġáĭ°áĪŃ áĪ°áĭĭáĪį
áĬĲáĬĽ áĬĲáīµ
Ġáĭ¨áĪĺáĪ³áĪ°áĪī áīµáĬķ
Ġáīł áĮĭáĭľ
Ġáĭ¨áī° áĪ¨áĮĭáĮĭ
áĬ¢ áĪķáĬłáĭ´áĮį
ĠáĬ© áĪ«áīµ
ĠáĪĽáĪħáīłáĪ«áĭĬ áĬĵ
ĠáĬ¨áĪħ áĭĿáī¥
áĪ¨ áĬķáĪµ
Ġáī° áĮłáĪĿ
áĭ¬ áĪŃ
ĠáĮİ áĮĤ
Ġáī¤áī° áĬŃáĪŃáĪµáī²áĭ«áĬķ
ĠáĪĢáī¥ áī³áĪĿ
ĠáĮłáī¥ áīĢáĭį
Ġáĭ¨áĭµáĪŃ áīħ
ĠáĪķáįĥ áĬķ
ĠáĬłáĪµáī°áĭ³áĭ° áĪ®áī½
Ġáĭ¨ áĪįáĪĿ
áīĢ áĮ½
ĠáĪį áĮĥáī¸áĭį
ĠáĪ³ áī³
áĮİ áĪµ
ĠáĬķ áĮ½
Ġáĭ«áĪį áī³
ĠáĬ¨áĪļ áĪĺáĪĪáĬ¨áī³áī¸áĭį
ĠáĬ¥áĭį áĬĲáī±áĬķ
ĠáĪĺáĪĺ áĭĿ
ĠáĬ©áī£áĬķáĭ« áĭį
ĠáĪ¥áĪŃáĭĵ áīµáĬķ
Ġáī°áĪ°áĮ¥ áī·áĪį
Ġáĭ¨áĪľ áĭ³
Ġáĭ¨ áīĭáĬķáīĭ
áī° áĪĽáĪª
ĠáĪĺ áĬ©
ĠáĪĪ áĪ´áī¶áī½
ĠáĪĪáĪĺ áīħ
Ġáī½ áĪĪáĬĵáĪį
áĬª áĪ«áĭŃ
Ġáī¥áĪĶ áĪ«áīµ
ĠáĪ¶ áĪĽáĪĮ
áĭŁ áī¸áĭį
ĠáīłáīµáĬŃ áĬŃáĪĪ
Ġáĭ¨áī°áĮłáīĢ áĪ°áĭį
áĪªáī³ áĬĴáĭ«
ĠáĪĺáĬª áĬĸáī½
áĪŀáĬŃáĪ« áī²áĬŃ
áĬĵ áĪī
áĭĿ áĬĲáĭį
ĠáĬłáĪŃ áīłáĬŀáī½
Ġáĭ«áĪī áīłáīµ
áĪłáĪ« áīłáīµ
ĠáīµáĪŃ áĭĴ
ĠáĮĭáĭľ áĮ¦áī½
ĠáĬķáĮī áĪµ
Ġáĭ¨áĭĺ áĪĭáĪĪáĪĿ
Ġáĭ¨áĪļáī³ áĭ¨áĭįáĬķ
ĠáĬłáĭĽ áĭįáĬķ
Ġáĭ¨áī¦ áĪŃáĭµ
áį ª
Ġáĭ¨ áĬĳ
ĠáĪĺ áĬĿáī³
Ġáĭ¨áĪļ áĬĲáĪ³
áĪĻ áĪī
Ġáĭ¨áĪļáĭ« áīĢáĪŃáī¡
Ġáĭ¨áĬł áįĪ
ĠáĬ¥áĬĵ áĪĭáī½áĪģ
Ġáįĵ áĭįáĬķáĭµ
Ġáĭ°áĪĺ áīĢ
Ġáī°áĪĪáĭŃ áī¶
ĠáĬł áī¢
ĠáĪĺ áĬĲáĮĭáĮĪáĪŃ
ĠáĬ¨ áĭĪáĭ°
ĠáĬĲ áĪ½
Ġáī° áĪ°áī£
áĬŃ áĪ«
áĬ¨ áĭļáĪģ
ĠáĪ¥ áĭķáĪį
áĮłáīħ áĪĭáĪĭáĭį
ĠáĬ«áĪĪ áįīáīµ
áĬ«áĪĤ áĭµ
Ġáĭ°áīĤáīĥ áĭİáī½
ĠáĭŃáĪ¨áĭ³ áĬĵáĪį
Ġáĭ¨áĪļáĭ«áĪĺ áĪĭáĬŃ
Ġáĭ¨áĪī áĪĿ
Ġáī¥áĮ¥áī¥ áĮ¥
áĪĭ áīĢáīħ
áī£ áī½áĬķáĬķ
Ġáī° áĮĪáĭµ
áīĢ áīĢ
áīĢ áī±áĬķ
áĮł áī¡
Ġáĭį áĪ»
ĠáĮĪ áĭ³
Ġáī³ áĮ¥
ĠáĬ¥áĬĵ áĪĿ
Ġáĭ²áĪŀáĬŃáĪ«áĪ² áĭ«áĭĬ
ĠáĪĽ áĪį
Ġáĭ° áĪ´
áĭĽ áī¸áĭįáĬķ
Ġáīłáĭĵ áĭŃ
ĠáĬłáĪµáĬªáĭ« áĮģ
Ġáĭ¨áĪļáĮł áĮī
ĠáĪĺáĪŀ áĬ¨áĪŃ
áī«áĭŃ áĪ¨áĪ±
Ġáīł áīĭáĪļ
áĬĲ áĬĲ
áīħ áĪĽ
áĮłáĪ ħ
ĠáĪ¥áĪ« áĪĿ
Ġáĭ«áĪµ áĬ¨áīµ
Ġáĭ¨áī³ áĭ³áĮĬ
ĠáįĢ áĮīáĪŃ
áĮĦ áĬķ
ĠáįįáīħáĪŃ áĬĵ
ĠáĪķáĭŃáĭĪ áī³áī¸áĭįáĬķ
ĠáĭŃáĪ°áĪĽ áĪį
ĠáĬŃáĪħ áĪİ
Ġáĭ¨ áĮĢáĪĺáĪ©
áĬĲ áī´áĬķ
áĬ¥ áĪŃáĪµ
ĠáīłáĪĺ áĭįáĮ£áīµ
Ġáīµ áĬ¨
áĪ½ áĬ¨áĪ¨
ĠáĮĪ áĭ°
Ġáĭ¨áĪļáĭ« áĮĪáĬĻáīµ
Ġáī¤ áīµáĪĿ
ĠáīłáĬł áĬĲáĪµáī°áĬĽ
ĠáĬ¨áī° áīĢ
Ġáĭķ áī¥
ĠáĪĺáĪį áĪ°áĭį
ĠáĬ¨áĪļ áĪĪáĭį
áĪµáī°áĭĭ áĭį
ĠáĬłáĪµáī°áĭ«áĭ¨ áī¶áī½
Ġáīł áĭĪáĮ£
ĠáĪĺ áĮĢáĪĺáĪ©
áĬ¨ áīħáĪŃáī¥
Ġáĭ¨áĪļ áĬĵáĮĪáĪ©
ĠáĪĿ áĭĺáĬĵ
ĠáĪ² áĭĪ
ĠáĬ¥áĬķáĭ² áĭĪ
ĠáĬ¥áĬķáĭ°áĪļ áĬĸáĪ¨áĭį
ĠáĬ¥áĪµ áĬªáĭ«
ĠáĪĺáĪµ áĬ®áīµ
áĬ³ áĪµ
áĪłáĪ¨ áī°áĭį
ĠáĬłáĭį áĮª
ĠáīłáĬłáĬķ áĭ±
ĠáĪĺáĪĺáĪŃ áĪĺáĪŃ
Ġáī¥áĪĦáĪ¨áĪ°áī¦áī½ áĬĵ
áĬĵ áī½áĬķ
áīł áĮĢ
ĠáĬ¥áĭ¨ áĪĺáĮ£
ĠáīłáĬł áĭŃ
áĮįáī£ áī¸áĭį
ĠáĬ¨áĪĺ áĪ¬áīµ
áĪŃáĪµ áī¶
Ġáĭ¨áĪĿáīµ áĪĪáĭį
áĭ¨áĬł áĬ«áī£áī¢áĭį
ĠáĮħ áĪĿáĪŃ
3 2
Ġáī° áĮĪáĬĺ
áĮ¥ áĪĭ
ĠáĬłáĪµ áĪŃáīµ
ĠáĬłáĮĪ áĪ«áī¸áĭįáĬķ
ĠáĭĵáĪĺ áī·
Ġáĭķáĭµ áĮĪáīµáĬĵ
Ġáĭ«áīĢáĪŃ áī£áĪį
ĠáĪĺ áĬ¨
Ġáī° áīĨáĪŃ
áĪ³ áĪĿ
Ġáī£ áĭ°áĪ¨áĮĪ
ĠáĮ¥ áĪĪáĭį
áĮĢ áĪªáĭ«
ĠáĪĪáĪĽ áĪµáī°áĭĭáĭĪáīħ
Ġáĭ¨áĬł áĭ°áĮĭ
ĠáĬ¥áĬķáĭ³ áĪ³
Ġ4 7
ĠáĮĥ áĬķ
ĠáīłáįĬ áīµáĪĿ
Ġáī°áĪ°áĪĽ áĪŃáī°áĭį
Ġáĭ«áĪĺ áĪĭáĬŃ
ĠáĪĺ áįĪáĮłáĪŃ
ĠáĬłáĪ ļ
Ġáĭ¨áĪļ áĪĺáĪµáĪį
Ġáĭ« áĬ«áī°áī°
Ġáĭ¨áĪĺ áĪ¸
áĭ«áĭį áīĢáĭį
ĠáĬ¨áĬł áĬķáī°
ĠáĪĺáī¥ áīµáĬķ
ĠáĭŃáĪ° áĮ£
ĠáīłáĪ½ áī³áĭį
ĠáįĸáĪĬ áĪ¶áī½
ĠáĬ®áĪĻ áĬĴáĬ¬áĪ½áĬķ
áīµ áĪ¨áįį
Ġáĭ¨ áĮłáĭ¨
Ġáīł áįĮ
áĪ« áĪ©
ĠáĬ¨ áĭĽáĪ¬
ĠáĪĪ áĪ«áĪµ
áĭ¨ áĬ®
áĪ® áĪ®
áĪİ áĬĶáĪį
ĠáĬłáĪµ áĮĪáĭµ
áīłáĪŃ áĮį
áĬ¤ áįį
Ġáĭ¨áĭĪ áĪ¨
áįĪáĮ¥ áĪ©
ĠáĬłáĪĪáĪĺ áĮįáī£áī£áīµ
áĮ«áĭĪ áī°
Ġáī°áĮĪáĬĿ áī·áĪį
ĠáīłáĬłáĪµ áī¸áĬ³áĭŃ
ĠáĪĨáĪµáįĴáī³ áĪİáī½
áĬĲ áī³
ĠáĪĪ áĭ°
áīĢ áĪī
áĭĭ áĭĪ
ĠáĬ¥áĬķáĭ° áĭļáĪģ
ĠáĮĪ áĮ¹
ĠáĬ¨áįį áī¶
Ġáīłáĭ¨ áĭĪáĪ©
áĭ°áĪ« áĭ°áĪŃ
Ġáĭ«áĪµáįĪáĪį áĮĪáĭĭáĪį
ĠáīłáĪĺáīĢ áīłáĪį
ĠáĬ¥ áĭĪáĭ³
áī° áī±
áĭŃ áĬ¸áĭį
Ġáīł áĭ¶
ĠáĪĺ áĭ°áĮĪáįį
áīł áī½
ĠáĭŃ áĮĭ
áĪª áĭµ
Ġáĭ° áĬħáĬķáĬĲáīµ
Ġáīłáī° áĭĺáĭĭáĭĭáĪª
áīĭáīĭ áĪĺáĭį
áįĮáĭ´ áĪ«
ĠáĬ¨áĬĲ áīłáĪ©
áĪĪ áĬŃ
ĠáĬ¨ áĪįáĬŃ
Ġáĭ¨áĪļ áĬ¨áĬĵáĭĪáĬķ
Ġáĭ¨áĪļ áĭįáĪī
ĠáĪĪáĪĽ áĪµáī°áĬĵáĮĪáĭµ
áī£áī¢ áĪİáĬķ
Ġáĭ¨áĪ° áĪľáĬķ
ĠáĭĪáĪŃ áĭ¶
ĠáĪĺáĪ¨áĮĥ áĭį
ĠáĪĢáī¥ áīµáĬĵ
Ġáĭ¨áĪĺáĬķáĮįáĪ¥ áīµáĬķ
Ġáĭ¨ áī½áĮįáĪ©
áĪĨ áĭŃ
Ġáĭ¨áī° áįĪáĪ¨
Ġáĭ¨áĪĺ áĬ«
Ġáī£áĪĪ áĬķ
ĠáīłáĬłáĪ Ī
áĬĵáĭį áīĢáĭį
Ġ4 9
Ġáī°áīĥ áĪ«áĬĴ
Ġáĭ¨áĪļáįĪ áī³
Ġáĭ¨áĪļáī½áĪį áīłáīµ
ĠáĬ¢áīµáĭ®áĮµáĭ«áĭĬ áĭ«áĬķ
Ġáī°áĪ¨ áįĪ
ĠáĪĪáĪĺáī° áĮįáīłáĪŃ
ĠáĭŃáĭĪáĮ£ áĪį
áĮłáĭ«áīĤ áĬĲáīµ
ĠáĪ°áĪ«áĭĬ áīµ
Ġáīł áīłáĪĪáĮł
áĪ³ áī¡
áĪª áĭİáī¹
áĪµáīµ áĪ®
ĠáīłáĪĽ áĪ¨áĮĭáĮĪáĮ¥
ĠáĮĭáĪŃ áĪĿ
ĠáĬłáĪį áįıáĪį
áĬŀ áī»áī¸áĭį
ĠáĬłáĪĺ áĪį
ĠáĬ¨áĬł áĮĪáĪªáī±
ĠáīħáĪŃ áįħ
ĠáĪĽáĭµáĪ¨ áĮĭáī¸áĭį
Ġáī» áĪŃ
Ġáĭ¨áī°áī£ áĪĪáī½
Ġáĭ¨áĭľáĮİáī½ áĬķ
ĠáĪĽáĬĶ áĮħáĪĺáĬķáīµ
áĭ® áĪµ
ĠáĬłáĭŃ áĬĲáī¶áī½
ĠáĬ¥áĬķáĭ°áĪļ áĬĵáĮĪáĪ©áīµ
áĮĤ áī¡áī²
ĠáīłáĬ¥ áĮģ
19 4
áĭĺáĬķ áĮĭáīµ
Ġáī°áįĪ áī³
ĠáĪĺáĮł áĬĳ
ĠáĪĪáĪĺáīĢ áĮłáĪį
áīłáĭ° áī¡áī¥
ĠáīĢáĮ£ áĬĵ
Ġáĭ¨áīģ áĮ¥áĮ¥áĪŃ
áĬĵ áīħ
áĭŃ áĭŀ
ĠáĬłáĪ Į
Ġáįį áĮ¥
ĠáĭĪáĪŃ áīģ
Ġáĭ¨áī£ áĬķáĬ©
Ġáīłáĭĺ áĪĪáĪĪ
áĭ¢ áĭį
ĠáĬ¨áĪĮ áĪĪ
Ġáĭ«áī¥áĪ« áĪ«áĪī
ĠáīłáīłáĪĭáĭŃ áĬĲáīµ
Ġáī° áĮĢáĪĺáĪ¨
áĭ¨ áī¥
áĮĪáĪį áĮ¹
áī³áĭį áĪµ
áĪ¯ áīµ
ĠáīłáĮ¥ áī¥áīħ
ĠáīłáĪĺáīĢ áĬĲáĪµ
ĠáĬ¦áĭ² áī°áĪŃ
áī° áĬ«
ĠáĪĺ áĬĲáĪ³áīµ
áīł áĬłáĬķáĭ³áĬķáĭµ
áĬ¨ áįĪáĪĪ
áĬĽ áī¸áĭį
ĠáĪĪáĪĽ áĪ¸áĬĲáįį
áĭ°áĪ¨ áĪµ
ĠáĮł áīłáīĥ
Ġáĭ«áĪĪ áĪħ
ĠáĪĻ áĪĭáī±
ĠáīłáĬ¥ áĭ«áĬķáĭ³áĬķáĭ±
Ġáĭ¨áĬłáĪ łáĪ«áĪŃ
áīłáĬł áĬ«áī£áī¢áĭį
ĠáĪĺáī¥ áĪĭáīµ
ĠáīłáĪħ áī¥áĪ¨áī°áĪ°áī¡
ĠáĪĺáįį áĮłáĪ©
ĠáĪĺáĭĺ áĮį
Ġáĭ¨áĮłáīĢ áĪ±áīµ
ĠáĭµáĪįáĭµ áĭŃ
áĪĿ áĬŃáĪŃ
ĠáĬ¨ áī¶
Ġáĭ¨áĪļ áįĪáĪįáĮĪáĭįáĬķ
ĠáĪĽ áĭĺáĭįáī°áĪªáĭ«
ĠáĬłáĬķ áĮĪáīµ
ĠáĬ¤ áįĮ
áĪ©áĬķ áĭ²
ĠáĬłáĪī áĬķ
Ġáī°áĮ¨áĭĭ áī½
Ġáĭ«áĮį áĭĽáĪį
Ġáĭ¨ áĮłáīħáĪĭáĭŃ
áĪĪ áīĥ
ĠáĬ¨ áĪ«áĪµ
Ġáī° áĪŁ
áĬ¨ áĮ¥áīĤáīµ
áĬ¥ áĭ«
ĠáĬ¥áĬķáĭ² áĪĺáĪĪáĪ±
ĠáīĢ áĪįáĮ£
ĠáīĢ áĮ¥áī³
áĬ¨áī° áĪīáīµ
ĠáĬ¥áĬķáĭ²áĪ° áįįáĬķ
ĠáĬłáĪ® áĮĮ
ĠáįįáĪį áĪļáĭ«
áĬķ áĭ²
ĠáĪĪ áĭµ
áĮł áīĨ
ĠáīłáĪĺ áĭĪáĬ¨áĪį
áįī áĬĵ
áĪķ áĭĿáī¥
ĠáĪŀ áĪį
Ġ20 16
ĠáĭįáĪ³áĬĶ áĭİáī½
ĠáĪµáĪĪáĪļáĭ« áĪµ
ĠáĪĽáĪ¨ áĪļáĭ«
Ġáī°áĪĿ áĪ³áĪĮ
8 00
áĪ° áī¦áī½áĬķ
áįį áĪ©
ĠáĬ¥áĬķáĭ° áĪĺáĮ£
ĠáīłáĪĺ áĮĪáĬĵáĬĽ
ĠáīłáĪĺ áĬ¨áī°áĪį
ĠáĪĪáĪĺ áĪ°
áĭµáĪ¨ áĪ±
áīĦ áīµ
áĪ¯ áī¸áĭĭáĪį
ĠáīłáĮ¥ áĪįáīħ
Ġáĭ«áĭ°áĪ¨áĮĪ áĭįáĬķ
ĠáīłáĪ¶ áĪµáīµ
ĠáĪĺáįħ áĪĲáįį
ĠáĮĵáĭ° áĬŀáī¹
áĪĪ áĪī
áī³ áĪªáĬŃ
áĭļ áī½
áĮ¨ áĪ¨áĪµ
áĪĲ áĭĭáĪŃáĭ«áĭį
ĠáĬ¨áĪĺ áī¼
ĠáĬ¨áī°áĪĽ áĭį
ĠáĬ¨áĪĽ áĬķ
ĠáĬ¥áĬĶ áĬĵ
Ġáĭ² áįķáĪİáĪĽ
ĠáīłáĪ¨ áĪĥ
Ġáī³áĪª áĬ©
ĠáĬłáĭ«áĪĮ áĭį
u n
áĭ ª
áĭį áĭµáĭµáĪ©
áĭ° áī½
ĠáĪĽ áĪ½áĬķ
ĠáĬ¥áĬķáĭ° áīĢ
ĠáĪ° áĬ¨áĬķáĭµ
ĠáīłáĪĺ áĭ°áĮĪáįį
áī¡ áī£áĭĬ
ĠáĪĬ áĬĸáĪ«áī¸áĭį
áĭ´ áĭµ
áĭ«áĭį áīģáīµ
ĠáĬłáĭį áĭ°
ĠáĬłáĪħ áĮīáĪŃ
áĪĿáĬĵáĪį áī£áīµáĪĿ
Ġáĭ¨ áĭ©áĬĴáī¨áĪŃáĪ²áī²
ĠáĬł áĮ«
ĠáĪĺ áĮłáĬĵáĬ¨áĪŃ
Ġáĭ¨áĪ ł
ĠáĬłáĪ ¶
áĬŃ áĪħ
áĬĸ áī¹áĬķ
áįĭ áĪ½
áī¢ áĭ«áĬķ
ĠáĬ¢ áĮ£áĪĬáĭ«
Ġáĭ«áĪĪ áĬĿ
Ġáīħ áī¡
ĠáĬłáĪĺ áĪĭáĬŃ
ĠáĬłáĭ° áĪ©áĬķ
áī¥áĪ« áĭŃ
ĠáĬłáįį áĪŃ
ĠáĪłáĪĭ áĪĿ
Ġáī°áĬĵáĮįáĪ« áĪĪáī½
ĠáĬł áĮĪáī£
Ġáīł áĬ¬áĬķáĭ«
Ġáī° áĪĪáĭį
ĠáĭŃ áĪĪáĬĵáĪį
ĠáĮį áĪ©
áĭľ áĪŃ
ĠáĬ¥áĬķáĭ°áĪļ áī£áĪĪáĭį
ĠáĪĽáĪµ áįĭáįĭáīµ
ĠáĪĬáĭ« áĭ°áĪŃáĮī
ĠáĬ¥áĬķáĭ°áĪļáĭ« áĭ°áĪŃáĮī
ĠáĭŃáĪĦ áĭ³áĪī
ĠáĪ°áĪĭáĪĿ áī³
áīĢáĬĵ áĮĢ
ĠáĪĪáĬķ áī£áī¥
Ġáĭ¨áĪĺáĬĲ áĮ¨
ĠáĬłáĪįáĬĲáīłáĪ© áĪĿ
áī° áĪ»
Ġáīł áĮįáĪĪáĪ°áī¥
ĠáĪĺ áĪ°áī¥
áĮ£ áī½áĪģ
áī¢ áĪĨáĬķáĪĿ
Ġáī¤ áī¶áī¹
ĠáĬłáĪį áĪĽáĭĿ
ĠáĬ¥áĭ¨áī° áĪ°áĮł
ĠáīĨ áĪĺáĭį
ĠáīłáĪµ áĭµáĪµáīµ
Ġáĭįáĭµ áīĢáīµ
Ġáīłáīµ áĮĭáīµ
ĠáĭµáĪĿ áĭ³áĪľ
ĠáīµáĬķ áīłáĭ«
ĠáĪĺáĪĨáĬĵáī¸áĭįáĬķ áĪĿ
áĮ»áĮ¸ áĪŃ
ĠáĪ¦ áĪµáī°áĬĽáĭį
ĠáĮīáĪį áīł
Ġáĭĺáįį áĮ¥áĪ¨áīµ
áĪµ áī±áĪĿ
ĠáĬ¨ áĪ²
ĠáĬĲ áįĭáĪµ
ĠáĪĪ áĪĮ
áĭ¨ áī±áĬķ
Ġáī¢ áĭ°áĪ¨áĮį
ĠáīłáĬł áĮĪáĪ«áī¸áĭį
ĠáĪĺáĬķ áĮĭ
Ġáĭ¨áĬ¥ áĪ±
ĠáĪĺáī³ áĮĪáĪį
ĠáĭŃáĪ°áĪĽ áĬĽáĪį
áįķáĪ®áĮįáĪ« áĪĻ
3 6
ĠáĪĺ áįĪáī°áĪ½
áīł áĮĢáīµ
Ġáĭ« áĪĿáĬĵáĪį
áĬł áĮįáī£áī¥
Ġáīłáī° áĭ«áĭĺáĭį
ĠáĬłáĭŃáĭ° áĪĪáĪģáĪĿ
áĮ«áĭĪ áī»
áĮħáĪĿ áĪĭ
áĬ¨áī£ áĬ¨
Ġáī¥áĪĦ áĪŃ
es s
ĠáįįáĮ¡ áĪŃ
Ġáĭ¨áĭĪáīħ áī±
ĠáĭŃ áĭĪáĭµ
áīħ áĪ¶
áĪī áĬĿ
ĠáĪ² áĮĭáĪ«
ĠáīłáĪĺ áĪĨáĬĹ
ĠáĬ¥áĬķáĭ² áĪį
áĬķáĮį áĪĬ
áĪ¥ áĬĲ
áīłáĪ¨ áĭį
ĠáĬ« áįķ
ĠáĮł áĭ«áīĤ
áĪ¸ áĪ¸
ĠáĬłáīħ áĪĽáī¸áĭįáĬķ
Ġáĭ¨áĪļáĮĪáĬĻ áīµáĬķ
áīłáĪ° áĭį
ĠáīłáĬĲ áĮ»
Ġáī°áįĪ áĮ½
ĠáĮ¥áīłáīĥ áĬĵ
ĠáĪłáĪŃ áī¶
ĠáĬłáĭĽ áĭįáĬķáīµ
ĠáĬ¥áĬķ áĮįáĪį
áĪĨ áī´
ĠáĪµ áĭĬ
Ġáĭ¨áĪĺ áįįáĮłáĪŃ
Ġáīłáī° áī»áĪĪ
ĠáĪĲ áĭĺáĬķ
Ġáī°áĬĵ áĮĭáĪª
ĠáĮĨ áĪŃ
ĠáĮĲ áĬķ
áĪ°áĪį áĮłáĬķ
Ġáĭ«áīĢáĪ¨ áī¡
ĠáĪ¾ áįĮ
ĠáīłáĪŃáĬ« áī¶áī½
Ġáīł áī»áĭŃáĬĵ
áĪħ áĭŃáĭĪáīµ
ĠáĭĪ áĬŃáĪĪáĭį
Ġáī¥ áĭĽ
Ġáĭ¨áī° áĪ³áĬ«
ĠáĬłáĪµ áĬĲáī¥
áĭ°áĪŃ áĮĪáĭįáĬķ
ĠáīłáĬł áĭ³áĪĽ
Ġáīħ áĬĵáĪ½
áĮłáīĢ áĪ±
200 1
áĮįáĬķ áĬĲáīµ
ĠáĭŃáĮįáī£ áĬĿ
áĪħ áĭĿáī¥
ĠáĬ¨ áĬ«
Ġáī° áĪĺáĪĪáĪ°
áĬłáĪ ¨
ĠáĪħ áī¥áĪ¨
ĠáĭĵáĪĺ áīµáĪĿ
áĬħ áĬķ
ĠáĬ¨áĪĽ áĪħ
áī¥áĭĻ áĭİáī¹
ĠáĬłáĪĺáĪ« áĪ©
Ġáī°áĪĪáĭŃ áī°áĭį
ĠáĬ¨ áīĢáĪ¨
áĬ¥ áĭ¨
ĠáĮ¥ áīĨáĪĽ
áĪ¸ áĪŃ
Ġáĭ¨áĬ¥ áĪ±áĬķ
áįĵ áĪŃáīµ
áī³áī½áĬķ áĪĿ
áī¥áĭĻ áĭİáī½
Ġáīłáĭį áĬĥ
ĠáĬ¨áĬłáĪ Ń
Ġáĭ¨áĬķáĮįáĭµ áĬĵ
ĠáĪĪáĬłáĪ ŃáĪ¶
Ġáĭ«áĮĪáĬĺ áĬĲáĭį
Ġáī¸ áĪį
ĠáĬłáĪħáĮī áĪ«áĭĬ
ĠáĬłáĪįáĬĲ áīłáĪ«
Ġáĭ¨ áī¥áĪĶáĪŃ
ĠáĬ¥ áĮ£
áĮĪ áĪ®áī½
Ġáĭ¨áĪ ¦áĪµáīµ
ĠáĬ¨ áĮįáī¥
áīĢ áĬĵáĪį
ĠáĪĿ áĪ°
Ġáĭ¨áī° áĮĪáĭ°
Ġáĭ¨áī° áĮłáĬĵáĬ¨áĪ¨
ĠáĬłáĪµ áī½áĪıáĪį
ĠáĬłáĭŃ áī°áĭį
ĠáīłáĪĿ áĪŃáĪĿáĪŃ
áĬĸáĪ© áīłáīµ
ĠáĬłáīħáĪĿ áĬĵ
Ġáīłáĭµ áĪį
Ġáīłáĭµ áįįáĪ¨áīµ
ĠáĮ¥áĪ¨ áī¶áī½
ĠáĬłáĪłáĪį áĮ£
Ġáī°áĮĪáĪĿ áī·áĪį
áĪį áī£
ĠáĬł áĬ¨áĬĵáĭį
Ġáĭ¨áĪļ áĬ¨áĪ°áīµ
ĠáĪµ áįĸáĬķáĪ°áĪŃ
ĠáīłáĬł áįĭ
Ġáīģ áĪį
ĠáĬłáĮĪáĪįáĮįáĪİ áī¶áī½áĬķ
ĠáĬķáĮįáĭµ áĬĵ
Ġáĭ¨áĮī áĭŀ
łáĪ į
áī³ áĪĭáīģ
áĪĽ áĮħ
áĬŃ áī´
ĠáĪĪ áī½áĮįáĪ©
áĭ¨ áĭ°áī¡áī¥
áĪī áīĥáĪµ
áįĪ áĭįáĬķ
áī¶ áī¼
Ġáīµ áĪª
Ġáĭ¨áĪĺ áĭ«áĭĿ
ĠáĪĪáĪĽ áĪĪáįį
ĠáĪĪáĪĽ áĬŃáīłáĪŃ
Ġáįį áĪ°
ĠáĪĢ áīłáĪ»
áĮ® áĪħ
ĠáĮĢáĪĺáĪ¨ áī½
Ġáī¥áĪ© áĪħ
ĠáįĮáĭ´áĪ« áĪĭáĭĬ
áĬķ áĭ°áĬķ
ĠáĭŃ áĭ°áĪŃáĪµ
áī¶ áĬĽáĪį
áĬĸ áĪ©áĬķ
ĠáīłáĪŃ áĬ¨áīµ
Ġáĭ¨áĪļáĭ«áĪµ áįĪáĪį
áĭĪáĪ° áĭ°áĭį
ĠáĮłáīħ áĪ·áĪį
Ġáĭ¨áĭĺ áĬķáĭµáĪ®
ĠáīģáĮ¥ áĪ©
ĠáĪĬáĭ«áĪµ áĬ¨áīµáĪį
Ġáĭ¨áĬ¦ áĪİáĪĿáįĴáĬŃ
ĠáĪµáĪĿáĪĿ áĬĲáī¶áī½
ĠáīłáĪĽáĪµáī° áĪĽáĪŃ
Ġáĭ¨áĪĺáįįáīµ áĪĦ
ĠáĪĺáĪĺáĭĺ áĬĽ
áī² áīª
áĬ¥áĬķ áĬ³áĬķ
áĪĢ áĬķ
Ġáīłáīµ áī¥áī¥áĪŃ
Ġáĭ¨áĬłáĪľáĪªáĬ« áĬķ
Ġáī°áĪ¨ áĬŃ
ĠáīłáĬ¥áĬķ áĭ²áĪħ
ĠáĬłáĪµáī°áĭ³áĭ° áĪ«áĭĬ
Ġáĭ¨áĪļáĭ«áĪ° áĬĿ
áĬĴáĪµáīµ áĪ®áī½
áĮ ķ
áĬĲ áī°áĬĽáĭį
ĠáĮ §
Ġáĭ¨áĪļ áĮ¥
áĪļ áĪµ
ĠáĬłáĪµ áī¦
ĠáĪĪáĪĽ áĮłáĬĵáīĢáīħ
ĠáĪĪáĪĽ áīĥáĪĪáĪį
ĠáĬ« áĪħáĬĵ
Ġáī°áīĭ áĪ«áĮ®áī½
Ġáīĥ áĪīáĬķ
Ġáī°áĬ¨ áĪµáī¶
áĬ¥áĬĵ áĪĽ
ĠáĬ¥áĪĿ áī¢
ĠáĬĥáĭŃáĪĪ áĬĽ
ĠáĭŃáĭĪáĪµ áĭ³áĪį
ĠáīłáĪĺáĪĿ áĮ£áī±
áī¥áĪ«áĭŃ áĪµáĮ¥
áĭµ áĭµ
áīĢ áĪĮ
Ġáĭ« áĮĪáĪĪáĮį
Ġáĭ¨áī° áĮĪ
ĠáĪį áĭ°áīµ
ĠáīĢ áĭ¶
ĠáĪĪáĪĺ áĪ°áī¥áĪ°áī¥
Ġáĭ¨áĬ¥ áĪħáĪį
ĠáĪĭ áĪĪáĪĽ
ĠáĪĲ áĪ¨áĪŃ
ĠáīłáĪµ áįĸáĪŃáīµ
ĠáĮ£ áĭŃáī±
ĠáĭŃáĭĺ áĭĭáĪį
áĪĺáī» áī¸
Ġ O
ĠáĬ¥ áĪįáįį
áī° áĪµáįĭ
áĪ« áĬĳ
ĠáĪĪ áĬ¤
ĠáĭĪ áĪĪáĭ°
áī¶ áī¿
ĠáĪµ áĪĪáĪĿáĬķ
áĬ¥ áĬ®
áĬ¥ áĮįáĭļáĬłáī¥áĪĶáĪŃ
Ġáī£ áĬ«áĪĦáĭ°áĭį
ĠáĬ¥áĬķáĭ² áĪ°áĪ«
áĪĻ áĭĿ
áī³áĭĬ áĭį
ĠáīłáīĢ áĪ¨
áĮ© áĬķ
ĠáĪ Ł
áĭŃ áĬķáīµ
áĬĲ áīłáī¥
ĠáĪĪ áīĨ
Ġáĭ« áĬĲáĪ°
ĠáĪ³ áīħ
áĭĮ áĪŃ
Ġ6 00
Ġáī°áĪ³áīµáįİ áĬĵ
ĠáīĢáĭµ áĪĺáĭį
ĠáīłáĪĪ áĭį
ĠáīģáĪ³áīģ áĪµ
áĪµ áī·áĪį
Ġáīł áĮ¥áĪŃ
ĠáĪĺ áĪĺáĪ¨
áĬ¨ áĪĪáĭį
ĠáĬ¥áĬķáĭ° áĭĺ
Ġáĭ¨áī° áįĪáįĢ
ĠáĪ² áĮłáĬĵáīĢáīħ
ĠáīĢ áĭ³áĭ³
Ġáīłáī° áįĪáĮłáĪ¨áĭį
ĠáĬ¨áī° áĭ°áĪ¨áĮĪ
áįħ áĭĭ
ĠáīłáĬłáĪ ¨
áĪ£ áĭŃ
ĠáĪµáĬķ áĪĺáĪĪáĬ¨áīµ
201 7
áĪįáĪµ áĮ¤
Ġáĭ¨áĪļáĮĪáī£ áī¸áĭį
ĠáīłáĪ© áĬķ
ĠáīµáĭĿ áī³
Ġáī°áĪ°áĮ¥áī¶ áīµ
ĠáĮ¥áįĭ áī°áĬĽ
áīłáĬłáĬķ áįĥáĪ©
áī¸ áĭī
áīłáĪ ª
Ġáĭ« áĭĿ
áĬ« áĬĿ
áĪĥ áĪĿ
ĠáĪĥ áĪĿáĪ³
áĪı áī¸áĭįáĬķ
ĠáĬłáī£ áī°
ĠáĮİ áĪį
ĠáĪĪáĪĿ áĮįáī¥
ĠáĪµáįĸáĪŃ áī±
ĠáĪĺáĪĭ áĬ¥áĬŃáīµ
Ġáĭ¨áĬłáĬķáĭµ áĬĲáīµ
Ġáīłáī¤ áī°áĪ°áī¥
áĬķ áĮŃ
áĭ« áī½áĬķáĬķ
ĠáĬ¨ áĭ³
Ġáī¢ áī¢áĪ²
ĠáīłáĬ¥ áĭļáĪħ
áī³áĭĬ áĬĲáīµ
áĪĢ áĭµáĪ¶
Ġáīłáĭ¨ áĬĲ
áĮįáĪĪ áĪ°áī¦áī½
ĠáĪĪáĪĽáĪµ áĪĺáĭĿáĮĪáī¥
ĠáĪĪáĬ¥ áĬĵáĬķáī°
ĠáĮĪáī¥ áĬĲáīµ
ĠáĬłáīħáĪŃ áīłáĭį
ĠáĭŃáīħáĪŃ áĬĵ
ĠáĬłáĭĪ áīĥ
ĠáĬ¨áĮį áĪĽáĪ½
áĬłáĬķáī° áĪĿ
ĠáĬłáĬĵ áĪ³
Ġáī°áĬ« áįĭáĭŃ
Ġáīł áĭµáĪ¨
ĠáĬ¨ áĪ½
ĠáĪĪ áĬ¥áĬĲáĭļáĪħ
Ġáĭ« áĮłáįĭ
áĭĭ áĪī
áĮĢ áĪĿáĪ®
ĠáĪĪáĪĽ áĬķáĪĿ
ĠáīłáĬł áĬķáī°
áĮŃ áī±
ĠáĬ¨áī° áĪ°
ĠáĪ½ áįĪáĪ«áĭį
Ġáĭ¨áīµ áĬ©áĪ¨áīµ
áĪº áĭ«
ĠáĮįáĭµ áĭ«
áĪĪáįį áĬĲáĭį
ĠáĪµáįĸáĪŃ áī±áĬķ
ĠáĪµáįĸáĪŃ áī°áĬŀáī½áĬķ
ĠáĬłáĭŃáīĢ áĪ¬
ĠáĬłáĭįáĮ¥ áī°áĭį
áĬĲ áįĥ
Ġáĭ¨áĪ İ
ĠáĪĪ áĮ¤áĬĵ
áĪ° áĪ°
Ġáĭ¨áĪĺ áĬķáįĪ
ĠáĪħ áĮī
Ġáĭ¨áĪĪ áī£áī¸áĭįáĪĿ
Ġáĭ¨áĪļáĮł áīħáĪĿ
Ġáĭ« áĭ©
áĪĨ áī½
Ġáĭ¨áī° áīĢáĪ¨
Ġáĭµ áĬ«áĪĿ
áīĨ áī¹
ĠáĮī áĮīáīµ
áĬ® áĪĲ
Ġáī½áĮį áĬĿ
Ġáĭ«áĪµ áī¸áĮį
ĠáīłáĬ¥ áĪĿáĬĲáīµ
Ġáī¥áĭĻ áĭİáī½áĬķ
ĠáĭŃáĮĪáĬĿ áīłáī³áĪį
áī£áĭĶ áĭį
Ġáĭ¨ áĮĢáĪŃáĪĺáĬķ
áĪį áįİ
áĪĪ áĬ¥áĭļáĪħ
Ġáīł áĬŃáĪįáĪİáī½
áī£ áĪµ
ĠáĪĪ áĬ¢áĬķ
ĠáĭŃ áĪįáīģ
ĠáīłáĪĺ áĪĿáĮ£áīµ
ĠáĪĪáĪĽ áĪĿáĪ¨áīµ
ĠáĭĪáĭ° áĭļáĭ«
ĠáĮĭ áī¥
áĮ½ áįį
áĭĻ áīµ
áĬĲáĭį áĪĿ
áįİ áī¶
ĠáĬ¦ áĭ²áīµ
ĠáĬ¦ áĪİáĪĿáįĴ
áĪ³áī° áįīáīµ
áĬ¨áįį áĪī
Ġáĭ¨áĪĮ áĪĪáīłáīµ
ĠáĬłáĬŃ áĪĬ
áī³áĭ° áĪµ
Ġáī°áĭ«áĭŃ áĭĺáĭį
it y
Ġ 00
áĭį áĪĪáĭį
Ġáĭ¨ áĮĪáĪĪáĮ¸áĭį
ĠáĪĺ áĪĺáĪĪ
áįį áĪ¨áĭį
áĮł áĮł
áĮł áĮĭ
ĠáĪµ áĪĿáĬķ
ĠáĮį áĬĿ
áĭĵ áĪĺáīµ
ĠáīłáĪĽ áĭķ
ĠáĪķ áĮīáĬķ
ĠáĪģáĬĶáī³ áĬķ
áįĢ áĭ³áĮĥ
áįķ áĪ¬
ĠáĪĪáĪļ áĪĨáĬĳ
áīłáĪĭ áĭį
Ġáĭ¨áįĪ áĪ¨áĬķáĪ³áĭŃ
áĮ© áīµ
Ġáĭ¨áĪļáĭ«áĭį áīħ
ĠáĪĪáĪĽáĪµáī° áĪĽáĪŃ
Ġáĭ¨áĪĽáĭķ áĭµáĬķ
áĪ¨ áĬĵ
áĭ¨ áĮįáĪį
áĭĪ áĮĪ
áĮ£ áįį
áĪģ áīµáĬķ
áĭĺ áĭĭáĪį
ĠáĪĬ áĪ°áĪ«
áĪ² áĪµ
ĠáĪħ áĮ»
ĠáĪļáĬĴáĪµáīµ áĪ®áī½
Ġ9 7
Ġáĭ°áĬķ áī¦áī½
ĠáĪĺáĪĿ áĪ¨áĮ¥
áĬłáĪĪ áĪĿ
ĠáĪ¦ áĪµáī±
ĠáīĢáĮ£ áĭ©
áĬ¡ áĮĭáĬķáĭ³
Ġáĭ¨áĪ© áĪ²áĭ«
ĠáīłáĪĿáĪŃáĮ« áĭį
ĠáīłáĬ¥áĪŃáĮį áĮłáĬĿáĬĲáīµ
áįķáĪ®áįĮ áĪ°áĪŃ
a m
Ġáīł áī¥áĪŃ
áĭ³ áī¥áĪŃ
ĠáĭŃ áĪĺáĪĪ
Ġáĭ« áĭįáĪĿ
ĠáĬ¥áĬķáĭ² áī½áĪį
áī» áī½áĪģáĬķ
áĪĨáĬķ áīłáīµ
áĬķáĮį áī°áĬķ
áĮ« áĪį
Ġáĭ¨áĪµ áĪįáĬŃ
ĠáįĢ áĮī
ĠáĪĽáĪµáī° áĪĭáĪĪáįį
áĪĭ áĪĬáīµ
Ġáī° áĮłáī¥
ĠáĪĪ áĭļáĪģ
áĪ° áĪĭ
áĬĳ áĬ¤áĪį
ĠáĮį áįį
áĬłáĪ °áĪįáĮ£
ĠáĪ³ áĪħ
ĠáĬ¤ áĭµáĪµ
Ġáĭ¨áī£ áĪ°
Ġáī£áĪĪáĪĺ áī»áĪī
ĠáĪĿáĮįáī£áĪŃ áĬĵ
áĬ¨áĬĵáĭĪáĬĳ áīµ
áĮİáīł áĬĻ
áĪį áĪ½
áĬĵ áī³áĬķ
ĠáĬ¥ áĪĭ
ĠáĪĪ áĪµáĪ«
áĭ³ áĪµ
áīłáĪ ¯
ĠáīĢ áĭį
áī² áĭİ
áī¦ áī¹áĬķ
Ġáĭ¨áĪħ áī¥áĪ¨áī°áĪ°áī¡áĬķ
ĠáĮįáī¥ áĬłáīµ
áįĵáĪŃ áĬ©
áī° áĪļáĭ«
Ġáīł áĮįáĪ«
áīłáĪ ĥ
ĠáĬĥáĭŃ áĪįáĬĵ
ĠáĪŀ áī°áĪŃ
ĠáĪĪáĬł áĮĪáĪįáĮįáĪİáīµ
ĠáĭĭáĮĭ áĭį
ĠáĪĺáĭµ áĪĢ
Ġáĭ¨áĪļáī½áĪī áīłáīµ
ĠáĪļáĪµáĮ¥ áĪŃ
± áį»áį
áĭµ áĪİ
áī£ áīłáĪµ
áĪĽ áĮŃ
Ġáĭ¨áĪļ áĪĺáĪ©
Ġáĭ° áĭĮ
Ġáĭĵ áĪĿ
áĭ± áīµáĬķ
ĠáĮł áīł
ĠáīłáĪµ áĪįáĬŃ
Ġáĭ¨áĪµ áī¥
ĠáĬ¨áĪĽ áĪĪáīµ
Ġáĭ¨áĪ« áĪµáĬķ
Ġáĭ¨áĮ¥ áĬķ
Ġáī± áĪŃáĬŃ
Ġáĭ¨áĪļáĪī áīµáĬķ
ĠáĪł áįĬ
ĠáĪĶ áĬŃáī³áĪŃ
ĠáĬ«áĪħ áĬĵáīµ
ĠáĬ¨ áĬ®
áĭ¨ áī³áī¸áĭį
áĬł áīĢáįį
Ġáīłáī° áĪŁáĪĭ
Ġáī³ áĮ£
ĠáĬłáĪį áīĨ
ĠáĪĪáĬ¥ áĪŃ
ĠáĪłáĪ« áī°áĬĽáĭį
áĪ¸áĬĲ áįī
ĠáĭŃáįĪ áĮłáĪ«áĪį
ĠáĪł áįĪáĪŃ
ĠáįĪáĮ¥ áĬĸ
ĠáĪĴ áĪ³áī¥
áĪŃáī¶ áĭ¶
Ġáĭ¨ áĭļáĭ«
áĭ° áĬĿ
áī¥ áĪ¨áĭį
Ġáī° áĪĭáĪį
áĬ¨ áĪŃáĭµ
Ġáĭ¨áĪļ áīĢáĮ¥áĪį
Ġáĭ« áĮĪáĪĪ
ĠáĪ² áĭ°áĪŃáĪ±
áĮħ áĬķ
ĠáĮĬáĭľ áĭįáĬķ
áī´ áĪĿ
Ġáĭ¨áĪ° áĬĲ
áĭŀ áĬķ
ĠáĪĿáĬŃáĬķáĭ« áīµáĪĿ
ĠáĬ¢áĬķ áĪ¹áĪ«áĬķáĪµ
ĠáĬłáĪµáįĪáĪĭáĮĬ áĭį
áĮ¦áĪŃ áĬĲáīµ
áī´áĬķ áĪ½áĬķ
áĬŃáī° áĪ®áī½
ĠáĪħáĭŃáĭĪ áī³áī¸áĭįáĬķ
ĠáĬ¨áįĬ áĪį
Ġáĭ¨áĪļáĪ°áĪ« áĭį
áĪģáĬĶáī³ áĭį
ĠáĬķáįģ áĪħ
ĠáĭįáĭĿ áĮįáī¥
áĬ Ħ
áĮĪ áĪ©áĬķ
Ġáī° áĪĺáĪĪáĪ±
ĠáĪĿ áĭķ
ĠáĬ¥áĬķáĭ² áĪĦáĭµ
ĠáĪĬ áĬ¨áĪ°áīµ
Ġáĭ¨áĪĽ áĪĿáĪ¨áīµ
ĠáĭĵáĪĭáĪĽ áĭį
ĠáĪĺáĭĽ áī£áīµ
ĠáĪŃáĭĿ áĪĺáīµ
áĮį áĪ¬
ĠáĪĪ áĬłáĪĿ
áįĪ áĪ©áīµ
ĠáĬ¥áĭ¨ áĪ°áĮ¡
Ġáĭ¨áĬ¢ áĮ£áĪĬáĭ«
áĭ¨áĪĺ áĬķáĮįáĪµáīµ
Ġáĭ® áĬĵáĪµ
ĠáīłáĮį áĪĽáĪ½
ĠáĮīáī£áĭĶ áĭį
ĠáĬĲáĮ» áĬĲáīµ
áĪŃ áĭ¶
Ġáīł áīĭáĬķáīĭ
ĠáĪĺ áīĨáĮ£
ĠáĪĪ áĭµáĪŃ
áĬ¨ áįįáīµ
áīħ áĭ±áĪµ
Ġáĭ« áĭµáĪŃ
ĠáĭĪ áĪĪáĪį
áĪ® áī»áī½áĬķ
áĬķáĮį áĭ±
áĭĵ áĪĬ
áĪĬ áĬĴ
ĠáīłáĪĽ áĭ³
ĠáĬ¨áĪļ áĪį
ĠáįįáĪĭáĮİ áīµáĬĵ
ĠáĬŃáĬķ áįį
Ġáĭ¨áĪļáĪµáī°áĭĭ áĪī
Ġáī°áĪĺáĪµáĪŃ áī¶
áīł áĬ¤
áīłáīµ áĪĿáĪħáĪŃáīµ
áĪµáī° áĬŀáī½
áĭĪáĭ° áĭµ
áī£áī£ áĪµ
ĠáĬ¨áĬłáĬķ áĭ±
ĠáĬłáĭ² áĪ±áĬķ
áĬŃáĪĮ áĪŃ
o t
ĠáĬł áĬ¨
áĭµ áĭ«
áĪĭ áī½áĬķáĬķ
áĪĽ áĪĬ
ĠáĬ¨ áĬłáĪĿ
ĠáĭĪ áĪİ
áĮ£ áĪªáĭİáī½
Ġáĭ¨áī° áįĪáĮłáĪ©
áĪªáĭ« áĬķ
ĠáĪĺáĪµ áĪħ
áĮĨ áī¹áĬķ
áįĢ áĭ°
Ġáĭ¨áĮį áĪī
ĠáĪĽáĪµ áīĢáĪĺáĮ¥
ĠáĬłáī£ áĪĭáī±
ĠáįĬ áī±áĬķ
ĠáĪ¸ áĬķ
Ġáĭ¨áīĢ áĬķ
ĠáĭµáĬķáĮĭáĮĮ áĭİáī½
ĠáĬł áĮ£áĮ¥
Ġáĭ¨áĪļ áĪłáĪ«áĭį
Ġáĭ¨áĪļ áĬ¨áī°áĪī
áĪ³ áĭįáĭ«áĬķ
ĠáĪĪáĪĽ áĭ³áĬķ
áĮĵ áĭĺ
Ġáĭ¨áĪĨáĬĲ áī½
áĬĹ áī¸áĭį
ĠáĬĸ áĪ¯áĪį
ĠáĪĪáĬłáĪ µ
ĠáīłáĮĪ áīłáĭ«
ĠáĪĺáĪĭ áĬ©
ĠI n
Ġáīµáī½áĪĭ áĪĪáī½
Ġáī°áĮįáĭ³áĪ® áī¶áī½
áī Ĳ
áĮį áĪµáī±
ĠáĬł áĮī
Ġáīł áĭįáĪį
ĠáĪĪ áĭĺáĪŃáįī
ĠáīłáĪĺ áĮįáĭĽáīµ
ĠáĬ¥áĬķáĭ² áĪłáĪ«
ĠáĭĪáĭ° áįĬáīµáĪĿ
ĠáĬłáĬķ áĪµáī°áĭĭáĪį
áĮŃ áĬĲáīµ
ĠáįĪ áĪ«
ĠáĪĮáĪİáī½ áĬķáĪĿ
Ġáī°áĭĪ áĪĭáĮħ
Ġáĭ¨áĪķ áĭĿáī¡áĬķ
Ġáīłáĭĵ áĪĭáīµ
áĪĺáĪ° áĮį
ĠáĭĪáĪ¨ áĪŃáĪ½
áĪĺáĬĵ áī½áĬķ
ĠáĪĪáĪħ áĭĿáī¡
Ġáīłáīģ áĮ¥áĪŃ
ĠáĬ¥áĬķáĭ°áĪĽ áĪĪáīµ
áīĢáĮ£ áĭ©
ĠáīħáĪ¬áī³ áĭİáī½
áįķáĪ®áĮĢ áĬŃáīµ
áī°áĬ© áĪŃ
¸áĬĵáįĬ áĬĲáīµ
ĠáĭŃáĪĺáĮ£ áĪī
áĭŃáĬ¸ áĭįáĪĿ
áĭ° áī½áĭį
Ġáĭ¨áī° áĮĪáĬĲáī£
Ġáī¤ áĬķ
ĠáĬ¥áĬķáĭ°áĪļ áĮĪáī£áĭį
áī· áĪĿ
áĮĪáĬĺ áī±
áĮĵ áĭ°áĬĽ
áī¥áĪ¨ áī³
ĠáĭŃáĪħáĬķ áĬķáĪĿ
áĬ¥áĬĶ áĬķ
ĠáīłáĪ« áĪ³áī½áĬķ
ĠáīĨáĭŃ áī°áĭį
Ġáĭ¨áĪĢ áĮĪáĪªáī±áĬķ
Ġáĭ¨áī» áĪīáīµ
áĮĪáĪįáĮįáĪİ áī±
Ġáī³áĭ³áĮĬ áĭİáī½
ĠáĬ¢áĬķáī°áĪŃáįķáĪ«áĭŃ áĭŀáī½
áĬĲ áĪ£
ĠáĪĺ áĮĪ
ĠáĬ¨ áĮĢáĪĺáĪ©
Ġáī° áĪĺáĪĪáĬ¨áī°
áĬĽ áĭĭ
ĠáĬłáĪµ áīłáĭį
ĠáĮİ áī¥
ĠáĬłáīħ áĪĿáĬķ
Ġáīłáĭĺ áĬķáĭµáĪ®áĭį
Ġáī°áĭ°áĪ«áĪ½ áĬĲáīµ
ĠáĬłáĪĭáĪµ áįĪáĪĭáĮĬ
ĠáĬłáĮĪáĪĭáĪĪ áĮ½
ĠáĪĽáĪµáįĭ áįĬáĭ«
Ġ e
Ġáĭ İ
ĠáĪ ¯
áĪŃ áĬ©
ĠáĬ¥ áĮĪ
áĪĺ áĪħ
áīĢ áī¶áī½
ĠáĪµ áĪĭáĪī
áī» áĭį
áĭĵ áĪį
áĪĬ áĮ¥
ĠáĪĬ áĪĺáĮ£
áī´ áĬĵ
áĪķ áĭŃáĭĪáīµ
ĠáĬłáĭŃáĭ° áĪĪ
ĠáĮ¥áĭ«áīĦ áĭįáĬķ
ĠáĬłáĪ³ áĪĽáĬĿ
ĠáĪĪáĬł áĬ«áī£áī¢áĭį
ĠáīłáĪķ áĭĿáī¡
Ġáĭ¨áĭ° áĪµáī³
áĪĿáĬŃáĬķáĭ« áī±
ĠáĪ»áĪĿáįĴáĭ® áĬķáĪµ
ĠáĪĽáĪµáī³áĭĪ áĪµ
ĠáĪĽáĭ³ áīłáĪŃ
ĠáĬ¥áĪĺ áī¤áīµ
ĠáĭŃáĬĲáĪ³ áĪį
áĪª áī±áĬķ
ĠáĭĪ áĮ¡
Ġáĭ¨áĪĺ áĪĺ
ĠáīłáĪĽ áĪĿáĮ£áīµ
áĭ«áĭį áĭ«áĬķ
Ġáī¥áĪŃ áīħ
áĪĢ áīµ
ĠáĮİ áĪ¨áī¤áīµ
ĠáĮįáĪĪ áĪ°áī¡
áĮİáĬķ áĭ°áĪŃ
ĠáĪĿáĪŃáī³áĪĽ áĬĲáīµáĬķ
ĠáĬłáĪłáĪį áĮ£áĬĿ
Ġáī£áĪįáĬķ áĮĢ
áĮį áĭĿáĬĵ
áĬĲ áĬĿáĬĲáīµ
áīł áĮ£
Ġáī° áīĢáĪŃ
Ġáĭ¨áĪļ áĪ»
Ġáĭ« áĭ°áĪŃáĮį
ĠáĪ² áĪ°áĪĽ
ĠáīłáĪĺ áĪ°áī¥áĪ°áī¥
áī´ áīª
ĠáĬ¥áĭ¨áī° áĬ¨áĬĵáĭĪáĬĳ
áĮ® áī¹
ĠáĮłáĪ ĺ
ĠáįĸáĪĬáĪ² áĬĵ
ĠáĭĲ áĭŃ
ĠáĪĿáĪħ áĪ¨áīµ
ĠáĭŃáīłáĪį áĮ£áĪį
áĬĴáĪµáī´ áĪ©
áĭ° áĪĻ
áĪ¨ áĮĪ
ĠáĮ łáĪ«
Ġáī° áįĪáĮłáĪ¨
ĠáĪ² áĪ°áĮ¡
áī» áī½
áĪĬ áīłáĪĭ
Ġáĭ¨áĪļáĭ« áĭĪáĮ£
ĠáĪĬ áįĪáĮłáĪŃ
ĠáīłáĪµ áī¥áĪ°áī£
Ġáĭ¨áīµ áĬĽáĭįáĪĿ
ĠáĪĪáĪĽáĪµ áĪ¨áĭ³áīµ
ĠáĮįáĭµ áĮįáĭ³
ĠáĪµáĪĪáĪļ áī½áĪį
Ġáĭ¨áĪ°áī¥ áĬłáĭĬ
ĠáĪµáī´áīµ áĪµ
áĬ¨ áĬŃ
áĬ¨ áĪļ
áīĭ áĪĽáī±
Ġáĭ¨áĪ° áī¥áĪį
Ġáī¦ áĬķáĭµ
ĠáĪĨáĬĲ áī½
áĬĥ áĭŃ
ĠáĬłáĮĭ áĭ¥
ĠáĮ¨áĭĭáī³ áĭįáĬķ
Ġáīłáīł áĮĢáīµ
Ġáī´áĬŃáĬĸáĪİáĮĤ áĭİáī½áĬķ
áĪµáĪį áĪĿáĬĵ
Ġáĭ¨áĮłáīĨ áĪĺáĭį
ĠáĬ¥áĬķáĬ© áĭĭ
ĠáĭŃáĮĪáĪĺ áī³áĪį
½ áĬ¨áĪŃ
áĭĪ áĪįáĭµ
áĮ£ áĪĪ
áĬ¥ áĭ¨áī°
ĠáĬ¥áĬķáĭ° áĭ¨
Ġáĭ¨áī° áįĥ
ĠáīĢ áĪ¨áĮ¥
áī¸áĭįáĬķ áĪĿ
ĠáĬłáĭŃ áī³áĭĪáīħáĪĿ
Ġáįį áīħáĪ¨
Ġáīħ áĬĶ
ĠáĬ¥áĭ« áĮĪáĬĺ
ĠáĪ³áĭŃ áĬķáī²
ĠáĬ¥áĭ¨áī° áĬķáīĢáĪ³áīĢáĪ°
áĬ¥áĬķ áĭ³
Ġáĭ³ áĬĿáĬĲáīµ
Ġáī°áĭĪ áĭ³
Ġ5 4
áīłáĪĪ áĭļáĭ«
ĠáĮīáĭµ áĮĵ
Ġáĭ¨áĪ² áīªáĪį
ĠáĬłáĪµáīĢáĪĿ áĮ§áĪį
áĪį áįĪáĭį
áĭ° áĮĥ
áĪĭ áĬ©
áĬ¨ áī£áĪĪ
áĪ® áĪİáĮĤ
áīĨ áĪ®
ĠáĬłáĬ« áĪĦ
Ġáĭ¨áĪļáĪ° áĮ£áī¸áĭį
ĠáĬłáĭ°áĮĭ áĭį
áĬ¨áįĪ áī°
ĠáĭĪáĮĪ áĬĸ
Ġáĭ°áĮĭ áĮįáĪŀ
áĬĲ áī£
ĠáĭŃ áĬ¨áī°
Ġáĭ¨áĪļ áĮĭ
Ġáĭ¨áī° áĮ»áįĪ
áĭĺ áĭĺ
ĠáĪ² áĮĢáĪĺáĪŃ
ĠáīłáĪĺ áīħ
Ġáīµ áįĪáĪįáĮĭ
ĠáīłáĪĽ áĪĪ
ĠáĬ¥áĪµ áĬ«áĪį
ĠáĪĨáĬĲ áĪħ
áĪªáĬŃ áĬĽ
Ġáī´ áĬĴáĪµ
áĮĪáĬĲ áĭĿ
áįĪáĮ¸ áĪĻáīµ
ĠáĮįáĬķáī£áī³ áĬĵ
áĮ¢ áĬł
Ġáī°áĮłáĪŃ áĮ£áĪª
áī½ áĪīáīµ
áī½ áĬłáĭŃáīª
Ġáīł áĭľ
ĠáĬ¥áĬķ áĬ¨áĬķ
áįĪ áīĥ
áĮŃ áīĨ
ĠáĬłáīĢ áĪĽ
áĪ°áĪ« áĮ¨áīµ
Ġ200 6
ĠáĪĿáĪŃáĮ« áĭİáī½
ĠáĪ» áĭŃ
Ġáĭ¨áī°áĮłáīĢ áĪ±áīµ
Ġáĭ¨áĮĪáī¡ áīµ
ĠáĮĢáĮį áĬĸáī½
ĠáįįáĮĨ áī³
ĠáĪĺ áĮ£áĪį
ĠáĮį áī¦áī½áĬķ
ĠáĪį áĪĺáĬĵ
ĠáĬŃ áī¥áĪŃáĬĵ
ĠáĪ¥ áīĥáĭŃ
ĠáĬ¥áĭ¨ áĮĪáī£
áĬĴ áĬŃáĪµ
áĮİ áĪĽ
áī· áīµ
ĠáĮİ áĪ³
ĠáįĬ áĪŃáĪĽ
áĮĮ áĪ¨áĭ³
Ġáī£áĬķ áĭ²
ĠáīłáĭµáĪŃ áīħ
t er
Ġáĭ¨ áĮ¨áĭĭáī³
áĪ¨ áĬĽáĭį
áĪĪáĬķ áĭ°áĬķ
Ġáīłáīł áĮİ
Ġáĭ«áĪµáįĪáĪį áĮĭáī¸áĭĭáĪį
ĠáĬłáĪįáĬĲáīłáĪ¨ áĭįáĪĿ
Ġáĭ¨áĪħáĭĿáī¥ áĬķ
ĠáĬ¬áĪļ áĬ«
áĭŃ áĭµ
ĠáĪĺ áįĪáĮ¸
áīł áĬ¥áĬĶ
áĭ¨ áĮ¤áĬĵ
áĪ» áĪĿ
ĠáįĪ áĪĭ
ĠáĪ± áīħ
Ġáī°áĪ³ áįĭáĪª
ĠáĬ¥áĭĪáĭ³ áĪĪáĪģ
ĠáĬł áĬĵáīµ
Ġáī° áĭĽ
Ġáĭ¨áĪļ áī£áĪĪáĭįáĬķ
ĠáĪĪáĪĽ áĪįáĪĽáīµ
Ġáĭ¨áĪļáĭ« áĮĪáĪĪáĮįáĪį
áĪ¸ áĪĽ
Ġáī¥áĪŃ áī³áīµ
ĠáīłáīĢ áĭ³áĪļáĬĲáīµ
ĠáĪĲ áĪĻáĪµ
ĠáĬłáīµ áĬŃáĪį
Ġáĭ¨áĪĽáĭŃ áī£áĪį
ĠáĪ¸ áĬŃáĪĿ
Ġáīłáįį áĪŃ
áĭĿáĮį áĮħ
Ġáī°áĮĪáĬĿ áī¶
ĠáĬłáĭŃáī³ áĭŃáĪĿ
áĪĺ áĪĺ
ĠáĪĺ áĭĪáĪ°áĬķ
áīħ áĮ£áĮ«
áĮĭ áĮĪáī¥
ĠáĪĽ áĪ°áī£
ĠáīłáĪĺ áĪ¬áīµ
ĠáĮ¥ áĭŃáīµ
áĭĽ áĭįáĬķ
Ġáīłáī° áĬĵáĮłáĪį
áĬŀ áī»áī½áĬķ
ĠáĬ¥áĭ« áĭ©
ĠáĪĿáĪŃ áī±áĬķ
áīłáĪį áĮį
Ġáĭ¨áĪķ áĮĪ
áįĪáĪįáĮī áīµ
Ġáīłáĭĭ áĬĲáĬĽáĬĲáīµ
Ġáĭ¨áįĵáĪŃáī² áĭį
Ġáīłáī° áīĢ
ĠáĬ¥áĬķáĭ³ áĪĭáīµ
Ġáĭĭ áĭľáĪĽ
ĠáĬłáĪĽáĬ« áĭŃ
ĠáīłáĪ¨ áĬ¨
ĠáĬłáī£áĪį áĬĲáīµ
ĠáīłáĪĥ áĭŃáĪĽáĬĸáīµ
ĠáĪĺ áĪ²
ĠáĬ¨ áĬĲáīłáĪ¨áīłáīµ
áīħ áĪĭ
ĠáĪ³ áĪī
áįħ áĮįáĬĵ
áĮ» áįī
ĠáĬłáĪĺ áĪŃ
Ġáĭ¨áĬĲáīłáĪ¨ áīłáīµ
ĠáĬ¨áĪĽ áĭµáĪ¨
áĪ¨áĮĭáĮĪ áĮłáĭį
áīłáĪĮ áĪİáī½
Ġáĭ¨áįĪ áįĢ
áĪĤ áĭµ
Ġáĭ¨áĪ³áĭŃ áĬķáĪµ
Ġáīłáī°áīĥáĪ«áĬĴ áĭį
ĠáīłáīģáĪŃ áĮłáĬĿáĬĲáīµ
Ġáī° áĭ°áĮĭ
Ġáĭ¨áī° áĭĺáĮĭáĮģ
Ġáĭ¨áī° áĮĢáĪĺáĪ©
Ġáĭį áĮ¥áĪ¨áīµ
áĭľ áĪ½áĬķ
áī°áĬĽ áĭįáĬķ
Ġáī³ áīµ
áĮĵ áĪľ
ĠáĬłáīĢ áĪ«áĪ¨áī¥
áĪĨáĬĵ áī½áĬķ
áĮįáĪ« áįį
ĠáĪ´áī¶áī½ áĬĵ
ĠáĬłáĪĽáĪ« áĮ®áī½áĬķ
ĠáĮįáĪŃ áĮįáĪŃ
Ġáĭ¨áī°áĬĲ áĪ£
ĠáīµáĪĨáĬĵ áĪĪáī½
7 5
i d
áī° áĬĲ
áĪĽ áĪĪáī½
Ġáĭ¨áĪļ áĮĪáĭĽ
áīĨ áĮłáī¥
Ġáī¢ áĪĬ
ĠáĬ¥áĪµ áĪ«áīµ
áĮĨ áī»áī¸áĭįáĬķ
áĮĪáĬĿ áĬĲáīµ
ĠáīłáĪĿ áĬŃáĪŃ
áĬħ áĪ«
Ġáī°áĬ¨ áĪ«áĭŃ
ĠáĮłáĪ į
ĠáĮ¸ áĮĭ
ĠáĪ«áĪµ áĪħáĬķ
ĠáĬ¥áĪħ áī¶áī½
ĠáĪĽáĮ£ áĪŃáĭ«
Ġáĭ¨ áįĮáĭ°áĪ«áĪį
áĪį áĪĿáĬĵ
ĠáĪĪ áĬĶ
áĭ³ áĪĪáī½
áī¡ áĪ©
ĠáĮİ áīłáĭĿ
Ġ5 2
ĠáĬ¨áĬ¥ áĬĲ
ĠáīłáĪħ áĭĿáī¡
áĭĺáĭĭ áĭį
ĠáĭŃáĮĪáĪįáįĥ áĪį
áĭ° áī¢áīµ
Ġáīł áī¶
ĠáĪĪ áĬ¨áįįáī°áĬĽ
áįĪ áĮ»áĪļ
ĠáīĢ áĮłáĪī
ĠáįĪ áīħ
ĠáĬ¥áĬķáĭ³áĭŃ áĬĸáĪŃ
áĭ«áĪµáįĸ áĪ«áĭį
ĠáĪĺáĭĭáīħ áĪ«áĭĬ
Ġáĭ¨áī°áĮĢáĪĺáĪ¨ áĭįáĬķ
áĬ¥áĬķáĭ°áĪļ áī³áĭĪáīĢáĭį
Ġáĭ¨ áĭ°áĪ¨áĮĥ
ĠáĪĺ áįĪáĪĪáĮį
áĪ° áĭŃáĮ£áĬķ
áĬ« áĬĶ
ĠáĪĽ áīĨáĪĿ
áĬĳ áĬĵ
áĮ½ áĮįáĬĵ
Ġáĭ¨áĪĿ áĪµáĪ«áīħ
Ġáĭ°áĪ¨áĮĥ áī¸áĭįáĬķ
ĠáĪĺáĪŃ áĬ¨áī¥
áĬ¥áĪµ áĬª
ĠáĪĢáī¥ áī³
ĠáĪ°áĮª áĭİáī½
ĠáĪįáĭĳ áĪį
ĠáĬłáįįáīĥ áĪª
i r
áĪ« áĪħ
Ġáĭ¨áĪļ áĮĪ
áĪ³ áī³áįĬ
áĪĨ áĬĶ
áĬĸ áĬŃ
Ġáĭµ áī£áī¥
ĠáĬłáĬķ áĭ°
Ġáī³ áĬħ
áĮĬ áīµ
áįĢ áĪ¨
ĠáĪĲ áĭĭáĪŃáĭ«
áĬĥ áĬĴáīµ
ĠáĪ½ áī³
ĠáĪŀ áĪįáī¶
Ġáĭ¨áĪĽáĭŃ áī»áĪį
ĠáĮ£ áĮ£
ĠáĪĺáĬķáĮįáĪµáīµ áĬĵ
áīłáĬłáĪ ľáĪªáĬ«
ĠáĭµáĪŃáĮĬ áī±áĬķ
Ġáĭ¨áĭ³ áĬĿáĬĲáīµ
áįĵáĪŃáĪĭáĪĽ áĭį
ĠáĬ¥áĬķáĮįáĪĬáĭĿ áĬĽ
ĠáĪĪáĪĺáĪ¸ áįĪáĬķ
ĠáĬł áĭ¨áĪģ
Ġáĭ« áĬĲáĮĭ
áī¶ áī»áī½áĬķáĬķ
ĠáĪ² áĭ°
Ġáĭĺ áĪ®áī½
ĠáĪĪáĪĽ áĮ£
ĠáĪ³áĭŃ áīĢáĪ©
Ġáĭ«áĪµ áĮĪáĬĽáĪį
ĠáĬ® áĪŃ
áĪĺáĮ£ áī¸áĭį
ĠáīłáĪµ áĬĲ
Ġáī°áĮĪáī¢ áĭį
ĠáĮĪáĪįáįĢ áĭį
ĠáīłáĬ¤ áĪŃáīµáĪ«
ĠáĬ¨áī¥ áī¶áī½
áī°áĮĪ áīłáĪŃ
ĠáĬ¥áĬķ áĮĪáĬĽáĪĪáĬķ
áĪļ áĪĬáĭ®áĬķ
ĠáĬ¥áĬķáĭ° áĮĪáĪĪáĮ¸áĭį
ĠáĮį áĭľ
Ġáĭ¨áĪĺ áī¥áīµ
ĠáĪĪáĪĽ áĪħ
ĠáīłáĪĽ áĪ»áĪ»áĪį
áĮ¨ áĬĲáīħ
ĠáīłáĬł áĬŃ
ĠáīłáĬł áĭĭáĮħ
ĠáĬ« áĪĪáĪĺ
Ġáĭ«áĪĪ áįĪáĭį
Ġáĭķ áĭįáĬķ
ĠáĬ¥áĭ« áĭĪ
ĠáĬ¨áĬł áĬ«áī£áī¢áĭį
ĠáĭµáĬķ áĬ³áĬķ
ĠáĪłáĪ« áī°áĬŀáī½áĬķ
Ġáĭ¨áĬ® áĪĻ
ĠáīµáĬŃáĬŃáĪĪ áĬĽáĭįáĬķ
Ġáĭ¨ áįĸ
áĬĲ áĪ«áĪį
ĠáĪĺ áī½
áĪĭ áī»
ĠáĬ¨ áĪ°áĪĽ
ĠáĬ¨ áįĸáĪĪáī²áĬ«
áī¸ áĮĪáĪŃ
áįį áĮ¨
áĬ¥ áĪµáĪ«áĬ¤áĪĭáĭįáĭ«áĬķ
ĠáĬŃ áįĭáīµ
ĠáĪĪáĪĺ áĮ¨áĪ¨áĪ»
áī¥áĪŃ áĬĵáĭį
Ġáī°áĬ¨ áī³áĭŃ
ĠáĮįáĬķáī£áī³ áĭįáĬķ
ĠáĪĪáĪĿ áĬķáĭµáĬĲáĭį
ĠáĪ± áĪµ
Ġáĭ¨áĮİ áĭ°
ĠáĪĪáĪĺáĪµ áĪĽáīµ
ĠáĬ¨áĪħ áĭĿáī¡
áĬ¨áĬ¥áĬĲáĭļáĪħ áĪĿ
ĠáĬ¨áĪĮ áĪİáī¹
ĠáĮįáĮ¥ áĪŀáī½
ĠáĪĺ áīĭ
ĠáĪĺ áĬĵáĮĪáĪ«
áĪħ áĮĪ
áĮ¥ áĬķáīµ
ĠáĭŃ áĪŃ
Ġáĭ¨áĪļ áīłáĪįáĮ¡
Ġáĭ¨áī° áĪµáįĭ
Ġáĭ¨áī° áĭĽáī£
áĬķáĭµ áĪµáĬĵ
áĪ¥ áĪªáĭ«
áĪľ áīµáĪŃ
ĠáįĪ áĪ³áĪ½
ĠáīĨ áĪ«
áĪ¯ áī½áĬķ
ĠáĪĲ áĭįáĪįáīµ
Ġáĭ¨áĪµ áĪŃ
Ġáĭ°áĪŃ áĪ°áĭį
ĠáĬłáĮ¥ áĬķáīµ
ĠáĪĽáĮ¥ áĬĵáīµ
áįĲáī¥ áĪĬ
Ġáī´áĪĮ áĬ®áĪĿ
Ġáĭ¨ áĭ«
Ġáĭ¨ áĬŃáīµ
áĪ« áĭİáī½
Ġáĭ« áĪĭáī½áĪģ
ĠáĬ¥áĬķáĭ² áĬ«áĪĦáĭµ
ĠáĪĪáĪĺ áĮłáĭ¨áīħ
Ġáī³ áĭ°áĪŃáĮĭ
áĪĲ áīµ
ĠáīłáĬĲ áīłáĪ©áīµ
áĬķáįĪ áĬĿáĬĲáīµ
ĠáĪĽáĪĪ áī³áī¸áĭį
ĠáĪ£ áĭŃ
áĭ¨áĪħ áĭĿáī¥
ĠáĬ¤áĬŃáĪµ áįĸáĪŃáīµ
áĪĿ áĮĥ
áĭ° áĭŃ
Ġáīł áĮ£
ĠáĬ¨ áĭ³áĪŃ
ĠáĬĲ áĮłáĪĭ
áĬ¨ áĪĮ
áĭĪ áĪĭ
Ġáī£ áīĢáĪ¨áī¡áīµ
ĠáīłáĪĺ áĪ¨áĮĥ
Ġáī³ áĮħ
Ġáĭ¨áĬł áĮĪáĪªáī·
Ġáįį áĪ°áīµ
ĠáīłáĪĿ áĭķáĪ«áī¥
ĠáĮİ áī¥áĬĿ
Ġáī¦áī³ áĭİáī½áĬķ
áĬ¬ áĭµ
Ġáī°áīĢ áī£áĭŃ
ĠáĬłáĪĪáĪĺ áī»
áĭ· áĬķ
Ġáįħ áĪħáįĪáīµ
ĠáĬ¥áĪŃáĪµ áĭİ
Ġáĭ¨áĭ°áĪ¨áĪ° áīłáīµ
ĠáĪĺáīĨáĭ¨ áī±áĬķ
ĠáĪĺ áĭĺáĪŃáĮĭáīµ
áĭ¨ áī£áĪĪ
ĠáĭŃ áīĢáĬķ
Ġáĭ¨áĪļ áįĪáĪįáĮĪáĭį
áĮĭ áī¸áĭįáĬķ
ĠáĪ° áĪ«áĪ½
ĠáīłáĪĺ áĬªáĬĵ
ĠáīłáĪĺ áĪ¸áĮ¥
Ġáĭĺ áĪį
Ġáīģ áĬķ
ĠáĭŃáĪħ áī½
ĠáĬłáĭį áīĨ
ĠáĪ°áĪŃ áī°áĭį
ĠáĪģáĪĪáī°áĬĽ áĭįáĬķ
ĠáĪĽáĪ« áī¶
Ġáĭ¨áĭĵ áĭŃáĬķ
ĠáĪĻáĪµáĬĵ áĬķ
ĠáĬ¥áĬķáĭ°áĪļáĭ«áĪ³ áĭ¨áĭį
áĪ¨ áī°áĭį
Ġáĭ¨áĪ º
áĮ¨ áĪµ
Ġáĭ¨áĪĽ áīħáĪ¨áī¥
áĪ´ áĪİáĬĵ
áĭ«áĭį áĪĿ
áī£áĪį áĬĲáīµ
ĠáĪĭ áĬ¨
ĠáĪĲ áĭĭáĪŃáĭ«áĭį
áĪµáįĭ áįĬáĭ«
áĮ«áĭĪ áī°áĭį
Ġáĭ¨áĮİ áĪŃáįį
áī¥áĪİ áĪµ
áĮīáĭ³ áĭ©áĬķ
ĠáĮįáī¥áĭĵ áī¶áī½
ĠáįĪáįħ áĪŀ
áĭ° áĪ«áĪ²
ĠáĪĺ áĮī
ĠáĪĺ áĭ°áĪ¨
áĪĭ áī±áĬķ
áīł áĮĪ
áĮł áīµáĬĵ
Ġáĭ¨áĪĺ áĪªáĭİáī½
áī² áī±
ĠáĬķ áĪµáĪĲ
áĪ¯ áĪ¯
ĠáĪĺáĭį áĭ°
ĠáīłáĪ¥ áĪįáĮ£áĬķ
áĮĪáĪ¨ áĬĿ
ĠáĭŃáĬĸ áĪ«áī¸áĭĭáĪį
áīĥáĭĭáĪļ áĭİáī½
ĠáĮ¥áīĥ áī¶áī½
Ġáĭ¨áī°áīĭáīĭ áĪĺ
ĠáīłáĪķáĮĪ áĭĪáĮ¥
ĠáĭįáĭŃáĭŃ áī¶áī½
áĭŃ áī°áĪŃáĪµ
áīł áĭŃ
ĠáĮ¥ áĪĿáĪ¨áīµ
Ġáīłáī° áĪĪáĪĿáĭ¶
ĠáĬłáĭŃ áĬĲáī±
áĮ» áĪ©
áĮĬ áĭ®áĪŃáĮĬáĪµ
Ġáī¦ áĪŃáĭ±
áĬ¥áĬķ áĭ²áĭ«
ĠáĪ« áīħ
Ġáī°áĬ¨ áĪ³áĪ½
áĪµáĪĽ áĪĻ
Ġáĭ¨áĬ¦ áĪĬáĪĿáįĴáĬŃ
ĠáĬĭáĪĭ áīĢáĪŃ
Ġáī°áĭĭáĮĬ áĭİáī½
áĪŃáī¶áĭ¶ áĬŃáĪµ
áĬħáĪ« áĬĦ
ĠáĬ¨ áĪ¶áĪµáīµ
áĪ³ áī½áĪģáĬķ
áĪ© áĬŃ
Ġáĭ° áĪ¨áĪµ
áī» áĪŃ
áĭĽ áĪŃ
ĠáĮĬáĭľ áĭ«áī¸áĭįáĬķ
áīĤ áĬĿ
ĠáĪŀ áĪĭ
ĠáĪŀ áīµáĬķ
Ġáĭ¨áīµ áī¥áī¥áĪŃ
ĠáĬ¥áĭµ áĮĪáīµáĬĵ
ĠáīµáĬķ áī¢
ĠáĭĭáĬķáĮ« áĭį
ĠáĬłáĭĺáĮĭáĮħ áī¶
Ġáĭ¨áī°áĬ¨áĪ° áī°áĭįáĬķ
Ġáĭ¨áĭ«áĭĻ áīµ
Ġáĭ ĳ
áĭ° áī³
ĠáĬĲ áĮĪáĭµ
Ġáīµ áĪ«
Ġáīłáī° áĭ°áĪ«áĮĢ
áĪĻ áĪ´
áĭ°áĪ¨ áĭį
ĠáĬķáĮį áĪ¥
ĠáĪĺáĬķáĮĪ áĭ¶áī½áĬķ
ĠáĪ© áī¥
ĠáīłáĪ¶ áĪªáĭ«
áĭ¨áĪĽ áĪħ
ĠáĬłáĭµáĪĽ áĪ±
ĠáĮĪáĭ¥ áĭį
ĠáīłáĮ¦áĪŃ áĬĲáīµ
ĠáīłáĪĺáĮł áīĨáĪĿ
Ġáĭ¨ áĮ¨áĪ¨
áĬĲ áĮ¥
áĪ« áī½
áĪĽ áĬĴ
ĠáīłáĪĺ áĭµ
ĠáĮ¥ áīłáīł
ĠáĬłáĪµ áĮĪáĬĿ
ĠáĬ¥áĭ¨ áįĪáĮłáĪ¨
Ġáĭ¨áĪħ áĭĿáī¡
Ġáī°áĬ¨ áĪ«
Ġáĭ¨áīĨ áĭ¨áĭįáĬķ
Ġáĭ¨áĬŃ áĪ¨áĪĿáīµ
ĠáĪķáĭŃáĭĪ áī³áī¸áĭį
ĠáĬłáĮĢáĬķáĭ³ áĭİáī½
Ġáĭ¨áĪ°áĪĪ áĮłáĬĲ
ĠáįĲ áĪŃ
Ġáĭ«áĪµáĬ¨áīµ áĪĭáĪį
ĠáĮįáĪ© áįķ
Ġáĭ¨ áīµáĬķ
áī½ áĪµáī°áĪŃ
ĠáĪĺ áĮĪáĬĽ
ĠáĪĺ áįĪáĮłáĪ©
ĠáĪĺ áĭĺáĬķáĮĭáīµ
Ġáī° áĬ¨áī°áĪį
Ġáī° áĮĢáĪĿáĪ®
áĬŃ áĬŃáĪĪ
Ġáĭ¨áĪļ áįĪáĮ¸áĪĿ
Ġáĭ¨áī° áįĪáĮ¸áĪĺ
ĠáĬ¥áĬķáĭ² áī»áĪį
áĪĮ áĬĴ
ĠáīłáĬ¥ áĮ¥áįį
ĠáīłáĪĿ áĪµáĪ«áīħ
ĠáĪĭ áĬķ
ĠáĭĺáĪĺ áĬĲ
áĪĤ áĪĿ
Ġáĭ¨áĭµ áĪį
ĠáĪ¹ áĪĿ
Ġáĭ¨áī°áĪĺáĪ¨ áĮ¡
Ġáĭ¨áĪģáĪĪ áī±áĬķ
ĠáĪĺáĮ½áĪĲ áįī
ĠáĪĺáĪ°áĬĵ áĬŃáĪį
ĠáįĪáĪĪ áĮį
Ġáĭ¨ áīłáīĥ
Ġáīł áĮĬáĭľáĭį
áĪ¨ áĭĿ
áĪħ áī¥áĪ¨áī°áĪ°áī¡
ĠáĬ¨ áĪĨáĬķ
ĠáĬ¨ áĬĲáīłáĪ¨
áĪ° áī¡áīµ
ĠáĪĽ áīĢáĬĲ
áĪ® áĬ®
áĪ® áī£áĬķáĭµ
Ġáĭ° áĪµáī°áĬŀáī½
ĠáĬ¥áĬķáĭ² áĮ¨áĪĿáĪŃ
áĪ½ áī±
áĪ¸ áĮ¡
ĠáĬłáīłáī£ áĭį
Ġáĭ¨áī³ áĬŃáĪ²
áīĢáĪĺ áĮ¡áīµ
áĪº áįķ
ĠáĮ£ áĪį
Ġ19 6
ĠáĬ¥áĬķáĭ°áĬĲáīłáĪŃ áĪĿ
Ġáī°áĪ¸ áĬķ
ĠáĮĮáī³ áĭ¬
áīĭáĪŃ áĮ¥
ĠáĪĺáĪµáĪĺ áĪ®áī½
Ġáī° áĬĲáĮĭáĮį
ĠáĪĪ áĭĵ
Ġáĭ¨áĪļ áĬ¨áĪ°áī±
ĠáĪµ áīĥáĭŃ
ĠáīłáĪĺ áīĥáĭĪáĪĿ
áĪ± áīµáĬķ
ĠáĪĺáĪ° áĪ«áīµ
ĠáĬĥáĪĭáįĬ áĬĲáī±
áĭ°áĬķ áīħ
áįĪáĬķ áīħáĪĪ
ĠáĪķáĭŃáĭĪ áī±áĬķ
áĪłáĪį áĮłáĬķ
o c
ĠáĬłáĪ ľ
áĭ¨ áīĢ
Ġáĭ« áĭ³
áīĥ áĪĪ
ĠáīłáĪĺ áĬĲáĮĭáĮĪáĪŃ
ĠáīĢ áĬĳáĬķ
ĠáĬŃ áĪŃáĬŃ
Ġáĭ¨áĬł áĬ¥áĪĿáĪ®
áĭ¶ áĬķ
ĠáĬĵ áįį
Ġáĭ¨áĭį áĪ³áĬĶ
ĠáĪįáĮĨ áī¹áĬķ
ĠáĪĽáĪ« áĬª
ĠáĪ°áĪĿ áī»áĪĪáĪģ
Ġáĭ¨áĬłáĪµáī° áĪ³áĪ°áī¥
Ġáĭ°áĪĭ áĪİáī½
a d
áĪĽ áī½áĬķáĬķ
áĬ¨ áĬłáĭ²áĪµ
ĠáĭŃ áĭĪáĪŃ
Ġáĭ¨áĪļ áĮĪáĪĺáīµ
Ġáĭ« áĮłáĬĵ
ĠáīĢ áĬĳ
ĠáĬłáĮĪ áĪ¬
áĪĥ áįį
áįĪáĪį áĮīáĪĿ
áĮłáīĥ áĪĪáĭ«
ĠáĭĪáĬķ áĮĮ
ĠáĬ¨áĭĪ áĬķáĭµ
Ġáĭ¨áĪļáĭ«áĭį áīĢáĭį
Ġáĭ¨áĮ½ áĬķáĪµáĬĵ
áĬ«áįĪ áĪī
ĠáīłáĪĽáĭµáĪ¨ áĮī
o w
áĬ »
áĪĺ áĪłáĪ¨áī°
Ġáĭ¨áĪļ áĮłáĪ«
Ġáĭ« áĪĺáĪĪáĬ¨áī±áīµ
Ġáĭ¨áī° áĪĺáĪĪáĬ¨áī±
ĠáĬ¥áĬķáĭ² áĪĺáĮ¡
Ġáĭ¨áĪĺ áĪį
áĪĥ áĭµ
ĠáĬ¤ áĪĬ
ĠáĬ¨áī°áĪĽ áĭĭáĬķ
áįįáīµ áĪķ
ĠáĬ¨áĪĽ áĬķáĪĿ
áĬ¸ áĪŃ
ĠáĬłáīĭ áīģ
Ġáī°áīĥ áĭį
Ġáī± áĪªáĪµáī¶áī½
Ġáĭ¨áĪļáįĪ áĮłáĪŃ
ĠáĪ°áĭĵ áī³áīµ
ĠáįĮáĪµáī²áī« áĪį
áĭŃ áĭŃ
ĠáĬł áī¥áĪŃáĪĥ
Ġáīł áĮħ
ĠáĬ¨ áĭĺáĪŃáįī
áĪª áĭ®
Ġáĭ° áįĭáĪŃ
ĠáĮĪ áįĢ
ĠáĬłáĭŃ áĬĸáĪ¨áĭįáĪĿ
ĠáīłáĬ¥ áĬķáĪµáĪ³áīµ
ĠáĬłáīĢ áĪ¨áīł
ĠáĬ¥áĬĲ áĪŃ
áĭŃáĪĦ áĬķáĬķ
áĪ¸áĬĲ áįĪ
ĠáįķáĪ®áĮįáĪ« áĪĻ
ĠáĭĪáĭ³ áĮĨáī½
ĠáĬłáĭ«áĪµ áįĪáĪįáĮįáĪĿ
ĠáĪ¥áįįáĪ« áĭİáī½
Ġáĭ¨áīģ áĮłáī£
ĠáĬłáĭµáĬĵ áīĨ
Ġáī¥áĪ® áĭµáĬ«
3 7
v er
áį «
áĭ¨ áĪĽáĭŃ
ĠáĭŃ áĪĺáĪ°
áīĥ áĭįáĪŀ
ĠáĬ¢ áĪµáĪĭáĪļáĬŃ
áĬĴ áĪ»áĬķáĮīáĪį
ĠáĮī áī¦
áīłáī° áĪĺáĪ³áĪ³áĭŃáĪĿ
ĠáĬłáĪµáī³áĭį áĪ°áĭį
ĠáĬłáĪľáĪªáĬ« áĬķ
Ġáĭ¨áĭµ áĪĿáįħ
áĭ¨áĪķ áĭĿáī¥
ĠáīłáĪ» áĪħ
Ġáĭ¨áĪĽáĪ³ áĭ°áĮį
ĠáĬ¨áĭĵ áĪĺáīµ
áĪĪ áįīáīµ
ĠáĬł áī°áĬ©
áĬ¨ áĬ¢áīµáĭ®áĮµáĭ«
áīĢ áĬŀáī½
áĬ« áĪī
Ġáĭ¨áī° áĮĪáĬĺáĭįáĬķ
áīĨ áĪİ
ĠáīłáĬł áĮŃáĪ©
ĠáĬ¥áĬķáĭ°áĪļ áĪĺáĮ£
Ġáĭ«áĪµ áĮĪáī£
Ġáĭ³ áĭĬ
ĠáĬłáĪĭ áĮĪáĬĺ
ĠáĬ¥áĬķáĭ³áĪĪ áī¥áĬķ
Ġáĭ¨áī°áĪ° áĪ©
áĭ«áĭĿ áĬĲáĭį
ĠáĬŃáįįáĪİáī½ áĬķ
ĠáĪ°áĬķ áī¥
ĠáĬłáī¥áĭ® áī³áĭĬ
ĠáĪĺáīģ áĪ¨áĮ¥
ĠáĭŃáĪįáīģ áĬķáĪĿ
ĠáĪĺ áĪĭáĬŃ
Ġáĭ¨áī° áĪŀ
ĠáĪ² áīĢáĪŃáī¥
ĠáĪĪáĪĺ áĪĺáĪįáĬ¨áīµ
ĠáĬłáĪį áįĪ
ĠáĬłáĪį áĪ°áĪĽ
ĠáĪħ áĬķáĮ»
ĠáĪ³áĭŃ áī³
ĠáĬ¥áĭ¨áī° áĪµáįĭáįĭ
ĠáĪ¥áĪŃáĭĵ áī°
áįı áī¸áĭį
ĠáĬ¥áĬķáĭ°áĪĮ áĪĭáī¸áĭį
ĠáĮ¥áīĥ áīħáĬķ
áĪŃáĪµáī¶ áĪµáĬķ
ĠáĬł áĬĵáĭį
Ġáīł áįķáĪ¬áĭļáĭ³áĬķáīµ
Ġáī° áĮ¥áĪİ
Ġáĭ¨áĪļ áīĥ
Ġáĭį áĪĪáī³
Ġáīłáī° áĭĺáĮĭáĮĢáĭį
ĠáĪĬ áĬĸáĪ©
Ġáĭķáĭµ áĪīáĬķ
áĬĲáĮĭ áĭ´
ĠáĪĺáĬĲ áīĥ
Ġáĭ¨áĪŀ áī£áĭŃáĪį
ĠáĪĺáīĨ áĭ¨áīµ
ĠáĬłáĪĿáī£ áĪ³
ĠáįĪáĪį áĮİ
áĭĺáĪ¨ áĭĺ
Ġáĭ¨ áĭµáĪŃáĮħ
áĭ« áī°
áĭ¨ áĪ½
áĭĪ áĮ¡áīµ
áīĥ áĭĬ
ĠáĬłáĪµ áĭ°áĬķ
áĬĶ áĪµáĬ®
ĠáīłáĪĽ áīĭáīĭáĪĿ
Ġ1 20
áĮİ áĪĭ
Ġáīłáĭį áĪµáĮ¥
áĪĪáĭĪ áĮł
áīĲ áĪĪ
áĪĺ áĪ³
Ġáīł áĭļáĭ«áĪĿ
áī³ áĮĪ
ĠáĬ¨ áĬłáĪģáĬķ
ĠáīłáĬł áī£
ĠáĬłáĮĪ áĪ«áīµáĬķ
ĠáĬłáĪį áīĢ
Ġáī½áĮį áĪ®áī¹áĬķ
áī³áĭį áīĢáĭį
ĠáĬłáī¥ áīħ
ĠáĮ½ áĬķáĪ°
áĭ¨áī° áī£áīłáĪ©áīµ
ĠáĮ« áĬ«
áĮĪáĬĽ áī¸áĭį
Ġáĭ¨áĭµ áĮĭáįį
Ġ J
áĪĿ áĬĲáī±
áī¸ áĮįáĪŃ
áĪ® áĬĵ
áįĭ áī½áĪģ
áĬķáĭ« áĬķ
ĠáĪ³áĭŃ áĬĸáĪŃ
ĠáįĬ áĭ°áĪį
ĠáĬ¨áĪĽ áĬķáĬĽáĭįáĪĿ
Ġáĭ¨áĪ¥ áĮĭ
áĪĺáĪ° áĪ¨áī°
ĠáīłáĭĪ áĪ¨
Ġáĭ¨áĪļáįĪ áįĢ
ĠáĪĺáĮįáĪĪáĮ« áĭį
ĠáĪĺ áĭµáĬķ
áĮ¥ áĪĪáĭį
áĭ¨ áīµáĪĿ
áīħ áĪµ
áĭĭáĪį áĭ«áĭİáī¹
áįĭ áĮŃ
áĮ¤ áī³áĪĽ
Ġáīłáĭķ áĪĪáī±
ĠáĪ¹ áĪĺáīµ
ĠáĭŃáĮłáīħ áĪĽáĪį
ĠáīłáĮ½ áĪĳáįį
ĠáĬ¥áĭ«áĬķáĭ³áĬķ áĭ±áĬķ
ĠáĪĿáĪ° áĪ¶
Ġáīł áĬħ
ĠáĪĺ áī³áĭĪáīĤáĭ«
ĠáĪĪ áĭ¨
ĠáĪµ áĭ©áĪĿ
Ġáĭ¨áī° áĮįáī£áĪŃ
ĠáĬ« áĬķ
áĮĵ áĮī
ĠáĬ¨áĪļ áĮĪáĬĻáīµ
ĠáĬłáĭį áī³
ĠáĪĽáĭķ áĭµ
Ġáī°áĪ« áĪ®áī½
ĠáĬ¨áĪ« áĪ³áī¸áĭį
áĪĺ áĬ«
áīł áĭķ
Ġáĭ¨áĪļ áĪ¹
Ġáĭ¨áĪļ áĬĲáĮį
ĠáĪĽ áĮłáĬĵáīĢ
ĠáĪ² áĪłáĪ«
áĪķ áįįáīµ
ĠáĬłáīĢ áĬĵ
áĮĪáĬĵ áĭĺáīł
ĠáĭµáĪŃáĮħ áī¶áī½áĬķ
ĠáĬłáĪ° áī¥
áĪĿáįĴ áĭį
ĠáĮ£ áī¢áĭ«áĭį
Ġáĭ¨áĬ® áĬķáīµ
ĠáĬłáĮłáĬĵ áĬŃáĪ¨áĭį
ĠáĪĽáĪµáĪ¨áĮĥ áĭİáī½
ĠáĬ¥áĪŃáĮį áĭĿáĬĵ
ĠáīłáĬłáįĭ áĮ£áĬĿ
u l
ĠáĪĪ áįĪ
áĪ° áĬĽ
áĮ¥ áī¶
ĠáĬ¥áĬķáĭ² áĪ°áĮ£áī¸áĭį
ĠáĪģ áĬ¨áīµáĬĵ
Ġáĭ¨áĪļáĭ« áīłáīĥ
áĪ¸ áĪ¨
áĪ³áīµ áįİ
ĠáĬ¥áĪŃ áĬ¨áĬķ
ĠáĭŃáĮĪáī£ áĪī
áĬĵáĭĬ áĭį
ĠáĬłáĭ³ áĮĭáī½
ĠáĪ¨áĮĪáĭµ áĪĿ
áĬłáĪį áįİ
áĭįáĭį áĪŃ
ĠáīłáĬłáĪĽ áĪŃáĬĽ
ĠáīłáĪ± áĭ³áĬķ
Ġáī´áĬŃ áĬĴ
áĬĲ áĪª
áĪĽ áĪĽáī½
Ġáī° áĭ°áī¥
áīĢ áĬĿáĬĲáīµ
áĭ¨ áĬ¦áĪ®áĪļáĭ«
ĠáĪĽ áĪ°áī£áĪ°áī¥
Ġáĭ¨áī° áĭ°áĪ«áĮģ
ĠáĪį áī¤
áĭĵ áĭ«
ĠáĬłáĭŃ áī¼
ĠáĬ¢ áĬĲáĪŃáĮĤ
Ġáī¤ áīµáĬķ
áĬĴ áĬĸ
Ġáĭ¨áĪĿ áĭµáī¥
ĠáĬ¥áĪŃ áĮįáĮ¥
áīµáĪŃ áĭ«
áĪ· áĪĿ
áī¥áĪ« áĭļáĪį
ĠáĬ¨áĬłáĪ ĺ
Ġáī¥áīµ áĪĨáĬķ
ĠáĬ¨áĮį áī¥áĪŃáĬĵ
ĠáĬłáĭĺáĮĭáĮħ áĬĲáīµ
ĠáĮ» áĭµáīħ
Ġáī°áĪĭ áĪĭáįĬ
ĠáīĢáĬĲ áĬĴáĪ³
áĮ ²
Ġáĭ¨ áĬĸáĪ©
áĪĺ áįħ
ĠáĪĪ áįĬ
ĠáĭŃ áĮĪáĪŃ
áĪª áĬ©
ĠáĪĿ áī¾
áī°áĬĽ áĬĵ
ĠáĬ« áī¢áĬĶ
ĠáĪĿáĬŃ áĬŃáĪŃ
ĠáĬłáī£ áĪĭáīµáĬĵ
ĠáĭįáĮ¤ áī±áĬķ
áĪĭáĪĪ áĪĽáĭĬ
Ġáī°áĬĵáĮį áĪ®
ĠáĭĺáĪĺ áĬĵáī¸áĭį
ĠáĪĪáī° áĮłáīĥ
ĠáĬ¥áĬķáĭ°áĪļáĭ« áĪĺáĪĪáĬŃáī°áĭį
ĠáįĢ áĮĭ
ĠáĪĽáĬħ áīłáĪ©
Ġáĭ¨áī°áīĢ áĪĭáīĢ
áĪªáĪļ áĭ¬áĪŃ
áĮĪ áī¢áĭ«
Ġáīł áĭ°áĪ¨
Ġáīł áĬ¨áĬķáī±
ĠáĬ¨ áī»áĭŃáĬĵ
áĬŃ áĪĬ
áīłáĪ Ĩ
ĠáĮĪ áĮ¾áī½
ĠáĬ¥áĬķáĭ³ áĭŃáĭĪ
áĪĢ áįį
ĠáĬłáĮĪáĪįáĮįáĪİ áīµáĬķ
ĠáīłáĪ° áī¥
Ġáī¦áī³ áĭįáĬķ
ĠáĬ¥áĬķáĭ²áĭ« áĪ³
Ġáĭ¨áīµ áĪ«áĬķáĪµ
áĮĪáĬĲ áī¡áīµ
ĠáĬłáĮ¥ áĬķ
áĮłáī£ áīł
ĠáĮłáĪĭ áī¶áī½
Ġáĭ¨áī± áĪŃáĬŃ
Ġáī³áĭįáīĥ áĪĭáī½áĪģ
ĠáĬ¢áĭ« áĪ±
áĬ®áĪĲ áĪ«áĪĿ
Ġ y
ĠáĪĪáĪĽ áĪĿ
ĠáĬłáĬķ áĭ°áīłáīµ
Ġáī£áĪĪ áī¤áī±
ĠáĬ¤ áĮįáĭļáī¢
Ġáīłáįį áįģáĪĿ
áĭĿáĪĿ áī³
ĠáĬħ áĭ³áĪŃ
Ġáįĵ áĬ¬
ĠáĪĪáĪĢ áĮĪáĪŃ
áĪĽáĪħ áīłáĪ©
ĠáĬłáĪĺáĪŃ áīĤ
Ġ U
áīł áĬ¥áĬĽ
áīĥ áĬĵ
ĠáĬłáĬķ áĮĢ
ĠáīłáĬł áī¶
áīłáĪ¨ áĬ¨áī±
Ġáĭ¨áĪĽ áĪĿáĪ¨áī»
ĠáĪħ áĭ³áĪŃ
ĠáĪĭ áĪīáīµ
ĠáĪĺáĭµ áĪħáĬķ
Ġáĭ¨áįķ áĪªáĪļáĭ¨áĪŃ
ĠáĪ¥áĪįáĮ£ áĬĶ
ĠáīłáĪľ áĭ³
ĠáĬłáĪĿáī£áĮĪáĬĲ áĬķ
áĪį áĪ²
ĠáĪĺ áĬ¨áī³áī°áĪį
Ġáĭ« áĪ¬áĭµ
áįį áĬĲáĭį
áĬ¥ áĮħáĮį
ĠáĬ¥áĬķáĭ² áĬĲáĪ³
áįĭ áĬĳ
áīµáĬĵ áĮĪáĪŃ
áĮĨ áī»áī½áĬķ
áĮĪáĪĪ áįĢ
áĪĺáĪµ áīĢáĪį
ĠáĪŀ áīħ
Ġáī°áīĢ áĬķ
Ġáī°áĭĪ áĪĭáĮĨáī½
áĭ°áĪŃáĪµ áī£áī¸áĭį
ĠáĬłáĮ¥ áĬĲáīµ
ĠáĪĿáĪµ áĬªáĬķ
ĠáīłáĪļáĭ« áĭ°áĪŃáĮīáīµ
ĠáĮĥ áįĵáĬķ
ĠáĬ¨áĪķ áĭĿáī¥
Ġáĭ¨áĬłáĪ¨ áĬķáĮĵáĭ´
Ġáĭ¨áīłáĪĪ áįĢ
ĠáĬłáĪı áī¸áĭį
áĭ¨ áĬ¥áĬĲáĭļáĪħ
Ġáĭ° áĪĽáīħ
ĠáĬ¥áĬķáĭ² áĮłáīĢáĪĻ
áĮĵ áĮĵáĭĿ
ĠáĬ¥áĪµáĬ¨ áĬłáĪģáĬķ
áĬ¨áįį áĪĪáĭį
ĠáĪŃáĭķ áĭ®áī°
Ġáĭ¨áī¥ áĪĦáĪ«áĭĬ
ĠáĪ°áĪĽ áĭ«áīµ
ĠáĬ¡ áĮĭáĬķáĭ³
ĠáĬ¨áī£áĪĪ áĭµáĪŃáĪ»
ĠáĪĺáĮĵ áĭ°áĪį
ĠáĬłáĭµáĪŃáĮĵ áī¸áĭĭáĪį
ĠáīģáĪįáīģ áĪį
ĠáĬłáĪµáĮĪ áĭ³áĮħ
áĬķ áīģ
áĪį áī°áĬķ
áĬĵ áĭµ
ĠáĪĺ áįĭ
Ġáĭ« áĬ«
ĠáĭĪ áīĢáĪ³
ĠáĮį áĪĽ
ĠáĮ¥ áĪįáīĢáīµ
ĠáĬłáĪµ áī½áĪİ
Ġáĭ¨áĪĺ áī¥áĪ«áīµ
Ġáĭ¨áĪĽ áĭŃáĭĪ
áĪµáī° áĪĿáĪŃ
áĪŃáĪĿ áīµ
ĠáĬ¥áĪµáĬ¨ áĭĽáĪ¬
ĠáĬłáĮĪáĬĺ áĪģ
Ġáĭ°áĮĥ áĭĿáĪĽáī½
Ġáĭ¨áĪĿáĪµ áĬŃáĪŃ
áĮĪ áĭ¨
áĬ¨ áĪŃáĪĿ
áīħ áĭ«
áĭĭ áī¸áĭĭáĪį
ĠáĬ¥áĬķáĭ° áĭļáĭ«
ĠáĬłáĪµ áī³
áĭ´ áī³
áī¦ áĪĭ
áĪ² áĪ²
ĠáĪģáĬĶáī³ áĬĵ
ĠáĬłáīµ áī½áĪįáĪĿ
ĠáĬ¥áĭį áīĢáīµáĬĵ
ĠáīłáĪį áĮħ
ĠáĪĺáĪĺ áĮĪáī¥
Ġáįĭáī¥áĪªáĬ« áĭį
Ġáī¤áī°áĪ° áī¦
áĭĪáĭ« áĭ©
áĪĺáĭĺáĮĪáī¡ áīµ
3 8
ĠáĪĺ áĮłáīłáīĤáĭ«
ĠáĬ¨ áįĪáĪĪ
Ġáĭ¨áĪļ áĬ«áĪĦáĭ±
ĠáĮį áĬĿáīµ
Ġáĭ° áĬķáĮį
ĠáīłáĪĺ áĮ¨áĪĺáĪŃ
ĠáĪĪáĪĺ áĬŃáįĪáĪį
áĮĤ áĬķ
ĠáīłáĪ³ áĭŃ
ĠáĬłáĭµáĪŃáĮĭ áī½áĪģ
Ġáĭ«áīĢáĪŃ áī£áĪī
ĠáĪµáī³áĭµ áĭ¬áĪĿ
áĮİáĪĪ áī¥áīµ
ĠáĬ¨áĪĺáī¼ áĭįáĪĿ
3 4
9 7
u t
ĠáĪĺ áĬĲáĮĭ
áĪ¨ áįī
áī£ áĬĵ
áĪª áĭĿ
áĭĭ áĪªáĭİáī½
áĭ² áĬ«áĪį
áīĥ áĭį
ĠáĮ¥ áĪŃáĪµ
áĭ°áĪŃ áĪ°áĭį
ĠáĪĬ áĭĪáĮ£
ĠáĪĬ áī³áĭŃ
áĭ³áĬķ áĬ¤áĪį
ĠáĮĢ áĪįáī£
Ġáī°áĮįáī£ áĪ©
áīłáĪĺ áī¶
áĬŃáīµ áĪ¬áīµ
ĠáĪĪáĬłáĪ «áīµ
ĠáĮ¥áīħ áĪ¶áī½
áįĪáĪįáĮĭ áī¸áĭįáĬķ
Ġáĭ¨áĪ© áĮ«
ĠáĪķáĬķáįĥ áĭİáī½
ĠáĪµáĪįáĮ£ áĬĶ
Ġáī³áĪĿ áĬĸ
áĬķ áĮ£
áĪ¨ áī¢áĭ«
ĠáĬ¥áĬķ áĪĭáĪĪáĬķ
Ġáī° áĭ°áĪĿ
áĭ¨ áįĪ
áĭ¨ áī´
áĭ¨ áĪ¶
áĭ¨ áĬ¦
áīłáĪ ŀ
ĠáĪĽ áĮĭ
Ġáĭ¨áī° áĮĪáĬĲáī£áĭį
ĠáĮ¥ áĪ«áīµáĬĵ
ĠáĪģ áĬĲáĬĽ
áĪ» áĪŃ
ĠáīłáĪĽ áĭį
Ġáī¢ áĮ¤
ĠáįĪ áįĥáĪļ
ĠáĬ¤ áĪŃáĪĿáĭ«áĪµ
Ġáī°áĬĵáĮį áĪ¨áĭį
ĠáįĢ áĪĲ
ĠáĪĺáī¥ áī³áī¸áĭį
ĠáīłáĪį áĪĽ
ĠáĭĭáĬķáĮ« áĭįáĬķ
Ġáĭ¨áĭµ áĪħáĬĲáīµ
ĠáĬ¥áĪĿ áīħ
ĠáĬ¨áī¤ áī°áĪ°
Ġáĭ¨ áĭĭáĬķáĮ«
áĬĵ áĮį
áĪ¨ áĮħ
áī¥ áĭ¬
ĠáĬ¨ áĬ¦
ĠáĪĪ áī¤áīµ
ĠáĪĪ áĪĨáĬĲáĭį
Ġáĭ¨áĪļ áĮĢáĪĿáĪ¨áĭį
ĠáĪµ áĪĺ
Ġáĭĵ áĪĪáĪĻ
ĠáĬ¢ áī¥áĪ«
ĠáīłáĬł áįį
ĠáĮł áĮĭ
áĮ» áī¸áĭį
ĠáĬłáĪĿ áĬĲáĭį
ĠáĪĢ áīħ
áĪ«áĭĬ áĭį
áĪĺáĭµ áĪħáĬķ
ĠáīµáĪŃ áĮĵáĪľ
ĠáīłáĮįáĬķ áī£áī³
ĠáīłáĪĺáĮ¨áĪ¨áĪ» áĪĿ
6 00
áĪĪ áīĢáĭį
ĠáĪĺ áĬ³áĬķáĬķ
ĠáĭŃ áĭ°áĮį
Ġáĭ¨áĪļ áĬĸáĪ¨
áĭĵ áĪĿ
ĠáīłáĪŃ áĪ³áī¸áĭį
ĠáĪĭ áĪĭáī¸áĭį
áĭ«áĪħáĭĮ áĬķ
áĮłáĪ« áīµ
ĠáĬłáĪĪáĪĺ áĪĨáĬķ
Ġáĭ¨áīĢ áĪ¨áĭį
Ġáīłáįį áĮ¹áĪĿ
áī£áī£ áĪ°
Ġáĭ¨áī´ áĪĮ
Ġáĭ¨áĬŃ áĪŃáĪµáī¶áĪµ
ĠáĬłáĪ°áĪįáĮ£ áĬĻ
áĪĪáīĢ áīģ
ĠáĪĿáĪ¥áĪ« áī¹áĬķ
ĠáĪĲáĪ³ áī¡áĬķ
ĠáĪĪáĮ¥ áīĤáīµ
Ġáī°áĪ» áĪ½
áĪĪáĬłáī¥áĬĲáīµ áĪĿ
ĠáĬłáĪµáĪĺáĭĿ áĮį
áĪĪ áĪĮ
áīł áĬ®
ĠáĬ¨ áĬŃáĪįáĪī
ĠáĪĪ áĪ¶
ĠáĪĪ áīĢáĭį
áĮ¥ áĪŃáĪĿ
áĬł áī¥áĭĽáĬĽáĭį
áĪ½ áīłáīµ
ĠáĪĪáĪĽ áĪŃ
áĭµáĪŃ áĬĵ
ĠáĬłáī£ áĭľ
ĠáĬłáĪ° áīĥáīĤ
ĠáĭŃáĮĪáī£ áĬĵáĪį
áĪ³áĪ° áĪį
ĠáĭµáĪŃáĮĬ áī±
ĠáĭŃáīĢáĪŃ áī£áĪį
Ġáī°áĪĺáĪįáĬ« áī¾áī½
ĠáĪ½áĬķ áįĪáīµ
áĪĭ áĭµ
áĪħ áī°áīµ
ĠáĪĪ áĭĪáĭ°
áĭĪ áĪĭáĮĨáī½
áĪļ áĬĲáīµ
áīĥ áī¥áĪŃ
ĠáĬ¥áĬķáĭ² áĬ¨áīłáĪŃ
áī½áĬķ áĬĵ
áĬķáĮį áĪį
ĠáĪĪáĪĺ áĬķáĮįáĪµáīµ
ĠáĪ¥ áĭķ
Ġáĭ¨áĪļáĭ« áĬ«áĪĤ
ĠáĬ® áĪľ
Ġáī½áĮįáĪŃ áĬĵ
ĠáĪĪáĪĽáĪµ áįĪáĮ¸áĪĿ
áī¶áī¹ áĪĿ
Ġáī¢áĪ® áĭİáī½
ĠáĬħ áī¥áĪ¨
áĭ°áĪ° áī±
Ġáĭ¨áĪļáĮĪáĪį áĮ¸áĭį
áīĥáĭĪ áĪĻ
ĠáĬłáĪ» áĪ«
Ġáĭ¨áĪ± áĭ³áĬķ
Ġáĭ¨áĪļáĭ«áĪµáī½ áĪĪáĭįáĬķ
o s
Ġáī° áĮłáĬķ
Ġáĭ¨áī° áĭ°áĮĪáįĪ
áīĥ áĪĽ
ĠáĪĨ áĬķáĬ©
áī³áĭį áĪ«áĪª
áĪ°áī£ áī¸áĭįáĬķ
ĠáĭĪáĬķáĭµ áĪľ
ĠáĬ¨áĪ° áĭİáī½
ĠáįĸáĪĬáĪ² áĭİáī½
ĠáĮħ áī¡áī²
áĪļáĬĴ áĪµáī´
ĠáĬ¨áĪķ áĭĿáī¡
ĠáīłáĪº áĭİáī½
ĠáĬ¥áĬķáĮįáĪĬ áĭĽ
Ġáī ®
Ġáĭ¨ áī¥áĪĶ
ĠáĪĺ áĪłáĭĬ
áī°áĭį áĬĵ
Ġáī¥áĭĻ áĪĥ
ĠáĮŃ áī¥
ķ áĭĽ
ĠáĮ «áīµ
áĬł áĬ«
ĠáĪ° áĪĮ
áī¡ áīłáīµ
Ġáĭĵ áĪŃáī¥
Ġáĭ¨áĪĽ áĪŃ
ĠáĬķ áī£áī¥
ĠáīłáĪĿ áĬŃáĬķáĭ«
ĠáĬ¨áĪĽ áĭŃ
áĪµáī°áĭĭ áĪī
Ġáĭ¨áĪĲ áĪ°áīµ
ĠáĭŃáĪī áī³áĪį
ĠáĪ²áĮĪáĪį áĮ½
Ġáī°áĮĪáĬķáĭĿ áī¦
Ġáĭ¨áĬŃáĪį áĪīáĬķ
º áį
áīµ áĬ¨áĪį
Ġáĭ¨áĪļ áĬ¨áĬĵáĭĪáĬĳ
ĠáĪ° áĮ¡
ĠáīłáĪĺ áĪĺáĪįáĬ¨áīµ
ĠáĪĪáĪĺ áĪĻáĪĭáīµ
áĭİ áī¼
Ġáīħ áĪĺ
ĠáĪĺáĪµ áĪĽ
ĠáīĨ áĭ¨
ĠáĬ¨áĬł áī¶
ĠáĮįáī¥ áĬł
ĠáĪª áĬ¨áĪŃáĭµ
ĠáĪĺáīĢ áĪĮ
ĠáĬ¨áī³ áī½
ĠáĮĪáĭĿ áī¶
ĠáĪµáĭµ áĪµáī°áĬĽ
ĠáĮ¨áĪĿ áĪ¯áĪį
i a
Ġáĭ¨ áĬ¨áĪ¨
áĪµ áĮį
ĠáĬł áĮīáĪį
Ġáīł áĮłáīħáĪĭáĭŃ
ĠáĬ¨ áĪľ
áĭ¨ áĪĨáĬĲ
ĠáĭŃ áĪĺáĪ«
Ġáĭ¨áī° áĮłáīłáīĢ
ĠáĬłáĪµ áī½
Ġáĭĵ áĭŃáĬĵ
Ġáīłáī° áĪµáįĭ
ĠáĬ¥áĬķáĭ°áĪļ áĬ«áĪĦáĭµ
áĬĭ áīµ
áįĢ áī£áĪŃ
áĬĸáī½ áĬĵ
áĮįáĪĪ áĪ°áī¡
ĠáĪĪáĪĽáĭµáĪ¨áĮį áĪĿ
ĠáĭŃáĬ¼ áĬķ
ĠáĭŃáĪģ áĭ³
ĠáīłáĪĿáīµ áĮĪáĬĺáĭį
Ġáĭ¨áĭ² áĪŀáĬŃáĪ«áĪ²
ĠáīłáĪĺáĬ« áĬ¨áĪĭáī¸áĭį
Ġáįįáīĥ áĭ±
ĠáĭĪáĬª áĪį
ĠáĭŃáĮłáįĭ áĪį
Ġáĭ«áĪµáī¸áĮį áĪ«áĪį
c h
áĪį áĮĨáī½
áĬ¨ áįĪáīµ
ĠáīłáĪĺ áįįáī³áīµ
Ġáĭ¨áĪļáĭ« áĮĪáĬĺáĭį
ĠáĪĬ áī°
ĠáĬ¥áĬķáĭ°áĪļ áī»áĪĪáĭį
Ġáī°áīĢ áĪĭáīħ
ĠáĪĽáĬķ áĬķ
áĭ°áĪŃáĪµ áīłáīµ
áīłáĪ¨áī³ áī±
ĠáĪĶ áĭĭáĬķ
ĠáĪĺáĬ¨áĪĭáĬ¨áĪį áĬĵ
ĠáĪĺáĪµáĮł áī±
áįĪáĪĭáĪĪ áĮį
ĠáĪļáĭ« áĭļáĭ«
Ġáĭ¨ áĮĪáĬĵ
áĬĵ áī´
áĬ¨ áĭĽ
Ġáĭ« áĪĽ
áĬ© áĪ«
áī² áĪĿ
ĠáĬ¥áĬķáĭ°áĪļ áĪ°áĪ©
ĠáĬłáĮĪ áĬĵ
áĬķáĮįáĪ¥ áī±
ĠáĪŃ áĪµáīµ
ĠáīłáĪĽáĪĪáīµ áĪĿ
Ġáĭ¨áī¥ áīĥáīµ
ĠáĮłáĭŃ áīĭáĪį
Ġáĭ¨áĪĽáĪħ áīłáĪ©
ĠáīłáĪĭ áīĢ
ĠáĬŃáĬķ áĭį
áĪģáĪī áĬķáĪĿ
ĠáĬĲáĮį áĪ¨áĭį
ĠáīģáĪ³áīģ áĪ¶áī½
ĠáīłáĮĭ áĪĿáī¤áĪĭ
ĠáįĪáĮĪáĮį áī³
Ġáĭ¨ áĮłáīłáīģ
áĪĿ áĬĴáĪįáĬŃ
áī¥ áĪ¯áĪį
Ġáĭ« áĬ¨áĬĵáĭį
ĠáīłáĪĺ áĪ¨áĭ³áīµ
áĪİ áī»áī¸áĭį
ĠáĪ³ áĪŃ
áĮłáīł áīħáĪĿ
ĠáĪµáĪ« áī¸áĭįáĬķ
Ġáĭ¨áĪĮ áĪİáī½áĬķ
ĠáĪĺáī¥ áī±
ĠáĭŃáĪ° áĮ¡
áĬłáīµ áĪĮáīµ
ĠáĭĵáĭŃ áĬĲáī±áĬķ
Ġáĭ¨áĬ« áĪŃ
áįĪáįĢ áĪĻ
áĪĮáĪĭ áĬĽáĭį
ĠáĬ¥áĮį áĪ¨
Ġáĭ«áĬĲáĪ³ áĭį
Ġáī°áĪĿáĪ³áĪĮ áīµ
áĪĺ áĪĿáĪħ
ĠáĬĲ áī¢áĭ«
ĠáĭŃ áĮłáĪ«
Ġáĭ¨áĪļ áĮłáī¥
áĭĭ áĮ£
ĠáĬ¥áĬķáĭ° áĪĽáīµ
ĠáĪį áī£áī¸áĭį
Ġáī¤ áī±áĪĿ
ĠáĬ¥áĭ¨áī° áĮĪáĬĲáī£
Ġáĭ¨áĪ° áĭİáī½áĬķ
ĠáīłáĪĻ áĭ«áĭį
ĠáĪĽáĭķ áĭµáĬķ
Ġ200 5
áĭĿáĬĵ áĬĵáīµ
Ġáįħ áĬķáįĪáĬĽ
ĠáĪĺáĪ¸ áĮ¥
áĪ¨áĮĭáĮį áĮ¡
áĬ³áĬķ áĬķáīµ
Ġáĭ¨áĭĪáĪ° áĭ°áĭį
ĠáīħáĪŃáĬķáĮ« áįİáī½
Ġáĭ¨áĭľ áĬĵ
Ġáī°áĪŃáįİ áĪĿ
Ġáĭ¨ áĬĭáĪĭ
Ġáĭ¨ áĭĵáĪĺáī±
áĪĺ áĬŃ
ĠáĬł áĭ°áĪ¨áĮį
Ġáīł áĭĪáĮ£áĭį
ĠáĭŃ áī»áĪį
Ġáĭ¨áĪļ áī³áĭĪáĪµ
ĠáĪĽ áĪķ
ĠáīłáĪĺ áĮĪáĬĺáīµ
ĠáĬłáĪµ áī¤
Ġáĭµ áĮįáĪµ
áĪ¥ áĪįáĮ£áĬķ
ĠáĬłáĭŃ áĬĸáĪŃ
ĠáĬłáī¥ áĭ²
ĠáĮŃ áīĨáĬĵ
ĠáīłáĮ¥ áĬĵáī±
ĠáĪ°áī¥ áĪµ
ĠáĪµáĪĪáĪļ áĪĨáĬķ
Ġáī°áĮĪáĪį áĮĭ
Ġáįħ áĪģ
Ġáĭ¨áĮįáĭµ áī¡
ĠáĭŃáĭį áĪĭáĪį
ĠáĬ¥ áĪ¨áĬĽ
ĠáĪĺ áīĢáĪĺáĮ¥
ĠáīłáĪĺ áĭ°
ĠáīłáĪĽ áĪ³áī°áįį
áĪ² áĪī
Ġáĭ¨áĪĽ áī³
ĠáĪķ áĮįáĬķ
Ġáīħ áĮłáĪį
áĪĺáĮ£ áĮ£áĬĿ
áĬŃáĪŃ áĪµáīµáĬĵ
áīª áĭ¬
ĠáĪħáĭĿáī¥ áĬĵ
áĭ«áĭĻ áīµ
ĠáĮłáĬķáĬ«áĪ« áĬĵ
ĠáĪĴ áĭ°
Ġáĭ¨áīħ áĮ£áīµ
ĠáĬ¥áĪŃáĮį áĮłáĬŀáī½
ĠáīłáįĪáīĥ áĭ°áĬĿáĬĲáīµ
áĪµ áĪįáĮ£áĬĳ
áĪĪ áĬłáĬķáĭµ
Ġáīł áĭĿáĮįáĮħáīµ
áįį áī°áĭį
áĮĭ áīµáĬĵ
Ġáĭ° áĪĺáĬĵ
ĠáĪ² áĪĺáĪĪáĪ±
áĬ© áĪŃ
áĬŀáī½ áĬĵ
áĪĺáĪŃ áĮ¥
ĠáĮ½ áĬķáįĪáĬĽ
áĮĪáī¡ áĪĿ
Ġáī£áĪĪáĪĻáĭ« áĭİáī½áĬĵ
ĠáĬłáĪ¨ áī¥
Ġáĭ¨áĮ¥ áĬĵáīµáĬĵ
Ġáĭ´ áīªáĭµ
áĭŃáĪĦ áĪĿ
ĠáĬłáĪħ áĭ«
Ġáī°áīĭáĪĽ áīµáĪĿ
ĠáĪĺáĪµáī° áĬķáĮįáĭ¶
ĠáĬ¥áĪ« áĪ±áĬķ
ĠáĬ®áĬķáīµ áĪ«áīµ
ĠáĬłáĪįáī»áĪį áĬ©áĪĿ
Ġáīł áĭµáĪŃáĮħáī±
Ġáī° áĬŃáĪį
ĠáĭŃ áĮł
Ġáĭ¨áī° áīĨ
áĭĽ áĭŃáĬķ
ĠáĬłáĭŃ áīĢáĪŃ
ĠáĬ¥áĭ¨ áĪĺáĪ«
Ġáĭ¨áĬ¥ áĭµáĪľ
ĠáĪĽáĪħ áīłáĪ¨áĪ°áī¡
ĠáĬłáĪĪáĪĺ áĬĸáĪ©
ĠáĪĤ áĭµ
ĠáĪ°áĬķ áĪ°
Ġáĭ¨áĪļáĪĨáĬķ áīłáīµ
Ġáī°áįĪáĮ¥áĪ® áĬłáĭĬ
ĠáĬ¥ áĬŃáĪį
áĪĭ áĪª
Ġáī° áĪ½
ĠáĭŃ áĬ¨áįĪ
ĠáĬ¥áĬķáĭ² áĪĺáĪĪáĪµ
áĮ« áī¸áĭį
ĠáĪĿáĬŃ áĪ¨
ĠáĬ® áĬķáĮį
áī°áĪŃ áįį
Ġáī¦ áĪŃ
ĠáĬ¥áĬķáĭ²áĭ« áĭµáĮį
áĭ¨áĬł áĭįáĪ®áįĵ
ĠáĪĽáĭķ áĬ¨áĪĭ
Ġáīłáĭį áĭµáĭµáĪŃ
Ġ20 14
Ġáī± áī¦
Ġáĭ¨áĪļáīĨ áĭŃ
ĠáĮĵáĭ°áĬĽ áĭ¬
áĬ³áĬķ áĭ¶
ĠáĪ°áįĭ áįĬ
Ġáī°áĬłáĪĿ áĪŃ
ĠáĬ¥ áĪĻáĬķ
ĠáĬł áĬĹáĬĹáĪŃ
áĭ¨ áĪ¥áĪ«
ĠáĪĽ áĭ³áĬķ
áĬ¥ áĬĵáīµ
ĠáĪ² áĬĲáĮĪáĪŃ
áĪ» áĪĬáĪµáīµ
áĪĬ áĪĭ
ĠáĬ¥áĭ¨ áĪĦáĭ°
Ġáĭķ áī¥áĪ«áĭįáĭ«áĬķ
Ġáīħ áĪ¬
ĠáĬĥ áĭ«
áĪ°áī¥ áĪĿ
Ġáīģ áĪµ
áĬ¥áĬķ áĭ°áĭįáĪĿ
ĠáĬ¢áīµáĭ®áĮµáĭ« áĬĵ
Ġáĭķáĭµ áĪī
áĬĻ áīµ
Ġáĭ¨áĪĨáĬĲ áīłáīµ
Ġáĭ¨áĪĽáĭŃ áīĢáĪŃ
ĠáĪ°áī¥ áĪİáī½
áĮłáĪĭ áī¸áĭį
ĠáĬ¨áĪĿ áĭµáĪŃ
ĠáĪ°áĪĭ áĪ³
ĠáĭŃáĬ¼ áĭį
áĮİáĬĵ áĮ¸
ĠáĭĵáĪĪáĪĽ áĭ¨áĪģ
Ġáĭ²áįķáĪİáĪĽáĪ² áĭ«áĭĬ
ĠáĪĪáĪ¨ áĭ¥áĪĿ
áī³ áĭ©
ĠáĬ¨ áįĮáĭ´áĪ«áĪį
áĭ¨ áĬ¨áī°áĪĽ
Ġáĭ¨áĪļ áĬ¨áī°áĪĪáĭį
ĠáĬ« áĮĭ
ĠáĬ¥áĭį áĬĲáī±
áĪłáĪ« áĪĿ
áĬŃáĪµ áįĸáĪŃáīµ
áīĭáīĭ áĪĿáĬĵ
ĠáĪ¶ áįįáīµ
ĠáįĪáīĥ áĭ°áĬŀáī½
áĭ³áĪ´ áĭį
Ġáī°áĬ¨áīµáĪİ áĪĿ
Ġáīłáĭ¨áĬł áĬ«áī£áī¢áĭį
ĠáīłáĬ¥áĬķáĮįáĪĬáĭĿ áĬĽ
ĠáĬłáĭĪáīĥ áīĢáĪŃ
Ġáĭ¨ áįĮáĭ´áĪ¬áĪ½áĬĳ
Ġáīł áĬ¨
áĪ¨ áĪª
áĮ¥ áī³áĭį
Ġáĭ« áīĥ
ĠáĪĿ áĪ©
ĠáĪ² áĭĺ
ĠáĬłáĪµ áįĭ
Ġáĭ¨áĪļáĭ« áĪĺáĮ£
ĠáĬłáĪµáī° áĭį
ĠáĬ® áĬķáįĪ
ĠáĪĪáī° áĭĪáĪ°áĬĲ
áĪĺáĭĺ áĮįáī¥
áĭ°áīł áīħ
áĮĪáĭ° áĭµ
ĠáīłáĮĪ áĮ½
áĬ¥áĭį áĬĲáī°áĬĽ
ĠáĪĪáĪĽáĪµáī° áĪĭáĪĪáįį
áĪĮáĬŃáīµáĪ® áĬĴáĬŃáĪµ
Ġáĭ¨ áĮ¨áĪŃáīĥ
áĮł áĭ«áĭŃ
áįĪ áĬĲáĭį
áĪ® áī¢
ĠáĬ¥áĭ¨áī° áĪ°
ĠáīłáĪĿ áĭµ
áĬŃáĪĪ áī¦áī½
Ġáī°áĪĺáĪµ áĮĪáĬķ
Ġáĭ¨ áĮĮ
áī° áĪµ
áĪħ áįįáīµ
áĬŃ áįĪáī»
áĭ¨ áĪĿáīµ
ĠáĪĽ áĮī
áĬĳ áīłáīµ
áĪģ áĬķáĪĿ
áīģ áīµáĬķ
ĠáĪĮ áī£
Ġáĭ«áĪµ áĮĪáĬĲáĭĿ
Ġáĭ¨áĪ° áĪĽáĭŃ
Ġ8 00
Ġáĭ¨áĪĿáĬĵ áĭ°áĪŃáĮĪáĭį
Ġáī°áĬķ áī³
ĠáĬĲáĮĪáĪ¥ áī±
ĠáĪ²áĬĲ áĮ»áĮ¸áĪŃ
ĠáĬłáĪ¸áĬķ áįİ
Ġáī¥áĭĿ áĪĥ
Ġáĭ¨áĬłáĪĽ áĪŃáĬĽ
ĠáĭŃ áĪ³
áįį áĪ¨
Ġáĭ¨áī° áĪĺáĭĺáĮĪáīł
ĠáĪ° áĭİáī¹
ĠáīłáĪĺ áĮĭ
áī¢ áĪ®
ĠáĪµáĪĪ áĪĨáĬķ
áįħ áĭĭáīµ
Ġáĭ¨áĬ¥ áĭįáīĢáīµ
ĠáĬ¨áįį áĪİ
ĠáĪĿáĪį áĬ¨áī³
ĠáĪµáĪĿáĪĿ áĬĲáī±
ĠáīłáĪĺáĪ³áĪ° áĪīáīµ
ĠáįįáĮ¥áĪ¨ áī³áīµ
i m
áĬĲ áī¡
ĠáĬ¨ áĪµáĪ«
Ġáĭ¨áī° áĪĺáĭĺáĮĪáīłáĭį
ĠáĪ² áĪ°áĪ©
áī» áī¸
áĮħ áĮĭ
Ġáīłáī° áĮĪáĬĺ
ĠáīłáĬł áĬ«
ĠáĬ« áĭµáĪ¬
Ġáīħ áĮ¥
áĪĲ áĪĺáĭµ
áĮłáĬĵ áĬ¨áĪ©
Ġáĭ¨áĬ¥ áĪ³áīµ
áīłáī¥ áĭĻ
ĠáĪĺáĬķáĮįáĪµáīµ áĬķ
ĠáĬłáĬķáĭ³ áī½áĪĿ
ĠáĬ¥áĪ· áĪĿ
ĠáĭŃáĭ° áĬĲáĮį
ĠáĭŃ áĭĭ
ĠáĭŃ áĬ¨áī³áī°
Ġáĭ¨áĪĺ áĭĭ
Ġáĭµ áĪª
ĠáĬ¥áĬķáĭ³ áī³
ĠáĬ¨áī° áĮĪáĬĺ
Ġáĭ°áĪ¨áĮĥ áĬĵ
ĠáĪ« áĪ³áī½áĬķ
ĠáĪĽáĪµ áīĢáĮłáĪį
áĮĪáĪª áī·áĬķ
ĠáĮİ áĮĨ
ĠáĪĽáĭµáĪ¨áĮį áĬĵ
áĭŃáĪħáĬķ áĬĳ
Ġáĭ¨áī°áĪ° áĮ£áī¸áĭįáĬķ
ĠáĬ¨áīĢ áĬĳ
Ġáĭ¨áĪĽáĪµáī° áĪĽáĪŃ
ĠáĬłáĪµáĬĲáī¥ áī§áĪį
Ġáĭ¨ áįĪáĪĪáĮī
Ġáĭ¨áĪļ áĬĲáĪ³áĭį
áĪļ áĬ«áĬ¤áĪį
ĠáĬ¥áĬķáĭ° áĮĪáī£
Ġáīłáī° áįĪáĮłáĪ¨
ĠáĪĬ áī¢áĭ«
ĠáĬ¥áĬķáĭ³ áĪĺáĪĪáĬ¨áī°áĭį
ĠáĬłáĪį áī°áĪ°
ĠáīłáĪļ áī£áĪĪáĭį
áĪĥ áĭŃ
ĠáĭĪáīħ áī¶áī½
ĠáĬ¨áįįáī°áĬĽ áĭį
ĠáĭĺáĪĺ áĭ¶
Ġáīłáī³ áĭ³áĮĬ
ĠáĭŃáĪ° áĮłáĭĭáĪį
Ġáĭ¨áīł áĮį
áī½áĮį áĪ®áī¹
áĮĪáīł áĭ«áĭį
ĠáĪľáĭ³áĪĬáĭ« áĭİáī½
ĠáĮłáĭ¨ áīģ
ĠáīłáĬķ áīĥáīµ
ĠáĬłáĭ¨ áĪĪ
Ġáĭ¨áĪłáĪ ©
áĮĪáĬķáĭĺ áī¡
ĠáĮ¥áīĤ áī¶áī½
Ġáī°áīĨáĮ£ áĮ£áĪª
áĬ¥áĪ· áĪĿ
Ġáį²áį ±áį»áį
áĭ¦ áī½
ĠáĪĺáĪ¥áįĪáĪŃ áī¶áī½
o d
áĪ« áĪ±
Ġáī° áĭ³áĪŃ
Ġáĭ« áĭĺáĮĭáĮĢ
áĬ« áĪ½
áĭ² áĭ«áĬķ
áĪļ áĪŃ
áĭĿ áĪ«
ĠáĮī áĪŃ
áĮ¨ áĪĺáĪ©
Ġáĭ¨áĭĺ áĪ¨
ĠáĪĿáĪµ áĮ¢
Ġáĭ¨áĪļáįĪ áĮłáĪ©
Ġáĭ¨áĪļáĪĺ áĪ©áīµ
ĠáĪ¬ áĭµ
ĠáįįáĪįáĪµ áĮ¤
ĠáĬ¥áĭ¨áĪłáĪ« áĬķ
Ġ ;
ĠáĬ¥ áĪĺáĪŃ
ĠáĬ¨ áĪĪáĪĭ
áĬŃ áĪ¨áĬķ
ĠáĭŃ áĮİ
ĠáĭŃ áĪĺáĪį
ĠáĭĪ áĬĶ
ĠáĬłáĭŃ áī°áĬĵáĪį
áĮ½ áĪĿáĬĵ
ĠáĬ¥áĬķáĭ³ áĭ°áĪ¨áĮĪ
áĮįáī£ áĪ«áĭĬ
áĪ°áī¥ áĬ©
Ġáĭ¨áĪµ áĭµáĪµáīµ
ĠáĬłáĭį áĪ¬
ĠáĪŃ áĪĿáĮĥ
ĠáĬłáĪĪáĪĺ áĬĸáĪ©áĬķ
ĠáĪĺáĪŃ áĮ¦
ĠáĭµáĪĿ áįģáĬķ
ĠáĬłáĪ¨ áĮĭáĭĬ
áĭ°áĮĪ áĪĿ
Ġáī» áĪĪ
ĠáĪĥáĭŃáĪĽáĬĸ áī¶áī½
ĠáĮĪáĬķáĭĺ áī¤
áīłáĪ® áī½
Ġáĭ¨áī°áĬ¨ áįĪáĪĪ
áĬĴáĭį áĭ®áĪŃáĬŃ
Ġáĭ¨áĪļáĭ«áĮį áĭĿ
Ġáĭ¨áī°áįĭ áĪ°áĪµ
ĠáĬłáĪ³áĭŃ áī°áĭĭáĪį
áīħ áĮŃ
áĪ³ áĪĪáĬķ
ĠáĪµ áĮ¦
áĭĬ áī±
áĭįáĬķ áĭ´
Ġáī³ áĭĿ
ĠáĬ¥áĬķáĭ°áĪļ áįĪáĮ¥áĪŃ
áīłáĪ¨ áĬŃáīµ
áĮĪáĬ Ł
ĠáĬ¨áĪĺ áĮłáĬķ
áĭĮ áĭŃ
Ġáĭ¨áĬ¢ áĪķáĬłáĭ´áĮį
Ġáĭ¨áĪĿáīµ áĮĪáĬĺáĭį
ĠáīĢáĪŃ áīłáĭĭáĪį
Ġáĭ¨áĭ«áĭĺ áĭįáĬķ
Ġáĭ± áīĦáīµ
ĠáĬłáīĭáĪŃ áĮ¦
Ġáī£áī¢ áĪİáĬķ
Ġáĭ¨ áįĪáĪĪ
ĠáĬ¥áĬķ áĪĺáĪĪáĬ¨
áīĢ áĬķáĪµ
Ġáĭ¨áī° áĪĽáĪªáĭİáī½
Ġáīµ áĮĪáĪį
ĠáĮĪ áĭ°áĪį
áī¤ áī°áĪ°áī¡
Ġáĭ¨áĪĽ áĭ³
ĠáĬłáĪį áīłáĪĿ
ĠáĬłáĪį áĪ¸áī£áī¥
ĠáĬ¨áĪĺ áĮĢáĪĺáĪ©
áĬ¨áĬĵáĭĪ áĬĵáī¸áĭį
Ġáĭ¨áī£ áĪķáĪŃ
áĭ°áīł áĬĽáĭį
Ġáĭ¨áĪŀ áī±
áīµáĪĮ áī¶áī½
áī¬ áĬķ
ĠáĪĿáĭµ áĪ«áĭĬ
Ġáĭ¨áĮ£ áĪĬáĭ«áĬķ
ĠáĭŃáĭŃ áĭĽáĪį
ĠáĬ¥ áĪįáĪħ
ĠáĪĺ áĪ»áĪ»
áĭ¨ áĪĿáĬĵ
áīłáĪ ¸
ĠáĪĽ áīĭáĪ¨áĮ¥
ĠáĬ¥áĬķáĭ° áĭį
Ġáĭ¨áī° áĪ°áĪ«áĭį
ĠáīłáĪĺ áĪ¸
áĮī áĭµ
ĠáĪħ áĪĺ
Ġáĭķ áīħáĭ±
áĪĿáĬķ áĮŃ
Ġáĭ«áĪµ áīĢ
Ġáĭľ áĮįáĬĲáīµ
áĮłáĪ¨ áĮłáĪ©
áĪ¹ áĪĿ
Ġ8 5
ĠáĮłáĬķ áĬ¨áĪŃ
ĠáīłáĪħ áĬŃáĪĿáĬĵ
Ġáĭ¨áĭĺ áĪĪáĪĪ
ĠáĭįáĪĥ áĬĵ
ĠáĬ¥áĬķáĭµáĬķ áī½áĪį
Ġáĭ¨áĪĺáĪµ áĪ«áīµ
is t
ĠáĮĪáĭ¢ áĭį
Ġáĭ¨áĬłáįĪáĪŃ áĬĵ
ĠáĪľáīµ áĪªáĬŃ
áĭ ¡
Ġáīł áĭ°áĪŃáĮį
áĪ« áī±áĬķ
ĠáĬ¥áĬķ áīĨ
ĠáĭĪ áĪ³
áĪĻ áĪµáĬĵ
ĠáīłáĪĽ áĪ°áī£áĪ°áī¥
ĠáįĪ áĪ¨
áĭĪáĪ° áĬĲáĭį
Ġáĭ¨áĭĪ áī°áīµ
áĬłáĬķ áīº
ĠáĮ¤ áĬķ
Ġáī´áĬŃáĬĸáĪİáĮĤ áĭİáī½
Ġáĭ¨áīĢáĪ¨ áī¡áīµ
Ġáĭ¨áī¥ áĪį
Ġáĭ¨áĪĿáĬĵ áĭ¨áĭį
áĪ¨áĪĿ áī±
áĪĪáĭĭ áĭĪáĮ¥
ĭ áĪĿ
ĠáĬ¥ áĪļ
ĠáĬ¥ áīµáĪĿ
Ġáĭ¨áī° áĮĪáĪĪáĮ¸áĭį
Ġáī£ áĭ°áĪ¨
áĮĪáĪŃ áĪĿáĪĿ
ĠáĬłáĪµ áī³áĭĪáīģ
áĬĴ áĭļáĭ«
ĠáĬłáĪį áįĭ
ĠáĬłáĪį áĬ©áīµ
Ġáī½ áĭ«áĪĪáĪģ
ĠáĬłáĪµáī° áĪĿ
Ġáĭ«áĪµ áĪ¨áĭ±áīµ
Ġáĭ¨áĬ¥ áĪµ
ĠáĬłáĪµáįĪ áĪª
ĠáĪļáĬĴáĪµáī´ áĪ©
áī´áĭİ áĭµáĪ®áĪµ
ĠáĬ¥áĬķáĭ°áĪĿáīµ áī½áĪį
ĠáĭŃáĪ°áĪĽ áī¸áĭĭáĪį
áįĭáĪį áīµ
ĠáĪħáĭŃáĭĪ áīµáĬķ
Ġáĭ¨áĬķ áī¥áĪ¨áīµ
ĠáĬŃáĪŃ áĪµáīµáĬĵ
ĠáīłáĬĥ áĪĭáįĬáĬĲáīµ
áīµáĪĿáĪħáĪŃ áī±
ĠáĪĪáīĢ áĮ£áĭŃ
ĠáĪµáĪĪáĪĿ áīµ
Ġáĭ´áĬ¤ áī³áĭį
Ġáī°áĮįáĭ³áĪ® áīµ
áī¥ áĪĭáīµ
ĠáĬ¨ áĪĪ
ĠáĪĪ áĪłáĪ«
áĭ¨ áīĢáĭµáĪŀáĭį
Ġáĭ« áīĨ
áĬł áĬŃáĪ²
ĠáĪĬ áĪ°áĪ©
Ġáĭ¨áĪĽ áĭ¨áīµ
ĠáĪ¥áĪ« áĬĵ
ĠáĪ°áĭį áĪĿ
ĠáĬ¨áĪĺ áĪĿ
ĠáīłáĬłáĪ °
Ġáĭ¨áĪļáĭ«áĪµ áĮĪáĬĿ
ĠáĬ¥áĪŃ áī£áī³
áĮłáĪ« áīĢ
ĠáĪĬáĭ« áĮĪáĬĿ
ĠáĪĺáĮ¥ áī°áĭĭáĪį
ĠáĪįáĪĿáĭµ áĬĵ
ĠáĭŃáįĪ áĮ½
ĠáīłáĪ³ áĪĿáĬķáīµ
ĠáĪ°áĭŃ áįį
ĠáīłáĪĪ áĬķáĭ°áĬķ
Ġáĭ°áĮį áĬĲáīµ
ĠáĬ«áįĴ áī³
Ġáĭ¨áĪļáĮłáīĢ áĪµ
Ġáĭ¨áĪļáĪĺáĪµ áĪĪáĭį
Ġáĭ«áĮĪáĬĻ áīµáĬķ
ĠáĪħáįĥ áĬķ
3 9
Ġáĭ¨ áĭļáĪģ
ĠáĬ¥ áĪ°áĮ£
áīł áĭļáĭ«áĪĿ
ĠáĪĿ áĪ¨áīĥ
Ġáīµ áĭ³
Ġáĭ¨áĪĺ áĮłáīłáīħ
ĠáĪĪáĪĺ áĭĿ
Ġáī¤ áī³áī½áĬķ
áĬ® áĪµ
Ġáĭ¨áĪĽ áĪį
áĮĪáī£ áīłáīµ
Ġáĭ¨áĮį áĮ¥áĪĿ
ĠáĪ½ áĬķáĬ©
áīħáĭµ áĪļáĭ«
ĠáīłáĮ¥ áĪŀáĬĵ
áĬ«áīµ áīµ
áĬ¨áįĪ áĪī
ĠáĭŃáĪĺ áĬŃáĪ«áĪī
Ġáīłáī´ áĪĮáīªáĭ¥áĬķ
ĠáĪµáĪĪáĪĮ áĪĪ
ĠáĬ¥áĬķáīģ áĪĭáĪį
Ġáįĳ áī²áĬķ
áīħáĮ£áĮ« áĭį
áī½ áĪĭáī¸áĭį
Ġáīł áĭĪáĮ£áīµ
ĠáĪĺ áĪłáĪ«áīµ
Ġáī° áĪĽáĪŃ
áĭ¨ áįĬ
áĭ¨ áīĢáĭµáĪŀ
ĠáĭŃ áĬ¨áĪ°
áĭ² áĪŀáĬŃáĪ«áĪ²
ĠáĪĿ áĪ³
ĠáīłáĪĽ áĪµáįĭáįĭáīµ
áīĭ áĪ¨
Ġáī¢ áĪī
Ġáĭ¨áĪĿ áįĪáĪįáĮĪáĭį
ĠáĬ¥áĭ¨áī° áĬĲáĮĪáĪ¨
áĮ¦ áĪµ
Ġáĭ¨áīµ áĭįáĪįáĭµ
áĪŃáĪµáī² áĭ«áĬķ
áĮ§ áīµ
áĮłáĪĺ áīħ
áĬķáĮī áĪł
ĠáīłáĪĺáīĢ áĭ¨áĪŃ
Ġáīłáĭĭ áĬĲáĬĿáĬĲáīµ
ĠáīĨáĪŃ áĮ¦
ĠáīłáĬłáĬ«áī£áī¢ áĭ«áī¸áĭį
ĠáĪĽáĭµ áĪªáĭµ
ĠáĬ«áĪĿ áįĵ
ĠáĪĺáĬ© áĪªáĭ«
áī²áĭİ áĪ®áĪİáĮĤ
ĠáĬłáĪ Ģ
ĠáĬ¨ áĪłáĪ«
ĠáĪĪ áĪĨáĬĲ
ĠáĪĪ áĬłáĬķáī°
Ġáĭ¨áĪļ áīĢáĪŃáīłáĭį
Ġáĭ« áīł
Ġáĭ¨áī° áī»
áĬĸ áĬħ
ĠáĮ¥ áĪĿ
ĠáĪĪáĪĺ áĭĪáĪ°áĬķ
ĠáīłáĪĽ áĭ°áĮį
ĠáĬ¥áĭ¨ áĭĺ
Ġáī¤ áĭĽ
ĠáīłáĪļ áīĢáĮ¥áĪīáīµ
ĠáĮīáĭ³ áĭŃáĪĿ
ĠáĪĢ áĭ«
áįĮ áīµ
ĠáĪĪáĬł áī£
ĠáĮŃ áĪ«áĪ½
áĪ¾ áįįáī±
Ġáĭ«áĭį áīģ
Ġ25 0
Ġáĭ¨áĪ½ áĮįáĮįáĪŃ
ĠáĬ¨áĪį áĮħ
ĠáĪľáĭ³áĪĬáĭ« áĭİáī½áĬķ
Ġáĭ°áĪ¨ áĮĢ
ĠáĬ®áĬķáīµ áĪ«áĬŃ
ĠáĬ¬áĪļ áĬ«áĪį
áĪį áĭİ
áĪ¨ áĪ»
áī¥ áĪ½
ĠáĬĵ áĪĻáĬĵ
ĠáĬķ áĪ¨áīµ
áĮĬ áī±
ĠáīłáĬ¥ áĪµáĪŃ
áįķ áĪĬáĬķ
ĠáĬ¨áī°áĪĽ áĬķ
áĮįáĪ« áī¸áĭįáĬķ
áĮĲ áĬķ
áĬ¨áĪ« áĬ¨áĪŃ
ĠáĪĺáĬķáĮįáĪµáīµ áĪĿ
Ġáĭ«áĪ³ áĭ©
ĠáĬłáĮ¥ áīĤ
ĠáĬłáĪĺáĪĪáĬ« áĬ¨áīµáĬĵ
áīłáī³ áĪĪáĪģ
Ġáĭ¨áī¢ áĪ®
ĠáĪ¥áĪįáĮ£ áĬķáĬĵ
ĠáįĮáĭ° áĪ¬áĪ½áĬķ
Ġáīł áĬĲáĮĪ
áĪ¨ áī½
ĠáĭŃ áĪŀáĬŃ
áĪ® áī»áī¸áĭįáĬķ
áĬ¥ áĮį
áĭĵ áĭŃ
Ġáī¢ áīĢáĪŃ
áĮĪáī£ áĪĿ
áĪ¶ áĪĿ
áĬª áĬķáĮį
ĠáĮŃ áī¥áĮ¥
áĬ¥áĬĲáĭļáĪħ áĪĿ
ĠáīłáĪĺáī¶ áĭį
ĠáĪĿáĮįáī¥ áĬĵ
áĪĿáįĴáĭ® áĬĵáĭį
áĪµáī°áĬ« áĬ¨áĪĪ
ĠáĬłáĪµáĪĺáĪįáĬŃ áī°áĭį
Ġáī¼ áĬŃ
ĠáĪĺ áĮĪáĪįáĮĪ
áĪ« áĪ¨
áīħ áī°áĬĽ
ĠáĬ¥áĬķáĭ° áĭįáĪĿ
Ġáĭ¨áī° áĪĽáĪ©
Ġáĭ¨áī° áĬ¨áīłáĪ¨
ĠáĪĪáĪĺ áĪ³áī¥
áĪĻ áĪĽ
áĪªáĭ« áī½áĬķ
áįħ áĬĵ
ĠáĪĻ áĪ´áĬķ
ĠáĪ²áĭ« áĭ©
áįĸáĪŃ áī³áĭĬ
Ġ5 6
áĭ°áĮĭ áįĬ
Ġáĭ¨áĬłáįįáĪªáĬ« áĬķ
ĠáĪģáĪĪáī± áĬķáĪĿ
ĠáĮ¡ áīµ
áĪ¦ áĪµáī°áĬĽáĭį
Ġáĭ¨áĪļáĮłáīĢ áĪ±
áĪį áĮģ
ĠáĬł áĮİ
áīł áĭļáĭ«áĭį
Ġáī° áĭĺáĭĭáĭį
áīħ áīĨ
ĠáĪĿáĬķ áĬĲáīµ
ĠáĪĺáī¥ áī±áĬķ
ĠáīłáĪ½áī³ áĬķ
ĠáĮ¥áīħ áĪį
Ġáĭ¨áī°áĭĪáĪ° áĭ°
Ġáī¥áīµ áĪĨáĬķáĪĿ
Ġáīµáĭķ áĮįáĪµáīµ
ĠáĬłáĪµáĪ¨áĭµ áī·áĪį
Ġáĭ¨áĪĺáĬķáĮįáĪ¥ áī±
Ġáĭ«áĭ°áĪ¨áĮī áīµáĬķ
Ġc om
áĭ²áĬĵ áĭĭ
ĠáĮįáĮ¥ áĪļáĭ«
ĠáĬłáĪ½áĬ¨áĪŃ áĬ«áĪª
Ġáĭ¨áĪļáĮłáīģ áĪĿ
ĠáīµáĬĵáĬķ áĪ½
łáĪ ª
áĭ° áĪī
áīĢ áĭĺ
áĭ¨ áĮ¥
áĭ¨ áĪĿáĪŃ
ĠáĭŃ áīłáĭĽ
Ġáĭ¨áĪļ áĭĪáĭµ
áĬ« áī²áīµ
áīĥ áī±
ĠáĪĪáĪĺ áĪĭáĭį
ĠáĪĪáĪĽ áĭį
áĪĢ áĮĪáĪŃ
áĬ¨áĪĭ áĬ¨
ĠáĬ¨áĪĨáĬĲ áĪĿ
áĮłáīĢáĪĿ áī£áī¸áĭį
Ġáīłáĭĵ áĪĺáī±
ĠáĭĪáĮ¥ áī·áĪį
ĠáįĮáĭ´ áĪ«áĪį
áĬ¨áįĪ áī±
ĠáĬłáĪłáĪ« áĪ®áī½
ĠáĬłáĮįáī£áī¥ áĬĲáīµ
ĠáĬłáĮ¥áī¥ áīĨ
ĠáīłáĬª áĪ«áĭŃ
ĠáīłáīĭáĪļ áĬĲáīµ
m ent
Ġáĭ¨ áĬ¨áī°
áī° áīĭáĪĻ
áĪĺ áī¸
áĬĲ áĭĿ
ĠáĪĺ áĭĺáĮĭáĮĢáīµ
áī£ áĬķáĬ©
áĮ£ áī½áĬķ
ĠáīłáĪĺ áĮįáĪĪ
Ġáĭĺ áĭĪáĪŃ
Ġáī¢ áīĤ
Ġáĭ¨áĪĽ áĭĪáīħ
ĠáīłáĬ¥ áĬĵáĬķáī°
ĠáĬłáĮĭ áĪŃáĬĲáīµ
Ġáī°áĮłáīĥáĪļ áĬĲáīµáĬķ
ĠáĪĻáĭ« áī°áĬŀáī½
ĠáĮ¡ áĪ¨áī³
Ġáī°áĪ°áĮ¥áī¶ áī³áĪį
ĠáįĸáĪĪáī²áĬ¨ áĬĽ
Ġáī³áĭĽ áĭ¥
Ġáĭ¨áĪĮáĪĭ áĭįáĬķ
ĠáĪĬáīĥ áĭįáĬķáīµ
áī£ áĪħáĪŃ
áĬ¨ áĪ©áīµ
áīĢ áĮłáīĢ
áĭ¨ áĭµ
áī» áī»áĪį
ĠáĮĪ áĭ³áĭŃ
Ġáĭĺ áĬĵ
Ġáī¢ áĮ«
Ġáī¢ áĬĸáĪ©
Ġáĭ¨áĬł áĬ«
ĠáĬłáĪį áĪ°
áĮ» áįīáīµ
áīħáĪŃ áī³
áī£áĪį áī³
ĠáĬ¦ áįĬ
áĪ«áī¸áĭį áĪĿ
áĪĦáĭµ áĪĿ
ĠáīłáĬ¢ áĪħáĬłáĭ´áĮį
ĠáĪ± áĭ³
áĬ¢áĭ¨áĪ±áĪµ áĪĿ
ĠáīłáĪļáĭ« áĭ°áĪŃáĮĪáĭį
ĠáĪĿáĪ³áĪĮ áĭİáī½
áĪįáĪµ áįįáĬĵ
ĠáĪµáĪĭáĪį áī°
áĬłáĪĺ áī±
ĠáĬ¥áĬķáĪĺáĪĪáĬ¨ áī³áĪĪáĬķ
áĬŃ áĪ¬áĬķ
ĠáĭŃ áĬ¨áĬĵáĭĪ
ĠáĭĪ áįİáī½
ĠáĪħ áĮįáĬĵ
ĠáĮ¨ áĪ¨áīĥ
ĠáīłáĪĿ áĪ¥áĪ«áīħ
áĬłáĬķ áĭ³áĬķáĭ±
áīłáĪĺ áĮ½áĪĲáįį
ĠáĪ²áĭ« áĭŃ
ĠáĬłáĬķáĭ± áĬĵ
ĠáĪ¸ áĪ½
ĠáįįáĪĭáĮİ áī±
Ġáī°áīĥ áĪŃ
áĮ»áĮ¸ áĪĿ
ĠáĮĵáĭ° áĬŀáī½
ĠáĪĺáĪ¬ áī±áĬķ
ĠáĪĿáĪħ áĭ³áĪŃ
Ġáĭ¨áĪļáī»áĪį áīłáīµ
ĠáĬłáĪ½áĬ¨áĪŃ áĬ«áĪªáĭİáī½
ĠáĬ¥áĬķáĮįáĪį áīµ
g e
áĪµ áįĸáĪŃáīµ
áī³ áī½áĪģáĬķ
áĪħ áīµáĬĵ
ĠáĬĲ áīĢ
ĠáĬ¥áĬķáĭ² áĪ°áĮłáĭį
ĠáĮ¥ áĪ«áīµáĬķ
ĠáĪį áīłáĪį
ĠáĮī áĪĻáĭĿ
áĮŃ áĬĵ
ĠáĬ« áįĮ
áĮĨ áī¿
Ġáĭ¨áī³ áĭ©
ĠáĪįáĪĽ áī±áĬķ
ĠáĮ¸ áĪİ
ĠáĬłáįį áĬķáĮ«
ĠáĮłáĭ¨ áīħ
Ġáĭ¨áĭĪáĬķ áĭ¶áī½
Ġáĭ¨áĮĢáĪĺáĪ¨ áĭįáĬķ
Ġáī°áĬĲáĮį áĪ®
ĠáĬł áī¦
áīłáĪ Ĳ
áĬ« áī¸áĭįáĬķ
áĬ« áĭµáĪĿ
áī¶ áĪĬáĬŃ
Ġáīµ áĮ¥áīħ
ĠáĬłáĭŃ áĪ°áĪĽ
ĠáīłáĪĽ áĪĺáĬķ
ĠáĬ¥áĬķáĭ³ áĭ°áĪ¨áĮĪáĭį
ĠáįĪ áĮ»áĪļ
ĠáĪĢ áĪĭáįĬ
ĠáĪĪáĬł áĮĪáĪ«áī½áĬķ
áī¥áĭĻ áĪĿ
Ġ200 4
ĠáĪĺáĭį áĪĪáĭµ
ĠáīłáĪĨáĬĲ áī½áĭį
Ġáĭ¨áī» áĪī
Ġáĭ¨áīħ áĭ±áĪµ
Ġáī°áĪį áĬ¥áĬ®
ĠáįĪáĪį áĮĪáĭį
áĮ½áĬĵ áĬĵ
Ġáīłáī£áĪħ áĪĭáĭĬ
Ġáī³áĮĭ áĭ®áī½
áīłáĪ´ áī¶áī½
Ġáī°áįĪáī³ áī³áĬĿ
Ġáĭ¨áĪļáĬĸáĪ¨ áĭįáĬķ
áĬĵ áįĪ
ĠáĪĺ áĪŀáīµ
áī¥ áĭ³áī¤
áĪħ áĪ¨
áĪĽ áĪ¬
ĠáĬ¨ áĮł
ĠáĭŃ áĪ»áĪį
Ġáĭ¨áĪļ áĪĺáĪĪáĬ¨áī±
Ġáĭ« áĭ°áĮĪ
ĠáĪĽ áĭĭ
Ġáĭĵ áī£áĭŃ
áĪ¬ áĭ«áĪĪáĪģ
áĮ¨ áĪŃáīħ
ĠáĬ¥áĬĵ áĭ«áĪĪáĬķ
ĠáīłáĪļ áĪ°
áĪĺáĪµ áĮĪáĬķ
ĠáĪ¨ áī¥
ĠáĪ¨ áĭĺáĪĿ
ĠáĬłáīħ áĬļ
ĠáĪĺáīĢ áĮłáĪī
áĪ¾ áĪĿ
ĠáĪĽáĪµáī° áĭ³áĭ°áĪŃ
Ġáĭ¨áĪŀ áī°
áĪįáĪĽ áīµáĬĵ
áīłáĪļ áĪį
Ġáĭ¨áĪļáĮł áĮĭ
ĠáĬ¨áĪ¥ áĪįáĮ£áĬķ
Ġáĭ¨áī°áĪ» áĪī
ĠáĬĲáī¢ áĭŃ
ĠáĬłáĭĺáĮĭ áĮĨáī½
ĠáīłáīĢáĭµáĪŀ áĭį
áĬĲ áĬĿ
Ġáī° áĪ»áĪĪ
Ġáī° áĪµáī°áĭį
áĬ¨ áĬ¥áĭļáĪħ
Ġáĭ« áĮ¡
áįĪ áĪªáĭ«
ĠáĪ² áĪĺáĪĪáĬ¨áīµ
ĠáĬ¥áĬķáĭ² áĮłáĬĵáĬ¨áĪŃ
áĮłáĪ ¯
ĠáĪĪáĪĺ áĭĭáĮĭáīµ
ĠáĬ¥áĬķáĭ°áĪļ áĪ°
ĠáĬ¥áĬĵ áī±
ĠáĪħ áĪĻáĪĽáĬķ
Ġáĭĭ áī¢
áĪĭáĭŃ áīµ
áĪĺáĪŃ áī±
Ġ5 1
ĠáĬłáīħ áĪĻáĬķ
áīĭáīĭ áĪļáĭ«
áĮ¦áĪŃ áĬĲáī±
áĭ¨áĪģ áĪĪ
ĠáĮįáĪįáĮ½ áĬĲáīµ
ĠáĮĤ áī¡áī²
ĠáĪĪáĪ° áĪĭáĪĿ
ĠáĪĺáĬķáĪµ áĭĶ
Ġáī°áĭĺáĮĭáĮħ áī·áĪį
ĠáīłáĮįáĬķ áī£áĪŃ
áĮłáįī áĪĿ
ĠáĮĪáīłáĪ¬ áĭİáī½
ĠáĭŃáĪłáĪ« áĪī
Ġáĭ¨áĪ³áĭŃ áĬķáĪµáĬĵ
Ġáĭ¨áī£áĪħ áĪįáĬĵ
4 2
áĭį áĪĥ
ĠáĪĺ áĮłáĬĵáīĢ
áĪ« áĮĮ
Ġáī° áĮłáĪ«
ĠáĪĽ áĪĺáī»áī¸áīµ
ĠáĬ¥áĬķáĭ° áįĪáĮłáĪ¨
áĭĺ áīµ
Ġáĭ° áĪ¨áĪ±
áĬ¢ áĭ®áī¥
Ġáīħ áī¤
Ġáī¦áī³ áĬĵ
áĬĵáĭį áīħ
áīłáĪĺ áīĢáĮłáĪį
ĠáĬ¦ áĪŃ
áĪ°áī£ áĭĬ
áĪĪáĪĽ áĬķáĬĽáĭįáĪĿ
ĠáĮ¨áĭĭáī³ áĪĿ
Ġ7 00
ĠáĬ¨áĪ° áī£áīµ
Ġáī°áįĪ áĪ«áĪŃ
áĪĿáįĴáĭ® áĬķáĪµ
199 9
ĠáĬ¥áĭ¨áĪ°áĪ« áĬķ
Ġáī¥áīĥ áīµáĬĵ
áĪĺáĪĭáĪĪ áĪµ
ĠáīłáĪ® áī½
ĠáĬłáĮĪáĪįáĮį áĪĪáĭĭáĪį
ĠáĪĪ áĭ´áĪŀáĬŃáĪ«áĪ²
áĭ¨ áĪŀ
Ġáĭ¨áĪļ áĮłáĪ«áĭį
áĪ³ áĪŃ
áĬ« áįĭ
áĬĴ áĭ®
ĠáĭĪáĮ£ áī±áĬķ
áīª áĬŃ
ĠáĪĪáĪĽáĪµ áī»áĪį
áīĨáĮ£ áĮłáĪ©
ĠáĬłáĪµáī³áĭį áĪµ
ĠáĭŃáī£ áĪĭáĪī
198 3
Ġáĭ¨áĮĭ áī¥áī»
ĠáĪĪáĬķ áĭ°áĬķ
ĠáįĨ áī³
i on
Ġáīł áĭŃáĪģáĭ³
Ġáī° áĮĪáĪĪáĮ¸
áĬ« áįį
ĠáĪ² áīĥ
ĠáĮ¥ áĪ°
áĪ¬ áī±
ĠáĪĪáĪĽ áĭŃ
áįħ áĪħáĬĵ
áĪĺáĪį áĬ«
Ġáī£áĪĪáĪĻáĭ« áĭİáī¹
ĠáīłáĪĨ áĬĳáīµ
ĠáīłáĭĪ áĬķáĭµ
ĠáĬ¥áĬķáĭ°áĪĽáĭŃ áī»áĪį
ĠáĬŃáĪįáĪİáī½ áĬĵ
ĠáĬ®áĪĻ áĭ©áĬĴáĬ¬áĪ½áĬķ
ĠáĬłáĭ°áĪ¨áĮĥáĮĢ áī¶áī½
áĬĲ áĮ¨
ĠáĪĺ áĬ®áĬķ
áī³ áĭ²
ĠáĬ¨ áĬĲáĮĪ
áĭ³ áīµáĬĵ
ĠáĪģ áĬķ
ĠáĬ¥áĭ¨áī° áĮłáīĢ
áįĢ áĭµ
Ġáĭįáĭµ áĬĲáīµ
ĠáĮ½ áĭµáīħ
Ġáī£áĪħ áĪįáĬķ
ĠáĪĪáĪļ áĪĪáĭį
áīłáĪĿ áĪŃáĮ«
ĠáĬłáīħáĪŃáī¦ áīµáĬĵ
Ġáī°áīĨáĮ¥ áĪ¨áĭĭáĪį
ĠáĬ¨áī¦ áī³
Ġáĭ¨áī°áĬĵáĮĪáĪ¨ áĭįáĬķ
áĭ¨ áĬ¢áĬķáĭ±áĪµáīµáĪª
áĮĭ áĪĿáī¤áĪĭ
áĬ© áĪħ
Ġáĭ¨áĪĺ áĪĪ
Ġáĭ¨áĪĺ áĮįáĪĪáĮ½
áĭĵ áĪĭáĪĽ
ĠáĪĬ áĮĪáĬĿ
áĮŃ áĭį
ĠáĬłáĪį áįĪáĪĪ
Ġáĭ¨áĭį áĭµáĭµáĪ©
ĠáĭŃáī½ áĪī
Ġáĭįáĭµ áĪĺáīµ
áīłáīĥ áĪĿ
Ġáī£áĭŃ áĬĸáĪŃáĪĿ
Ġáĭ¨áĭĵáĪĪáĪĿ áĬķ
ĠáīłáĪ¨ áĪ«
Ġáĭ¨áĪĿáĬĵ áĮĪáĬĺáĭį
Ġáĭ¨áĪłáĪ« áĭĬáīµ
ĠáīłáĪĺáĪĺ áĭ°áī¥
ĠáīĢáĪįáĮ£ áįĭ
áī¥ áĪ¶
áĪħ áīµ
ĠáĪĪ áī¤áī°áĪ°
áīĢ áīłáĪĪáĭį
Ġáĭ« áĭĺáĮĭáĮĢáĭį
áĬĸ áī»áī¸áĭį
ĠáĬłáĭŃ áĪįáĪĿ
ĠáĬłáĪĪ áįį
Ġáĭ¨áĬł áĮĪáĪ«áī½áĬķáĬķ
Ġáīģ áĪĺáĬĵ
ĠáĬłáĭ° áĬķ
Ġáĭ¨áĪµ áī¥áĪ°áī£
ĠáĮİ áĮĥáĪĿ
ĠáĪŀ áĬŃáĪŃ
áĭ¨áĬł áĬ«áī£áī¢
ĠáĪĽáĭķ áīĢ
ĠáĪĽáĪ³ áĭ°
Ġáĭ«áĭ°áĪŃ áĮĭáī¸áĭĭáĪį
áĪłáĪ© áīµ
ĠáĬ¢áĬ®áĬĸáĪļ áĭį
Ġáī°áįĪ áĪª
áĭ¨áĬłáĪ µ
Ġáĭ¨áĪĲ áĪ³áī¥
ĠáĪĥáĪ³ áī¦áī½áĬķ
Ġáĭ¨áī¢ áī¢áĪ²
ĠáĪĤáĭ° áī±áĬķ
Ġáĭ²áĭĽ áĭŃ
áĪµáĪĻ áĬĿáĪĽ
ķáĭĽ áī¥
Ġáīł áī»
ĠáĬłáĪ ²
ĠáĪĪ áī°áĪ°
Ġáĭ¨áĪļ áĭĭ
ĠáĭĪ áĪĪáĮĭ
ĠáĪį áĮĥáī¸áĭįáĬķ
áĪĮ áĮģ
áīĨ áĬķ
ĠáĬ« áĭ°áĪ¨áĮĪ
ĠáĬ¨áī° áĪŀáī½áĬķ
ĠáīłáĬ¥ áĬĲ
ĠáĪĽáĪ³ áĭĪáīħ
ĠáįĢ áĪĢ
15 0
Ġáĭķáīĥ áĭİáī½áĬķ
ĠáĪĺáĭĺ áĭĿ
áĪĺáĬķáĮįáĪ¥ áīµáĪĿ
áĪĪ áĭ±
ĠáĪĪ áĭĪáĮ£áī¶áī½
ĠáĪĪ áĬ¢áĬķáĭ±áĪµáīµáĪª
Ġáĭ¨áī° áĬ¨áĬĵáĭĪáĬĳ
ĠáĪ° áĮłáĭį
ĠáīłáĪĺ áĪĽáĪŃ
ĠáīłáĪĺ áĪĿáĪ«áīµ
áĪ± áīłáīµ
áĪµáīµ áĬķ
Ġáī³ áĪħáĪ³áĪµ
ĠáĬ¨áĪĺ áĮ½áĪĲáįį
ĠáĬ¤ áįįáĪ¬áĪĿ
ĠáĬ¢áĬķ áĮħ
Ġáįĸ áĪŃ
áĮįáĬķ áĭĽáī¤
ĠáīłáĮ¥ áīĤ
ĠáĬ¥áĬķáĭ³áĪĪ áīłáīµáĪĿ
ĠáĬłáĭ³ áĪ«
ĠáīłáĪĽáĪµ áĭĪáĮĪáĭµ
Ġáĭ¨áĪĿáī³ áĪµ
199 0
Ġáĭ¨áĪĽáĪµáī° áĭ³áĭ°áĪŃ
Ġáĭ¨áĪļáĬ¨áī° áĪīáīµ
Ġáī°áĬ¨áĬĵáĭį áĬĹáĪį
ĠáįĪáĪĭ áĪµáįĭ
áĬĵ áīĢ
áĮį áĭĿ
ĠáĬł áĭ°áĪ¨áĮĪáĭį
áī¥ áĪĦáĪŃ
ĠáĪĽ áīĭáīĭáĪĿ
Ġáĭ¨áĪĺ áĭį
áĬķáĮį áĪµáī±
Ġáī³ áĭµ
ĠáĬ¥áĬķáĭ°áĪļ áĭĪ
ĠáĬ« áĭ°áĪ¨áĮī
ĠáĪĽáĪµ áįĪáĬķ
áĮª áĭİáī¹
ĠáĬłáī¥ áĭŃ
ĠáĬłáī¥ áĭĿ
Ġáīĥ áĪī
áīłáĪĺ áĬķáĮįáĪ¥áīµ
ĠáĬłáĪŃ áĭĵáĭ«
ĠáīłáĪĺáĪĨáĬĳ áĬĵ
Ġáĭ¨áĪį áĭ©
ĠáĭĻ áĪŃáĭ«
ĠáĭįáĪ³áĬĶ áĭį
Ġ19 5
ĠáīłáĭĪ áĪ¨áĭ³
áĮłáī£ áīłáīģ
áĪļáĬĴáĪµáīµ áĪŃ
áĮİáĪ« áī£áī½
áĮ °
áĮį áī¥áĪŃ
áĭ° áĬĵáĪį
ĠáĪĺ áĪĺáĪįáĬ¨
áīł áĬ¦áĪ®áĪļáĭ«
áĭ¨ áĪĺáĪįáĬ«áĪĿ
ĠáĭŃ áīºáĬķ
Ġáĭ¨áĪļ áĮ£
áįį áĪ¯áĪį
Ġáī£ áĭŃáĬĲáīµ
ĠáĪ² áĬĸáĪ©
ĠáĬ¥áĬķáĭ² áĪµáįĭáįĭ
Ġáī³ áĮĭáĭŃ
Ġáĭ¨áĪĿ áĬŃáĬŃáĪŃ
ĠáĬłáĪĺ áī±
áĭŀ áī½áĬķ
ĠáĪĺáĬ« áĬ¨áĪĪáĬĽáĭį
Ġáĭ¨áĭĪ áĭ³áĮħáĬĲáīµ
áįįáīµ áĪħ
áĪĺáĪ¨ áīħ
ĠáĭŃáĮĪ áĮ¥
ĠáĬłáĪĪáĪĺ áĪ¨áĮĭáĮĭáīµ
ĠáĪĺáĪŃ áĪĢ
áĪįáĬķ áĪĽ
ĠáĪ¸ áīĢáĮ¦áī½
Ġáĭ¨áīĢáĪ¨ áīłáĭįáĬķ
ĠáĪĺáĬ¨áĪ« áĬ¨áĪªáĭ«
ĠáĬłáĪĺáĪ«áĪ®áī½ áĬĵ
ĠáĬłáĪµáįĪáĮ»áĪļ áĭį
áĮĪáĮ¥ áĪĺáĭį
Ġáĭ¨áĪļáĭ°áĪŃ áĪ°áĭį
ĠáĬ¥ áĭ³
Ġáīł áĬĶ
Ġáī° áĬ©
Ġáĭ¨áĪļ áīłáĪįáĮ¥
áĪ³ áīµáĬķ
áĪ³ áĬ«áĪĿ
Ġáī¥ áĪĪáĪ½
áĭļ áĪģáĪĿ
ĠáĬłáĮĪ áĪ©áĬķ
Ġáįį áĭ¨áĪį
ĠáīłáĪŃ áīłáĪ¬
áĪłáĪ¨ áī³áĭĬ
Ġ19 7
ĠáĬłáĭµáĪŃáĮĭ áĪĪáī½
Ġáĭ¨áĬĲáīłáĪ« áī¸áĭįáĬķ
ĠáĬ¥áĬķáĭ°áĭĺ áĮĪáīłáĭį
Ġáĭ¨ áī²
Ġáĭ¨ áĭŃáĪģáĭ³
áĮĪ áĬĳ
ĠáĬł áĮłáĬĵáīĢ
ĠáĪĺ áĬ³áĬķáĬķáīµ
áĭµ áĪ©áĬķ
áĬŃ áĪ¬
áĬ¨ áĪģáĪī
Ġáĭ¨áĪļ áĪŀ
ĠáĮĪ áĪĺáĭµ
ĠáĬ¥áĭ¨ áĭ°áĪ¨áĪ°
ĠáĬłáĪĪ áĪħ
Ġáīħ áįħ
ĠáĬłáĬ« áĪī
ĠáĭĺáĪŃ áĮį
áĪ£ áĮ½
áĮĪáī¡ áĬķ
Ġáī´ áĭµáĪ®áĪµ
ĠáĪĽáĭķ áīłáĪį
ĠáĬłáĭ³ áĪ«áĪ¹
ĠáĪĺáĮłáĬķ áīĢáīħ
ĠáīłáĪ¨ áĮħáĪĿ
áĮĪáĭ° áĪī
ĠáĬ¥áĭįáĬĲ áī°áĬĽáĭį
Ġáī£áĪĪáĪĢáī¥ áī±
ĠáĮĪáī£ áĪģ
Ġáĭ¨áĪļáĭ«áĭį áīģáīµ
áĭ¨áĬ¢ áįĮáĭ´áĪª
Ġáĭ¨áĭ² áįķáĪİáĪĽáĪ²
ĠáĪĽáĭį áĪ«áīµ
Ġáī°áĬ«áĪĤ áĭ¶
ĠáĪĽáĪ° áĪĭ
ĠáĬ¥áĭ«áĭ°áĪ¨ áĮįáĬķ
a y
áĭ° áĬĲáĮĪ
áīł áĬĿ
ĠáĬ¨ áĪĿáĬĵ
ĠáĪĪ áĪ¦áĪµáī°áĬĽ
áĭ¨ áĬķáĮįáĭµ
Ġáĭį áĪ¸
ĠáĪ² áĪ°áĪĻ
ĠáīłáĪĺ áĬĸáĪ©
ĠáīłáĪĺ áĬķáīĢáĪ³áīĢáĪµ
ĠáĮĪ áĭ³áĪĿ
áĮłáĪ İ
ĠáĬłáĭŃ áī°
Ġáĭ¨áĪļáĭ« áīłáĪ¨áī³áī³
ĠáĬ¥áĬķáĭ°áĪļ áįĪáĪįáĮį
ĠáĪĺáĬķ áĭ°áĪ®áī½
ĠáĬłáĪµáī° áĭ³
áĮĨ áī»áī½áĪģ
áĭ°áĪ¨áĮĪ áĪĿ
Ġáĭ¨áī³ áĮĢ
ĠáĬª áĪµ
ĠáĬª áĬĲ
ĠáĮ¥áĪ© áĬĲáĪ½
ĠáĬłáįįáĪªáĬ« áĭĬ
ĠáĮłáĬķ áĬŃáĪ®
ĠáĪĺáī° áĭ³áĭ°áĪªáĭ«
áįĪáįĢ áĪĺ
Ġáĭ¨áĪļáĪĺ áĮ¡áīµ
Ġáĭ¨áĬ¨áī°áĪĽ áĭĭáĬķ
Ġáīª áĭ²áĭ®
ĠáīłáĭĪáĬķ áĮĢáĪį
ĠáĪµáĪŃáĭĵ áī±áĬķ
ĠáĬ¢áĬķáī°áĪŃáįķáĪ«áĭŃ áĭĿ
Ġáĭ«áĪ¨áĮĭáĮį áĮ£áĪį
áĬķ áī»
Ġáīł áīµáĪŃ
áĬĲ áĪ©
ĠáĪĺ áĪ³áī°
ĠáĪĺ áĭĺáĪŃ
ĠáīłáĪ Ĵ
áīł áĭĭáĬĵ
áīł áĭĺáĪŃáįī
áīĢ áī£
áĭ³ áī½
ĠáĭŃ áĮłáĬĵáīĢ
áĪĨ áĪµáįĴáī³áĪī
áĬł áī£áīµ
ĠáĬ¥áĬķáĭ° áĭ°áĪ¨áĪ°
Ġáĭ¨áī° áĪĽáĪª
Ġáĭ° áīłáīł
ĠáĬ¥áĬķáĭ² áīĢáĮ¥áĪī
áĬłáĪ °
áī· áī³áĪį
áī£áĪį áĬķ
áĬĲáĪ³ áĬķ
ĠáīĨ áĮłáĪ«
Ġáīłáĭ¨ áĬłáĪĺáī±
ĠáĬ³ áĪ±
ĠáĪ» áĪĿ
áĭ¨áĪļ áĮĪáĪŃáĪĺáĭį
ĠáĪµáĪĭ áĪĭáī¸áĭį
ĠáĭĪáĪ° áĬĲ
Ġáĭ¨áĪģáĪĪáīµ áĭ®áĪ½
ĠáĪĪáĪĺáĪĿ áĪ¨áĮ¥
Ġáĭ«áĪµáīĨ áĮłáĪ¨
ĠáĭŃáĪ°áĮ£ áī¸áĭĭáĪį
Ġáĭ¨ áī¡áĭµáĬĳ
áīĢ áĭ±áĬķ
áĭ¨ áĬ¢áĭ¨áĪ±áĪµ
áįĭ áĪĽ
áī¢ áī¢áĪ²
ĠáīĢ áĪĪáĪį
Ġáĭĺ áī¥
áĪ¸ áįį
áįįáīµ áĪĶ
ĠáĬłáĪĽ áĪįáĬŃáīµ
ĠáĭµáĮĭ áįİáī½
ĠáĬłáĭ³ áĪª
ĠáĮįáĬķáĬĻ áĬĲáīµáĬĵ
áĪ¾ áī½áĬķ
ĠáĮ¥áīħáĪĿ áĬĵ
ĠáĭŃáĪ° áĮłáĬĵáĪį
Ġáĭ¨áĭĺ áĬķáĭµáĪ®áĭį
Ġáĭ¨áĬ¥áĪŃ áĭ³áī³
ĠáĪĪáĪĺáĬ¨áĪĭáĬ¨áĪį áĬĵ
ĠáĪ°áĪĿ áī¶
Ġáĭ«áĬĲáĪ³ áĪī
Ġáĭ¨áĪļáĭ«áĪµáī° áĪĭáĪį
Ġáĭ¨áĪļáĮłáĭŃ áīģ
Ġáī°áĪ°áī¥ áĪµáīłáĭį
ĠáĬ«áĪĿ áįķ
ĠáĬ¢áĬķáī¨ áĪµáī°áĪ®áī½
Ġáĭ¨áĪ¬ áĭ²áĭ®
Ġáĭ¨áĭ°áĪĺ áĭĪáĭĿ
Ġáī°áĮłáī¥ áīĨ
ĠáĪĺáīĨáĮ£ áĮłáĪªáĭ«
Ġáīł áĮĪáī¢
áĪĭ áĬķáĭ³
ĠáĬ¥áĬķ áīµáĬĵ
áīĢ áĪ°áĭį
áįĪ áī½
ĠáĪµ áĬĲáĪµ
ĠáīłáĪĺ áĭ°áīłáĬĽ
ĠáĬ¥áĬķáĭ² áī³áĭŃ
ĠáĬ¥áĬķáĭ² áįĪáī±
Ġáīłáī° áĭĪáĪ°áĬĳ
áĪ» áīµ
ĠáīłáĪĽ áĪµáī°áĭĭáĭĪáīħ
ĠáĮł áī£áĭŃ
Ġáīłáĭ¨ áĪĺ
ĠáĬ¥áĭį áīĢ
Ġáĭ¨áĪķ áĭĿáī¡
Ġáĭ² áĮį
Ġáī°áĬ¨ áįĭáįį
ĠáĮ£ áĪĬáĭ«
Ġáĭ¨áīĨ áĭ©áīµ
Ġáīłáĭµ áĪħáĬĲáīµ
ĠáĬłáĮįáĬĿ áī¼
ĠáĪ¹ áĪĽ
áĭĸ áīµ
ĠáĭŃáīĨ áĮłáĪ«áĪį
Ġáī°áĮİ áĮĤ
ĠáĭŃáĪĺáĪĪáĬ¨ áī³áĪį
ĠáĮīáĭµáĪĪ áī¶áī½
áĭ« áĭ©
áĭ« áĭ¨áīµ
ĠáĪĺ áĭĭáĪį
áī³ áĪĭáī½áĪģ
áĪħ áĬĴ
ĠáĬ¨ áĬ¨áī°áĪĽ
ĠáĬ¨ áĭ¨áīµáĬĽáĭįáĪĿ
áĬŃ áįī
ĠáĭŃ áĮĢáĪĺ
Ġáī£ áīĢáĪ¨áīłáĭį
áĪĮ áĬĵ
ĠáīłáĪĽ áĪįáĪĽáīµ
ĠáīłáĪĽ áĮĪáĪįáĮĪáĪį
ĠáĮĬáĭľ áĬķ
áĬ¢áīµáĭ®áĮµáĭ« áĭįáĭ«áĬķ
Ġáīģ áĪ³áĭĬ
áĭĪáĮ£ áī¶áī¹
ĠáīłáĭļáĪħ áī½
áĪµáįĭ áįī
ĠáĪº áĭİáī½
ĠáĭĪáĬķ áĭŀáī½
áī»áĪį áīłáīµ
ĠáĭŃáĪĺáĪµ áĪĭáĪī
ĠáĬŃáĪĪ áī¦áī½áĬķ
áĭŃáĪĦ áĬĶ
ĠáĬ¨áĭį áĪµáĮ¥
ĠáĪĺáĪ¸ áĮ«
ĠáīłáĬłáĪµ áĪŃ
áīłáĪģ áĪīáĪĿ
ĠáĬ¤áĬŃáĪµ áī´áĬķáĪ½áĬķ
Ġáĭ«áĪµáī³áĭį áĪ³áĪį
Ġáī°áĮĪáĬĵáĬĿ áī°áĭį
ĠáĬłáĪµáĭ°áĬķ áĮĭáĮŃ
Ġáĭ¨ áīłáĪŃ
áĪĪ áĮł
ĠáĬ¨ áī±
Ġáĭ« áĭĻ
áĮĭ áįĭáĭį
ĠáĪģ áĬĳ
áĮłáĪ ģ
ĠáĪĪáĪĺ áĮł
ĠáĬķ áĬŃ
ĠáĬ¨áĬł áīħ
ĠáĬłáĪĭ áĭ¨
ĠáĮ½ áĪģ
ĠáīłáĮ¥ áīłáī¥
ĠáīłáĪ½ áī¥áĪŃ
Ġáĭ¨áĭķ áīħáĭµ
ĠáĭŃáĭŀ áīµ
ĠáĪķáĮį áĬĵ
Ġáĭ¨áĭĪáĮ£ áĭįáĬķ
ĠáĭķáĭµáĪľ áĭį
áįĪáĪ¨ áĪĿ
ĠáīłáĬŃ áĪ¨áĪĿáīµ
ĠáĪĺáĮłáīĢ áĪļáĭ«
áĮķ áīµ
Ġáĭ¨ áįķáĪ®
Ġáīł áĬĵ
ĠáĪĺ áĭ³áĬķ
ĠáĪĪ áĭľáĮİáī½
Ġáĭ¨áĪļ áĬĲáĬ«
Ġáī£ áĭĺáĮĭáĮĢáĭį
ĠáĪ² áĬĴáĪĽ
Ġáīµ áĪ©
Ġáĭ¨áĪĺ áĬĵáĮĪáĪŃ
ĠáĪĬ áĭĪáĪ°áĭµ
ĠáĬ¥áĭ« áĮĪáĬĻ
ĠáĭµáĪŃ áīģ
ĠáĬ¥áĪµáĬ¨ áĪĽ
ĠáĬłáī£ áĪİáī½
ĠáĬłáī¥ áĭ°áĪĭ
Ġáĭ¨áĪĽáĭŃ áī£áĪī
Ġ5 7
áīłáĬł áī¥áĭĽáĬĽáĭį
Ġáĭ¨áīµ áĮ¥áīħ
ĠáĬłáĭĭ áĮģáĬķ
ĠáĪĺáĭĭ áĭķáĪĪ
ĠáĪķáĭŃáĭĪ áī±
ĠáĪķáĭŃáĭĪ áīµáĬķ
Ġáī°áĪ°áĮ¥ áĬ¦
ĠáīłáįĪ áĪ¨áĬķáĪ³áĭŃ
ĠáīłáĬĲáīłáĪ© áīłáīµ
áĭŃ áįį
áĬĲ áĮįáĪŃ
áīł áĬ¨áī°áĪĽáĭĭ
Ġáĭ« áĮĪáī£
áīģ áĪ¨áĮ¥
ĠáĬ¥áĭ¨ áĪŀ
ĠáĬ¥áĬķáĭ³ áĪĺáĪĪáĬ¨áī±áīµ
ĠáĪĺáĬķ áīłáĪŃ
áĮ¸ áī£áĪŃ
áĪĺáĬķ áįĪ
ĠáĬ¨áĪĺ áĮįáī£
ĠáĬ¤ áĪŃáīµ
ĠáīłáĪµ áĬ¬áīµ
áĪĺáĪ¨ áĪĿáĪŃ
áĬ¨áĪĭ áĬ¨áĪī
áĮ¨áĪ¨áĪ» áĭį
ĠáĮ¨áĭĭáī³ áĬķ
Ġáīłáī³ áĪĭáīģ
ĠáĬłáĪµáī°áĪ³áĪ°áī¥ áĬĵ
ĠáĭŃáĭĪáĮ£ áĪī
áĬķ áīĥ
áīµ áĪ®áĭį
áĭ« áĭµ
áĮį áīµ
áĪĽ áĬħ
áĬĽ áĪĪáī½
áīĥ áĭ©
áįĭ áĪ®
ĠáīłáĪĽ áĭ°áĪ«áĮĢáīµ
ĠáĬłáĬķ áĭ²
áĭ¶ áĬĵ
ĠáĬ¥áĪµ áĪ¨áĬŀáī½
áī°áĭį áī³áĪį
áĪŃáĪĿ áĪµ
ĠáĬłáĪī áĬĵ
ĠáĮĪáĬķ áĭ³
ĠáĪĺáĭµáĪ¨ áĪ±
Ġáī°áĮł áīĤ
Ġáĭ¨áĪ¶ áĪªáĭ«
áĪŃáįĸ áĪ¬áĪ½áĬĳ
Ġáī°áĭŃ áĭĺáĭį
Ġáĭ¨áĪļáįĪáĪįáĮī áīµáĬķ
ĠáīµáĮį áĪīáĬķ
ĠáĬłáĬķáĮĪ áī±áĬķ
ĠáĪĪáĪĽáĭ³ áīłáĪŃ
ĠáīłáĪĿáĪ³áĪĮ áĬĲáīµ
ĠáĭŃáīĢáĬķ áĪ³áĪį
áī£ áĪ©
Ġáĭ« áĪ°áī¥
Ġáī³ áĭŃáĪĿ
ĠáĬłáĮĪ áĪ«áī½áĬķáĬķ
ĠáĬ¥áĭ« áĭ¨áĬķ
ĠáĬ¥áĭ¨áī° áĪ³áī°áįī
Ġáĭ¨áĬłáĪ «
ĠáĬłáĭŃáĭ° áĪĪáī½áĪĿ
ĠáĬłáī¥ áĬĲáīµ
áĪ°áī£ áĪ°áī¡
áĬ¨áĪ« áĬ¨áĪ©
áĪµáĪ« áĬ¤
ĠáīłáĪĽáĪµ áĪ¨áĮĥ
ĠáĬ¨áĬłáĪ ¥áĪŃ
áĭķáĪ« áįį
ĠáĬ¨áĪµ áĪĿáĬķáīµ
Ġáĭ¨áĪļáĮĪáī£ áī¸áĭįáĬķ
ĠáĭĿáĪŃ áĮĭáī³
áīłáĭ¨ áĭĵáĪĺáī±
198 0
Ġáī³áĭĽ áī¢
Ġáĭ°áĮĭáĮį áĪĺáĭį
áĬ¬áĪļ áĬ«áĪį
4 8
áīł áīĤ
ĠáĬ¨ áĪŀáĪĭ
áĭ¨ áĮĪ
ĠáĪĽ áĮŃáīłáĪŃáīłáĪŃ
Ġáĭ¨áī° áĭ«áĭĺáĭį
Ġáīµ áĪĿáĬŃ
áĭĽ áĮĭáī¢
ĠáĪĿáĬķ áĮ©
ĠáĬłáĪµáī° áĪĿáĪħ
ĠáĬ¨áĪĺ áĪĨáĬĵáī¸áĭį
áĬ³ áī½áĪģ
áīłáī° áīĥáĪ«áĬĴ
ĠáĪĺáĪ° áĬķ
ĠáĪŀ áī£áĭŃáĪį
ĠáīłáĪĽáĭµáĪ¨áĮį áĬĵ
ĠáĬķáĮī áĪ´
áī³áĭ° áĪį
ĠáĭŃáĬĸáĪŃ áī¥áĪĥáĪį
ĠáĬ®áĪļáī´ áĭİáī½
ĠáĮįáĪĪ áĪ°áī¦áī½áĬķ
Ġáĭ¨áī°áĪĺ áĪłáĪ¨áī°áĭį
Ġáĭ¨áĪĲ áĭĭáĪŃáĭ«áīµ
Ġáī£áĪĪáĪ¥áĪįáĮ£ áĬĳ
ĠáĪ³áĭŃáĬķáĪµ áĬĵ
ĠáĪĺáĭµáĬĥáĬĴ áī¶áī½
áīłáĬĭáĪĭ áĪĿ
ĠáĬ¥ áĪ·áĬķ
áĬĲ áĮ£
áĬĲ áīłáĪ«áī¸áĭį
ĠáĪĺ áĬ°
ĠáĬ¨ áĮĵáĭ°
áĭ¨ áįį
ĠáĪĽ áĬĵ
ĠáĬ¥áĬķáĭ² áĪĦáĭ±
ĠáĬŃ áĪ±
Ġáĭĺ áĪĪáīĢ
áĮŃ áīłáĪ¨
ĠáīłáĪļ áĮłáĪ«áĭį
ĠáĬ¥áĭ¨áī° áĪ»áĪ»áĪĪ
áįİ áĬķ
ĠáĪµáĪ« áĬķ
ĠáįķáĪ® áįĸ
ĠáĮ£ áįĭáĮŃ
ĠáīłáĪĻ áĭļáīĥ
ĠáĬłáĭ³ áĬĲ
Ġáī³áĪªáĬŃ áĬĵ
ĠáīłáĪķ áĮī
áĮłáĪĪ áĭį
ĠáĪŃáĭķ áĭŃ
Ġáįħ áĬĳ
ĠáĪĺáĪ¸ áĮĭ
Ġáī£áĪĪáī¤ áī´
ĠáīłáĬĥ áĭŃ
ĠáĮ¸áĪĲáįĬ áĭį
Ġf or
áīłáĬ¥áĭļáĪħ áĪĿ
ĠáĪįáĮĩ áĬķ
ĠáĪĺ áĭĵáĭĽ
áīł áĭķáĪĪáī±
áĭ¨ áĪŀáī½
ĠáĭŃ áĭ³
Ġáĭ« áĮĪáĬĺáĭįáĬķ
áĭĪ áĮįáĭµ
ĠáĪĽ áĬŃ
áĭļ áĬķ
ĠáĪ² áīĢáĪŃ
ĠáĬ¥áĬķáĭ² áīĢáĪŃáī¥
Ġáĭĺ áĪĭáĪĪáĪĽáĭĬ
ĠáĬłáĭŃ áĮĪáĬĿáĪĿ
áĭķ áĪŃ
ĠáĬłáĪĪ áī£áīµ
áĮ» áĪį
Ġáĭ¨áĪµ áĬķáĭ´
Ġáĭ¨áĭĪ áĭŃ
ĠáĬ¥áĬķáĭ°áī° áĮĪáĪĪáĮ¸áĭį
ĠáĪĪáĪĽáĪµ áīĨáĪĿ
Ġáĭ¨áĪ« áīĢ
áĪĺáĭĺ áĬķ
Ġáĭ¨áīĨ áĪĺ
ĠáĮīáī£áĬ¤ áĭİáī½
ti c
Ġáĭ¨áĭ°áĪ¨áĪ° áī£áī¸áĭį
ĠáĪĥáĪ³ áī£áī¸áĭįáĬķ
ĠáĬ¤áĪį áĪ³
ĠáĬŃáįįáī° áī¶áī½áĬķ
áĭĺáįį áĮ¥áĪ¨áīµ
ĠáĬĶáīµ áĭĪáĪŃáĬŃ
áīµ áī¶
ĠáĪĪ áĬĲáĮĪ
áĭ¨ áĭ³
Ġáĭ« áīłáīĥ
Ġáīłáī° áĭĪ
Ġáīłáī° áĬ¨áĪ°áī°áĭį
ĠáĪĪáĪĽ áĮ¥
áĮŃ áĪĿ
ĠáĪķ áī¥áĪ¨áīµ
Ġáĭ¨áĪ° áĪĭáĪĿáĬĵ
áįĴ áĬķáĮį
ĠáīĨ áĪµ
ĠáĬłáī£ áī³áī½áĬķ
ĠáĮįáī¥ áĮ½
ĠáīµáĪŃ áĬ¢
ĠáĮĭáĭľ áĮłáĬĿáĬĲáīµ
áĮłáįĭ áĭį
Ġáī¥áĪį áĮŃ
ĠáīłáĪļáĭ«áĪµ áī½áĪį
ĠáĪĪáĪĺáĮį áī³áīµ
áĮ ¯
Ġáĭ¨ áīĥáĪį
Ġáĭ¨ áī½áĮįáĪ©áĬķ
áĭ« áįĬ
áī£ áĪ«
Ġáī° áĭ°áĮį
Ġáĭ« áĪŃ
áĬł áĭ³
ĠáĪĪáĪĽ áĪ°áī¥
áĪĥ áįĬ
áĪ¸ áĭį
áĪ°áī¥ áīłáīµ
ĠáĬłáĪĿ áĪį
ĠáĬłáĪĿ áĪŃ
Ġáĭ¨áĬ¥ áĮįáĭļáĬłáī¥áĪĶáĪŃ
áĪĺáĪµ áĪįáĪĿ
ĠáĬłáī¥ áĭ«áī°
ĠáĪŀ áī±
ĠáĪĪáĪĽáĪµ áįĭáīµ
áĮĦ áĬĶ
áī¥áĬĿ áĪĿ
áĭĿáĬĵ áĬĵ
ĠáĪ± áįĲáĪŃ
Ġáĭ¨áĬ¢áĬ®áĬĸáĪļ áĬĵ
ĠáĪ°áĬĲ áĭ±
ĠáĬłáĪ« áī±
Ġáĭ¨áĪļáī° áĮĪ
áĭµáĬĵ áīĨáīµ
ĠáĬ¥áĮį áĪ©
Ġáĭ¨áĪļáįĪáĪįáĮī áīµ
ĠáīłáĪĽáĪµáī° áī£áīłáĪŃ
Ġáĭ¨áĪĺáĬķáįĪ áĪµ
Ġáĭ¨ áī¥áĪ¨áīµ
áĪĿ áī¢
áĪĪ áīĦ
áīł áĬĿáĬĲáīµ
ĠáĪĿ áĮ¥
ĠáīłáĬł áĬ¥áĪĿáĪ®
Ġáįį áĭ¨
ĠáĬ¥áĪµ áĬ¨áī°
ĠáĬ¨áĪĺ áĭį
áĮĪáĪį áĮ¸áĭį
áĪ°áĪĽ áĬķ
ĠáĪ½ áĪŃ
Ġáī°áīĢ áĪ«áĪŃ
ĠáĪĺáī¥ áī³áī¸áĭįáĬķ
Ġáĭ¨áĭĺ áĪĺáĬķ
ĠáĪµáĪĭáĪį áĪĨáĬĲ
Ġáī³áīħ áĭ·áĪį
ĠáĬłáīĭáĪŃ áĮłáĭį
Ġáĭ¨ áĮłáĪ«
áī° áī°
ĠáĬ¨ áĮĪáī¡
Ġáĭ¨áĪļ áĮĪáĪĺ
áĪ³ áĪĿáĬķáī±
áĮĭ áĮ¤
Ġáĭµ áĪİáī½
áī¸áĭįáĬķ áĬĵ
ĠáĬ¥áĬķáĭ³ áĪĪáĬķ
áĮ¸ áĪįáĭŃ
Ġáī°áĪĺ áĪ¥
ĠáĬłáī¥ áĪ«
áĪĽáĪŃ áĬŃ
Ġáīłáĭį áĭŃáĭŃáī±
Ġáĭ¨áīĢ áĪĪáĪĿ
áĭĺáĭĭ áĭĪáĪ©
Ġáĭ¨áĬħ áī¥áĪ¨áīµ
ĠáĪĪáĪĽáĬķ áĬĽáĭįáĪĿ
Ġáī¥áĪ« áĭļáĪį
ĠáĬłáĪŃáĪ¶áĬł áĭ°áĪ®áī½
ĠáĬłáĪµáī°áĪ³áĪ° áī¦áī½
ĠáĭŃáĮĢáĪĺ áĪ«áĪį
áĬ £
Ġáĭ¨áĪļ áĪ°áĪĽáĭį
Ġáĭ« áĬ«áīµ
ĠáĪĽ áĮĪ
áĬĸ áīµ
áĭĺ áĬĳ
ĠáĪģ áĪĮ
Ġáĭĺ áįĢ
ĠáĬłáĭŃ áĭŀ
Ġáī¢ áī½áĪįáĪĿ
áĪ² áĬķáĮį
ĠáĪĮ áīµ
ĠáĭĪáīħ áī±
ĠáįĬ áī±
áĭ°áĮį áįį
ĠáīłáīłáĬ© áĪı
áĬĲáĮį áĪ¨áĭį
ĠáĮ¥áīħ áĪĽ
Ġáĭ¨áī´ áĬłáīµáĪŃ
ĠáīµáĪĿáĪħáĪŃ áīµáĬķ
Ġáĭ¨áĪĽáĪµ áī³áĭĪáīĤáĭ«
ĠáĪĲáĪ³ áī¦áī½áĬķ
ĠáĪĥáĪĭáįĬ áĭİáī½
ĠáĪĺáĮ»áĪķ áįįáīµáĬķ
Ġáī°áĭŃ áĭŁáĪį
áĮĪáĪĪáĮį áĪĪáĭį
Ġáī°áĬķáīĢáĪ³ áīĥáĪ½
ĠáĭµáĬķáĬ³ áĬĳ
Ġáīłáīµáĭķ áĮįáĪ¥áīµ
ĠáĭŃáĬ¨áī¥ áĭ³áĪį
ĠáĪĺ áĮĪáī£
ĠáĪĺ áī³áĭĪáīħ
áĪ« áĭĺáĪĿ
áĪħ áĬķáĪĿ
ĠáĬ¨ áĪĭ
ĠáĪµ áĬĵáĭŃ
áĭĺ áįĪ
áĭĽ áĬĻ
ĠáĪ³ áĬĵ
ĠáĬ¥áĬķáĭ°áĪļ áĮłáīģ
Ġáĭ¨áĪĽ áĭ«áĭįáīħ
ĠáĬ« áĭŃ
áĬĲáĪ³ áĪĿ
Ġáĭ¨áĪļáĭ«áĪµ áįĪáĪįáĮį
ĠáĬłáīĢ áĪ¨áī¡
Ġáĭ¨áĪĿáīµ áĮĪáĬĿ
ĠáĮ¨áĭĭ áĬĲáīµ
ĠáĬłáĭµ áĮĵáĪį
ĠáĮĪáĬķáĭĺáī¥ áĬĵ
ĠáĪįáĪĽ áĭ³áĭĬ
áĭ«áĪį áįį
Ġáĭ¨áĭ° áĬħáĬķáĬĲáīµ
Ġáĭ¨áĪĿáī³ áĭ°áĪŃáĮĪáĭį
Ġáī¥áĪį áĮ½áĮįáĬĵ
áĪŃáĪĽ áĪ²
ĠáīłáĪĭ áī¸áĭį
ĠáĪĪáĭĪ áĬķáĭµ
Ġáī¸ áĪŃ
áĮĪáĮį áī³
ĠáĭŃáĮĢáĪĿ áĪ«áĪī
Ġáī¥áĬŃ áĪĪáīµ
Ġáĭ¨áĪįáĪĿ áĭµ
áīªáĭ¬ áĪ½áĬķ
Ġáĭ¨ áĬĸáĪ¨áĭį
áĮĪ áī¤
Ġáīł áĮłáĬķáĬ«áĪ«
ĠáĪĺ áĪ¨áĭ³
Ġáĭ« áĪ¨áįĪ
áĬł áīħ
Ġáĭ¨áī° áĮĭáĪĪáĮ¡
áīłáĪŃ áĮįáĮ¥
ĠáĮĪ áīłáī³
Ġáĭµ áĪĿáĪŃ
Ġáīłáī° áĭ«áĭĺ
áĬ¢ áĪ³áĭŃáĭ«áĪµ
ĠáĮĭ áĪ»
ĠáĬ¢ áĪµ
ĠáĬ¥áĬĵ áĪĿáĬĵ
Ġáĭ¨áĪĿ áĪ¥áĪ«áīħ
Ġáĭķ áĪĿáĬĲáīµ
ĠáĮīáĭ³ áī±
áĪĺáĬķ áĮĪ
Ġáĭĭ áĪįáĭ«
ĠáĬłáĪĺ áĪµáĮį
áĭµáĬķ áĮĪáīµ
Ġáī¡ áĬŃ
Ġáī£áĪħ áĪªáĭ«
ĠáĪĪáĬ¥ áĭ«áĬķáĭ³áĬķáĭ±
áīłáĪĭ áĪ¹
áĪĺáĪ° áĪ¨áīµ
Ġáĭ¨áĭĺ áĪĪáīĢ
ĠáĬ®áĬķ áĮİ
ĠáĮ» áĭµ
ĠáĪ²áĮĪáĪį áĮ¹
Ġáī°áĪĺáĭĿáĮį áī¦
áĬłáĪĿáī£ áĪ³áĭ°áĪŃ
ĠáĬłáĭĺáĭį áīµ
Ġáīħáī¡ áĭĵáĬķ
áĪĿ áĭµáĪŃ
áĪ¨ áīĢ
Ġáīłáī° áīĢáĬĵáĮĢ
ĠáĪĪáĪĺ áįĪáįĢáĪĿ
ĠáĬłáĪĪ áī¥áĪħ
Ġáĭ¨áĪĽ áĬĳáįĭáĬŃáī¸áĪªáĬķáĮį
ĠáĪĺáĬķ áĭ°
Ġáī½áĮį áĬŀáī½
Ġáĭ¨áĬłáĪ «áīµ
áī°áĪŃ áĮİáĪĿ
Ġáī¥áĪŃ áĬĵ
ĠáīłáĪµ áĭ°áīµ
áĬ¤áĪį áĭ«áĪµ
ĠáĭµáĪŃáĮĬ áī¶áī½áĬķ
Ġáī°áīĭáĪĽ áĭĬ
ĠáĬ¥áĭ«áĪµ áĪĺáĭĺáĮĪáīł
Ġáĭ¨áĮįáī¥ áĭŃáīµ
ĠáĬ¨áī¤ áī°
ĠáĮĪáĬķáĭĺ áī¡
áĬĲáīł áīłáĭį
Ġáī¢áī£áĪį áĪĿ
áĮİáĬĵ áįĢ
ĠáĪĽáĭŃ áĬŃáĪ®
ĠáĬłáĪµáīĢáĭµ áĪĺáĭį
ĠáĬłáĬĲáĮĭ áĮĭáĪª
ĠáĬ¥ áīµ
Ġáīł áĮĢáĪŃáĪĺáĬķ
áĪ³ áĪĻ
Ġáĭ¨áī° áĪ¾
Ġáĭ¨áĪĺ áĭĿáĬĵáĬĽ
ĠáĪĪáĪĽ áĮİáĪįáīłáīµ
áĭ© áĪµ
ĠáīłáĬł áĮĭáĮ£áĪļ
ĠáĬ¨áī° áĭĪ
ĠáĪŃ áīĨ
áĬ¸ áĪªáĭ«
ĠáĪĽáĬħ áīłáĪ«
ĠáĮ½áĪĳ áįİáī½áĬķ
ĠáĭĪáĪµ áĭ·áĪį
ĠáĮįáĪ« áĬĵ
ĠáīµáĬŃáĬŃáĪĪ áĬĽáĭį
Ġáĭ± áĪĭ
ĠáĪĺáįĪ áĬŃáĪŃ
ĠáĭĪáĭµ áīĨ
ĠáĪłáĪ«áĭĬ áī±
Ġáī¤áī°áĪ°áī¡ áĬķ
Ġáī¢áīĤ áĪĭ
Ġáĭ¨ áī¼
ĠáĬ¥ áĭĽ
ĠáĬł áīłáĪį
Ġáīł áĮħáĪĿáĪĭ
ĠáĬ¥áĬķ áĮħ
áĪĽ áī³
áĭĭ áĭįáĭ«áĬķ
ĠáĪ² áĪĺáĪĪáĪµ
ĠáĪĪáĪĺ áĪį
ĠáĪĺáĪ° áĪĪáĪħ
ĠáīłáĮ¥ áīħáĪī
ĠáĬłáĭ°áĮĭ áĬķ
ĠáĭŃáĪģáĬķ áī³
áĬ¨áįĪ áī°áĭį
áĭ®áĪŃ áĭ³
ĠáĪ¬ áĪµáī¶
ĠáīµáĭįáĪį áĭ°
áĭł áīµ
Ġáĭ«áĪµáī³áĭĪ áĪ±áīµ
ĠáĪ°áĪĮ áĭ³
Ġáĭ¨ áĮĤ
áĪ« áĪ³áī¸áĭį
áĪĽ áĬ¨áĪŃ
ĠáĬ¨ áĮįáĪį
áīĢ áīłáĪĪ
Ġáĭ¨áĪļ áĬ¨áĪ°
áĬ¥ áĪ±áĬķ
ĠáĪĿ áī³áīµ
Ġáĭ¨áĪĺ áĪĭáĭį
Ġáĭĺ áĪĭáĪĪáĪĿ
áĬ® áĪĭ
ĠáĬ¨áī° áī»áĪĪ
Ġáīħ áĬĿáīµ
ĠáĬ¥áĭ¨áī° áĭĪáĮ£
áĬª áĭ®
ĠáīłáĪĿ áĪµ
áī¢áĭ« áī¸áĭį
ĠáĮ£ áĪªáĭ«
ĠáĮįáī¥ áįĥ
áĮĪáī¥ áĮĭáī¢
ĠáĮłáĪ Ī
Ġáĭ¨áįĸáĪĪáī²áĬ« áĬĵ
Ġáĭ¨áĪļáī³ áĭ©áīµ
ĠáĪłáĪ ¨
ĠáĭĪáĪ¨ áĭ°
áĬ«áĪĦáĭ° áĭįáĬķ
áĮĪáĮ¥ áĪĽáī¸áĭį
ĠáĮłáĪŃ áī¶
Ġáĭ¨áĬłáĪŃ áī¥áī¶
Ġáĭ¨áī°áĭ° áĬĲáĮĪ
ĠáĮłáįį áī·áĪį
ĠáĬłáī³áĭį áīħáĪĿ
Ġáī §
Ġáĭ¨ áī¡
ĠáĪĪ áĪĲ
áĮ¥ áĪ«
áĭ¨ áĭĵ
ĠáĭŃ áĪıáĪį
Ġáĭ¨áĪļ áī³áĭĪáīģáīµ
áĭĭ áī¸áĭįáĬķ
ĠáĪ² áĬ¨áīłáĪŃ
ĠáĬ¥áĬķáĭ² áīĢáĪŃáī¡
áĭľ áĬĵ
Ġáī³ áĮĪáĬĽ
Ġáĭ¨áĬł áī£áĭŃ
Ġáįį áĮ¥áĪ¨áīµ
ĠáĬłáĬ« áĪĭáīµáĪĿ
ĠáĬ® áĪİáĬĶáĪį
Ġáĭ¨áĪ° áįĪáĬĲ
Ġáĭ¨áĬ¥ áĬĲáĪ±
ĠáīłáĪĿ áĭµáī¥
áĪ¨áĮĭáĮĪ áĮ¡áīµ
áĭ°áĮĪ áįī
ĠáĬ¥áĬĵáĬķáī° áĬķ
ĠáĪĺáĪµáĮł áī±áĬķ
ĠáĬłáĪłáĪ ª
áĬķáĪµáī²áīµ áĭ©áī±
ĠáĬ¢áĪħ áĬłáĭ´áĮįáĬķ
r i
ĠáĬł áī§
ĠáĪĺ áĪ³áĭŃ
áīł áĮįáĪį
Ġáĭ¨áĪļ áī³áĭĪáīģ
Ġáĭ¨áī° áĪ³áĪ°
ĠáīłáĪĺ áĪĪ
ĠáĪĪáĪĺ áĭµ
ĠáĪĪáĪĺ áĮ¥
Ġáĭ¨áĪļáĭ« áīĢáĪŃáī¥
ĠáĮī áĬķ
ĠáĪĨáĬĲ áĬĵ
ĠáĪĪáĭį áĪµáĮ¥
ĠáĪĬáĭ« áĮĭáĮ¥
áįĪáĮ¸ áĪļáĭ«
áĭ°áĪŃáĪµ áĪĿ
áĮłáĭ¨ áīĢáĭį
ĠáĪ© áĭĭáĬķáĭ³
Ġáī°áĬĲáĪµ áī·áĪį
ĠáĬ«áĪ³ áĪģáĬķ
Ġáĭ«áĮĭ áĮłáĪĺ
ĠáĪĽáī¥ áīĤáĭ«
áīłáĪĢ áĮĪáĪ«áī½áĬķ
ĠáĬ¥áĬĵáĪĿáĬĵ áĪĪáĬķ
áĬķ áī¥
Ġáĭ¨ áįĪáĪĪáĮĪáĭįáĬķ
Ġáĭ¨áĪ Ĵ
áī£ áĬĸáĪµ
Ġáī° áįĪáīµ
ĠáĪĪ áĮīáĭ³áĭ©
áĬ« áĭ®áī½
ĠáīłáĪĺ áĮłáĬĳ
áįĭ áĪªáĭİáī½
ĠáĪĪáĪĺ áįįáī³
ĠáĪĪáĪĺ áĮĢáĪĺáĪŃáĭ«
ĠáĬłáĭŃ áįĪ
ĠáĬ¥áĬķáĭ°áĪļ áĪį
Ġáįį áī°áĪ»
áĪĥ áĪ«
áĮĪáĪĪ áĪį
Ġáĭ¨áĪļáĭ«áĪµ áī½áĪĪáĭį
ĠáĪĲ áĪ¨áĮį
ĠáĪ½ áĮį
áĭ¨áĬł áĭ¨áĪŃ
ĠáĬłáĭ« áĭ³áĮį
ĠáĪĽáĪ³ áĪĪáįį
Ġáĭ¨áĪŀ áĪ«áĪį
Ġáĭ¨áĮĪáĬķáĭĺáī¥ áĬĵ
ĠáĭŃáīĢ áīłáĪĭ
ĠáĪĺáĮ» áįį
ĠáĬłáĭįáĪ« áĮĥ
ĠáĬ¨áĬŃ áĪŃáĪµáī¶áĪµ
áĭķáĪĪ áī³áīµ
Ġáī³áĭŃ áī°áĭĭáĪį
ĠáĬłáĪµáīĨáĮ¥ áĪ¯áĪį
ĠáĪĺáĭĺáĮį áĭ¨áīµ
ĠáĪĺ áĮłáĭŃáīħ
áĬ¨ áī±áĬķ
ĠáĭŃ áĪĽ
áĪ³ áĪ³áī°
ĠáĪ² áĮĪáĬĿ
Ġáīłáī° áĮłáīĢáĪ°áĭį
áĮĥ áī½áĪģ
áīģ áĮłáĪŃ
Ġáĭ² áĪµ
ĠáĪĺáĪĪ áĬ®
ĠáĪĪáĪĿ áī³
áī£áī£ áīĤ
ĠáĬĲáīłáĪ¨ áī£áī¸áĭį
Ġáĭ¨áĭ³ áĭ«áĪµáįĸáĪ«
Ġáĭ¨áĮ¦áĪŃ áĬĲáīµ
ĠáīłáĪĺáī° áĮįáīłáĪŃ
Ġáī³áĪµ áī³áĭį
ĠáĬ¥áĬķáĭ²áĭ«áĭį áīģ
ĠáīµáĪµ áĪµ
Ġáĭ¨áĪĽáĬħ áīłáĪ«áĭĬ
ĠáĬłáĪįáĬĲáīłáĪ« áī¸áĭįáĪĿ
u m
Ġáĭ¨ áī½áĮį
áĪĭ áĬķáīµ
ĠáĬĲ áĭµ
ĠáĬĲ áįĭ
Ġáī° áĭ°áĪĽ
ĠáĪĪ áĬ®
Ġáĭ¨áī° áĪĺáĮ£áĮłáĬĲ
ĠáĪ² áĪµáī°áĪĿ
ĠáīłáĪĺ áĬŃáįĪáīµ
Ġáĭ¨áĪĺ áĮį
Ġáĭ¨áĪĺ áĪ¥áĪ«áīµ
ĠáĬ¨áĪĺ áĮĢáĪĺáĪªáĭ«áĭį
ĠáīłáĬłáĪ ħáĮī
ĠáĪĺáĬ« áĪĦáĭµ
áĬħ áĭ³áĪŃ
ĠáĪŃ áĬ©áĪµ
áįĸáĪŃ áīµáĬĵ
áĭŃáĪĽáĬĸ áī³áĭĬ
ĠáĮ½áĪĳ áįī
ĠáĪĺáĪ£áĪªáĭ« áĭİáī½áĬķ
ĠáĬłáĪ°áĪįáĮ£ áĬĿáĬĲáīµ
ĠáĪĽáĮ£ áĪ«áīµ
ĠáĪħáĭŃáĭĪ áī³áī¸áĭį
ĠáĭĪáĪŃáīħ áĬĲáĪħ
ĠáīłáĭįáĪµ áĮ£áī¸áĭį
Ġáī£áĪįáĭ°áĪ¨ áī£
ĠáĬ¥áĪ¸ áī±
ĠáĪ°áĬķáĪ° áĪĪáīµ
ĠáĬ¥ áī´áĮĮ
áĮĪ áįį
áĭµ áĪ«
Ġáĭ¨áĪ ¾
ĠáĬ¨ áĮ¤áĬĵ
áĬŃ áī¥áīµ
ĠáĪĪ áĮĭáĭľáĮłáĬŀáī½
áĪª áĬ®
ĠáĪµ áĭį
áĬ¥ áĪ°
áĭĺ áĭĺáĭį
Ġáĭĺ áĬķ
áĭ© áī¥
ĠáĬ¥áĭ¨ áīĢáĪ¨áīł
ĠáĮī áĭŁ
ĠáīłáĪµ áĪĿ
Ġ5 8
ĠáĪģáĪĪ áĮĪáī¥
ĠáĮĮ áīµáĬĲáīµ
ĠáĬ¥áĬķáĭ³áĪį áĪĨáĬĳ
ĠáĪĽáĬħ áīłáĪ¨
Ġáīłáī°áĪĺáĪĪáĬ¨áī° áĪĿ
ĠáīłáĬłáĬķ áīĢáĮ½
ĠáĮĪáī¥áĪ¨ áĪµáĪĭáĪ´
ĠáĪĺáĬŃ áįĪ
ĠáīłáīĨ áĪİ
Ġáĭ¨áī°áĭ°áĪ¨áĮĪ áīłáīµ
ĠáĭĿáĪŃáĭ« áĭİáī½áĬķ
ĠáīłáĪĺáĬ« áĬ¨áĪĭ
áĭŃáĪģáĭ³ áĭįáĭ«áĬķ
áīłáĭĺ áĬķáĭµáĪ®áĭį
ĠáĬłáĪ°áĮ£ áĮ¡
áĭ° áįĪ
Ġáīł áĭ©áĬĴáī¨áĪŃáĪ²áī²áĭį
áīĢ áĭ«
Ġáĭ« áĬ«áĪĤ
Ġáĭ« áĪĺáĮ£áĭį
ĠáĬ¥áĬķáĭ° áĪĽáĬķáĬĽáĭįáĪĿ
ĠáĪĭáĭŃ áĪĨáĬķ
ĠáĮ¥ áĮĪáĬĽ
áī¢ áĬĵ
ĠáĬłáĭŃ áĬĲ
ĠáĬ¥áĭ¨ áĪĺáĮ¡
ĠáĪĬ áĭĪ
ĠáĪĬ áīĢáĮ¥áĪį
ĠáĬłáĮĪ áĪ«áī±
ĠáĪµáĪĪ áĬĲáīłáĪ©
ĠáīłáĬ¥ áĭįáīĢáīµ
ĠáĪĿáĪŃ áī±
ĠáīłáīĢ áĬĿ
ĠáĬ¨áī°áĪĽ áĬĵ
ĠáĭįáĪ³áĬĶ áĭįáĬķ
Ġáĭ¨áĪģ áĪīáĬķáĪĿ
ĠáĪĺáī° áĪĽ
Ġáī¥áĪĦ áĪ®áī½
áĮłáīłáīĢ áĭįáĬķ
ĠáĬĥáĭŃáĪİáī½ áĬķ
ĠáĬ¥áĭ¨áĪ° áįĭ
ĠáĪīáĭĵáĪĭáĭĬ áĬĲáīµ
ĠáįĪáĮ£ áĬķáĬĵ
Ġ or
Ġáīł áĮĬ
Ġáĭ¨áĪ ¦
áīĢ áĪħ
ĠáĬ¥áĬķáĭ² áīĨáĪĿ
Ġáĭ¨áĪĺ áĭĪáĪ°áĬķ
ĠáĬŃ áĪĭ
ĠáĪĪáĪĺ áĪįáĬ«áĪĿ
ĠáĬłáĬķ áĭ³áī¸áĭį
Ġáĭ¨áĬł áīłáī£
ĠáĪĺáĪį áĪ±
ĠáĬ® áįĴ
áĭİáī¹ áĬĵ
Ġáīĥ áĬĵ
Ġáĭ¨áĪħ áĭĿ
ĠáĭŃáĮĪ áĭ°
ĠáĬ¥áĬķáĭ°áī° áĪĪáĪĺáĭ°áĭį
Ġáĭ«áĪ³ áĭĿ
ĠáĪ°áī¥ áĪµáī¦
Ġáĭ«áĭ°áĪ¨áĮĪ áī½áĭį
Ġáĭ¨áĪļáĭ«áĭį áīģ
Ġáĭ¨áĭ°áĪ¨áĪ° áĭįáĬķ
ĠáĬŃáī¥áĪ¨ áĭĪáĪ°
áĪĿáĪĿ áĬĲáī±
ĠáīłáįĢ áĪ¨
ĠáīłáĪĬ áī¢áĭ«
Ġáĭ¨áĬ¢áĭ¨áĪ±áĪµ áĬķ
áįĢáī£ áĪŃáīħ
ĠáĪ°áĪįáĮ£ áĬŀáī½
ĠáĭµáĪª áī£
áĮ¥ áįĭ
áĭ¨ áī°áĪ°
ĠáĪµ áĪĿáĬĵ
Ġáī¥ áĪĪ
Ġáī£ áĪĪáīµ
Ġáī£ áĮĪáĬĺ
áĪ½ áĪĽáĮįáĪĮ
Ġáĭ¨áĪĺ áĮįáĭĽáīµ
Ġáĭĺ áĪª
áĪĻ áĭµ
Ġáĭ¨áĪħ áĪįáĭįáĬĵ
Ġáįĸ áĪµáīµ
áĭ¨áĭį áĪĿ
ĠáĬ¦ áįķ
áĬ¥áĬķáĭ° áī°
ĠáĬĲáįĥ áĬĲáīµáĬķ
ĠáĮ¸ áĮ¥áī³
ĠáĭŃáī³ áĪ°
ĠáĮĲ áĭ³áĬĵ
ĠáĪ°áĪĽ áĪģ
ĠáĬ«áĪįáī° áī»áĪĪ
Ġáĭ¨áī°áĪĺáĪ° áĪ¨áī°áĭį
ĠáĬłáī¥áĪ¨áĭį áīµ
ĠáĭĪáĬķáĮĢ áĪİáī½
Ġáĭ¨áĬłáīµ áĬŃáĪįáīµ
áĬķ áįį
Ġáĭ¨ áĬķáĮīáĪ¡
áĮĪ áĮ½
áĪ¨ áĭ±áĬķ
áĪħ áĭ´áĭµ
Ġáī° áįĪáĪŃ
ĠáĪĪ áĬĥ
áĭ¨ áĬ¥áĪŃ
ĠáĪĽ áĭĺáĮĭáĮĢ
ĠáĪĽ áī°áĪļáĭ«
Ġáĭ¨áī° áĪłáĪ«áĭį
ĠáĪ² áī»áĪį
ĠáīłáĪĺ áī°áĭį
ĠáīĢ áĮłáĪį
áįĬ áĭ«áĭį
áĬĴ áĪħ
ĠáĬ¥áĬķáĭ°áĪļ áĬĸáĪ©
Ġáĭ¨áĪĽ áĪµáįĭáįĬáĭ«
ĠáĬ¥áĬĵ áĭµáĪŃáĮį
áĬ¤ áĮĢáĬķáĪ²áĭį
áįħ áĪŃ
ĠáĬ® áĪĽáĬķ
Ġáĭ¨áĪħ áī¥áĪ¨áīµ
ĠáīłáĪĽáĭµáĪ¨áĮį áĪĿ
Ġáĭ¨áĬ¢áĬķ áī°áĪŃáĬĶáīµ
Ġáīłáīħ áī·áĪį
áĮĢáĬķ áī²
ĠáįĪáĮ¥ áĪ¨áĭį
Ġáĭ¨áī°áīĢáĪĺ áĮłáĭįáĬķ
al l
ĠáīłáĬ¤ áĪĮáĬŃáīµáĪªáĬŃ
ĠáįĪáĪ¨áĬķ áĮħ
áĭ«áĬķáĭ³áĬķ áĭ³áī¸áĭį
ĠáĬłáĪįáī»áĪį áĬķáĪĿ
ĠáĬ¥áĪĭ áī½áĬĭáĪĪáĪģ
Ġáī£áĬķáĭ² áĪ«
Ġáĭ¨ áĬ¨áī°áĪŀáī½
ĠáĬ¥ áĮĪáĭ³
Ġáī° áĪĽáĪĿ
ĠáĪĪ áī¥áĪĶáĪ«áĭĬ
áĭ¨ áĮİ
áīħ áĪ®
áĭĭ áĬĶ
ĠáĪĽ áĮį
ĠáĪĿ áĭµáĪ¨
Ġáĭ° áĪ´áīµ
ĠáīłáĪĺ áįĪáĮ¸áĪĿ
ĠáĬĵáī¸áĭį áĬĵ
áĭŃáĪħ áī½
ĠáĮ¥áĭ«áīĦ áĪĿ
áĪ°áĪ« áīłáīµ
ĠáĪª áĪį
Ġáĭ«áĪįáī° áĮĪáī£
Ġáĭ¨áĬ« áĬķáĪ°áĪŃ
Ġáĭ¨áī¤ áī°áĪ°
ĠáĬ¥áĪ« áĪ³áī¸áĭįáĬķ
ĠáĮ¥áĪ« áī±áĬķ
ĠáĬ¨áĬłáĪµ áĪŃ
Ġáĭ¨áĪļáĭ«áĪĺáĪĭáĬŃ áīµ
Ġáĭ«áĪĺáĪĭáĬŃ áī³áĪį
6 3
Ġáĭ¨ áīħáĬķ
áĭŃ áĬĵáĭį
Ġáīł áĬŃáĪį
áĬĲ áįĪ
ĠáĪĺ áĬ¨áĪ°
Ġáī° áĪĪ
ĠáĪĪ áĮįáĭµáī¡
Ġáĭ¨áī° áĪĺáĪĪáĬ¨áī°áĭį
ĠáĪĪáĪĺ áĮ£áĪį
ĠáĪĪáĪĽ áĪ°
ĠáĪĬ áĪĺ
ĠáĪĬ áĮĪáī£
áĪªáĭ« áĪĿ
Ġáĭ¨áĪĽ áĭį
áĪ°áī¥ áĬŃ
ĠáĪĺáĪµ áĭĭáĭķáīµ
ĠáĬ¨áĪĺ áīĢ
ĠáĬłáĪĺ áĪµáĮĭ
ĠáīłáĬ¥ áĮĥáī¸áĭį
ĠáīłáĬ¥ áĭįáĬĲáīµ
áĮĪáĪĪ áĮĪáĪį
Ġáī°áĮįáī£ áĪ©áĬķ
ĠáįķáĪ® áįĵ
Ġáĭ«áĪī áīłáīµáĬķ
ĠáĪĽáĭµáĪ¨áĮį áĬķ
ĠáīłáĪ« áĪ·
áĮłáĬĲ áĬ¨áĪ¨
ĠáĬ¥áĬķáĭ°áĪĽáĭŃ áī½áĪī
ĠáĬĲáīłáĪ¨ áĬĿ
ĠáĮłáīĢáĪľ áī³áĭį
ĠáĪĪáĪļáĭ« áĪµ
ĠáĪįáī¦ áĪĪáĭµ
ĠáĮĪáĭ¢ áĭİáī½
ĠáĬ¥áĭ¬ áī°
Ġáī³áĭĽ áī¢áĭİáī½
Ġáĭ¨áī´áĬŃáĬĴáĬŃ áĬĵ
áĬ«áĪĶ áĭ°áĭį
ĠáĪĺáĭĺáĮĭáĮĢ áī±áĬķ
ĠáĪĺáĪĥ áĪĺáĭµ
áĭĿáĮįáĮħ áī±
áĮĪ áī½
Ġáīł áĭ´áĪŀáĬŃáĪ«áĪ²áĭ«áĭĬ
ĠáĪĪ áĭ°áĬķ
áĪ° áĬķáīµ
áī¶ áĪĿ
ĠáĪ° áĪľáĬĵáĭĬ
áī¢ áĭ©
ĠáĪħ áĬķáĭµ
Ġáīħ áī¥
ĠáĬ¥áĭ« áĪĪáĪģ
Ġáĭĭ áĪį
Ġáĭĭ áĪ»
Ġáĭ¨áĬ¥ áĬĵáĬķáī°
ĠáīĨ áĪĺ
ĠáĬĥáĭŃ áĪīáĬķ
Ġáĭ¨áįĪ áĪ¨
ĠáĪĺáī¥ áī¶áī½áĬķ
ĠáĮ¤ áĬĲáĬĽ
áĪĺáĪĪáĬŃ áī±áīµ
ĠáĪĢáī¥ áī¶áī½
ĠáĮłáĭŃ áīĢáĭį
ĠáĪĪáĪµ áįĸáĪŃáī±
ĠáīħáĬķ áĮħáīµ
áĬĲáįį áĪµ
ĠáĮĵáĭ°áĬŀ áī¼
áīłáī°áīĥáĪ«áĬĴ áĭį
Ġáĭ¨ áĪĪáĭį
Ġáĭ¨ áīµáĪĿáĪħáĪŃáīµáĬĵ
ĠáĬ¥ áĭĽáĭį
ĠáĬł áīĨ
ĠáĬł áĬ¥áĪĿ
Ġáīł áįĸáĪĬáĪµ
ĠáĪĺ áĮłáĬĵ
ĠáĭŃ áĪ¨
Ġáĭ« áĭĭ
ĠáīłáĪĺ áĬĵáĮĪáĪŃ
ĠáīłáĪĺ áĮįáĪĪáįħ
áĪ± áĭ³áĬķ
áĭ´ áĬĵ
ĠáĪ³ áĪµáī¥
Ġáĭ«áĪµ áī£áĪī
áĭŀ áīµ
ĠáĪ½ áĮī
ĠáĬ¥áĬķáĭ²áĭ« áīĢáĪŃáī¡
áĭ¶áī½ áĬĵ
ĠáĬłáĭĭ áĮŃ
ĠáĪĽáĪµáī° áĪĭáĪĪáįĬáĭ«
áĭ«áĪį áī°
ĠáĬĸ áĪŃ
áĮ¨áĭĭ áĭĪáīµ
ĠáĭĪáĪµ áĬĹáĪį
Ġáĭ°áĪĺ áīĢáī½
ĠáĪ£ áĮ¥áĬķ
ĠáĬłáĭįáĪ®áįĵ áĭįáĭ«áĬķ
Ġáĭ«áī¥áĪ« áĪ«áĪį
áĪįáĭ« áĭµ
Ġáī°áĪĺáĭĿáĮį áī§áĪį
ĠáĭķáĮ© áĭİáī½
ĠáĪĲáĭŃ áīħ
łáĪį áĮ£
ĠáĬ £
áĪ« áĪ´
áĪĽ áĪĪáĬķ
ĠáĪĪ áīģ
ĠáĭŃ áĪ³áī°
Ġáĭ¨áĪļ áĮİ
ĠáĪĽ áĬĵáī¸áĭįáĪĿ
ĠáĪ² áĭĪáĪŃáĭµ
ĠáīłáĪĺ áįį
áī» áĪįáĬķ
ĠáĪĪáĪĺ áĮĪáĬķáĭĺáī¥
ĠáīłáĪĽ áĪ«áī¶áĬķ
ĠáĬ¥áĭ« áĬ«áĪĦáĭ°
ĠáĭĿ áĬĲáĬĽ
áĭŀ áĪ©
ĠáĬ¨áĬł áĬ«áī£áī¢
áĪĺáĪŃ áĮ¡
ĠáĬłáīµ áĬŃáĪįáīµ
áĮłáĬķ áĬķ
ĠáĬłáĪĽ áĬķ
ĠáĬłáĪĽ áĪ¨
áĪ¥áĪ« áĭį
ĠáĬłáĭĭ áĮĨáī½
áĮłáĭ¨ áīģáīµ
ĠáīłáĪħ áĮĭáĭĬ
Ġáī¡áĭµ áĬĸáī½áĬķ
Ġáĭ¨áĬ« áįĴáī³áĪį
ĠáĮīáĭŀ áĭį
áĪµáī°áĬ« áĬ¨áĪī
ĠáĬ¥áĬķáĭµáĬķ áĪĨáĬķ
ĠáĬłáĪ« áĭ³
ĠáĮĢáĪĺáĪŃ áĬķ
Ġáĭ°áĪĺ áĭĪ
Ġáĭ¨áī£áĪĪ áĪĻáĭ«
Ġáĭ¨áĪļáįĪáĮ¥ áĪ¨áĭį
ĠáĭĪáĭ³áĭµ áĬĲáīµ
ĠáĬłáĪ°áī£ áĪ°áī¥
áĮłáĬĵáīħ áīħ
áĮĪ áī§
ĠáĬł áĬ¨áī£áīłáĪŃ
áĪĽ áĬķáĭµ
áīħ áī¥
Ġáĭ¨áĪļ áĬ¨áĪĪ
áĮ£ áĪĪáĪģ
ĠáĬłáĪµ áī´áĪŃ
ĠáīĢ áĬķáĬĵ
ĠáīĢ áĭ³áĪĽáĭĬ
ĠáĪ³ áĭį
ĠáĪ¥áĪ« áī½áĬķ
ĠáĬ¥áĪµ áĬŃáīµ
áįİ áĪŃáĭµ
ĠáĪĺáĬķáĮĪáĭµ áĬĵ
ĠáĬ¥áĬķáĬ³ áĬķáĪµ
Ġáī°áĪĽáĪª áĭİáī¹
ĠáĪµáĪľ áīµáĬķ
ĠáīĢáĭ°áĪĿ áīµ
Ġáīłáī¥ áĭµáĪŃ
ĠáĪĺáĮ£ áĪģ
áĭĪáĭµ áĪĿ
ĠáĪĺáĮĢáĪĺ áĪ«áī¸áĭįáĬķ
áĭ¨áĬ« áī²áīµ
ĠáĬ¥ áĭļáĭ«áĪĿ
áĭ° áīłáĭį
ĠáĪĪ áī±
Ġáĭ¨áĪļ áĭĪáĪµáĭµ
áĪ³ áĭ«
ĠáĪĿ áĬ¥áĪ«
ĠáĪ² áĪ¸
ĠáĮĪ áĪ¨
ĠáĪĪáĪĽ áįĭáĮłáĬķ
ĠáĭµáĮĭ áįīáĬķ
ĠáĬ«áĪį áĪĨáĬĳ
ĠáĪķáĭĿáī¥ áĬĵ
áĭ¨áĪĿ áĬŃáĪŃ
ĠáĪĺáīĨ áĮłáī¥
ĠáĪĺáĪĭ áĭįáĬķ
Ġáĭ¨áĪ² áĪļáĬķáī¶
ĠáīłáĪĽáĪħ áīłáĪŃ
ĠáĮĦ áĬĶ
ĠáĬ¨áīĨ áĭ¨
Ġáĭ¨áĪ°áĮ¡ áīµáĬķ
ĠáĬ¥áĬ© áĭŃ
ĠáĬ¤áī½ áĬłáĭŃáīª
áĪµáī°áĬĵáĮį áĭ°áĭį
ĠáīµáĬ¨ áĪ»
Ġáī° áī¸áĮį
áĬ¨ áī¡
ĠáĪ° áĪĭáĪĽ
Ġáī£ áĮĪáĬĻáīµ
Ġáīµ áĭĿáī¥
ĠáĬłáĪµ áīĨ
Ġáĭ¨áĪĺ áĮĢáĪĺáĪŃáĭ«áĭį
ĠáīĢ áīłáĪ®
ĠáĪĪáĪĺ áĪ¸áĮ¥
áĬ® áĪ³
ĠáĪĺáĪµ áĪĪáĭį
áī°áĭį áĪĿ
ĠáĮ¨ áĭį
áįĮ áĬķ
ĠáĮĪáĪį áĮ§áĪį
ĠáĪŃ áĬ¥áĪµ
Ġáįĸ áĪį
Ġáĭ¨áĪļáĪ° áĪ©áīµ
ĠáĬ¥áĬķáīħáĪµáīĥáĪ´ áĭį
ĠáĮ¤ áįį
ĠáĬłáĪįáī° áĮĪáĬĺáĪĿ
áĪ¶áī½ áĬĵ
Ġáī¢áĭ« áĭ°áĪŃáĮī
áī« áĬķ
Ġáīłáīģ áĮ£
ĠáĪĨáĪµáįĴ áī³áĪī
Ġáĭ¨áī°áī£áĪī áīµáĬķ
ĠáĪĪáī¥ áĪ°áĭį
ĠáĭŃáĪĺáĪµáĪį áĪĥáĪį
ĠáĬ¥áīĥ áĭİáī½
ĠáĪ³áĪĿ áĪ¶áĬķ
áī¦áĪ« áī¶áĪª
ĠáĭŃáĪ°áĪ« áĪī
ĠáĪĽáīĢáĬĲ áī£áīłáĪªáĭ«
ĠáĭŃáĭ°áĬĲáĮį áĮĭáĪį
áĬĵ áī±áĬķ
áĪĺ áĮ¡áīµ
áīł áī¶
ĠáĬ¨ áĬ¦áĪ®áĪļáĭ«
áĪ° áī£áī¸áĭį
áĭ¨ áĬ¥áĬĶ
Ġáĭ¨áĪļ áĮ¨
Ġáĭ¨áī° áĮłáĬĵ
Ġáĭ° áĮħ
ĠáīłáĪĽ áĮłáĬĵáīĢáīħ
ĠáĪ³ áĬ¦áĪį
ĠáīłáĬł áįĪ
ĠáĮĬáĭľ áĭ«áī¸áĭį
áĭİ áī»áī½áĬķáĬķ
Ġáī½áĮį áĪ®áī¹
ĠáĬłáĪĺ áįħ
ĠáĪĢ áĭĭáĪ³
áī£áĪį áĬĵ
áĬĲáĪ³ áĪ³áīµ
Ġáĭ¨áĭĪ áĮ¡áīµ
áīłáĪĺ áĬ«
ĠáĪĪáĬł áĮĪáĪ«áī¸áĭį
ĠáĬ¥áĬķáīħáĪµáīĥáĪ´ áĭİáī½áĬķ
ĠáĭµáĪĿ áĮ»
Ġáĭ¨áĪĮ áĪĭáī¸áĭįáĬķ
áĭŃáĬķ áĪ³áĭĬ
ĠáĭĭáĬķáĮ« áĬķ
ĠáĪĺáĪĿáĪħ áĪ©
ĠáĪĺáĬŃ áįĪáī»
ĠáĮĢáĪĿ áĪ¨áĭį
ĠáĪĺáįį áī»
ĠáĪĺáĮ¨ áĬĵ
ĠáĭĪáĭ°áĪļ áĮĪáĬĺáĭį
áĪłáĪį áĮłáĬĽ
ĠáĬ¨áĪ© áīħ
Ġáĭ¨ áĬŃáĪĪáī¡
Ġáīł áįĵáĪŃáĪĭáĪĽ
ĠáĬ¥áĬķ áĮĥ
ĠáĬ¥áĬķ áĪ°áĪ«
áĪħ áĪİáīµ
Ġáī° áĮ¥
áĬŃ áī³
ĠáĪµ áĪĮáīµ
ĠáĮį áĪİ
áĪŀ áĪĭáĭį
Ġáīµ áī³
áįĭ áī¶áī½
ĠáĬłáĪµ áĮłáĬķ
ĠáĪĬ áĮīáĬķ
Ġáī¢ áĬĸáĪ¨áĭįáĪĿ
ĠáĬłáĬķ áĮĪáī¥áĮĭáī¢
Ġáĭ¨áĬłáĪ °áĪįáĮ£
Ġáī¥áĪŃ áĭµ
ĠáĪµáĪ« áī¸áĭį
ĠáĪĭ áĪĿ
áĪ°áĪ« áĪĿ
áĪĺáĪ¨ áī±
ĠáĬĥáĪĭáįĬ áĬĲáīµáĬķ
áĬĲáī± áĬĵ
ĠáĪĺáĪĨáĬĵ áī½áĬķáĬķ
áĭĪáĪŃ áĭ±
ĠáĭŃáī³áĭĪ áīĥáĪī
ĠáīħáĪŃ áĮ«áīµ
áĭķáĪ« áī£áĭįáĭ«áĬķ
ĠáīłáĪĨáĬĲ áīłáīµ
ĠáĬłáĪľáĪªáĬ« áĬĵ
ĠáĬ¥áĬķáĭ°áĪĮ áĪĪáīłáīµ
Ġáĭ«áīĢáĪ¨ áīł
ĠáīĢáĭ³áĪļ áĭį
Ġáī°áĪ» áĮĭáĪª
áĮİáī¥ áĬļ
ĠáĪĪáīħ áĪ¶
ĠáĪĪáĬłáĬķ áī£áī¢
ĠáĭĪáĪ¨áĪŃáĪ½ áĬĿ
4 6
ĠáĬł áĮįáī¥
Ġáīł áĭĿáĪĿáī³
ĠáĪĺ áī£áĪī
áĬł áĭ²
ĠáĪĽ áĪŃáĭ«
ĠáĪĽ áĪ¸áĬĲ
ĠáĪ² áĮĢáĪĿáĪ©
áĬłáĪ Ĭ
áįĭ áĪĪáĬķ
Ġáĭĵ áīĢáįį
ĠáĬ¥áĭ¨ áĪĺ
ĠáĬ¥áĭ¨ áĮĪáī¡
áĮ½ áĪŃ
áĪµáī° áĮĵ
ĠáįĪ áĪ¨áĪ°
ĠáīĨ áĭ©
áĪ°áĭį áĪĿ
áīłáĪĺ áĬķ
Ġáī°áĬĵ áĮĪáĪŃ
Ġáī°áīĢ áĪĺáĮł
áĮ¹ áĪķ
19 60
áĭ¨áĬł áĮĪáĪ«áī½áĬķ
ĠáīłáĪĺáī¶ áĭįáĬķ
áĪ»áĪ» áĪĪáĭį
Ġ200 3
Ġáĭ¨áĭĺ áĪĺ
ĠáĪĺáĭĿ áĮĪáīł
ĠáĪĪáĬłáĪ ĺ
ĠáĬłáĭİ áĬķ
ĠáĬłáĪĪáī½ áĬĿ
Ġáĭ¨áĮĪáī£ áĭįáĬķ
ĠáįĪáĪį áĮĮ
ĠáĬĲáĮį áĪ®
ĠáīłáĮĬáĭľ áĭ«áĭĬ
ĠáĪĻáĪµáĪĬ áĪĿ
áīµáĪ¨ áįĪáĪ¨
ĠáĬł áįķ
Ġáīł áĭ´áĪŀáĬŃáĪ«áĪ²
áĪ¨ áĭįáĬķ
ĠáĪĽ áĭĺáĮĭáĮĥ
Ġáĭ¨áī° áĭ°áĪ¨
ĠáīłáĪĽ áįįáĪ«áīµ
ĠáīłáĬł áīµ
áĪ®áī½ áĪĿ
Ġáĭ¨áĪĿ áĭķáĪ«áī¥
ĠáĪĺáĪį áīĢ
Ġáĭ«áĪµ áī½áĪĭ
áĮ¦ áĮ¦
Ġáīłáĭ¨ áĪĺáĬķ
ĠáĪĺáĪĨáĬķ áĬķ
ĠáĪĺáĪ¥ áįĪáĪŃáīµ
ĠáĪ± áĪª
ĠáīłáįĬ áī±
Ġáĭ¨áĪļáĪ°áĮ¥ áīłáīµ
Ġáĭ¨áĪļáĭ°áĪ¨áĮį áīłáīµ
áĪµáĬŃ áĪĮ
Ġáī°áįĭ áĪ°
ĠáĪĢáĪ³ áī¦áī½
ĠáĪĺáĪµáįĪáĪŃ áī¶áī½
Ġáĭ¨áĪĺáĪĿ áĪ¨áĮ¥
Ġáĭ¨ áīµáĪŃáįį
Ġáīł áĮ¤áĬĵáĭį
ĠáĪĺ áĪ¨áĮĭáĮĪáĮ¥
ĠáĬĲ áĮĪáĪ«áī¸áĭį
áĪ° áīłáīµ
ĠáĭŃ áĮłáīĢáĪĻ
áĬł áįĵ
ĠáĭĪ áĬ¨áįį
áĪļ áĬĵ
ĠáīłáĪĺ áĬ¨áī³áī°áĪį
ĠáĪį áī£áĭĬ
ĠáĪĬ áĪ¨áĭ³
Ġáĭ¨áĬł áįį
ĠáĪµáĪĪ áĪº
áįĢ áĪĲáĭŃ
ĠáĪµáĪ« áĪĿ
ĠáįĵáĪŃáī² áĭİáī½áĬķ
ĠáīłáĮ¥ áīĥáīħáĬķáĬĵ
ĠáĮłáīħ áĪį
Ġáīłáĭĵ áĭŃáĬĲ
Ġáī£áĭŃ áĬĸáĪŃ
ĠáĪĿáĪŃáĮ« áĭįáĬķ
ĠáĪłáĪŃ áī°áĭį
Ġáĭ¨áĬ¦ áĭ²áīµ
ĠáĭĿáĮįáĮħ áī±áĬķ
ĠáīłáĭĿ áīħáī°áĬĽ
Ġáĭ¨áī°áĪŀáĪĭ áīłáīµ
Ġáī¥áĬŃ áĬĲáīµ
Ġáĭ¨ áĮ¡áĪ¨áī³
áĮĪ áįĪ
ĠáĪĺ áĮ«áĭĪáī»
áĬŃ áĪİáī½
Ġáĭ« áĪ¨áĮĭáĮĪáĮł
áįį áĮ¥
áĪ³ áĭ¨áĭį
áīłáĪŃ áĬŃáī¶
áĪ» áĪĽ
ĠáĪĪáĪĺ áĪ°áĪĽáĪ«áīµ
áĭķ áīµ
ĠáĪ³ áĭĳáĭ²
ĠáĬ¨áī° áī£áĪĪáĭį
Ġáī½áĮį áĪŃáĪĿ
áĪĺáĪµ áĬ¨áĪ¨áĪĿ
ĠáĪĽáĪµ áįĪáĪ«
ĠáĬłáī£ áĭĪáĪ«
ĠáĮİ áĪİáī½
ĠáĪĪáĬł áĬ«áĪį
Ġ20 13
ĠáĪĪáĪĿ áĬŃáĪŃ
áĮīáĪĿ áĪ©áĬŃ
Ġáĭ¨áĪķáĭĿáī¥ áĬķ
ĠáĪ°áĪĿ áī°áĭį
ĠáĪķáĭĿ áīħ
Ġáĭ¨áĪłáĪ Ī
ĠáīłáĪľ áĭ³áĭį
ĠáīłáĪĺáī³ áĮĪáĭĿ
Ġáįįáīħ áĪ©
Ġáĭ¨áĪļáĭ«áĪµáĬ¨áīµ áĪĪáĭį
¸ áī£áĪª
áĭŃ áĪŃ
áĪĺ áĭĽ
ĠáĬł áĬĹáĬĹ
Ġáīł áĭĲ
áĪ¨ áĪļáĭ«
áī¥ áĪŃáīµ
ĠáĬ¨ áĪĿáĭµ
Ġáī° áĬ¨áī°
Ġáĭ¨áĪļ áĬ¨áĪ°áī°áĭį
ĠáĬ¥áĬķáĭ° áĪ°
Ġáĭ¨áī° áįĪ
Ġáīµ áĪ«áįĬáĬŃ
ĠáĪĪáĪĺ áĬŃáįĪáīµ
ĠáĪĬ áĪ°áĮ£áī¸áĭį
ĠáĬ¥áĬķáĭ³ áĭ°áĪ¨
Ġáĭ¨áĪĽ áĭįáīĢáĭį
Ġáĭķ áĭŃáī³
ĠáĬ¥áĭ¨áī° áĭĺáĮĭáĮĢ
áĬª áĪŀáī½
áĬª áĪµáī³áĬķ
áĪĺáĪ¨ áĪĿ
Ġáĭľ áĮĲ
ĠáĪĺáĪłáĪ¨ áī±
ĠáĪĪáĭįáĮ¥ áĬķ
áįģ áĪħ
Ġáī°áĪĺáĪį áĬ¨áī±
áĬ¥áĪµ áĬ«
áĭ¨áĪģ áĪĪáī±
ĠáĭĪáĭ³ áĪĪáĭį
Ġáĭ¨áĭµ áĪ®
ĠáĬĥáĭŃáĪĪ áĪ¥áĪĭáĪ´
ĠáīłáĪĭ áĬ¨áĭį
Ġáĭ¨áĭ´áĪŀáĬŃáĪ«áĪ² áĭ«áĭĬ
Ġáĭ°áĪ¨áĪ° áĬĿ
ĠáīłáĬ© áĪ«áīµ
Ġáī°áĭĪáĪį áĭ°
Ġáĭ¨áī³áĭ¨ áīłáīµ
ĠáĮłáĪĺ áĬķáĮĥ
áį Ĥ
Ġáį ©
áĪĺ áĬķáĮįáĪµ
Ġáīł áī¡
áĬĲ áīģ
áĪ« áĮħ
ĠáĬ¨ áĪĬ
ĠáĪĪ áĬķáĮįáĭµ
ĠáĭĪ áĭ®
ĠáĪĽ áĭĺ
Ġáĭ¨áī° áĪ½áĬ¨áĪŃáĬ«áĪª
ĠáĪ² áĭ«áĬķ
áī» áĪįáĬĵ
Ġáīłáī° áĪĺáĪ¨áĮ¡
áīĤ áĭį
áĮłáīł áīģáīµ
áĪĭáĪĪ áĪµ
Ġáĭ¨áī³ áĪ°áīł
ĠáĪµáįįáĪ« áĭį
áīłáĪ³ áĮŃ
Ġáīłáĭķ áīħáĭµ
áī£áĪ¨ áĪŃ
áĬ¥áĬķáĮį áĭ²áĭ«áĭį
Ġáī°áĪ°áĮ¥ áī·áī¸áĭĭáĪį
Ġáīµáĭķ áĭŃáĬķáīµ
ĠáĬ¢áĬķáī°áĪŃ áĬĶáīµ
Ġáĭ¨áĪļáĮĪáĬĿ áīłáīµ
ĠáĭŃáĮłáĭŃ áīĥáĪī
Ġáīłáĭĭ áĮĭ
ĠáĬ¨áī¤ áī°áĪ°áī¥
ĠáĪĻáĭļ áīĢáĬŀáī½
ĠáĬłáĬ© áĪª
áĭ° áīģ
áīł áĭ°áĪŃ
áīł áĬĻ
ĠáĬ¨ áĭ«
áĬ¨ áĪ«áĪį
Ġáĭ¨áĪļ áĪµáĪĽáĪĽ
áĮī áĭŀ
Ġáĭ¨áĪĺ áĮĪáĬķáī£áīµ
ĠáĬ« áĭįáĬķ
ĠáĬłáĪµáī° áĬ«
áĮłáĬĵ áĬŃáĪ©
ĠáĬłáĪĭ áī½áĪģ
áĪĨáĬĵ áī½áĪģ
Ġ5 9
Ġáīłáīµ áĭ³áĪŃ
ĠáĪµáĬķ áīħ
áīº áĭį
Ġáī¥áĪį áĮįáĬĵ
Ġáĭ¨áĪļáĪĺ áĮ¥áĬķ
ĠáĪ°áĬķ áĮłáĪ¨
áĪµáī² áĬķáĮį
Ġáī°áīĢáĪĿ áĮłáĭĭáĪį
Ġáī°áĪŃ áĮĵ
ĠáĪ°áĭŃ áįī
áĭįáĮ£ áīµáĬĵ
Ġáĭ¨áī£áĪĪ áī¤áīµáĬĲáīµ
ĠáīłáĪ´ áīµ
ĠáĪµáĪĿáĪĿ áĬĲáī±áĬķ
ĠáĪļáĪĬ áĭ¨áĬķ
ĠáĪĺáĭ« áĭ£
ĠáĬłáĬ«áĪĤ áĭ·áĪį
ĠáĬłáĬĵáĭį áīħáĪĿ
áĬ Ł
Ġáĭ¨ áĮ¨áĪ¨áī³
áĪį áĪĥáĪį
áī° áĬĳ
ĠáĬ¨ áĬĶ
ĠáĬ¨ áĬķáįĪ
áĭ¨ áī¦
áĬł áĭ³áĪĽ
Ġáĭ¨áī° áĪĺáĪĪ
ĠáĬ« áī£
áīłáĪį áįĢ
ĠáĪĽáĬķ áĬķáĪĿ
áīĢáĪĺ áĮ«
Ġáĭ¨áĪį áĭ°áīµ
ĠáįĪáīĥ áĭ±
ĠáĪĺáĭį áĭ°áĭµ
ĠáĪĺáīĨ áĭ¨áī±
ĠáĪ¹ áĪĺ
ĠáĪ°áĭŃ áĮ£
ĠáĪĪáī¥ áĪ¶
Ġáĭ¨áĪļáĭĪáĪµ áĭ°áĭį
áĭĿáīĥ áĭľ
ĠáīłáĮīáī£áĬ¤ áĭį
Ġáĭ«áĬ«áīµ áī³áĪį
Ġ on
Ġáĭ¨ áĭ©áĬĴáī¨áĪŃáĪ²áī²áĭį
áī° áĪ½
áĭ« áĪĽ
ĠáīłáĪ ¹
áĬ¨ áĪīáīµ
áĭ¨ áĭķ
áĭ¨ áĪ´
áĬ« áĭµ
áĮł áī¢áĭ«
Ġáī¥ áĬłáĭ´áĬķ
áĭĿ áĪĽ
ĠáĬ¥áĭ¨ áĪĺáĪ°
áīĭ áīµ
Ġáī¢ áĪ°
Ġáī¤ áī·
áĭµáĪ¨ áĮī
Ġáĭ¨áĪĿ áīµáĬĵ
ĠáīłáĪļ áĪ°áĮłáĭį
Ġáĭ«áĪĪ áĬłáĮįáī£áī¥
áĬķáĭ« áĪĿ
áĪĿáĬķ áĬĵ
ĠáĪĽáĪµ áįĭáīµ
áįįáīµ áĪĦ
áīĢáĪ¨ áīłáĪĭáī¸áĭį
Ġáĭ¨áĪħ áīµáĪĺáīµ
áĭĪáīħ áī±áĪĿ
Ġáī°áīĢ áĮ¥áĪ¨áĭį
áĮĬáĭľ áĭįáĪĿ
Ġáĭ¨áĪ¥ áĪįáĮłáĬĵ
áĪĽáĪŃ áīĨáĪµ
áĪ¥áĪ« áĬ¤áĪį
ĠáĪ¸ áīĢáĮ¥
ĠáĪ¶ áĪªáĭ«
ĠáĬĲáĭĭ áĪªáĭį
áī£áĪ¨ áĬŃ
Ġáī¤áī°áĪ° áī¦áī»áī¸áĭį
áĮĭáĪĪ áĮł
áĪ¨áįį áī°
ĠáĪİ áī°áĪª
Ġáī£áĪĪáĪ¥áĪįáĮ£ áĬĸáī½
ĠáīłáĮ½ áĬĵáīµ
ĠáĬłáĭµáĪĽ áĮ®áī½
áĭ¨áĬłáĪĿáĪĭáĬŃ áĬķ
ĠáĮ® áĬ¸
ĠáĬłáĪ°áĪ« áĪ®áī½áĬķ
ĠáīłáīµáĬŃáĬŃáĪĪ áĬĽáĭį
Ġáī°áīĨáĪŃ áīĭ
ĠáĪĿáī¾ áīµ
Ġáĭ¨ áĮĬ
áī° áĪĽáĪĺáĬķ
áĬĲ áīĢ
áī¥ áĬķáĬķ
áĪĭ áĭİáī½
Ġáī° áī£áĭŃ
ĠáĪĪ áĪ¶áĪµáīµ
áĭ³ áī¥
áĭ³ áĪĪáĪģ
ĠáĭĪ áĭ°áĪŃ
ĠáĪĿ áĬĳ
ĠáĪ° áĮ£áī¸áĭį
ĠáĮĭ áĬĵ
áĮ½ áĪħáįĪáīµ
áĪµáī° áĭįáĪį
áĬ¤ áī½
áĮįáī£ áī¢áĭ«
Ġáĭ«áĪĪ áįīáīµ
áĭİ áĪµ
áĬ³ áĬ³
ĠáĪĪáĬł áĭ¨áĪŃ
ĠáĪĺáĪłáĪ¨ áīµáĪĿ
ĠáĮ£ áīµ
áĬ¨áī¥ áĪ¨áĭį
ĠáĮĭáĭľ áĮł
áĮłáĬĲ áĬĽ
Ġáī¥áĪį áįħáĮįáĬĵ
ĠáĬłáĪ« áī°áĬĽáĭį
ĠáīĢáĭµáĪŀ áĭį
ĠáĬ¨áĪħ áī¥áĪ¨áī°áĪ°áī¡
Ġáĭ°áĬķáī¥ áĬĵ
ĠáīłáĪĺáĬ« áĬ¨áĪĪáĬĽáĭį
ĠáĬłáĪ³áĪµ áī§áĪį
Ġáĭ¨áĪļáĭ«áĪµáī½ áĪĭáī¸áĭįáĬķ
Ġáĭ¨áĭµáĬķ áĮĭáĭŃ
Ġáĭ«áĬĲáĮĭ áĮĪáĪ«áī¸áĭį
ĠáĬ¢áī¥áĪ« áĪĤáĪĿ
áĬĵ áī½áĪģ
áĪĽ áĭ«
ĠáĬ¨ áĬ¢áĬķ
áĪļ áĭ«áĭį
ĠáĪµ áĭµáī¥
áĬ¥ áĪº
áĪ¥ áĪįáĮ£
ĠáĬ¥áĭ¨ áĪ³
ĠáĬ¢ áĭľáĬł
Ġáĭ¨áĪĽ áĪ¨áĮĭáĮĪáĮ¥
Ġáĭ¨áĪĽ áĭ«áĭįáīģ
áĪ¸ áĮĪ
ĠáĬ¨áĪĺ áĪ°
áĪķ áĮį
Ġáīģ áĪŃáĪµ
ĠáĮİ áĪĭ
áĪŁ áīµ
Ġáĭ¨áĪĽáĭŃ áī³áĭĪáīħ
ĠáĪĺáĪŃ áĭ¶
ĠáīħáĪŃ áīłáīµ
áīµáĪį áīģ
ĠáīłáĪ¨ áĪĥáī¥
áĬ¨áįĪ áĪĭáī¸áĭį
Ġáĭ¨áĬŃ áįįáĭ«
ĠáĪĺáĮł áĮ£áīµ
Ġáī°áĪ°áĮ¥ áī·áī¸áĭį
Ġáĭ¨áĪĺáĪ° áĪī
ĠáĭµáĬķáĮĭ áĭ®áī½
áĪ¸áĮĭ áĮĪáĪ©
ĠáĬłáĪ³áĪį áįĪáĭį
Ġáĭ¨áĪļáĪłáĪ© áīµ
ĠáĪĽáĪ½ áĬĸáī½
ĠN W
Ġáĭ¨áĭĿ áĭįáĭįáĪŃ
áį ¬
áĮĪ áĪĻ
Ġáīł áīłáĪ¨
áĪĭ áĪµáī²áĬŃ
áĪĽ áĬķáīµ
áĮ¥ áĪµ
ĠáĭŃ áĪĭáī¸áĭĭáĪį
Ġáĭ« áĪ»
Ġáĭ¨áī° áĮłáĪĺ
áīĥ áīµáĬĵ
ĠáĪį áī£
ĠáīĢ áĪļáĪµ
ĠáĬ¢ áĬķáĪµ
ĠáĬłáĬķ áīĢáĪ³
Ġáĭ¨áĬł áĬĹáĬĹáĪŃ
áĮĤ áī³áĪį
áĬ¢áīµáĭ®áĮµáĭ« áĬķ
áĮĵ áīµ
ĠáĬ¨áĬł áīħáĪĿ
áĪĨáĬĵ áī¸áĭįáĪĿ
ĠáĬłáĪ³ áįĭáĪª
ĠáįĬ áįĭ
áĪ»áĪ» áĪįáĬĵ
Ġáīłáĭ° áī¥áĭ³áī¤
áī¥áĬĿ áīµ
ĠáīłáĪĽáĪµ áī³áĭĪáĪµ
ĠáĪĺáĪ°áĪ¨áīµ áĪĿ
Ġáī°áĪ³ áĬŃáī¶
ĠáĭįáĪĥ áĬķ
ĠáīłáĪ½áī³ áĭįáĬķ
Ġáī£áĪħáĪŃ áĭ³áĪŃ
ĠáĬ¨áīµ áĭįáĪįáĭµ
Ġáĭ«áĭ°áĪ¨áĮį áĬĲáĭį
ĠáĪĺáĪŃáĪĿ áĪ®
Ġáĭ¨ áĮħ
ĠáĬł áī¤
áī£ áī½áĬĭáĪį
Ġáĭ¨áī° áĮĪáĪĪáĮ¸
ĠáĬłáĪµ áĮ¨
Ġáī£áĪĪ áĪŀ
áĬ¨áĪį áĬ¨áĪį
ĠáĬ¥áĭ¨áī° áįĪáĮłáĪ¨
Ġáĭ¨áĬ¥ áĪµáĪįáĪĿáĬĵ
ĠáĮĪáĪį áĮ»áĪĪáī½
ĠáĮŃ áįĪáĪ«
Ġáĭ¨áĪį áĭĳ
áī³áĪĽ áĬĿ
Ġ20 12
áĪĳ áĭµ
ĠáĬłáĮ¥ áī¶
ĠáĮĪáīłáĭ« áĭįáĬķ
ĠáĬ¨áĪĿ áī³
ĠáĪĽáĪĪ áī±áĬķ
áī²áĬŃ áĪ±
ĠáĭŃáĪģ áĬĳ
áĬłáĪŃ áī²
ĠáĮĪáĭĿ áī°áĭį
ĠáĬ¥áĬķáĪµáĪ³ áīµáĬķ
Ġáĭ¨áĭµáĬķ áīłáĪŃ
áĬķ áĭ±
Ġáĭ¨ áįĪáĪĪáĮĪ
Ġáĭ¨ áĮĥáįĵáĬķ
áĪĿ áī¢áĭ«
áĮĪ áĭ°áī¥
Ġáīł áĭ«
Ġáīł áĮłáīħáĪĭáĪĭáĭį
ĠáĬĲ áīĢáĪį
Ġáī° áĪĺáĬķ
Ġáĭ¨áĪļ áĮłáīłáīĢáĭįáĬķ
áĬł áī½áĬķ
áįĪ áĪ«áĪį
áĪ² áī²
ĠáĬ« áĪĪáĬķ
áįĢ áīµ
Ġáĭ¨áĪļáĭ«áĪµ áī¥
ĠáīłáĪĿ áĭµáĪ¨
ĠáĪĲ áĭĭáĪŃáĭ«áīµ
Ġáĭ¨áĪµ áĪľáīµ
Ġ5 3
áĪ£ áīµ
ĠáĪĪáĭį áĮ¡
áĬķáī° áĬĵ
Ġáī°áī¥áĪİ áĪĿ
áĭ³áĪŃ áĮį
ĠáĮĪáī¥ áī¼
ĠáĮ¦áĪŃ áĬĲáī±
ĠáĬłáĮ¥ áįĬ
Ġáī£áĪį áĪĨáĬĳ
ĠáĪµáĪįáĮłáĬĵ áĭİáī½
ĠáĮ¥áīħ áĪĻ
ĠáĪĺáĮł áĬķáĬĵ
ĠáĬ¥áĬķáĭ°áĪļáĮĪáī£ áī¸áĭį
199 6
ĠáĬĲáĮ¥ áī¦áī½áĬķ
áīłáĪģ áĪĪáī±
ĠáįĬáĪį áĮµ
ĠáĭįáĪħ áĭ°áīµ
ĠáĪĺáĮĪáĪįáĮĪ áĭ«
ĠáĭŃáĮłáĬĵáīĢ áīĥáĪį
Ġáĭ¨ áįĥ
Ġáīł áĮĪáī£
áīł áĬ¦
Ġáĭ¨áī° áįĪáĮ¸áĪĺáĭį
áī¢ áĭ«áĬķáĪµ
áĪĬ áĭ®áĬĸáī½
áĮ¸ áĭ«áįĬ
ĠáīĨ áĮ£
ĠáĬĥáĭŃ áĪįáĬķ
Ġáĭ¨áĪļáĭ«áĪµ áįĪáĪįáĮĭáī¸áĭį
Ġáī¥áĪİ áīµ
Ġáĭ«áĪħáĪį áĪĿ
ĠáĬłáĮ¥ áĮĭáī¢
ĠáĪłáĪ ª
ĠáĬłáĪįáįİ áĪĿ
ĠáĪĽáĪĪ áĭ³
th i
áĭ°áĬĵ áīĢáįį
ĠáĪĥáĪ³ áī¡áĬķ
ĠáĬłáĮĪáĪįáĮĭ áĭ®áī¹
ĠáĬłáĮ¥áī¥ áīĢáĭį
ĠáĬŃáĪĬ áĬķáī°áĬķ
ĠáĮİáĪįáĪĽ áĪ³
áī° áĪĭáĪĪáįį
áĮĪ áĪ³
áĪĺ áĮĥ
áīł áĬ¥áĪŃ
áī¸ áĭĭáĪĪáī½
Ġáī° áĭĺ
Ġáī° áĬ¨áĪį
Ġáĭ¨áĪļ áĬ¨áĬĵáĭĪáĬĲáĭį
ĠáĬĲáĭį áĪŃ
Ġáīµ áī°áĬķ
ĠáīĢ áĪĺáĪŃ
áĪ» áĬķ
áĮ« áĭĬ
ĠáĪķ áī¥áĪ¨áī°áĪ°áī¡
áĭ«áĬķ áĬĵ
áĪªáĭİáī½ áĬĵ
ĠáĬ¨áĬ¥ áĭį
Ġáī´ áĬ³áĬķáĭ¶
áĬłáĪĪ áī½
ĠáĮĬ áĬĴ
ĠáĪĪáĪµ áĭµáĪµáīµ
Ġáĭ«áĭ°áĪ¨ áĮĭáī¸áĭį
ĠáĬ¨áĬłáĬķ áĭ°áĬĽ
Ġáĭ¨áī°áĭ°áĪ¨áĮĪ áĭįáĬķ
Ġáĭ¨áĪĺáĬķáĮįáĪ¥ áī±áĬķ
áĬłáī£ áī´
ĠáĬ¨áĪĢ áĮĪáĪŃ
ĠáĪīáĭĵáĪĭáĭĬ áĭį
Ġáĭ¨áĬłáĭį áĪ®áįķáĪĭáĬķ
Ġáĭ°áĮĥ áįį
Ġáĭ¨áĪļáĭ«áĮĭáĮ¥ áĪĻ
Ġáī°áĮį áĪ£áĮ½
áĭĿáīĥ áĭĽ
ĠáĬłáĪµáī°áĬĵáĮĭ áĮħáĬĲáīµ
Ġáĭ¨ áĬĵáĭŃáĮĦáĪªáĭ«
Ġáīł áĭ©áĬĴáī¨áĪŃáĪ²áī²
ĠáĬ¨ áĬª
ĠáĬ¨ áĬ¬áĬķáĭ«
Ġáī° áĪĢáĭµáĪ¶
ĠáĪĪ áĬ¨áįĭ
ĠáĭŃ áĮłáĪ«áĪį
Ġáĭ¨áĪļ áĮ£áĪį
ĠáĪĽ áįį
Ġáī£ áĪı
áī¡ áĪĭ
ĠáĮ¥ áĮĪáĬĿáĬĲáīµ
Ġáĭĵ áĪĪ
Ġáĭ¨áĪĺ áĬĸ
ĠáĬłáĪĪ áīĨáī½
Ġáī³ áī¦áīµ
ĠáīłáĬł áįĭáĪŃ
ĠáĬ¥áĭ¨áī° áī£áī£áĪ°
áĪķ áĭŃáĭĪ
áĪĿáĬķ áīłáīµ
ĠáĪĢ áĮĪáĪ«áī¸áĭį
Ġáĭ«áĪµ áĪĺáĭĺáĮĪáīłáĭį
ĠáĮĢ áĪĽáĪį
ĠáĬ¢áīµáĭ®áĮµáĭ« áĪĿ
ĠáĪ¨ áĮį
ĠáĬ¥áĬķáĭ²áĪħ áĪĿ
Ġáĭ¨áĪħ áĮĪ
ĠáįĬ áī³áī¸áĭįáĬķ
Ġáĭ² áīª
Ġ6 6
áĪµáī¥ áĪĿ
Ġáī£áĪĪáĪĺ áī»áĪĭáī¸áĭį
Ġáĭ¨áĪĺáĪµ áĪªáĭ«
áĭ°áĮįáĪŀ áĪµ
ĠáĬ¥áĪį áīĤáīµ
ĠáĪĪáĪĽáĬķ áĪ³áīµ
ĠáĪĪáīµ áĭįáĪįáĭµ
ĠáĬłáīłáĪŃáĬŃ áī·áĪį
áĪĺ áĭ³áĬķ
ĠáĬ¨ áĮ«
ĠáĪĪ áī½áĮįáĪŃ
ĠáĭŃ áĮ£
ĠáĪµ áī¶
ĠáĬ¥áĬķáĭ² áĪĺáĪ«
ĠáĬ¥áĬķáĭ² áĪĽáĪ©
áĪ± áĪŃ
áĪµáīµ áĪ«áī´áĮĤ
Ġáĭĺ áĮĭáī¢
Ġáī³ áĬŃ
áĪĦ áīµ
áīłáĪ¨ áĬŃáī±
Ġáĭ¨áĬł áĮŃáĪŃ
Ġáīħ áĮ£
áĪħáĬķ áĬĵ
Ġáĭ¨áĪĨ áī´áĪį
áįĢ áĭµáīħ
áĬ¥áĬķ áīħ
Ġáĭ«áĪį áĬ©áīµ
ĠáĮŃ áįįáĮ¨
ĠáĭĪáĮ£ áī¶áī¹
ĠáĪĺáĪŃ áĪĽáĪª
ĠáĪĪáĪĽáĭµáĪ¨áĮį áĬĵ
ĠáĭĻ áįĭáĬķ
ĠáĬłáĭ« áīµ
Ġáįĭ áĪ²áĪį
Ġáī°áĭ°áĪŃ áĪ·áĪį
ĠáĪĺáĭį áĪ¨áĭµ
áīĢáĪĿ áĮ¥
Ġáīłáĭµ áĪ¬áĭ³áĭĭ
ĠáĬ¥áĭļáĪħ áĪĿ
ĠáĬ¥áĬķáĭ°áĪļáĭ«áĪµ áī½áĪį
Ġáĭ¨áĭ³ áīłáĪ¨
ĠáĬłáĪ¸áĬĵáįĬ áĬĲáīµ
ĠáĮłáĭŃ áīĨ
Ġáĭ¨áĮī áĪįáīłáīµ
áĪĪáĭĭ áĭĪáĮ¡
áĮĪáĬĲáĭĺ áī¡áīµ
áĭĪáĪ¨ áĭ°
áī°áĮĪ áīłáĪ©
ĠáĭŃáĮ«áĭĪ áī³áĪį
Ġáĭ²áĮį áĪªáĭ«áī¸áĭįáĬķ
Ġáĭ İáī½
áī° áĪĻ
áĪ¨ áĮłáĭį
áī¥ áĪĪáĬķ
áĭ¨ áĬĲáĭį
áĬ« áĬĵ
áĪģ áĪįáĮĬáĭľ
ĠáĪĪáĪĺ áĪĭáĬŃ
ĠáĪ³ áĪĪáĪģ
ĠáįĪ áīº
ĠáĬķ áįĭáĪµ
áĮ¤ áįį
ĠáĪĺáĪ° áĮł
ĠáĬ¨áĬ¥ áĪµáĪŃ
ĠáĪĺáĪ¨áĮĥ áĬķ
ĠáĬłáĭ« áĪ³
Ġáīłáĭĵ áĪįáĬķ
Ġáĭ¨áīĢ áĪ©áīµ
Ġáĭ¨áĪĿáĬĵ áĪµ
áīħáĬķ áīħ
ĠáĬ¥áĭ¨áĪ°áĪ« áī½
Ġáĭ¨áī¢ áĪ«
ĠáĭŃáĮłáīĢ áĪĽáĪī
ĠáīłáĮŃ áĪ«áĪ½
ĠáĪģáĪįáĮĬáĭľ áĪĿ
ĠáĬ¦áĪ® áĪŀ
ĠáįķáĪĭ áĬĳ
ĠáĪĿáĪŃáĪĿ áĪ®áī½
Ġáĭ¨ áĬŃáĪµ
Ġáĭ¨ áīª
Ġáĭ¨ áīłáīĥáĭį
áī° áĪĽ
áĬĲ áī³áĭį
áĬĲ áĭĭáĪª
ĠáĪĺ áĬłáīµ
ĠáĪĺ áįĪáįĢáĪĿ
áīł áĭ¨áīµáĬĽáĭįáĪĿ
ĠáĬ¨ áĭĪáĮ¡
Ġáĭ¨áĪļ áĮ«áĭĪáī±
ĠáĪµ áī³áĭŃ
áĬ¥ áĬŃ
áĬĶ áĮĭáĪį
ĠáĪĪáĪĽ áĮĪáĭĿ
ĠáĪĬ áįĪ
áĪ¸ áĮł
áī³áĭĪ áīµ
ĠáĪ°áĭİáī½ áĬĵ
Ġáĭ¨áĪĽáĭŃ áĮĪáī£
áĪ³áī° áįĪáĭį
Ġáĭ¨áĪ« áĪ·áĬķ
ĠáīĢáĪŃ áī°áĭĭáĪį
Ġáĭ¨áįį áĪ³áĪ½
áĮĭáĭľ áĮłáĬĽ
Ġáĭ«áĪĪáįĪ áĭįáĬķ
ĠáĪµáĪŃáĭĵ áīµáĬķ
Ġáĭ¨áĪļáįĪáĮ¥ áĪ©
ĠáĬłáī° áĮĪáī£
ĠáĬ¥ áĬĽáĭį
áĭŃ áĪįáīħ
ĠáĬł áĬķáĮį
Ġáīł áĮĮ
Ġáīł áĭĪáĮ£áī¶áī½
ĠáĬ¨ áĮĲ
ĠáĭŃ áĬ¨áĪ«
Ġáĭ¨áĪļ áĬĵáĮĪáĪŃ
Ġáĭ¨áĪļ áįĪáĮłáĪ¨áĭį
ĠáĭĪ áĮŃ
áįĪ áĬĽ
áĪ½ áĬĿ
áīĭ áĪ¨áĮł
ĠáĪĬ áĪį
ĠáīłáĪļ áī½áĪį
ĠáĪķ áĮ»áĬĵáīµ
Ġáīħ áĪįáĮ¥
ĠáĬłáĬ« áĪĭáīµáĬĵ
Ġáĭ¨áĬĲ áįįáĪµ
ĠáĪ°áĭį áĭ¬áĭį
ĠáĬ¨áĪĺ áī³
Ġáĭ«áĪį áī°áĪ°
Ġáĭ«áĪį áī»áĪī
ĠáĪ¨ áĮĭ
ĠáĬłáĪ° áĬĵ
áĮįáĪį áĬķ
áĪ£ áĪĮ
ĠáĬłáīħ áĭ¶
Ġáĭ¨áĪķ áįĥáĬĵáīµ
ĠáĬłáĮĪáĪ®áī½ áĪĿ
Ġáĭ«áĪ³ áĭ©áīµ
ĠáĭµáĪĿ áīĢáīµ
Ġáī½áĮįáĪ®áī½ áĬĵ
Ġáĭ¨áĭķ áĭįáīĢáīµ
Ġáĭ¨áīĨ áĪ»áĪ»
áĮħáĪĿ áĪ©
ĠáĭĵáĭŃ áĬĲáī°áĬĽ
ĠáīłáĪ¨ áĭ¶
[...]
