{"<s>":0,"<pad>":1,"</s>":2,"<unk>":3,"<mask>":4,"\u0013":5,"\u0014":6,"\u0015":7,"!":8,"\"":9,"#":10,"$":11,"%":12,"'":13,"(":14,")":15,"+":16,",":17,".":18,"/":19,"0":20,"1":21,"2":22,"3":23,"4":24,"5":25,"6":26,"7":27,"8":28,"9":29,";":30,"=":31,"?":32,"@":33,"A":34,"B":35,"C":36,"D":37,"E":38,"F":39,"G":40,"H":41,"I":42,"J":43,"K":44,"L":45,"M":46,"N":47,"O":48,"P":49,"Q":50,"R":51,"S":52,"T":53,"U":54,"V":55,"W":56,"X":57,"Y":58,"Z":59,"[":60,"\\":61,"]":62,"^":63,"_":64,"a":65,"b":66,"c":67,"d":68,"e":69,"f":70,"g":71,"h":72,"i":73,"j":74,"k":75,"l":76,"m":77,"n":78,"o":79,"p":80,"q":81,"r":82,"s":83,"t":84,"u":85,"v":86,"w":87,"x":88,"y":89,"z":90,"{":91,"|":92,"}":93,"":94,"":95,"":96,"":97,"":98,"":99,"":100,"":101,"¡":102,"¢":103,"¤":104,"¥":105,"¦":106,"§":107,"©":108,"¬":109,"­":110,"®":111,"°":112,"±":113,"¶":114,"¿":115,"À":116,"Â":117,"Ã":118,"Ä":119,"Å":120,"Æ":121,"Ç":122,"È":123,"É":124,"Ê":125,"Ì":126,"Í":127,"Ð":128,"Ñ":129,"Ò":130,"Ó":131,"Õ":132,"Ö":133,"×":134,"Ø":135,"Ú":136,"Û":137,"Ü":138,"Ý":139,"Þ":140,"ß":141,"à":142,"á":143,"â":144,"ã":145,"ä":146,"å":147,"æ":148,"ç":149,"è":150,"é":151,"ê":152,"ë":153,"ì":154,"í":155,"î":156,"ð":157,"ñ":158,"ó":159,"ô":160,"õ":161,"ö":162,"ø":163,"ù":164,"ú":165,"û":166,"ü":167,"þ":168,"ÿ":169,"ĕ":170,"ě":171,"ō":172,"œ":173,"š":174,"Ÿ":175,"ƒ":176,"ǃ":177,"ʹ":178,"ʻ":179,"ʼ":180,"ʾ":181,"ʿ":182,"˒":183,"˓":184,"ˮ":185,"́":186,"̃":187,"̄":188,"̈":189,"̋":190,"̎":191,"̏":192,"̦":193,"̧":194,"̵":195,"Α":196,"ί":197,"α":198,"θ":199,"ι":200,"μ":201,"ο":202,"π":203,"ׁ":204,"א":205,"ב":206,"ג":207,"ד":208,"ה":209,"ו":210,"ז":211,"ח":212,"ט":213,"י":214,"כ":215,"ל":216,"מ":217,"נ":218,"ס":219,"ע":220,"פ":221,"צ":222,"ק":223,"ר":224,"ש":225,"ת":226,"أ":227,"ሀ":228,"ሁ":229,"ሂ":230,"ሃ":231,"ሄ":232,"ህ":233,"ሆ":234,"ለ":235,"ሉ":236,"ሊ":237,"ላ":238,"ሌ":239,"ል":240,"ሎ":241,"ሏ":242,"ሐ":243,"ሑ":244,"ሒ":245,"ሓ":246,"ሔ":247,"ሕ":248,"ሖ":249,"ሗ":250,"መ":251,"ሙ":252,"ሚ":253,"ማ":254,"ሜ":255,"ም":256,"ሞ":257,"ሟ":258,"ሠ":259,"ሡ":260,"ሢ":261,"ሣ":262,"ሤ":263,"ሥ":264,"ሦ":265,"ሧ":266,"ረ":267,"ሩ":268,"ሪ":269,"ራ":270,"ሬ":271,"ር":272,"ሮ":273,"ሯ":274,"ሰ":275,"ሱ":276,"ሲ":277,"ሳ":278,"ሴ":279,"ስ":280,"ሶ":281,"ሷ":282,"ሸ":283,"ሹ":284,"ሺ":285,"ሻ":286,"ሼ":287,"ሽ":288,"ሾ":289,"ሿ":290,"ቀ":291,"ቁ":292,"ቂ":293,"ቃ":294,"ቄ":295,"ቅ":296,"ቆ":297,"ቈ":298,"ቊ":299,"ቋ":300,"ቌ":301,"ቍ":302,"ቐ":303,"ቑ":304,"ቓ":305,"ቕ":306,"ቖ":307,"በ":308,"ቡ":309,"ቢ":310,"ባ":311,"ቤ":312,"ብ":313,"ቦ":314,"ቧ":315,"ቨ":316,"ቩ":317,"ቪ":318,"ቫ":319,"ቬ":320,"ቭ":321,"ቮ":322,"ቯ":323,"ተ":324,"ቱ":325,"ቲ":326,"ታ":327,"ቴ":328,"ት":329,"ቶ":330,"ቷ":331,"ቸ":332,"ቹ":333,"ቺ":334,"ቻ":335,"ቼ":336,"ች":337,"ቾ":338,"ቿ":339,"ኀ":340,"ኁ":341,"ኂ":342,"ኃ":343,"ኄ":344,"ኅ":345,"ኆ":346,"ኈ":347,"ኊ":348,"ኋ":349,"ኌ":350,"ኍ":351,"ነ":352,"ኑ":353,"ኒ":354,"ና":355,"ኔ":356,"ን":357,"ኖ":358,"ኗ":359,"ኘ":360,"ኙ":361,"ኚ":362,"ኛ":363,"ኜ":364,"ኝ":365,"ኞ":366,"ኟ":367,"አ":368,"ኡ":369,"ኢ":370,"ኣ":371,"ኤ":372,"እ":373,"ኦ":374,"ኧ":375,"ከ":376,"ኩ":377,"ኪ":378,"ካ":379,"ኬ":380,"ክ":381,"ኮ":382,"ኰ":383,"ኲ":384,"ኳ":385,"ኴ":386,"ኵ":387,"ኸ":388,"ኹ":389,"ኺ":390,"ኻ":391,"ኼ":392,"ኽ":393,"ኾ":394,"ዀ":395,"ዂ":396,"ዃ":397,"ዅ":398,"ወ":399,"ዉ":400,"ዊ":401,"ዋ":402,"ዌ":403,"ው":404,"ዎ":405,"ዏ":406,"ዐ":407,"ዑ":408,"ዒ":409,"ዓ":410,"ዔ":411,"ዕ":412,"ዖ":413,"ዘ":414,"ዙ":415,"ዚ":416,"ዛ":417,"ዜ":418,"ዝ":419,"ዞ":420,"ዟ":421,"ዠ":422,"ዡ":423,"ዢ":424,"ዣ":425,"ዤ":426,"ዥ":427,"ዦ":428,"ዧ":429,"የ":430,"ዩ":431,"ዪ":432,"ያ":433,"ዬ":434,"ይ":435,"ዮ":436,"ዯ":437,"ደ":438,"ዱ":439,"ዲ":440,"ዳ":441,"ዴ":442,"ድ":443,"ዶ":444,"ዷ":445,"ዸ":446,"ዺ":447,"ዻ":448,"ዼ":449,"ዽ":450,"ዿ":451,"ጀ":452,"ጁ":453,"ጂ":454,"ጃ":455,"ጄ":456,"ጅ":457,"ጆ":458,"ጇ":459,"ገ":460,"ጉ":461,"ጊ":462,"ጋ":463,"ጌ":464,"ግ":465,"ጎ":466,"ጏ":467,"ጐ":468,"ጒ":469,"ጓ":470,"ጔ":471,"ጕ":472,"ጘ":473,"ጙ":474,"ጝ":475,"ጠ":476,"ጡ":477,"ጢ":478,"ጣ":479,"ጤ":480,"ጥ":481,"ጦ":482,"ጧ":483,"ጨ":484,"ጩ":485,"ጪ":486,"ጫ":487,"ጬ":488,"ጭ":489,"ጮ":490,"ጯ":491,"ጰ":492,"ጱ":493,"ጲ":494,"ጳ":495,"ጴ":496,"ጵ":497,"ጶ":498,"ጷ":499,"ጸ":500,"ጹ":501,"ጺ":502,"ጻ":503,"ጼ":504,"ጽ":505,"ጾ":506,"ጿ":507,"ፀ":508,"ፁ":509,"ፂ":510,"ፃ":511,"ፄ":512,"ፅ":513,"ፆ":514,"ፈ":515,"ፉ":516,"ፊ":517,"ፋ":518,"ፌ":519,"ፍ":520,"ፎ":521,"ፏ":522,"ፐ":523,"ፑ":524,"ፒ":525,"ፓ":526,"ፔ":527,"ፕ":528,"ፖ":529,"ፘ":530,"፞":531,"፟":532,"፠":533,"።":534,"፣":535,"፤":536,"፦":537,"፩":538,"፪":539,"፫":540,"፬":541,"፭":542,"፮":543,"፯":544,"፰":545,"፱":546,"፲":547,"፳":548,"፴":549,"፵":550,"፶":551,"፷":552,"፸":553,"፹":554,"፺":555,"፻":556,"፼":557,"ᎀ":558,"ᎈ":559,"᎐":560,"᎓":561,"᐀":562,"ṓ":563,"​":564,"‌":565,"‐":566,"‒":567,"–":568,"―":569,"‚":570,"‛":571,"„":572,"†":573,"‣":574,"‪":575,"‬":576,"‰":577,"′":578,"‵":579,"⁄":580,"←":581,"↑":582,"→":583,"⇾":584,"−":585,"∙":586,"▁":587,"▖":588,"■":589,"▶":590,"►":591,"◀":592,"○":593,"◌":594,"◾":595,"✍":596,"✎":597,"✔":598,"❑":599,"⠚":600,"⤫":601,"ⶈ":602,"ⶋ":603,"ⶭ":604,"ⶵ":605,"ⶸ":606,"ⶺ":607,"ⷄ":608,"ⷅ":609,"ⷈ":610,"ⷐ":611,"ⷘ":612,"ⷝ":613,"ⷞ":614,"「":615,"ꬋ":616,"여":617,"와":618,"호":619,"":620,"":621,"":622,"":623,"":624,"":625,"":626,"":627,"":628,"":629,"":630,"":631,"":632,"":633,"":634,"":635,"":636,"":637,"":638,"":639,"":640,"":641,"":642,"":643,"":644,"":645,"":646,"":647,"":648,"":649,"":650,"﷽":651,"﻿":652,"▁የ":653,"▁በ":654,"▁አ":655,"▁እ":656,"▁።":657,"▁መ":658,"▁እን":659,"▁ከ":660,"▁ነ":661,"▁ለ":662,"▁ይ":663,"▁ተ":664,"ቸው":665,"▁የሚ":666,"▁ያ":667,"▁፣":668,"▁ወ":669,"▁\"":670,"▁ማ":671,"▁ስ":672,"▁ነው":673,"▁ም":674,"ዎች":675,"▁ብ":676,"ላይ":677,"▁እንደ":678,"▁የተ":679,"ነት":680,"▁ሰ":681,"▁፤":682,"▁ው":683,"▁ግ":684,"▁ላይ":685,"▁ባ":686,"▁በመ":687,"▁ደ":688,"ለው":689,"▁እንዲ":690,"▁ሲ":691,"በት":692,"ችን":693,"▁ት":694,"▁አን":695,"ዋል":696,"ውን":697,"▁ጥ":698,"ሆን":699,"ዚህ":700,"▁ል":701,"ሆነ":702,"▁በአ":703,"▁አስ":704,"..":705,"▁ሁ":706,"ገር":707,"▁ዓ":708,"▁በተ":709,"ሆኑ":710,"▁የመ":711,"▁የአ":712,"በር":713,"▁ገ":714,"ንግ":715,"▁ድ":716,"▁ቀ":717,"ቶች":718,"ስት":719,"▁ክ":720,"▁ዘ":721,"▁ለመ":722,"ደር":723,"▁ኢ":724,"▁ወደ":725,"ቸውን":726,"▁?":727,"▁ለማ":728,"ለት":729,"▁አይ":730,"▁ግን":731,"▁ሥ":732,"▁በማ":733,"ለም":734,"ደረ":735,"▁ጋ":736,"▁የሚያ":737,"ንድ":738,"▁እየ":739,"ጊዜ":740,"▁1":741,"ስጥ":742,"▁ይህ":743,"▁ሊ":744,"▁ታ":745,"▁ቢ":746,"ተኛ":747,"ራት":748,"▁ቤ":749,"ሪያ":750,"▁ጉ":751,"▁ውስጥ":752,"ረት":753,"▁ሳ":754,"ንም":755,"ድር":756,"ትዮ":757,"▁እንደሚ":758,"▁ስለ":759,"▁ጊዜ":760,"▁አለ":761,"ጵያ":762,"ትዮጵያ":763,"▁እና":764,"ርት":765,"▁የማ":766,"▁ባለ":767,"▁ጋር":768,"ድረ":769,"በረ":770,"▁)":771,"▁እንዳ":772,"▁ጠ":773,"▁አገ":774,"▁የም":775,"▁ነበር":776,"▁(":777,"▁ካ":778,"ትን":779,"ስተ":780,"ሮች":781,"▁2":782,"▁ሚ":783,"▁..":784,"▁...":785,"ገባ":786,"▁ሕ":787,"▁አል":788,"▁ፍ":789,"ላል":790,"▁በሚ":791,"ትና":792,"▁ህ":793,"▁ከተ":794,"ቱን":795,"▁ች":796,"▁ደግ":797,"ሁን":798,"▁!":799,"ላቸው":800,"▁ደግሞ":801,"መለ":802,"▁ዓመ":803,"▁ፈ":804,"ግባ":805,"ሎች":806,"▁መንግ":807,"▁ሆ":808,"▁አንድ":809,"ረጃ":810,"▁ዕ":811,"▁'":812,"ናል":813,"▁መን":814,"▁ቅ":815,"▁እስ":816,"▁ነገር":817,"ናቸው":818,"▁እያ":819,"ጀመ":820,"ንያ":821,"▁ምን":822,"▁ሌ":823,"▁ምክ":824,"ሪካ":825,"▁ወይ":826,"▁ሥራ":827,"▁ጉዳ":828,"▁ሁሉ":829,"▁አካ":830,"▁ችግ":831,"ታል":832,"▁አስተ":833,"00":834,"▁ዋ":835,"ገድ":836,"ትም":837,"ሰብ":838,"ረው":839,"ራዊ":840,"ማት":841,"▁የኢ":842,"መን":843,"▁ኃ":844,"ያን":845,"ዲስ":846,"▁በእ":847,"▁መሆኑ":848,"ዳን":849,"ድረግ":850,"▁ያለ":851,"▁ሳይ":852,"ከል":853,"ታት":854,"▁አም":855,"▁ሰው":856,"▁ያለው":857,"ችሁ":858,"▁እየተ":859,"ተው":860,"ብር":861,"▁መስ":862,"▁ከመ":863,"ፈል":864,"▁የነ":865,"▁ያህ":866,"▁ከአ":867,"ሉት":868,"▁መል":869,"ባቸው":870,"ጠና":871,"▁የእ":872,"▁ሀ":873,"▁ፕ":874,"▁ብቻ":875,"▁በዚህ":876,"ዎችን":877,"ኋላ":878,"ላት":879,"ምን":880,"▁ድር":881,"ቅር":882,"▁ሙ":883,"ንስ":884,"▁አቶ":885,"▁ቤት":886,"ማሪ":887,"ለያ":888,"▁ኮ":889,"ታቸው":890,"ኛው":891,"ሥት":892,"▁ብዙ":893,"▁ቁ":894,"ናት":895,"ኔታ":896,"▁ናቸው":897,"ርም":898,"ለሁ":899,"ከተ":900,"▁ያስ":901,"▁የሰ":902,"ባቢ":903,"▁ከፍ":904,"▁ይህን":905,"ገል":906,"▁ሆነ":907,"ዝብ":908,"▁ሁኔታ":909,"▁ምክንያ":910,"▁ወይም":911,"ለን":912,"ያው":913,"ገኘ":914,"▁እነ":915,"በሩ":916,"▁በኋላ":917,"▁አባ":918,"ገው":919,"▁ዝ":920,"ልጣ":921,"ለች":922,"ከት":923,"ቅም":924,"ጠቀ":925,"▁ን":926,"▁አመ":927,"ፊት":928,"ችል":929,"▁ሰዎች":930,"ተር":931,"ላክ":932,"▁ጨ":933,"ገኙ":934,"ቃል":935,"ብረ":936,"ታወ":937,"▁ደረጃ":938,"▁ኢትዮጵያ":939,"ሠራ":940,"▁ቦ":941,"▁የወ":942,"▁ክፍ":943,"▁አድር":944,"ታው":945,"▁ሃ":946,"ገራ":947,"▁ለአ":948,"ሚያ":949,"▁እንዲሁ":950,"ኞች":951,"ርስ":952,"ቦች":953,"▁ራ":954,"▁አበ":955,"የት":956,"▁ተመ":957,"▁በላይ":958,"ጣት":959,"ምህ":960,"ሽን":961,"ረዳ":962,"ረጋ":963,"▁መሆኑን":964,"▁አይደ":965,"▁ተጠ":966,"ዎቹ":967,"ምና":968,"▁3":969,"▁ዳ":970,"▁ሆኖ":971,"▁ዓመት":972,"ታዊ":973,"▁ሲሆን":974,"▁መካ":975,"▁እስከ":976,"ገለ":977,"ይወ":978,"ኖር":979,"ቀር":980,"▁ብር":981,"ቷል":982,"ዚያ":983,"ዮን":984,"ገን":985,"▁የግ":986,"ያስ":987,"ፍሪካ":988,"▁ኤ":989,"▁እንዲሁም":990,"ለያዩ":991,"ነሳ":992,"▁የሆነ":993,"▁ቆ":994,"ድን":995,"ጥር":996,"ነው":997,"▁ወቅ":998,"ልቅ":999,"ሰራ":1000,"ጠር":1001,"ዓት":1002,"ጠበ":1003,"ባል":1004,"▁እንደሆነ":1005,"ሰማ":1006,"▁ሌላ":1007,"▁በቀ":1008,"▁ቀን":1009,"ግሎ":1010,"▁መንገድ":1011,"ምሮ":1012,"▁አገል":1013,"▁ማስ":1014,"ባት":1015,"▁ከዚህ":1016,"▁ሴ":1017,"▁ነገ":1018,"ረስ":1019,"▁ስራ":1020,"▁ከፍተኛ":1021,"ፓር":1022,"▁አሁን":1023,"▁እንዲህ":1024,"▁ኃይ":1025,"▁በር":1026,"ራል":1027,"▁ሐ":1028,"▁ችግር":1029,"▁ብሎ":1030,"▁የሚያስ":1031,"ጠው":1032,"ዘጋ":1033,"▁ተቋ":1034,"▁አብ":1035,"▁እኔ":1036,"▁ማለት":1037,"▁ቡ":1038,"ክል":1039,"መስ":1040,"▁አበባ":1041,"ሰው":1042,"▁በየ":1043,"▁የስ":1044,"▁በመሆኑ":1045,"▁ምር":1046,"ለይ":1047,"▁የው":1048,"▁መካከል":1049,"▁ዶ":1050,"ገኝ":1051,"ሳይ":1052,"ልክ":1053,"▁የኢትዮጵያ":1054,"▁አደ":1055,"▁ጀ":1056,"▁መሰ":1057,"ስፋ":1058,"ኛል":1059,"ሪቱ":1060,"▁ጉዳይ":1061,"▁መንግሥት":1062,"ንና":1063,"▁እንዴ":1064,"ደው":1065,"ሩት":1066,"ሊዮን":1067,"ሥራ":1068,"ላፊ":1069,"ያቄ":1070,"▁አዲስ":1071,"ሳት":1072,"▁አቀ":1073,"ቶችን":1074,"▁ከተማ":1075,"ቀው":1076,"▁ውጤ":1077,"ብት":1078,"▁አት":1079,"መጣ":1080,"ሩን":1081,"▁ወቅት":1082,"▁ጎ":1083,"ዛሬ":1084,"▁እንጂ":1085,"▁በኢ":1086,"▁ላ":1087,"▁ተግባ":1088,"▁ዘር":1089,"▁ሚኒ":1090,"▁ከእ":1091,"▁ጥያቄ":1092,"ታቸውን":1093,"▁ቢሆን":1094,"ኩል":1095,"ዓለም":1096,"ዘብ":1097,"▁አገር":1098,"ተዋል":1099,"▁የህ":1100,"ወጣ":1101,"ሞክ":1102,"▁በም":1103,"በል":1104,"ኖች":1105,"ካሄ":1106,"▁ያል":1107,"▁አይደለም":1108,"▁አካባቢ":1109,"▁ይች":1110,"ፖርት":1111,"ራቸው":1112,"▁አገልግሎ":1113,"▁ዓይ":1114,"ሪክ":1115,"▁እር":1116,"▁ትምህ":1117,"▁ዕድ":1118,"ቱም":1119,"▁ሜ":1120,"ወሰ":1121,"ፈው":1122,"ኝነት":1123,"▁ውድ":1124,"▁ምክንያት":1125,"▁በግ":1126,"▁ቦታ":1127,"▁በተለይ":1128,"ጀመሪያ":1129,"ቸዋል":1130,"▁ኢን":1131,"▁ሽ":1132,"ቢያ":1133,"▁ፕሮ":1134,"▁መጠ":1135,"▁ገል":1136,"▁የነበረ":1137,"▁ሥር":1138,".ም":1139,"መው":1140,"▁ከሚ":1141,"ደም":1142,"▁የበ":1143,"▁ያህዌ":1144,"ናው":1145,"▁ድርጅ":1146,"ላሉ":1147,"▁4":1148,"ግር":1149,"ቀረ":1150,"▁ያህል":1151,"በው":1152,"ፍት":1153,"ሉም":1154,"ላማ":1155,"▁ማን":1156,"▁እው":1157,"▁ሞ":1158,"ደረገ":1159,"ሳብ":1160,"ለዋል":1161,"▁አው":1162,"ዮች":1163,"▁ፓር":1164,"▁ተና":1165,"▁እንዲያ":1166,"ካታ":1167,"ሱን":1168,"ሰቡ":1169,"▁አር":1170,"▁ተቀ":1171,"▁እነዚህ":1172,"▁እንዴት":1173,"ሱስ":1174,"ርድ":1175,"▁አሉ":1176,"▁ፖ":1177,"▁ረ":1178,"▁የማይ":1179,"ጨማሪ":1180,"ወቅ":1181,"ገና":1182,"▁አማ":1183,"ዶች":1184,"▁ጽ":1185,"ልም":1186,"ውያን":1187,"▁ዓ.ም":1188,"ለቲ":1189,"ክት":1190,"ቤት":1191,"▁ሺ":1192,"ረዋል":1193,"ዳደር":1194,"▁በፊት":1195,"▁የሚል":1196,"▁መሠ":1197,"ጽሐ":1198,"መር":1199,"▁ዜ":1200,"ቀት":1201,"▁ሳይሆን":1202,"ሳሌ":1203,"ይወት":1204,"ሪዎች":1205,"ኮኖ":1206,"▁ር":1207,"▁ይሁን":1208,"የሱስ":1209,"▁ዓለም":1210,"▁ዓመታት":1211,"▁ሲያ":1212,"ምር":1213,"▁ማህ":1214,"▁ይሆ":1215,"▁5":1216,"ሏል":1217,"ከር":1218,"ነስ":1219,"▁ትምህርት":1220,"▁የት":1221,"▁ጭ":1222,"▁ያሉ":1223,"▁ከማ":1224,"ንን":1225,"▁ዘመን":1226,"ካም":1227,"▁ሌሎች":1228,"▁ድረስ":1229,"ገሪቱ":1230,"▁ክል":1231,"ፈጠ":1232,"▁ልጅ":1233,"ጣም":1234,"▁ተወ":1235,"ናገ":1236,"▁እንኳ":1237,"▁ሁለት":1238,"▁በስ":1239,"▁የታ":1240,"ላለ":1241,"▁ተብ":1242,"▁ኃላፊ":1243,"ጋል":1244,"ላም":1245,"ችው":1246,"200":1247,"ነበረ":1248,"ራሲ":1249,"ለቲካ":1250,"▁ኦ":1251,"▁ለው":1252,"ሞች":1253,"▁ይሄ":1254,"ጆች":1255,"▁ማድረግ":1256,"▁አሳ":1257,"ደረጉ":1258,"ግኘ":1259,"▁በሰ":1260,"▁በሌ":1261,"▁ቅዱ":1262,"ውም":1263,"ችንን":1264,"ሙያ":1265,"ፌዴ":1266,"ርያ":1267,"▁ለም":1268,"ግብ":1269,"ከላ":1270,"ንት":1271,"▁አንዱ":1272,"▁ይችላል":1273,"▁አገልግሎት":1274,"መራ":1275,"ከና":1276,"▁ሁለ":1277,"የር":1278,"ዲያ":1279,"▁በጥ":1280,"ምነት":1281,"▁ግንባ":1282,"ፖር":1283,"▁አምላክ":1284,"ጤና":1285,"ባለ":1286,"▁ልማት":1287,"▁በኩል":1288,"ሳቸው":1289,"▁ይገባ":1290,"▁አቅ":1291,"▁ተናግ":1292,"ገት":1293,"ፋት":1294,"▁የሕ":1295,"▁ኪ":1296,"ፈለ":1297,"▁ስም":1298,"▁ባህ":1299,"ጽሐፍ":1300,"▁ወጣ":1301,"ክስ":1302,"▁ቴ":1303,"▁መረጃ":1304,"ዩኒ":1305,"▁ይሆናል":1306,"▁ወር":1307,"▁ሚሊዮን":1308,"ትር":1309,"▁ኩ":1310,"ዝቡ":1311,"▁ይገ":1312,"▁ገን":1313,"ህን":1314,"ጦር":1315,"▁ወን":1316,"▁በጣም":1317,"▁እንደተ":1318,"ቅድ":1319,"ገኘው":1320,"መረ":1321,"ቃሚ":1322,"ሬት":1323,"▁ፕሬ":1324,"▁የል":1325,"▁ቅዱስ":1326,"▁በርካታ":1327,"ጠት":1328,"▁ዛሬ":1329,"▁ፓርቲ":1330,"ልና":1331,"▁ዋና":1332,"በትን":1333,"ሜሪካ":1334,"ረብ":1335,"▁ኢየሱስ":1336,"▁ምንም":1337,"▁ቃል":1338,"ላችሁ":1339,"ገቡ":1340,"▁እጅ":1341,"▁በ1":1342,"▁መሆን":1343,"ከናወ":1344,"ሰባ":1345,"▁ልዩ":1346,"▁ለእ":1347,"▁የሚሰ":1348,"ግራ":1349,"ያዘ":1350,"ቀመ":1351,"▁ድጋ":1352,"ብረተ":1353,"ዚዳን":1354,"ደግ":1355,"▁ዘመ":1356,"▁እንዳይ":1357,"ጀት":1358,"ቃት":1359,"ሳተ":1360,"የው":1361,"▁በው":1362,"▁በማለት":1363,"▁የምት":1364,"ጡት":1365,"ሄድ":1366,"▁ተከ":1367,"ነቱ":1368,"ደት":1369,"▁እንቅ":1370,"▁በሁ":1371,"▁ፋ":1372,"ቻቸው":1373,"ፈጥ":1374,"ረን":1375,"ጨረ":1376,"▁ሪ":1377,"ብረት":1378,"▁መንግሥ":1379,"▁አንዳ":1380,"▁ከዚያ":1381,"▁የመንግ":1382,"▁አቀፍ":1383,"▁ቤተ":1384,"ክር":1385,"▁ግብ":1386,"▁እድ":1387,"ደርግ":1388,"▁በደ":1389,"ምፒ":1390,"ኮኖሚ":1391,"▁ለሚ":1392,"▁ጠቅ":1393,"▁አስተዳደር":1394,"▁መር":1395,"▁ጣ":1396,"ላው":1397,"▁በበ":1398,"▁አጋ":1399,"▁ሚኒስት":1400,"ተኛው":1401,"▁የተለያዩ":1402,"▁ሊያ":1403,"ታይ":1404,"▁ትኩ":1405,"መል":1406,"▁ስለዚህ":1407,"▁ብሔ":1408,"▁አስፈ":1409,"▁ስር":1410,"ረጋገ":1411,"▁መንግስት":1412,"▁አለመ":1413,"ጋት":1414,"ንግድ":1415,"ዘር":1416,"▁አሰ":1417,"▁ሠ":1418,"ልጣን":1419,"ይት":1420,"ንተ":1421,"ልን":1422,"ዩኒቨ":1423,"ፉት":1424,"▁ስት":1425,"ትምህ":1426,"▁በተጨማሪ":1427,"▁ዲ":1428,"▁የሚለው":1429,"▁ከሆነ":1430,"ግኘት":1431,"መለከ":1432,"▁የቀ":1433,"▁በአንድ":1434,"ኖሩ":1435,"ንዳ":1436,"▁6":1437,"▁ለማስ":1438,"▁ለተ":1439,"ገነ":1440,"▁የሆኑ":1441,"▁ብለዋል":1442,"▁ጨዋ":1443,"ስና":1444,"ክተር":1445,"▁በሙ":1446,"ውል":1447,"ሮችን":1448,"▁እንዳለ":1449,"ባይ":1450,"ያህ":1451,"ንቀ":1452,"ጠቃ":1453,"ግለ":1454,"▁በዓ":1455,"▁ድን":1456,"▁አያ":1457,"ተኞች":1458,"በብ":1459,"▁ዓይነት":1460,"▁በት":1461,"ሁኑ":1462,"▁አድ":1463,"▁ሲል":1464,"▁እንድ":1465,"ያዊ":1466,"▁መሆ":1467,"▁ብለው":1468,"ሞክራሲ":1469,"▁በኢትዮጵያ":1470,"▁ቁጥር":1471,"▁ማዕ":1472,"▁ያለውን":1473,"▁አትሌ":1474,"ደረግ":1475,"▁ፀ":1476,"ደረገው":1477,"ርሲ":1478,"በያ":1479,"ጠቀም":1480,"ናዊ":1481,"ታችን":1482,"▁ኮሚ":1483,"ነጋ":1484,"▁አዳ":1485,"▁ለማድረግ":1486,"▁ድጋፍ":1487,"▁ዙ":1488,"ደራ":1489,"ፈጸ":1490,"▁የምን":1491,"▁ዘንድ":1492,"ትምህርት":1493,"ጠበቅ":1494,"ማር":1495,"▁መጥ":1496,"▁ሄ":1497,"▁ተገ":1498,"ማይ":1499,"▁ተስፋ":1500,"▁ማሳ":1501,"ያህዌ":1502,"▁የተሰ":1503,"▁ጥረት":1504,"▁ባለሙያ":1505,"▁እኛ":1506,"ጋራ":1507,"▁በመቶ":1508,"▁ይጠ":1509,"ሊያ":1510,"▁ጥሩ":1511,"▁መሠረት":1512,"ድሞ":1513,"ዛት":1514,"ኤል":1515,"ባለው":1516,"ኑን":1517,"▁ሂ":1518,"ቹን":1519,"▁የራ":1520,"ምላክ":1521,"ሉን":1522,"ርሲቲ":1523,"▁የገ":1524,"▁አገሮች":1525,"ታማ":1526,"ይና":1527,"ችሉ":1528,"ሯል":1529,"▁ጀምሮ":1530,"▁ውጤት":1531,"▁እንግ":1532,"▁የባ":1533,"ስቃ":1534,"▁ትኩረት":1535,"▁እንደሚያ":1536,"ቀጥ":1537,"▁ይገባል":1538,"ጥብ":1539,"ዋን":1540,"ሻሻ":1541,"▁ተናግረዋል":1542,"በታል":1543,"▁ፕሬዚዳን":1544,"▁ለዚህ":1545,"ካባቢ":1546,"▁ቀደም":1547,"ፈር":1548,"▁ፍላ":1549,"ዩኒቨርሲቲ":1550,"ከራ":1551,"ዱስት":1552,"▁ግንባታ":1553,"ጨረሻ":1554,"ሰጥ":1555,"▁ሙሉ":1556,"ላጊ":1557,"ክምና":1558,"▁በማድረግ":1559,"▁የጥ":1560,"▁ፊ":1561,"ደርጉ":1562,"▁በሕ":1563,"▁ያሳ":1564,"▁ምክር":1565,"▁መድረ":1566,"▁በወ":1567,"▁የፖ":1568,"▁ቢሆንም":1569,"▁ገልጸ":1570,"ብራ":1571,"ስቃሴ":1572,"▁አፍሪካ":1573,"ፍራ":1574,"ዲህ":1575,"▁7":1576,"ነትን":1577,"ከፍ":1578,"▁ተጠቃሚ":1579,"ከተማ":1580,"ሱም":1581,"▁የደ":1582,"በቃ":1583,"ነዚህ":1584,"ቋቋ":1585,"ምት":1586,"አዴ":1587,"ከሰ":1588,"▁ኃይል":1589,"▁20":1590,"▁ግንኙ":1591,"▁የለም":1592,"▁ገንዘብ":1593,"ገብ":1594,"▁ጨዋታ":1595,"▁አንዳንድ":1596,"ቻል":1597,"▁ሰብ":1598,"▁ነገሮች":1599,"ለማ":1600,"▁እንቅስቃሴ":1601,"▁በመሆኑም":1602,"▁ይህም":1603,"▁ወንድ":1604,"20":1605,"▁አላ":1606,"▁ባን":1607,"▁ቤቱ":1608,"▁ኳ":1609,"መት":1610,"ያዝ":1611,"ልጠና":1612,"▁ሶ":1613,"▁ዴ":1614,"▁ተማሪ":1615,"ግጥ":1616,"▁ስን":1617,"▁ትን":1618,"▁ለውጥ":1619,"▁ትልቅ":1620,"▁አቅም":1621,"ሦስት":1622,"▁በብ":1623,"▁መቀ":1624,"ፈት":1625,"▁ተቋማት":1626,"▁ሁሉም":1627,"ነበር":1628,"▁መለ":1629,"▁ቤቶች":1630,"▁ታሪክ":1631,"▁አለበት":1632,"▁ድም":1633,"▁አዋ":1634,"▁ተብሎ":1635,"▁ሸ":1636,"ሎጂ":1637,"▁ባይ":1638,"ቅና":1639,"▁200":1640,"▁ያሉት":1641,"ጠራ":1642,"▁ዝግ":1643,"ርስቲ":1644,"▁ክፍል":1645,"▁ዘርፍ":1646,"▁አለው":1647,"ሳል":1648,"ነሱ":1649,"ጎች":1650,"ተን":1651,"ስታ":1652,"▁ቋ":1653,"▁ዮ":1654,"▁ክለ":1655,"▁የለ":1656,"ናቸውን":1657,"ደኛ":1658,"▁ችግሮች":1659,"▁በተለያዩ":1660,"▁መጽሐፍ":1661,"ሻለ":1662,"▁የሌ":1663,"ርምጃ":1664,"ብን":1665,"መድ":1666,"ናገራ":1667,"ስራ":1668,"▁በራ":1669,"▁በሚል":1670,"አዴግ":1671,"ስን":1672,"▁8":1673,"▁አደጋ":1674,"ዘው":1675,"▁ስሜ":1676,"▁ዋጋ":1677,"ላቸውን":1678,"ስቴ":1679,"▁በሙሉ":1680,"ዱስትሪ":1681,"ለጠ":1682,"ገራችን":1683,"▁ልብ":1684,"▁ጉዳዮች":1685,"ቡብ":1686,"▁በህ":1687,"ሳኔ":1688,"ነትና":1689,"▁ይመስ":1690,"ዚሁ":1691,"▁ትር":1692,"▁ምርጫ":1693,"▁.":1694,"ደርስ":1695,"ጠናቀ":1696,"መዘ":1697,"▁ሥርዓት":1698,"▁ካል":1699,"▁በታ":1700,"▁የነበሩ":1701,"▁የሰው":1702,"▁በነ":1703,"ተት":1704,"▁ድርጅት":1705,"▁ልማ":1706,"▁በአሁኑ":1707,"▁መብ":1708,"ምንት":1709,"▁የብ":1710,"▁አገራት":1711,"▁ፍላጎ":1712,"ባንያ":1713,"▁ከ1":1714,"▁ያላቸው":1715,"▁የነበረው":1716,"▁የዓለም":1717,"▁ክልል":1718,"▁በል":1719,"▁ጥቅም":1720,"▁ነፃ":1721,"ንጫ":1722,"▁ልጆች":1723,"ላዊ":1724,"ኛውም":1725,"ማኖ":1726,"▁የሚጠ":1727,"▁ፕሮጀ":1728,"▁ገልጸዋል":1729,"▁ቡድን":1730,"▁ሕዝብ":1731,"▁ግድ":1732,"▁ይህንን":1733,"ቋል":1734,"▁የአፍሪካ":1735,"ራንስ":1736,"ለህ":1737,"▁ነዋ":1738,"▁ማስተ":1739,"▁የሥራ":1740,"▁10":1741,"ባሉ":1742,"▁የውጭ":1743,"ሳሳይ":1744,"▁ቆይ":1745,"ንካ":1746,"ሰር":1747,"▁መንገ":1748,"▁የመጀመሪያ":1749,"▁ይላል":1750,"▁ንጉ":1751,"▁በቅር":1752,"▁መልካም":1753,"ይማኖ":1754,"▁ሰዓት":1755,"ራን":1756,"▁በሽ":1757,"ዳር":1758,"▁ሻ":1759,"▁9":1760,"▁ጉባ":1761,"▁ፖሊ":1762,"▁ወጥ":1763,"▁የዘ":1764,"▁ህዝብ":1765,"ብረተሰቡ":1766,"ጀመር":1767,"▁መሥ":1768,"▁ጦር":1769,"ረድ":1770,"▁ይልቅ":1771,"ብኝ":1772,"ሁንም":1773,"ጀመረ":1774,"▁ፈቃ":1775,"▁አመራ":1776,"▁በእር":1777,"▁ቃ":1778,"ቦት":1779,"▁ከወ":1780,"ረተ":1781,"▁አድርጎ":1782,"ክለ":1783,"▁ገብ":1784,"ላሽ":1785,"ደጋ":1786,"▁ጋዜ":1787,"▁እጅግ":1788,"▁ቀር":1789,"▁19":1790,"▁ኳስ":1791,"ክኖ":1792,"▁አካል":1793,"▁ፕሬዚዳንት":1794,"▁ውድድር":1795,"▁ውሳኔ":1796,"ሰቦች":1797,"▁ስብ":1798,"▁ተደር":1799,"▁ሰጥ":1800,"▁አካላት":1801,"▁ስለሚ":1802,"▁ግንኙነት":1803,"ቶቹ":1804,"▁መዝ":1805,"▁የፖለቲካ":1806,"ንቋ":1807,"▁ያደር":1808,"▁በፍ":1809,"ጣሚ":1810,"ጠል":1811,"ብርና":1812,"▁እንኳን":1813,"▁ተግባር":1814,"▁ዩኒቨርሲቲ":1815,"ቆጣ":1816,"▁መጠን":1817,"▁ሴቶች":1818,"▁ታላ":1819,"ዎችና":1820,"ነገ":1821,"▁አቅር":1822,"▁ጌ":1823,"ጿል":1824,"▁አክ":1825,"ገንዘብ":1826,"ጣል":1827,"▁ሺህ":1828,"▁ኩባንያ":1829,"ጣይ":1830,"ፈራ":1831,"▁የዕ":1832,"▁አስፈላጊ":1833,"▁የሚገኙ":1834,"ከለ":1835,"▁መንፈ":1836,"ቤተ":1837,"ቂት":1838,"▁መሰረት":1839,"▁አሁንም":1840,"ደገ":1841,"▁ሆኖም":1842,"▁በዓለም":1843,"ዳጅ":1844,"▁መው":1845,"ቂያ":1846,"ወስ":1847,"▁ተቃ":1848,"▁ለምን":1849,"መሰ":1850,"ከብ":1851,"▁መልኩ":1852,"ስጠት":1853,"▁በማስ":1854,"▁ዓ.ም.":1855,"▁ሜትር":1856,"ኞቹ":1857,"▁መብት":1858,"ኩት":1859,"▁መመ":1860,"ክኖሎጂ":1861,"▁አልተ":1862,"▁/":1863,"▁ከሌ":1864,"▁ይናገራ":1865,"▁ጫ":1866,"▁ሌላው":1867,"▁በ19":1868,"ጠቃላይ":1869,"▁በሌላ":1870,"▁12":1871,"ችለው":1872,"▁ሚኒስትር":1873,"▁በዘ":1874,"▁መሬት":1875,"▁ይቻ":1876,"▁የቆ":1877,"ኖረው":1878,"ቅረብ":1879,"▁እንዳል":1880,"▁ጸ":1881,"▁ሆነው":1882,"ባብ":1883,"ፌዴሬ":1884,"ዘጋጀ":1885,"▁ደር":1886,"መለከተ":1887,"ላር":1888,"▁አሸ":1889,"▁ሠራ":1890,"ማቸው":1891,"▁ያስፈል":1892,"▁ገቢ":1893,"▁ዙሪያ":1894,"▁አማካ":1895,"▁የሆነው":1896,"ጓል":1897,"▁ደን":1898,"ቻችን":1899,"▁ዓላማ":1900,"▁ሊሆን":1901,"▁ይቻላል":1902,"▁በሆነ":1903,"ጣቸው":1904,"▁ወጣቶች":1905,"▁አስተያ":1906,"ልጽ":1907,"▁ሴት":1908,"ጠን":1909,"▁መድ":1910,"▁ያልተ":1911,"▁ባል":1912,"▁አጥ":1913,"ሙት":1914,"▁ሚኒስቴ":1915,"ንድን":1916,"▁ማኅ":1917,"▁ሕግ":1918,"ረም":1919,"▁ይሰ":1920,"▁መሪ":1921,"▁ና":1922,"▁ሱ":1923,"ፍጠር":1924,"ግል":1925,"ደን":1926,"ጅት":1927,"ስተኛ":1928,"▁አምስት":1929,"ፎች":1930,"▁አቋ":1931,"▁ስለሆነ":1932,"▁እምነት":1933,"▁ሰላም":1934,"ግባር":1935,"ኗል":1936,"ኮች":1937,"ሳቸውን":1938,"ለኝ":1939,"▁ለማሳ":1940,"ልፍ":1941,"ሳቀ":1942,"▁ከዚያም":1943,"▁ተገቢ":1944,"▁15":1945,"▁አስተዋ":1946,"▁የተለ":1947,"ታደ":1948,"▁ቅር":1949,"▁የኤ":1950,"ናገር":1951,"▁11":1952,"ምድ":1953,".አ":1954,"▁ይታወ":1955,"ፈልግ":1956,"▁በድ":1957,"▁ውድድ":1958,"▁በአዲስ":1959,"▁ከሁ":1960,"ሳቢ":1961,"▁ቡድ":1962,"ገባው":1963,"▁እሱ":1964,"▁መም":1965,"▁ፍቅር":1966,"ዳል":1967,"ገኛ":1968,"መለስ":1969,"ይል":1970,"ነቱን":1971,"▁ምስ":1972,"ረጥ":1973,"▁ይገኛል":1974,"ካል":1975,"▁ይዞ":1976,"▁ዞ":1977,"በልጥ":1978,"ፈጥሮ":1979,"በራዊ":1980,"▁ምርት":1981,"▁ከባ":1982,"▁ተሳት":1983,"▁የሁ":1984,"ወጥ":1985,"▁ጓ":1986,"▁ዶላር":1987,"▁ተሳ":1988,"ጫወ":1989,"ዝቦች":1990,"ሮፓ":1991,"▁አስታው":1992,"▁ጨምሮ":1993,"▁አንተ":1994,"▁ታዲያ":1995,"▁ነጥብ":1996,"▁ብዬ":1997,"ሶች":1998,"ሊዝ":1999,"▁ምክንያቱም":2000,"በረታ":2001,"▁ረገድ":2002,"▁መግለ":2003,"▁መኖ":2004,"▁ባለፈው":2005,"ለቱ":2006,"ላቀ":2007,"ደረሰ":2008,"ቆጠ":2009,"▁መታ":2010,"▁ተመል":2011,"▁የትምህርት":2012,"▁የጠ":2013,"▁በበኩ":2014,"ፈን":2015,"▁ገለ":2016,"▁እዚህ":2017,"▁ስታ":2018,"▁ውሃ":2019,"ጥረት":2020,"ጥታ":2021,"▁እርምጃ":2022,"ሞት":2023,"ክልሉ":2024,"▁ሕይወት":2025,"▁ሲሉ":2026,"▁በተለይም":2027,"ህአዴግ":2028,"ጉም":2029,"ትል":2030,"ላን":2031,"▁እኮ":2032,"ዘን":2033,"ሙን":2034,"ርቅ":2035,"▁ገና":2036,"▁ነበሩ":2037,"▁የሀ":2038,"ሳሰ":2039,"ስቱ":2040,"ቀም":2041,"▁በዚህም":2042,"ከላከል":2043,"▁ዶክተር":2044,"▁ምላሽ":2045,"▁የተሻለ":2046,"መለካ":2047,"▁ሚኒስቴር":2048,"ውና":2049,"ወጡ":2050,"ያቸው":2051,"ቻቸውን":2052,"ስማ":2053,"▁ለምሳሌ":2054,"ራጭ":2055,"▁መፍት":2056,"/200":2057,"ከታ":2058,"ገለጹ":2059,"ዕራ":2060,"▁ቢሮ":2061,"▁ልጆ":2062,"▁ከኢ":2063,"▁ዳይ":2064,"▁ኖ":2065,"▁አፈ":2066,"▁የተነሳ":2067,"ጣን":2068,"▁ካለ":2069,"ዳሚ":2070,"▁ስፖርት":2071,"ዝና":2072,"▁የኮ":2073,"▁አባላት":2074,"▁የልማት":2075,"▁የጎ":2076,"መጡ":2077,"▁ለኢ":2078,"▁እንደነበር":2079,"ደበ":2080,"▁ምድር":2081,"▁ውይ":2082,"ሽኑ":2083,"ራይ":2084,"ቾች":2085,"ችልም":2086,"ያል":2087,"▁አግ":2088,"ሩም":2089,"ጅም":2090,"▁ፊት":2091,"▁የካ":2092,"▁መነ":2093,"ይን":2094,"▁ይኖር":2095,"▁በተጨማሪም":2096,"▁የአምላክ":2097,"▁አንዳን":2098,"ንባ":2099,"▁ይገል":2100,"▁ተገል":2101,"▁የመንግሥት":2102,"ሃል":2103,"ዱን":2104,"▁ክርስቲ":2105,"ሳዊ":2106,"▁ንግ":2107,"ንካራ":2108,"ርና":2109,"▁ከሰ":2110,"▁ወጣት":2111,"ነግ":2112,"▁ይታ":2113,"▁ፍርድ":2114,"ረጋገጥ":2115,"ዳደ":2116,"▁ዕድል":2117,"▁ቋንቋ":2118,"ጣጫ":2119,"▁ባለው":2120,"▁ግለ":2121,"ተና":2122,"ካት":2123,"▁አጋጣሚ":2124,"ቁት":2125,"ስብ":2126,"▁ምሳሌ":2127,"▁ሦስት":2128,"▁ትክ":2129,"▁እስካ":2130,"▁ጤና":2131,"▁ፍላጎት":2132,"ባቸውን":2133,"▁በሚያ":2134,"ካባቢው":2135,"▁ገበያ":2136,"ካሄድ":2137,"ቨስት":2138,"▁አራት":2139,"▁14":2140,"▁ሩ":2141,"ንፈ":2142,"▁ኮሚቴ":2143,"ያይ":2144,"▁ስሜት":2145,"▁ጠቁ":2146,"▁ሀብት":2147,"▁መሆናቸውን":2148,"▁አብዛ":2149,"ድስት":2150,"▁ተግባራዊ":2151,"ካሄደው":2152,"ቅረ":2153,"▁የጤና":2154,"ናገሩት":2155,"አት":2156,"▁13":2157,"ስተዋ":2158,"▁አሜሪካ":2159,"▁የኢን":2160,"▁በጉ":2161,"ማን":2162,"▁ርዕ":2163,"▁አይነት":2164,"ደብ":2165,"ረዳት":2166,"▁የሚታ":2167,"ልካም":2168,"ደረጃ":2169,"ዱት":2170,"▁ይላሉ":2171,"▁የሥ":2172,"▁ሐሳብ":2173,"▁ዳይሬ":2174,"▁ሮ":2175,"▁ሥራዎች":2176,"ሎችን":2177,"▁በወቅ":2178,"ባባ":2179,"▁እንደማይ":2180,"▁ባለሙያዎች":2181,"▁አካባቢዎች":2182,"ልኝ":2183,"▁በቂ":2184,"▁በ200":2185,"▁ቀጥ":2186,"▁ነበረ":2187,"ለውም":2188,"መንት":2189,"መዋል":2190,"ሸነ":2191,"▁በቅርቡ":2192,"▁ድርጊ":2193,"▁ፕሮግራ":2194,"▁እንዲሆን":2195,"ስር":2196,"▁በገ":2197,"▁የኦ":2198,"▁ጉዳት":2199,"▁ጠቅላይ":2200,"ዳዳ":2201,"▁ወጪ":2202,"ቡት":2203,"▁ብሔራዊ":2204,"▁ከነ":2205,"ጋሚ":2206,"ቡን":2207,"ኑሮ":2208,"▁የያህዌ":2209,"▁የፈ":2210,"ልማት":2211,"▁ቱ":2212,"ረጋግ":2213,"▁የቻ":2214,"▁አርሶ":2215,"▁ባለመ":2216,"▁ሜዳ":2217,"ሰን":2218,"ቷን":2219,"▁እውነ":2220,"▁ዴሞክራሲ":2221,"ፎር":2222,"▁ኬ":2223,"▁ይሆን":2224,"▁ወራት":2225,"▁አቅጣጫ":2226,"ራሉ":2227,"▁የተቀ":2228,"ዘጋጅ":2229,"ከፋ":2230,"መቱ":2231,"▁ጠንካራ":2232,"ነኛ":2233,"▁ጥናት":2234,"▁ወረዳ":2235,"▁ልክ":2236,"▁ተሳትፎ":2237,"▁በረ":2238,"▁ታው":2239,"ገሪ":2240,"▁ይሁንና":2241,"▁ስላ":2242,"ያዙ":2243,"▁ኢኮኖሚ":2244,"▁ዋንጫ":2245,"▁ከው":2246,"ዋሚ":2247,"▁ሚና":2248,"ብሪካ":2249,"▁ኅ":2250,"ልቁ":2251,"ጠኛ":2252,"▁የፍ":2253,"▁መልስ":2254,"ዋና":2255,"ከፍተኛ":2256,"▁በቅ":2257,"▁ይበልጥ":2258,"▁በአገሪቱ":2259,"▁ተሰ":2260,"ለፍ":2261,"▁ሰር":2262,"በትም":2263,"ቶችና":2264,"▁የአዲስ":2265,"ማል":2266,"▁ተራ":2267,"ውልድ":2268,"ችላ":2269,"▁ጭምር":2270,"▁ቢሊዮን":2271,"ወር":2272,"ዳታ":2273,"▁ባለፉት":2274,"▁አመለካ":2275,"▁እግር":2276,"▁ጥና":2277,"▁አልፎ":2278,"▁በሀ":2279,"ጣው":2280,"▁ይኖ":2281,"201":2282,"ገለጹት":2283,"ልስ":2284,"ሰድ":2285,"▁በወቅቱ":2286,"ቶን":2287,"▁ማግኘት":2288,"▁በእርግጥ":2289,"▁ዜጎች":2290,"ግና":2291,"▁የንግድ":2292,"ሱት":2293,"▁ተጫ":2294,"▁የኢኮኖሚ":2295,"▁ዮሐ":2296,"ሻገር":2297,"ዛቤ":2298,"▁በሽታ":2299,"▁ማድረ":2300,"▁ሥርዓ":2301,"ያያዘ":2302,"ርምር":2303,"▁ፌዴሬ":2304,"▁በተመለከተ":2305,"ዘሮ":2306,"ጋቸው":2307,"▁ቻ":2308,"ርጫ":2309,"▁ይኸ":2310,"ዳቸው":2311,"ቧል":2312,"▁ወዳ":2313,"▁በመንግ":2314,"ሰበ":2315,"▁በዚያ":2316,"▁ድርሻ":2317,"▁እንድት":2318,"ሎት":2319,"▁ፅ":2320,"ይማኖት":2321,"▁ንብረት":2322,"▁ፓ":2323,"ሟል":2324,"▁ጉባኤ":2325,"▁ቴክኖሎጂ":2326,"ታፊ":2327,"▁ሆኗል":2328,"▁አባል":2329,"▁ሰፊ":2330,"ቀዋል":2331,"▁ቁጥ":2332,"ጠፋ":2333,"መለከት":2334,"ማኝ":2335,"▁ሂደት":2336,"ደርገው":2337,"ጋሪ":2338,"▁መተ":2339,"▁17":2340,"▁ፕሮጀክ":2341,"▁መግለጫ":2342,"ምፒክ":2343,"ጠይ":2344,"▁ጉዞ":2345,"▁አልነበረ":2346,"ዝር":2347,"▁ያው":2348,"▁ምግብ":2349,"▁ውጪ":2350,"ገናኛ":2351,"▁ጽሑ":2352,"▁ተከት":2353,"▁ባንክ":2354,"▁ስብሰባ":2355,"ፍታት":2356,"▁ኢንዱስትሪ":2357,"▁የቀረ":2358,"ቆም":2359,"ጠብ":2360,"▁ፖለቲካ":2361,"ገሩ":2362,"▁እግ":2363,"▁መሳ":2364,"ራቸውን":2365,"ክሮ":2366,"▁አላቸው":2367,"ኛውን":2368,"▁ይናገራሉ":2369,"ሰሩ":2370,"ንቀሳቀ":2371,"▁መምህ":2372,"ኪያ":2373,"▁የሙ":2374,"በረሰብ":2375,"▁16":2376,"▁ብሄ":2377,"/ር":2378,"▁አፍ":2379,"ያት":2380,"የም":2381,"ዳት":2382,"▁መዋ":2383,"ቀርብ":2384,"▁በባ":2385,"ኞችን":2386,"▁የሚያስችል":2387,"▁የክ":2388,"ረታዊ":2389,"▁እነዚህን":2390,"▁ጥር":2391,"▁እያለ":2392,"ስቶ":2393,"ዚቃ":2394,"ሠሩ":2395,"▁የግል":2396,"▁ውጤታማ":2397,"▁የሚፈ":2398,"▁ኃላፊነት":2399,"▁የሚችል":2400,"በራት":2401,"▁ውጭ":2402,"▁ንግድ":2403,"▁ሀገር":2404,"ቴን":2405,"ከረ":2406,"በዋል":2407,"ጋይ":2408,"▁18":2409,"ሴቶች":2410,"▁የፕ":2411,"ጨዋ":2412,"▁በመሆን":2413,"ሮስ":2414,"▁ለማግኘት":2415,"ሁት":2416,"▁ጥበቃ":2417,"▁ፍት":2418,"ሃን":2419,"▁ጆ":2420,"ሌክት":2421,"ስፒ":2422,"▁ትራንስ":2423,"ህል":2424,"▁ቢያ":2425,"ዘርፉ":2426,"▁ከም":2427,"ፈጠረ":2428,"▁የሚመ":2429,"▁ጉዳዩ":2430,"ጣሪ":2431,"ቱት":2432,"ሷል":2433,"ፍና":2434,"ፈልጉ":2435,"ግባት":2436,"▁የስራ":2437,"▁ከስ":2438,"▁ስፍራ":2439,"▁ተገልጿል":2440,"▁የሃ":2441,"▁እውነት":2442,"▁ሪፖር":2443,"▁የሚሆኑ":2444,"▁የቴ":2445,"▁ናት":2446,"▁አስተያየት":2447,"▁ያስፈልጋል":2448,"▁ነኝ":2449,"ባዊ":2450,"ጀን":2451,"▁መቶ":2452,"▁የተወሰ":2453,"▁ዕቅድ":2454,"▁የከተማ":2455,"ስትና":2456,"▁ተማሪዎች":2457,"▁የህዝብ":2458,"ፈጸም":2459,"▁የድ":2460,"▁በቀጣይ":2461,"▁አግኝ":2462,"▁ሁለተኛ":2463,"▁በዕ":2464,"▁የምና":2465,"ቦችን":2466,"▁ስልጠና":2467,"▁የዚህ":2468,"ኪና":2469,"▁መስጠት":2470,"▁እስካሁን":2471,"▁እንዲያው":2472,"ዕኖ":2473,"ከበር":2474,"መለክ":2475,"ራክ":2476,"ፍን":2477,"▁ወይዘሮ":2478,"▁የምታ":2479,"ሮሚያ":2480,"ባቸዋል":2481,"▁ሕገ":2482,"ዝም":2483,"ኝም":2484,"ራው":2485,"ሳሰብ":2486,"▁ለሁ":2487,"በሩት":2488,"▁ብላ":2489,"▁ዝግጅት":2490,"▁አመልክ":2491,"ራም":2492,"▁መጣ":2493,"▁ጥቅ":2494,"ዩት":2495,"ርክ":2496,"ግባቡ":2497,"ጭት":2498,"ጥም":2499,"ገረ":2500,"▁ጉድ":2501,"ቋቋም":2502,"▁ጥቂት":2503,"ሰጠው":2504,"▁የአገሪቱ":2505,"▁ድል":2506,"▁የተባለው":2507,"ምፒዮ":2508,"ፊያ":2509,"▁አድርገው":2510,"ጋቢ":2511,"ላላ":2512,"▁የጋራ":2513,"ከናወን":2514,"ልህ":2515,"▁መድረክ":2516,"▁ስኬ":2517,"▁ባለቤት":2518,"▁ቀናት":2519,"▁ወረ":2520,"▁ተፈ":2521,"ጀመሩ":2522,"▁ዕድሜ":2523,"▁ከባድ":2524,"ከፈ":2525,"▁ፈቃድ":2526,"ፌዴራል":2527,"ድሩ":2528,"ጊዜው":2529,"ብዛ":2530,"ነስተኛ":2531,"▁ሉ":2532,"▁አሠራ":2533,"▁በተመ":2534,"▁ዕድገት":2535,"መልከት":2536,"▁ለሌ":2537,"▁ያላ":2538,"▁የሚያሳ":2539,"ያቂ":2540,"ውሮፓ":2541,"▁በጋራ":2542,"▁ይችላሉ":2543,"ዳሴ":2544,"▁በበኩላቸው":2545,"ርያም":2546,"▁ባሻገር":2547,"ጠናከር":2548,"▁ኪሎ":2549,"መም":2550,"ዲት":2551,"▁በጎ":2552,"ገዛ":2553,"ጀል":2554,"ቀበ":2555,"▁25":2556,"ዳና":2557,"ደረጉት":2558,"ለያየ":2559,"▁በሌሎች":2560,"ደል":2561,"▁ወዲህ":2562,"▁የሞ":2563,"ልማ":2564,"ነታቸው":2565,"ብረተሰብ":2566,"▁ተጨማሪ":2567,"▁መቼ":2568,"▁ድርጅቶች":2569,"ነበረው":2570,"ነር":2571,"ጠኝ":2572,"ናፊ":2573,"በትና":2574,"▁ለብ":2575,"ንዳን":2576,"▁ጥበብ":2577,"ራሽ":2578,"▁ሃሳብ":2579,"▁ተቋም":2580,"▁የሚለውን":2581,"▁ብሏል":2582,"ቲክስ":2583,"ገንባት":2584,"▁ለህ":2585,"ሥር":2586,"▁ሰሞ":2587,"ጠቅ":2588,"ገዋል":2589,"▁የአገር":2590,"▁ብለን":2591,"▁በዚሁ":2592,"ጠየ":2593,"▁እስኪ":2594,"ሜን":2595,"ውጣት":2596,"▁ፖሊሲ":2597,"ዊት":2598,"▁ጎን":2599,"ከታተ":2600,"ሰጡ":2601,"▁አኳ":2602,"ከባ":2603,"ችኋ":2604,"▁ሀገ":2605,"▁ጐ":2606,"ችሁን":2607,"ቤቱ":2608,"ሰት":2609,"▁ፋብሪካ":2610,"ቶስ":2611,"▁በአግባቡ":2612,"ጮች":2613,"▁ራስ":2614,"ሆነው":2615,"▁ዮሐንስ":2616,"▁ስምምነት":2617,"ሣሪያ":2618,"▁አንቀ":2619,"▁ውይይት":2620,"▁ወስ":2621,"▁ስፖር":2622,"▁ተመሳሳይ":2623,"▁ተጫዋ":2624,"▁አስመ":2625,"▁ለመቀ":2626,"ላችን":2627,"▁በአፍሪካ":2628,"ላቂ":2629,"ከያ":2630,"ሆንም":2631,"▁ሳምንት":2632,"ገኙት":2633,"▁በአን":2634,"ሄዱ":2635,"▁የፀ":2636,"▁ተሳታፊ":2637,"▁እናንተ":2638,"▁ከተሞች":2639,"▁ትንሽ":2640,"▁ቅድ":2641,"ካሪ":2642,"ወለ":2643,"ጋዊ":2644,"ሆናቸው":2645,"▁ዶ/ር":2646,"መና":2647,"▁አሰልጣ":2648,"▁አንፃ":2649,"ምጣት":2650,"ባበ":2651,"▁ወታደ":2652,"ቲት":2653,"▁ሰነ":2654,"▁ፎ":2655,"ነቶች":2656,"▁አሰራ":2657,"▁ደም":2658,"▁ከበ":2659,"▁ከሚያ":2660,"▁ምዕራ":2661,"▁ሕዝቡ":2662,"▁የአሜሪካ":2663,"▁ኢህአዴግ":2664,"▁ባለሥ":2665,"ቨስትመንት":2666,"▁ደስ":2667,"▁በመስ":2668,"▁አትሌቶች":2669,"▁በክ":2670,"▁ወላ":2671,"▁ወገ":2672,"▁ድምፅ":2673,"ርማ":2674,"ፈፀ":2675,"▁እጥረት":2676,"▁እንደሚገባ":2677,"ህና":2678,"▁ደብ":2679,"▁እም":2680,"▁ከአንድ":2681,"መደ":2682,"▁ህዝቡ":2683,"ሰዋል":2684,"▁ይዘ":2685,"▁የነበረውን":2686,"▁ስል":2687,"ጽኦ":2688,"ንቃ":2689,"ጧል":2690,"▁ንጉሥ":2691,"ላማዊ":2692,"▁በመቀ":2693,"▁መነሻ":2694,"▁30":2695,"ንቅ":2696,"ሆኑም":2697,"▁ይኼ":2698,"▁በቁ":2699,"ስፋት":2700,"ሳሉ":2701,"ጀም":2702,"በሌ":2703,"ጥነት":2704,"▁ማዕከል":2705,"▁ማር":2706,"▁ይገልጻ":2707,"▁አይቀ":2708,"▁ሆቴ":2709,"▁በአጠቃላይ":2710,"▁ኮን":2711,"ፉን":2712,"▁ከጥ":2713,"ሻሻል":2714,"ሀብ":2715,"▁ህገ":2716,"▁ተወካ":2717,"▁ትርጉም":2718,"▁ሲባል":2719,"▁ተሸ":2720,"ማሽ":2721,"ገደ":2722,"▁ሥነ":2723,"▁ዛ":2724,"▁ፈተና":2725,"ሜሽን":2726,"▁የመልካም":2727,"በላ":2728,"▁ህይወት":2729,"▁አገሪቱ":2730,"▁ነጋ":2731,"▁ተግባራት":2732,"▁ያን":2733,"ታር":2734,"▁በመጀመሪያ":2735,"ገበ":2736,"▁ደጋ":2737,"ዲሱ":2738,"▁የበለጠ":2739,"▁የዓ":2740,"▁መሣሪያ":2741,"▁መስራት":2742,"ሌክትሪክ":2743,"▁መንፈስ":2744,"ገውን":2745,"ቀል":2746,"ክሲ":2747,"▁የሕዝብ":2748,"ታወቀ":2749,"/2009":2750,"ሽከር":2751,"▁ሙያ":2752,"▁መመሪያ":2753,"ገነባ":2754,"ጠበቀ":2755,"▁የለውም":2756,"ኖራቸው":2757,"▁እኔም":2758,"▁እንደሚያስ":2759,"ዚያው":2760,"ዛዝ":2761,"▁ራሱን":2762,"ጭር":2763,"ንብ":2764,"ሴት":2765,"▁የሽ":2766,"▁የመንግስት":2767,"▁የሚወ":2768,"▁አስተዋጽኦ":2769,"ሪው":2770,"▁ትውልድ":2771,"ፈረ":2772,"ጀንሲ":2773,"▁አመለካከት":2774,"ደጋጋሚ":2775,"▁ሰብሳቢ":2776,"ታሉ":2777,"▁ብት":2778,"▁ፓርቲዎች":2779,"▁በተመሳሳይ":2780,"▁በአገር":2781,"▁መግ":2782,"ሎቹ":2783,"▁እድገት":2784,"ለውን":2785,"ሳተፍ":2786,"▁ሀብ":2787,"▁ተከትሎ":2788,"ዲያው":2789,"on":2790,"▁ልምድ":2791,"ንነት":2792,"▁አልነበረም":2793,"ጀመረው":2794,"ጠቀሙ":2795,"▁አንፃር":2796,"▁አመት":2797,"▁24":2798,"ፎርሜሽን":2799,"ነጋገር":2800,"▁አዋጅ":2801,"ንቲ":2802,"ቆጣጠር":2803,"▁የተባ":2804,"▁የገንዘብ":2805,"▁ብል":2806,"ምስት":2807,"▁ቶ":2808,"▁ዘመናዊ":2809,"▁ታላቅ":2810,"ከሉ":2811,"▁ማለ":2812,".ኤ":2813,"ለል":2814,"▁ክለቦች":2815,"ጻሚ":2816,"ገልግሎ":2817,"▁ለወ":2818,"▁የሚባል":2819,"▁በተያያዘ":2820,"▁ባሕ":2821,"ቀርቡ":2822,"▁ከግ":2823,"▁የድር":2824,"▁እንግዲህ":2825,"▁አለባቸው":2826,"▁በሁለ":2827,"▁ለሕ":2828,"▁መኖር":2829,"▁ደረ":2830,"▁ከሌሎች":2831,"▁ጅ":2832,"▁የወጣ":2833,"ሙር":2834,"ሮቹ":2835,"▁ግራ":2836,"▁በዓል":2837,"▁እያንዳን":2838,"ዎቹን":2839,"▁የፋ":2840,"ቡር":2841,"▁የዳ":2842,"▁ያለበት":2843,"▁የሆነውን":2844,"▁ያላቸውን":2845,"▁ሻምፒዮ":2846,"▁ሊግ":2847,"ቀስ":2848,"▁ጦርነት":2849,"▁ጥያቄዎች":2850,"ሳተፉ":2851,"▁ሰዎችን":2852,"ሔር":2853,"ሬታ":2854,"▁መጀመሪያ":2855,"▁እንደሚችል":2856,"ገትና":2857,"▁ምክትል":2858,"▁የአየር":2859,"ንጉ":2860,"▁ግብር":2861,"▁የመን":2862,"▁ገጽ":2863,"ዋት":2864,"▁የቀድሞ":2865,"▁ማህበር":2866,"▁የአንድ":2867,"ዓዊ":2868,"ሎስ":2869,"ሮው":2870,"▁የሚገባ":2871,"▁ጥቃት":2872,"ርቶ":2873,"▁ሥልጣን":2874,"▁ዕው":2875,"▁ጳ":2876,"▁በስተ":2877,"▁በጀት":2878,"▁ሕይወ":2879,"▁በ201":2880,"▁ተነ":2881,"▁እንድን":2882,"▁እንዳለው":2883,"▁በከፍተኛ":2884,"▁ክልሎች":2885,"▁የሚሉት":2886,"▁አምባ":2887,"▁የማስ":2888,"▁21":2889,"▁ከል":2890,"▁ዘገባ":2891,"ገራቸው":2892,"በራ":2893,"▁የዋ":2894,"▁ያደርጋል":2895,"ቻለ":2896,"ሰል":2897,"▁ባህል":2898,"▁አለኝ":2899,"▁ግልጽ":2900,"▁ክፍሎች":2901,"▁አማካኝነት":2902,"▁ቀላል":2903,"▁ዳይሬክተር":2904,"▁የሚችሉ":2905,"▁የተመ":2906,"▁ከብ":2907,"▁ችሎ":2908,"▁አነስተኛ":2909,"ቃቸው":2910,"▁ዞን":2911,"ሳኝ":2912,"የሁ":2913,"▁አኳያ":2914,"ስተካ":2915,"▁ተቃዋሚ":2916,"▁የሚገኘው":2917,"ኮኖሚያ":2918,"▁ይቅር":2919,"▁ዕቃ":2920,"▁ተደራ":2921,"▁ዳር":2922,"▁ለዘ":2923,"▁አስተሳሰብ":2924,"▁የስፖርት":2925,"er":2926,"▁22":2927,"▁መላ":2928,"▁አወ":2929,"ጨት":2930,"▁ጠብ":2931,"▁የተለየ":2932,"▁ክርስቲያ":2933,"▁በከተማ":2934,"▁የሚሉ":2935,"▁ጊ":2936,"▁ኢትዮጵያውያን":2937,"ከው":2938,"ዴሞክራሲ":2939,"▁ከእነዚህ":2940,"▁ፍሬ":2941,"▁የቤት":2942,"▁ሆስፒ":2943,"ዳጊ":2944,"▁መጨረሻ":2945,"▁የመጣ":2946,"▁ይቀ":2947,"▁እንደሌ":2948,"▁ይፋ":2949,"ነበ":2950,"ዋለሁ":2951,"▁የጉ":2952,"▁የቅ":2953,"▁ብቃት":2954,"▁ተጠቅ":2955,"▁ዝቅ":2956,"▁ትክክለ":2957,"ገም":2958,"an":2959,"▁ተፅ":2960,"ልበት":2961,"▁ደስታ":2962,"ለቀ":2963,"ጣጥ":2964,"▁አድርጓል":2965,"ሐፊ":2966,"▁አዎ":2967,"ራቴ":2968,"▁በኦ":2969,"ኛሉ":2970,"ለኛል":2971,"▁አህ":2972,"▁ግንዛቤ":2973,"ዝግ":2974,"ህነት":2975,"ጉን":2976,"▁ጣቢያ":2977,"▁ያደረገ":2978,"▁ገበ":2979,"ውው":2980,"▁ሦ":2981,"▁አስቸ":2982,"ካሄደ":2983,"▁ሚኒስትሩ":2984,"ፈጠር":2985,"▁ጠቁመዋል":2986,"▁እርስ":2987,"▁የዕድ":2988,"▁አራ":2989,"in":2990,"▁ትምህር":2991,"▁ከታ":2992,"▁አለማ":2993,"▁ትዕ":2994,"ገለጸ":2995,"▁ተጠና":2996,"▁አጠና":2997,"▁አቋም":2998,"▁መልክ":2999,"▁ስድስት":3000,"ዬን":3001,"▁መክ":3002,"▁ይታወቃል":3003,"ርባ":3004,"▁ነዋሪ":3005,"000":3006,"ዎችም":3007,"▁ፕሮጀክት":3008,"▁ምሥ":3009,"▁ማንም":3010,"▁ሰላ":3011,"▁ተከታ":3012,"▁የምግብ":3013,"ለበት":3014,"ወገድ":3015,"▁ለስ":3016,"▁መፍትሔ":3017,"ቁም":3018,"▁እድል":3019,"ግባብ":3020,"▁ውድድሮች":3021,"ራችን":3022,"▁ክፉ":3023,"▁ቡና":3024,"መለከተው":3025,"ቀድ":3026,"▁ገብረ":3027,"▁ኑሮ":3028,"▁ችግሩ":3029,"አብ":3030,"▁መቆ":3031,"▁አመራር":3032,"ሥራት":3033,"ጦች":3034,"ስተር":3035,"▁ፕሮግራም":3036,"ጋጥ":3037,"ዳዳሪ":3038,"ርሶ":3039,"ድብ":3040,"▁የሚያደርጉ":3041,"▁ተቋማ":3042,"ረታ":3043,"▁ተያይ":3044,"ኮኖሚያዊ":3045,"▁ክፍለ":3046,"50":3047,"▁ይባ":3048,"▁ምናል":3049,"▁በታች":3050,"ፈልገው":3051,"▁ለዚህም":3052,"ዳቤ":3053,"▁ዝም":3054,"▁ይዘው":3055,"▁ማለትም":3056,"▁ላለ":3057,"▁ሪፖርት":3058,"▁እህ":3059,"▁እኩል":3060,"ድረስ":3061,"▁የጦር":3062,"▁ጌታ":3063,"ቻሉ":3064,"ቀጥል":3065,"▁ዩ":3066,"▁ተጋ":3067,"▁ውኃ":3068,"ዷል":3069,"▁ተሰጥ":3070,"▁ጥራት":3071,"▁የነበሩት":3072,"▁ይገኛሉ":3073,"ዳው":3074,"▁ሳያ":3075,"▁በቀላሉ":3076,"▁አሸናፊ":3077,"▁የ1":3078,"▁እስራ":3079,"▁በኮ":3080,"ጠረ":3081,"ጻጸ":3082,"▁አደር":3083,"ነታቸውን":3084,"ጠዋል":3085,"ራዊት":3086,"▁ፈጥ":3087,"▁ሁለቱ":3088,"ምረት":3089,"▁ስህ":3090,"ረቱ":3091,"መዝ":3092,"ሳን":3093,"▁ክፍያ":3094,"▁እንደማ":3095,"▁የሚተ":3096,"▁ምንጭ":3097,"▁መሪዎች":3098,"▁ማስታወ":3099,"▁ዴሞክራሲያዊ":3100,"▁ኖሮ":3101,"th":3102,"▁ግዴ":3103,"ዶቹ":3104,"▁ዐ":3105,"▁እንስ":3106,"ፈልጋ":3107,"▁እቅድ":3108,"▁ስርዓት":3109,"ይናንስ":3110,"▁ክብር":3111,"▁ያስተ":3112,"▁23":3113,"ፃናት":3114,"▁ጠይ":3115,"▁ፌ":3116,"▁ምንድን":3117,"▁አስረድ":3118,"▁ምሁ":3119,"ወጣው":3120,"▁ለምንድን":3121,"▁እናም":3122,"▁ከቀ":3123,"▁ስለመ":3124,"▁የሆኑት":3125,"▁ጀመር":3126,"▁ቁር":3127,"ከላከያ":3128,"ብብ":3129,"▁መሸ":3130,"▁ለመስ":3131,"▁ነፍ":3132,"ደኛው":3133,"ተናል":3134,"▁የእር":3135,"▁ለመሆን":3136,"▁አማራጭ":3137,"▁ዘዴ":3138,"ባረ":3139,"▁ለመፍታት":3140,"▁ሰሞኑን":3141,"ዎስ":3142,"▁ከዚህም":3143,"▁ምግባር":3144,"ርስቶስ":3145,"▁ማራ":3146,"▁ሪፖርተር":3147,"ራር":3148,"▁ታውቋል":3149,"▁በስፋት":3150,"ኒት":3151,"ታን":3152,"▁የመስ":3153,"▁በይ":3154,"▁በምን":3155,"▁ማቴ":3156,"ችግ":3157,"ጠውን":3158,"▁ማየት":3159,"▁ገልፀ":3160,"▁ተዋ":3161,"ቀመጥ":3162,"ደሰ":3163,"▁ምቹ":3164,"ታችንን":3165,"ካሂ":3166,"▁ልን":3167,"▁እ.ኤ":3168,"ሰስ":3169,"▁መንገዶች":3170,"ኔት":3171,"ወድ":3172,"ከናወኑ":3173,"▁ራሱ":3174,"▁የበላይ":3175,"▁ሠራተኞች":3176,"▁ኢትዮጵያዊ":3177,"▁የማህ":3178,"▁በራሱ":3179,"▁እ.ኤ.አ":3180,"▁ሰን":3181,"▁ዝር":3182,"▁ሰይ":3183,"▁የመሰ":3184,"▁ቦታዎች":3185,"▁በተደጋጋሚ":3186,"▁ባለሀብ":3187,"▁አዳዲስ":3188,"▁ቅሬታ":3189,"ለጥ":3190,"▁ተን":3191,"ርትራ":3192,"ሞላ":3193,"▁መንግሥታት":3194,"ቡና":3195,"▁አሠራር":3196,"ቆጥ":3197,"▁ያቀረ":3198,"▁የቱ":3199,"▁ለመስጠት":3200,"▁አይችልም":3201,"ሴን":3202,"▁ጀም":3203,"▁ልት":3204,"ጠናቀቅ":3205,"▁የመጀመሪያው":3206,"ንፃ":3207,"▁ወንዶች":3208,"▁መሥራት":3209,"▁ስደ":3210,"▁ሰራ":3211,"▁ሆይ":3212,"ብቶ":3213,"▁በመስጠት":3214,"▁አየር":3215,"▁ኃይሎች":3216,"ፈጠረው":3217,"ዚአብ":3218,"▁በፈ":3219,"▁ቀድሞ":3220,"▁ወሳኝ":3221,"▁የምርጫ":3222,"▁ተጠያቂ":3223,"ገልግሎት":3224,"▁ዝና":3225,"ወሰን":3226,"መነ":3227,"ተኝነት":3228,"▁ምልክ":3229,"▁መቅ":3230,"▁ደቡብ":3231,"ግም":3232,"▁ይመስላል":3233,"ቱና":3234,"▁የግድ":3235,"▁ዋናው":3236,"▁በማሳ":3237,"▁ሁሉንም":3238,"▁የያዘ":3239,"▁ሰለ":3240,"▁ወል":3241,"ላቅ":3242,"ኒክ":3243,"▁ጃ":3244,"▁ነዋሪዎች":3245,"ሳካ":3246,"▁ይሄን":3247,"▁ክት":3248,"▁አጀ":3249,"▁ከኢትዮጵያ":3250,"ጨባ":3251,"▁ችግሩን":3252,"▁ተጽ":3253,"▁እንደመ":3254,"▁በቃ":3255,"▁ያሉትን":3256,"▁ሹ":3257,"ጁን":3258,"▁ኤጀንሲ":3259,"ቲክ":3260,"▁መሳሪያ":3261,"▁የሚችለው":3262,"▁ተደርጎ":3263,"ጠሩ":3264,"▁ክለብ":3265,"▁መዛ":3266,"▁ሞት":3267,"▁የሚሆን":3268,"▁ልዩነት":3269,"ጠኝነት":3270,"ti":3271,"▁ሱዳን":3272,"▁የውሃ":3273,"▁የሚገል":3274,"ክተ":3275,"▁መጻ":3276,"▁ማህበራዊ":3277,"ለቅ":3278,"ናይ":3279,"▁በመጠቀም":3280,"▁ኢኮኖሚያዊ":3281,"▁እንደገና":3282,"▁ይጠበ":3283,"ገሪቱን":3284,"ረፍ":3285,"ታወቅ":3286,"ከተል":3287,"▁ማንኛውም":3288,"▁እያሉ":3289,"▁ግድብ":3290,"ዘጋጁ":3291,"▁ማስረጃ":3292,"▁ያመለክ":3293,"ሳው":3294,"▁አብሮ":3295,"ጓዝ":3296,"▁የሐ":3297,"▁201":3298,"ዲዮ":3299,"▁አትሌት":3300,"ኒያ":3301,"▁አይቀርም":3302,"ረዱ":3303,"ጡን":3304,"▁ስለተ":3305,"▁ኢንተር":3306,"ችሏል":3307,"▁ገባ":3308,"▁የደረ":3309,"▁የቤተ":3310,"▁ራሳቸውን":3311,"▁ሒ":3312,"▁በማን":3313,"ድድር":3314,"ቂቃ":3315,"ሊምፒክ":3316,"▁መፍ":3317,"▁ስራዎች":3318,"▁ያገኘ":3319,"ማሉ":3320,"▁ችግሮችን":3321,"ራቴጂ":3322,"▁በሥራ":3323,"▁ይበ":3324,"ደርሱ":3325,"▁ሊቀ":3326,"▁በመተ":3327,"ድርሻ":3328,"▁ንግግር":3329,"▁ትግል":3330,"▁በሃ":3331,"▁ሰማ":3332,"ታም":3333,"▁መረጃዎች":3334,"▁እናት":3335,"ሞን":3336,"ህፈት":3337,"ታለች":3338,"▁ሕዝቦች":3339,"▁በሶ":3340,"ምሩ":3341,"ከናው":3342,"▁አጠ":3343,"ችላለን":3344,"▁እሱም":3345,"ንግሊዝ":3346,"ላቸዋል":3347,"▁ተሞክ":3348,"▁የመጽሐፍ":3349,"▁እንችላለን":3350,"ቁን":3351,"▁አረጋግ":3352,"▁ሙስና":3353,"ጉት":3354,"ሸነፍ":3355,"▁ድርጊት":3356,"▁ተቀም":3357,"የሩ":3358,"▁ታይ":3359,"▁ወገኖች":3360,"ማራ":3361,"ድና":3362,"▁የጋ":3363,"▁ጉባዔ":3364,"▁እንደምት":3365,"▁እንዳለበት":3366,"ፋል":3367,"ጠነ":3368,"ስተና":3369,"ክታር":3370,"▁በግልጽ":3371,"መቻ":3372,"▁ተቀባይ":3373,"ያንስ":3374,"▁ኃይለ":3375,"▁ዘንድሮ":3376,"ላቸውም":3377,"ታችሁ":3378,"▁ያም":3379,"▁ቡድኖች":3380,"▁መንግስ":3381,"▁ምርመራ":3382,"▁ደብዳቤ":3383,"ትነት":3384,"ቆጠሩ":3385,"▁አድማ":3386,"ላስ":3387,"▁የመጨረሻ":3388,"▁ህዝቦች":3389,"ከን":3390,"▁ለራ":3391,"▁ብሄራዊ":3392,"▁ህክምና":3393,"▁ካልተ":3394,"▁የመሳሰ":3395,"▁ሥልጠና":3396,"▁ከህ":3397,"▁ይጠበቃል":3398,"▁እርግ":3399,"ፏል":3400,"▁በሚገባ":3401,"ሯቸው":3402,"▁አባት":3403,"▁ሊያስ":3404,"▁ዓመቱ":3405,"▁ተቀብ":3406,"ውሞ":3407,"ውስ":3408,"▁መግባ":3409,"▁ጳው":3410,"ሮን":3411,"ቅርብ":3412,"▁በሁሉም":3413,"▁እነሱ":3414,"▁መሠረታዊ":3415,"▁አልቻ":3416,"▁ገልጿል":3417,"ሪዝም":3418,"▁የተፈጥሮ":3419,"▁መፍትሄ":3420,"ሊት":3421,"▁ዱ":3422,"▁ለማሳደግ":3423,"ሰጣቸው":3424,"ላለች":3425,"ረፈ":3426,"▁ወዘ":3427,"▁ደመ":3428,"ሰጠ":3429,"▁በኤ":3430,"ማቸውን":3431,"▁ጋዜጣ":3432,"▁ከላይ":3433,"ምባ":3434,"▁ተር":3435,"ዋዕ":3436,"ቀደ":3437,"ቀፍ":3438,"ዋቸው":3439,"▁በመጨረሻ":3440,"ረሰቦች":3441,"▁አዛ":3442,"▁ኋላ":3443,"ረግ":3444,"en":3445,"ግራይ":3446,"ቻልም":3447,"ጊያ":3448,"▁ኩባንያዎች":3449,"▁እርዳታ":3450,"▁በሰው":3451,"ሁዳ":3452,"ነህ":3453,"ሟላ":3454,"ማረ":3455,"ዘዋ":3456,"መለሱ":3457,"ማግ":3458,"ዋቂ":3459,"▁ነጋዴ":3460,"▁ዜና":3461,"ሻል":3462,"▁ቀበሌ":3463,"▁ቲ":3464,"▁የተቀመ":3465,"▁መሆኑንም":3466,"▁ሰባት":3467,"▁ባለስ":3468,"▁ሆና":3469,"ጠመ":3470,"▁መከራ":3471,"ራሪ":3472,"ዘጋጀት":3473,"▁በእነዚህ":3474,"▁ሶስት":3475,"▁ባሉ":3476,"ንቃቄ":3477,"▁እንዲያውም":3478,"▁ወደፊት":3479,"▁መስመር":3480,"ጣቱ":3481,"▁እንደገለጹት":3482,"ናገሩ":3483,"ትሌ":3484,"▁መኪና":3485,"▁ኢትዮጵያን":3486,"▁ሬ":3487,"▁ተገኝ":3488,"▁ወዘተ":3489,"▁አይደል":3490,"▁እንዲሆኑ":3491,"▁የግብርና":3492,"▁ከሁለት":3493,"ፈተ":3494,"▁የሚባለው":3495,"▁አዝ":3496,"▁የሚገኝ":3497,"▁ነገሮችን":3498,"▁የባለ":3499,"ደና":3500,"▁ምርምር":3501,"▁ህግ":3502,"▁በሁለት":3503,"▁ፈጽ":3504,"ሮፕ":3505,"ፋን":3506,"ጣሉ":3507,"ቃሉ":3508,"ዮር":3509,"▁ብን":3510,"▁እሷ":3511,"▁የሚሆነው":3512,"▁26":3513,"▁የግብ":3514,"▁ሁኔታዎች":3515,"ቻለሁ":3516,"▁መጠቀም":3517,"▁ትች":3518,"▁ምና":3519,"▁ለአንድ":3520,"▁የቦ":3521,"▁ምክንያቶች":3522,"ፈጠሩ":3523,"▁ሻምፒዮና":3524,"▁ይሰማ":3525,"▁የክልሉ":3526,"▁እንደሆኑ":3527,"▁እንዳሉት":3528,"▁በትምህርት":3529,"ሃብ":3530,"▁ታስ":3531,"ችኋል":3532,"▁ምርጥ":3533,"▁ዋስትና":3534,"▁ይመስለኛል":3535,"▁አሰራር":3536,"▁ተያይዞ":3537,"ፋቸው":3538,"ማግሌ":3539,"▁28":3540,"▁ይመ":3541,"▁ያደረገው":3542,"በርካታ":3543,"▁ለመከላከል":3544,"▁አጠቃላይ":3545,"ዳማ":3546,"▁የኃ":3547,"▁ታማኝ":3548,"ሠረተ":3549,"▁ከ3":3550,"▁ባለቤ":3551,"▁2008":3552,",000":3553,"▁ሁለተኛው":3554,"ዚአብሔር":3555,"▁የቢ":3556,"ላለፍ":3557,"ኒልክ":3558,"▁መንግሥቱ":3559,"ውሰድ":3560,"ቀን":3561,"▁ትና":3562,"▁ይታወሳል":3563,"▁ትራንስፎርሜሽን":3564,"ላሴ":3565,"▁መሀ":3566,"▁እያደረገ":3567,"ሰማሩ":3568,"▁ጥላ":3569,"▁አይመስ":3570,"▁አስመልክ":3571,"▁ጥሪ":3572,"ናገረው":3573,"ርፍ":3574,"▁በብዙ":3575,"▁አጀንዳ":3576,"ስተው":3577,"▁የሶ":3578,"▁ተፅዕኖ":3579,"ንክ":3580,"▁መወ":3581,"የን":3582,"ጅቱ":3583,"▁ነን":3584,"▁ማጣ":3585,"ባበር":3586,"▁ትክክለኛ":3587,"▁ነፃነት":3588,"ኘት":3589,"▁ጳውሎስ":3590,"▁ባህር":3591,"▁ገልፀዋል":3592,"▁በሥ":3593,"ዳደሩ":3594,"▁አስቸጋሪ":3595,"▁ቀጠ":3596,"▁ዕለት":3597,"ገለግ":3598,"▁ካለው":3599,"ስራኤል":3600,"▁ርቀት":3601,"▁አንዲት":3602,"▁በአካባቢው":3603,"▁አስረድተዋል":3604,"ሕአዴግ":3605,"ደድ":3606,"▁በየጊዜው":3607,"ነሰ":3608,"▁ስትራቴጂ":3609,"ናሉ":3610,"▁በዋና":3611,"ጴጥ":3612,"▁የሥነ":3613,"▁መሰል":3614,"▁ደቂቃ":3615,"▁መልዕ":3616,"▁እየሰራ":3617,"▁ወገን":3618,"▁ያህዌን":3619,"▁መዳ":3620,"▁ይፈ":3621,"ፈለግ":3622,"▁ኮሚሽን":3623,"▁ማወቅ":3624,"▁ጽሑፍ":3625,"▁ለኢትዮጵያ":3626,"ጨባጭ":3627,"ብብር":3628,"▁ቂ":3629,"▁27":3630,"▁በክልሉ":3631,"ቆይ":3632,"▁ሕዝ":3633,"▁በትክ":3634,"ጠኞች":3635,"▁ወዲያው":3636,"▁ዘርፎች":3637,"▁ጀመረ":3638,"▁አመራሮች":3639,"ዓመቱ":3640,"ሔራዊ":3641,"ችና":3642,"ረገ":3643,"▁መለስ":3644,"▁እስቲ":3645,"ኒው":3646,"▁አቅርቦት":3647,"▁ይደረ":3648,"▁ህይወ":3649,"ባር":3650,"▁ዋነኛ":3651,"▁ባለፈ":3652,"▁ቤተሰብ":3653,"መጥ":3654,"▁ግንቦት":3655,"▁ጠየ":3656,"▁ተወካዮች":3657,"▁ከ2":3658,"▁የኢንዱስትሪ":3659,"▁ተብሏል":3660,"ሬን":3661,"ጋና":3662,"▁ለማወቅ":3663,"▁ጠቃሚ":3664,"▁ሜዳሊያ":3665,"▁ሙዚቃ":3666,"▁መሆናቸው":3667,"ንሰር":3668,"▁ከውጭ":3669,"▁ታሪካ":3670,"ገኘውን":3671,"ድድሩ":3672,"▁እያስ":3673,"▁ወይስ":3674,"ንዳንድ":3675,"▁እኛም":3676,"ደማ":3677,"ዛሬው":3678,"▁ዛሬም":3679,"ምራት":3680,"▁የማያ":3681,"▁በአብዛ":3682,"ነቅ":3683,"▁በፊ":3684,"▁ግምት":3685,"ቻለው":3686,"ያለሁ":3687,"▁ተመልክ":3688,"▁ተሞክሮ":3689,"ችውን":3690,"ኖችን":3691,"▁ብዙም":3692,"▁አንስቶ":3693,"▁እንደም":3694,"▁ሰጪ":3695,"▁በተግባር":3696,"በሳ":3697,"▁ሐሳ":3698,"ፍራት":3699,"▁ወንጀል":3700,"▁ፈጣን":3701,"▁ትግ":3702,"ላውያን":3703,"ፓርቲ":3704,"▁ቁጥጥር":3705,"ቃወ":3706,"▁አንቀጽ":3707,"ችበት":3708,"▁የወን":3709,"al":3710,"▁የተባለ":3711,"ብሮ":3712,"▁አንድም":3713,"▁የወርቅ":3714,"ቁር":3715,"ኖርም":3716,"▁ከሕ":3717,"▁በመንግሥት":3718,"ጀምር":3719,"▁እንዳሉ":3720,"▁ይወ":3721,"▁ምሥራ":3722,"▁በመን":3723,"▁ዘላቂ":3724,"▁በእጅ":3725,"▁በፕ":3726,"▁ፌዴሬሽን":3727,"▁በደቡብ":3728,"▁ያስረዳ":3729,"ልድ":3730,"▁እየተደረገ":3731,"or":3732,"▁በዋ":3733,"▁ጓደኛ":3734,"▁ተችሏል":3735,"▁በአገራችን":3736,"▁ጊዜያት":3737,"▁ሲሆኑ":3738,"▁ተደርጓል":3739,"▁መድኃ":3740,"▁አንደኛ":3741,"▁ደህን":3742,"▁ለጥ":3743,"ዥን":3744,"▁የፌዴራል":3745,"▁መንፈሳዊ":3746,"▁የተጠቀ":3747,"▁ማህበራት":3748,"መኑ":3749,"ከሩ":3750,"ራፊ":3751,"▁አድራ":3752,"መሩ":3753,"▁ስቴ":3754,"▁የሕግ":3755,"ሪሚ":3756,"▁ስጋት":3757,"ሬዚዳን":3758,"▁ጴጥ":3759,"▁ነውና":3760,"▁መፍጠር":3761,"▁ከመንግ":3762,"▁ይናገራል":3763,"ማሩ":3764,"▁ይነ":3765,"ህም":3766,"ተኞችን":3767,"ፍቶ":3768,"▁እንዳልሆነ":3769,"▁ለማለት":3770,"▁በየዓመቱ":3771,"▁ፕሮጀክቶች":3772,"▁አልባ":3773,"▁አዲሱ":3774,"▁ከጊዜ":3775,"▁ፖለቲካዊ":3776,"ፕሎ":3777,"ግለጽ":3778,"ሳሽ":3779,"ላሚ":3780,"ገባት":3781,"▁ፖሊስ":3782,"▁የሰብ":3783,"ሏቸው":3784,"▁ሰም":3785,"▁የሚኖሩ":3786,"▁ለሌሎች":3787,"▁በዘርፉ":3788,"▁ትልቁ":3789,"▁ሀሳብ":3790,"▁የሚያደርግ":3791,"▁ማህበረሰብ":3792,"▁አስኪያ":3793,"▁ሆቴል":3794,"ከናወነ":3795,"▁በፖ":3796,"▁የፊ":3797,"▁ታሪ":3798,"ባኤ":3799,"▁ሃሳ":3800,"▁ይጠይ":3801,"ካተ":3802,"▁የሚያው":3803,"▁የሚሰጠው":3804,"ሳችን":3805,"ውጣ":3806,"▁ዳዊት":3807,"▁አመልክተዋል":3808,"▁አዘጋጅ":3809,"ጫወት":3810,"ጨበ":3811,"ቢው":3812,"▁ህብረተሰቡ":3813,"ዘጋጀው":3814,"ይታ":3815,"ችም":3816,"ረር":3817,"▁የእግር":3818,"ከተለው":3819,"ታወቀው":3820,"▁የሠ":3821,"▁በቀጥታ":3822,"ንባታ":3823,"▁መስተ":3824,"▁ላይም":3825,"ውንም":3826,"▁ይገልጻሉ":3827,"▁የዜ":3828,"▁ለሰ":3829,"▁ሕክምና":3830,"▁መጥፎ":3831,"▁ግል":3832,"▁ባለሥልጣ":3833,"ደበኛ":3834,"ስተኛው":3835,"▁ልም":3836,"▁[":3837,"ማሊያ":3838,"ይቱ":3839,"▁ኤል":3840,"▁ያለመ":3841,"መጣል":3842,"▁ነጥ":3843,"▁ድንጋ":3844,"▁ተመራ":3845,"▁የደረሰ":3846,"▁ሽማግሌ":3847,"ሳስ":3848,"▁]":3849,"▁ግለሰቦች":3850,"ፈለገው":3851,"ኬት":3852,"▁ማብራ":3853,"▁ቢያንስ":3854,"▁29":3855,"▁ተል":3856,"▁ደግሞም":3857,"▁በግል":3858,"ነበሩ":3859,"በራቸው":3860,"▁አስቀ":3861,"▁በያህዌ":3862,"▁የአውሮፓ":3863,"▁ሣ":3864,"▁አና":3865,"▁መፅ":3866,"▁ጂ":3867,"▁ክርስቲያን":3868,"ደቅ":3869,"ረኛ":3870,"ዶችን":3871,"▁አለች":3872,"ሕፈት":3873,"ደስ":3874,"ብቅ":3875,"▁አስተያየ":3876,"▁ስህተት":3877,"ላንድ":3878,"▁ሆስፒታል":3879,"▁አንጻ":3880,"▁40":3881,"▁አያስ":3882,"▁መልእ":3883,"▁ብዛት":3884,"▁ስለነበር":3885,"ኘው":3886,"ፃፀ":3887,"▁አግባብ":3888,"ንድነው":3889,"ግዳ":3890,"▁ሚዲያ":3891,"▁ተፈጥሮ":3892,"▁እሱን":3893,"▁ቡድኑ":3894,"▁ጓደ":3895,"▁እዚያ":3896,"▁በሐ":3897,"ላትን":3898,"▁አስፈጻሚ":3899,"ዋሳ":3900,"ጀር":3901,"▁ክስ":3902,"▁ጠቀ":3903,"▁አመታት":3904,"▁ሰጥቶ":3905,"▁አምራ":3906,"▁ፕሮፌ":3907,"ጨመረ":3908,"▁ተነስ":3909,"ዳም":3910,"ጣኝ":3911,"▁አለም":3912,"ይነት":3913,"ብናል":3914,"ተኮ":3915,"▁እንደሚሆን":3916,"ለድ":3917,"ረጅም":3918,"▁ስሙ":3919,"ለጋ":3920,"▁ግም":3921,"ባባይ":3922,"▁በን":3923,"▁ስለሆነም":3924,"▁ስላል":3925,"ንስሳት":3926,"▁መስክ":3927,"ወራ":3928,"▁አይገባ":3929,"▁ጨዋታዎች":3930,"ቅዱ":3931,"▁ይባላል":3932,"▁ከራ":3933,"▁የሚሰጥ":3934,"▁ደንበ":3935,"ስተዋል":3936,"ታዎች":3937,"ሆና":3938,"ሸት":3939,"▁ጫና":3940,"ኤላውያን":3941,"▁አደሩ":3942,"ከሰት":3943,"ለየ":3944,"ክቶ":3945,"ገመ":3946,"▁እየታ":3947,"▁ብድር":3948,"▁በአብዛኛው":3949,"ጋቢት":3950,"▁ወርቅ":3951,"ጫው":3952,"▁ደጋፊ":3953,"ገልገል":3954,"ሰቦ":3955,"▁በድር":3956,"▁አንድነት":3957,"▁ማጥ":3958,"▁ካር":3959,"▁ሃላፊ":3960,"ረዳው":3961,"▁ዳን":3962,"ኖረ":3963,"▁ኃጢ":3964,"ለመ":3965,"▁በፍጥነት":3966,"ከቱ":3967,"ናሽ":3968,"▁ቋሚ":3969,"ለብ":3970,"ኳር":3971,"▁ምዕራፍ":3972,"▁ሚስት":3973,"ብርሃ":3974,"ናንተ":3975,"▁ፋይ":3976,"▁ይጠበቅ":3977,"▁የገለጹት":3978,"▁ወይንም":3979,"▁እውቀት":3980,"መለከቱ":3981,"▁2007":3982,"▁ወሬ":3983,"▁የሚቀ":3984,"▁አትሌቲክስ":3985,"▁እውነተኛ":3986,"ዞኑ":3987,"▁ኬንያ":3988,"ዛው":3989,"ድሜ":3990,"▁አደረጃ":3991,"▁እነሱም":3992,"ፕሎማ":3993,"▁ደራሲ":3994,"ፈለገ":3995,"▁በነፃ":3996,"▁ከ19":3997,"▁አስመልክቶ":3998,"▁ሎ":3999,"▁አታ":4000,"▁ጠባ":4001,"ካይ":4002,"▁ስና":4003,"▁ቀዳሚ":4004,"▁አለብን":4005,"ሪስ":4006,"በስ":4007,"▁ክርስቲያኖች":4008,"▁ተቀባይነት":4009,"▁ሥራው":4010,"ሬሽን":4011,"▁አረ":4012,"▁ከደ":4013,"▁በቆ":4014,"ካሄዱ":4015,"▁የኪ":4016,"▁ሀገራት":4017,"ኑት":4018,"▁መጻሕ":4019,"▁50":4020,"▁አፈጻጸ":4021,"ሊያን":4022,"ስትራክ":4023,"▁ተሰማ":4024,"ዳዩ":4025,"▁እንዳስ":4026,"▁ቀርቶ":4027,"▁እንዳለባቸው":4028,"ቅን":4029,"ያቸውን":4030,"▁ቫ":4031,"▁መስሪያ":4032,"▁መሥሪያ":4033,"▁ይኸውም":4034,"es":4035,"▁ተወዳዳሪ":4036,"▁የሲ":4037,"ያሉ":4038,"እምሮ":4039,"▁ከት":4040,"▁የአካባቢ":4041,"መዝገብ":4042,"የሩሳሌ":4043,"ለታል":4044,"ሪንግ":4045,"ሪት":4046,"▁ቪ":4047,"▁ትስ":4048,"ታና":4049,"ሰቢያ":4050,"▁መገናኛ":4051,"በረሰቡ":4052,"▁በኋላም":4053,"▁አውጥ":4054,"ዮርጊ":4055,"▁ወዳጅ":4056,"▁ሰላማዊ":4057,"▁የህክምና":4058,"▁መጨ":4059,"ቃሽ":4060,"▁ውስ":4061,"▁ድርጅቱ":4062,"ሌቪ":4063,"▁ጠቀሜ":4064,"▁ማዳ":4065,"▁​":4066,"▁አገራዊ":4067,"▁ካሳ":4068,"ደገፍ":4069,"▁በሰጡት":4070,"▁የደቡብ":4071,"ኬሽን":4072,"ጉር":4073,"ፖርቱ":4074,"▁ሠር":4075,"▁የሌለው":4076,"▁ተብለው":4077,"▁መጽ":4078,"▁ቀና":4079,"▁ያሰ":4080,"▁የተቃ":4081,"ላለም":4082,"▁ቀጣይ":4083,"▁በምት":4084,"▁የኤሌክትሪክ":4085,"▁ርዕስ":4086,"▁ሺሕ":4087,"▁በመሆናቸው":4088,"▁የየ":4089,"ህር":4090,"▁ለግ":4091,"▁ለሚያ":4092,"▁በጋ":4093,"መለከታቸው":4094,"▁ዙር":4095,"ንቶ":4096,"▁የሚጠይ":4097,"ፃሚ":4098,"▁ይጠቀ":4099,"ሊክ":4100,"▁መገለ":4101,"▁ደንብ":4102,"ልቃ":4103,"▁በውጭ":4104,"▁ብዙኃ":4105,"ሌት":4106,"ነብ":4107,"▁መሐ":4108,"ዚያን":4109,"▁ለመፍጠር":4110,"ላለህ":4111,"▁ማብራሪያ":4112,"ሸጋ":4113,"▁ይህንኑ":4114,"▁ጉዳዩን":4115,"▁ሲነ":4116,"▁ለሙ":4117,"▁አይቻልም":4118,"▁ፈር":4119,"▁ክፍተት":4120,"▁የተሳ":4121,"▁ገንዘ":4122,"▁ህዝ":4123,"ያንዳን":4124,"ማማ":4125,"▁ክር":4126,"▁ትክክል":4127,"▁መጠየ":4128,"▁የግን":4129,"▁ለገ":4130,"▁ለማረጋገጥ":4131,"▁ማቅረብ":4132,"▁ሥጋ":4133,"ገማ":4134,"ረበ":4135,"▁ይኸው":4136,"ለሽ":4137,"▁በቦ":4138,"▁ጤ":4139,"ወሰነ":4140,"▁መኖሪያ":4141,"ዮችን":4142,"▁የሚመጣ":4143,"▁አስታውቀዋል":4144,"ንታዊ":4145,"አዊ":4146,"ከም":4147,"▁ፒ":4148,"is":4149,"ሻው":4150,"▁ምሽ":4151,"▁በኢን":4152,"ፎካ":4153,"ጋሉ":4154,"▁አደሮች":4155,"▁ይደረጋል":4156,"ሲያ":4157,"ዛል":4158,"ፈዋል":4159,"▁ካሉ":4160,"▁ወታደራዊ":4161,"▁ምኒልክ":4162,"▁ስለሚያ":4163,"▁እንዳያ":4164,"▁ሄደ":4165,"ከረም":4166,"▁ኮር":4167,"ካች":4168,"▁ኢንቨስትመንት":4169,"ኑም":4170,"ጣዩ":4171,"▁አብዛኞቹ":4172,"▁በየአ":4173,"▁በአሜሪካ":4174,"ነውን":4175,"▁ዕርምጃ":4176,"▁የዲ":4177,"▁ግዴታ":4178,"ሊና":4179,"ክሮች":4180,"▁መገኘ":4181,"▁የተወ":4182,"▁የመንግሥ":4183,"ቸውም":4184,"▁በተለያየ":4185,"▁ክስተ":4186,"▁ሃይ":4187,"ድሶ":4188,"▁የን":4189,"▁ማመን":4190,"ከበረ":4191,"▁ኑ":4192,"▁አያው":4193,"▁ብሔር":4194,"▁ስርዓ":4195,"▁ይረዳ":4196,"▁ፀረ":4197,"ኩን":4198,"▁የአን":4199,"ናቱ":4200,"ድቅ":4201,"▁በድን":4202,"▁የሚያሳይ":4203,"ሾች":4204,"▁መዘ":4205,"▁ጥፋት":4206,"▁ከአዲስ":4207,"▁ስምንት":4208,"▁ቀይ":4209,"▁አንጻር":4210,"▁ሃይማኖ":4211,"▁መዝሙር":4212,"ስትራክሽን":4213,"ፈሩ":4214,"▁ፊል":4215,"▁የጽ":4216,"▁አይደሉም":4217,"ጥን":4218,"ቆር":4219,"ክኒክ":4220,"ለዋ":4221,"▁መንግሥታዊ":4222,"▁ይኖርበታል":4223,"▁አንደኛው":4224,"▁ፉ":4225,"▁ባለድርሻ":4226,"▁ሌሎችም":4227,"መዘገቡ":4228,"ጹም":4229,"▁መቼም":4230,"▁ያነሳ":4231,"▁የአገሪቱን":4232,"▁አሰልጣኝ":4233,"▁ለቀ":4234,"▁፦":4235,"▁የዴሞክራሲ":4236,"▁ተናግሯል":4237,"ጪው":4238,"▁የሸ":4239,"▁የተመረ":4240,"▁እያንዳንዱ":4241,"▁በስተቀር":4242,"▁ለጎ":4243,"▁የወሰ":4244,"▁ቆይቷል":4245,"▁የእኛ":4246,"ወስድ":4247,"▁ዘመቻ":4248,"ብነት":4249,"▁አቀፉ":4250,"ስራቅ":4251,"▁ገብቶ":4252,"▁ሰኔ":4253,"ማሪዎች":4254,"▁ዜጋ":4255,"▁ያመለክታል":4256,"ሞችን":4257,"ገንዝ":4258,"▁ኅብረት":4259,"▁ሽልማት":4260,"ar":4261,"▁ብሎም":4262,"▁እንደሚሉት":4263,"▁ምናልባት":4264,"▁አጠቃ":4265,"▁አገልጋ":4266,"▁ክን":4267,"ፈታ":4268,"▁አሳይ":4269,"ከበ":4270,"▁ብርሃ":4271,"ሊን":4272,"▁አማራ":4273,"ፈጽ":4274,"▁ክብ":4275,"▁ሂደ":4276,"መዘገበ":4277,"▁በቴ":4278,"▁መሬ":4279,"ዮቹ":4280,"▁ሁል":4281,"▁በዳ":4282,"▁አቅራ":4283,"ብቻ":4284,"▁አሻ":4285,"▁የተናገሩት":4286,"▁አገሪ":4287,"ደሩ":4288,"▁ካልሆነ":4289,"▁ተጨዋ":4290,"▁በተካሄደው":4291,"▁ሥራውን":4292,"▁ሳይንስ":4293,"ዳሉ":4294,"▁በማህ":4295,"ባባሪ":4296,"ርሱ":4297,"▁ዘግ":4298,"▁የገበያ":4299,"▁ባህላዊ":4300,"▁ለመጀመሪያ":4301,"▁የካቲት":4302,"ሎምፒክ":4303,"▁በጽ":4304,"▁ይጠቁ":4305,"▁የገባ":4306,"▁ዝናብ":4307,"▁ተስማ":4308,"▁እኔን":4309,"ሐይ":4310,"▁ጄ":4311,"ላቱ":4312,"▁የተከሰ":4313,"ርነት":4314,"▁መልሶ":4315,"ጋጠ":4316,"▁ግርማ":4317,"▁የሚገ":4318,"▁አብረው":4319,"ሠራው":4320,"▁ቀጥሎ":4321,"▁በትክክል":4322,"ኳይ":4323,"▁በ199":4324,"▁ልጃ":4325,"▁ታዳጊ":4326,"▁th":4327,"▁ስጦ":4328,"▁በመካ":4329,"▁ያሳያል":4330,"▁እራ":4331,"▁መደረጉ":4332,"▁ማሳያ":4333,"▁በኃ":4334,"▁ጊዜም":4335,"▁ገለጻ":4336,"ለናል":4337,"▁ሔ":4338,"▁የማን":4339,"▁የላ":4340,"▁የሚቆጠሩ":4341,"▁እየሆነ":4342,"▁የሆ":4343,"▁መገ":4344,"▁የሰላም":4345,"▁ይሰጣል":4346,"ጎችን":4347,"▁ሆነዋል":4348,"▁ሙከራ":4349,"▁ዝግጁ":4350,"▁ኮሌ":4351,"▁ሄክታር":4352,"▁ለይ":4353,"▁የሚመራ":4354,"▁በውስ":4355,"ንታ":4356,"▁በደንብ":4357,"ልኮ":4358,"▁የሴ":4359,"▁መናገር":4360,"▁ሲያስ":4361,"▁የተባሉ":4362,"▁ጥቃ":4363,"▁ከተለያዩ":4364,"▁መባ":4365,"ነሳት":4366,"ግሪ":4367,"▁ተነሳ":4368,"ሰማይ":4369,"ክልል":4370,"▁ሆኑ":4371,"▁ከሆኑ":4372,"▁አለመሆኑ":4373,"ጥፍ":4374,"▁አይሆንም":4375,"▁የእኔ":4376,"▁ኡ":4377,"▁አሠ":4378,"▁ችሏል":4379,"▁የፋይናንስ":4380,"▁በ2":4381,"▁አስቀድሞ":4382,"ዝነስ":4383,"▁መኮ":4384,"▁ግዙ":4385,"▁ፈል":4386,"ዕምሮ":4387,"▁መራ":4388,"▁ልብስ":4389,"ነገረ":4390,"▁በማይ":4391,"▁አለን":4392,"▁አምባሳ":4393,"ቢት":4394,"የውን":4395,"▁ፈረን":4396,"▁ልማትና":4397,"▁ይኖራል":4398,"▁ተደራሽ":4399,"▁በቤተ":4400,"▁የውድድር":4401,"▁ፍር":4402,"▁ብርሃን":4403,"▁በምድር":4404,"ረጋገጠ":4405,"ግግር":4406,"ክበር":4407,"▁ከፊ":4408,"▁ግዛት":4409,"ጆቹ":4410,"▁የፍት":4411,"▁የፈጠ":4412,"▁እርግጥ":4413,"▁ማረጋገ":4414,"▁የአምላክን":4415,"ቶቹን":4416,"▁ተቃውሞ":4417,"▁ቅድሚያ":4418,"▁አንብብ":4419,"▁የማድረግ":4420,"▁የተመሰ":4421,"▁ጽህፈት":4422,"ሪሚየር":4423,"▁ማረ":4424,"▁ለማን":4425,"ምረ":4426,"▁ስነ":4427,"ቆት":4428,"▁መመር":4429,"▁አዘ":4430,"▁በአንዳንድ":4431,"ከለኛ":4432,"▁ግብርና":4433,"ያስፖ":4434,"▁የሽብር":4435,"▁በአምላክ":4436,"ፍረት":4437,"▁ቸ":4438,"▁ለል":4439,"▁የኅ":4440,"ዮርጊስ":4441,"ኩም":4442,"▁ሠራዊት":4443,"ላችንም":4444,"ስበው":4445,"▁መና":4446,"▁ጽሕፈት":4447,"▁ቃላት":4448,"የሩሳሌም":4449,"▁መሄድ":4450,"▁ወደሚ":4451,"▁እድሜ":4452,"▁ኪራይ":4453,"ገለጸው":4454,"▁መደ":4455,"▁ይሆናሉ":4456,"▁ማኅበር":4457,"▁ከአን":4458,"▁እየተሰራ":4459,"ያችን":4460,"▁በ3":4461,"▁በየት":4462,"▁ሠራተኛ":4463,"▁ስልጣን":4464,"ሽከርካሪ":4465,"ሸጥ":4466,"ፅኦ":4467,"▁በርስ":4468,"▁በተቃ":4469,"▁ገዢ":4470,"ሸን":4471,"ሙና":4472,"▁ግጭት":4473,"▁ፈጣሪ":4474,"▁ስኬት":4475,"ባማ":4476,"▁የምር":4477,"ፈልግም":4478,"▁የተደረገ":4479,"ገነዘ":4480,"▁ባለሀብቶች":4481,"ክብ":4482,"ንታል":4483,"▁ትእ":4484,"▁የሁለ":4485,"▁በብዛት":4486,"▁አስታውቋል":4487,"▁ማቴዎስ":4488,"ጠባ":4489,"▁A":4490,"▁o":4491,"ንዶች":4492,"ፁት":4493,"▁ብሔረሰቦች":4494,"ድሮስ":4495,"▁ዘርፉ":4496,"▁ከድ":4497,"ራንስፖርት":4498,"▁ካፒ":4499,"▁አየ":4500,"▁አድርገዋል":4501,"▁ተጠቃሚነት":4502,"ሴፍ":4503,"▁ዝርዝር":4504,"ምረው":4505,"▁ምልክት":4506,"ቢሲ":4507,"▁ውጤቶች":4508,"ፈፀም":4509,"ሟላት":4510,"▁ቻይና":4511,"ረሱ":4512,"▁ሥፍራ":4513,"▁ወላጆች":4514,"▁ስለም":4515,"▁መምጣ":4516,"▁የመንገድ":4517,"ዊው":4518,"▁ዝቅተኛ":4519,"ባትም":4520,"▁ያደረ":4521,"▁ግር":4522,"▁ትዝ":4523,"▁ክርስቶስ":4524,"▁ለመስራት":4525,"ናትና":4526,"▁እነሆ":4527,"ድግ":4528,"▁ያኔ":4529,"ሊስ":4530,"ልቶ":4531,"ሰና":4532,"ቃስ":4533,"▁ይተ":4534,"▁ድርቅ":4535,"▁አሳል":4536,"▁ህል":4537,"ርን":4538,"▁የቁ":4539,"▁በሳ":4540,"▁መጋቢት":4541,"/ቤት":4542,"▁አብረ":4543,"▁ከጎ":4544,"▁መሆኗ":4545,"▁ትናንት":4546,"▁የሩ":4547,"▁የለበትም":4548,"ዟል":4549,"▁ፈጽሞ":4550,"▁ተደ":4551,"▁ብዙዎች":4552,"▁በዋናነት":4553,"▁ሁሌ":4554,"▁የራሱን":4555,"ስቲ":4556,"▁አውሮፓ":4557,"ስቸ":4558,"▁የዛሬ":4559,"▁መንስ":4560,"▁ዝግጅ":4561,"ሌቪዥን":4562,"ስተዳደር":4563,"▁በምርጫ":4564,"▁ባሉት":4565,"መስል":4566,"ሎን":4567,"▁አካሄድ":4568,"▁ማሰብ":4569,"▁የራሱ":4570,"▁ተጽዕኖ":4571,"▁የቡ":4572,"▁በቃል":4573,"ያዘው":4574,"▁ከዘ":4575,"▁ሥልጣ":4576,"▁እየጨመረ":4577,"ሉትን":4578,"▁በካ":4579,"▁ከ4":4580,"60":4581,"▁የሚታይ":4582,"▁ብቸ":4583,"ሊያም":4584,"▁ችሎታ":4585,"ካሪዎች":4586,"▁ያስች":4587,"ሄደ":4588,"▁አሉት":4589,"▁መከላከያ":4590,"ዛሪ":4591,"▁ቅን":4592,"▁ወ/":4593,"▁እንደሚገኝ":4594,"▁ዝርያ":4595,"▁አብዮ":4596,"▁ጠቅላላ":4597,"▁ጴጥሮስ":4598,"▁ሰማይ":4599,"▁ወንዝ":4600,"▁የሚያስተ":4601,"▁እንዲያገኙ":4602,"▁እንድታ":4603,"▁የመሬት":4604,"▁አገራችን":4605,"▁ስምም":4606,"ወሰድ":4607,"▁ግንባር":4608,"ገበው":4609,"በለ":4610,"▁ሰዓ":4611,"▁መቻ":4612,"▁መጋ":4613,"▁ኢዮ":4614,"▁እያሳ":4615,"ኬንያ":4616,"ፈነ":4617,"▁መከላከል":4618,"▁እንደዚህ":4619,"▁ሽብር":4620,"▁የገቢ":4621,"▁የሚነ":4622,"▁ማርያም":4623,"▁ህብረት":4624,"▁ምርቶች":4625,"▁ሥራዎችን":4626,"▁ክፍተ":4627,"▁ጎዳና":4628,"▁ቅርንጫ":4629,"▁ነጻ":4630,"ዝዳን":4631,"▁መጠበቅ":4632,"▁ከሁሉም":4633,"በዛ":4634,"ነታችን":4635,"▁የሚደረግ":4636,"ከፊ":4637,"ጄሪያ":4638,"ገሪቷ":4639,"▁ፌዴሬሽኑ":4640,"▁ሩጫ":4641,"▁የላቀ":4642,"ጊዜም":4643,"ትንና":4644,"▁ሁለቱም":4645,"▁ጸሐፊ":4646,"▁በሆኑ":4647,"ቋረጥ":4648,"ንበት":4649,"▁አፋ":4650,"▁እውን":4651,"▁የወደ":4652,"ጥረ":4653,"▁ምል":4654,"ዳቸውን":4655,"▁አስተዋፅኦ":4656,"▁ታሪካዊ":4657,"ዜአ":4658,"▁ደቀ":4659,"▁ኦሊምፒክ":4660,"▁በቀር":4661,"▁ሐዋ":4662,"▁ይጠቅ":4663,"▁የሴቶች":4664,"ባቸውም":4665,"ቀረበ":4666,"ለማችን":4667,"▁አለቃ":4668,"▁በራሳቸው":4669,"▁እንደሆነም":4670,"ቀች":4671,"▁ሳለ":4672,"ጣሊያ":4673,"▁ፈቃደኛ":4674,"ንቀሳቀስ":4675,"▁የኢትዮጵያን":4676,"▁ሉቃስ":4677,"ስተካከል":4678,"▁ያወ":4679,"ቃይ":4680,"ገዝ":4681,"ነዋል":4682,"▁በጭ":4683,"▁አንቺ":4684,"ርያት":4685,"▁ምናምን":4686,"ባሪ":4687,"▁አምላክን":4688,"▁ርዕሰ":4689,"ክክር":4690,"▁ልቦ":4691,"▁S":4692,"ያጭ":4693,"ቻችንን":4694,"ሰብሰብ":4695,"▁ይታያል":4696,"▁እንዳላቸው":4697,"ሳቁ":4698,"▁s":4699,"▁ተይ":4700,"ስፋፋ":4701,"▁በሕይወት":4702,"▁አስኪያጅ":4703,"ሰራው":4704,"ልት":4705,"ዞች":4706,"▁ኧ":4707,"ገባቸው":4708,"▁የሃይማኖት":4709,"▁ተተ":4710,"▁ውል":4711,"▁ቦርድ":4712,"ቀበል":4713,"ጥጥር":4714,"▁ነች":4715,"▁ለያህዌ":4716,"▁ያልሆነ":4717,"▁ተረ":4718,"▁በመጠ":4719,"▁ምድ":4720,"▁ታዋቂ":4721,"ለኝም":4722,"ለወጥ":4723,"▁ስታዲ":4724,"▁ከገ":4725,"▁ፍልስ":4726,"▁ያለፈ":4727,"▁አንዳንዴ":4728,"ሬዳ":4729,"▁ሳቢያ":4730,"ሁፍ":4731,"ሃት":4732,"ቃቤ":4733,"ፍሬ":4734,"ሮጀ":4735,"▁እባ":4736,"▁ያደረጉ":4737,"▁መምህር":4738,"ያሜ":4739,"▁እያደገ":4740,"▁ከመሆኑም":4741,"ፈጸመ":4742,"▁ደህንነት":4743,"▁ለመሆኑ":4744,"▁በሰላም":4745,"▁ነገሩ":4746,"ፍታ":4747,"▁እውቅና":4748,"ክሩ":4749,"▁ኃላፊዎች":4750,"ማው":4751,"▁ሰነድ":4752,"ሉና":4753,"▁ምንድነው":4754,"▁የሚያደርገው":4755,"▁በሚገኘው":4756,"▁ደሳ":4757,"▁ተጫዋቾች":4758,"▁ወጥቶ":4759,"▁ስቴት":4760,"ዳሜ":4761,"ብስ":4762,"▁መስጠ":4763,"▁መውሰድ":4764,"▁ስንት":4765,"▁አውሮፕ":4766,"ዎቻቸው":4767,"▁ወንድም":4768,"▁በሁለተኛው":4769,"ጓዴ":4770,"▁አንዳንዶቹ":4771,"▁ወሰ":4772,"ገስ":4773,"▁ማራቶን":4774,"ክተሩ":4775,"▁በላ":4776,"ዥም":4777,"ቡቲ":4778,"ዕቆ":4779,"▁ለመግ":4780,"▁ፊልም":4781,"ርዳታ":4782,"▁ስለማይ":4783,"ወሩ":4784,"ደራጀ":4785,"ብህ":4786,"▁ሃይማኖት":4787,"ጠየቅ":4788,"▁ተጨባጭ":4789,"▁ምሥክሮች":4790,"ቀና":4791,"ነበረበት":4792,"▁ተገቢውን":4793,"ምሌ":4794,"▁ጥልቅ":4795,"▁ገፅ":4796,"ደዋል":4797,"▁ድንገት":4798,"ወያ":4799,"▁በማቅረብ":4800,"▁የባህል":4801,"▁ምት":4802,"ለማርያም":4803,"▁ክብረ":4804,"▁ወንድሞች":4805,"▁መረ":4806,"▁ቀረ":4807,"▁የበኩ":4808,"ሷን":4809,"ጀራ":4810,"ገዱ":4811,"▁የሚያደር":4812,"ረንጓዴ":4813,"▁ይመስል":4814,"ዛን":4815,"ኖቹ":4816,"▁ቆይታ":4817,"▁ፕሮፌሰር":4818,"▁ደካ":4819,"▁አድርጋ":4820,"ረጋጋት":4821,"ዓ.ም":4822,"▁በነበረው":4823,"▁ሲታይ":4824,"ጠይቅ":4825,"▁በዛሬው":4826,"▁ታላቁ":4827,"▁ጢ":4828,"▁በሞ":4829,"መናዊ":4830,"▁አሳስ":4831,"▁የተባበሩት":4832,"▁በኦሮሚያ":4833,"ራፊክ":4834,"▁ኩንታል":4835,"ቶቻችን":4836,"ገግ":4837,"▁አቅርቦ":4838,"▁በመጀመሪያው":4839,"▁ቀስ":4840,"▁ፈጠራ":4841,"▁የቀረበ":4842,"ባችሁ":4843,"▁ተመር":4844,"▁በእጅጉ":4845,"▁እንግዳ":4846,"▁ቶሎ":4847,"▁ጉብኝ":4848,"ንቀሳቀሱ":4849,"▁መቃ":4850,"▁31":4851,"ችሉም":4852,"▁ማታ":4853,"ቿን":4854,"▁ባለሥልጣን":4855,"ቆጠር":4856,"▁አደረገ":4857,"▁ጥንቃቄ":4858,"▁ጆሮ":4859,"ቤን":4860,"ምም":4861,"ጠላ":4862,"ደረጃው":4863,"ያኑ":4864,"ግበር":4865,"▁ድንጋይ":4866,"▁የኦሮሚያ":4867,"ከታተል":4868,"ተኩ":4869,"▁የተለያየ":4870,"ክቱ":4871,"▁ባስ":4872,"▁ኤር":4873,"▁ሐኪ":4874,"▁እ.አ":4875,"▁ምንዛሪ":4876,"▁ጠላ":4877,"▁የእድ":4878,"ጽና":4879,"ነሽ":4880,"▁አስታወቀ":4881,"ጋንዳ":4882,"ሐዊ":4883,"▁የታሪክ":4884,"▁እስራኤላውያን":4885,"▁ለማየት":4886,"ረጋጋ":4887,"ሰባሰብ":4888,"ባችን":4889,"▁እንዲሰ":4890,"▁ዘጠኝ":4891,"/2008":4892,"▁ተው":4893,"▁የተጋ":4894,"▁ለመገንባት":4895,"▁ንጉሡ":4896,"▁መገለጫ":4897,"▁ግለሰብ":4898,"▁ሌሎችን":4899,"ማመን":4900,"▁እንደምን":4901,"ፓርላማ":4902,"ፋስ":4903,"▁የኔ":4904,"▁ያንን":4905,"▁ኤክስ":4906,"▁አደራ":4907,"ራቱ":4908,"▁በሩ":4909,"▁እ.አ.አ":4910,"▁ሃብት":4911,"▁ቅድመ":4912,"▁ትስስር":4913,"ሜዳ":4914,"▁ከ200":4915,"ቅናቄ":4916,"▁ሽን":4917,"እይ":4918,"▁ተራራ":4919,"▁ቅዱስን":4920,"ኩረት":4921,"▁የሚከተ":4922,"▁ሕጋዊ":4923,"ካን":4924,"▁የተሰጠው":4925,"ሰበው":4926,"▁የሳ":4927,"▁ክትትል":4928,"▁መረዳት":4929,"▁እርሻ":4930,"▁የሙዚቃ":4931,"▁ሕንፃ":4932,"▁ክህ":4933,"ቆስ":4934,"ፋው":4935,"▁እግዚአብሔር":4936,"በታ":4937,"▁የተጣ":4938,"▁በግብ":4939,"▁መጻሕፍት":4940,"ሺህ":4941,"▁ኢሕአዴግ":4942,"▁በሆ":4943,"▁ሃያ":4944,"▁w":4945,"▁ወጣቱ":4946,"▁ባሕር":4947,"▁ገዥ":4948,"▁የሠራ":4949,"▁ምኞ":4950,"▁ደሳለኝ":4951,"ኒስት":4952,"ድም":4953,"ጨምር":4954,"▁ገደማ":4955,"ማች":4956,"▁የሚገባው":4957,"ረምት":4958,"▁ለአብነት":4959,"ኖሪያ":4960,"ሙም":4961,"▁አጣ":4962,"▁ተዘጋጅ":4963,"▁የተቋቋ":4964,"ላቁ":4965,"▁በሚያስ":4966,"▁ስኬታማ":4967,"▁ጠባቂ":4968,"ዋለን":4969,"▁ኢንጂ":4970,"▁ተስፋዬ":4971,"▁በባለ":4972,"▁ኮርፖ":4973,"ለየት":4974,"▁የአካባቢው":4975,"▁ትብብር":4976,"▁በእርግጥም":4977,"▁ተካ":4978,"▁ሰብሳቢነት":4979,"▁ተከታታይ":4980,"በበ":4981,"▁የሙያ":4982,"▁በአጭር":4983,"ያም":4984,"▁አሥር":4985,"ንቱ":4986,"▁,":4987,"tion":4988,"▁ከባለ":4989,"▁የህዳሴ":4990,"▁የገለ":4991,"አትር":4992,"▁እል":4993,"▁የዋጋ":4994,"ጻሜ":4995,"ታኝ":4996,"ወጣት":4997,"▁አስር":4998,"ለለ":4999,"▁ያደረጉት":5000,"▁የይ":5001,"▁አዳራሽ":5002,"at":5003,"▁የተገኘው":5004,"▁ጋዜጠኛ":5005,"▁T":5006,"▁አይገባም":5007,"▁ለመሥራት":5008,"▁እየቀ":5009,"▁የሚሰጡ":5010,"▁በመላው":5011,"▁ያመ":5012,"▁ረጅም":5013,"▁አድና":5014,"▁ስጦታ":5015,"ስቀ":5016,"▁የሚፈልጉ":5017,"ዩም":5018,"ፐብ":5019,"▁ልጄ":5020,"ጀመርያ":5021,"▁ለአገር":5022,"ዕቆብ":5023,"▁እርሳቸው":5024,"▁0":5025,"▁ደርሶ":5026,"▁ሥርዓቱ":5027,"▁ብዙኃን":5028,"▁በእን":5029,"▁የሚሸ":5030,"▁የግንባታ":5031,"▁የኩ":5032,"▁ትችላለህ":5033,"▁መደበኛ":5034,"ገናኝ":5035,"ወዝ":5036,"▁ይገልጻል":5037,"▁ላለፉት":5038,"▁የጣ":5039,"▁ጥፋ":5040,"▁ማሳደግ":5041,"ሮም":5042,"▁መግባት":5043,"▁በመንፈ":5044,"▁ለማጥ":5045,"▁በራስ":5046,"▁እንዲያስ":5047,"▁በየደረጃው":5048,"▁ጀመሩ":5049,"▁ሳት":5050,"▁ጠቀሜታ":5051,"▁ሾ":5052,"ታወቁ":5053,"▁35":5054,"ነገሩ":5055,"ጨር":5056,"ዛቸው":5057,"▁የተጀመረው":5058,"▁ምርታማ":5059,"ሰማው":5060,"▁ግዙፍ":5061,"ዩን":5062,"▁ለሁለት":5063,"▁ኧረ":5064,"▁ሞክ":5065,"▁ደሞ":5066,"▁የተወሰነ":5067,"ቢያው":5068,"▁መቀመ":5069,"▁ማረጋገጥ":5070,"▁ግጥ":5071,"▁C":5072,"▁ልጁ":5073,"80":5074,"ዕል":5075,"▁የህግ":5076,"▁ነግ":5077,"▁ለማሳካት":5078,"ቂቅ":5079,"ሰለ":5080,"▁ሰላምና":5081,"ጠንቀ":5082,"▁አሊያም":5083,"▁ካላ":5084,"▁የጸ":5085,"▁ስያሜ":5086,"ደደ":5087,"▁መጽሐ":5088,"▁ለመታ":5089,"ፓን":5090,"▁የሚገቡ":5091,"ለውጥ":5092,"▁ኦባማ":5093,"▁ከየት":5094,"▁ያስታው":5095,"▁ልታ":5096,"▁በሚገኙ":5097,"▁ከዓለም":5098,"▁ግጭ":5099,"▁እየሠራ":5100,"▁አሰጣጥ":5101,"▁ምሁራን":5102,"▁እንስሳት":5103,"ረጠ":5104,"▁ሰለሞን":5105,"▁ይቀጥ":5106,"▁ከዓ":5107,"▁ምህ":5108,"▁ሦስተኛ":5109,"▁የምርምር":5110,"ሬዳዋ":5111,"ሪያው":5112,"አል":5113,"▁ሙሴ":5114,"▁አንዳንዶች":5115,"▁ወ/ሮ":5116,"▁ማረጋገጫ":5117,"ክህ":5118,"▁ሰብዓዊ":5119,"ችግሩ":5120,"ረሻ":5121,"▁አላማ":5122,"▁የአገልግሎት":5123,"▁ብለህ":5124,"ነጋግ":5125,"ኤአ":5126,"ደፍ":5127,"▁ውስጥም":5128,"▁ፕሬዝዳን":5129,"ስክ":5130,"▁ከፋ":5131,"▁አልቻለም":5132,"▁መያዝ":5133,"▁ቅጣት":5134,"▁በዓመት":5135,"ፌደ":5136,"ላለሁ":5137,"ሬው":5138,"▁ፋይዳ":5139,"▁አባባል":5140,"ያንዳንዱ":5141,"▁ለማቅረብ":5142,"▁አገኘ":5143,"▁መንደር":5144,"▁ነህ":5145,"▁የሚደረገው":5146,"▁እንድና":5147,"▁የደም":5148,"▁ተሰጥቶ":5149,"መታት":5150,"▁ተፈጥ":5151,"ስተማር":5152,"ናገረ":5153,"▁በፀ":5154,"▁በእኛ":5155,"ረቤት":5156,"ቪል":5157,"▁አዋጁ":5158,"▁የሚገኘውን":5159,"▁ይጠይቃል":5160,"▁ኒ":5161,"▁ያዘ":5162,"▁በመፍጠር":5163,"▁ለታ":5164,"▁ኢንስ":5165,"ሉበት":5166,"▁በዚያው":5167,"ገነቡ":5168,"▁the":5169,"ቀትና":5170,"▁እገዛ":5171,"ራለች":5172,"▁ያለባቸው":5173,"▁የዕድገትና":5174,"▁መልዕክት":5175,"▁የሚጠቀ":5176,"▁የሚናገሩት":5177,"▁ሳሙ":5178,"ጠበቁ":5179,"▁ደርሷል":5180,"ቆች":5181,"▁አብርሃ":5182,"▁ለት":5183,"▁በእኔ":5184,"▁ትል":5185,"▁c":5186,"▁ይገኙ":5187,"▁በመጥ":5188,"▁እንዲቀ":5189,"▁ለማስወገድ":5190,"▁ዲግሪ":5191,"ዎድሮስ":5192,"ናትን":5193,"▁ተበ":5194,"▁አንዷ":5195,"▁ተለይ":5196,"ስም":5197,"▁ለ1":5198,"▁ተም":5199,"▁የተገኘ":5200,"▁የተደረገው":5201,"▁እንዲኖር":5202,"መልከ":5203,"▁የአገራችን":5204,"▁ማንነት":5205,"▁ጊዮርጊስ":5206,"▁አፈጻጸም":5207,"ጥቅ":5208,"▁መኖሩን":5209,"▁ባለስልጣ":5210,"▁ተልዕ":5211,"▁ሆን":5212,"▁ሳን":5213,"ፈጸሙ":5214,"ቀሳቀ":5215,"▁አስቀም":5216,"▁ጨር":5217,"▁መቀጠል":5218,"▁ግቢ":5219,"ውንና":5220,"▁የተለመደ":5221,"ቅረፍ":5222,"▁መሰረታዊ":5223,"▁ፍቃ":5224,"ሪፖር":5225,"ቸት":5226,"ይዝ":5227,"▁ሃይል":5228,"▁ከየ":5229,"▁የመገናኛ":5230,"ፈለጉ":5231,"▁በቀን":5232,"ጣጠ":5233,"▁ቤቱን":5234,"▁ትርፍ":5235,"ሌን":5236,"▁ህዳሴ":5237,"▁ለሁሉም":5238,"▁ግምገማ":5239,"▁ማሳየት":5240,"▁አበረታ":5241,"ቶቻቸው":5242,"ለትን":5243,"▁በእው":5244,"ሳይንስ":5245,"▁አርቲ":5246,"▁የራሳቸውን":5247,"ሻሻያ":5248,"ቸግ":5249,"▁የመጣው":5250,"▁የኃይል":5251,"▁ብቅ":5252,"▁የአባ":5253,"▁ቁልፍ":5254,"▁እውነታ":5255,"▁በመንግስት":5256,"ማማኝ":5257,"ዝን":5258,"▁የጀመረው":5259,"▁እሳት":5260,"▁ያላት":5261,"▁ይደ":5262,"ራትና":5263,"▁በሚመለከት":5264,"▁ጠቅሰዋል":5265,"▁ያስረዳሉ":5266,"▁እኤአ":5267,"▁የኑሮ":5268,"ፎችን":5269,"▁ወንጀ":5270,"▁በሻ":5271,"▁ግማሽ":5272,"▁ባደረጉት":5273,"ኖስ":5274,"▁የሚጠበቅ":5275,"▁ሲመጣ":5276,"▁መንስኤ":5277,"▁የኮን":5278,"▁ወረዳዎች":5279,"ረፍት":5280,"ኝን":5281,"▁ድረ":5282,"▁of":5283,"ገጥ":5284,"ዋሪ":5285,"ጠጥ":5286,"▁ተፋ":5287,"▁32":5288,"▁ይቅርታ":5289,"▁የፓርቲ":5290,"ፈልገውን":5291,"▁መብቶች":5292,"▁በሚለው":5293,"▁አምባሳደር":5294,"▁ለማምጣት":5295,"▁አድርገ":5296,"▁እንደተናገሩት":5297,"▁ስደተኞች":5298,"ሁድ":5299,"ላጭ":5300,"▁ያልሆኑ":5301,"▁ለእኔ":5302,"ካቤ":5303,"▁ከዕ":5304,"ሽከርካሪዎች":5305,"▁ዲሞክራሲ":5306,"▁የመረጃ":5307,"▁እንደሚችሉ":5308,"▁የማዕ":5309,"▁ሕፃ":5310,"▁መግቢያ":5311,"▁በሕግ":5312,"▁የቴክኖሎጂ":5313,"ጋው":5314,"ንድሮው":5315,"▁አምላ":5316,"▁መጥቷል":5317,"▁አላት":5318,"ዘረ":5319,"▁የብዙ":5320,"ፊው":5321,"▁አቤቱ":5322,"▁ትራንስፖርት":5323,"ጓዙ":5324,"▁የአካል":5325,"▁ሁሉን":5326,"▁ብቃ":5327,"ቃለሁ":5328,"▁ይሻ":5329,"▁አበበ":5330,"ፐር":5331,"▁ቀለም":5332,"▁ሚስ":5333,"▁ሰይጣን":5334,"▁ከአገር":5335,"▁የሚያስችሉ":5336,"መኛ":5337,"▁መፈ":5338,"ያስፖራ":5339,"▁ደካማ":5340,"▁አላው":5341,"▁ኢንቨስት":5342,"it":5343,"ሰኝ":5344,"ስፋፋት":5345,"ዋላ":5346,"▁ለመመለስ":5347,"▁ቀል":5348,"▁የምንችለው":5349,"▁በሕገ":5350,"ያዝያ":5351,"ወረ":5352,"▁በጠ":5353,"▁ግንባታው":5354,"▁ባህሪ":5355,"▁ባንኮች":5356,"▁አሰፋ":5357,"▁ሁሌም":5358,"ic":5359,"ሶችን":5360,"መናት":5361,"ምቤ":5362,"▁ተጠር":5363,"▁በሴቶች":5364,"▁ለፍ":5365,"▁ካስ":5366,"▁እሳቸው":5367,"▁መጥቶ":5368,"ኛውንም":5369,"▁በውድድሩ":5370,"▁የብር":5371,"▁ባልተ":5372,"▁ተሻ":5373,"▁ሰባ":5374,"▁የቀድሞው":5375,"▁ዘፍ":5376,"ጎት":5377,"▁ሁላችንም":5378,"ዩኒቨርስቲ":5379,"▁መንገዱ":5380,"መናል":5381,"ማዊ":5382,"ረጡ":5383,"ነን":5384,"ዲና":5385,"▁መስከረም":5386,"▁ሰራተኞች":5387,"▁ሽግግር":5388,"▁ባለበት":5389,"▁የትራንስፖርት":5390,"▁ጣልቃ":5391,"▁ድምጽ":5392,"▁መድሃ":5393,"▁ሁልጊዜ":5394,"ራራ":5395,"▁የሚሆኑት":5396,"▁ቼ":5397,"▁ግጥም":5398,"ጨው":5399,"ቻችሁ":5400,"▁ቀውስ":5401,"▁ፍለጋ":5402,"▁የቤ":5403,"▁100":5404,"▁አብዛኛው":5405,"ስቸኳይ":5406,"▁የከፋ":5407,"ከሰቱ":5408,"▁መልእክት":5409,"ልናል":5410,"የቱ":5411,"▁ካላቸው":5412,"▁የእርሻ":5413,"▁ጥቁር":5414,"ትሌቲክስ":5415,"ደለ":5416,"▁ውስን":5417,"▁የመጡ":5418,"▁ተልዕኮ":5419,"▁ዓይን":5420,"▁ተመልከት":5421,"▁መምህራን":5422,"▁ማስታወቂያ":5423,"▁ሊቀመን":5424,"▁ቆር":5425,"▁ነገሥ":5426,"▁ይልቁ":5427,"▁ስልክ":5428,"▁የሰማ":5429,"ህጉ":5430,"▁በሆነው":5431,"▁የፈጠራ":5432,"▁ተነስቶ":5433,"ፕሎማሲ":5434,"▁ለጋ":5435,"▁ለበ":5436,"▁መድረኮች":5437,"▁ለሀ":5438,"▁እንዳት":5439,"▁ተጠናክሮ":5440,"▁የገቡ":5441,"▁ቤተሰቦች":5442,"ሊዝም":5443,"▁ድንጋጌ":5444,"ኩኝ":5445,"▁በበኩሉ":5446,"ታሰብ":5447,"▁ይጨ":5448,"▁በመም":5449,"▁ዛፍ":5450,"ለኛ":5451,"▁በአማ":5452,"▁ንቅናቄ":5453,"ዋዕት":5454,"▁ማግኘ":5455,"▁ለመንግ":5456,"▁I":5457,"▁ጋዜጠኞች":5458,"▁በቅርብ":5459,"▁ያወጣ":5460,"▁የውስጥ":5461,"▁አሳሳቢ":5462,"▁60":5463,"▁ልና":5464,"▁በፖለቲካ":5465,"▁የፈረን":5466,"▁ቱሪዝም":5467,"▁ሚሊ":5468,"▁ሽፋን":5469,"▁የእው":5470,"ሳችሁ":5471,"▁መሞ":5472,"▁የያህዌን":5473,"መንግ":5474,"ለስ":5475,"▁በመጽሐፍ":5476,"ቶችም":5477,"▁ሳል":5478,"ተህ":5479,"▁ከአፍሪካ":5480,"▁ብዙዎቹ":5481,"▁ፕሬዚዳንቱ":5482,"▁ያደርጋሉ":5483,"▁ውድድሩ":5484,"ኩበት":5485,"▁በጤና":5486,"▁በመታ":5487,"ንካሬ":5488,"ጌታ":5489,"ኳቸው":5490,"▁ይሰራ":5491,"▁ቢባል":5492,"▁በቅድ":5493,"▁የቻይና":5494,"▁እ.ኤ.አ.":5495,"ሊሲ":5496,"▁የበላይነት":5497,"ስል":5498,"▁ደስተኛ":5499,"▁በሚቀጥ":5500,"▁የእንግሊዝ":5501,"▁እንግሊዝ":5502,"▁ለመቀነስ":5503,"ጣቸውን":5504,"▁ገደብ":5505,"▁በመተባበር":5506,"ፋር":5507,"▁ለሰው":5508,"▁ሳይቀር":5509,"▁ተወስ":5510,"ድል":5511,"ሃድሶ":5512,"ሮሞ":5513,"ስሊ":5514,"▁በሂ":5515,"▁ብራ":5516,"▁ሌሎቹ":5517,"ሪፖርተር":5518,"▁በጊዜ":5519,"ፉም":5520,"▁ንጹ":5521,"▁ከሃ":5522,"▁ኮሚቴው":5523,"ሳችንን":5524,"▁ከቅርብ":5525,"▁ስላለ":5526,"▁የሚታዩ":5527,"ድዋ":5528,"▁p":5529,"▁የኢየሱስ":5530,"▁ዝውው":5531,"ስማማ":5532,"▁አይመስለኝም":5533,"ማሌ":5534,"▁የረ":5535,"ናውያን":5536,"▁የሌላቸው":5537,"▁አሉታዊ":5538,"▁ወድ":5539,"▁ኃይለማርያም":5540,"▁ፓርላማ":5541,"▁ያለም":5542,"▁ራእይ":5543,"▁አንዱን":5544,"ቀቅ":5545,"ዘዝ":5546,"▁ያደ":5547,"▁ሕጉ":5548,"መለከቱት":5549,"▁አንዴ":5550,"▁ኃይሌ":5551,"▁ለጉ":5552,"ደርጉት":5553,"▁የጎላ":5554,"ደራጀት":5555,"ነቃ":5556,"ስፈ":5557,"ለችው":5558,"▁34":5559,"▁አመልክቷል":5560,"ቀውን":5561,"ወቁ":5562,"▁ገዝ":5563,"▁የእንስሳት":5564,"ስቡ":5565,"ጦት":5566,"▁ማሽ":5567,"▁አስተዳደ":5568,"▁ለህዝብ":5569,"▁ትዕዛዝ":5570,"ረሰ":5571,"▁ከእሱ":5572,"▁ሰጥቷል":5573,"▁ሰጥተዋል":5574,"ዘነጋ":5575,"▁ይገልፃ":5576,"▁አዲ":5577,"▁ተፎካ":5578,"▁የእስራኤል":5579,"▁ከሰው":5580,"▁መስኮች":5581,"▁ቁጭ":5582,"▁ወታደሮች":5583,"▁እንስሳ":5584,"▁ይፈጥ":5585,"▁በህገ":5586,"ዳይ":5587,"ፋሉ":5588,"ለቲከ":5589,"▁ምንጮች":5590,"▁ምሽት":5591,"ተረ":5592,"ፋፋት":5593,"▁ቃለ":5594,"▁ታላላቅ":5595,"▁የተወሰኑ":5596,"▁ድንቅ":5597,"▁P":5598,"▁33":5599,"ጠራው":5600,"▁የተዘጋጀ":5601,"▁ሊኖር":5602,"ቲን":5603,"▁ማው":5604,"▁አስደ":5605,"▁እናቶች":5606,"ኳን":5607,"ይይት":5608,"ግድ":5609,"▁ለካ":5610,"▁ህጋዊ":5611,"▁ገልጸው":5612,"ዘም":5613,"ፍል":5614,"▁የጠቆ":5615,"▁የኢንቨስትመንት":5616,"ችሉት":5617,"ጃቸው":5618,"ንቲባ":5619,"re":5620,"▁ጻ":5621,"ላልቅ":5622,"ምሳ":5623,"ቃለን":5624,"ዎቻችን":5625,"▁መንግስታት":5626,"▁ንብረ":5627,"ያያ":5628,"አይ":5629,"ካቸው":5630,"ገለግል":5631,"▁እንቅፋት":5632,"▁መድኃኒት":5633,"▁አለመሆኑን":5634,"ንደር":5635,"▁አደባባይ":5636,"ጠለ":5637,"▁ከክ":5638,"▁የምክር":5639,"▁አማካይነት":5640,"ገላ":5641,"ጥና":5642,"▁የደን":5643,"▁ከማድረግ":5644,"ሞቹ":5645,"ፁም":5646,"▁በቢ":5647,"▁አብዱ":5648,"▁መሀል":5649,"▁ለባ":5650,"▁ቢኖር":5651,"▁ጠላት":5652,"ታወስ":5653,"▁ያለን":5654,"ዴን":5655,"▁በቡ":5656,"▁ከቤተ":5657,"▁በድጋሚ":5658,"ራኒ":5659,"▁በጦር":5660,"▁የተዋ":5661,"▁ለማስቀ":5662,"▁አጠቃቀም":5663,"ቾችን":5664,"ቷቸው":5665,"▁በተሻለ":5666,"▁የህዝቡ":5667,"▁ደጋግ":5668,"▁የሰብዓዊ":5669,"▁ለሙሉ":5670,"▁ጊዜው":5671,"▁በይፋ":5672,"ክረው":5673,"▁አገራቸው":5674,"ጣና":5675,"ስተናገድ":5676,"ጠቁ":5677,"ርያው":5678,"▁ተረጋግ":5679,"▁ባለማ":5680,"▁ተጠቃሽ":5681,"ከላዊ":5682,"▁በዝ":5683,"▁ይመጣል":5684,"ሰሙ":5685,"▁ከዛ":5686,"▁አልጋ":5687,"▁ይህንንም":5688,"በን":5689,"▁ከነበረው":5690,"ዝገባ":5691,"▁ስጋ":5692,"▁ዳንኤል":5693,"▁መጠየቅ":5694,"ዳድር":5695,"▁ኮንት":5696,"▁ስትል":5697,"ኮት":5698,"ጻናት":5699,"ደዱ":5700,"▁የሚደርስ":5701,"▁ስለማ":5702,"▁የሚበ":5703,"▁መቀነስ":5704,"▁አስፈላጊውን":5705,"▁የሁለት":5706,"ወሰኑ":5707,"▁ውይይ":5708,"ባሉት":5709,"እኖ":5710,"ፋሪ":5711,"መኝ":5712,"▁የልማ":5713,"▁ጫማ":5714,"▁ከበደ":5715,"ኖሩት":5716,"▁ብርቱ":5717,"▁የሚገኙት":5718,"▁ጦ":5719,"▁ችለዋል":5720,"▁ጉዳዮችን":5721,"▁ድንበር":5722,"▁መጀመ":5723,"▁የሚባሉ":5724,"▁ህመም":5725,"▁ይሠራ":5726,"▁በአካባቢ":5727,"▁ሚያዝያ":5728,"▁የፀረ":5729,"▁እርግጠኛ":5730,"ሱዳን":5731,"▁የያዙ":5732,"ቀርበው":5733,"ቀመጡ":5734,"▁አክብሮ":5735,"▁መካከለኛ":5736,"▁ፍላጐ":5737,"ጠብቅ":5738,"▁ለዓለም":5739,"▁ባላቸው":5740,"▁እናላችሁ":5741,"ገራል":5742,"▁ይፈል":5743,"▁ዘገባው":5744,"▁የቆየ":5745,"▁ኃጢአት":5746,"▁የሚኖር":5747,"ገናኙ":5748,"ሃዊ":5749,"▁ታማ":5750,"▁ለብዙ":5751,"▁ለሕዝብ":5752,"▁ገጽታ":5753,"▁በተደረገው":5754,"▁አብራር":5755,"ፈርት":5756,"▁ሼ":5757,"▁ይኖርብናል":5758,"▁የመሳሰሉ":5759,"ወትር":5760,"▁አውቶ":5761,"▁እንዲያደርጉ":5762,"▁ገብተው":5763,"ክቸ":5764,"▁በዛ":5765,"ላትና":5766,"ረቃ":5767,"ካው":5768,"▁ፎቶ":5769,"▁ለጎን":5770,"ዴት":5771,"▁እሺ":5772,"▁የተሰማሩ":5773,"ደርጋ":5774,"▁ምንጊዜም":5775,"መጣው":5776,"▁በከተማዋ":5777,"ናሽናል":5778,"▁ብሩ":5779,"▁ቁም":5780,"▁ፀሐፊ":5781,"ከትና":5782,"▁በሬ":5783,"▁የምርት":5784,"▁ጀር":5785,"ገዙ":5786,"▁ዘመኑ":5787,"▁ኮከብ":5788,"▁አምና":5789,"▁የሰጠው":5790,"ሃለሁ":5791,"ልኩ":5792,"▁ለነ":5793,"▁ሄዶ":5794,"▁ይኖረዋል":5795,"▁መኮንን":5796,"ከበሩ":5797,"ልቀት":5798,"ዲን":5799,"▁እንደነበረ":5800,"ጫወቱ":5801,"ቅል":5802,"▁ቴዎድሮስ":5803,"ራምፕ":5804,"/1":5805,"ጎዳ":5806,"ጐች":5807,"▁ተክ":5808,"om":5809,"ዘና":5810,"ብል":5811,"▁መውጣት":5812,"▁በተለየ":5813,"▁አድርገን":5814,"ምራ":5815,"ረዱት":5816,"ቷቸዋል":5817,"▁ይሉ":5818,"▁መንግስቱ":5819,"▁አስተባባሪ":5820,"▁መሰላችሁ":5821,"ጅነት":5822,"▁ከዋ":5823,"▁በመያዝ":5824,"ገኙበት":5825,"▁የሕይወት":5826,"ቆጣጠ":5827,"ለሙ":5828,"▁ከቆ":5829,"▁በመመ":5830,"▁የስነ":5831,"▁ምናልባትም":5832,"▁ነጥቦች":5833,"▁ተመልክቷል":5834,"▁ዓመታዊ":5835,"▁ሒደት":5836,"ፈጥር":5837,"▁የጊዜ":5838,"ረናል":5839,"▁ምድብ":5840,"▁አድርጌ":5841,"▁500":5842,"▁መዛሙር":5843,"ልበ":5844,"በዝ":5845,"ኸው":5846,"ያውቅ":5847,"▁የተሰኘ":5848,"▁ንግግ":5849,"▁የሚታየው":5850,"ፕራይ":5851,"▁ራሳቸው":5852,"ነሳው":5853,"ገኝም":5854,"ንሰ":5855,"▁የሚኖረው":5856,"▁እንደሌለ":5857,"ድሮ":5858,"▁መመልከት":5859,"▁የሚወስ":5860,"▁ማይ":5861,"▁ራዕ":5862,"▁ቤተሰቦ":5863,"ነቀ":5864,"ናን":5865,"▁ግብፅ":5866,"▁ክርክር":5867,"ግስት":5868,"▁የጠቀ":5869,"▁መገንባት":5870,"▁አማካሪ":5871,"▁የቤተሰብ":5872,"▁ጡ":5873,"▁አርብቶ":5874,"▁በሁለቱ":5875,"▁ወረቀት":5876,"▁መጠጥ":5877,"▁በረከት":5878,"▁በቀለ":5879,"▁በደስታ":5880,"▁ሲደርስ":5881,"▁አረጋግጠዋል":5882,"▁ሕፃናት":5883,"▁እዚያው":5884,"▁ማብ":5885,"ቱንና":5886,"ስኮ":5887,"ያያዙ":5888,"▁እንመልከት":5889,"▁ማስተማር":5890,"ሏት":5891,"▁ዊ":5892,"▁በሰማይ":5893,"▁መስሎ":5894,"▁የተመሠረተ":5895,"ቼን":5896,"▁ገበሬ":5897,"70":5898,"ነቷ":5899,"ዓላዊ":5900,"ጠናቀቁ":5901,"▁የተፈጠረ":5902,"▁እያደረጉ":5903,"▁በእሱ":5904,"ፌዴራ":5905,"▁ይዛ":5906,"▁ብረት":5907,"▁ቦር":5908,"▁እህል":5909,"▁ድህ":5910,"▁በመጨረሻም":5911,"ርተው":5912,"ከተሞች":5913,"▁አድርጐ":5914,"▁መግባባት":5915,"ነኛው":5916,"ክም":5917,"ዬው":5918,"▁ኮሌጅ":5919,"ጠንቀቂያ":5920,"ቋንቋ":5921,"ተውን":5922,"▁ለማድረስ":5923,"▁ፍጹም":5924,"▁የኢህአዴግ":5925,"▁ወቅታዊ":5926,"▁ለኢዜአ":5927,"▁የሊ":5928,"▁አደረ":5929,"▁ይወስ":5930,"▁ለእኛ":5931,"ናይት":5932,"ደናቂ":5933,"ጀርመን":5934,"▁አስተማማኝ":5935,"▁ዳግም":5936,"▁መቀመጫ":5937,"▁ለመግባት":5938,"▁ከሀ":5939,"▁ኤሌክትሪክ":5940,"ብረተሰቡን":5941,"ቂዎች":5942,"▁በዚያን":5943,"▁የተወለ":5944,"▁ማህበሩ":5945,"▁መብራት":5946,"▁ያስችላል":5947,"ቋሚ":5948,"▁መቅረ":5949,"ከትል":5950,"▁ሴቶችን":5951,"▁ተቋሙ":5952,"▁የሕክምና":5953,"ፀው":5954,"ፈቱ":5955,"▁ሌላኛው":5956,"▁በኢኮኖሚ":5957,"▁የትም":5958,"▁ጉድጓ":5959,"▁ለረጅም":5960,"▁ቀሪ":5961,"▁ነፍስ":5962,"ገዳ":5963,"▁ማሻሻያ":5964,"▁እንደሚቻል":5965,"ሪን":5966,"▁ለን":5967,"▁ረቂቅ":5968,"▁የሚያደርጉት":5969,"▁አቡ":5970,"▁የህብረተሰብ":5971,"መልስ":5972,"ጠናቀቀ":5973,"▁አቅርበዋል":5974,"▁ጌታቸው":5975,"ራቅ":5976,"▁ለዓ":5977,"▁ከ5":5978,"▁ከሞት":5979,"▁በመሰ":5980,"▁አይኖርም":5981,"ሮችና":5982,"▁በእዚህ":5983,"▁ባሪያ":5984,"▁ሰውየው":5985,"ክን":5986,"▁፲":5987,"▁ያውቃል":5988,"and":5989,"ed":5990,"▁ከጥቂት":5991,"▁ጥናቱ":5992,"ኝት":5993,"▁ሳምን":5994,"▁አካዳሚ":5995,"ርዳት":5996,"ካኤል":5997,"ፋዊ":5998,"▁ከመሆኑ":5999,"ስተዋወቅ":6000,"ልጥ":6001,"ቸዋለሁ":6002,"▁ለማጠናከር":6003,"ድስ":6004,"▁ይሸ":6005,"▁ሆኜ":6006,"▁ይገባዋል":6007,"▁ክስተት":6008,"▁ታውቃ":6009,"ing":6010,"በኞች":6011,"▁ያብራ":6012,"ገርም":6013,"ታቸውም":6014,"▁ኢንስቲት":6015,"ያውቁ":6016,"▁ቫይ":6017,"▁ስታዲየም":6018,"▁ፍቅ":6019,"▁እየተባለ":6020,"▁መርሃ":6021,"ደቀ":6022,"▁E":6023,"▁እዬ":6024,"▁የአመራ":6025,"▁ድህነት":6026,"▁አንድን":6027,"▁አሸን":6028,"▁በየትኛውም":6029,"▁ቶን":6030,"▁አረጋ":6031,"▁ሊሆኑ":6032,"▁ፖለቲከ":6033,"▁ማስተካ":6034,"ዕድ":6035,"▁ተቋቁ":6036,"ዩኒቨርሲቲው":6037,"ሰውን":6038,"ነሱት":6039,"▁የሚመጡ":6040,"▁አስፈፃሚ":6041,"▁ከመንግሥት":6042,"▁ስራው":6043,"▁መሰረተ":6044,"▁አንተም":6045,"▁አዛውን":6046,"ብና":6047,"ታትን":6048,"▁ቆሻሻ":6049,"▁ካፒታል":6050,"▁የሚሰሩ":6051,"▁የጀመረ":6052,"▁የሚሰራ":6053,"ሄራዊ":6054,"ገሉ":6055,"ጣሬ":6056,"▁ብዙሃን":6057,"ምቤላ":6058,"ፌዴሪ":6059,"▁ፍትሐዊ":6060,"ንዛ":6061,"▁ከእኔ":6062,"▁ስልጣ":6063,"▁ፍትሕ":6064,"ረከ":6065,"▁ታክሲ":6066,"▁አልቀረ":6067,"▁የአር":6068,"▁ድክ":6069,"▁የጠበቀ":6070,"▁በቤ":6071,"▁ከሞ":6072,"▁ቁሳቁ":6073,"▁ዳኛ":6074,"▁እርሱ":6075,"▁ማድረጉ":6076,"▁ባለስልጣን":6077,"▁ጭማሪ":6078,"▁2009":6079,"▁ከአምላክ":6080,"▁ይፈልጋል":6081,"▁የዶ":6082,"▁በ4":6083,"▁አልበ":6084,"▁የእን":6085,"▁የቅርብ":6086,"▁በዙ":6087,"▁ከንቲባ":6088,"▁ተጫዋች":6089,"ጎና":6090,"ፈና":6091,"▁በጠቅ":6092,"▁የተሰማ":6093,"▁ፀሐይ":6094,"በረታታ":6095,"▁ከሶ":6096,"▁ዕጣ":6097,"ገኘት":6098,"ላፊነት":6099,"▁ሽልማ":6100,"▁አምራች":6101,"▁መመለስ":6102,"▁በአማራ":6103,"▁ስለዚህም":6104,"▁የሀገር":6105,"ገኛል":6106,"▁አቻ":6107,"▁ከያህዌ":6108,"▁ምነው":6109,"▁አያውቅም":6110,"▁ይኖርባቸዋል":6111,"ኗኗ":6112,"▁ነባ":6113,"▁የተነ":6114,"ሬዚዳንት":6115,"መች":6116,"▁መኪ":6117,"▁ዲዛ":6118,"▁መጥተው":6119,"በተ":6120,"▁እንደመሆኑ":6121,"ኮር":6122,"▁a":6123,"▁የቡና":6124,"▁እንክብ":6125,"መለሰ":6126,"ግዚ":6127,"▁አደገኛ":6128,"▁የእርስ":6129,"▁አንገ":6130,"▁ዕርዳታ":6131,"ጸን":6132,"▁ጣቢያዎች":6133,"▁አላውቅም":6134,"ኝታ":6135,"▁ከምን":6136,"ርስቲያን":6137,"▁ጥናቶች":6138,"▁ጉብኝት":6139,"በሪያ":6140,"▁ነጭ":6141,"▁ዳግ":6142,"▁ለዘላለም":6143,"▁ማነስ":6144,"▁ወልደ":6145,"▁ይልቁንም":6146,"▁ወሰን":6147,"▁ሌሊት":6148,"▁የውኃ":6149,"በሻ":6150,"▁አእምሮ":6151,"▁ከመቶ":6152,"▁ለአምላክ":6153,"▁የባቡር":6154,"ገለግሉ":6155,"▁ሊቀመንበር":6156,"ተገ":6157,"▁ታዛ":6158,"▁ቢራ":6159,"▁ወጣቶችን":6160,"▁በተፈጥሮ":6161,"▁የግንዛቤ":6162,"▁ደህና":6163,"▁የአይ":6164,"ጠበቀው":6165,"ሙያው":6166,"▁t":6167,"ረጋግጥ":6168,"▁ዮሴፍ":6169,"▁ማኅበራት":6170,".5":6171,"▁መማር":6172,"▁ተሰብ":6173,"▁በአውሮፓ":6174,"ፌዴሬሽኑ":6175,"ከለኛው":6176,"▁ነጋዴዎች":6177,"▁ግልፅ":6178,"30":6179,"▁መጓ":6180,"▁ያተኮ":6181,"▁የተገኙ":6182,"▁ሁኔታው":6183,"ከናወነው":6184,"ኖሩም":6185,"▁ማኅበረሰብ":6186,"▁የተባለውን":6187,"ጆቻቸው":6188,"▁የአው":6189,"▁መርህ":6190,"▁ቀርቦ":6191,"▁199":6192,"▁ጤናማ":6193,"▁ነበረች":6194,"ቻይና":6195,"ጣጣ":6196,"▁ጀግ":6197,"▁ልማድ":6198,"▁ፕሬዝዳንት":6199,"▁ይገኙበታል":6200,"ቀሩ":6201,"▁ታቅ":6202,"▁ፍጻሜ":6203,"▁እቃ":6204,"▁ፍጥነት":6205,"▁ህዝባዊ":6206,"▁አውራ":6207,"ቀመጠው":6208,"▁ያዕቆብ":6209,"▁ጥንካሬ":6210,"▁ይጠብ":6211,"▁M":6212,"ጋለ":6213,"▁ከሥ":6214,"▁በመውሰድ":6215,"▁ቀኝ":6216,"ደለው":6217,"ፍስ":6218,"▁የክለ":6219,"▁ከመን":6220,"▁ግቦች":6221,"▁ዓይነቱ":6222,"ሐሴ":6223,"ጢር":6224,"▁ከኤ":6225,"▁የተቋ":6226,"ናጀ":6227,"▁ማምጣት":6228,"▁ውር":6229,"ምረቻ":6230,"▁ልጆቹ":6231,"▁ማለፍ":6232,"▁ዓይነቶች":6233,"▁ቄ":6234,"▁በገንዘብ":6235,"ጠናከረ":6236,"ዳልያ":6237,"ረሳ":6238,"ሜት":6239,"▁ማዕከ":6240,"▁ዘው":6241,"▁አጠናክሮ":6242,"▁በዝር":6243,"▁ልውው":6244,"▁የራስ":6245,"▁በ5":6246,"▁ይቆ":6247,"▁ተማሪዎችን":6248,"ጎብ":6249,"▁በመሄድ":6250,"ካፈል":6251,"▁የዱ":6252,"▁ከፈ":6253,"▁ራስን":6254,"▁ብላለች":6255,"▁ይቀጥላል":6256,"▁የሻ":6257,"▁ዩኒቨርሲቲው":6258,"▁ይጠቁማሉ":6259,"▁ሊባል":6260,"ቀቱ":6261,"ጣኔ":6262,"▁ጥቂ":6263,"▁ዘይ":6264,"▁በማሰብ":6265,"▁ናይ":6266,"▁በጉዳዩ":6267,"ምባሲ":6268,"ደኝነት":6269,"ጓዳ":6270,"ፐብሊክ":6271,"▁ሽያጭ":6272,"▁የ2":6273,"▁ለመተ":6274,"▁ብቻውን":6275,"▁ዳይሬክተሩ":6276,"▁አበረታች":6277,"መላለ":6278,"▁ከጀመረ":6279,"▁ውበት":6280,"▁በእንግሊዝ":6281,"ብረቱ":6282,"▁ይነገራል":6283,"▁በኩ":6284,"▁በዲ":6285,"▁መቀበል":6286,"▁በፍቅር":6287,"ድኑ":6288,"▁በሲ":6289,"▁ባደረገው":6290,"▁እየተካሄደ":6291,"▁በቀጣይም":6292,"ቀኑ":6293,"▁የላቸውም":6294,"▁ለፊት":6295,"▁ምግ":6296,"▁በትኩረት":6297,"ውሉ":6298,"▁ለየት":6299,"▁ይወጣ":6300,"▁የሰጠ":6301,"▁ከማስ":6302,"▁እንቅስቃሴዎች":6303,"ገነባው":6304,"▁የተመሰረተ":6305,"ዲሁ":6306,"▁ዕውቀት":6307,"▁አደረጃጀት":6308,"አቸው":6309,"▁37":6310,"▁ወስዶ":6311,"ሮቹን":6312,"▁ብቁ":6313,"▁በመግለጽ":6314,"▁የማሳ":6315,"▁ያደርገዋል":6316,"▁እንዳልተ":6317,"ፋክቸ":6318,"▁ከግብ":6319,"▁የማኅ":6320,"▁b":6321,"▁ከዚሁ":6322,"▁በልዩ":6323,"ኝና":6324,"▁ማክ":6325,"▁ዘይት":6326,"▁ምክንያቱ":6327,"ክልሎች":6328,"▁መኖራቸውን":6329,"ጠቀሙበት":6330,"▁አቅራቢ":6331,"ታለሁ":6332,"▁በተገ":6333,"ቴል":6334,"ሩና":6335,"ራችሁ":6336,"▁ለመረዳት":6337,"▁የገጠር":6338,"ቀበሉ":6339,"ለጠነ":6340,"▁ብሔረሰቦችና":6341,"ሐስ":6342,"ካሚ":6343,"▁እቅ":6344,"▁ይጀም":6345,"▁አገልጋዮች":6346,"ጥረው":6347,"▁ምስክር":6348,"▁በዞኑ":6349,"▁ከሦስት":6350,"ዎችንና":6351,"▁ክፍት":6352,"ላለን":6353,"▁ተዋና":6354,"▁1,":6355,"▁ጉልህ":6356,"▁ኤርትራ":6357,"ሳይያስ":6358,"▁በእግር":6359,"▁የኪራይ":6360,"ሙኒ":6361,"▁ጮ":6362,"ገለጽ":6363,"ou":6364,"▁ከጉ":6365,"▁የተውጣ":6366,"ረቡ":6367,"ደበት":6368,"▁አብዛኛውን":6369,"▁ማቀ":6370,"▁ባላ":6371,"▁አስራ":6372,"▁ዘመናት":6373,"▁ወዲያ":6374,"▁በመግ":6375,"ብርብ":6376,"▁የወንጀል":6377,"▁በንግድ":6378,"▁ቤቶችን":6379,"▁ጠቅሰው":6380,"▁ዩኒቨርሲቲዎች":6381,"በሉ":6382,"▁ተቆጥ":6383,"▁ያነ":6384,"ቤል":6385,"ፆታ":6386,"▁አስተና":6387,"▁ኮሚሽ":6388,"▁በሕዝብ":6389,"▁አጭር":6390,"▁ሕዝቡን":6391,"▁በመልካም":6392,"▁ሀሳ":6393,"ወሰዱ":6394,"ቀሳቀስ":6395,"ሯን":6396,"ቦቹ":6397,"▁ጩ":6398,"▁ለመጠቀም":6399,"▁ፍልስፍና":6400,"▁ይደር":6401,"▁የተጠ":6402,"ፈለገውን":6403,"▁ተደራጅ":6404,"▁ጢሞ":6405,"▁ማቴ.":6406,"▁የተሸ":6407,"▁ዕድገ":6408,"▁የኤርትራ":6409,"▁ወዲያውኑ":6410,"ዘረጋ":6411,"▁ያቀ":6412,"▁የምለው":6413,"▁በማንኛውም":6414,"▁ዓይነ":6415,"▁የአል":6416,"▁በሪ":6417,"▁ተካሂ":6418,"▁አስተማሪ":6419,"ዬም":6420,"▁የጭ":6421,"▁ሲገል":6422,"▁ከሚገኙ":6423,"▁ይኖራሉ":6424,"▁መዳረሻ":6425,"ንቀት":6426,"▁በሦስት":6427,"▁ትእዛዝ":6428,"▁የዘርፉ":6429,"▁ውሎ":6430,"▁ትዳር":6431,"▁አባቴ":6432,"▁ከሳ":6433,"ንድሮ":6434,"ገናኘ":6435,"▁አድማስ":6436,"ግዳሮ":6437,"▁ትችላ":6438,"▁አስደናቂ":6439,"▁ኪዳን":6440,"▁በደል":6441,"▁በህዝብ":6442,"▁በሀገሪቱ":6443,"▁ሉዓላዊ":6444,"ጠቀምበት":6445,"▁ሰርቪ":6446,"ረቤ":6447,"▁በመስራት":6448,"▁አጥብ":6449,"▁የሚሠራ":6450,"▁ለመቅረፍ":6451,"▁ዜማ":6452,"▁እንዲኖረው":6453,"▁የሆኑትን":6454,"▁ያየ":6455,"▁አገሪቱን":6456,"▁የሚመስ":6457,"▁ሮም":6458,"▁ቅርንጫፍ":6459,"ጻፈ":6460,"▁ይስ":6461,"▁የሚለ":6462,"▁ሰበብ":6463,"▁አጠገብ":6464,"ምቶ":6465,"ራረብ":6466,"ደመ":6467,"ጥሮ":6468,"▁ህብረተሰብ":6469,"▁የነፃ":6470,"▁ከ20":6471,"▁ለአን":6472,"▁አገልግሎቱን":6473,"ወል":6474,"ዙት":6475,"▁የእነዚህ":6476,"▁ከሁሉ":6477,"▁ጉድለት":6478,"▁በሞት":6479,"▁መኖሩ":6480,"▁ጥረ":6481,"ከፈል":6482,"▁ጋብቻ":6483,"ትናንት":6484,"▁ማኅበራዊ":6485,"▁የቴክኒክ":6486,"ሰጣ":6487,"▁ማሰ":6488,"▁በመነሳት":6489,"▁እንባ":6490,"▁ደረሰ":6491,"▁ሳሙኤል":6492,"▁ተአ":6493,"▁መሰና":6494,"▁አፈፃፀ":6495,"▁ያለምንም":6496,"ጧቸው":6497,"ጨመር":6498,"▁ደጃ":6499,"▁ቢሆኑ":6500,"ገኛለን":6501,"▁መሆኗን":6502,"▁በትን":6503,"▁የመፍት":6504,"▁ወደተ":6505,"▁ሸዋ":6506,"▁የተያያዘ":6507,"▁ማንኛውንም":6508,"▁ተቃዋሚዎች":6509,"▁በሠ":6510,"▁ሰሜን":6511,"▁ታደሰ":6512,"▁ለዘመናት":6513,"ላትም":6514,"▁ማም":6515,"▁በእርስ":6516,"▁ኢየሱስን":6517,"▁አያያዝ":6518,"▁ሕመም":6519,"▁ጀርባ":6520,"ንቀሳ":6521,"▁በጉባኤ":6522,"ኞቹን":6523,"▁ሥላሴ":6524,"▁አጋር":6525,"▁አዳም":6526,"▁አህጉ":6527,"▁f":6528,"▁ትራምፕ":6529,"▁ሳንቲ":6530,"▁ይሄንን":6531,"▁ይዘት":6532,"▁እንክብካቤ":6533,"▁ሥጋት":6534,"▁ስለመሆኑ":6535,"▁ለገበያ":6536,"ወት":6537,"▁ውብ":6538,"ቃቅ":6539,"▁እመ":6540,"▁ፓርክ":6541,"▁ከወዲሁ":6542,"▁ለሥራ":6543,"▁ተወካይ":6544,"▁ይፈጥራል":6545,"ንሳዊ":6546,"▁እሳ":6547,"▁ክሊ":6548,"ቀረቡ":6549,"▁መለሰ":6550,"ገራት":6551,"▁ወግ":6552,"▁ብታ":6553,"▁ካንሰር":6554,"▁በ2007":6555,"ተም":6556,"ዋለች":6557,"ደሮች":6558,"▁ለጊዜው":6559,"▁ለመጠበቅ":6560,"▁ክለቡ":6561,"ዕራብ":6562,"▁ፋብሪካዎች":6563,"ራና":6564,"▁ቤታቸው":6565,"▁ፕሪሚየር":6566,"▁ዳቦ":6567,"▁ኦሎምፒክ":6568,"▁አደረጃጀ":6569,"ረኞች":6570,"ጎበ":6571,"▁ማድ":6572,"▁ማበረታ":6573,"▁የቀረበው":6574,"ኒየም":6575,"ወዳ":6576,"▁ኮሪያ":6577,"▁ተቀና":6578,"▁ጠቁመው":6579,"▁ሕገወጥ":6580,"▁እንደሚገኙ":6581,"▁ፈገግ":6582,"▁ኃይሉ":6583,"ፋክቸሪንግ":6584,"ተኞቹ":6585,"▁ከእነሱ":6586,"▁የብሔራዊ":6587,"▁የሁለቱ":6588,"▁መዋቅር":6589,"ሸጋገር":6590,"▁ፈለ":6591,"▁የሰጡት":6592,"ባይል":6593,"▁ኢንተርናሽናል":6594,"le":6595,"▁ከሥራ":6596,"▁አይችሉም":6597,"▁ካሉት":6598,"▁ስራዎችን":6599,"▁ዴኤ":6600,"▁ብርሃኑ":6601,"▁እሴት":6602,"▁ተነግ":6603,"▁ዕጩ":6604,"▁ጫፍ":6605,"ችኋለሁ":6606,"ካር":6607,"▁የዘር":6608,"▁ተግዳሮ":6609,"▁ስለሌ":6610,"▁ቅዳሜ":6611,"▁ያገኙ":6612,"▁ግብረ":6613,"ሞክራ":6614,"▁የታወቀ":6615,"▁ተገንዝ":6616,"ጠም":6617,"▁በሰጠው":6618,"▁መጽሔ":6619,"ራሹ":6620,"ብሰባ":6621,"▁የተላ":6622,"▁ባዶ":6623,"▁ልዑ":6624,"ታወቁት":6625,"▁የቆየው":6626,"ዝናብ":6627,"ትመት":6628,"ፍር":6629,"▁ካህ":6630,"▁በሊ":6631,"▁45":6632,"▁አቤቱታ":6633,"ሶን":6634,"▁ለቅ":6635,"▁እናው":6636,"▁በሚደረገው":6637,"▁ኢንዱስት":6638,"▁ወንበር":6639,"▁ሰጥተው":6640,"▁የሁሉም":6641,"▁ፉክክር":6642,"ቲያ":6643,"ፋቸውን":6644,"▁ግዥ":6645,"▁ሆነን":6646,"ሰናል":6647,"▁ሲገባ":6648,"▁ቀድ":6649,"ለትም":6650,"ሥራቅ":6651,"▁ህፃ":6652,"በልጡ":6653,"▁መንግሥትም":6654,"▁ልማታዊ":6655,"ፈተሽ":6656,"▁አሠልጣ":6657,"▁ይሻላል":6658,"ሚንቶ":6659,"ጸው":6660,"▁ከቦ":6661,"▁በአምስት":6662,"▁ጊዜያዊ":6663,"ገራሚ":6664,"ላለፉ":6665,"▁መድኃኒ":6666,"ማችን":6667,"ናችን":6668,"ታወቂያ":6669,"▁በሁዋላ":6670,"▁ኢንተርፕራይ":6671,"ባቱ":6672,"ብሩ":6673,"ወሰደ":6674,"▁ፀጋ":6675,"መዘገበው":6676,"▁አሳስበዋል":6677,"ኩስ":6678,"▁የድን":6679,"▁የሚቻለው":6680,"▁ለማከናወን":6681,"ሳች":6682,"▁በጀ":6683,"ኮችን":6684,"▁በሉ":6685,"▁ወደኋላ":6686,"▁ተመዝግ":6687,"▁መቆየ":6688,"ነትም":6689,"▁አስተዳደሩ":6690,"▁ተፎካካሪ":6691,"ሆኗ":6692,"ላምና":6693,"▁ዋል":6694,"▁ሙዚ":6695,"▁አርባ":6696,"▁ነበረው":6697,"▁አብርሃም":6698,"▁የመድ":6699,"ፋፋ":6700,"ላሚክ":6701,"▁እየታየ":6702,"▁ተላ":6703,"▁በመላ":6704,"▁ከአምስት":6705,"▁የወጣው":6706,"▁ማዕከሉ":6707,"▁ጠብቆ":6708,"ደጉ":6709,"ናቸውም":6710,"ለደ":6711,"ሞቱ":6712,"ራቶን":6713,"ኔን":6714,"▁ተዘ":6715,"▁ሲሉም":6716,"▁ፕላ":6717,"▁በሽታዎች":6718,"▁ዕቃዎች":6719,"▁ቁርጠኝነት":6720,"ጋቸውን":6721,"▁ጨርሶ":6722,"▁ለአፍሪካ":6723,"▁ማስጠንቀቂያ":6724,"ኔራል":6725,"ዎቻቸውን":6726,"▁የድርጅቱ":6727,"▁ተጨዋቾች":6728,"he":6729,"አያ":6730,"▁የሚሠሩ":6731,"▁ጉልበት":6732,"▁ተቀብሎ":6733,"ቀሰ":6734,"▁ሽማግሌዎች":6735,"▁ኮርፖሬሽን":6736,"ያያዥ":6737,"▁የሚቻል":6738,"▁በመር":6739,"▁ባለሃብ":6740,"ከፋፈል":6741,"▁እነሱን":6742,"▁70":6743,"▁ምስጋና":6744,"▁በ20":6745,"▁መቆጣጠር":6746,"ቀኝ":6747,"▁መፍታት":6748,"▁ባሳ":6749,"▁ለማሻሻል":6750,"ዳዳሪዎች":6751,"▁ትልልቅ":6752,"ሬሽኑ":6753,"ጸባረ":6754,"▁ታክስ":6755,"ሪስት":6756,"▁ለማሳየት":6757,"▁አውሮፕላን":6758,"ገኝበት":6759,"ምራል":6760,"ደላ":6761,"▁ተፈራ":6762,"▁ለመኖር":6763,"▁ጨረታ":6764,"▁በመጪው":6765,"▁አገልግሎቶች":6766,"▁በ10":6767,"▁በዝርዝር":6768,"ቱንም":6769,"▁አፈር":6770,"▁ዕውቅና":6771,"ጻፈው":6772,"▁የተሞላ":6773,"▁እንደሚኖር":6774,"▁ዋነኛው":6775,"ዘርጋት":6776,"ጭበር":6777,"መረጡ":6778,"▁ብቸኛ":6779,"ዱም":6780,"ስትራ":6781,"ስላሚክ":6782,"ችሁት":6783,"▁እጁን":6784,"▁መምጣቱን":6785,"ፌደራል":6786,"ቶቻቸውን":6787,"▁ጥራ":6788,"ሪነት":6789,"▁መላው":6790,"መጣም":6791,"ለላ":6792,"▁አንበሳ":6793,"ማርኛ":6794,"ሀል":6795,"ሪፍ":6796,"▁የሴት":6797,"ግዚአብሔር":6798,"▁ከቤት":6799,"▁ለሪፖርተር":6800,"▁አንዳች":6801,"▁ጠይቀዋል":6802,"▁ሀይ":6803,"▁አገልጋይ":6804,"ፈጸመው":6805,"ነቴ":6806,"▁ፔ":6807,"ሰቡን":6808,"ቃወም":6809,"ሊድ":6810,"▁በመግባት":6811,"ከተሉ":6812,"ሰማራት":6813,"ገኛለች":6814,"▁የተሟላ":6815,"▁በተባ":6816,"▁ሊጉ":6817,"▁ጠር":6818,"▁የፍቅር":6819,"ከታታይ":6820,"ክፈል":6821,"▁የሚሰማ":6822,"▁እንደሚያደርግ":6823,"▁m":6824,"▁ዩኒቨርስቲ":6825,"▁መቁ":6826,"▁ባቡር":6827,"▁ደብረ":6828,"ግባባት":6829,"ፈልጋቸው":6830,"▁ውድድሩን":6831,"▁ማመንጫ":6832,"▁ሲታ":6833,"▁ችሎት":6834,"▁ርብርብ":6835,"▁እንደሚያሳ":6836,"ብንም":6837,"ኑፋክቸሪንግ":6838,"ጎልበት":6839,"▁ሀገሪቱ":6840,"ክልና":6841,"▁ኤልያስ":6842,"ሶቹ":6843,"ዴል":6844,"▁ለበርካታ":6845,"▁አምልኮ":6846,"▁ከእኛ":6847,"▁ከልብ":6848,"ኤስ":6849,"▁በግብርና":6850,"▁ረድ":6851,"▁በቱ":6852,"▁በኪ":6853,"▁የተን":6854,"▁እንዲታ":6855,"▁ትላልቅ":6856,"▁አስከፊ":6857,"▁አዳማ":6858,"▁ምሥራቅ":6859,"▁ባለሥልጣናት":6860,"▁አብራርተዋል":6861,"▁ተሾ":6862,"ባን":6863,"ወርድ":6864,"▁አንጋ":6865,"▁ለመድረስ":6866,"ሪታ":6867,"ታደር":6868,"ክለው":6869,"ነገር":6870,"ግን":6871,"▁በፋ":6872,"▁በወን":6873,"▁መሥዋዕት":6874,"▁የአቅም":6875,"ስቶች":6876,"▁ያለማ":6877,"▁ባለመሆኑ":6878,"▁በቁጥጥር":6879,"▁በወጣ":6880,"▁የእና":6881,"ንተን":6882,"ሽም":6883,"▁የተናገረው":6884,"▁ቴአትር":6885,"▁መርሐ":6886,"▁በተገቢው":6887,"ለታ":6888,"▁ትላለች":6889,"▁እስር":6890,"▁አክራሪ":6891,"ዳችን":6892,"▁ካለፈው":6893,"ጀመሩት":6894,"▁ሁኔታዎችን":6895,"▁ማስከበር":6896,"ፈቀደ":6897,"▁አሮ":6898,"▁ብዝ":6899,"▁በአዋ":6900,"▁ኢትዮ":6901,"▁በ198":6902,"▁የትራፊክ":6903,"▁የከ":6904,"▁እጥፍ":6905,"▁እንደገለ":6906,"▁እንዲሰጥ":6907,"ደራጁ":6908,"ዎት":6909,"▁የና":6910,"▁ዮና":6911,"▁የነበሩትን":6912,"▁የሚጠይቅ":6913,"ሬስ":6914,"ሳራ":6915,"ቺን":6916,"የሙ":6917,"▁ፍል":6918,"▁ዜጎችን":6919,"▁ህዝቡን":6920,"▁አንባቢ":6921,"▁ኢሳይያስ":6922,"ዘጋጃ":6923,"▁ቴሌ":6924,"ባው":6925,"▁እንጀራ":6926,"▁ድሮ":6927,"▁ከመስ":6928,"▁መዋቅ":6929,"▁ይዟል":6930,"▁የሰጡ":6931,"ሁዳውያን":6932,"ሽነት":6933,"ጥል":6934,"▁ከብዙ":6935,"▁ቢዝነስ":6936,"▁ከማን":6937,"▁እህት":6938,"ሑፍ":6939,"▁የተሻ":6940,"▁የመነ":6941,"▁ታሳቢ":6942,"▁ማስተዋል":6943,"ካፈ":6944,"ዑዲ":6945,"▁በሜ":6946,"▁ይል":6947,"ደረሱ":6948,"▁በባህ":6949,"▁ያቀር":6950,"▁ማኔ":6951,"▁ግብዓት":6952,"▁ህፃናት":6953,"▁ዳኞች":6954,"▁የፀጥታ":6955,"ኝማ":6956,"▁እየሰ":6957,"▁36":6958,"▁በሁለቱም":6959,"ኳንን":6960,"ወቀ":6961,"▁የንጉ":6962,"▁ለነገሩ":6963,"▁ዕቅ":6964,"▁38":6965,"▁የሆነችው":6966,"▁በማሳደግ":6967,"▁B":6968,"▁እንደነበሩ":6969,"▁እስራኤል":6970,"▁ተያያዥ":6971,"▁የምስ":6972,"▁የባህር":6973,"ዋዕትነት":6974,"ጻፍ":6975,"▁የሚስተዋ":6976,"▁አገዛዝ":6977,"▁ማንበብ":6978,"▁የሙስና":6979,"ቨር":6980,"▁ለቤተ":6981,"▁የሚደርሱ":6982,"▁ካም":6983,"▁ሄደው":6984,"▁ፕሮጀክቱ":6985,"▁መመርያ":6986,"ችግር":6987,"▁የነገ":6988,"▁ክልላዊ":6989,"▁N":6990,"▁ረዳት":6991,"▁የፓ":6992,"▁ስድ":6993,"▁ምርም":6994,"▁ስላለው":6995,"▁አብዮት":6996,"▁በፌዴራል":6997,"▁መታየት":6998,"▁ወዳጄ":6999,"▁የተባሉት":7000,"▁የሚፈጥ":7001,"▁አስገራሚ":7002,"ቧን":7003,"▁ተቆጣ":7004,"▁ማረፊያ":7005,"▁የተውጣጡ":7006,"▁ትውል":7007,"▁ሠራዊ":7008,"▁ጥናትና":7009,"▁አልቀረም":7010,"ኛዎቹ":7011,"ዋንዳ":7012,"▁ያደረግ":7013,"▁አስገንዝ":7014,"ናይትድ":7015,"▁የአሁኑ":7016,"▁ለመሸ":7017,"▁አቋር":7018,"▁ለመናገር":7019,"▁የሚያመ":7020,"ውደ":7021,"▁ለባለ":7022,"▁ያገኛ":7023,"▁የህይወት":7024,"ኖረውም":7025,"ከብር":7026,"▁ልጆችን":7027,"ንባሌ":7028,"በሰ":7029,"▁80":7030,"ዓቱ":7031,"▁ሰፋ":7032,"▁በስራ":7033,"▁በሀገር":7034,"▁ምዝገባ":7035,"▁የአለም":7036,"▁ትንቢት":7037,"▁መምጣት":7038,"▁ተግባራትን":7039,"▁ለመቆጣጠር":7040,"▁ጠን":7041,"▁ለአገሪቱ":7042,"▁ስራውን":7043,"▁ተወላ":7044,"▁ቀጠሮ":7045,"ላሳ":7046,"▁እሁድ":7047,"ከተለ":7048,"▁በቅን":7049,"▁የፍርድ":7050,"▁የ200":7051,"ቃን":7052,"▁የተሰጠ":7053,"▁ከ10":7054,"▁የቻለው":7055,"▁የለውጥ":7056,"▁አስከባ":7057,"▁ባለሙያው":7058,"▁ሚዛ":7059,"▁የጠየ":7060,"ጋለሁ":7061,"▁ማጠናከር":7062,"▁ብክ":7063,"▁አመቺ":7064,"▁በሕይወ":7065,"▁የብድር":7066,"▁ሰሞን":7067,"▁ጎንደር":7068,"▁አህመድ":7069,"▁መሐመድ":7070,"▁ንጹሕ":7071,"ዳድ":7072,"▁የነዳጅ":7073,"▁አርሶአ":7074,"ረኝ":7075,"ችሎ":7076,"ገተኛ":7077,"▁ሌላውን":7078,"▁ባለሙያዎችን":7079,"▁አልቻሉም":7080,"ፊቱ":7081,"▁በተወሰነ":7082,"▁ፕላን":7083,"▁ቆይተዋል":7084,"▁ከድር":7085,"▁ተጎ":7086,"▁የመከላከያ":7087,"▁ጠዋት":7088,"▁ያህሉ":7089,"▁ደመወዝ":7090,"ረተው":7091,"ቆና":7092,"▁ሰጠ":7093,"▁በማስተ":7094,"▁መሆኑም":7095,"▁ከእንግ":7096,"▁መደረጉን":7097,"ዱስ":7098,"▁የሚዘ":7099,"▁የሚያን":7100,"▁በዘላቂ":7101,"▁የጥበብ":7102,"ንኩ":7103,"ጫት":7104,"ንፈኛ":7105,"▁የተቀናጀ":7106,"ረጉ":7107,"ሽኖች":7108,"ቀመጠ":7109,"▁እኛን":7110,"ከላቸው":7111,"▁ወቅትም":7112,"▁ግብዣ":7113,"▁ለሌላ":7114,"▁ራዕይ":7115,"▁ቦታው":7116,"▁እኩ":7117,"▁ተመልሶ":7118,"ደውን":7119,"▁d":7120,"▁ይስተዋ":7121,"▁በማድረ":7122,"▁መልዕክ":7123,"ወግ":7124,"▁መለያ":7125,"▁መቋቋም":7126,"▁ጨርቅ":7127,"▁ተባ":7128,"▁ሰዎችም":7129,"በቱ":7130,"ካሔ":7131,"▁የበጎ":7132,"▁የዕድሜ":7133,"▁ከአራት":7134,"▁ሜዳልያ":7135,"▁በትግራይ":7136,"▁መስማት":7137,"▁የወንድ":7138,"▁አሉላ":7139,"▁ጥርጥር":7140,"▁በነፃነት":7141,"▁ለይቶ":7142,"ጮችን":7143,"▁እንዲተ":7144,"▁እንዲወጡ":7145,"▁ላለው":7146,"▁የጋዜ":7147,"ዋም":7148,"▁ጁ":7149,"ሎም":7150,"ጠፉ":7151,"▁ከሐ":7152,"▁ገላ":7153,"▁እንደምታ":7154,"▁ተመራማሪ":7155,"▁አውጥቶ":7156,"▁አዕምሮ":7157,"▁ተክለ":7158,"▁የተከ":7159,"▁መሠረተ":7160,"▁ለውጭ":7161,"▁በጥንቃቄ":7162,"ረክ":7163,"▁የወጡ":7164,"▁እንቅልፍ":7165,"▁የሚዲያ":7166,"▁ማስቀ":7167,"▁በየቀኑ":7168,"▁አሳዛ":7169,"▁የሌሎች":7170,"ለመደው":7171,"▁በቅድሚያ":7172,"▁የትኛው":7173,"▁ጅማ":7174,"ቡም":7175,"ፃሜ":7176,"▁አረንጓዴ":7177,"▁የሚመለከታቸው":7178,"▁እንዲኖራቸው":7179,"▁በሀገራችን":7180,"▁የሚገልጹ":7181,"ስቀሳ":7182,"▁ሲሄድ":7183,"▁በአራት":7184,"ሙስ":7185,"ነካ":7186,"▁ለማዳ":7187,"▁ፍራ":7188,"▁መለወጥ":7189,"▁ድምፃ":7190,"▁የቻለ":7191,"▁ለመቀበል":7192,"አአ":7193,"▁የተጀመረ":7194,"▁ጠረ":7195,"ሎችና":7196,"▁ዝንባሌ":7197,"▁አብረን":7198,"ቆሙ":7199,"ነቁ":7200,"▁ተገን":7201,"▁እንዲሰጡ":7202,"▁ገነት":7203,"ራቸውም":7204,"▁በሰሜን":7205,"▁አስተዳደርና":7206,"▁የለኝም":7207,"▁የእድገትና":7208,"▁and":7209,"▁በፍት":7210,"▁መደም":7211,"▁በእርግ":7212,"▁ዝውውር":7213,"▁ባይሆንም":7214,"▁ልቦና":7215,"ይይቱ":7216,"▁የሚውል":7217,"ድረው":7218,"▁ይሄዳል":7219,"▁መንግስታዊ":7220,"▁ኢዮብ":7221,"ደባባይ":7222,"▁በሸ":7223,"▁የእምነት":7224,"▁አያሌ":7225,"ከሰተው":7226,"▁ባንኩ":7227,"ation":7228,"▁የአስተ":7229,"ዎቹም":7230,"▁የልብ":7231,"ነዘ":7232,"▁መገንዘብ":7233,"ገነዘብ":7234,"▁ክፍተቶች":7235,"ግቶ":7236,"▁ማነ":7237,"▁ሲቀ":7238,"ድርግ":7239,"ባቸውና":7240,"▁ተወዳጅ":7241,"▁በዓይ":7242,"▁ስታድ":7243,"▁በቀል":7244,"▁የከተማው":7245,"ኅንነት":7246,"▁ያግ":7247,"ላለፈ":7248,"▁ህልውና":7249,"ኒስ":7250,"ንጋ":7251,"▁ኃላፊው":7252,"▁በመጥቀስ":7253,"ቴዎስ":7254,"▁ኢያ":7255,"ቆራ":7256,"ዊያን":7257,"▁በጥሩ":7258,"▁በዘመናዊ":7259,"▁መጨመር":7260,"ቃቂ":7261,"ኩትን":7262,"ፋይ":7263,"▁ማምረት":7264,"▁የመተ":7265,"▁በምሳሌ":7266,"▁ቆይቶ":7267,"▁ተሳታፊዎች":7268,"▁የተሳሳተ":7269,"ማሪያ":7270,"▁ከር":7271,"▁አካባቢው":7272,"▁ማድረጉን":7273,"▁በተሰ":7274,"▁የመኖሪያ":7275,"▁ድራ":7276,"▁ወጥተው":7277,"▁ለመሄድ":7278,"▁ምርቶችን":7279,"▁ያላትን":7280,"▁አጉ":7281,"▁የተፈጠረው":7282,"▁ኢሳ":7283,"▁ቁጣ":7284,"▁ቅዱሳን":7285,"ጨዋታ":7286,"▁ለሁለ":7287,"ዝማች":7288,"▁ማውጣት":7289,"▁ድርድር":7290,"▁መረጃዎችን":7291,"▁ስርጭት":7292,"▁የግብፅ":7293,"▁ይገልፃሉ":7294,"ኪን":7295,"ፋጠን":7296,"▁የሳይንስ":7297,"▁ብና":7298,"▁የሌላ":7299,"▁ኅብረተሰቡ":7300,"▁ሰለባ":7301,"ሮንቶስ":7302,"▁ይነሳ":7303,"▁ውጤቱ":7304,"▁በህግ":7305,"▁የከተማዋ":7306,"▁ስፔ":7307,"▁እንደየ":7308,"መራው":7309,"▁ማለቴ":7310,"▁ተጨ":7311,"▁የሚካሄደው":7312,"▁ለውጦች":7313,"▁የሕዝቡ":7314,"▁አራተኛ":7315,"▁ስህተ":7316,"▁ጥበ":7317,"▁የአትሌቲክስ":7318,"▁የኢፌዴሪ":7319,"▁ማስተር":7320,"▁ኬሚ":7321,"ባለሁ":7322,"ዓሉ":7323,"▁ሜጋ":7324,"▁ተሠ":7325,"▁ብላችሁ":7326,"▁ባንድ":7327,"▁የመሆን":7328,"▁መድረስ":7329,"ስቲቫ":7330,"ሚን":7331,"▁ኔ":7332,"▁በአዲሱ":7333,"▁ፍትሃዊ":7334,"ረሙ":7335,"▁መዘጋጀ":7336,"▁እንዲቀጥል":7337,"ደረሰው":7338,"ወለድ":7339,"▁የመሳሰሉት":7340,"ጣዊ":7341,"▁እፈልጋ":7342,"▁ሳያስ":7343,"▁ገለል":7344,"ዮኖች":7345,"▁ከትናንት":7346,"▁በሁለተኛ":7347,"ፈስ":7348,"▁ውጣ":7349,"▁ጎራ":7350,"▁በታሪክ":7351,"▁የሚያግ":7352,"▁ስንል":7353,"▁የፕሮጀ":7354,"▁የጥራት":7355,"▁በአንፃ":7356,"▁በመንገድ":7357,"▁ጓደኞ":7358,"40":7359,"▁ተሰር":7360,"▁የአቶ":7361,"▁ፈላጊ":7362,"▁እያየ":7363,"ድሞው":7364,"▁ልጆቻቸውን":7365,"▁መገኘት":7366,"▁ሐዋርያው":7367,"ፆች":7368,"▁ይላል፦":7369,"▁ቋንቋዎች":7370,"▁መወጣት":7371,"ባትና":7372,"▁በነበረበት":7373,"ስተን":7374,"▁መደረግ":7375,"▁ማከናወን":7376,"▁በፍርድ":7377,"▁ይታመናል":7378,"▁አሳይቷል":7379,"ሪና":7380,"ጾች":7381,"▁አሥ":7382,"ድረኩ":7383,"▁ያለበትን":7384,"ሯዊ":7385,"▁ትገኛለች":7386,"ዝግጅት":7387,"ገረው":7388,"▁ኤምባሲ":7389,"▁ባህልና":7390,"▁አዛዥ":7391,"▁ስሙኝማ":7392,"▁በውስጡ":7393,"አለሁ":7394,"▁ምሕ":7395,"▁ዘወትር":7396,"▁በግለ":7397,"ረጋገጡ":7398,"▁ቀጣይነት":7399,"▁በጸ":7400,"▁እጃ":7401,"▁እአአ":7402,"▁ወንድሞ":7403,"▁አምባገነ":7404,"▁መዛሙርቱ":7405,"ትሮ":7406,"ፈቻ":7407,"▁ይው":7408,"▁በተደረገ":7409,"▁ተመራጭ":7410,"▁በግልፅ":7411,"ብኛል":7412,"▁ለመርዳት":7413,"▁ቢሆኑም":7414,"▁አልያም":7415,"▁42":7416,"▁በነገራችን":7417,"90":7418,"il":7419,"ማስ":7420,"ቁሟል":7421,"▁በ2008":7422,"▁ኢንዱስትሪው":7423,"ሎና":7424,"ታች":7425,"▁አነጋገር":7426,"▁ተረት":7427,"ቆየት":7428,"ጠሉ":7429,"▁ተረድ":7430,"▁የመቀ":7431,"▁የአማራ":7432,"▁የበለ":7433,"▁ሃይማኖታዊ":7434,"▁ነዳጅ":7435,"ent":7436,"ራስ":7437,"▁ከረ":7438,"▁ቢያስ":7439,"▁ፈንታ":7440,"ከባከብ":7441,"ሙኒኬሽን":7442,"ገሬ":7443,"▁ለመውሰድ":7444,"ጎዱ":7445,"▁ላል":7446,"▁የሚን":7447,"▁በቀጣዩ":7448,"▁ተቋማትን":7449,"ጦችን":7450,"▁ተሃድሶ":7451,"መለክት":7452,"▁የፖሊሲ":7453,"▁እፈልጋለሁ":7454,"መዱ":7455,"▁የቅድ":7456,"▁ይሄው":7457,"ሳተፈ":7458,"▁ጥቅምት":7459,"▁የሚመራው":7460,"ናዳ":7461,"▁ይቀር":7462,"▁የሚደ":7463,"▁የተሠራ":7464,"▁በመገንባት":7465,"▁ዘርፉን":7466,"▁ማንሳት":7467,"▁አውቃለሁ":7468,"▁ይዞታ":7469,"▁ለኢን":7470,"▁የቱሪዝም":7471,"ረሰብ":7472,"ሻለሁ":7473,"▁አደረጉ":7474,"▁የሚችሉት":7475,"▁ሳይሆኑ":7476,"▁ለአዲስ":7477,"▁ያመለክታሉ":7478,"▁የሞት":7479,"▁ስደት":7480,"▁በአል":7481,"▁በአለም":7482,"▁መስቀል":7483,"▁ቆን":7484,"▁ገለፃ":7485,"▁አመለካከ":7486,"▁ዘገባዎች":7487,"ገናል":7488,"▁የተቃዋሚ":7489,"▁ለመቋቋም":7490,"▁ተመልካ":7491,"▁ተጋላጭ":7492,"ቀደው":7493,"በውን":7494,"▁የከፍተኛ":7495,"▁በጅ":7496,"▁መፃ":7497,"▁ግሩም":7498,"▁በሚካሄደው":7499,"ጠቀሰው":7500,"▁ግብዓ":7501,"▁የክብር":7502,"▁መሣሪያዎች":7503,"መቻቸት":7504,"▁አዝማ":7505,"ol":7506,"ሦስተኛ":7507,"ነቷን":7508,"▁መት":7509,"▁እንዲገቡ":7510,"▁መስራ":7511,"▁የፍትህ":7512,"▁አስደሳች":7513,"▁ጩኸ":7514,"ለፉ":7515,"ባበል":7516,"▁ተከላ":7517,"▁በመሠ":7518,"ለያይ":7519,"ሚያስ":7520,"▁ጎል":7521,"ስቦ":7522,"▁ከወጣ":7523,"▁የመኖር":7524,"▁ሐምሌ":7525,"▁የበጀት":7526,"▁ይጠቀሳሉ":7527,"ማውያን":7528,"▁መጠቀ":7529,"▁ግፊት":7530,"ገናኘት":7531,"ልፉ":7532,"ሟቸው":7533,"ሽታው":7534,"▁የዛ":7535,"▁መሻሻል":7536,"▁ግንብ":7537,"▁የምድር":7538,"ቀረቡት":7539,"▁D":7540,"▁በማዕ":7541,"▁ፈታኝ":7542,"▁ሀገሮች":7543,"▁አስቀድ":7544,"▁ሁለቱን":7545,"ሻቸው":7546,"ኮራ":7547,"▁ወተት":7548,"▁በመሥራት":7549,"▁ካሜ":7550,"▁ደረጃውን":7551,"▁ኮንስትራክሽን":7552,"ዑስ":7553,"ጓጓ":7554,"▁የጀ":7555,"▁መሃል":7556,"▁በአየር":7557,"▁ሰፈር":7558,"▁እናስ":7559,"▁ትርጉ":7560,"▁ኩባንያው":7561,"▁ተመልካች":7562,"ነሪንግ":7563,"▁ሰልፍ":7564,"▁ሁከት":7565,"▁ዓቃቤ":7566,"▁የሚያጋጥ":7567,"▁ጠጅ":7568,"▁ከሌላው":7569,"▁ፌደ":7570,"▁ጀምሯል":7571,"▁በወንዶች":7572,"▁በዜ":7573,"▁ዕዳ":7574,"▁እንዳይሆን":7575,"▁ልማትን":7576,"▁ኃጢአ":7577,"▁ተተኪ":7578,"▁የዞኑ":7579,"▁ስኳር":7580,"▁እንዲችሉ":7581,"▁ኤች":7582,"▁ሶስተኛ":7583,"▁የተያያዙ":7584,"ለችም":7585,"▁አጋማሽ":7586,"▁ከነማ":7587,"▁በከተማው":7588,"በሬ":7589,"ነታችንን":7590,"ኮል":7591,"▁ሚካኤል":7592,"ችሁም":7593,"▁እድገ":7594,"ላቀል":7595,"▁ተጠቅመው":7596,"▁ያስረዳል":7597,"ለቆ":7598,"ሰሱ":7599,"ሽና":7600,"▁ሲናገር":7601,"▁በአማካይ":7602,"ሰልጣ":7603,"ቻላቸው":7604,"▁አድርጎታል":7605,"▁ኢንዱስትሪዎች":7606,"ክሉ":7607,"▁ከኦ":7608,"▁በተባለው":7609,"▁አምጥ":7610,"▁አዋቂ":7611,"▁በሚቀጥለው":7612,"ቻለም":7613,"ደተኞች":7614,"▁መሥራ":7615,"▁ማሰል":7616,"▁የሚያስከት":7617,"▁ሞገስ":7618,"▁ምርጫው":7619,"▁በማስገባት":7620,"▁መፅሐ":7621,"▁ልውውጥ":7622,"ቃቸውን":7623,"ጋች":7624,"▁ይመጣ":7625,"▁ያመጣ":7626,"▁ለመም":7627,"▁ለመን":7628,"▁አልሆነ":7629,"▁ፈን":7630,"▁በርካ":7631,"▁አረጋግጧል":7632,"▁አንተን":7633,"▁የስኳር":7634,"▁መዝ.":7635,"ፈራው":7636,"▁ጠቁሟል":7637,"▁አክብሮት":7638,"ጓቸው":7639,"▁ሥራቸውን":7640,"ታወቅም":7641,"▁39":7642,"▁መንግሥትና":7643,"▁የዚህን":7644,"ሬድ":7645,"▁መገን":7646,"▁በወር":7647,"ስብስብ":7648,"▁ስልት":7649,"▁የመስኖ":7650,"መበት":7651,"ተሮች":7652,"▁የሪ":7653,"▁ታች":7654,"▁የክልል":7655,"ስተናገ":7656,"▁ጥያቄዎችን":7657,"▁በስቲያ":7658,"▁የመጀመሪያውን":7659,"▁ጥርጣሬ":7660,"ሹራንስ":7661,"ለንደን":7662,"▁ሕዝባዊ":7663,"በኛ":7664,"ቢዎች":7665,"ክሎ":7666,"▁ዲያ":7667,"▁in":7668,"▁እንቁ":7669,"▁እንዲፈጠር":7670,"ገራችንን":7671,"▁ባልደረ":7672,"▁ሲደረግ":7673,"▁የሰራ":7674,"▁በጥልቀት":7675,"ናልድ":7676,"▁ከአሜሪካ":7677,"▁በቀስ":7678,"▁ዓለማ":7679,"▁የአፈር":7680,"▁ማስጨበ":7681,"▁አላስ":7682,"▁ተዋጊ":7683,"▁መረጋጋት":7684,"▁ግዢ":7685,"▁መንቀሳቀስ":7686,"▁ተወል":7687,"▁ደጋፊዎች":7688,"▁ይጠበቅባቸዋል":7689,"ሽታ":7690,"ቆዩ":7691,"▁ከትምህርት":7692,"▁ወደዚህ":7693,"▁የጥናት":7694,"▁ሚስተር":7695,"▁መስፈርት":7696,"▁የባንክ":7697,"▁አክሲ":7698,"▁የተቀመጠ":7699,"▁ጀርመን":7700,"ወዳደር":7701,"▁ጥንታዊ":7702,"ለንተ":7703,"▁ከተማዋ":7704,"ናኛ":7705,"▁አፄ":7706,"▁የተካሄደው":7707,"▁የመጡት":7708,"ሪያል":7709,"መስረት":7710,"▁እርካታ":7711,"▁አፍቃ":7712,"▁ነቢ":7713,"▁ለመወጣት":7714,"▁ኢየሩሳሌም":7715,"▁አይታ":7716,"▁ኮሚሽኑ":7717,"▁ገለጸ":7718,"▁ፍላጐት":7719,"ላታል":7720,"▁R":7721,"▁ይግባ":7722,"▁የትግራይ":7723,"ዩኒኬሽን":7724,"ቅራ":7725,"ኖረን":7726,"ጥሎ":7727,"▁ከፖ":7728,"▁ብዙውን":7729,"▁አባቱ":7730,"▁እንዲያገኝ":7731,"▁ኤጀንሲው":7732,"ነቶችን":7733,"▁መነሳ":7734,"▁ምላ":7735,"መረጥ":7736,"▁ማዕከላት":7737,"▁በዘላቂነት":7738,"▁በመጣ":7739,"▁አፍሪካውያን":7740,"▁አሰልጣኞች":7741,"▁F":7742,"▁ከከተማ":7743,"▁አልሸ":7744,"▁አንድዬ":7745,"▁ነገሩን":7746,"▁የባህ":7747,"▁ባሕርይ":7748,"▁ተሾመ":7749,"▁ይን":7750,"▁በማጥ":7751,"ቋቋሙ":7752,"▁በሥነ":7753,"ሸናፊ":7754,"▁ንፁ":7755,"▁የሀገሪቱ":7756,"ደኞች":7757,"▁አነሳ":7758,"▁አደጋዎች":7759,"▁አሸባሪ":7760,"ኮም":7761,"ደሪያ":7762,"▁ዶሮ":7763,"ሻውን":7764,"የትና":7765,"▁ማቅረ":7766,"▁የአስተዳደር":7767,"▁ፋይናንስ":7768,"▁የሚችለውን":7769,"▁ከምር":7770,"▁ሲሰ":7771,"ምንቱ":7772,"ከናውን":7773,"▁ከመንግስት":7774,"ማም":7775,"ጋቸዋል":7776,"▁ያበረ":7777,"▁ልጁን":7778,"▁ለተለያዩ":7779,"▁ታይቶ":7780,"▁ያበ":7781,"▁የሚያስች":7782,"▁ተጠያቂነት":7783,"▁ጥላቻ":7784,"ሞኑ":7785,"ረካ":7786,"▁በጐ":7787,"▁በቤት":7788,"▁ዲባባ":7789,"▁እንደማያ":7790,"▁የያዘው":7791,"▁ነቅ":7792,"▁ጨለማ":7793,"▁ጭንቅ":7794,"▁የጠቅ":7795,"▁ድልድ":7796,"ጠየቁ":7797,"ቋር":7798,"▁የችግ":7799,"▁የሚነሱ":7800,"▁እንደሚከተለው":7801,"▁41":7802,"ዮሽ":7803,"ደቱ":7804,"ፌዴሬሽን":7805,"▁ተጠቅሞ":7806,"▁ላለመ":7807,"ለፈ":7808,"ምቷል":7809,"ዕና":7810,"ፈቅድ":7811,"ቦታው":7812,"▁እብ":7813,"▁በሂደት":7814,"ግስ":7815,"▁የገባው":7816,"▁ማፍራት":7817,"▁ዜናዊ":7818,"▁ምዕራብ":7819,"▁ቀጠለ":7820,"ሳለሁ":7821,"ነጥብ":7822,"ጥሩ":7823,"▁የሚካሄድ":7824,"▁ምስራቅ":7825,"▁በማውጣት":7826,"▁በገጠር":7827,"ድቡ":7828,"▁የኮሚ":7829,"ሥረት":7830,"▁በአር":7831,"▁ገለጹ":7832,"▁ተሸላሚ":7833,"▁መቅደ":7834,"▁የሚደር":7835,"▁ያጋጠ":7836,"▁አግኝቶ":7837,"ሳለች":7838,"▁አርአያ":7839,"▁የሚያሰ":7840,"▁ዳያስፖራ":7841,"▁ስርአት":7842,"▁ሩሲያ":7843,"▁አደርጋለሁ":7844,"▁ሚስጥ":7845,"▁ሀገራችን":7846,"▁ይሰራል":7847,"መሙ":7848,"ዚል":7849,"▁ጥሬ":7850,"▁ቢል":7851,"▁በዓሉ":7852,"▁ይታያሉ":7853,"▁ወዳድ":7854,"ባታል":7855,"▁ይሞ":7856,"▁እንዳን":7857,"ፍለ":7858,"▁በአስተ":7859,"▁ካርድ":7860,"▁መስፍን":7861,"▁ሙስሊ":7862,"ዕለት":7863,"▁እንዲወጣ":7864,"▁መልአ":7865,"▁ማስወገድ":7866,"▁ርዝ":7867,"ቀጥሉ":7868,"▁በህይወት":7869,"ነገረው":7870,"▁ተከታዮች":7871,"op":7872,"ተራ":7873,"ጅና":7874,"ግሮ":7875,"▁ለልማት":7876,"▁ለማካሄድ":7877,"▁ሃብ":7878,"▁ጠቅሶ":7879,"▁ከ15":7880,"▁የአመራር":7881,"▁የጃ":7882,"▁መቸ":7883,"▁ከሩ":7884,"▁ውስብስብ":7885,"▁ጠበ":7886,"▁የወጪ":7887,"▁300":7888,"▁ጸሎት":7889,"▁ማርቆስ":7890,"▁የሚጋ":7891,"▁ጠንቅ":7892,"▁ከተባለ":7893,"▁እየተከናወነ":7894,"▁ጭብ":7895,"ትምህር":7896,"▁የሚጠብ":7897,"ድጉ":7898,"ፍሮ":7899,"▁ያጣ":7900,"▁ቀጣዩ":7901,"▁አግኝተዋል":7902,"▁ሳንቲም":7903,"ዎን":7904,"▁የሚሳተፉ":7905,"ለንተናዊ":7906,"el":7907,"ማቅ":7908,"ምግ":7909,"▁ለማስተ":7910,"▁ላሉ":7911,"▁ብሄረሰቦች":7912,"ክንያ":7913,"ዳግ":7914,"ጠጣ":7915,"▁ከገባ":7916,"▁የዕለት":7917,"▁አድራጎት":7918,"▁ማበረታቻ":7919,"▁ፈጥሯል":7920,"▁G":7921,"▁ማሸነፍ":7922,"▁ኢንስቲትዩት":7923,"ግሩ":7924,"▁በአም":7925,"▁በአይ":7926,"▁የመጠጥ":7927,"▁የትዳር":7928,"▁ስፖርተኞች":7929,"▁የተፋ":7930,"▁ሲናገሩ":7931,"▁ዘፍጥረት":7932,"መውን":7933,"ጡበት":7934,"▁ከነዚህ":7935,"▁ሰኞ":7936,"▁በተጨባጭ":7937,"ያና":7938,"▁ዌ":7939,"▁አልፈው":7940,"▁ህንፃ":7941,"ይዙ":7942,"ጡም":7943,"▁ምጣኔ":7944,"▁አፍሪካን":7945,"▁ማደግ":7946,"▁በተቋ":7947,"ታቸውና":7948,"▁ቆዳ":7949,"▁ሌላም":7950,"▁ዘግቧል":7951,"▁ለማጥፋት":7952,"▁የተረ":7953,"▁ጥሎ":7954,"▁የማስተ":7955,"▁ፈንድ":7956,"▁ቆሮንቶስ":7957,"ሞክር":7958,"st":7959,"ጭሩ":7960,"▁ነሐሴ":7961,"▁ግዛ":7962,"▁እየሰሩ":7963,"▁እንዳላ":7964,"ርሽ":7965,"ከነ":7966,"ጎም":7967,"▁ኒው":7968,"▁ሁኔታውን":7969,"▁ኦዲ":7970,"▁መዝሙ":7971,"▁መላእ":7972,"ፋና":7973,"▁ፌዴራ":7974,"▁በብሔራዊ":7975,"ሕር":7976,"▁መኳንን":7977,"▁ከኮ":7978,"▁የተሰራ":7979,"▁ስብሰባዎች":7980,"▁ክህሎት":7981,"ሠል":7982,"ሾቹ":7983,"▁ለፕ":7984,"▁ሰውነት":7985,"▁ዞኖች":7986,"▁ቀጥተኛ":7987,"▁ፕሮግራሞች":7988,"▁ዮሐ.":7989,"ባበቅ":7990,"▁ሦስተኛው":7991,"▁ሰማያዊ":7992,"ሰኞ":7993,"ትልና":7994,"▁የመኪና":7995,"▁ለመውጣት":7996,"▁የሰዎች":7997,"ልጣኑ":7998,"▁ንጥረ":7999,"▁በምር":8000,"ጠናቀቀው":8001,"▁በመንግሥ":8002,"▁አይመስልም":8003,"ወጠ":8004,"▁እጦት":8005,"ጨረታ":8006,"▁እንደሚያስፈልግ":8007,"▁የተከሰተው":8008,"ሚዎች":8009,"ዞር":8010,"▁አትክል":8011,"▁ዲፕሎማሲ":8012,"▁ተቀምጦ":8013,"▁ስርዓቱ":8014,"▁ነባራዊ":8015,"▁የተገኙት":8016,"በርክ":8017,"▁የማት":8018,"▁2.":8019,"▁መስመ":8020,"▁ተከሳ":8021,"ነርሱ":8022,"▁ተነስተው":8023,"▁ማጣሪያ":8024,"▁መገመት":8025,"▁የህዝቡን":8026,"▁የፓርላማ":8027,"▁ተጀም":8028,"▁የተነገረ":8029,"▁ሆቴሎች":8030,"▁ተርታ":8031,"▁ወዳጅነት":8032,"ርብ":8033,"ኦል":8034,"▁የያ":8035,"▁ውስጥና":8036,"ምድና":8037,"▁ስፍራዎች":8038,"ናይጄሪያ":8039,"▁ከእንግዲህ":8040,"▁የጐ":8041,"▁ከምት":8042,"▁እንደታ":8043,"▁በአገልግሎት":8044,"▁መካከልም":8045,"▁በማኅ":8046,"ቀፉ":8047,"ኔል":8048,"▁የጨ":8049,"▁አተ":8050,"▁ያጋ":8051,"▁ራሳችንን":8052,"▁ፋሲ":8053,"ዘዋዋሪ":8054,"▁ኢንጂነር":8055,"ከሪያ":8056,"▁ያምና":8057,"▁ባር":8058,"▁ኦሮሚያ":8059,"▁ግድቡ":8060,"▁የሥልጣን":8061,"▁ወላጆ":8062,"▁ለክ":8063,"▁በአካል":8064,"▁አባቶች":8065,"ዳደሪያ":8066,"ሰረ":8067,"ከስ":8068,"▁ሲያደርግ":8069,"ደረሰበት":8070,"ለቁ":8071,"ራኒው":8072,"ኒስቴ":8073,"▁በበርካታ":8074,"▁ይጥ":8075,"ቸውና":8076,"▁የመሰረተ":8077,"▁ታይቷል":8078,"ቃለል":8079,"▁የሚረዳ":8080,"▁በአስ":8081,"ክና":8082,"▁መስጫ":8083,"500":8084,"ac":8085,"ምች":8086,"ጤን":8087,"▁ይኖሩ":8088,"▁የነሐስ":8089,"▁መልካ":8090,"▁ቅርብ":8091,"▁ጽሑፎች":8092,"▁ፈጥሮ":8093,"ሏን":8094,"▁የንግ":8095,"▁አሽ":8096,"▁ሰውን":8097,"▁በማዘጋጀት":8098,"▁አመሰ":8099,"▁እንደሆነና":8100,"▁ዘርፈ":8101,"ቡዕ":8102,"ኤልን":8103,"▁አሊ":8104,"▁ይዘን":8105,"▁ፈጣ":8106,"▁ሳይንሳዊ":8107,"▁የቡድን":8108,"ሟሉ":8109,"▁በመለየት":8110,"▁ልጆቻቸው":8111,"▁ቀጥሏል":8112,"ከባበር":8113,"ወሓ":8114,"▁ቴሌቪዥን":8115,"▁ትኩረ":8116,"▁ዳርቻ":8117,"ሣኤ":8118,"ቃለች":8119,"ጎለ":8120,"ጴዛ":8121,"▁መከተል":8122,"▁ማዶ":8123,"▁እንዲያደርግ":8124,"▁የጥፋት":8125,"ተሪያ":8126,"▁በሚፈለገው":8127,"▁በሰፊው":8128,"▁በውሃ":8129,"▁በልማት":8130,"▁ለመግዛት":8131,"ኦት":8132,"▁በፓ":8133,"▁ተሽከርካሪ":8134,"▁መስዋዕትነት":8135,"▁የሚጠቅ":8136,"ሄዳ":8137,"ምጣ":8138,"ውያኑ":8139,"▁የኬንያ":8140,"▁የአምስት":8141,"▁እናቴ":8142,"▁ምክንያታዊ":8143,"▁ሐሳቦች":8144,"መሠ":8145,"ንጀ":8146,"▁የምንለው":8147,"▁ቀርበው":8148,"▁የሚመጣው":8149,"ረዳን":8150,"▁በጣ":8151,"▁የሚታወቀው":8152,"▁ሲተ":8153,"▁በዕድሜ":8154,"▁የኮንስትራክሽን":8155,"ነጥ":8156,"ዛሉ":8157,"▁መደብ":8158,"▁ከንቱ":8159,"▁እንደማይችል":8160,"▁የዕድገት":8161,"▁ያምናሉ":8162,"▁ዋት":8163,"▁የወር":8164,"▁የገዛ":8165,"▁ያሳየ":8166,"መለካከት":8167,"▁አስተያየታቸውን":8168,"▁ከኃ":8169,"▁ለወጣ":8170,"▁የሚገር":8171,"▁ማጣት":8172,"▁ሰሚ":8173,"▁ባልን":8174,"▁1.":8175,"▁የታየ":8176,"መጠ":8177,"ጎል":8178,"▁በዚያም":8179,"▁የሚያሳዩ":8180,"▁የጉባኤ":8181,"▁ማዳበሪያ":8182,"ፈጽም":8183,"▁የሁለተኛ":8184,"▁ኔት":8185,"▁ከ6":8186,"▁የነበራቸው":8187,"▁ደንበኛ":8188,"በናል":8189,"ወርቅ":8190,"▁በሴ":8191,"▁የሚወጡ":8192,"▁አስከ":8193,"ለመደ":8194,"የስ":8195,"▁መያ":8196,"▁ቆሞ":8197,"▁ፓርቲው":8198,"▁ድርጊቶች":8199,"▁ትምህርታቸውን":8200,"▁ከሆኑት":8201,"ብኚ":8202,"▁አልማ":8203,"▁አቅሙ":8204,"ዳጃ":8205,"ፋቱ":8206,"▁አነ":8207,"▁ጠፍ":8208,"▁የወጣቶች":8209,"▁ገበያው":8210,"ጓዳኝ":8211,"▁አስገንዝበዋል":8212,"▁ያገኘው":8213,"▁ሳም":8214,"▁ችላ":8215,"ምፒዮን":8216,"▁እንግዶች":8217,"ካተቱ":8218,"▁የጠቆሙት":8219,"▁L":8220,"▁የሥር":8221,"▁ሥርዓቶች":8222,"▁የደረሰው":8223,"▁አርቲስት":8224,"ያዎቹ":8225,"▁የሮ":8226,"▁ቀለ":8227,"▁ለማፍራት":8228,"▁ሊታ":8229,"▁እናደርጋ":8230,"▁የታላቁ":8231,"▁የማህበራዊ":8232,"▁ሰንደቅ":8233,"▁ዳግመኛ":8234,"ልቆ":8235,"ሙበት":8236,"ቫይ":8237,"▁በአው":8238,"▁አሳዛኝ":8239,"▁በሚገኝ":8240,"▁አገልግ":8241,"▁በ18":8242,"▁በዘንድሮው":8243,"▁ማነው":8244,"▁አባይ":8245,"▁ደረጃን":8246,"▁ዞሮ":8247,"ላና":8248,"▁ይታይ":8249,"ጠቀስ":8250,"▁ሲያደርጉ":8251,"▁ደርግ":8252,"▁አጋጣሚዎች":8253,"ሱና":8254,"ሳትና":8255,"▁የሚቀርቡ":8256,"▁አባባ":8257,"▁ወጣቶችና":8258,"▁የፕሮ":8259,"▁ሆስፒታ":8260,"▁ተቋማቱ":8261,"ስተናግ":8262,"ሮቻቸው":8263,"▁ጆን":8264,"▁ከ30":8265,"▁ምኞት":8266,"▁አድናቆት":8267,"▁መድሃኒ":8268,"▁ነክ":8269,"▁ለሶ":8270,"▁ለሆኑ":8271,"▁ለመያዝ":8272,"▁ቢኖሩም":8273,"▁ቅርስ":8274,"ታይም":8275,"▁መጥቀስ":8276,"ከፍል":8277,"▁ሳምንታት":8278,"ጂንግ":8279,"▁የተደ":8280,"▁ታም":8281,"▁በምንም":8282,"▁መሳሪያዎች":8283,"▁ጉድጓድ":8284,"▁እለት":8285,"▁መኖራቸው":8286,"ዙን":8287,"▁የሚያከናው":8288,"▁ጥያቄው":8289,"▁በአንድነት":8290,"▁ምሥክር":8291,"▁ድህነትን":8292,"ዱና":8293,"▁ቀነ":8294,"▁ስለነበረ":8295,"▁ታስቦ":8296,"▁አቃ":8297,"▁ባልና":8298,"▁እንዲሉ":8299,"▁ትሆና":8300,"ሮድ":8301,"▁ማለቱ":8302,"▁ቤትና":8303,"▁እንደሚጠበቅ":8304,"▁ተከታት":8305,"▁እንድትሆን":8306,"▁መስተዳድር":8307,"ማችሁ":8308,"ባለን":8309,"ታለን":8310,"ወደው":8311,"ፈቅ":8312,"▁አወጣ":8313,"▁የሚሆነ":8314,"▁አልኩ":8315,"▁መሰለኝ":8316,"▁ብሔሮች":8317,"▁ጨዋታው":8318,"▁ኅብረተሰብ":8319,"▁ብሏል፦":8320,"ሳቱ":8321,"ፈሰ":8322,"▁ከጠ":8323,"▁ለማገልገል":8324,"▁የኢትዮ":8325,"▁ፕሬስ":8326,"▁የሚገልጽ":8327,"▁በግብፅ":8328,"አይቪ":8329,"ኗኗር":8330,"ምፅ":8331,"ቦን":8332,"▁ነበርና":8333,"▁እስከሚ":8334,"▁እኔና":8335,"ብዛም":8336,"▁የሚያሳየው":8337,"▁መክፈል":8338,"ስጋ":8339,"ፍያ":8340,"▁አዘጋ":8341,"▁ከሙ":8342,"▁ሲካሄድ":8343,"▁ጥብቅ":8344,"▁አገላለ":8345,"ሁም":8346,"ጂዎች":8347,"▁በባህር":8348,"▁ባህርይ":8349,"▁ይጠቁማል":8350,"ሄደው":8351,"▁W":8352,"▁የሜ":8353,"▁አቆጣጠር":8354,"▁እንደዚሁ":8355,"▁የአስቸኳይ":8356,"▁ቅስቀሳ":8357,"▁ተጠቁሟል":8358,"▁ሚዲያዎች":8359,"▁ለሽ":8360,"▁ስፋት":8361,"▁አልቻል":8362,"▁ጀግና":8363,"▁44":8364,"▁ዘመድ":8365,"▁በተቃራኒው":8366,"▁ምሕረት":8367,"ራችንን":8368,"ካተት":8369,"ኸኝ":8370,"ፍም":8371,"ፖንሰር":8372,"▁የግብር":8373,"▁እናንተም":8374,"ቁና":8375,"ባትን":8376,"▁መጀመር":8377,"▁ጠባብ":8378,"▁የወረ":8379,"▁ሜት":8380,"▁ለሚገኙ":8381,"▁ህዝብን":8382,"▁ተግ":8383,"▁ተሽከርካሪዎች":8384,"▁በተከታታይ":8385,"▁ለማውጣት":8386,"▁በማጠናከር":8387,"▁ንዑስ":8388,"▁አነጋ":8389,"▁ማእ":8390,"▁ትቶ":8391,"▁የመረ":8392,"ገኙም":8393,"ቀረበው":8394,"▁አስተዳደርን":8395,"▁አብዛኛዎቹ":8396,"ከታተሉ":8397,"▁ማክሰኞ":8398,"ምቀት":8399,"▁በኅ":8400,"▁ባራክ":8401,"▁ማዕቀፍ":8402,"▁ለደ":8403,"▁ብጥብ":8404,"▁ታግ":8405,"▁ከድህነት":8406,"ናፍ":8407,"▁አሳድ":8408,"▁ሆናለች":8409,"▁አድራጊ":8410,"▁ይጀምራል":8411,"ማቱ":8412,"ሽት":8413,"▁እንጨት":8414,"▁ሲጀምር":8415,"▁መግዛት":8416,"▁ያቀረበው":8417,"▁ይጠበቅበታል":8418,"ብራት":8419,"ጋባ":8420,"ጤት":8421,"▁በምና":8422,"▁ለመመ":8423,"▁ያስደ":8424,"ፈራረ":8425,"▁እሷም":8426,"▁ደንበኞች":8427,"ሰባቸው":8428,"ዝቃ":8429,"ግሥት":8430,"▁ወታደር":8431,"▁እንደውም":8432,"▁የተያዘ":8433,"▁የሚሰጠውን":8434,"▁ቁጥራቸው":8435,"▁በዕለቱ":8436,"▁በኃይል":8437,"ወደ":8438,"ገዘ":8439,"ግነት":8440,"▁ኀ":8441,"▁የደርግ":8442,"▁ማገልገል":8443,"▁ጊዜና":8444,"ንስና":8445,"▁በሰዎች":8446,"▁የራሳቸው":8447,"▁መድረኩ":8448,"ልኛል":8449,"የረ":8450,"▁ውዝ":8451,"▁ይህች":8452,"▁ሕጎች":8453,"▁አለመኖር":8454,"▁የጎዳና":8455,"▁ፈረንሳይ":8456,"ዋለህ":8457,"▁የሱ":8458,"▁ተጉ":8459,"▁የወቅ":8460,"ጋለጥ":8461,"▁የዝ":8462,"▁ይካሄ":8463,"▁ያሸነ":8464,"▁ትናገራ":8465,"▁ገጣሚ":8466,"▁የግለ":8467,"▁43":8468,"▁ጀምረዋል":8469,"▁በፈረን":8470,"▁ኢንቨስትመን":8471,"ንቦት":8472,"ገፋ":8473,"▁ድብ":8474,"ገራቸውን":8475,"▁ሬዲዮ":8476,"ቃቅንና":8477,"▁ይነግ":8478,"▁ይሰጣሉ":8479,"▁ሰራተኛ":8480,"▁የመጨረሻው":8481,"▁በማህበራዊ":8482,"ደባ":8483,"▁ሁለንተናዊ":8484,"ኖርበት":8485,"▁ከማሳ":8486,"▁መዝገብ":8487,"▁መምራት":8488,"ላቀቅ":8489,"▁አፈፃፀም":8490,"ፊትም":8491,"▁እንደቀ":8492,"▁ግራም":8493,"▁ፍየ":8494,"▁ጉዳተኞች":8495,"▁ፀጥታ":8496,"▁የምርመራ":8497,"ኪም":8498,"▁ይለያ":8499,"▁የሚፈልግ":8500,"▁አማር":8501,"▁ክልሉ":8502,"▁አጋጥ":8503,"▁ሊያደርግ":8504,"ቆጠብ":8505,"▁ያቀረቡት":8506,"▁ገፅታ":8507,"▁የተቋቋመው":8508,"▁የሚወጣ":8509,"▁እንደሆን":8510,"▁የተተ":8511,"▁ልቡ":8512,"▁ዘለ":8513,"▁ሊኖረው":8514,"▁ካሣ":8515,"▁መስፈር":8516,"▁ሃገር":8517,"▁ፓርኮች":8518,"▁የሀገራችን":8519,"▁የኦሮሞ":8520,"▁በመቀጠል":8521,"▁ትምህርቱን":8522,"▁መጡ":8523,"▁ይገኝ":8524,"▁ትው":8525,"▁በእስራኤል":8526,"▁ቢሮው":8527,"▁የገለፁት":8528,"▁The":8529,"▁በመንፈስ":8530,"▁ዩኒ":8531,"▁መጓዝ":8532,"▁እንኩ":8533,"▁በጥቂት":8534,"▁ያተኮረ":8535,"ፍቱ":8536,"▁ይይ":8537,"▁ሞዴል":8538,"▁የሚሰጡት":8539,"ካተተ":8540,"▁እናደርጋለን":8541,"ሻሽ":8542,"ጠናል":8543,"▁ተጣ":8544,"▁በማያ":8545,"ሰቡት":8546,"▁በነበሩ":8547,"▁ከሌላ":8548,"▁ዝርያዎች":8549,"ጥበት":8550,"▁የረጅም":8551,"▁በአገሪቷ":8552,"▁ገመ":8553,"▁እነርሱ":8554,"ዘውተሪያ":8555,"▁ምልልስ":8556,"▁ለመንግሥት":8557,"▁H":8558,"▁ለድር":8559,"▁ክረምት":8560,"▁ሚዛን":8561,"▁ሙያዊ":8562,"▁በግንባ":8563,"▁በጥናት":8564,"▁ለእነዚህ":8565,"ውልት":8566,"▁እንግሊ":8567,"▁ከምንም":8568,"▁ሪፖርቱ":8569,"▁የ19":8570,"ጨርቃ":8571,"▁በአንፃሩ":8572,"ጋጣሚ":8573,"▁በለ":8574,"▁በዩ":8575,"▁በተራ":8576,"▁በኮን":8577,"ዕለቱ":8578,"▁የር":8579,"▁የጀመሩት":8580,"ፍራው":8581,"▁ከደቡብ":8582,"ሠሩት":8583,"ቧቸው":8584,"ደሚያ":8585,"▁ከጋ":8586,"▁የሚቀርብ":8587,"▁ያለች":8588,"▁ሰውዬ":8589,"ግለፅ":8590,"▁90":8591,"▁ዩሮ":8592,"▁እናውቃለን":8593,"ዳዊ":8594,"ድማ":8595,"▁መቻል":8596,"▁ተዳ":8597,"▁ታጋ":8598,"▁ተገኝተው":8599,"ዋይ":8600,"▁ነበራቸው":8601,"▁ሰልጣ":8602,"▁የአም":8603,"▁ተይዞ":8604,"ዓዛ":8605,"ጅቶ":8606,"▁የኛ":8607,"▁የአክ":8608,"▁አለና":8609,"▁ቆሮ":8610,"▁በኩልም":8611,"▁ቀርቧል":8612,"▁የቢዝነስ":8613,"ቋቸው":8614,"▁ነባር":8615,"▁ከነበሩት":8616,"ጨዋታው":8617,"▁የስልጣን":8618,"▁ኪሳራ":8619,"ዘነጋም":8620,"▁እንደገለፁት":8621,"ፀን":8622,"ፈረው":8623,"▁መሃ":8624,"▁የሚቀር":8625,"▁የተማረ":8626,"▁የመከላከል":8627,"▁አድርግ":8628,"▁የልጅ":8629,"▁በገዛ":8630,"▁ስፖርቶች":8631,"ምኑ":8632,"▁መንገዱን":8633,"▁ይጨምራል":8634,"▁ትግራይ":8635,"▁የማጣ":8636,"▁አድርጓ":8637,"ካሄዱት":8638,"▁በሽታው":8639,"▁ፍትህ":8640,"▁ጥቅስ":8641,"▁ተስማም":8642,"ሰም":8643,"▁በከተሞች":8644,"▁ሞተ":8645,"ችላለሁ":8646,"ቢኔ":8647,"▁ከ7":8648,"▁እንደሚሰጥ":8649,"▁ስለሆኑ":8650,"▁ዓመታትን":8651,"▁አበራ":8652,"▁ተናገረ":8653,"▁የሚገባውን":8654,"ስክሌት":8655,"ሊቲ":8656,"ደሰት":8657,"▁ሊቃ":8658,"▁ሙሽ":8659,"▁አድርጉ":8660,"▁ጭንቀት":8661,"▁ተወዳዳሪዎች":8662,"▁በሶማሊያ":8663,"ፃፀር":8664,"ሞና":8665,"▁የክል":8666,"▁የመጀመርያ":8667,"▁ለመግለጽ":8668,"▁መስፋፋት":8669,"መለክተው":8670,"ውቀት":8671,"▁ጾ":8672,"▁ይመለከ":8673,"▁የሚያስችለው":8674,"▁ዓለምን":8675,"▁ተከፍ":8676,"▁ጸጋ":8677,"▁አግኝቷል":8678,"▁ወስደው":8679,"ዛባ":8680,"▁የፌ":8681,"▁አስተዳዳሪ":8682,"▁ነበረበት":8683,"▁ጉባኤው":8684,"▁እችላለሁ":8685,"▁ገጥ":8686,"▁ኢንቨ":8687,"▁ዜጐች":8688,"▁ስትሆን":8689,"ጨብ":8690,"▁ገር":8691,"▁ከን":8692,"▁እናማ":8693,"▁አካላትን":8694,"▁የእነ":8695,"▁ሞል":8696,"ርጋ":8697,"▁ለትምህርት":8698,"▁ባወጣው":8699,"▁እያንዳንዳቸው":8700,"▁መቆራ":8701,"ሄር":8702,"▁አንብ":8703,"▁አስተናጋ":8704,"▁ቆሮ.":8705,"▁የ3":8706,"▁በፅ":8707,"▁አይሁዳውያን":8708,"▁የእጅ":8709,"ተርኔት":8710,"▁ተመድ":8711,"▁በሰላማዊ":8712,"▁አገሪቷ":8713,"ሁበት":8714,"▁ማክበር":8715,"▁ማመልከ":8716,"▁ሊሰ":8717,"▁እንደሚደረግ":8718,"▁አካሂ":8719,"▁ከሚያስ":8720,"▁የከፈ":8721,"▁ወኪ":8722,"▁ሲቲ":8723,"▁የማግኘት":8724,"▁አስተሳ":8725,"▁መሆኑንና":8726,"▁አትሌቶችን":8727,"▁የኖረ":8728,"▁ይመረ":8729,"▁ማማ":8730,"▁ታምራት":8731,"▁ዋን":8732,"▁ሶማሊያ":8733,"▁ፎቅ":8734,"ንጻ":8735,"ውር":8736,"▁ይደረግ":8737,"▁የተሰጠውን":8738,"▁መምህራ":8739,"▁ከስድስት":8740,"▁ልምምድ":8741,"ቀዱ":8742,"ኳት":8743,"▁ተመጣ":8744,"▁እውነቱን":8745,"▁በኢንዱስትሪ":8746,"ሥላሴ":8747,"ክፈት":8748,"ዖን":8749,"ዳችሁ":8750,"ዶሚ":8751,"▁አቤት":8752,"▁የወይን":8753,"▁በምታ":8754,"▁ድንገተኛ":8755,"ስታን":8756,"▁አሳልፎ":8757,"ቆማ":8758,"▁ያድ":8759,"▁ክንድ":8760,"▁ማዕከላዊ":8761,"▁ሥርዓቱን":8762,"▁ሲወጣ":8763,"▁አንችልም":8764,"▁የሌለ":8765,"▁መተማመን":8766,"▁በድንገት":8767,"▁አክሲዮን":8768,"ትክል":8769,"ካችሁ":8770,"ጠፍ":8771,"ላይታ":8772,"ስተም":8773,"ጠናቅ":8774,"▁በጥራት":8775,"▁ዞር":8776,"▁እባክህ":8777,"ለር":8778,"ላላው":8779,"ሙላት":8780,"▁በዴሞክራሲ":8781,"▁ከፕ":8782,"▁ፈፅ":8783,"ክላ":8784,"▁ህልም":8785,"▁ተወያይ":8786,"▁እንደሌለው":8787,"▁ትግሉ":8788,"▁አገልግሎቱ":8789,"▁400":8790,"▁አምራቾች":8791,"▁በጋዜ":8792,"ላችሁም":8793,"▁ያገኛሉ":8794,"▁ትናገራለች":8795,"ገራዊ":8796,"ፋትና":8797,"▁ክምች":8798,"▁የበቃ":8799,"ከፋፈ":8800,"▁ፈተናዎች":8801,"▁የማህበረሰብ":8802,"▁ተመጣጣኝ":8803,"▁በማግኘት":8804,"▁እየሰጠ":8805,"▁አላገኘ":8806,"▁መቻሉን":8807,"▁ይስተዋላል":8808,"▁የቃ":8809,"▁የ201":8810,"▁እየተሠራ":8811,"ሰማቸው":8812,"▁ህገወጥ":8813,"▁ቫይረስ":8814,"▁ዲዛይን":8815,"ሯቸውን":8816,"ፍረስ":8817,"▁ዘፈን":8818,"▁ካሬ":8819,"▁ለእዚህ":8820,"▁የተሰኘው":8821,"▁አለማየሁ":8822,"▁ክብረወሰን":8823,"▁የፅ":8824,"▁ብስ":8825,"▁ብቻም":8826,"▁በምግብ":8827,"▁ፌስቲቫ":8828,"ለ0":8829,"ቦል":8830,"ጅመንት":8831,"▁ፍፁም":8832,"▁የማይችል":8833,"▁ዜጎ":8834,"ደረግን":8835,"ይቅ":8836,"▁በማሸነፍ":8837,"▁ሻምፒዮን":8838,"▁እንደሚገባም":8839,"▁ከመሆን":8840,"▁በሌሎችም":8841,"▁ይጠቅሳሉ":8842,"▁አስከባሪ":8843,"ቆረ":8844,"▁የቅር":8845,"▁አጥር":8846,"▁ስማቸው":8847,"▁ገቡ":8848,"▁ለማስፋፋት":8849,"▁ተጠሪ":8850,"▁ኤም":8851,"ቆጠረ":8852,"▁በሰማ":8853,"▁ይችል":8854,"▁አልታ":8855,"▁ከመጀመሪያ":8856,"ገልገ":8857,"▁አቀፋዊ":8858,"▁ኃላፊነቱን":8859,"▁ከግምት":8860,"▁ጀመርኩ":8861,"ec":8862,"▁እዚሁ":8863,"▁ምግባ":8864,"▁ውሀ":8865,"▁የመር":8866,"▁እስከመ":8867,"▁በሙስና":8868,"▁198":8869,"▁ብልሹ":8870,"▁የኅብረተሰብ":8871,"▁የሚያነሳ":8872,"▁ፍጥ":8873,"▁ፈት":8874,"▁መብትና":8875,"ጀምሩ":8876,"▁መልእክ":8877,"▁ማሰልጠኛ":8878,"ዓብ":8879,"▁ጥገና":8880,"▁አይቶ":8881,"▁ኦፍ":8882,"▁አግኝተው":8883,"▁የደረሱ":8884,"▁አውሮፕላ":8885,"ሻንጉ":8886,"ጃም":8887,"▁የጅ":8888,"▁ሲሰጥ":8889,"▁መምሪያ":8890,"▁ዝግጅቶች":8891,"ቃጠል":8892,"▁እቴ":8893,"▁በእኩል":8894,"▁ሊያሳ":8895,"ሽናል":8896,"ኤም":8897,"ዎቿ":8898,"ጫዋ":8899,"▁የበረ":8900,"▁የዝናብ":8901,"▁ተባብ":8902,"▁እንዲገባ":8903,"ምፒዩ":8904,"▁ሽብርተኝነት":8905,"▁እረፍት":8906,"▁ዝምድና":8907,"▁በየዕለቱ":8908,"▁በበቂ":8909,"▁ካርታ":8910,"▁የሚከተለውን":8911,"ቆመ":8912,"▁አለብኝ":8913,"ላቸውና":8914,"▁ዶናልድ":8915,"በላሸ":8916,"▁ለማንኛውም":8917,"▁ተረጋግጧል":8918,"ወሓት":8919,"መንድ":8920,"ኚህ":8921,"ከመ":8922,"▁ተንቀሳ":8923,"▁የመሠ":8924,"ሪያቸው":8925,"▁ብሔራት":8926,"▁መንገሻ":8927,"▁በማስመዝገብ":8928,"▁በተባበሩት":8929,"ይስ":8930,"▁አሞ":8931,"▁በብቃት":8932,"▁ተስማሚ":8933,"ደሉ":8934,"▁የሚደረጉ":8935,"▁ማወ":8936,"▁ገብተዋል":8937,"ልውና":8938,"ቲቭ":8939,"ኖራት":8940,"ጀው":8941,"ጦሽ":8942,"▁መከበር":8943,"▁ከ50":8944,"▁ተገናኝ":8945,"ጠቀሱት":8946,"▁ከእነ":8947,"▁በጥቅ":8948,"ገቡት":8949,"▁መምጣቱ":8950,"▁ሀገራዊ":8951,"▁የሚቆጠር":8952,"▁የተራ":8953,"▁ለመፈጸም":8954,"▁በድምሩ":8955,"▁በቡድን":8956,"ራጮች":8957,"▁መንግሥትን":8958,"▁ብልጫ":8959,"▁ማስታወሻ":8960,"▁የፍትሕ":8961,"▁ዴኤታ":8962,"ሪም":8963,"▁ሲመጡ":8964,"▁በተያዘው":8965,"▁ሊደርስ":8966,"▁ፍጡ":8967,"▁እውቀ":8968,"ነጋገሩ":8969,"▁ጥላሁን":8970,"▁ያስታውሳሉ":8971,"▁እሰ":8972,"▁እያከናወነ":8973,"▁የሚያስፈልገው":8974,"▁ውጤቶችን":8975,"▁ከእናንተ":8976,"ሻሻለ":8977,"ስፒታሉ":8978,"▁በማሳየት":8979,"▁ባሉበት":8980,"▁ውስጣዊ":8981,"በዙ":8982,"▁፩":8983,"▁የፈጠረ":8984,"▁የፈጠረው":8985,"▁መመዘ":8986,"▁አስመስ":8987,"ጀመርያው":8988,"▁ዕድሜያቸው":8989,"ርግ":8990,"ጨርስ":8991,"ፈኑ":8992,"▁እላለሁ":8993,"▁ታዳሚ":8994,"▁ሕሊና":8995,"▁ኪዳ":8996,"▁በ197":8997,"▁​1":8998,"▁ባለስልጣናት":8999,"ሩትን":9000,"ጢአት":9001,"ጸል":9002,"▁የሚሄድ":9003,"▁የሚመለከተው":9004,"▁ያረ":9005,"▁አለችው":9006,"▁ቅኝ":9007,"▁ሁኔታም":9008,"▁ባይሆን":9009,"ውቀው":9010,"▁ሆድ":9011,"▁ንቁ":9012,"▁የዘንድሮ":9013,"▁ተመልሰው":9014,"▁ግለሰቡ":9015,"ሙትን":9016,"ንሽ":9017,"ዳፊ":9018,"ዷቸው":9019,"▁ለዜ":9020,"▁ሊሰጠው":9021,"▁ፈሪ":9022,"▁ይጠቀሳል":9023,"▁በመንፈሳዊ":9024,"ስያ":9025,"▁ፎር":9026,"▁አቁ":9027,"▁ከዛሬ":9028,"▁ወደብ":9029,"▁ውድቅ":9030,"ህንነት":9031,"▁ሃሳቦች":9032,"▁የየራ":9033,"▁ሂደቱ":9034,"▁ተደራጅተው":9035,"▁ማሻሻል":9036,"▁የተናገረ":9037,"▁የመላ":9038,"▁እንደሚለው":9039,"ድረክ":9040,"▁እያልኩ":9041,"ሰማራ":9042,"▁መለኪያ":9043,"▁የተቀመጡ":9044,"▁አሪፍ":9045,"▁በመባል":9046,"▁ክቡር":9047,"▁አመጣ":9048,"▁የውይይት":9049,"▁መታሰቢያ":9050,"▁የቀረቡ":9051,"▁ክፉኛ":9052,"ከበረው":9053,"▁ከቁ":9054,"▁ጥግ":9055,"▁በእያንዳንዱ":9056,"▁ሙቀት":9057,"▁በስፖርቱ":9058,"▁ምስል":9059,"▁በኢየሩሳሌም":9060,"▁ላስ":9061,"▁በፈቃ":9062,"▁ነገሥታት":9063,"▁በመዝ":9064,"▁የመግ":9065,"▁ጨምረው":9066,"▁ተመስ":9067,"▁ተከናው":9068,"ደገፈ":9069,"ልታ":9070,"ፔን":9071,"▁በክልል":9072,"▁የሚፈጥር":9073,"▁ለሕዝቡ":9074,"ዘዋወር":9075,"▁ቤተክ":9076,"▁አቅራቢያ":9077,"▁የሚናገረው":9078,"▁በእነሱ":9079,"▁ያሳስ":9080,"▁እምብዛም":9081,"ፋፍ":9082,"▁ፑ":9083,"▁ያገለ":9084,"▁አይዘነጋም":9085,"▁ታን":9086,"▁ጎልማ":9087,"▁ገብቷል":9088,"▁ፊልሞች":9089,"▁ሰርቪስ":9090,"▁መበ":9091,"▁መፈጸም":9092,"▁የተዘጋጀው":9093,"▁ሰአት":9094,"▁ሸቀ":9095,"▁ጋዜጠ":9096,"▁በ196":9097,"▁ተቋማትና":9098,"ሙማን":9099,"ተሪ":9100,"▁ከዳ":9101,"▁ድረገ":9102,"▁ዓመቱን":9103,"ጀንሲው":9104,"▁የጠቅላይ":9105,"▁የቀበሌ":9106,"▁የዓለማችን":9107,"▁ለወደ":9108,"▁ልጇ":9109,"▁ጎልቶ":9110,"▁ባለመኖሩ":9111,"▁ምሁራ":9112,"▁ለዓመታት":9113,"ካዊ":9114,"▁አጎ":9115,"▁እማ":9116,"▁መወሰ":9117,"▁ይገለ":9118,"▁በጉጉት":9119,"▁የበኩሉን":9120,"ዋወቅ":9121,"ፉበት":9122,"▁ይፈልጋ":9123,"▁ተዕለት":9124,"▁ጠፋ":9125,"ሰብኩ":9126,"ርምያስ":9127,"▁ራሴን":9128,"▁ረዥም":9129,"▁ስንዴ":9130,"▁ተቀምጧል":9131,"▁ለየ":9132,"▁ያደርጉ":9133,"▁ያለንን":9134,"▁መለየት":9135,"ግዚቢ":9136,"ያለን":9137,"▁በደም":9138,"▁ይለኛል":9139,"▁ባያ":9140,"▁ያሳያሉ":9141,"▁የቆዩ":9142,"▁መመሪያዎች":9143,"ቁበት":9144,"ቸገሩ":9145,"▁ሄዱ":9146,"▁ይረዳል":9147,"ቀኛ":9148,"ቾቹ":9149,"▁መቅረብ":9150,"▁ሁሴን":9151,"▁መንግሥቱን":9152,"▁የገጠ":9153,"▁ፅሁፍ":9154,"▁ተጀምሯል":9155,"ደቡ":9156,"▁h":9157,"▁በንግ":9158,"▁የመታ":9159,"▁ገድ":9160,"▁ሌሊ":9161,"▁ያለችው":9162,"▁46":9163,"▁እርምጃዎች":9164,"ባውያን":9165,"▁በሚሊዮን":9166,"▁ከመካ":9167,"▁ማስመዝገብ":9168,"▁የሰውነት":9169,"▁የቅድመ":9170,"ሞከር":9171,"▁በሺ":9172,"▁አሥራ":9173,"▁ከፊት":9174,"▁ለሦስት":9175,"▁ለመጀመር":9176,"▁ቢስ":9177,"▁መስኖ":9178,"▁በየመን":9179,"▁ድንኳ":9180,"▁ማዕረግ":9181,"▁መዝናኛ":9182,"ደረሰባቸው":9183,"▁ፎረም":9184,"▁የመሰለ":9185,"as":9186,"ሟን":9187,"ያየ":9188,"▁የተሳተፉ":9189,"▁ባት":9190,"▁እንደሚሰራ":9191,"ሰብዓዊ":9192,"▁ከሆነው":9193,"▁በዓሉን":9194,"▁አቅርቧል":9195,"▁ወላጅ":9196,"▁ለፖ":9197,"ጠበቂያ":9198,"ቶችንና":9199,"▁አቅጣጫዎች":9200,"▁ተፈላጊ":9201,"▁ለራሱ":9202,"▁ባለቤቶች":9203,"ሩበት":9204,"▁ንድ":9205,"▁አታው":9206,"▁የሚመለከት":9207,"▁ሲነሳ":9208,"▁እያልን":9209,"▁እነር":9210,"ቀውም":9211,"▁ርእ":9212,"▁ፖለቲከኞች":9213,"▁መጽሔት":9214,"ይም":9215,"▁ተደረገ":9216,"▁ተደጋጋሚ":9217,"▁ያውም":9218,"▁በመል":9219,"▁የአደጋ":9220,"▁ተመስር":9221,"ረዳቸው":9222,"▁ኤፌ":9223,"▁ቤቶችና":9224,"▁የቆዳ":9225,"▁ውድድሮችን":9226,"▁ምርትና":9227,"▁ኢኮኖሚያዊና":9228,"ጡና":9229,"▁አጽ":9230,"▁ማዘጋጀት":9231,"▁ገብር":9232,"ለትና":9233,"▁ቅጥር":9234,"▁የልማትና":9235,"25":9236,"ኋቸው":9237,"ያንም":9238,"ጣራ":9239,"▁እንዲሰሩ":9240,"▁እናገኛለን":9241,"▁የሚያስፈልጉ":9242,"▁ጢሞቴዎስ":9243,"▁ጉልበ":9244,"ሰራር":9245,"ላለፊያ":9246,"ላችኋል":9247,"▁ዚ":9248,"▁ለምር":9249,"▁ወራ":9250,"▁ማካሄድ":9251,"▁በመሳሰ":9252,"▁የአዕምሮ":9253,"▁ተፈጻሚ":9254,"▁ሐኪሞች":9255,"▁መጀመሩን":9256,"▁ይሠራል":9257,"ሮጥ":9258,"ዶም":9259,"▁ያለብን":9260,"▁መቀየር":9261,"▁ይኼን":9262,"▁መቃብር":9263,"▁to":9264,"▁ፍራፍሬ":9265,"▁በቦታው":9266,"▁አማርኛ":9267,"ክራሉ":9268,"▁በብር":9269,"▁ካለፉት":9270,"ነርጂ":9271,"ባበሪያ":9272,"▁እርስዎ":9273,"ቸር":9274,"ዮርክ":9275,"▁ይስማ":9276,"▁አስቆጥ":9277,"▁በስብሰባ":9278,"ሮፕላን":9279,"ስፈላጊ":9280,"▁ሚዛናዊ":9281,"ከማ":9282,"▁አካላዊ":9283,"▁ለእሱ":9284,"/ሚ":9285,"▁ድፍረት":9286,"▁አንቀፅ":9287,"▁ለራሳቸው":9288,"97":9289,"ካችን":9290,"▁ከኋላ":9291,"▁አልችልም":9292,"▁ለአምስት":9293,"▁ድጋፍና":9294,"▁በዶ":9295,"▁ተባለ":9296,"▁ያለባቸውን":9297,"▁ሸማ":9298,"▁መዋጮ":9299,"▁አምናለሁ":9300,"ቅለ":9301,"ደነ":9302,"▁የችግሩ":9303,"▁በታማ":9304,"▁ከ8":9305,"▁የመጠቀም":9306,"▁ስለአ":9307,"▁ሥራቸው":9308,"▁ነገሥት":9309,"▁ረሃብ":9310,"▁ማኅበሩ":9311,"▁ምስጢር":9312,"▁ተቀብለው":9313,"▁ታውቃለህ":9314,"ንዴ":9315,"ንኦት":9316,"▁ወፍ":9317,"▁ወዴት":9318,"▁የመማር":9319,"▁የሰሜን":9320,"▁አለው፦":9321,"ጠብቁ":9322,"ኒሳ":9323,"ንቁ":9324,"▁አስገ":9325,"▁የማራቶን":9326,"▁ክፍሉ":9327,"▁የስልጠና":9328,"ደረገውን":9329,"▁ሙሉጌታ":9330,"▁የቱሪስት":9331,"▁ተጽእኖ":9332,"ሏቸዋል":9333,"ቶሪ":9334,"ወከል":9335,"ጧት":9336,"ፊዎች":9337,"▁ሰል":9338,"▁ሲኖር":9339,"▁የመስጠት":9340,"▁የአዋ":9341,"▁ለማሟላት":9342,"▁ጨም":9343,"▁በ2006":9344,"▁መደምደሚያ":9345,"▁ማስጨበጫ":9346,"ፀባ":9347,"▁ደሴ":9348,"▁ለመሳተፍ":9349,"▁ሰብአዊ":9350,"▁ልማቱ":9351,"ሌክትሮ":9352,"ጀርባ":9353,"ጋታ":9354,"▁የጀመር":9355,"▁ተዘር":9356,"▁ቢኖርም":9357,"▁አስተላል":9358,"▁ቆም":9359,"መዘገብ":9360,"ወስዱ":9361,"▁ጉድለ":9362,"▁ይፈልጋሉ":9363,"ለዩ":9364,"ጋጭ":9365,"▁የተመዘገቡ":9366,"▁በአራ":9367,"▁በአደባባይ":9368,"▁ጠበቃ":9369,"▁ህጻናት":9370,"▁ከአውሮፓ":9371,"▁በቴክኖሎጂ":9372,"▁መድሃኒት":9373,"ብተው":9374,"▁በከፊ":9375,"▁ራሷን":9376,"ከሰተ":9377,"▁መቅደስ":9378,"▁ተዘጋጅቶ":9379,"▁ተኮር":9380,"ውንድ":9381,"▁በማጣ":9382,"▁አበባና":9383,"▁የታክስ":9384,"▁ሪፐብሊክ":9385,"▁ድምፁ":9386,"ሮድካ":9387,"ማረው":9388,"ረከብ":9389,"ተርስ":9390,"▁በየቦታው":9391,"▁ግብይት":9392,"▁መሪነት":9393,"ጭበርበር":9394,"ባሪዎች":9395,"▁የመሠረተ":9396,"▁ከመጣ":9397,"▁አመላ":9398,"▁መጠነኛ":9399,"መርመር":9400,"▁ተፅእኖ":9401,"▁ቁርጥ":9402,"▁ባለሃብቶች":9403,"ኒን":9404,"ገልጋ":9405,"▁ከሚገኘው":9406,"▁2015":9407,"▁አማራጮች":9408,"ኪዎች":9409,"ዋርያት":9410,"▁አነጋግ":9411,"▁የሚመረ":9412,"▁ብሶ":9413,"ራመድ":9414,"ርዱ":9415,"▁ከቤ":9416,"▁ሲገቡ":9417,"▁ድሬዳዋ":9418,"▁ቀበ":9419,"▁ሕያው":9420,"ገራችሁ":9421,"▁ለፍርድ":9422,"ve":9423,"ረቅ":9424,"▁የሂ":9425,"▁በነበረ":9426,"▁እንፈልጋ":9427,"▁ፍጆ":9428,"▁የሰውን":9429,"▁ተደርገው":9430,"▁ትችላላችሁ":9431,"ራውን":9432,"▁ባሻ":9433,"▁ትተው":9434,"▁መርከ":9435,"▁ንጉሠ":9436,"▁ናችሁ":9437,"▁ቅርሶች":9438,"▁ጋዜጣዊ":9439,"ቻው":9440,"ኮን":9441,"▁ፆ":9442,"▁ወደፊትም":9443,"▁ችላለች":9444,"▁በሌላው":9445,"ዳጅነት":9446,"▁መተግበር":9447,"▁ሰላምን":9448,"▁ተመራማሪዎች":9449,"▁ምርታማነት":9450,"ሯት":9451,"ጠቅም":9452,"▁ያገኙት":9453,"▁ማል":9454,"ሻሻሉ":9455,"▁ተጠቃሚዎች":9456,"▁ምድርን":9457,"▁ማድረስ":9458,"ሳዩ":9459,"▁አቢ":9460,"▁ይዤ":9461,"▁የሚታወቅ":9462,"▁እየተን":9463,"▁ቁልቁ":9464,"▁ቀርቷል":9465,"ሹን":9466,"▁ትላ":9467,"ደረጋቸው":9468,"▁ገልጾ":9469,"▁የፖሊስ":9470,"▁ቻይ":9471,"▁አዎንታዊ":9472,"▁የግንቦት":9473,"▁ፀጋዬ":9474,"ፈቀድ":9475,"▁እንዲመጣ":9476,"▁ኤፍ":9477,"▁በትዕ":9478,"ወስደው":9479,"▁ዘይቤ":9480,"▁ለሁለተኛ":9481,"ማና":9482,"▁የሬ":9483,"▁በተጓዳኝ":9484,"▁አምስተኛ":9485,"ልክት":9486,"▁መጠሪያ":9487,"▁ሩቅ":9488,".1":9489,"ጓጉ":9490,"▁እሸ":9491,"▁ማደ":9492,"▁በተባለ":9493,"▁ገጠመ":9494,"▁አገርን":9495,"▁ተናገሩ":9496,"ከፈለው":9497,"▁ኤርሚያስ":9498,"ኤን":9499,"ወን":9500,"▁ከፀ":9501,"▁ህሊና":9502,"▁ቁጠባ":9503,"ልጣል":9504,"▁መጠለያ":9505,"▁ተቀይ":9506,"▁ፋብሪካው":9507,"▁የአካባቢውን":9508,"▁አፋጣኝ":9509,"ኙን":9510,"ዓን":9511,"▁ንስ":9512,"▁በዘር":9513,"▁ውክልና":9514,"▁ረቡዕ":9515,"ቤትነት":9516,"▁መርሆ":9517,"▁በቅርበት":9518,"▁የዱር":9519,"ሰቦችን":9520,"ተኝ":9521,"ቶታል":9522,"ችኝ":9523,"ጋችሁ":9524,"▁ውሸት":9525,"ደርግም":9526,"▁ተገኝተዋል":9527,"ደስት":9528,"ጋጥም":9529,"ጨና":9530,"▁አዘው":9531,"▁ሳይቆይ":9532,"▁ከአባ":9533,"ሠራር":9534,"ገራቱ":9535,"▁ቱሪስ":9536,"ክራሲ":9537,"▁የአርሶ":9538,"▁በእሳት":9539,"▁የማህበሩ":9540,"▁ምትክ":9541,"ሳና":9542,"ዴፓ":9543,"ገልጽ":9544,"ከብሩ":9545,"▁ከእነዚህም":9546,"▁ፍቃድ":9547,"▁ይካሄዳል":9548,"▁በንጉ":9549,"▁መጫወት":9550,"▁ይገመ":9551,"ዘጋጁት":9552,"ሻንጉል":9553,"ከኝ":9554,"ዘመን":9555,"▁ፕሮጀክቶችን":9556,"▁የሚፈጽ":9557,"▁ለህብረተሰቡ":9558,"▁አድርገህ":9559,"▁አቡነ":9560,"▁አልማዝ":9561,"▁ውጊያ":9562,"▁ምንዛሬ":9563,"▁በኢየሱስ":9564,"▁ግብሩ":9565,"▁የተሰጣቸው":9566,"▁የለሽ":9567,"▁አስፈላጊነት":9568,"▁ተጫዋቾችን":9569,"ስቱን":9570,"ነቱም":9571,"ዳድሩ":9572,"▁በአህጉ":9573,"▁በበጀት":9574,"▁ተጫው":9575,"▁መጽሐፉ":9576,"▁እንፈልጋለን":9577,"ማኒ":9578,"ሸራ":9579,"ቻት":9580,"▁በጨ":9581,"▁አሶ":9582,"▁አፅ":9583,"▁ዕብ":9584,"ችልበት":9585,"▁የደመ":9586,"▁አረቢያ":9587,"▁የሴቶችን":9588,"ስቡክ":9589,"▁ማስተካከያ":9590,"ሮት":9591,"በጥ":9592,"▁በጃ":9593,"▁የተደራጀ":9594,"▁በፍጹም":9595,"ጠይቁ":9596,"ro":9597,"ዮተ":9598,"ጓደ":9599,"▁ጋዝ":9600,"▁አልተቻለም":9601,"▁ተጠናቆ":9602,"ሜናዊ":9603,"ገጠ":9604,"▁ረዳ":9605,"▁አንበ":9606,"▁በአጭሩ":9607,"▁ይገባቸዋል":9608,"ሰባቸውን":9609,"▁መጥፋት":9610,"ዋንጫ":9611,"▁ሕዝብን":9612,"▁ተፈጥሯዊ":9613,"ሳሰር":9614,"ታኔ":9615,"ገሪያ":9616,"▁ተባባሪ":9617,"▁ደላ":9618,"▁ማህበረሰቡ":9619,"▁የሚመነ":9620,"ጠቅላይ":9621,"ርሻ":9622,"ያችሁ":9623,"▁አዙ":9624,"▁አድን":9625,"▁ሲሳይ":9626,"▁ለሚለው":9627,"▁አኳኋ":9628,"ዳማዊ":9629,"▁ለመታደግ":9630,"▁ከግብፅ":9631,"ሎቹን":9632,"ዋር":9633,"ጎድ":9634,"▁በዱ":9635,"▁በፌ":9636,"▁ሲቪል":9637,"▁በተቀ":9638,"▁ቦሌ":9639,"▁ዳይሬክቶ":9640,"ተኮር":9641,"▁ታማኝነት":9642,"ሕትና":9643,"ታየው":9644,"▁ተኝ":9645,"▁ያገኛል":9646,"▁ስማ":9647,"▁እንዲደረግ":9648,"▁ትም":9649,"▁ለመለወጥ":9650,"▁አገሩ":9651,"▁የሰጠውን":9652,"▁ኤስ":9653,"▁በርግጥ":9654,"▁ሚኒስቴሩ":9655,"▁ጥናታዊ":9656,"▁ይደርሳል":9657,"▁ገለልተኛ":9658,"ፀባረ":9659,"▁g":9660,"▁ለአደጋ":9661,"▁ጽሁፍ":9662,"▁በውይይቱ":9663,"▁የምትችለው":9664,"▁ግንባታዎች":9665,"▁የሶማሊያ":9666,"▁በምርጫው":9667,"▁መቆራረጥ":9668,"መታ":9669,"ሲብ":9670,"ዘበ":9671,"▁በኬንያ":9672,"▁ያደርግ":9673,"▁እውነትን":9674,"ጠይቀው":9675,"▁የፕሬዚዳንት":9676,"▁ኮሚሽነር":9677,"▁እጃቸውን":9678,"መላ":9679,"▁መሄ":9680,"▁ይኑ":9681,"▁የሚደግ":9682,"▁ማግስት":9683,"▁እንደዚያ":9684,"▁በማከናወን":9685,"▁ፈረስ":9686,"▁ቴክ":9687,"ገምገም":9688,"▁ኢትዮጵያዊያን":9689,"▁ድሃ":9690,"▁ጋራ":9691,"▁እንደሚሆኑ":9692,"▁እነማን":9693,"▁ጽፏል":9694,"▁ስብስብ":9695,"▁ታሪኩ":9696,"ፋለች":9697,"▁የሚደረገውን":9698,"▁አስገብ":9699,"▁ልማቶች":9700,"▁ሰርቶ":9701,"ምምነት":9702,"ራለሁ":9703,"ጠቃሚ":9704,"▁በቻይና":9705,"▁ያክል":9706,"▁በማካሄድ":9707,"▁48":9708,"▁ጣሊያን":9709,"▁የ10":9710,"▁ማጥፋት":9711,"▁ሐኪም":9712,"ልፎ":9713,"ሙርት":9714,"ሰተኛ":9715,"▁ከሰማይ":9716,"▁ያመጣል":9717,"▁ግባ":9718,"▁የሚያረጋግጥ":9719,"▁ሊትር":9720,"▁ፍርሃት":9721,"▁ሾፌ":9722,"ምብ":9723,"ዩበት":9724,"ይዘው":9725,"ዳሪ":9726,"▁ይለዋል":9727,"▁የተረጋገጠ":9728,"▁አስብ":9729,"ንግዶ":9730,"▁ፍፃሜ":9731,"▁ከፍታ":9732,"▁55":9733,"▁አሳው":9734,"▁ክትትልና":9735,"▁ክብደት":9736,"▁የተካሄደ":9737,"▁በመላክ":9738,"▁ገዛ":9739,"ደርጋቸው":9740,"▁በማየት":9741,"▁የማንነት":9742,"▁እያለች":9743,"▁ከእዚህ":9744,"ጸባረቅ":9745,"▁አከራ":9746,"▁ገጠር":9747,"ዕም":9748,"▁ውሻ":9749,"▁ለመደገፍ":9750,"ሰባዊ":9751,"▁መቀሌ":9752,"▁መጨረሻው":9753,"▁ገንዘቡን":9754,"ወያየት":9755,"▁ቆንጆ":9756,"ሰሳ":9757,"ንዲ":9758,"▁የበርካታ":9759,"▁እጁ":9760,"▁ያጋጥ":9761,"▁ወያ":9762,"▁በማምረት":9763,"▁ጉምሩ":9764,"▁እርሷ":9765,"▁የዘንድሮው":9766,"ወለዱ":9767,"▁የመጣውን":9768,"▁እየቀነሰ":9769,"▁ናይጄሪያ":9770,"ዋስ":9771,"▁የአመለካከት":9772,"ሪያና":9773,"▁የወረዳ":9774,"ውያንን":9775,"▁የቴሌቪዥን":9776,"▁ለሰዎች":9777,"ቢነት":9778,"እም":9779,"▁የተነሱ":9780,"▁በመሳተፍ":9781,"▁በአዳማ":9782,"▁በተካሄደ":9783,"▁ጠ/ሚ":9784,"▁ኮም":9785,"ገንዘ":9786,"▁ሴራ":9787,"ሰጥም":9788,"▁ዩናይትድ":9789,"▁ጃን":9790,"▁የተቃውሞ":9791,"ገነዘቡ":9792,"▁አዝማሚያ":9793,"▁የወቅቱ":9794,"▁ፍራን":9795,"ፍራሽ":9796,"አዴን":9797,"▁ትንሣኤ":9798,"▁ስፖርቱ":9799,"በባ":9800,"ቸዋለን":9801,"▁ሥራን":9802,"▁የውጪ":9803,"▁ማድረጋቸውን":9804,"▁የኩባንያ":9805,"ce":9806,"ቆየ":9807,"▁ይመር":9808,"▁የሚንቀሳቀሱ":9809,"▁አሉኝ":9810,"▁ሦስቱ":9811,"▁አልባሳት":9812,"▁የወደፊት":9813,"▁ማነቆ":9814,"▁አልሆነም":9815,"ዋጋት":9816,"ዘዙ":9817,"▁ከካ":9818,"▁ለማስተካከል":9819,"▁ቢቢሲ":9820,"▁ኤንድ":9821,"▁የትኛውም":9822,"▁ለማስከበር":9823,"▁የዜጎች":9824,"▁ትእዛ":9825,"ለፈው":9826,"▁ከአሁን":9827,"▁ኤርምያስ":9828,"▁ቴክኒክ":9829,"▁ማዕቀ":9830,"▁75":9831,"▁ባልሆነ":9832,"▁መዛሙርት":9833,"▁በማንሳት":9834,"ማርያም":9835,"ብቃ":9836,"ከንድ":9837,"▁መጸ":9838,"▁ለረ":9839,"▁የተከለ":9840,"▁መውጣ":9841,"▁አንጋፋ":9842,"▁ነበርኩ":9843,"▁ወይን":9844,"▁እየተቀ":9845,"▁ከመስጠት":9846,"▁ተሰና":9847,"▁ህገመንግ":9848,"▁ተሸክ":9849,"▁ምሁር":9850,"▁የተቀመጠው":9851,"▁ከራሱ":9852,"▁የሚያደርገውን":9853,"▁የሚረዱ":9854,"▁ትምህርትና":9855,"▁የፊልም":9856,"ንዛኒያ":9857,"▁ለሃ":9858,"▁ባቢ":9859,"▁እስከአ":9860,"▁ጽኑ":9861,"▁የፕሬስ":9862,"▁ባሕርያት":9863,"ፈጽሙ":9864,"ሎምፒ":9865,"▁መርዳት":9866,"▁አድሮ":9867,"▁ለመቀየር":9868,"▁ቀበሌዎች":9869,"▁ትችት":9870,"▁የእድገት":9871,"▁l":9872,"▁አሃ":9873,"▁ለመው":9874,"▁የሚያገኙ":9875,"▁የእሱ":9876,"▁የሚያደርጉትን":9877,"▁በእንዲህ":9878,"▁ዮናስ":9879,"▁ጩኸት":9880,"ልቦ":9881,"ዋወ":9882,"▁ይለ":9883,"▁ተኩል":9884,"▁የተገለ":9885,"▁አካባቢውን":9886,"▁ሂሳብ":9887,"▁የሀብት":9888,"▁የጎደለው":9889,"▁በመስኖ":9890,"▁ስደተኞችን":9891,"▁ኢንጂነሪንግ":9892,"▁በ6":9893,"▁ማምረቻ":9894,"▁የተመሠ":9895,"▁ከህዝብ":9896,"▁በከፊል":9897,"ልባ":9898,"ዓል":9899,"▁የጫ":9900,"▁ያውቃሉ":9901,"▁ጄኔራል":9902,"▁የመፍትሔ":9903,"▁እሳቤ":9904,"▁የዚያ":9905,"▁ይከፍ":9906,"▁እንደአ":9907,"▁ለመለየት":9908,"▁የለንም":9909,"ላቀሉ":9910,"ንቀሳቀሰ":9911,"መተ":9912,"▁ሲሄዱ":9913,"▁በአነስተኛ":9914,"▁ለመምራት":9915,"▁ሳላ":9916,"▁ከአገሪቱ":9917,"▁እኩልነት":9918,"ግቡ":9919,"▁በተሰጠው":9920,"▁ለማቋቋም":9921,"▁ምልክቶች":9922,"▁ጠየቀ":9923,"▁ጤንነት":9924,"▁የሚሆነውን":9925,"ሷቸው":9926,"ጋችን":9927,"▁የዩኒቨርሲቲ":9928,"▁ይሰጥ":9929,"▁ስሙን":9930,"▁በመገንዘብ":9931,"▁ቤቴ":9932,"▁የማያስ":9933,"▁ጎረቤ":9934,"ዶሚኒየም":9935,"ባለች":9936,"▁ቬ":9937,"▁በ8":9938,"▁ይፈጠ":9939,"▁ውረድ":9940,"▁150":9941,"ደንት":9942,"▁የቋንቋ":9943,"▁የጀርመን":9944,"▁መብራ":9945,"▁ከቅ":9946,"▁ለማስፈን":9947,"ጅምላ":9948,"ቦራ":9949,"ጋር":9950,"▁የሚኖሩት":9951,"▁ሚስቱ":9952,"▁ኢትዮጵያና":9953,"ልምድ":9954,"▁ገዥው":9955,"▁ግጭቶች":9956,"▁የነፃነት":9957,"▁አመሰግና":9958,"ምስ":9959,"ናና":9960,"ጣለች":9961,"▁ለድ":9962,"▁ይከብ":9963,"▁የሚፈለገውን":9964,"▁ዘፈ":9965,"▁ከመሬት":9966,"▁3,":9967,"▁ነገረ":9968,"▁ቤተሰቡ":9969,"▁የሚነገር":9970,"ሀብት":9971,"▁ይባል":9972,"▁ሲሰራ":9973,"▁ለማዘጋጀት":9974,"▁ማህጸን":9975,"ብራውያን":9976,"▁አዲሱን":9977,"▁ተዋናይ":9978,"ስላሴ":9979,"ገመት":9980,"▁የፆታ":9981,"▁አኩ":9982,"▁እሴ":9983,"▁ሲን":9984,"▁የአስ":9985,"▁ካገኘ":9986,"▁አልገባ":9987,"▁በስፖርት":9988,"▁የታየው":9989,"▁በጥናቱ":9990,"▁ኩራት":9991,"▁ፋንታ":9992,"▁ጉምሩክ":9993,"ሊስት":9994,"ቀቁ":9995,"ጋፍ":9996,"▁በትር":9997,"▁እንበል":9998,"▁እንደሚታወቀው":9999}