#version: 0.2 - Trained by `huggingface/tokenizers`
▁ የ
▁ በ
▁ አ
▁ እ
▁ ።
▁ መ
▁እ ን
▁ ከ
▁ ነ
▁ ለ
▁ ይ
▁ ተ
ቸ ው
▁የ ሚ
▁ ያ
▁ ፣
▁ ወ
▁ "
▁ ማ
▁ ስ
▁ነ ው
▁ ም
ዎ ች
▁ ብ
ላ ይ
▁እን ደ
▁የ ተ
ነ ት
▁ ሰ
▁ ፤
▁ ው
▁ ግ
▁ ላይ
▁ ባ
▁በ መ
▁ ደ
ለ ው
▁እን ዲ
▁ ሲ
በ ት
ች ን
▁ ት
▁አ ን
ዋ ል
ው ን
▁ ጥ
ሆ ን
ዚ ህ
▁ ል
ሆ ነ
▁በ አ
▁አ ስ
. .
▁ ሁ
ገ ር
▁ ዓ
▁በ ተ
ሆ ኑ
▁የ መ
▁የ አ
በ ር
▁ ገ
ን ግ
▁ ድ
▁ ቀ
ቶ ች
ስ ት
▁ ክ
▁ ዘ
▁ለ መ
ደ ር
▁ ኢ
▁ወ ደ
ቸው ን
▁ ?
▁ለ ማ
ለ ት
▁አ ይ
▁ግ ን
▁ ሥ
▁በ ማ
ለ ም
ደ ረ
▁ ጋ
▁የሚ ያ
ን ድ
▁እ የ
ጊ ዜ
▁ 1
ስ ጥ
▁ይ ህ
▁ ሊ
▁ ታ
▁ ቢ
ተ ኛ
ራ ት
▁ ቤ
ሪ ያ
▁ ጉ
▁ው ስጥ
ረ ት
▁ ሳ
ን ም
ድ ር
ት ዮ
▁እንደ ሚ
▁ስ ለ
▁ ጊዜ
▁አ ለ
ጵ ያ
ትዮ ጵያ
▁እ ና
ር ት
▁የ ማ
▁ባ ለ
▁ጋ ር
ድ ረ
በ ረ
▁ )
▁እን ዳ
▁ ጠ
▁አ ገ
▁የ ም
▁ነ በር
▁ (
▁ ካ
ት ን
ስ ተ
ሮ ች
▁ 2
▁ ሚ
▁ ..
▁.. .
ገ ባ
▁ ሕ
▁አ ል
▁ ፍ
ላ ል
▁በ ሚ
ት ና
▁ ህ
▁ከ ተ
ቱ ን
▁ ች
▁ደ ግ
ሁ ን
▁ !
ላ ቸው
▁ደግ ሞ
መ ለ
▁ዓ መ
▁ ፈ
ግ ባ
ሎ ች
▁መ ንግ
▁ ሆ
▁አን ድ
ረ ጃ
▁ ዕ
▁ '
ና ል
▁መ ን
▁ ቅ
▁እ ስ
▁ነ ገር
ና ቸው
▁እ ያ
ጀ መ
ን ያ
▁ም ን
▁ ሌ
▁ም ክ
ሪ ካ
▁ወ ይ
▁ሥ ራ
▁ጉ ዳ
▁ሁ ሉ
▁አ ካ
▁ች ግ
ታ ል
▁አስ ተ
0 0
▁ ዋ
ገ ድ
ት ም
ሰ ብ
ረ ው
ራ ዊ
ማ ት
▁የ ኢ
መ ን
▁ ኃ
ያ ን
ዲ ስ
▁በ እ
▁መ ሆኑ
ዳ ን
ድረ ግ
▁ያ ለ
▁ሳ ይ
ከ ል
ታ ት
▁አ ም
▁ሰ ው
▁ያ ለው
ች ሁ
▁እየ ተ
ተ ው
ብ ር
▁መ ስ
▁ከ መ
ፈ ል
▁የ ነ
▁ያ ህ
▁ከ አ
ሉ ት
▁መ ል
ባ ቸው
ጠ ና
▁የ እ
▁ ሀ
▁ ፕ
▁ብ ቻ
▁በ ዚህ
ዎች ን
ኋ ላ
ላ ት
ም ን
▁ድ ር
ቅ ር
▁ ሙ
ን ስ
▁አ ቶ
▁ቤ ት
ማ ሪ
ለ ያ
▁ ኮ
ታ ቸው
ኛ ው
ሥ ት
▁ብ ዙ
▁ ቁ
ና ት
ኔ ታ
▁ ናቸው
ር ም
ለ ሁ
ከ ተ
▁ያ ስ
▁የ ሰ
ባ ቢ
▁ከ ፍ
▁ይህ ን
ገ ል
▁ ሆነ
ዝ ብ
▁ሁ ኔታ
▁ምክ ንያ
▁ወይ ም
ለ ን
ያ ው
ገ ኘ
▁እ ነ
በ ሩ
▁በ ኋላ
▁አ ባ
ገ ው
▁ ዝ
ል ጣ
ለ ች
ከ ት
ቅ ም
ጠ ቀ
▁ ን
▁አ መ
ፊ ት
ች ል
▁ሰ ዎች
ተ ር
ላ ክ
▁ ጨ
ገ ኙ
ቃ ል
ብ ረ
ታ ወ
▁ደ ረጃ
▁ኢ ትዮጵያ
ሠ ራ
▁ ቦ
▁የ ወ
▁ክ ፍ
▁አ ድር
ታ ው
▁ ሃ
ገ ራ
▁ለ አ
ሚ ያ
▁እንዲ ሁ
ኞ ች
ር ስ
ቦ ች
▁ ራ
▁አ በ
የ ት
▁ተ መ
▁በ ላይ
ጣ ት
ም ህ
ሽ ን
ረ ዳ
ረ ጋ
▁መሆኑ ን
▁አይ ደ
▁ተ ጠ
ዎ ቹ
ም ና
▁ 3
▁ ዳ
▁ሆ ኖ
▁ዓመ ት
ታ ዊ
▁ሲ ሆን
▁መ ካ
▁እስ ከ
ገ ለ
ይ ወ
ኖ ር
ቀ ር
▁ብ ር
ቷ ል
ዚ ያ
ዮ ን
ገ ን
▁የ ግ
ያ ስ
ፍ ሪካ
▁ ኤ
▁እንዲሁ ም
ለያ ዩ
ነ ሳ
▁የ ሆነ
▁ ቆ
ድ ን
ጥ ር
ነ ው
▁ወ ቅ
ል ቅ
ሰ ራ
ጠ ር
ዓ ት
ጠ በ
ባ ል
▁እንደ ሆነ
ሰ ማ
▁ሌ ላ
▁በ ቀ
▁ቀ ን
ግ ሎ
▁መን ገድ
ም ሮ
▁አገ ል
▁ማ ስ
ባ ት
▁ከ ዚህ
▁ ሴ
▁ነ ገ
ረ ስ
▁ስ ራ
▁ከፍ ተኛ
ፓ ር
▁አ ሁን
▁እንዲ ህ
▁ኃ ይ
▁በ ር
ራ ል
▁ ሐ
▁ችግ ር
▁ብ ሎ
▁የሚያ ስ
ጠ ው
ዘ ጋ
▁ተ ቋ
▁አ ብ
▁እ ኔ
▁ማ ለት
▁ ቡ
ክ ል
መ ስ
▁አበ ባ
ሰ ው
▁በ የ
▁የ ስ
▁በመ ሆኑ
▁ም ር
ለ ይ
▁የ ው
▁መካ ከል
▁ ዶ
ገ ኝ
ሳ ይ
ል ክ
▁የኢ ትዮጵያ
▁አ ደ
▁ ጀ
▁መ ሰ
ስ ፋ
ኛ ል
ሪ ቱ
▁ጉዳ ይ
▁መንግ ሥት
ን ና
▁እን ዴ
ደ ው
ሩ ት
ሊ ዮን
ሥ ራ
ላ ፊ
ያ ቄ
▁አ ዲስ
ሳ ት
▁አ ቀ
ቶ ችን
▁ከተ ማ
ቀ ው
▁ው ጤ
ብ ት
▁አ ት
መ ጣ
ሩ ን
▁ወቅ ት
▁ ጎ
ዛ ሬ
▁እን ጂ
▁በ ኢ
▁ ላ
▁ተ ግባ
▁ዘ ር
▁ሚ ኒ
▁ከ እ
▁ጥ ያቄ
ታ ቸውን
▁ቢ ሆን
ኩ ል
ዓ ለም
ዘ ብ
▁አ ገር
ተ ዋል
▁የ ህ
ወ ጣ
ሞ ክ
▁በ ም
በ ል
ኖ ች
ካ ሄ
▁ያ ል
▁አይደ ለም
▁አካ ባቢ
▁ይ ች
ፖ ርት
ራ ቸው
▁አገል ግሎ
▁ዓ ይ
ሪ ክ
▁እ ር
▁ት ምህ
▁ዕ ድ
ቱ ም
▁ ሜ
ወ ሰ
ፈ ው
ኝ ነት
▁ው ድ
▁ምክንያ ት
▁በ ግ
▁ቦ ታ
▁በተ ለይ
ጀመ ሪያ
ቸ ዋል
▁ኢ ን
▁ ሽ
ቢ ያ
▁ፕ ሮ
▁መ ጠ
▁ገ ል
▁የነ በረ
▁ሥ ር
. ም
መ ው
▁ከ ሚ
ደ ም
▁የ በ
▁ያህ ዌ
ና ው
▁ድር ጅ
ላ ሉ
▁ 4
ግ ር
ቀ ረ
▁ያህ ል
በ ው
ፍ ት
ሉ ም
ላ ማ
▁ማ ን
▁እ ው
▁ ሞ
ደረ ገ
ሳ ብ
ለ ዋል
▁አ ው
ዮ ች
▁ ፓር
▁ተ ና
▁እንዲ ያ
ካ ታ
ሱ ን
ሰ ቡ
▁አ ር
▁ተ ቀ
▁እነ ዚህ
▁እንዴ ት
ሱ ስ
ር ድ
▁አ ሉ
▁ ፖ
▁ ረ
▁የማ ይ
ጨ ማሪ
ወ ቅ
ገ ና
▁አ ማ
ዶ ች
▁ ጽ
ል ም
ው ያን
▁ዓ .ም
ለ ቲ
ክ ት
ቤ ት
▁ ሺ
ረ ዋል
ዳ ደር
▁በ ፊት
▁የሚ ል
▁መ ሠ
ጽ ሐ
መ ር
▁ ዜ
ቀ ት
▁ሳይ ሆን
ሳ ሌ
ይወ ት
ሪ ዎች
ኮ ኖ
▁ ር
▁ይ ሁን
የ ሱስ
▁ዓ ለም
▁ዓመ ታት
▁ሲ ያ
ም ር
▁ማ ህ
▁ይ ሆ
▁ 5
ሏ ል
ከ ር
ነ ስ
▁ትምህ ርት
▁የ ት
▁ ጭ
▁ያ ሉ
▁ከ ማ
ን ን
▁ዘ መን
ካ ም
▁ሌ ሎች
▁ድ ረስ
ገ ሪቱ
▁ክ ል
ፈ ጠ
▁ል ጅ
ጣ ም
▁ተ ወ
ና ገ
▁እን ኳ
▁ሁ ለት
▁በ ስ
▁የ ታ
ላ ለ
▁ተ ብ
▁ኃ ላፊ
ጋ ል
ላ ም
ች ው
2 00
ነ በረ
ራ ሲ
ለቲ ካ
▁ ኦ
▁ለ ው
ሞ ች
▁ይ ሄ
ጆ ች
▁ማ ድረግ
▁አ ሳ
ደረ ጉ
ግ ኘ
▁በ ሰ
▁በ ሌ
▁ቅ ዱ
ው ም
ችን ን
ሙ ያ
ፌ ዴ
ር ያ
▁ለ ም
ግ ብ
ከ ላ
ን ት
▁አን ዱ
▁ይች ላል
▁አገልግሎ ት
መ ራ
ከ ና
▁ሁ ለ
የ ር
ዲ ያ
▁በ ጥ
ም ነት
▁ግን ባ
ፖ ር
▁አም ላክ
ጤ ና
ባ ለ
▁ል ማት
▁በ ኩል
ሳ ቸው
▁ይ ገባ
▁አ ቅ
▁ተና ግ
ገ ት
ፋ ት
▁የ ሕ
▁ ኪ
ፈ ለ
▁ስ ም
▁ባ ህ
ጽሐ ፍ
▁ወ ጣ
ክ ስ
▁ ቴ
▁መ ረጃ
ዩ ኒ
▁ይሆ ናል
▁ወ ር
▁ሚ ሊዮን
ት ር
▁ ኩ
ዝ ቡ
▁ይ ገ
▁ገ ን
ህ ን
ጦ ር
▁ወ ን
▁በ ጣም
▁እንደ ተ
ቅ ድ
ገኘ ው
መ ረ
ቃ ሚ
ሬ ት
▁ፕ ሬ
▁የ ል
▁ቅዱ ስ
▁በር ካታ
ጠ ት
▁ ዛሬ
▁ፓር ቲ
ል ና
▁ዋ ና
በት ን
ሜ ሪካ
ረ ብ
▁ኢ የሱስ
▁ም ንም
▁ ቃል
ላ ችሁ
ገ ቡ
▁እ ጅ
▁በ 1
▁መ ሆን
ከና ወ
ሰ ባ
▁ል ዩ
▁ለ እ
▁የሚ ሰ
ግ ራ
ያ ዘ
ቀ መ
▁ድ ጋ
ብረ ተ
ዚ ዳን
ደ ግ
▁ዘ መ
▁እንዳ ይ
ጀ ት
ቃ ት
ሳ ተ
የ ው
▁በ ው
▁በማ ለት
▁የም ት
ጡ ት
ሄ ድ
▁ተ ከ
ነ ቱ
ደ ት
▁እን ቅ
▁በ ሁ
▁ ፋ
ቻ ቸው
ፈ ጥ
ረ ን
ጨ ረ
▁ ሪ
ብ ረት
▁መንግ ሥ
▁አን ዳ
▁ከ ዚያ
▁የመ ንግ
▁አቀ ፍ
▁ቤ ተ
ክ ር
▁ግ ብ
▁እ ድ
ደር ግ
▁በ ደ
ም ፒ
ኮኖ ሚ
▁ለ ሚ
▁ጠ ቅ
▁አስተ ዳደር
▁መ ር
▁ ጣ
ላ ው
▁በ በ
▁አ ጋ
▁ሚኒ ስት
ተኛ ው
▁የተ ለያዩ
▁ሊ ያ
ታ ይ
▁ት ኩ
መ ል
▁ስለ ዚህ
▁ብ ሔ
▁አስ ፈ
▁ስ ር
ረጋ ገ
▁መንግ ስት
▁አለ መ
ጋ ት
ንግ ድ
ዘ ር
▁አ ሰ
▁ ሠ
ልጣ ን
ይ ት
ን ተ
ል ን
ዩኒ ቨ
ፉ ት
▁ስ ት
ትም ህ
▁በተ ጨማሪ
▁ ዲ
▁የሚ ለው
▁ከ ሆነ
ግኘ ት
መለ ከ
▁የ ቀ
▁በአ ንድ
ኖ ሩ
ን ዳ
▁ 6
▁ለማ ስ
▁ለ ተ
ገ ነ
▁የ ሆኑ
▁ብ ለዋል
▁ጨ ዋ
ስ ና
ክ ተር
▁በ ሙ
ው ል
ሮ ችን
▁እንዳ ለ
ባ ይ
ያ ህ
ን ቀ
ጠ ቃ
ግ ለ
▁በ ዓ
▁ድ ን
▁አ ያ
ተ ኞች
በ ብ
▁ዓይ ነት
▁በ ት
ሁ ኑ
▁አ ድ
▁ሲ ል
▁እን ድ
ያ ዊ
▁መ ሆ
▁ብ ለው
ሞክ ራሲ
▁በኢ ትዮጵያ
▁ቁ ጥር
▁ማ ዕ
▁ያለው ን
▁አት ሌ
ደረ ግ
▁ ፀ
ደረ ገው
ር ሲ
በ ያ
ጠቀ ም
ና ዊ
ታ ችን
▁ኮ ሚ
ነ ጋ
▁አ ዳ
▁ለማ ድረግ
▁ድጋ ፍ
▁ ዙ
ደ ራ
ፈ ጸ
▁የም ን
▁ዘ ንድ
ትምህ ርት
ጠበ ቅ
ማ ር
▁መ ጥ
▁ ሄ
▁ተ ገ
ማ ይ
▁ተ ስፋ
▁ማ ሳ
ያህ ዌ
▁የተ ሰ
▁ጥ ረት
▁ባለ ሙያ
▁እ ኛ
ጋ ራ
▁በመ ቶ
▁ይ ጠ
ሊ ያ
▁ጥ ሩ
▁መሠ ረት
ድ ሞ
ዛ ት
ኤ ል
ባ ለው
ኑ ን
▁ ሂ
ቹ ን
▁የ ራ
ም ላክ
ሉ ን
ርሲ ቲ
▁የ ገ
▁አገ ሮች
ታ ማ
ይ ና
ች ሉ
ሯ ል
▁ጀ ምሮ
▁ውጤ ት
▁እን ግ
▁የ ባ
ስ ቃ
▁ትኩ ረት
▁እንደሚ ያ
ቀ ጥ
▁ይገባ ል
ጥ ብ
ዋ ን
ሻ ሻ
▁ተናግ ረዋል
በ ታል
▁ፕሬ ዚዳን
▁ለ ዚህ
ካ ባቢ
▁ቀ ደም
ፈ ር
▁ፍ ላ
ዩኒቨ ርሲቲ
ከ ራ
ዱ ስት
▁ግንባ ታ
ጨረ ሻ
ሰ ጥ
▁ሙ ሉ
ላ ጊ
ክ ምና
▁በማ ድረግ
▁የ ጥ
▁ ፊ
ደር ጉ
▁በ ሕ
▁ያ ሳ
▁ምክ ር
▁መ ድረ
▁በ ወ
▁የ ፖ
▁ቢሆን ም
▁ገል ጸ
ብ ራ
ስቃ ሴ
▁አ ፍሪካ
ፍ ራ
ዲ ህ
▁ 7
ነት ን
ከ ፍ
▁ተጠ ቃሚ
ከተ ማ
ሱ ም
▁የ ደ
በ ቃ
ነ ዚህ
ቋ ቋ
ም ት
አ ዴ
ከ ሰ
▁ኃይ ል
▁2 0
▁ግን ኙ
▁የ ለም
▁ገን ዘብ
ገ ብ
▁ጨዋ ታ
▁አንዳ ንድ
ቻ ል
▁ሰ ብ
▁ነገ ሮች
ለ ማ
▁እንቅ ስቃሴ
▁በመሆኑ ም
▁ይህ ም
▁ወ ንድ
2 0
▁አ ላ
▁ባ ን
▁ቤ ቱ
▁ ኳ
መ ት
ያ ዝ
ል ጠና
▁ ሶ
▁ ዴ
▁ተ ማሪ
ግ ጥ
▁ስ ን
▁ት ን
▁ለው ጥ
▁ት ልቅ
▁አ ቅም
ሦ ስት
▁በ ብ
▁መ ቀ
ፈ ት
▁ተቋ ማት
▁ሁሉ ም
ነ በር
▁መ ለ
▁ቤ ቶች
▁ታ ሪክ
▁አለ በት
▁ድ ም
▁አ ዋ
▁ተብ ሎ
▁ ሸ
ሎ ጂ
▁ባ ይ
ቅ ና
▁2 00
▁ያ ሉት
ጠ ራ
▁ዝ ግ
ርስ ቲ
▁ክፍ ል
▁ዘር ፍ
▁አ ለው
ሳ ል
ነ ሱ
ጎ ች
ተ ን
ስ ታ
▁ ቋ
▁ ዮ
▁ክ ለ
▁የ ለ
ና ቸውን
ደ ኛ
▁ችግ ሮች
▁በተ ለያዩ
▁መ ጽሐፍ
ሻ ለ
▁የ ሌ
ርም ጃ
ብ ን
መ ድ
ና ገራ
ስ ራ
▁በ ራ
▁በሚ ል
አዴ ግ
ስ ን
▁ 8
▁አደ ጋ
ዘ ው
▁ስ ሜ
▁ዋ ጋ
ላ ቸውን
ስ ቴ
▁በሙ ሉ
ዱስት ሪ
ለ ጠ
ገራ ችን
▁ል ብ
▁ጉዳ ዮች
ቡ ብ
▁በ ህ
ሳ ኔ
ነት ና
▁ይ መስ
ዚ ሁ
▁ት ር
▁ምር ጫ
▁ .
ደር ስ
ጠና ቀ
መ ዘ
▁ሥር ዓት
▁ካ ል
▁በ ታ
▁የነ በሩ
▁የሰ ው
▁በ ነ
ተ ት
▁ድርጅ ት
▁ል ማ
▁በአ ሁኑ
▁መ ብ
ምን ት
▁የ ብ
▁አገ ራት
▁ፍላ ጎ
ባ ንያ
▁ከ 1
▁ያ ላቸው
▁የነበረ ው
▁የ ዓለም
▁ክል ል
▁በ ል
▁ጥ ቅም
▁ነ ፃ
ን ጫ
▁ል ጆች
ላ ዊ
ኛው ም
ማ ኖ
▁የሚ ጠ
▁ፕሮ ጀ
▁ገልጸ ዋል
▁ቡ ድን
▁ሕ ዝብ
▁ግ ድ
▁ይህን ን
ቋ ል
▁የአ ፍሪካ
ራ ንስ
ለ ህ
▁ነ ዋ
▁ማ ስተ
▁የ ሥራ
▁1 0
ባ ሉ
▁የው ጭ
ሳ ሳይ
▁ቆ ይ
ን ካ
ሰ ር
▁መን ገ
▁የመ ጀመሪያ
▁ይ ላል
▁ን ጉ
▁በ ቅር
▁መል ካም
ይ ማኖ
▁ሰ ዓት
ራ ን
▁በ ሽ
ዳ ር
▁ ሻ
▁ 9
▁ጉ ባ
▁ፖ ሊ
▁ወ ጥ
▁የ ዘ
▁ህ ዝብ
ብረተ ሰቡ
ጀመ ር
▁መ ሥ
▁ ጦር
ረ ድ
▁ይ ልቅ
ብ ኝ
ሁ ንም
ጀመ ረ
▁ፈ ቃ
▁አመ ራ
▁በእ ር
▁ ቃ
ቦ ት
▁ከ ወ
ረ ተ
▁አድር ጎ
ክ ለ
▁ገ ብ
ላ ሽ
ደ ጋ
▁ጋ ዜ
▁እጅ ግ
▁ቀ ር
▁1 9
▁ኳ ስ
ክ ኖ
▁አካ ል
▁ፕሬዚዳን ት
▁ውድ ድር
▁ው ሳኔ
ሰ ቦች
▁ስ ብ
▁ተ ደር
▁ሰ ጥ
▁አካ ላት
▁ስለ ሚ
▁ግንኙ ነት
ቶ ቹ
▁መ ዝ
▁የፖ ለቲካ
ን ቋ
▁ያ ደር
▁በ ፍ
ጣ ሚ
ጠ ል
ብር ና
▁እንኳ ን
▁ተግባ ር
▁ ዩኒቨርሲቲ
ቆ ጣ
▁መጠ ን
▁ሴ ቶች
▁ታ ላ
ዎች ና
ነ ገ
▁አ ቅር
▁ ጌ
ጿ ል
▁አ ክ
ገን ዘብ
ጣ ል
▁ሺ ህ
▁ኩ ባንያ
ጣ ይ
ፈ ራ
▁የ ዕ
▁አስፈ ላጊ
▁የሚ ገኙ
ከ ለ
▁መን ፈ
ቤ ተ
ቂ ት
▁መሰ ረት
▁አ ሁንም
ደ ገ
▁ሆኖ ም
▁በ ዓለም
ዳ ጅ
▁መ ው
ቂ ያ
ወ ስ
▁ተ ቃ
▁ለ ምን
መ ሰ
ከ ብ
▁መል ኩ
ስ ጠት
▁በማ ስ
▁ዓ.ም .
▁ሜ ትር
ኞ ቹ
▁መ ብት
ኩ ት
▁መ መ
ክኖ ሎጂ
▁አል ተ
▁ /
▁ከ ሌ
▁ይ ናገራ
▁ ጫ
▁ሌላ ው
▁በ1 9
ጠቃ ላይ
▁በሌ ላ
▁1 2
ች ለው
▁ሚኒስት ር
▁በ ዘ
▁መ ሬት
▁ይ ቻ
▁የ ቆ
ኖ ረው
ቅ ረብ
▁እንዳ ል
▁ ጸ
▁ሆነ ው
ባ ብ
ፌዴ ሬ
ዘጋ ጀ
▁ደ ር
መለ ከተ
ላ ር
▁አ ሸ
▁ ሠራ
ማ ቸው
▁ያስ ፈል
▁ገ ቢ
▁ዙ ሪያ
▁አማ ካ
▁የሆነ ው
ጓ ል
▁ደ ን
ቻ ችን
▁ዓ ላማ
▁ሊ ሆን
▁ይቻ ላል
▁በ ሆነ
ጣ ቸው
▁ወጣ ቶች
▁አስተ ያ
ል ጽ
▁ሴ ት
ጠ ን
▁መ ድ
▁ያል ተ
▁ባ ል
▁አ ጥ
ሙ ት
▁ሚኒ ስቴ
ንድ ን
▁ማ ኅ
▁ሕ ግ
ረ ም
▁ይ ሰ
▁መ ሪ
▁ ና
▁ ሱ
ፍ ጠር
ግ ል
ደ ን
ጅ ት
ስ ተኛ
▁አም ስት
ፎ ች
▁አ ቋ
▁ስለ ሆነ
▁እ ምነት
▁ሰ ላም
ግባ ር
ኗ ል
ኮ ች
ሳ ቸውን
ለ ኝ
▁ለማ ሳ
ል ፍ
ሳ ቀ
▁ከዚያ ም
▁ተገ ቢ
▁1 5
▁አስተ ዋ
▁የተ ለ
ታ ደ
▁ቅ ር
▁የ ኤ
ና ገር
▁1 1
ም ድ
. አ
▁ይ ታወ
ፈል ግ
▁በ ድ
▁ውድ ድ
▁በአ ዲስ
▁ከ ሁ
ሳ ቢ
▁ቡ ድ
ገባ ው
▁እ ሱ
▁መ ም
▁ፍ ቅር
ዳ ል
ገ ኛ
መለ ስ
ይ ል
ነ ቱን
▁ም ስ
ረ ጥ
▁ይገ ኛል
ካ ል
▁ይ ዞ
▁ ዞ
በል ጥ
ፈጥ ሮ
በ ራዊ
▁ም ርት
▁ከ ባ
▁ተ ሳት
▁የ ሁ
ወ ጥ
▁ ጓ
▁ዶ ላር
▁ተ ሳ
ጫ ወ
ዝ ቦች
ሮ ፓ
▁አስ ታው
▁ጨ ምሮ
▁አን ተ
▁ታ ዲያ
▁ነ ጥብ
▁ብ ዬ
ሶ ች
ሊ ዝ
▁ምክንያ ቱም
በረ ታ
▁ረ ገድ
▁መ ግለ
▁መ ኖ
▁ባለ ፈው
ለ ቱ
ላ ቀ
ደረ ሰ
ቆ ጠ
▁መ ታ
▁ተመ ል
▁የ ትምህርት
▁የ ጠ
▁በበ ኩ
ፈ ን
▁ገ ለ
▁እ ዚህ
▁ስ ታ
▁ው ሃ
ጥ ረት
ጥ ታ
▁እ ርምጃ
ሞ ት
ክል ሉ
▁ሕ ይወት
▁ሲ ሉ
▁በተለይ ም
ህ አዴግ
ጉ ም
ት ል
ላ ን
▁እ ኮ
ዘ ን
ሙ ን
ር ቅ
▁ገ ና
▁ነ በሩ
▁የ ሀ
ሳ ሰ
ስ ቱ
ቀ ም
▁በዚህ ም
ከላ ከል
▁ዶ ክተር
▁ም ላሽ
▁የተ ሻለ
መለ ካ
▁ሚኒስቴ ር
ው ና
ወ ጡ
ያ ቸው
ቻ ቸውን
ስ ማ
▁ለም ሳሌ
ራ ጭ
▁መ ፍት
/ 200
ከ ታ
ገለ ጹ
ዕ ራ
▁ቢ ሮ
▁ል ጆ
▁ከ ኢ
▁ዳ ይ
▁ ኖ
▁አ ፈ
▁የተ ነሳ
ጣ ን
▁ካ ለ
ዳ ሚ
▁ስ ፖርት
ዝ ና
▁የ ኮ
▁አባ ላት
▁የል ማት
▁የ ጎ
መ ጡ
▁ለ ኢ
▁እንደ ነበር
ደ በ
▁ም ድር
▁ው ይ
ሽ ኑ
ራ ይ
ቾ ች
ችል ም
ያ ል
▁አ ግ
ሩ ም
ጅ ም
▁ ፊት
▁የ ካ
▁መ ነ
ይ ን
▁ይ ኖር
▁በተጨማሪ ም
▁የአ ምላክ
▁አን ዳን
ን ባ
▁ይ ገል
▁ተ ገል
▁የመንግ ሥት
ሃ ል
ዱ ን
▁ክ ርስቲ
ሳ ዊ
▁ ንግ
ንካ ራ
ር ና
▁ከ ሰ
▁ወ ጣት
ነ ግ
▁ይ ታ
▁ፍ ርድ
ረጋገ ጥ
ዳ ደ
▁ዕድ ል
▁ቋ ንቋ
ጣ ጫ
▁ባ ለው
▁ግ ለ
ተ ና
ካ ት
▁አጋ ጣሚ
ቁ ት
ስ ብ
▁ም ሳሌ
▁ ሦስት
▁ት ክ
▁እስ ካ
▁ ጤና
▁ፍላጎ ት
ባ ቸውን
▁በሚ ያ
ካባቢ ው
▁ገ በያ
ካሄ ድ
ቨ ስት
▁አ ራት
▁1 4
▁ ሩ
ን ፈ
▁ኮሚ ቴ
ያ ይ
▁ስሜ ት
▁ጠ ቁ
▁ሀ ብት
▁መሆ ናቸውን
▁አብ ዛ
ድ ስት
▁ተግባ ራዊ
ካሄ ደው
ቅ ረ
▁የ ጤና
ናገ ሩት
አ ት
▁1 3
ስተ ዋ
▁አ ሜሪካ
▁የኢ ን
▁በ ጉ
ማ ን
▁ር ዕ
▁አይ ነት
ደ ብ
ረዳ ት
▁የሚ ታ
ል ካም
ደረ ጃ
ዱ ት
▁ይ ላሉ
▁የ ሥ
▁ሐ ሳብ
▁ዳይ ሬ
▁ ሮ
▁ሥራ ዎች
ሎ ችን
▁በ ወቅ
ባ ባ
▁እንደ ማይ
▁ባለሙያ ዎች
▁አካባቢ ዎች
ል ኝ
▁በ ቂ
▁በ 200
▁ቀ ጥ
▁ነ በረ
ለው ም
መን ት
መ ዋል
ሸ ነ
▁በቅር ቡ
▁ድር ጊ
▁ፕሮ ግራ
▁እንዲ ሆን
ስ ር
▁በ ገ
▁የ ኦ
▁ጉዳ ት
▁ጠቅ ላይ
ዳ ዳ
▁ወ ጪ
ቡ ት
▁ብሔ ራዊ
▁ከ ነ
ጋ ሚ
ቡ ን
ኑ ሮ
▁የ ያህዌ
▁የ ፈ
ል ማት
▁ ቱ
ረጋ ግ
▁የ ቻ
▁አር ሶ
▁ባለ መ
▁ሜ ዳ
ሰ ን
ቷ ን
▁እው ነ
▁ዴ ሞክራሲ
ፎ ር
▁ ኬ
▁ይ ሆን
▁ወ ራት
▁አቅ ጣጫ
ራ ሉ
▁የተ ቀ
ዘጋ ጅ
ከ ፋ
መ ቱ
▁ጠ ንካራ
ነ ኛ
▁ጥ ናት
▁ወ ረዳ
▁ል ክ
▁ተሳት ፎ
▁በ ረ
▁ታ ው
ገ ሪ
▁ይሁን ና
▁ስ ላ
ያ ዙ
▁ኢ ኮኖሚ
▁ዋ ንጫ
▁ከ ው
ዋ ሚ
▁ሚ ና
ብ ሪካ
▁ ኅ
ል ቁ
ጠ ኛ
▁የ ፍ
▁መል ስ
ዋ ና
ከፍ ተኛ
▁በ ቅ
▁ይ በልጥ
▁በአ ገሪቱ
▁ተ ሰ
ለ ፍ
▁ሰ ር
በት ም
ቶች ና
▁የአ ዲስ
ማ ል
▁ተ ራ
ውል ድ
ች ላ
▁ጭ ምር
▁ቢ ሊዮን
ወ ር
ዳ ታ
▁ባለ ፉት
▁አ መለካ
▁እ ግር
▁ጥ ና
▁አል ፎ
▁በ ሀ
ጣ ው
▁ይ ኖ
20 1
ገለጹ ት
ል ስ
ሰ ድ
▁በወቅ ቱ
ቶ ን
▁ማ ግኘት
▁በእር ግጥ
▁ዜ ጎች
ግ ና
▁የ ንግድ
ሱ ት
▁ተ ጫ
▁የኢ ኮኖሚ
▁ዮ ሐ
ሻ ገር
ዛ ቤ
▁በሽ ታ
▁ማ ድረ
▁ሥር ዓ
ያ ያዘ
ርም ር
▁ ፌዴሬ
▁በተ መለከተ
ዘ ሮ
ጋ ቸው
▁ ቻ
ር ጫ
▁ይ ኸ
ዳ ቸው
ቧ ል
▁ወ ዳ
▁በመ ንግ
ሰ በ
▁በ ዚያ
▁ድር ሻ
▁እንድ ት
ሎ ት
▁ ፅ
ይማኖ ት
▁ን ብረት
▁ ፓ
ሟ ል
▁ጉባ ኤ
▁ቴ ክኖሎጂ
ታ ፊ
▁ሆ ኗል
▁አባ ል
▁ሰ ፊ
ቀ ዋል
▁ቁ ጥ
ጠ ፋ
መለ ከት
ማ ኝ
▁ሂ ደት
ደር ገው
ጋ ሪ
▁መ ተ
▁1 7
▁ፕሮጀ ክ
▁መግለ ጫ
ምፒ ክ
ጠ ይ
▁ጉ ዞ
▁አል ነበረ
ዝ ር
▁ያ ው
▁ም ግብ
▁ው ጪ
ገና ኛ
▁ጽ ሑ
▁ተ ከት
▁ባን ክ
▁ስብ ሰባ
ፍ ታት
▁ኢን ዱስትሪ
▁የ ቀረ
ቆ ም
ጠ ብ
▁ፖ ለቲካ
ገ ሩ
▁እ ግ
▁መ ሳ
ራ ቸውን
ክ ሮ
▁አ ላቸው
ኛ ውን
▁ይናገራ ሉ
ሰ ሩ
ንቀ ሳቀ
▁መ ምህ
ኪ ያ
▁የ ሙ
በረ ሰብ
▁1 6
▁ብ ሄ
/ ር
▁አ ፍ
ያ ት
የ ም
ዳ ት
▁መ ዋ
ቀር ብ
▁በ ባ
ኞ ችን
▁የሚያስ ችል
▁የ ክ
ረ ታዊ
▁እነዚህ ን
▁ጥ ር
▁እያ ለ
ስ ቶ
ዚ ቃ
ሠ ሩ
▁የግ ል
▁ውጤ ታማ
▁የሚ ፈ
▁ኃላፊ ነት
▁የሚ ችል
በ ራት
▁ው ጭ
▁ ንግድ
▁ሀ ገር
ቴ ን
ከ ረ
በ ዋል
ጋ ይ
▁1 8
ሴ ቶች
▁የ ፕ
ጨ ዋ
▁በመ ሆን
ሮ ስ
▁ለማ ግኘት
ሁ ት
▁ጥ በቃ
▁ፍ ት
ሃ ን
▁ ጆ
ሌ ክት
ስ ፒ
▁ት ራንስ
ህ ል
▁ቢ ያ
ዘር ፉ
▁ከ ም
ፈጠ ረ
▁የሚ መ
▁ጉዳ ዩ
ጣ ሪ
ቱ ት
ሷ ል
ፍ ና
ፈል ጉ
ግባ ት
▁የስ ራ
▁ከ ስ
▁ስ ፍራ
▁ተገል ጿል
▁የ ሃ
▁እው ነት
▁ሪ ፖር
▁የሚ ሆኑ
▁የ ቴ
▁ ናት
▁አስተያ የት
▁ያስፈል ጋል
▁ነ ኝ
ባ ዊ
ጀ ን
▁መ ቶ
▁የተ ወሰ
▁ዕ ቅድ
▁የ ከተማ
ስት ና
▁ተማሪ ዎች
▁የህ ዝብ
ፈጸ ም
▁የ ድ
▁በቀ ጣይ
▁አግ ኝ
▁ሁለ ተኛ
▁በ ዕ
▁የም ና
ቦ ችን
▁ስ ልጠና
▁የ ዚህ
ኪ ና
▁መስ ጠት
▁እስካ ሁን
▁እንዲ ያው
ዕ ኖ
ከ በር
መለ ክ
ራ ክ
ፍ ን
▁ወይ ዘሮ
▁የም ታ
ሮ ሚያ
ባ ቸዋል
▁ሕ ገ
ዝ ም
ኝ ም
ራ ው
ሳ ሰብ
▁ለ ሁ
በሩ ት
▁ብ ላ
▁ዝግ ጅት
▁አመ ልክ
ራ ም
▁መ ጣ
▁ጥ ቅ
ዩ ት
ር ክ
ግባ ቡ
ጭ ት
ጥ ም
ገ ረ
▁ጉ ድ
ቋቋ ም
▁ጥ ቂት
ሰ ጠው
▁የአ ገሪቱ
▁ድ ል
▁የተ ባለው
ምፒ ዮ
ፊ ያ
▁አድር ገው
ጋ ቢ
ላ ላ
▁የ ጋራ
ከናወ ን
ል ህ
▁መድረ ክ
▁ስ ኬ
▁ባለ ቤት
▁ቀ ናት
▁ወ ረ
▁ተ ፈ
ጀመ ሩ
▁ዕድ ሜ
▁ከባ ድ
ከ ፈ
▁ፈቃ ድ
ፌዴ ራል
ድ ሩ
ጊዜ ው
ብ ዛ
ነስ ተኛ
▁ ሉ
▁አ ሠራ
▁በተ መ
▁ዕድ ገት
መል ከት
▁ለ ሌ
▁ያ ላ
▁የሚያ ሳ
ያ ቂ
ው ሮፓ
▁በ ጋራ
▁ይች ላሉ
ዳ ሴ
▁በበኩ ላቸው
ርያ ም
▁ባ ሻገር
ጠና ከር
▁ኪ ሎ
መ ም
ዲ ት
▁በ ጎ
ገ ዛ
ጀ ል
ቀ በ
▁2 5
ዳ ና
ደረጉ ት
ለያ የ
▁በሌ ሎች
ደ ል
▁ወ ዲህ
▁የ ሞ
ል ማ
ነ ታቸው
ብረተ ሰብ
▁ተ ጨማሪ
▁መ ቼ
▁ድርጅ ቶች
ነበረ ው
ነ ር
ጠ ኝ
ና ፊ
በት ና
▁ለ ብ
ን ዳን
▁ጥ በብ
ራ ሽ
▁ሃ ሳብ
▁ተቋ ም
▁የሚለው ን
▁ብ ሏል
ቲ ክስ
ገን ባት
▁ለ ህ
ሥ ር
▁ሰ ሞ
ጠ ቅ
ገ ዋል
▁የአ ገር
▁ብ ለን
▁በ ዚሁ
ጠ የ
▁እስ ኪ
ሜ ን
ው ጣት
▁ፖሊ ሲ
ዊ ት
▁ጎ ን
ከታ ተ
ሰ ጡ
▁አ ኳ
ከ ባ
ች ኋ
▁ሀ ገ
▁ ጐ
ች ሁን
ቤ ቱ
ሰ ት
▁ፋ ብሪካ
ቶ ስ
▁በአ ግባቡ
ጮ ች
▁ራ ስ
ሆነ ው
▁ዮሐ ንስ
▁ስም ምነት
ሣ ሪያ
▁አን ቀ
▁ውይ ይት
▁ወ ስ
▁ስ ፖር
▁ተመ ሳሳይ
▁ተጫ ዋ
▁አስ መ
▁ለመ ቀ
ላ ችን
▁በአ ፍሪካ
ላ ቂ
ከ ያ
ሆን ም
▁ሳ ምንት
ገኙ ት
▁በአ ን
ሄ ዱ
▁የ ፀ
▁ተሳ ታፊ
▁እና ንተ
▁ከተ ሞች
▁ትን ሽ
▁ቅ ድ
ካ ሪ
ወ ለ
ጋ ዊ
ሆ ናቸው
▁ዶ /ር
መ ና
▁አሰ ልጣ
▁አን ፃ
ም ጣት
ባ በ
▁ወ ታደ
ቲ ት
▁ሰ ነ
▁ ፎ
ነ ቶች
▁አ ሰራ
▁ደ ም
▁ከ በ
▁ከ ሚያ
▁ም ዕራ
▁ሕ ዝቡ
▁የአ ሜሪካ
▁ኢ ህአዴግ
▁ባለ ሥ
ቨስት መንት
▁ደ ስ
▁በመ ስ
▁አትሌ ቶች
▁በ ክ
▁ወ ላ
▁ወ ገ
▁ድም ፅ
ር ማ
ፈ ፀ
▁እ ጥረት
▁እንደሚ ገባ
ህ ና
▁ደ ብ
▁እ ም
▁ከአ ንድ
መ ደ
▁ህ ዝቡ
ሰ ዋል
▁ይ ዘ
▁የነበረ ውን
▁ስ ል
ጽ ኦ
ን ቃ
ጧ ል
▁ንጉ ሥ
ላማ ዊ
▁በመ ቀ
▁መነ ሻ
▁3 0
ን ቅ
ሆኑ ም
▁ይ ኼ
▁በ ቁ
ስፋ ት
ሳ ሉ
ጀ ም
በ ሌ
ጥ ነት
▁ማዕ ከል
▁ማ ር
▁ይገል ጻ
▁አይ ቀ
▁ሆ ቴ
▁በአ ጠቃላይ
▁ኮ ን
ፉ ን
▁ከ ጥ
ሻሻ ል
ሀ ብ
▁ህ ገ
▁ተወ ካ
▁ትር ጉም
▁ሲ ባል
▁ተ ሸ
ማ ሽ
ገ ደ
▁ሥ ነ
▁ ዛ
▁ፈ ተና
ሜ ሽን
▁የመ ልካም
በ ላ
▁ህ ይወት
▁አገ ሪቱ
▁ነ ጋ
▁ተግባ ራት
▁ያ ን
ታ ር
▁በመ ጀመሪያ
ገ በ
▁ደ ጋ
ዲ ሱ
▁የበ ለጠ
▁የ ዓ
▁መ ሣሪያ
▁መስ ራት
ሌክት ሪክ
▁መንፈ ስ
ገ ውን
ቀ ል
ክ ሲ
▁የሕ ዝብ
ታወ ቀ
/200 9
ሽ ከር
▁ሙ ያ
▁መመ ሪያ
ገነ ባ
ጠበ ቀ
▁የ ለውም
ኖ ራቸው
▁እኔ ም
▁እንደሚ ያስ
ዚ ያው
ዛ ዝ
▁ራ ሱን
ጭ ር
ን ብ
ሴ ት
▁የ ሽ
▁የመንግ ስት
▁የሚ ወ
▁አስተዋ ጽኦ
ሪ ው
▁ት ውልድ
ፈ ረ
ጀን ሲ
▁አመለካ ከት
ደጋ ጋሚ
▁ሰብ ሳቢ
ታ ሉ
▁ብ ት
▁ፓርቲ ዎች
▁በተመ ሳሳይ
▁በአ ገር
▁መ ግ
ሎ ቹ
▁እድ ገት
ለው ን
ሳተ ፍ
▁ሀ ብ
▁ተከት ሎ
ዲ ያው
o n
▁ል ምድ
ን ነት
▁አልነበረ ም
ጀመ ረው
ጠቀ ሙ
▁አንፃ ር
▁አመ ት
▁2 4
ፎር ሜሽን
ነጋ ገር
▁አዋ ጅ
ን ቲ
ቆጣ ጠር
▁የተ ባ
▁የ ገንዘብ
▁ብ ል
ም ስት
▁ ቶ
▁ዘመ ናዊ
▁ታላ ቅ
ከ ሉ
▁ማ ለ
. ኤ
ለ ል
▁ክለ ቦች
ጻ ሚ
ገል ግሎ
▁ለ ወ
▁የሚ ባል
▁በተ ያያዘ
▁ባ ሕ
ቀር ቡ
▁ከ ግ
▁የ ድር
▁እንግ ዲህ
▁አለ ባቸው
▁በሁ ለ
▁ለ ሕ
▁መ ኖር
▁ደ ረ
▁ከሌ ሎች
▁ ጅ
▁የወ ጣ
ሙ ር
ሮ ቹ
▁ግ ራ
▁በዓ ል
▁እያ ንዳን
ዎቹ ን
▁የ ፋ
ቡ ር
▁የ ዳ
▁ያለ በት
▁የሆነ ውን
▁ያ ላቸውን
▁ሻ ምፒዮ
▁ሊ ግ
ቀ ስ
▁ጦር ነት
▁ጥያቄ ዎች
ሳተ ፉ
▁ሰ ዎችን
ሔ ር
ሬ ታ
▁መ ጀመሪያ
▁እንደሚ ችል
ገ ትና
▁ምክ ትል
▁የአ የር
ን ጉ
▁ግ ብር
▁የመ ን
▁ገ ጽ
ዋ ት
▁የቀ ድሞ
▁ማህ በር
▁የአ ንድ
ዓ ዊ
ሎ ስ
ሮ ው
▁የሚ ገባ
▁ጥ ቃት
ር ቶ
▁ሥ ልጣን
▁ዕ ው
▁ ጳ
▁በ ስተ
▁በ ጀት
▁ሕ ይወ
▁በ 201
▁ተ ነ
▁እን ድን
▁እንዳ ለው
▁በ ከፍተኛ
▁ክል ሎች
▁የሚ ሉት
▁አም ባ
▁የማ ስ
▁2 1
▁ከ ል
▁ዘ ገባ
ገራ ቸው
በ ራ
▁የ ዋ
▁ያደር ጋል
ቻ ለ
ሰ ል
▁ባህ ል
▁አለ ኝ
▁ግ ልጽ
▁ክፍ ሎች
▁አማካ ኝነት
▁ቀ ላል
▁ዳይሬ ክተር
▁የሚ ችሉ
▁የተ መ
▁ከ ብ
▁ች ሎ
▁አ ነስተኛ
ቃ ቸው
▁ዞ ን
ሳ ኝ
የ ሁ
▁አኳ ያ
ስተ ካ
▁ተቃ ዋሚ
▁የሚ ገኘው
ኮኖ ሚያ
▁ይ ቅር
▁ዕ ቃ
▁ተ ደራ
▁ዳ ር
▁ለ ዘ
▁አስተ ሳሰብ
▁የስ ፖርት
e r
▁2 2
▁መ ላ
▁አ ወ
ጨ ት
▁ጠ ብ
▁የተለ የ
▁ክርስቲ ያ
▁በ ከተማ
▁የሚ ሉ
▁ ጊ
▁ኢትዮጵያ ውያን
ከ ው
ዴ ሞክራሲ
▁ከእ ነዚህ
▁ፍ ሬ
▁የ ቤት
▁ሆ ስፒ
ዳ ጊ
▁መ ጨረሻ
▁የመ ጣ
▁ይ ቀ
▁እንደ ሌ
▁ይ ፋ
ነ በ
ዋ ለሁ
▁የ ጉ
▁የ ቅ
▁ብ ቃት
▁ተጠ ቅ
▁ዝ ቅ
▁ትክ ክለ
ገ ም
a n
▁ተ ፅ
ል በት
▁ደ ስታ
ለ ቀ
ጣ ጥ
▁አድር ጓል
ሐ ፊ
▁አ ዎ
ራ ቴ
▁በ ኦ
ኛ ሉ
ለ ኛል
▁አ ህ
▁ግን ዛቤ
ዝ ግ
ህ ነት
ጉ ን
▁ጣ ቢያ
▁ያ ደረገ
▁ገ በ
ው ው
▁ ሦ
▁አስ ቸ
ካሄ ደ
▁ሚኒስት ሩ
ፈ ጠር
▁ጠቁ መዋል
▁እ ርስ
▁የዕ ድ
▁አ ራ
i n
▁ትምህ ር
▁ከ ታ
▁አለ ማ
▁ት ዕ
ገለ ጸ
▁ተ ጠና
▁አ ጠና
▁አቋ ም
▁መል ክ
▁ስ ድስት
ዬ ን
▁መ ክ
▁ይታወ ቃል
ር ባ
▁ነዋ ሪ
00 0
ዎች ም
▁ፕሮጀ ክት
▁ም ሥ
▁ማ ንም
▁ሰ ላ
▁ተከ ታ
▁የም ግብ
ለ በት
ወ ገድ
▁ለ ስ
▁መፍት ሔ
ቁ ም
▁እድ ል
ግባ ብ
▁ውድድ ሮች
ራ ችን
▁ክ ፉ
▁ቡ ና
መለከ ተው
ቀ ድ
▁ገ ብረ
▁ ኑሮ
▁ችግ ሩ
አ ብ
▁መ ቆ
▁አመራ ር
ሥ ራት
ጦ ች
ስተ ር
▁ፕሮግራ ም
ጋ ጥ
ዳዳ ሪ
ር ሶ
ድ ብ
▁የሚያ ደርጉ
▁ተቋ ማ
ረ ታ
▁ተ ያይ
ኮኖሚያ ዊ
▁ክፍ ለ
5 0
▁ይ ባ
▁ም ናል
▁በታ ች
ፈል ገው
▁ለዚህ ም
ዳ ቤ
▁ዝ ም
▁ይ ዘው
▁ማለት ም
▁ላ ለ
▁ሪ ፖርት
▁እ ህ
▁እ ኩል
ድረ ስ
▁የ ጦር
▁ጌ ታ
ቻ ሉ
ቀጥ ል
▁ ዩ
▁ተ ጋ
▁ው ኃ
ዷ ል
▁ተ ሰጥ
▁ጥ ራት
▁የነበሩ ት
▁ይገ ኛሉ
ዳ ው
▁ሳ ያ
▁በቀ ላሉ
▁አሸ ናፊ
▁የ 1
▁እስ ራ
▁በ ኮ
ጠ ረ
ጻ ጸ
▁አ ደር
ነ ታቸውን
ጠ ዋል
ራዊ ት
▁ፈ ጥ
▁ሁለ ቱ
ም ረት
▁ስ ህ
ረ ቱ
መ ዝ
ሳ ን
▁ክፍ ያ
▁እንደ ማ
▁የሚ ተ
▁ምን ጭ
▁መ ሪዎች
▁ማስ ታወ
▁ዴሞክራሲ ያዊ
▁ኖ ሮ
t h
▁ግ ዴ
ዶ ቹ
▁ ዐ
▁እን ስ
ፈል ጋ
▁እ ቅድ
▁ስር ዓት
ይና ንስ
▁ክ ብር
▁ያ ስተ
▁2 3
ፃ ናት
▁ጠ ይ
▁ ፌ
▁ም ንድን
▁አስ ረድ
▁ም ሁ
ወጣ ው
▁ለም ንድን
▁እና ም
▁ከ ቀ
▁ስለ መ
▁የሆኑ ት
▁ ጀመር
▁ቁ ር
ከላ ከያ
ብ ብ
▁መ ሸ
▁ለመ ስ
▁ነ ፍ
ደ ኛው
ተ ናል
▁የእ ር
▁ለመ ሆን
▁አማ ራጭ
▁ዘ ዴ
ባ ረ
▁ለመ ፍታት
▁ሰሞ ኑን
ዎ ስ
▁ከዚህ ም
▁ም ግባር
ርስ ቶስ
▁ማ ራ
▁ሪፖር ተር
ራ ር
▁ታው ቋል
▁በ ስፋት
ኒ ት
ታ ን
▁የመ ስ
▁በ ይ
▁በ ምን
▁ማ ቴ
ች ግ
ጠ ውን
▁ማ የት
▁ገል ፀ
▁ተ ዋ
ቀመ ጥ
ደ ሰ
▁ም ቹ
ታ ችንን
ካ ሂ
▁ል ን
▁እ .ኤ
ሰ ስ
▁መንገ ዶች
ኔ ት
ወ ድ
ከናወ ኑ
▁ራ ሱ
▁የበ ላይ
▁ሠራ ተኞች
▁ኢትዮጵያ ዊ
▁የማ ህ
▁በራ ሱ
▁እ.ኤ .አ
▁ሰ ን
▁ዝ ር
▁ሰ ይ
▁የመ ሰ
▁ቦታ ዎች
▁በተ ደጋጋሚ
▁ባለ ሀብ
▁አዳ ዲስ
▁ቅ ሬታ
ለ ጥ
▁ተ ን
ርት ራ
ሞ ላ
▁መንግሥ ታት
ቡ ና
▁አሠራ ር
ቆ ጥ
▁ያ ቀረ
▁የ ቱ
▁ለመ ስጠት
▁አይ ችልም
ሴ ን
▁ጀ ም
▁ል ት
ጠናቀ ቅ
▁የመጀመሪያ ው
ን ፃ
▁ወን ዶች
▁መሥ ራት
▁ስ ደ
▁ሰ ራ
▁ሆ ይ
ብ ቶ
▁በመ ስጠት
▁አ የር
▁ኃይ ሎች
ፈጠ ረው
ዚ አብ
▁በ ፈ
▁ቀ ድሞ
▁ወ ሳኝ
▁የም ርጫ
▁ተጠ ያቂ
ገልግሎ ት
▁ዝ ና
ወሰ ን
መ ነ
ተ ኝነት
▁ም ልክ
▁መ ቅ
▁ደ ቡብ
ግ ም
▁ይመስ ላል
ቱ ና
▁የግ ድ
▁ዋ ናው
▁በማ ሳ
▁ሁሉ ንም
▁የ ያዘ
▁ሰ ለ
▁ወ ል
ላ ቅ
ኒ ክ
▁ ጃ
▁ነዋ ሪዎች
ሳ ካ
▁ይሄ ን
▁ክ ት
▁አ ጀ
▁ከኢ ትዮጵያ
ጨ ባ
▁ችግ ሩን
▁ተ ጽ
▁እንደ መ
▁በ ቃ
▁ያሉ ትን
▁ ሹ
ጁ ን
▁ኤ ጀንሲ
ቲ ክ
▁መሳ ሪያ
▁የሚ ችለው
▁ተደር ጎ
ጠ ሩ
▁ክለ ብ
▁መ ዛ
▁ሞ ት
▁የሚ ሆን
▁ልዩ ነት
ጠ ኝነት
t i
▁ሱ ዳን
▁የው ሃ
▁የሚ ገል
ክ ተ
▁መ ጻ
▁ማህ በራዊ
ለ ቅ
ና ይ
▁በመ ጠቀም
▁ኢ ኮኖሚያዊ
▁እንደ ገና
▁ይ ጠበ
ገሪ ቱን
ረ ፍ
ታወ ቅ
ከተ ል
▁ማን ኛውም
▁እያ ሉ
▁ግድ ብ
ዘጋ ጁ
▁ማስ ረጃ
▁ያ መለክ
ሳ ው
▁አብ ሮ
ጓ ዝ
▁የ ሐ
▁20 1
ዲ ዮ
▁አትሌ ት
ኒ ያ
▁አይቀ ርም
ረ ዱ
ጡ ን
▁ስለ ተ
▁ኢን ተር
ች ሏል
▁ገ ባ
▁የ ደረ
▁የ ቤተ
▁ራ ሳቸውን
▁ ሒ
▁በማ ን
ድ ድር
ቂ ቃ
ሊ ምፒክ
▁መ ፍ
▁ስራ ዎች
▁ያ ገኘ
ማ ሉ
▁ችግ ሮችን
ራቴ ጂ
▁በ ሥራ
▁ይ በ
ደር ሱ
▁ሊ ቀ
▁በመ ተ
ድር ሻ
▁ንግ ግር
▁ት ግል
▁በ ሃ
▁ሰ ማ
ታ ም
▁መረጃ ዎች
▁እና ት
ሞ ን
ህ ፈት
ታ ለች
▁ሕ ዝቦች
▁በ ሶ
ም ሩ
ከ ናው
▁አ ጠ
ችላ ለን
▁እ ሱም
ንግ ሊዝ
ላ ቸዋል
▁ተ ሞክ
▁የመ ጽሐፍ
▁እን ችላለን
ቁ ን
▁አ ረጋግ
▁ሙ ስና
ጉ ት
ሸነ ፍ
▁ድርጊ ት
▁ተቀ ም
የ ሩ
▁ታ ይ
▁ወገ ኖች
ማ ራ
ድ ና
▁የ ጋ
▁ጉባ ዔ
▁እንደ ምት
▁እንዳለ በት
ፋ ል
ጠ ነ
ስተ ና
ክ ታር
▁በግ ልጽ
መ ቻ
▁ተቀ ባይ
ያን ስ
▁ኃይ ለ
▁ዘንድ ሮ
ላቸው ም
ታ ችሁ
▁ያ ም
▁ቡድ ኖች
▁መንግ ስ
▁ምር መራ
▁ደብ ዳቤ
ት ነት
ቆጠ ሩ
▁አድ ማ
ላ ስ
▁የመ ጨረሻ
▁ህ ዝቦች
ከ ን
▁ለ ራ
▁ብሄ ራዊ
▁ህ ክምና
▁ካል ተ
▁የመ ሳሰ
▁ሥ ልጠና
▁ከ ህ
▁ይጠበ ቃል
▁እር ግ
ፏ ል
▁በሚ ገባ
ሯ ቸው
▁አባ ት
▁ሊ ያስ
▁ዓመ ቱ
▁ተቀ ብ
ው ሞ
ው ስ
▁መ ግባ
▁ጳ ው
ሮ ን
ቅር ብ
▁በሁ ሉም
▁እነ ሱ
▁መሠ ረታዊ
▁አል ቻ
▁ገል ጿል
ሪ ዝም
▁የተ ፈጥሮ
▁መፍት ሄ
ሊ ት
▁ ዱ
▁ለማሳ ደግ
ሰ ጣቸው
ላ ለች
ረ ፈ
▁ወ ዘ
▁ደ መ
ሰ ጠ
▁በ ኤ
ማ ቸውን
▁ጋዜ ጣ
▁ከ ላይ
ም ባ
▁ተ ር
ዋ ዕ
ቀ ደ
ቀ ፍ
ዋ ቸው
▁በመ ጨረሻ
ረ ሰቦች
▁አ ዛ
▁ ኋላ
ረ ግ
e n
ግራ ይ
ቻ ልም
ጊ ያ
▁ኩባንያ ዎች
▁እር ዳታ
▁በ ሰው
ሁ ዳ
ነ ህ
ሟ ላ
ማ ረ
ዘ ዋ
መለ ሱ
ማ ግ
ዋ ቂ
▁ነጋ ዴ
▁ዜ ና
ሻ ል
▁ቀ በሌ
▁ ቲ
▁የተ ቀመ
▁መሆኑ ንም
▁ሰ ባት
▁ባለ ስ
▁ሆ ና
ጠ መ
▁መ ከራ
ራ ሪ
ዘጋ ጀት
▁በእ ነዚህ
▁ሶ ስት
▁ባ ሉ
ንቃ ቄ
▁እንዲያው ም
▁ወደ ፊት
▁መስ መር
ጣ ቱ
▁እንደ ገለጹት
ናገ ሩ
ት ሌ
▁መ ኪና
▁ኢትዮጵያ ን
▁ ሬ
▁ተ ገኝ
▁ወዘ ተ
▁አይደ ል
▁እንዲ ሆኑ
▁የግ ብርና
▁ከሁ ለት
ፈ ተ
▁የሚ ባለው
▁አ ዝ
▁የሚ ገኝ
▁ነገ ሮችን
▁የ ባለ
ደ ና
▁ም ርምር
▁ህ ግ
▁በሁ ለት
▁ፈ ጽ
ሮ ፕ
ፋ ን
ጣ ሉ
ቃ ሉ
ዮ ር
▁ብ ን
▁እ ሷ
▁የሚ ሆነው
▁2 6
▁የግ ብ
▁ሁኔታ ዎች
ቻ ለሁ
▁መ ጠቀም
▁ት ች
▁ም ና
▁ለአ ንድ
▁የ ቦ
▁ምክንያ ቶች
ፈጠ ሩ
▁ሻምፒዮ ና
▁ይ ሰማ
▁የ ክልሉ
▁እንደ ሆኑ
▁እንዳ ሉት
▁በ ትምህርት
ሃ ብ
▁ታ ስ
ችኋ ል
▁ምር ጥ
▁ዋ ስትና
▁ይመስ ለኛል
▁አሰራ ር
▁ተያይ ዞ
ፋ ቸው
ማግ ሌ
▁2 8
▁ይ መ
▁ያ ደረገው
በር ካታ
▁ለመ ከላከል
▁አ ጠቃላይ
ዳ ማ
▁የ ኃ
▁ታ ማኝ
ሠ ረተ
▁ከ 3
▁ባለ ቤ
▁200 8
, 000
▁ሁለ ተኛው
ዚአብ ሔር
▁የ ቢ
ላለ ፍ
ኒ ልክ
▁መንግሥ ቱ
ው ሰድ
ቀ ን
▁ት ና
▁ይታወ ሳል
▁ትራንስ ፎርሜሽን
ላ ሴ
▁መ ሀ
▁እያ ደረገ
ሰማ ሩ
▁ጥ ላ
▁አይ መስ
▁አስመ ልክ
▁ጥ ሪ
ናገ ረው
ር ፍ
▁በብ ዙ
▁አጀ ንዳ
ስተ ው
▁የ ሶ
▁ተፅ ዕኖ
ን ክ
▁መ ወ
የ ን
ጅ ቱ
▁ነ ን
▁ማ ጣ
ባ በር
▁ትክክለ ኛ
▁ነፃ ነት
ኘ ት
▁ጳው ሎስ
▁ባህ ር
▁ገልፀ ዋል
▁በ ሥ
ዳደ ሩ
▁አስቸ ጋሪ
▁ቀ ጠ
▁ዕ ለት
ገለ ግ
▁ካ ለው
ስራ ኤል
▁ር ቀት
▁አን ዲት
▁በአ ካባቢው
▁አስረድ ተዋል
ሕ አዴግ
ደ ድ
▁በየ ጊዜው
ነ ሰ
▁ስት ራቴጂ
ና ሉ
▁በ ዋና
ጴ ጥ
▁የሥ ነ
▁መሰ ል
▁ደ ቂቃ
▁መል ዕ
▁እየ ሰራ
▁ወ ገን
▁ያህዌ ን
▁መ ዳ
▁ይ ፈ
ፈለ ግ
▁ኮሚ ሽን
▁ማ ወቅ
▁ጽሑ ፍ
▁ለኢ ትዮጵያ
ጨባ ጭ
ብ ብር
▁ ቂ
▁2 7
▁በ ክልሉ
ቆ ይ
▁ሕ ዝ
▁በት ክ
ጠ ኞች
▁ወ ዲያው
▁ዘር ፎች
▁ ጀመረ
▁አመራ ሮች
ዓ መቱ
ሔ ራዊ
ች ና
ረ ገ
▁መለ ስ
▁እስ ቲ
ኒ ው
▁አቅር ቦት
▁ይ ደረ
▁ህ ይወ
ባ ር
▁ዋ ነኛ
▁ባለ ፈ
▁ቤተ ሰብ
መ ጥ
▁ግን ቦት
▁ጠ የ
▁ተወካ ዮች
▁ከ 2
▁የኢን ዱስትሪ
▁ተብ ሏል
ሬ ን
ጋ ና
▁ለማ ወቅ
▁ጠ ቃሚ
▁ሜዳ ሊያ
▁ሙ ዚቃ
▁መሆ ናቸው
ን ሰር
▁ከው ጭ
▁ታ ሪካ
ገኘ ውን
ድ ድሩ
▁እያ ስ
▁ወይ ስ
ንዳ ንድ
▁እኛ ም
ደ ማ
ዛሬ ው
▁ዛሬ ም
ም ራት
▁የማ ያ
▁በአ ብዛ
ነ ቅ
▁በ ፊ
▁ግ ምት
ቻ ለው
ያ ለሁ
▁ተመ ልክ
▁ተሞክ ሮ
ች ውን
ኖ ችን
▁ብዙ ም
▁አን ስቶ
▁እንደ ም
▁ሰ ጪ
▁በተ ግባር
በ ሳ
▁ሐ ሳ
ፍ ራት
▁ወን ጀል
▁ፈ ጣን
▁ት ግ
ላ ውያን
ፓር ቲ
▁ቁጥ ጥር
ቃ ወ
▁አንቀ ጽ
ች በት
▁የወ ን
a l
▁የተ ባለ
ብ ሮ
▁አንድ ም
▁የወ ርቅ
ቁ ር
ኖ ርም
▁ከ ሕ
▁በመንግ ሥት
ጀ ምር
▁እንዳ ሉ
▁ይ ወ
▁ም ሥራ
▁በመ ን
▁ዘ ላቂ
▁በእ ጅ
▁በ ፕ
▁ፌዴሬ ሽን
▁በደ ቡብ
▁ያስ ረዳ
ል ድ
▁እየተ ደረገ
o r
▁በ ዋ
▁ጓ ደኛ
▁ተ ችሏል
▁በአ ገራችን
▁ጊዜ ያት
▁ሲ ሆኑ
▁ተደር ጓል
▁መድ ኃ
▁አን ደኛ
▁ደ ህን
▁ለ ጥ
ዥ ን
▁የ ፌዴራል
▁መንፈ ሳዊ
▁የተ ጠቀ
▁ማህ በራት
መ ኑ
ከ ሩ
ራ ፊ
▁አድ ራ
መ ሩ
▁ስ ቴ
▁የሕ ግ
ሪ ሚ
▁ስ ጋት
ሬ ዚዳን
▁ ጴጥ
▁ነው ና
▁መ ፍጠር
▁ከመ ንግ
▁ይናገራ ል
ማ ሩ
▁ይ ነ
ህ ም
ተ ኞችን
ፍ ቶ
▁እንዳል ሆነ
▁ለማ ለት
▁በየ ዓመቱ
▁ፕሮጀክ ቶች
▁አል ባ
▁አ ዲሱ
▁ከ ጊዜ
▁ፖለቲካ ዊ
ፕ ሎ
ግለ ጽ
ሳ ሽ
ላ ሚ
ገባ ት
▁ፖሊ ስ
▁የ ሰብ
ሏ ቸው
▁ሰ ም
▁የሚ ኖሩ
▁ለሌ ሎች
▁በ ዘርፉ
▁ት ልቁ
▁ሀ ሳብ
▁የሚያ ደርግ
▁ማህ በረሰብ
▁አስ ኪያ
▁ሆቴ ል
ከናወ ነ
▁በ ፖ
▁የ ፊ
▁ታ ሪ
ባ ኤ
▁ሃ ሳ
▁ይጠ ይ
ካ ተ
▁የሚያ ው
▁የሚሰ ጠው
ሳ ችን
ው ጣ
▁ዳ ዊት
▁አመልክ ተዋል
▁አ ዘጋጅ
ጫወ ት
ጨ በ
ቢ ው
▁ህ ብረተሰቡ
ዘጋጀ ው
ይ ታ
ች ም
ረ ር
▁የእ ግር
ከተ ለው
ታወ ቀው
▁የ ሠ
▁በቀ ጥታ
ንባ ታ
▁መ ስተ
▁ላይ ም
ውን ም
▁ይገልጻ ሉ
▁የ ዜ
▁ለ ሰ
▁ሕ ክምና
▁መጥ ፎ
▁ግ ል
▁ባለሥ ልጣ
ደበ ኛ
ስ ተኛው
▁ል ም
▁ [
ማ ሊያ
ይ ቱ
▁ኤ ል
▁ያለ መ
መጣ ል
▁ነ ጥ
▁ድን ጋ
▁ተመ ራ
▁የ ደረሰ
▁ሽ ማግሌ
ሳ ስ
▁ ]
▁ግለ ሰቦች
ፈለ ገው
ኬ ት
▁ማ ብራ
▁ቢ ያንስ
▁2 9
▁ተ ል
▁ደግሞ ም
▁በግ ል
ነ በሩ
በ ራቸው
▁አስ ቀ
▁በ ያህዌ
▁የአ ውሮፓ
▁ ሣ
▁አ ና
▁መ ፅ
▁ ጂ
▁ክርስቲ ያን
ደ ቅ
ረ ኛ
ዶ ችን
▁አለ ች
ሕ ፈት
ደ ስ
ብ ቅ
▁አስተያ የ
▁ስህ ተት
ላ ንድ
▁ሆስፒ ታል
▁አን ጻ
▁4 0
▁አ ያስ
▁መል እ
▁ብ ዛት
▁ስለ ነበር
ኘ ው
ፃ ፀ
▁አ ግባብ
ንድ ነው
ግ ዳ
▁ሚ ዲያ
▁ተ ፈጥሮ
▁እ ሱን
▁ቡድ ኑ
▁ጓ ደ
▁እ ዚያ
▁በ ሐ
ላ ትን
▁አስፈ ጻሚ
ዋ ሳ
ጀ ር
▁ክ ስ
▁ጠ ቀ
▁አመ ታት
▁ሰጥ ቶ
▁አም ራ
▁ፕሮ ፌ
ጨ መረ
▁ተ ነስ
ዳ ም
ጣ ኝ
▁አ ለም
ይ ነት
ብ ናል
ተ ኮ
▁እንደሚ ሆን
ለ ድ
ረ ጅም
▁ስ ሙ
ለ ጋ
▁ግ ም
ባ ባይ
▁በ ን
▁ስለሆነ ም
▁ስ ላል
ንስ ሳት
▁መስ ክ
ወ ራ
▁አይ ገባ
▁ጨዋታ ዎች
ቅ ዱ
▁ይባ ላል
▁ከ ራ
▁የሚሰ ጥ
▁ደን በ
ስተ ዋል
ታ ዎች
ሆ ና
ሸ ት
▁ጫ ና
ኤ ላውያን
▁አደ ሩ
ከሰ ት
ለ የ
ክ ቶ
ገ መ
▁እየ ታ
▁ብ ድር
▁በአብዛ ኛው
ጋቢ ት
▁ወር ቅ
ጫ ው
▁ደጋ ፊ
ገል ገል
ሰ ቦ
▁በ ድር
▁አንድ ነት
▁ማ ጥ
▁ካ ር
▁ሃ ላፊ
ረዳ ው
▁ ዳን
ኖ ረ
▁ኃ ጢ
ለ መ
▁በፍ ጥነት
ከ ቱ
ና ሽ
▁ቋ ሚ
ለ ብ
ኳ ር
▁ምዕራ ፍ
▁ሚ ስት
ብር ሃ
ና ንተ
▁ፋ ይ
▁ይ ጠበቅ
▁የ ገለጹት
▁ወይ ንም
▁እው ቀት
መለከ ቱ
▁200 7
▁ወ ሬ
▁የሚ ቀ
▁አትሌ ቲክስ
▁እውነ ተኛ
ዞ ኑ
▁ኬ ንያ
ዛ ው
ድ ሜ
▁አ ደረጃ
▁እነ ሱም
ፕሎ ማ
▁ደ ራሲ
ፈለ ገ
▁በነ ፃ
▁ከ1 9
▁አስመልክ ቶ
▁ ሎ
▁አ ታ
▁ጠ ባ
ካ ይ
▁ስ ና
▁ቀ ዳሚ
▁አለ ብን
ሪ ስ
በ ስ
▁ክርስቲያ ኖች
▁ተቀባይ ነት
▁ሥራ ው
ሬ ሽን
▁አ ረ
▁ከ ደ
▁በ ቆ
ካሄ ዱ
▁የ ኪ
▁ሀገ ራት
ኑ ት
▁መጻ ሕ
▁5 0
▁አፈ ጻጸ
ሊ ያን
ስት ራክ
▁ተ ሰማ
ዳ ዩ
▁እንዳ ስ
▁ቀር ቶ
▁እንዳለ ባቸው
ቅ ን
ያ ቸውን
▁ ቫ
▁መስ ሪያ
▁መሥ ሪያ
▁ይኸ ውም
e s
▁ተወ ዳዳሪ
▁የ ሲ
ያ ሉ
እ ምሮ
▁ከ ት
▁የአ ካባቢ
መዝ ገብ
የሩ ሳሌ
ለ ታል
ሪ ንግ
ሪ ት
▁ ቪ
▁ት ስ
ታ ና
ሰ ቢያ
▁መ ገናኛ
በረ ሰቡ
▁በኋላ ም
▁አው ጥ
ዮር ጊ
▁ወ ዳጅ
▁ሰ ላማዊ
▁የህ ክምና
▁መ ጨ
ቃ ሽ
▁ው ስ
▁ድርጅ ቱ
ሌ ቪ
▁ጠቀ ሜ
▁ማ ዳ
▁ ​
▁አገ ራዊ
▁ካ ሳ
ደገ ፍ
▁በሰ ጡት
▁የደ ቡብ
ኬ ሽን
ጉ ር
ፖር ቱ
▁ሠ ር
▁የሌ ለው
▁ተብ ለው
▁መ ጽ
▁ቀ ና
▁ያ ሰ
▁የተ ቃ
ላ ለም
▁ቀ ጣይ
▁በም ት
▁የኤ ሌክትሪክ
▁ርዕ ስ
▁ሺ ሕ
▁በመ ሆናቸው
▁የ የ
ህ ር
▁ለ ግ
▁ለ ሚያ
▁በ ጋ
መለከ ታቸው
▁ዙ ር
ን ቶ
▁የሚጠ ይ
ፃ ሚ
▁ይ ጠቀ
ሊ ክ
▁መ ገለ
▁ደን ብ
ል ቃ
▁በው ጭ
▁ብዙ ኃ
ሌ ት
ነ ብ
▁መ ሐ
ዚ ያን
▁ለመ ፍጠር
ላለ ህ
▁ማብራ ሪያ
ሸ ጋ
▁ይህን ኑ
▁ጉዳዩ ን
▁ሲ ነ
▁ለ ሙ
▁አይ ቻልም
▁ፈ ር
▁ክፍ ተት
▁የተ ሳ
▁ገን ዘ
▁ህ ዝ
ያን ዳን
ማ ማ
▁ክ ር
▁ትክ ክል
▁መጠ የ
▁የግ ን
▁ለ ገ
▁ለማ ረጋገጥ
▁ማ ቅረብ
▁ሥ ጋ
ገ ማ
ረ በ
▁ይኸ ው
ለ ሽ
▁በ ቦ
▁ ጤ
ወሰ ነ
▁መኖ ሪያ
ዮ ችን
▁የሚ መጣ
▁አስታው ቀዋል
ን ታዊ
አ ዊ
ከ ም
▁ ፒ
i s
ሻ ው
▁ም ሽ
▁በኢ ን
ፎ ካ
ጋ ሉ
▁አደ ሮች
▁ይደረ ጋል
ሲ ያ
ዛ ል
ፈ ዋል
▁ካ ሉ
▁ወታደ ራዊ
▁ም ኒልክ
▁ስለ ሚያ
▁እንዳ ያ
▁ሄ ደ
ከ ረም
▁ኮ ር
ካ ች
▁ኢን ቨስትመንት
ኑ ም
ጣ ዩ
▁አብዛ ኞቹ
▁በየ አ
▁በአ ሜሪካ
ነ ውን
▁ዕ ርምጃ
▁የ ዲ
▁ግዴ ታ
ሊ ና
ክ ሮች
▁መ ገኘ
▁የተ ወ
▁የመንግ ሥ
ቸው ም
▁በተ ለያየ
▁ክ ስተ
▁ሃ ይ
ድ ሶ
▁የ ን
▁ማ መን
ከ በረ
▁ ኑ
▁አ ያው
▁ብሔ ር
▁ስር ዓ
▁ይ ረዳ
▁ፀ ረ
ኩ ን
▁የአ ን
ና ቱ
ድ ቅ
▁በ ድን
▁የሚያ ሳይ
ሾ ች
▁መ ዘ
▁ጥ ፋት
▁ከአ ዲስ
▁ስ ምንት
▁ቀ ይ
▁አንጻ ር
▁ሃ ይማኖ
▁መዝ ሙር
ስትራክ ሽን
ፈ ሩ
▁ፊ ል
▁የ ጽ
▁አይደ ሉም
ጥ ን
ቆ ር
ክ ኒክ
ለ ዋ
▁መንግሥ ታዊ
▁ይኖር በታል
▁አን ደኛው
▁ ፉ
▁ባለ ድርሻ
▁ሌሎች ም
መዘ ገቡ
ጹ ም
▁መቼ ም
▁ያ ነሳ
▁የአ ገሪቱን
▁አሰልጣ ኝ
▁ለ ቀ
▁ ፦
▁የ ዴሞክራሲ
▁ተናግ ሯል
ጪ ው
▁የ ሸ
▁የተ መረ
▁እያንዳን ዱ
▁በስተ ቀር
▁ለ ጎ
▁የወ ሰ
▁ቆይ ቷል
▁የእ ኛ
ወስ ድ
▁ዘመ ቻ
ብ ነት
▁አቀ ፉ
ስራ ቅ
▁ገብ ቶ
▁ሰ ኔ
ማሪ ዎች
▁ዜ ጋ
▁ያመለክ ታል
ሞ ችን
ገን ዝ
▁ኅ ብረት
▁ሽ ልማት
a r
▁ብሎ ም
▁እንደሚ ሉት
▁ምናል ባት
▁አ ጠቃ
▁አገል ጋ
▁ክ ን
ፈ ታ
▁አ ሳይ
ከ በ
▁ብር ሃ
ሊ ን
▁አማ ራ
ፈ ጽ
▁ክ ብ
▁ሂ ደ
መዘ ገበ
▁በ ቴ
▁መ ሬ
ዮ ቹ
▁ሁ ል
▁በ ዳ
▁አቅ ራ
ብ ቻ
▁አ ሻ
▁የተ ናገሩት
▁አገ ሪ
ደ ሩ
▁ካል ሆነ
▁ተ ጨዋ
▁በተ ካሄደው
▁ሥራ ውን
▁ሳይ ንስ
ዳ ሉ
▁በማ ህ
ባባ ሪ
ር ሱ
▁ዘ ግ
▁የገ በያ
▁ባህ ላዊ
▁ለመ ጀመሪያ
▁የካ ቲት
ሎ ምፒክ
▁በ ጽ
▁ይጠ ቁ
▁የ ገባ
▁ዝና ብ
▁ተ ስማ
▁እኔ ን
ሐ ይ
▁ ጄ
ላ ቱ
▁የተ ከሰ
ር ነት
▁መል ሶ
ጋ ጠ
▁ግ ርማ
▁የሚ ገ
▁አብ ረው
ሠራ ው
▁ቀጥ ሎ
▁በትክ ክል
ኳ ይ
▁በ19 9
▁ል ጃ
▁ታ ዳጊ
▁ th
▁ስ ጦ
▁በመ ካ
▁ያሳ ያል
▁እ ራ
▁መ ደረጉ
▁ማሳ ያ
▁በ ኃ
▁ጊዜ ም
▁ገለ ጻ
ለ ናል
▁ ሔ
▁የማ ን
▁የ ላ
▁የሚ ቆጠሩ
▁እየ ሆነ
▁የ ሆ
▁መ ገ
▁የሰ ላም
▁ይሰ ጣል
ጎ ችን
▁ሆነ ዋል
▁ሙ ከራ
▁ዝግ ጁ
▁ኮ ሌ
▁ሄ ክታር
▁ለ ይ
▁የሚ መራ
▁በው ስ
ን ታ
▁በደ ንብ
ል ኮ
▁የ ሴ
▁መ ናገር
▁ሲ ያስ
▁የተ ባሉ
▁ጥ ቃ
▁ከተ ለያዩ
▁መ ባ
ነሳ ት
ግ ሪ
▁ተ ነሳ
ሰማ ይ
ክል ል
▁ ሆኑ
▁ከ ሆኑ
▁አለመ ሆኑ
ጥ ፍ
▁አይ ሆንም
▁የእ ኔ
▁ ኡ
▁አ ሠ
▁ች ሏል
▁የፋ ይናንስ
▁በ 2
▁አስቀ ድሞ
ዝ ነስ
▁መ ኮ
▁ግ ዙ
▁ፈ ል
ዕ ምሮ
▁መ ራ
▁ልብ ስ
ነገ ረ
▁በማ ይ
▁አለ ን
▁አምባ ሳ
ቢ ት
የ ውን
▁ፈ ረን
▁ልማ ትና
▁ይኖ ራል
▁ተደራ ሽ
▁በ ቤተ
▁የው ድድር
▁ፍ ር
▁ብር ሃን
▁በም ድር
ረጋገ ጠ
ግ ግር
ክ በር
▁ከ ፊ
▁ግ ዛት
ጆ ቹ
▁የ ፍት
▁የ ፈጠ
▁እር ግጥ
▁ማ ረጋገ
▁የአምላክ ን
ቶ ቹን
▁ተቃ ውሞ
▁ቅድ ሚያ
▁አን ብብ
▁የማ ድረግ
▁የተ መሰ
▁ጽ ህፈት
ሪሚ የር
▁ማ ረ
▁ለማ ን
ም ረ
▁ስ ነ
ቆ ት
▁መ መር
▁አ ዘ
▁በአ ንዳንድ
ከለ ኛ
▁ግ ብርና
ያስ ፖ
▁የሽ ብር
▁በአ ምላክ
ፍ ረት
▁ ቸ
▁ለ ል
▁የ ኅ
ዮርጊ ስ
ኩ ም
▁ሠ ራዊት
ላችን ም
ስ በው
▁መ ና
▁ጽ ሕፈት
▁ቃ ላት
የሩሳሌ ም
▁መ ሄድ
▁ወደ ሚ
▁እድ ሜ
▁ኪ ራይ
ገለጸ ው
▁መ ደ
▁ይሆ ናሉ
▁ማኅ በር
▁ከአ ን
▁እየተ ሰራ
ያ ችን
▁በ 3
▁በ የት
▁ሠራ ተኛ
▁ስ ልጣን
ሽከር ካሪ
ሸ ጥ
ፅ ኦ
▁በ ርስ
▁በተ ቃ
▁ገ ዢ
ሸ ን
ሙ ና
▁ግ ጭት
▁ፈ ጣሪ
▁ስኬ ት
ባ ማ
▁የም ር
ፈልግ ም
▁የተ ደረገ
ገነ ዘ
▁ባለሀብ ቶች
ክ ብ
ን ታል
▁ት እ
▁የሁ ለ
▁በብ ዛት
▁አስታው ቋል
▁ማቴ ዎስ
ጠ ባ
▁ A
▁ o
ን ዶች
ፁ ት
▁ብሔ ረሰቦች
ድ ሮስ
▁ዘር ፉ
▁ከ ድ
ራንስ ፖርት
▁ካ ፒ
▁አ የ
▁አድር ገዋል
▁ተጠቃሚ ነት
ሴ ፍ
▁ዝር ዝር
ም ረው
▁ምልክ ት
ቢ ሲ
▁ውጤ ቶች
ፈፀ ም
ሟ ላት
▁ቻ ይና
ረ ሱ
▁ሥ ፍራ
▁ወላ ጆች
▁ስ ለም
▁መም ጣ
▁የመን ገድ
ዊ ው
▁ዝቅ ተኛ
ባ ትም
▁ያ ደረ
▁ግ ር
▁ት ዝ
▁ክ ርስቶስ
▁ለመስ ራት
ና ትና
▁እነ ሆ
ድ ግ
▁ያ ኔ
ሊ ስ
ል ቶ
ሰ ና
ቃ ስ
▁ይ ተ
▁ድር ቅ
▁አሳ ል
▁ህ ል
ር ን
▁የ ቁ
▁በ ሳ
▁መ ጋቢት
/ ቤት
▁አ ብረ
▁ከ ጎ
▁መሆ ኗ
▁ትና ንት
▁የ ሩ
▁የለ በትም
ዟ ል
▁ፈጽ ሞ
▁ተ ደ
▁ብዙ ዎች
▁በዋና ነት
▁ሁ ሌ
▁የራ ሱን
ስ ቲ
▁አው ሮፓ
ስ ቸ
▁የ ዛሬ
▁መን ስ
▁ዝግ ጅ
ሌቪ ዥን
ስተ ዳደር
▁በም ርጫ
▁ባ ሉት
መስ ል
ሎ ን
▁አካ ሄድ
▁ማ ሰብ
▁የራ ሱ
▁ተጽ ዕኖ
▁የ ቡ
▁በ ቃል
ያዘ ው
▁ከ ዘ
▁ሥ ልጣ
▁እየ ጨመረ
ሉ ትን
▁በ ካ
▁ከ 4
6 0
▁የሚ ታይ
▁ብ ቸ
ሊያ ም
▁ችሎ ታ
ካ ሪዎች
▁ያስ ች
ሄ ደ
▁አ ሉት
▁መ ከላከያ
ዛ ሪ
▁ቅ ን
▁ወ /
▁እንደሚ ገኝ
▁ዝ ርያ
▁አብ ዮ
▁ጠቅ ላላ
▁ጴጥ ሮስ
▁ሰ ማይ
▁ወን ዝ
▁የሚያ ስተ
▁እንዲያ ገኙ
▁እንድ ታ
▁የመ ሬት
▁አገ ራችን
▁ስም ም
ወሰ ድ
▁ግንባ ር
ገ በው
በ ለ
▁ሰ ዓ
▁መ ቻ
▁መ ጋ
▁ኢ ዮ
▁እያ ሳ
ኬ ንያ
ፈ ነ
▁መ ከላከል
▁እንደ ዚህ
▁ሽ ብር
▁የገ ቢ
▁የሚ ነ
▁ማ ርያም
▁ህ ብረት
▁ምር ቶች
▁ሥራ ዎችን
▁ክፍ ተ
▁ጎ ዳና
▁ቅር ንጫ
▁ነ ጻ
ዝ ዳን
▁መ ጠበቅ
▁ከሁ ሉም
በ ዛ
ነ ታችን
▁የሚ ደረግ
ከ ፊ
ጄ ሪያ
ገሪ ቷ
▁ፌዴሬ ሽኑ
▁ሩ ጫ
▁የ ላቀ
ጊዜ ም
ትን ና
▁ሁለ ቱም
▁ጸ ሐፊ
▁በ ሆኑ
ቋ ረጥ
ን በት
▁አ ፋ
▁እ ውን
▁የወ ደ
ጥ ረ
▁ም ል
ዳ ቸውን
▁አስተዋ ፅኦ
▁ታሪካ ዊ
ዜ አ
▁ደ ቀ
▁ኦ ሊምፒክ
▁በ ቀር
▁ሐ ዋ
▁ይጠ ቅ
▁የ ሴቶች
ባቸው ም
ቀረ በ
ለማ ችን
▁አለ ቃ
▁በራ ሳቸው
▁እንደሆነ ም
ቀ ች
▁ሳ ለ
ጣ ሊያ
▁ፈቃ ደኛ
ንቀሳቀ ስ
▁የኢትዮጵያ ን
▁ሉ ቃስ
ስተካ ከል
▁ያ ወ
ቃ ይ
ገ ዝ
ነ ዋል
▁በ ጭ
▁አን ቺ
ርያ ት
▁ምና ምን
ባ ሪ
▁አምላክ ን
▁ርዕ ሰ
ክ ክር
▁ል ቦ
▁ S
ያ ጭ
ቻ ችንን
ሰብ ሰብ
▁ይታ ያል
▁እንዳ ላቸው
ሳ ቁ
▁ s
▁ተ ይ
ስፋ ፋ
▁በሕ ይወት
▁አስኪያ ጅ
ሰራ ው
ል ት
ዞ ች
▁ ኧ
ገባ ቸው
▁የሃ ይማኖት
▁ተ ተ
▁ው ል
▁ቦ ርድ
ቀ በል
ጥ ጥር
▁ነ ች
▁ለ ያህዌ
▁ያል ሆነ
▁ተ ረ
▁በመ ጠ
▁ም ድ
▁ታ ዋቂ
ለኝ ም
ለ ወጥ
▁ስታ ዲ
▁ከ ገ
▁ፍ ልስ
▁ያለ ፈ
▁አንዳን ዴ
ሬ ዳ
▁ሳ ቢያ
ሁ ፍ
ሃ ት
ቃ ቤ
ፍ ሬ
ሮ ጀ
▁እ ባ
▁ያ ደረጉ
▁መምህ ር
ያ ሜ
▁እያ ደገ
▁ከመ ሆኑም
ፈጸ መ
▁ደህን ነት
▁ለመ ሆኑ
▁በሰ ላም
▁ነገ ሩ
ፍ ታ
▁እው ቅና
ክ ሩ
▁ኃላፊ ዎች
ማ ው
▁ሰነ ድ
ሉ ና
▁ም ንድነው
▁የሚያ ደርገው
▁በሚ ገኘው
▁ደ ሳ
▁ተጫዋ ቾች
▁ወጥ ቶ
▁ስቴ ት
ዳ ሜ
ብ ስ
▁መስ ጠ
▁መው ሰድ
▁ስ ንት
▁አው ሮፕ
ዎ ቻቸው
▁ወንድ ም
▁በሁለ ተኛው
ጓ ዴ
▁አንዳን ዶቹ
▁ወ ሰ
ገ ስ
▁ማራ ቶን
ክተ ሩ
▁በ ላ
ዥ ም
ቡ ቲ
ዕ ቆ
▁ለመ ግ
▁ፊ ልም
ር ዳታ
▁ስለ ማይ
ወ ሩ
ደራ ጀ
ብ ህ
▁ሃ ይማኖት
ጠየ ቅ
▁ተ ጨባጭ
▁ምሥ ክሮች
ቀ ና
ነበረ በት
▁ተገቢ ውን
ም ሌ
▁ጥ ልቅ
▁ገ ፅ
ደ ዋል
▁ድን ገት
ወ ያ
▁በማ ቅረብ
▁የባ ህል
▁ም ት
ለማ ርያም
▁ክ ብረ
▁ወንድ ሞች
▁መ ረ
▁ቀ ረ
▁የበ ኩ
ሷ ን
ጀ ራ
ገ ዱ
▁የሚያ ደር
ረን ጓዴ
▁ይመስ ል
ዛ ን
ኖ ቹ
▁ቆይ ታ
▁ፕሮፌ ሰር
▁ደ ካ
▁አድር ጋ
ረጋ ጋት
ዓ .ም
▁በ ነበረው
▁ሲ ታይ
ጠይ ቅ
▁በ ዛሬው
▁ታላ ቁ
▁ ጢ
▁በ ሞ
መ ናዊ
▁አሳ ስ
▁የተባ በሩት
▁በኦ ሮሚያ
ራፊ ክ
▁ኩ ንታል
ቶ ቻችን
ገ ግ
▁አቅር ቦ
▁በመጀመሪያ ው
▁ቀ ስ
▁ፈ ጠራ
▁የቀረ በ
ባ ችሁ
▁ተመ ር
▁በእጅ ጉ
▁እንግ ዳ
▁ቶ ሎ
▁ጉ ብኝ
ንቀሳቀ ሱ
▁መ ቃ
▁3 1
ች ሉም
▁ማ ታ
ቿ ን
▁ባለሥ ልጣን
ቆ ጠር
▁አ ደረገ
▁ጥ ንቃቄ
▁ጆ ሮ
ቤ ን
ም ም
ጠ ላ
ደረጃ ው
ያ ኑ
ግ በር
▁ድን ጋይ
▁የኦ ሮሚያ
ከታተ ል
ተ ኩ
▁የተ ለያየ
ክ ቱ
▁ባ ስ
▁ኤ ር
▁ሐ ኪ
▁እ .አ
▁ምን ዛሪ
▁ጠ ላ
▁የእ ድ
ጽ ና
ነ ሽ
▁አስ ታወቀ
ጋ ንዳ
ሐ ዊ
▁የታ ሪክ
▁እስራ ኤላውያን
▁ለማ የት
ረጋ ጋ
ሰባ ሰብ
ባ ችን
▁እንዲ ሰ
▁ዘ ጠኝ
/200 8
▁ተ ው
▁የተ ጋ
▁ለመ ገንባት
▁ንጉ ሡ
▁መገለ ጫ
▁ግለ ሰብ
▁ሌ ሎችን
ማ መን
▁እንደ ምን
ፓር ላማ
ፋ ስ
▁የ ኔ
▁ያ ንን
▁ኤ ክስ
▁አደ ራ
ራ ቱ
▁በ ሩ
▁እ.አ .አ
▁ሃ ብት
▁ቅድ መ
▁ትስ ስር
ሜ ዳ
▁ከ 200
ቅና ቄ
▁ ሽን
እ ይ
▁ተራ ራ
▁ቅዱስ ን
ኩ ረት
▁የሚ ከተ
▁ሕ ጋዊ
ካ ን
▁የተሰ ጠው
ሰ በው
▁የ ሳ
▁ክት ትል
▁መ ረዳት
▁እር ሻ
▁የሙ ዚቃ
▁ሕ ንፃ
▁ክ ህ
ቆ ስ
ፋ ው
▁እግ ዚአብሔር
በ ታ
▁የተ ጣ
▁በግ ብ
▁መጻሕ ፍት
ሺ ህ
▁ኢ ሕአዴግ
▁በ ሆ
▁ሃ ያ
▁ w
▁ወጣ ቱ
▁ባሕ ር
▁ገ ዥ
▁የ ሠራ
▁ም ኞ
▁ደሳ ለኝ
ኒ ስት
ድ ም
ጨ ምር
▁ገ ደማ
ማ ች
▁የሚ ገባው
ረ ምት
▁ለአ ብነት
ኖ ሪያ
ሙ ም
▁አ ጣ
▁ተ ዘጋጅ
▁የተ ቋቋ
ላ ቁ
▁በሚ ያስ
▁ስኬ ታማ
▁ጠባ ቂ
ዋ ለን
▁ኢን ጂ
▁ተስፋ ዬ
▁በ ባለ
▁ኮር ፖ
ለ የት
▁የአ ካባቢው
▁ት ብብር
▁በእርግጥ ም
▁ተ ካ
▁ሰብሳቢ ነት
▁ተከታ ታይ
በ በ
▁የ ሙያ
▁በአ ጭር
ያ ም
▁አ ሥር
ን ቱ
▁ ,
ti on
▁ከ ባለ
▁የህ ዳሴ
▁የ ገለ
አ ትር
▁እ ል
▁የዋ ጋ
ጻ ሜ
ታ ኝ
ወ ጣት
▁አስ ር
ለ ለ
▁ያ ደረጉት
▁የ ይ
▁አዳ ራሽ
a t
▁የተ ገኘው
▁ጋዜ ጠኛ
▁ T
▁አይገባ ም
▁ለመ ሥራት
▁እየ ቀ
▁የሚሰ ጡ
▁በመ ላው
▁ያ መ
▁ረ ጅም
▁አድ ና
▁ስጦ ታ
ስ ቀ
▁የሚ ፈልጉ
ዩ ም
ፐ ብ
▁ል ጄ
ጀመ ርያ
▁ለአ ገር
ዕቆ ብ
▁እር ሳቸው
▁ 0
▁ደር ሶ
▁ሥርዓ ቱ
▁ብዙኃ ን
▁በእ ን
▁የሚ ሸ
▁የግ ንባታ
▁የ ኩ
▁ትች ላለህ
▁መ ደበኛ
ገና ኝ
ወ ዝ
▁ይገልጻ ል
▁ላለ ፉት
▁የ ጣ
▁ጥ ፋ
▁ማሳ ደግ
ሮ ም
▁መ ግባት
▁በመ ንፈ
▁ለማ ጥ
▁በራ ስ
▁እንዲ ያስ
▁በየ ደረጃው
▁ ጀመሩ
▁ሳ ት
▁ጠቀሜ ታ
▁ ሾ
ታወ ቁ
▁3 5
ነገ ሩ
ጨ ር
ዛ ቸው
▁የተ ጀመረው
▁ምር ታማ
ሰማ ው
▁ግዙ ፍ
ዩ ን
▁ለሁ ለት
▁ኧ ረ
▁ ሞክ
▁ደ ሞ
▁የተወሰ ነ
ቢ ያው
▁መ ቀመ
▁ማ ረጋገጥ
▁ግ ጥ
▁ C
▁ል ጁ
8 0
ዕ ል
▁የህ ግ
▁ነ ግ
▁ለማሳ ካት
ቂ ቅ
ሰ ለ
▁ሰላ ምና
ጠ ንቀ
▁አ ሊያም
▁ካ ላ
▁የ ጸ
▁ስ ያሜ
ደ ደ
▁መ ጽሐ
▁ለመ ታ
ፓ ን
▁የሚ ገቡ
ለው ጥ
▁ኦ ባማ
▁ከ የት
▁ያስ ታው
▁ል ታ
▁በሚ ገኙ
▁ከ ዓለም
▁ግ ጭ
▁እየ ሠራ
▁አሰ ጣጥ
▁ምሁ ራን
▁እንስ ሳት
ረ ጠ
▁ሰለ ሞን
▁ይ ቀጥ
▁ከ ዓ
▁ም ህ
▁ሦ ስተኛ
▁የም ርምር
ሬዳ ዋ
ሪያ ው
አ ል
▁ሙ ሴ
▁አንዳን ዶች
▁ወ/ ሮ
▁ማረጋገ ጫ
ክ ህ
▁ሰብ ዓዊ
ችግ ሩ
ረ ሻ
▁አ ላማ
▁የአ ገልግሎት
▁ብ ለህ
ነጋ ግ
ኤ አ
ደ ፍ
▁ውስጥ ም
▁ፕሬ ዝዳን
ስ ክ
▁ከ ፋ
▁አልቻ ለም
▁መ ያዝ
▁ቅ ጣት
▁በዓ መት
ፌ ደ
ላ ለሁ
ሬ ው
▁ፋይ ዳ
▁አባ ባል
ያንዳን ዱ
▁ለማ ቅረብ
▁አገ ኘ
▁መን ደር
▁ነ ህ
▁የሚ ደረገው
▁እንድ ና
▁የ ደም
▁ተሰጥ ቶ
መ ታት
▁ተ ፈጥ
ስተ ማር
ናገ ረ
▁በ ፀ
▁በእ ኛ
ረ ቤት
ቪ ል
▁አዋ ጁ
▁የሚ ገኘውን
▁ይጠይ ቃል
▁ ኒ
▁ያ ዘ
▁በመ ፍጠር
▁ለ ታ
▁ኢ ንስ
ሉ በት
▁በ ዚያው
ገነ ቡ
▁th e
ቀ ትና
▁እ ገዛ
ራ ለች
▁ያለ ባቸው
▁የዕድ ገትና
▁መልዕ ክት
▁የሚ ጠቀ
▁የሚ ናገሩት
▁ሳ ሙ
ጠበ ቁ
▁ደር ሷል
ቆ ች
▁አ ብርሃ
▁ለ ት
▁በእ ኔ
▁ት ል
▁ c
▁ይ ገኙ
▁በመ ጥ
▁እንዲ ቀ
▁ለማስ ወገድ
▁ዲ ግሪ
ዎ ድሮስ
ና ትን
▁ተ በ
▁አን ዷ
▁ተ ለይ
ስ ም
▁ለ 1
▁ተ ም
▁የተ ገኘ
▁የተ ደረገው
▁እንዲ ኖር
መል ከ
▁የአ ገራችን
▁ማን ነት
▁ጊ ዮርጊስ
▁አፈጻጸ ም
ጥ ቅ
▁መኖ ሩን
▁ባለስ ልጣ
▁ተል ዕ
▁ ሆን
▁ሳ ን
ፈጸ ሙ
ቀ ሳቀ
▁አስ ቀም
▁ጨ ር
▁መቀ ጠል
▁ግ ቢ
ውን ና
▁የተለ መደ
ቅረ ፍ
▁መሰ ረታዊ
▁ፍ ቃ
ሪ ፖር
ቸ ት
ይ ዝ
▁ሃ ይል
▁ከ የ
▁የመ ገናኛ
ፈለ ጉ
▁በቀ ን
ጣ ጠ
▁ቤ ቱን
▁ትር ፍ
ሌ ን
▁ህ ዳሴ
▁ለሁ ሉም
▁ግም ገማ
▁ማሳ የት
▁አ በረታ
ቶ ቻቸው
ለት ን
▁በእ ው
ሳይ ንስ
▁አር ቲ
▁የራ ሳቸውን
ሻሻ ያ
ቸ ግ
▁የመ ጣው
▁የኃ ይል
▁ብ ቅ
▁የአ ባ
▁ቁ ልፍ
▁እውነ ታ
▁በመንግ ስት
ማ ማኝ
ዝ ን
▁የ ጀመረው
▁እ ሳት
▁ያ ላት
▁ይ ደ
ራት ና
▁በሚ መለከት
▁ጠቅ ሰዋል
▁ያስረዳ ሉ
▁እ ኤአ
▁የ ኑሮ
ፎ ችን
▁ወን ጀ
▁በ ሻ
▁ግ ማሽ
▁ባ ደረጉት
ኖ ስ
▁የሚ ጠበቅ
▁ሲ መጣ
▁መንስ ኤ
▁የኮ ን
▁ወረዳ ዎች
ረ ፍት
ኝ ን
▁ድ ረ
▁o f
ገ ጥ
ዋ ሪ
ጠ ጥ
▁ተ ፋ
▁3 2
▁ይቅር ታ
▁የ ፓርቲ
ፈል ገውን
▁መብ ቶች
▁በሚ ለው
▁አምባሳ ደር
▁ለማ ምጣት
▁አድር ገ
▁እንደተ ናገሩት
▁ስደ ተኞች
ሁ ድ
ላ ጭ
▁ያል ሆኑ
▁ለእ ኔ
ካ ቤ
▁ከ ዕ
ሽከር ካሪዎች
▁ዲ ሞክራሲ
▁የመ ረጃ
▁እንደሚ ችሉ
▁የማ ዕ
▁ሕ ፃ
▁መግ ቢያ
▁በሕ ግ
▁የቴ ክኖሎጂ
ጋ ው
ንድ ሮው
▁አም ላ
▁መጥ ቷል
▁አ ላት
ዘ ረ
▁የብ ዙ
ፊ ው
▁አ ቤቱ
▁ትራንስ ፖርት
ጓ ዙ
▁የአ ካል
▁ሁሉ ን
▁ብ ቃ
ቃ ለሁ
▁ይ ሻ
▁አበ በ
ፐ ር
▁ቀ ለም
▁ሚ ስ
▁ሰይ ጣን
▁ከአ ገር
▁የሚያስ ችሉ
መ ኛ
▁መ ፈ
ያስፖ ራ
▁ደካ ማ
▁አ ላው
▁ኢን ቨስት
i t
ሰ ኝ
ስፋ ፋት
ዋ ላ
▁ለመ መለስ
▁ቀ ል
▁የምን ችለው
▁በሕ ገ
ያዝ ያ
ወ ረ
▁በ ጠ
▁ግንባ ታው
▁ባህ ሪ
▁ባን ኮች
▁አሰ ፋ
▁ሁሌ ም
i c
ሶ ችን
መ ናት
ም ቤ
▁ተጠ ር
▁በ ሴቶች
▁ለ ፍ
▁ካ ስ
▁እ ሳቸው
▁መጥ ቶ
ኛውን ም
▁በው ድድሩ
▁የ ብር
▁ባል ተ
▁ተ ሻ
▁ሰ ባ
▁የቀድሞ ው
▁ዘ ፍ
ጎ ት
▁ሁ ላችንም
ዩኒቨ ርስቲ
▁መንገ ዱ
መ ናል
ማ ዊ
ረ ጡ
ነ ን
ዲ ና
▁መስ ከረም
▁ሰራ ተኞች
▁ሽ ግግር
▁ባለ በት
▁የት ራንስፖርት
▁ጣ ልቃ
▁ድም ጽ
▁መድ ሃ
▁ሁል ጊዜ
ራ ራ
▁የሚሆኑ ት
▁ ቼ
▁ግ ጥም
ጨ ው
ቻ ችሁ
▁ቀ ውስ
▁ፍ ለጋ
▁የ ቤ
▁1 00
▁አብዛ ኛው
ስቸ ኳይ
▁የ ከፋ
ከሰ ቱ
▁መልእ ክት
ል ናል
የ ቱ
▁ካ ላቸው
▁የእር ሻ
▁ጥ ቁር
ትሌ ቲክስ
ደ ለ
▁ው ስን
▁የመ ጡ
▁ተልዕ ኮ
▁ዓይ ን
▁ተመል ከት
▁መምህ ራን
▁ማስታወ ቂያ
▁ሊቀ መን
▁ቆ ር
▁ነገ ሥ
▁ይ ልቁ
▁ስ ልክ
▁የሰ ማ
ህ ጉ
▁በሆነ ው
▁የፈጠ ራ
▁ተነስ ቶ
ፕሎማ ሲ
▁ለ ጋ
▁ለ በ
▁መድረ ኮች
▁ለ ሀ
▁እንዳ ት
▁ተጠና ክሮ
▁የ ገቡ
▁ቤተ ሰቦች
ሊዝ ም
▁ድንጋ ጌ
ኩ ኝ
▁በበኩ ሉ
ታ ሰብ
▁ይ ጨ
▁በመ ም
▁ዛ ፍ
ለ ኛ
▁በአ ማ
▁ን ቅናቄ
ዋዕ ት
▁ማ ግኘ
▁ለመ ንግ
▁ I
▁ጋዜ ጠኞች
▁በቅር ብ
▁ያ ወጣ
▁የው ስጥ
▁አሳ ሳቢ
▁6 0
▁ል ና
▁በፖ ለቲካ
▁የፈ ረን
▁ቱ ሪዝም
▁ሚ ሊ
▁ሽ ፋን
▁የእ ው
ሳ ችሁ
▁መ ሞ
▁የያህዌ ን
መ ንግ
ለ ስ
▁በመ ጽሐፍ
ቶች ም
▁ሳ ል
ተ ህ
▁ከአ ፍሪካ
▁ብዙ ዎቹ
▁ፕሬዚዳን ቱ
▁ያደር ጋሉ
▁ውድድ ሩ
ኩ በት
▁በ ጤና
▁በመ ታ
ንካ ሬ
ጌ ታ
ኳ ቸው
▁ይ ሰራ
▁ቢ ባል
▁በ ቅድ
▁የቻ ይና
▁እ.ኤ.አ .
ሊ ሲ
▁የበላይ ነት
ስ ል
▁ደ ስተኛ
▁በሚ ቀጥ
▁የእ ንግሊዝ
▁እንግ ሊዝ
▁ለመቀ ነስ
ጣ ቸውን
▁ገ ደብ
▁በመተ ባበር
ፋ ር
▁ለ ሰው
▁ሳይ ቀር
▁ተወ ስ
ድ ል
ሃ ድሶ
ሮ ሞ
ስ ሊ
▁በ ሂ
▁ብ ራ
▁ሌ ሎቹ
ሪፖር ተር
▁በ ጊዜ
ፉ ም
▁ን ጹ
▁ከ ሃ
▁ኮሚቴ ው
ሳ ችንን
▁ከ ቅርብ
▁ስ ላለ
▁የሚታ ዩ
ድ ዋ
▁ p
▁የኢ የሱስ
▁ዝ ውው
ስማ ማ
▁አይመስ ለኝም
ማ ሌ
▁የ ረ
ናው ያን
▁የሌ ላቸው
▁አሉ ታዊ
▁ወ ድ
▁ኃይ ለማርያም
▁ፓር ላማ
▁ያ ለም
▁ራ እይ
▁አንዱ ን
ቀ ቅ
ዘ ዝ
▁ያ ደ
▁ሕ ጉ
መለከ ቱት
▁አን ዴ
▁ኃይ ሌ
▁ለ ጉ
ደርጉ ት
▁የጎ ላ
ደራ ጀት
ነ ቃ
ስ ፈ
ለች ው
▁3 4
▁አመልክ ቷል
ቀ ውን
ወ ቁ
▁ገ ዝ
▁የእ ንስሳት
ስ ቡ
ጦ ት
▁ማ ሽ
▁አስተ ዳደ
▁ለህ ዝብ
▁ትዕ ዛዝ
ረ ሰ
▁ከእ ሱ
▁ሰጥ ቷል
▁ሰጥ ተዋል
ዘ ነጋ
▁ይገል ፃ
▁አ ዲ
▁ተ ፎካ
▁የእ ስራኤል
▁ከ ሰው
▁መስ ኮች
▁ቁ ጭ
▁ወታደ ሮች
▁እንስ ሳ
▁ይ ፈጥ
▁በህ ገ
ዳ ይ
ፋ ሉ
ለቲ ከ
▁ምን ጮች
▁ምሽ ት
ተ ረ
ፋ ፋት
▁ቃ ለ
▁ታላ ላቅ
▁የተወሰ ኑ
▁ድን ቅ
▁ P
▁3 3
ጠራ ው
▁የተ ዘጋጀ
▁ሊ ኖር
ቲ ን
▁ማ ው
▁አስ ደ
▁እና ቶች
ኳ ን
ይ ይት
ግ ድ
▁ለ ካ
▁ህ ጋዊ
▁ገልጸ ው
ዘ ም
ፍ ል
▁የጠ ቆ
▁የኢን ቨስትመንት
ች ሉት
ጃ ቸው
ንቲ ባ
r e
▁ ጻ
ላል ቅ
ም ሳ
ቃ ለን
ዎ ቻችን
▁መንግስ ታት
▁ን ብረ
ያ ያ
አ ይ
ካ ቸው
ገለ ግል
▁እንቅ ፋት
▁መድኃ ኒት
▁አለመሆኑ ን
ን ደር
▁አደ ባባይ
ጠ ለ
▁ከ ክ
▁የም ክር
▁አማካ ይነት
ገ ላ
ጥ ና
▁የደ ን
▁ከማ ድረግ
ሞ ቹ
ፁ ም
▁በ ቢ
▁አብ ዱ
▁መሀ ል
▁ለ ባ
▁ቢ ኖር
▁ጠ ላት
ታወ ስ
▁ያለ ን
ዴ ን
▁በ ቡ
▁ከ ቤተ
▁በድ ጋሚ
ራ ኒ
▁በ ጦር
▁የተ ዋ
▁ለማስ ቀ
▁አጠቃ ቀም
ቾ ችን
ቷ ቸው
▁በተ ሻለ
▁የህ ዝቡ
▁ደጋ ግ
▁የሰብ ዓዊ
▁ለሙ ሉ
▁ጊዜ ው
▁በይ ፋ
ክ ረው
▁አገ ራቸው
ጣ ና
ስተና ገድ
ጠ ቁ
ር ያው
▁ተ ረጋግ
▁ባለ ማ
▁ተጠ ቃሽ
ከላ ዊ
▁በ ዝ
▁ይ መጣል
ሰ ሙ
▁ከ ዛ
▁አል ጋ
▁ይህን ንም
በ ን
▁ከ ነበረው
ዝ ገባ
▁ስ ጋ
▁ዳን ኤል
▁መጠየ ቅ
ዳ ድር
▁ኮ ንት
▁ስት ል
ኮ ት
ጻ ናት
ደ ዱ
▁የሚ ደርስ
▁ስለ ማ
▁የሚ በ
▁መቀ ነስ
▁አስፈላጊ ውን
▁የሁ ለት
ወሰ ኑ
▁ውይ ይ
ባ ሉት
እ ኖ
ፋ ሪ
መ ኝ
▁የል ማ
▁ጫ ማ
▁ከበ ደ
ኖ ሩት
▁ብር ቱ
▁የሚገኙ ት
▁ ጦ
▁ች ለዋል
▁ጉዳ ዮችን
▁ድን በር
▁መ ጀመ
▁የሚ ባሉ
▁ህ መም
▁ይ ሠራ
▁በአ ካባቢ
▁ሚ ያዝያ
▁የፀ ረ
▁እርግ ጠኛ
ሱ ዳን
▁የ ያዙ
ቀር በው
ቀመ ጡ
▁አክ ብሮ
▁መካ ከለኛ
▁ፍላ ጐ
ጠብ ቅ
▁ለ ዓለም
▁ባ ላቸው
▁እና ላችሁ
ገራ ል
▁ይ ፈል
▁ዘ ገባው
▁የቆ የ
▁ኃጢ አት
▁የሚ ኖር
ገና ኙ
ሃ ዊ
▁ታ ማ
▁ለብ ዙ
▁ለሕ ዝብ
▁ገጽ ታ
▁በተ ደረገው
▁አብ ራር
ፈ ርት
▁ ሼ
▁ይኖር ብናል
▁የመሳሰ ሉ
ወ ትር
▁አው ቶ
▁እንዲያ ደርጉ
▁ገብ ተው
ክ ቸ
▁በ ዛ
ላ ትና
ረ ቃ
ካ ው
▁ፎ ቶ
▁ለጎ ን
ዴ ት
▁እ ሺ
▁የተ ሰማሩ
ደር ጋ
▁ምን ጊዜም
መጣ ው
▁በከተማ ዋ
ናሽ ናል
▁ብ ሩ
▁ቁ ም
▁ፀ ሐፊ
ከ ትና
▁በ ሬ
▁የም ርት
▁ጀ ር
ገ ዙ
▁ዘመ ኑ
▁ኮ ከብ
▁አም ና
▁የሰ ጠው
ሃ ለሁ
ል ኩ
▁ለ ነ
▁ሄ ዶ
▁ይኖ ረዋል
▁መኮ ንን
ከ በሩ
ል ቀት
ዲ ን
▁እንደ ነበረ
ጫወ ቱ
ቅ ል
▁ቴ ዎድሮስ
ራም ፕ
/ 1
ጎ ዳ
ጐ ች
▁ተ ክ
o m
ዘ ና
ብ ል
▁መው ጣት
▁በተ ለየ
▁አድር ገን
ም ራ
ረ ዱት
ቷ ቸዋል
▁ይ ሉ
▁መንግ ስቱ
▁አስተ ባባሪ
▁መሰ ላችሁ
ጅ ነት
▁ከ ዋ
▁በመ ያዝ
ገኙ በት
▁የሕ ይወት
ቆጣ ጠ
ለ ሙ
▁ከ ቆ
▁በመ መ
▁የስ ነ
▁ምናል ባትም
▁ነጥ ቦች
▁ተመልክ ቷል
▁ዓመ ታዊ
▁ሒ ደት
ፈ ጥር
▁የ ጊዜ
ረ ናል
▁ም ድብ
▁አድር ጌ
▁5 00
▁መዛ ሙር
ል በ
በ ዝ
ኸ ው
ያው ቅ
▁የተሰ ኘ
▁ንግ ግ
▁የሚታ የው
ፕ ራይ
▁ራ ሳቸው
ነሳ ው
ገኝ ም
ን ሰ
▁የሚ ኖረው
▁እንደሌ ለ
ድ ሮ
▁መ መልከት
▁የሚ ወስ
▁ማ ይ
▁ራ ዕ
▁ቤተ ሰቦ
ነ ቀ
ና ን
▁ግብ ፅ
▁ክር ክር
ግ ስት
▁የ ጠቀ
▁መ ገንባት
▁አማካ ሪ
▁የቤተ ሰብ
▁ ጡ
▁አር ብቶ
▁በሁ ለቱ
▁ወረ ቀት
▁መጠ ጥ
▁በረ ከት
▁በቀ ለ
▁በደ ስታ
▁ሲ ደርስ
▁አረጋግ ጠዋል
▁ሕ ፃናት
▁እ ዚያው
▁ማ ብ
ቱን ና
ስ ኮ
ያ ያዙ
▁እን መልከት
▁ማስተ ማር
ሏ ት
▁ ዊ
▁በ ሰማይ
▁መስ ሎ
▁የተመ ሠረተ
ቼ ን
▁ገበ ሬ
7 0
ነ ቷ
ዓ ላዊ
ጠናቀ ቁ
▁የተ ፈጠረ
▁እያ ደረጉ
▁በእ ሱ
ፌዴ ራ
▁ይ ዛ
▁ብ ረት
▁ቦ ር
▁እ ህል
▁ድ ህ
▁በመጨረሻ ም
ር ተው
ከተ ሞች
▁አድር ጐ
▁መግባ ባት
ነ ኛው
ክ ም
ዬ ው
▁ኮሌ ጅ
ጠንቀ ቂያ
ቋ ንቋ
ተ ውን
▁ለማ ድረስ
▁ፍ ጹም
▁የኢ ህአዴግ
▁ወቅ ታዊ
▁ለኢ ዜአ
▁የ ሊ
▁አ ደረ
▁ይ ወስ
▁ለእ ኛ
ና ይት
ደና ቂ
ጀር መን
▁አስተ ማማኝ
▁ዳ ግም
▁መቀመ ጫ
▁ለመ ግባት
▁ከ ሀ
▁ኤ ሌክትሪክ
ብረተሰቡ ን
ቂ ዎች
▁በ ዚያን
▁የተ ወለ
▁ማህ በሩ
▁መብ ራት
▁ያስች ላል
ቋ ሚ
▁መ ቅረ
ከት ል
▁ሴ ቶችን
▁ተቋ ሙ
▁የሕ ክምና
ፀ ው
ፈ ቱ
▁ሌላ ኛው
▁በኢ ኮኖሚ
▁የ ትም
▁ጉድ ጓ
▁ለ ረጅም
▁ቀ ሪ
▁ነፍ ስ
ገ ዳ
▁ማ ሻሻያ
▁እንደሚ ቻል
ሪ ን
▁ለ ን
▁ረ ቂቅ
▁የሚያደርጉ ት
▁አ ቡ
▁የህ ብረተሰብ
መል ስ
ጠናቀ ቀ
▁አቅር በዋል
▁ጌ ታቸው
ራ ቅ
▁ለ ዓ
▁ከ 5
▁ከ ሞት
▁በመ ሰ
▁አይ ኖርም
ሮች ና
▁በእ ዚህ
▁ባ ሪያ
▁ሰው የው
ክ ን
▁ ፲
▁ያው ቃል
an d
e d
▁ከጥ ቂት
▁ጥና ቱ
ኝ ት
▁ሳ ምን
▁አካ ዳሚ
ር ዳት
ካ ኤል
ፋ ዊ
▁ከመ ሆኑ
ስተዋ ወቅ
ል ጥ
ቸ ዋለሁ
▁ለማ ጠናከር
ድ ስ
▁ይ ሸ
▁ሆ ኜ
▁ይገባ ዋል
▁ክስተ ት
▁ታው ቃ
in g
በ ኞች
▁ያ ብራ
ገር ም
ታቸው ም
▁ኢንስ ቲት
ያው ቁ
▁ቫ ይ
▁ስታዲ የም
▁ፍ ቅ
▁እየተ ባለ
▁መር ሃ
ደ ቀ
▁ E
▁እ ዬ
▁የአ መራ
▁ድ ህነት
▁አንድ ን
▁አሸ ን
▁በየት ኛውም
▁ ቶን
▁አ ረጋ
▁ሊ ሆኑ
▁ፖ ለቲከ
▁ማስተ ካ
ዕ ድ
▁ተቋ ቁ
ዩኒቨርሲቲ ው
ሰ ውን
ነሱ ት
▁የሚ መጡ
▁አስፈ ፃሚ
▁ከመንግ ሥት
▁ስራ ው
▁መሰ ረተ
▁አንተ ም
▁አዛ ውን
ብ ና
ታ ትን
▁ቆ ሻሻ
▁ካፒ ታል
▁የሚሰ ሩ
▁የ ጀመረ
▁የሚ ሰራ
ሄ ራዊ
ገ ሉ
ጣ ሬ
▁ብዙ ሃን
ምቤ ላ
ፌዴ ሪ
▁ፍት ሐዊ
ን ዛ
▁ከእ ኔ
▁ስ ልጣ
▁ፍት ሕ
ረ ከ
▁ታ ክሲ
▁አል ቀረ
▁የአ ር
▁ድ ክ
▁የ ጠበቀ
▁በ ቤ
▁ከ ሞ
▁ቁ ሳቁ
▁ዳ ኛ
▁እር ሱ
▁ማድረ ጉ
▁ባለስ ልጣን
▁ጭ ማሪ
▁200 9
▁ከአ ምላክ
▁ይፈል ጋል
▁የ ዶ
▁በ 4
▁አል በ
▁የእ ን
▁የ ቅርብ
▁በ ዙ
▁ከ ንቲባ
▁ተጫዋ ች
ጎ ና
ፈ ና
▁በ ጠቅ
▁የተ ሰማ
▁ፀ ሐይ
በረታ ታ
▁ከ ሶ
▁ዕ ጣ
ገኘ ት
ላፊ ነት
▁ሽ ልማ
▁አምራ ች
▁መ መለስ
▁በአ ማራ
▁ስለዚህ ም
▁የሀ ገር
ገ ኛል
▁አ ቻ
▁ከ ያህዌ
▁ም ነው
▁አያው ቅም
▁ይኖር ባቸዋል
ኗ ኗ
▁ነ ባ
▁የተ ነ
ሬዚዳን ት
መ ች
▁መ ኪ
▁ዲ ዛ
▁መጥ ተው
በ ተ
▁እንደመ ሆኑ
ኮ ር
▁ a
▁የ ቡና
▁እን ክብ
መለ ሰ
ግ ዚ
▁አደ ገኛ
▁የእ ርስ
▁አን ገ
▁ዕ ርዳታ
ጸ ን
▁ጣቢያ ዎች
▁አላው ቅም
ኝ ታ
▁ከ ምን
ርስቲ ያን
▁ጥና ቶች
▁ጉብኝ ት
በ ሪያ
▁ነ ጭ
▁ዳ ግ
▁ለዘ ላለም
▁ማ ነስ
▁ወል ደ
▁ይልቁ ንም
▁ወ ሰን
▁ሌ ሊት
▁የው ኃ
በ ሻ
▁አ እምሮ
▁ከመ ቶ
▁ለአ ምላክ
▁የባ ቡር
ገለግ ሉ
▁ሊቀመን በር
ተ ገ
▁ታ ዛ
▁ቢ ራ
▁ወጣ ቶችን
▁በተ ፈጥሮ
▁የግን ዛቤ
▁ደ ህና
▁የአ ይ
ጠበ ቀው
ሙ ያው
▁ t
ረጋ ግጥ
▁ዮ ሴፍ
▁ማኅ በራት
. 5
▁መ ማር
▁ተ ሰብ
▁በአ ውሮፓ
ፌዴሬ ሽኑ
ከለ ኛው
▁ነጋዴ ዎች
▁ግል ፅ
3 0
▁መ ጓ
▁ያ ተኮ
▁የተ ገኙ
▁ሁኔታ ው
ከናወ ነው
ኖሩ ም
▁ማኅ በረሰብ
▁የተባለው ን
ጆ ቻቸው
▁የአ ው
▁መር ህ
▁ቀር ቦ
▁19 9
▁ጤና ማ
▁ነበረ ች
ቻ ይና
ጣ ጣ
▁ጀ ግ
▁ልማ ድ
▁ፕሬዝዳን ት
▁ይገኙ በታል
ቀ ሩ
▁ታ ቅ
▁ፍ ጻሜ
▁እ ቃ
▁ፍ ጥነት
▁ህዝ ባዊ
▁አው ራ
ቀመ ጠው
▁ያ ዕቆብ
▁ጥ ንካሬ
▁ይጠ ብ
▁ M
ጋ ለ
▁ከ ሥ
▁በመ ውሰድ
▁ቀ ኝ
ደ ለው
ፍ ስ
▁የ ክለ
▁ከ መን
▁ግ ቦች
▁ዓይ ነቱ
ሐ ሴ
ጢ ር
▁ከ ኤ
▁የተ ቋ
ና ጀ
▁ማ ምጣት
▁ው ር
ምረ ቻ
▁ልጆ ቹ
▁ማ ለፍ
▁ዓይ ነቶች
▁ ቄ
▁በ ገንዘብ
ጠና ከረ
ዳል ያ
ረ ሳ
ሜ ት
▁ማዕ ከ
▁ዘ ው
▁አጠና ክሮ
▁በ ዝር
▁ል ውው
▁የራ ስ
▁በ 5
▁ይ ቆ
▁ተማሪ ዎችን
ጎ ብ
▁በመ ሄድ
ካ ፈል
▁የ ዱ
▁ከ ፈ
▁ራ ስን
▁ብላ ለች
▁ይቀጥ ላል
▁የ ሻ
▁ዩኒቨርሲቲ ው
▁ይጠቁ ማሉ
▁ሊ ባል
ቀ ቱ
ጣ ኔ
▁ጥ ቂ
▁ዘ ይ
▁በማ ሰብ
▁ና ይ
▁በጉ ዳዩ
ምባ ሲ
ደ ኝነት
ጓ ዳ
ፐብ ሊክ
▁ሽ ያጭ
▁የ 2
▁ለመ ተ
▁ብቻ ውን
▁ዳይሬ ክተሩ
▁አበረታ ች
መ ላለ
▁ከ ጀመረ
▁ው በት
▁በእ ንግሊዝ
ብረ ቱ
▁ይነ ገራል
▁በ ኩ
▁በ ዲ
▁መቀ በል
▁በፍ ቅር
ድ ኑ
▁በ ሲ
▁ባ ደረገው
▁እየተ ካሄደ
▁በቀጣይ ም
ቀ ኑ
▁የ ላቸውም
▁ለ ፊት
▁ም ግ
▁በት ኩረት
ው ሉ
▁ለ የት
▁ይ ወጣ
▁የሰ ጠ
▁ከማ ስ
▁እንቅስቃሴ ዎች
ገነባ ው
▁የተመሰ ረተ
ዲ ሁ
▁ዕው ቀት
▁አደረጃ ጀት
አ ቸው
▁3 7
▁ወስ ዶ
ሮ ቹን
▁ብ ቁ
▁በመ ግለጽ
▁የማ ሳ
▁ያደር ገዋል
▁እንዳል ተ
ፋ ክቸ
▁ከ ግብ
▁የማ ኅ
▁ b
▁ከ ዚሁ
▁በል ዩ
ኝ ና
▁ማ ክ
▁ዘ ይት
▁ምክንያ ቱ
ክል ሎች
▁መኖ ራቸውን
ጠቀሙ በት
▁አቅራ ቢ
ታ ለሁ
▁በተ ገ
ቴ ል
ሩ ና
ራ ችሁ
▁ለመ ረዳት
▁የገ ጠር
ቀበ ሉ
ለጠ ነ
▁ብሔረሰቦች ና
ሐ ስ
ካ ሚ
▁እ ቅ
▁ይ ጀም
▁አገልጋ ዮች
ጥ ረው
▁ምስ ክር
▁በ ዞኑ
▁ከ ሦስት
ዎችን ና
▁ክፍ ት
ላ ለን
▁ተ ዋና
▁1 ,
▁ጉ ልህ
▁ኤ ርትራ
ሳይ ያስ
▁በእ ግር
▁የኪ ራይ
ሙ ኒ
▁ ጮ
ገለ ጽ
o u
▁ከ ጉ
▁የተ ውጣ
ረ ቡ
ደ በት
▁አብዛ ኛውን
▁ማ ቀ
▁ባ ላ
▁አስ ራ
▁ዘመ ናት
▁ወ ዲያ
▁በመ ግ
ብር ብ
▁የወን ጀል
▁በ ንግድ
▁ቤ ቶችን
▁ጠቅ ሰው
▁ዩኒቨርሲቲ ዎች
በ ሉ
▁ተ ቆጥ
▁ያ ነ
ቤ ል
ፆ ታ
▁አስተ ና
▁ኮሚ ሽ
▁በሕ ዝብ
▁አ ጭር
▁ሕዝቡ ን
▁በመ ልካም
▁ሀ ሳ
ወሰ ዱ
ቀሳቀ ስ
ሯ ን
ቦ ቹ
▁ ጩ
▁ለመ ጠቀም
▁ፍልስ ፍና
▁ይ ደር
▁የተ ጠ
ፈለ ገውን
▁ተደራ ጅ
▁ጢ ሞ
▁ማቴ .
▁የተ ሸ
▁ዕድ ገ
▁የኤ ርትራ
▁ወዲያው ኑ
ዘ ረጋ
▁ያ ቀ
▁የም ለው
▁በማን ኛውም
▁ዓይ ነ
▁የአ ል
▁በ ሪ
▁ተ ካሂ
▁አስተ ማሪ
ዬ ም
▁የ ጭ
▁ሲ ገል
▁ከሚ ገኙ
▁ይኖ ራሉ
▁መዳ ረሻ
ን ቀት
▁በ ሦስት
▁ትእ ዛዝ
▁የ ዘርፉ
▁ው ሎ
▁ት ዳር
▁አባ ቴ
▁ከ ሳ
ንድ ሮ
ገና ኘ
▁አድማ ስ
ግዳ ሮ
▁ት ችላ
▁አስ ደናቂ
▁ኪ ዳን
▁በደ ል
▁በህ ዝብ
▁በሀ ገሪቱ
▁ሉ ዓላዊ
ጠቀም በት
▁ሰር ቪ
ረ ቤ
▁በመስ ራት
▁አ ጥብ
▁የሚ ሠራ
▁ለመ ቅረፍ
▁ዜ ማ
▁እንዲ ኖረው
▁የሆኑ ትን
▁ያ የ
▁አገሪ ቱን
▁የሚ መስ
▁ሮ ም
▁ቅርንጫ ፍ
ጻ ፈ
▁ይ ስ
▁የሚ ለ
▁ሰ በብ
▁አጠ ገብ
ም ቶ
ራ ረብ
ደ መ
ጥ ሮ
▁ህ ብረተሰብ
▁የነ ፃ
▁ከ 20
▁ለአ ን
▁አገልግሎ ቱን
ወ ል
ዙ ት
▁የእ ነዚህ
▁ከሁ ሉ
▁ጉድ ለት
▁በ ሞት
▁መ ኖሩ
▁ጥ ረ
ከ ፈል
▁ጋ ብቻ
ትና ንት
▁ማኅ በራዊ
▁የቴ ክኒክ
ሰ ጣ
▁ማ ሰ
▁በመ ነሳት
▁እን ባ
▁ደረ ሰ
▁ሳሙ ኤል
▁ተ አ
▁መሰ ና
▁አፈ ፃፀ
▁ያለም ንም
ጧ ቸው
ጨ መር
▁ደ ጃ
▁ቢ ሆኑ
ገኛ ለን
▁መሆኗ ን
▁በ ትን
▁የመ ፍት
▁ወደ ተ
▁ሸ ዋ
▁የተ ያያዘ
▁ማን ኛውንም
▁ተቃዋሚ ዎች
▁በ ሠ
▁ሰ ሜን
▁ታ ደሰ
▁ለዘ መናት
ላ ትም
▁ማ ም
▁በእ ርስ
▁ኢየሱስ ን
▁አያ ያዝ
▁ሕ መም
▁ጀ ርባ
ንቀ ሳ
▁በጉ ባኤ
ኞ ቹን
▁ሥ ላሴ
▁አጋ ር
▁አዳ ም
▁አህ ጉ
▁ f
▁ት ራምፕ
▁ሳ ንቲ
▁ይሄ ንን
▁ይዘ ት
▁እንክብ ካቤ
▁ሥ ጋት
▁ስለመ ሆኑ
▁ለገ በያ
ወ ት
▁ው ብ
ቃ ቅ
▁እ መ
▁ፓር ክ
▁ከወ ዲሁ
▁ለ ሥራ
▁ተወካ ይ
▁ይፈጥ ራል
ን ሳዊ
▁እ ሳ
▁ክ ሊ
ቀረ ቡ
▁መለ ሰ
ገ ራት
▁ወ ግ
▁ብ ታ
▁ካ ንሰር
▁በ200 7
ተ ም
ዋ ለች
ደ ሮች
▁ለ ጊዜው
▁ለመ ጠበቅ
▁ክለ ቡ
ዕራ ብ
▁ፋብሪካ ዎች
ራ ና
▁ቤ ታቸው
▁ፕ ሪሚየር
▁ዳ ቦ
▁ኦ ሎምፒክ
▁አደረጃ ጀ
ረ ኞች
ጎ በ
▁ማ ድ
▁ማ በረታ
▁የቀረ በው
ኒ የም
ወ ዳ
▁ኮ ሪያ
▁ተቀ ና
▁ጠቁ መው
▁ሕገ ወጥ
▁እንደሚ ገኙ
▁ፈ ገግ
▁ኃይ ሉ
ፋክቸ ሪንግ
ተ ኞቹ
▁ከእ ነሱ
▁የብ ሔራዊ
▁የሁ ለቱ
▁መዋ ቅር
ሸጋ ገር
▁ፈ ለ
▁የሰ ጡት
ባይ ል
▁ኢንተር ናሽናል
l e
▁ከ ሥራ
▁አይ ችሉም
▁ካ ሉት
▁ስራ ዎችን
▁ዴ ኤ
▁ብርሃ ኑ
▁እ ሴት
▁ተ ነግ
▁ዕ ጩ
▁ጫ ፍ
ችኋ ለሁ
ካ ር
▁የ ዘር
▁ተ ግዳሮ
▁ስለ ሌ
▁ቅ ዳሜ
▁ያ ገኙ
▁ግ ብረ
ሞክ ራ
▁የ ታወቀ
▁ተ ገንዝ
ጠ ም
▁በሰ ጠው
▁መጽ ሔ
ራ ሹ
ብ ሰባ
▁የተ ላ
▁ባ ዶ
▁ል ዑ
ታወ ቁት
▁የቆ የው
ዝና ብ
ት መት
ፍ ር
▁ካ ህ
▁በ ሊ
▁4 5
▁አቤቱ ታ
ሶ ን
▁ለ ቅ
▁እና ው
▁በሚ ደረገው
▁ኢን ዱስት
▁ወን በር
▁ሰጥ ተው
▁የሁ ሉም
▁ፉ ክክር
ቲ ያ
ፋ ቸውን
▁ግ ዥ
▁ሆነ ን
ሰ ናል
▁ሲ ገባ
▁ቀ ድ
ለት ም
ሥራ ቅ
▁ህ ፃ
በል ጡ
▁መንግሥ ትም
▁ልማ ታዊ
ፈተ ሽ
▁አሠ ልጣ
▁ይሻ ላል
ሚ ንቶ
ጸ ው
▁ከ ቦ
▁በአ ምስት
▁ጊዜ ያዊ
ገራ ሚ
ላለ ፉ
▁መድኃ ኒ
ማ ችን
ና ችን
ታወ ቂያ
▁በሁ ዋላ
▁ኢንተር ፕራይ
ባ ቱ
ብ ሩ
ወሰ ደ
▁ፀ ጋ
መዘ ገበው
▁አሳስ በዋል
ኩ ስ
▁የ ድን
▁የሚ ቻለው
▁ለማ ከናወን
ሳ ች
▁በ ጀ
ኮ ችን
▁በ ሉ
▁ወደ ኋላ
▁ተመ ዝግ
▁መቆ የ
ነት ም
▁አስተ ዳደሩ
▁ተፎካ ካሪ
ሆ ኗ
ላ ምና
▁ ዋል
▁ሙ ዚ
▁አር ባ
▁ነበረ ው
▁አብርሃ ም
▁የመ ድ
ፋ ፋ
ላሚ ክ
▁እየታ የ
▁ተ ላ
▁በመ ላ
▁ከአ ምስት
▁የወ ጣው
▁ማዕ ከሉ
▁ጠብ ቆ
ደ ጉ
ናቸው ም
ለ ደ
ሞ ቱ
ራ ቶን
ኔ ን
▁ተ ዘ
▁ሲ ሉም
▁ፕ ላ
▁በሽታ ዎች
▁ዕቃ ዎች
▁ቁር ጠኝነት
ጋ ቸውን
▁ጨ ርሶ
▁ለአ ፍሪካ
▁ማስ ጠንቀቂያ
ኔ ራል
ዎ ቻቸውን
▁የድር ጅቱ
▁ተጨዋ ቾች
h e
አ ያ
▁የሚ ሠሩ
▁ጉ ልበት
▁ተቀብ ሎ
ቀ ሰ
▁ሽማግሌ ዎች
▁ኮርፖ ሬሽን
ያያ ዥ
▁የሚ ቻል
▁በመ ር
▁ባለ ሃብ
ከፋ ፈል
▁እነ ሱን
▁7 0
▁ምስ ጋና
▁በ 20
▁መ ቆጣጠር
ቀ ኝ
▁መ ፍታት
▁ባ ሳ
▁ለማ ሻሻል
ዳዳ ሪዎች
▁ትል ልቅ
ሬ ሽኑ
ጸ ባረ
▁ታ ክስ
ሪ ስት
▁ለማሳ የት
▁አውሮፕ ላን
ገኝ በት
ም ራል
ደ ላ
▁ተ ፈራ
▁ለመ ኖር
▁ጨ ረታ
▁በመ ጪው
▁አገልግሎ ቶች
▁በ1 0
▁በዝር ዝር
ቱ ንም
▁አ ፈር
▁ዕው ቅና
ጻ ፈው
▁የተ ሞላ
▁እንደሚ ኖር
▁ዋ ነኛው
ዘር ጋት
ጭ በር
መረ ጡ
▁ብቸ ኛ
ዱ ም
ስት ራ
ስ ላሚክ
ችሁ ት
▁እ ጁን
▁መምጣ ቱን
ፌደ ራል
ቶ ቻቸውን
▁ጥ ራ
ሪ ነት
▁መ ላው
መጣ ም
ለ ላ
▁አን በሳ
ማር ኛ
ሀ ል
ሪ ፍ
▁የ ሴት
ግ ዚአብሔር
▁ከ ቤት
▁ለ ሪፖርተር
▁አንዳ ች
▁ጠይ ቀዋል
▁ሀ ይ
▁አገል ጋይ
ፈጸ መው
ነ ቴ
▁ ፔ
ሰቡ ን
ቃወ ም
ሊ ድ
▁በመ ግባት
ከተ ሉ
ሰማ ራት
ገኛ ለች
▁የተ ሟላ
▁በተ ባ
▁ሊ ጉ
▁ጠ ር
▁የፍ ቅር
ከታ ታይ
ክ ፈል
▁የሚ ሰማ
▁እንደሚያ ደርግ
▁ m
▁ ዩኒቨርስቲ
▁መ ቁ
▁ባ ቡር
▁ደ ብረ
ግባ ባት
ፈል ጋቸው
▁ውድድ ሩን
▁ማመን ጫ
▁ሲ ታ
▁ች ሎት
▁ር ብርብ
▁እንደሚያ ሳ
ብ ንም
ኑ ፋክቸሪንግ
ጎ ልበት
▁ሀ ገሪቱ
ክል ና
▁ኤል ያስ
ሶ ቹ
ዴ ል
▁ለ በርካታ
▁አም ልኮ
▁ከእ ኛ
▁ከል ብ
ኤ ስ
▁በግ ብርና
▁ረ ድ
▁በ ቱ
▁በ ኪ
▁የተ ን
▁እንዲ ታ
▁ት ላልቅ
▁አስ ከፊ
▁አዳ ማ
▁ምሥራ ቅ
▁ባለሥልጣ ናት
▁አብራር ተዋል
▁ተ ሾ
ባ ን
ወ ርድ
▁አን ጋ
▁ለመ ድረስ
ሪ ታ
ታ ደር
ክ ለው
ነ ገር
ግ ን
▁በ ፋ
▁በወ ን
▁መሥ ዋዕት
▁የአ ቅም
ስ ቶች
▁ያለ ማ
▁ባለመ ሆኑ
▁በቁ ጥጥር
▁በ ወጣ
▁የእ ና
ንተ ን
ሽ ም
▁የተ ናገረው
▁ቴ አትር
▁መር ሐ
▁በተገ ቢው
ለ ታ
▁ት ላለች
▁እስ ር
▁አክ ራሪ
ዳ ችን
▁ካለ ፈው
ጀመ ሩት
▁ሁኔታ ዎችን
▁ማስ ከበር
ፈ ቀደ
▁አ ሮ
▁ብ ዝ
▁በአ ዋ
▁ኢ ትዮ
▁በ19 8
▁የት ራፊክ
▁የ ከ
▁እ ጥፍ
▁እንደ ገለ
▁እንዲ ሰጥ
ደራ ጁ
ዎ ት
▁የ ና
▁ዮ ና
▁የነበሩ ትን
▁የሚጠይ ቅ
ሬ ስ
ሳ ራ
ቺ ን
የ ሙ
▁ፍ ል
▁ዜ ጎችን
▁ህዝቡ ን
▁አን ባቢ
▁ኢ ሳይያስ
ዘጋ ጃ
▁ቴ ሌ
ባ ው
▁እን ጀራ
▁ድ ሮ
▁ከመ ስ
▁መዋ ቅ
▁ይ ዟል
▁የሰ ጡ
ሁዳ ውያን
ሽ ነት
ጥ ል
▁ከብ ዙ
▁ቢ ዝነስ
▁ከማ ን
▁እህ ት
ሑ ፍ
▁የተ ሻ
▁የመ ነ
▁ታ ሳቢ
▁ማስተ ዋል
ካ ፈ
ዑ ዲ
▁በ ሜ
▁ይ ል
ደረ ሱ
▁በባ ህ
▁ያ ቀር
▁ማ ኔ
▁ግብ ዓት
▁ህ ፃናት
▁ዳ ኞች
▁የፀ ጥታ
ኝ ማ
▁እየ ሰ
▁3 6
▁በሁለ ቱም
ኳ ንን
ወ ቀ
▁የ ንጉ
▁ለ ነገሩ
▁ዕ ቅ
▁3 8
▁የሆነ ችው
▁በማሳ ደግ
▁ B
▁እንደ ነበሩ
▁እስራ ኤል
▁ተ ያያዥ
▁የም ስ
▁የባ ህር
ዋዕ ትነት
ጻ ፍ
▁የሚ ስተዋ
▁አገ ዛዝ
▁ማን በብ
▁የሙ ስና
ቨ ር
▁ለ ቤተ
▁የሚ ደርሱ
▁ካ ም
▁ሄ ደው
▁ፕሮጀክ ቱ
▁መመር ያ
ች ግር
▁የነ ገ
▁ክል ላዊ
▁ N
▁ ረዳት
▁የ ፓ
▁ስ ድ
▁ም ርም
▁ስላ ለው
▁አብዮ ት
▁በ ፌዴራል
▁መታ የት
▁ወዳ ጄ
▁የተባ ሉት
▁የሚ ፈጥ
▁አስ ገራሚ
ቧ ን
▁ተ ቆጣ
▁ማረ ፊያ
▁የተውጣ ጡ
▁ት ውል
▁ሠ ራዊ
▁ጥና ትና
▁አልቀረ ም
ኛ ዎቹ
ዋ ንዳ
▁ያ ደረግ
▁አስ ገንዝ
ናይት ድ
▁የአ ሁኑ
▁ለመ ሸ
▁አቋ ር
▁ለመ ናገር
▁የሚያ መ
ው ደ
▁ለ ባለ
▁ያ ገኛ
▁የህ ይወት
ኖረው ም
ከ ብር
▁ልጆ ችን
ንባ ሌ
በ ሰ
▁8 0
ዓ ቱ
▁ሰ ፋ
▁በስ ራ
▁በሀ ገር
▁ም ዝገባ
▁የአ ለም
▁ትን ቢት
▁መም ጣት
▁ተግባራት ን
▁ለመ ቆጣጠር
▁ጠ ን
▁ለአ ገሪቱ
▁ስራ ውን
▁ተወ ላ
▁ቀጠ ሮ
ላ ሳ
▁እ ሁድ
ከተ ለ
▁በቅ ን
▁የፍ ርድ
▁የ 200
ቃ ን
▁የተሰ ጠ
▁ከ1 0
▁የቻ ለው
▁የ ለውጥ
▁አስ ከባ
▁ባለ ሙያው
▁ሚ ዛ
▁የጠ የ
ጋ ለሁ
▁ማ ጠናከር
▁ብ ክ
▁አመ ቺ
▁በሕ ይወ
▁የብ ድር
▁ሰሞ ን
▁ጎን ደር
▁አህ መድ
▁መሐ መድ
▁ንጹ ሕ
ዳ ድ
▁የነ ዳጅ
▁አርሶ አ
ረ ኝ
ች ሎ
ገ ተኛ
▁ሌላ ውን
▁ባለሙያ ዎችን
▁አልቻ ሉም
ፊ ቱ
▁በተ ወሰነ
▁ፕ ላን
▁ቆይ ተዋል
▁ከ ድር
▁ተ ጎ
▁የመ ከላከያ
▁ጠ ዋት
▁ያህ ሉ
▁ደመ ወዝ
ረ ተው
ቆ ና
▁ሰ ጠ
▁በማ ስተ
▁መሆኑ ም
▁ከእ ንግ
▁መደረጉ ን
ዱ ስ
▁የሚ ዘ
▁የሚያ ን
▁በዘ ላቂ
▁የጥ በብ
ን ኩ
ጫ ት
ንፈ ኛ
▁የተቀ ናጀ
ረ ጉ
ሽ ኖች
ቀመ ጠ
▁እኛ ን
ከ ላቸው
▁ወቅ ትም
▁ግብ ዣ
▁ለሌ ላ
▁ራዕ ይ
▁ቦ ታው
▁እ ኩ
▁ተመል ሶ
ደ ውን
▁ d
▁ይ ስተዋ
▁በማ ድረ
▁መልዕ ክ
ወ ግ
▁መ ለያ
▁መ ቋቋም
▁ጨ ርቅ
▁ተ ባ
▁ሰዎች ም
በ ቱ
ካ ሔ
▁የበ ጎ
▁የዕድ ሜ
▁ከአ ራት
▁ሜ ዳልያ
▁በት ግራይ
▁መስ ማት
▁የወ ንድ
▁አሉ ላ
▁ጥር ጥር
▁በነፃ ነት
▁ለይ ቶ
ጮ ችን
▁እንዲ ተ
▁እንዲ ወጡ
▁ላ ለው
▁የጋ ዜ
ዋ ም
▁ ጁ
ሎ ም
ጠ ፉ
▁ከ ሐ
▁ገ ላ
▁እንደም ታ
▁ተመራ ማሪ
▁አውጥ ቶ
▁አ ዕምሮ
▁ተ ክለ
▁የተ ከ
▁መሠ ረተ
▁ለው ጭ
▁በጥ ንቃቄ
ረ ክ
▁የወ ጡ
▁እንቅ ልፍ
▁የሚ ዲያ
▁ማስ ቀ
▁በየ ቀኑ
▁አሳ ዛ
▁የሌ ሎች
ለመ ደው
▁በቅድ ሚያ
▁የት ኛው
▁ጅ ማ
ቡ ም
ፃ ሜ
▁አ ረንጓዴ
▁የሚ መለከታቸው
▁እንዲ ኖራቸው
▁በሀ ገራችን
▁የሚገል ጹ
ስቀ ሳ
▁ሲ ሄድ
▁በአ ራት
ሙ ስ
ነ ካ
▁ለማ ዳ
▁ፍ ራ
▁መለ ወጥ
▁ድም ፃ
▁የቻ ለ
▁ለመቀ በል
አ አ
▁የተ ጀመረ
▁ጠ ረ
ሎች ና
▁ዝ ንባሌ
▁አብረ ን
ቆ ሙ
ነ ቁ
▁ተ ገን
▁እንዲ ሰጡ
▁ገ ነት
ራቸው ም
▁በሰ ሜን
▁አስተዳደር ና
▁የለ ኝም
▁የእድ ገትና
▁ and
▁በ ፍት
▁መ ደም
▁በእር ግ
▁ዝውው ር
▁ባይ ሆንም
▁ልቦ ና
ይ ይቱ
▁የሚ ውል
ድረ ው
▁ይሄ ዳል
▁መንግስ ታዊ
▁ኢዮ ብ
ደ ባባይ
▁በ ሸ
▁የእ ምነት
▁አያ ሌ
ከሰ ተው
▁ባን ኩ
a tion
▁የአ ስተ
ዎቹ ም
▁የል ብ
ነ ዘ
▁መ ገንዘብ
ገነ ዘብ
▁ክፍተ ቶች
ግ ቶ
▁ማ ነ
▁ሲ ቀ
ድር ግ
ባቸው ና
▁ተወ ዳጅ
▁በዓ ይ
▁ስታ ድ
▁በቀ ል
▁የከተማ ው
ኅ ንነት
▁ያ ግ
ላለ ፈ
▁ህል ውና
ኒ ስ
ን ጋ
▁ኃላፊ ው
▁በመጥ ቀስ
ቴ ዎስ
▁ኢ ያ
ቆ ራ
ዊ ያን
▁በጥ ሩ
▁በዘ መናዊ
▁መጨ መር
ቃ ቂ
ኩ ትን
ፋ ይ
▁ማ ምረት
▁የመ ተ
▁በም ሳሌ
▁ቆይ ቶ
▁ተሳታፊ ዎች
▁የተሳ ሳተ
ማ ሪያ
▁ከ ር
▁አካባቢ ው
▁ማድረ ጉን
▁በተ ሰ
▁የመ ኖሪያ
▁ድ ራ
▁ወጥ ተው
▁ለመ ሄድ
▁ምር ቶችን
▁ያላ ትን
▁አ ጉ
▁የተ ፈጠረው
▁ኢ ሳ
▁ቁ ጣ
▁ቅዱ ሳን
ጨዋ ታ
▁ለሁ ለ
ዝ ማች
▁ማ ውጣት
▁ድር ድር
▁መረጃ ዎችን
▁ስር ጭት
▁የግብ ፅ
▁ይገልፃ ሉ
ኪ ን
ፋ ጠን
▁የ ሳይንስ
▁ብ ና
▁የሌ ላ
▁ኅ ብረተሰቡ
▁ሰለ ባ
ሮን ቶስ
▁ይ ነሳ
▁ውጤ ቱ
▁በህ ግ
▁የከተማ ዋ
▁ስ ፔ
▁እንደ የ
መራ ው
▁ማለ ቴ
▁ተ ጨ
▁የሚ ካሄደው
▁ለው ጦች
▁የሕ ዝቡ
▁አራ ተኛ
▁ስህ ተ
▁ጥ በ
▁የአ ትሌቲክስ
▁የኢ ፌዴሪ
▁ማስተ ር
▁ኬ ሚ
ባ ለሁ
ዓ ሉ
▁ሜ ጋ
▁ተ ሠ
▁ብ ላችሁ
▁ባ ንድ
▁የመ ሆን
▁መድረ ስ
ስቲ ቫ
ሚ ን
▁ ኔ
▁በአ ዲሱ
▁ፍት ሃዊ
ረ ሙ
▁መ ዘጋጀ
▁እንዲ ቀጥል
ደረ ሰው
ወለ ድ
▁የመሳሰ ሉት
ጣ ዊ
▁እ ፈልጋ
▁ሳ ያስ
▁ገለ ል
ዮ ኖች
▁ከ ትናንት
▁በሁለ ተኛ
ፈ ስ
▁ው ጣ
▁ጎ ራ
▁በታ ሪክ
▁የሚያ ግ
▁ስን ል
▁የፕ ሮጀ
▁የጥ ራት
▁በአን ፃ
▁በመን ገድ
▁ጓደ ኞ
4 0
▁ተ ሰር
▁የአ ቶ
▁ፈ ላጊ
▁እያ የ
ድሞ ው
▁ልጆ ቻቸውን
▁መገኘ ት
▁ሐዋ ርያው
ፆ ች
▁ይላል ፦
▁ቋንቋ ዎች
▁መወ ጣት
ባ ትና
▁በ ነበረበት
ስተ ን
▁መ ደረግ
▁ማ ከናወን
▁በፍ ርድ
▁ይታ መናል
▁አሳይ ቷል
ሪ ና
ጾ ች
▁አ ሥ
ድረ ኩ
▁ያለ በትን
ሯ ዊ
▁ት ገኛለች
ዝግ ጅት
ገ ረው
▁ኤ ምባሲ
▁ባህ ልና
▁አዛ ዥ
▁ስሙ ኝማ
▁በውስ ጡ
አ ለሁ
▁ም ሕ
▁ዘ ወትር
▁በግ ለ
ረጋገ ጡ
▁ቀጣይ ነት
▁በ ጸ
▁እ ጃ
▁እ አአ
▁ወንድ ሞ
▁አምባ ገነ
▁መዛሙር ቱ
ት ሮ
ፈ ቻ
▁ይ ው
▁በተ ደረገ
▁ተመ ራጭ
▁በግል ፅ
ብ ኛል
▁ለመ ርዳት
▁ቢ ሆኑም
▁አል ያም
▁4 2
▁በነ ገራችን
9 0
i l
ማ ስ
ቁ ሟል
▁በ200 8
▁ኢንዱስትሪ ው
ሎ ና
ታ ች
▁አ ነጋገር
▁ተ ረት
ቆ የት
ጠ ሉ
▁ተ ረድ
▁የመ ቀ
▁የአ ማራ
▁የበ ለ
▁ሃይማኖ ታዊ
▁ነ ዳጅ
en t
ራ ስ
▁ከ ረ
▁ቢ ያስ
▁ፈ ንታ
ከባ ከብ
ሙኒ ኬሽን
ገ ሬ
▁ለመ ውሰድ
ጎ ዱ
▁ ላል
▁የሚ ን
▁በቀ ጣዩ
▁ተቋማ ትን
ጦ ችን
▁ተ ሃድሶ
መለ ክት
▁የፖ ሊሲ
▁እፈልጋ ለሁ
መ ዱ
▁የ ቅድ
▁ይሄ ው
ሳተ ፈ
▁ጥቅም ት
▁የሚመራ ው
ና ዳ
▁ይ ቀር
▁የሚ ደ
▁የተ ሠራ
▁በመ ገንባት
▁ዘር ፉን
▁ማን ሳት
▁አው ቃለሁ
▁ይዞ ታ
▁ለኢ ን
▁የቱ ሪዝም
ረ ሰብ
ሻ ለሁ
▁አ ደረጉ
▁የሚ ችሉት
▁ሳይ ሆኑ
▁ለአ ዲስ
▁ያመለክ ታሉ
▁የ ሞት
▁ስ ደት
▁በአ ል
▁በአ ለም
▁መስ ቀል
▁ቆ ን
▁ገለ ፃ
▁አመለካ ከ
▁ዘገባ ዎች
ገ ናል
▁የተቃ ዋሚ
▁ለመ ቋቋም
▁ተመል ካ
▁ተጋ ላጭ
ቀ ደው
በ ውን
▁የ ከፍተኛ
▁በ ጅ
▁መ ፃ
▁ግ ሩም
▁በሚ ካሄደው
ጠቀ ሰው
▁ግብ ዓ
▁የክ ብር
▁መሣሪያ ዎች
መቻ ቸት
▁አዝ ማ
o l
ሦ ስተኛ
ነ ቷን
▁መ ት
▁እንዲ ገቡ
▁መስ ራ
▁የፍት ህ
▁አስደ ሳች
▁ጩ ኸ
ለ ፉ
ባ በል
▁ተ ከላ
▁በመ ሠ
ለያ ይ
ሚያ ስ
▁ጎ ል
ስ ቦ
▁ከ ወጣ
▁የመ ኖር
▁ሐ ምሌ
▁የበ ጀት
▁ይጠቀ ሳሉ
ማ ውያን
▁መ ጠቀ
▁ግ ፊት
ገና ኘት
ል ፉ
ሟ ቸው
ሽ ታው
▁የ ዛ
▁መ ሻሻል
▁ግን ብ
▁የም ድር
ቀረ ቡት
▁ D
▁በማ ዕ
▁ፈ ታኝ
▁ሀገ ሮች
▁አስ ቀድ
▁ሁለ ቱን
ሻ ቸው
ኮ ራ
▁ወ ተት
▁በመ ሥራት
▁ካ ሜ
▁ደረጃ ውን
▁ኮን ስትራክሽን
ዑ ስ
ጓ ጓ
▁የ ጀ
▁መ ሃል
▁በአ የር
▁ሰ ፈር
▁እና ስ
▁ትር ጉ
▁ኩባንያ ው
▁ተመል ካች
ነ ሪንግ
▁ሰ ልፍ
▁ሁ ከት
▁ዓ ቃቤ
▁የሚያ ጋጥ
▁ጠ ጅ
▁ከሌ ላው
▁ፌ ደ
▁ጀም ሯል
▁በወ ንዶች
▁በ ዜ
▁ዕ ዳ
▁እንዳይ ሆን
▁ልማ ትን
▁ኃጢ አ
▁ተተ ኪ
▁የ ዞኑ
▁ስ ኳር
▁እንዲ ችሉ
▁ኤ ች
▁ሶ ስተኛ
▁የተ ያያዙ
ለች ም
▁አጋ ማሽ
▁ከነ ማ
▁በከተማ ው
በ ሬ
ነ ታችንን
ኮ ል
▁ሚ ካኤል
ችሁ ም
▁እድ ገ
ላቀ ል
▁ተጠቅ መው
▁ያስረዳ ል
ለ ቆ
ሰ ሱ
ሽ ና
▁ሲ ናገር
▁በአማ ካይ
ሰ ልጣ
ቻ ላቸው
▁አድርጎ ታል
▁ኢንዱስት ሪዎች
ክ ሉ
▁ከ ኦ
▁በተ ባለው
▁አም ጥ
▁አዋ ቂ
▁በሚቀጥ ለው
ቻ ለም
ደ ተኞች
▁መ ሥራ
▁ማ ሰል
▁የሚያስ ከት
▁ሞ ገስ
▁ምርጫ ው
▁በማስ ገባት
▁መፅ ሐ
▁ልውው ጥ
ቃ ቸውን
ጋ ች
▁ይ መጣ
▁ያ መጣ
▁ለመ ም
▁ለመ ን
▁አል ሆነ
▁ፈ ን
▁በር ካ
▁አረጋግ ጧል
▁አን ተን
▁የስ ኳር
▁መዝ .
ፈራ ው
▁ጠቁ ሟል
▁አክብሮ ት
ጓ ቸው
▁ሥራ ቸውን
ታወ ቅም
▁3 9
▁መንግሥ ትና
▁የዚህ ን
ሬ ድ
▁መ ገን
▁በወ ር
ስብ ስብ
▁ስል ት
▁የመስ ኖ
መ በት
ተ ሮች
▁የ ሪ
▁ታ ች
▁የ ክልል
ስተ ናገ
▁ጥያቄ ዎችን
▁በስ ቲያ
▁የመጀመሪያ ውን
▁ጥር ጣሬ
ሹ ራንስ
ለን ደን
▁ሕዝ ባዊ
በ ኛ
ቢ ዎች
ክ ሎ
▁ ዲያ
▁ in
▁እን ቁ
▁እንዲ ፈጠር
ገራ ችንን
▁ባል ደረ
▁ሲ ደረግ
▁የሰ ራ
▁በጥ ልቀት
ናል ድ
▁ከአ ሜሪካ
▁በቀ ስ
▁ዓ ለማ
▁የአ ፈር
▁ማስ ጨበ
▁አላ ስ
▁ተዋ ጊ
▁መ ረጋጋት
▁ግ ዢ
▁መን ቀሳቀስ
▁ተወ ል
▁ደጋፊ ዎች
▁ይጠበቅ ባቸዋል
ሽ ታ
ቆ ዩ
▁ከ ትምህርት
▁ወደ ዚህ
▁የጥ ናት
▁ሚ ስተር
▁መስ ፈርት
▁የባ ንክ
▁አክ ሲ
▁የተቀመ ጠ
▁ጀር መን
ወ ዳደር
▁ጥ ንታዊ
ለን ተ
▁ከተማ ዋ
ና ኛ
▁አ ፄ
▁የተ ካሄደው
▁የመ ጡት
ሪያ ል
መስ ረት
▁እር ካታ
▁አፍ ቃ
▁ነ ቢ
▁ለመ ወጣት
▁ኢ የሩሳሌም
▁አይ ታ
▁ኮሚ ሽኑ
▁ገለ ጸ
▁ፍላጐ ት
ላ ታል
▁ R
▁ይ ግባ
▁የት ግራይ
ዩኒ ኬሽን
ቅ ራ
ኖ ረን
ጥ ሎ
▁ከ ፖ
▁ብዙ ውን
▁አባ ቱ
▁እንዲያ ገኝ
▁ኤጀንሲ ው
ነ ቶችን
▁መ ነሳ
▁ም ላ
መረ ጥ
▁ማዕከ ላት
▁በዘላቂ ነት
▁በመ ጣ
▁አፍሪካ ውያን
▁አሰልጣ ኞች
▁ F
▁ከ ከተማ
▁አል ሸ
▁አንድ ዬ
▁ነገ ሩን
▁የባ ህ
▁ባሕር ይ
▁ተሾ መ
▁ይ ን
▁በማ ጥ
ቋቋ ሙ
▁በሥ ነ
ሸ ናፊ
▁ን ፁ
▁የሀ ገሪቱ
ደ ኞች
▁አ ነሳ
▁አደጋ ዎች
▁አሸ ባሪ
ኮ ም
ደ ሪያ
▁ዶ ሮ
ሻ ውን
የ ትና
▁ማ ቅረ
▁የአ ስተዳደር
▁ፋ ይናንስ
▁የሚችለው ን
▁ከ ምር
▁ሲ ሰ
ምን ቱ
ከና ውን
▁ከመንግ ስት
ማ ም
ጋ ቸዋል
▁ያ በረ
▁ል ጁን
▁ለተ ለያዩ
▁ታይ ቶ
▁ያ በ
▁የሚያስ ች
▁ተጠያቂ ነት
▁ጥላ ቻ
ሞ ኑ
ረ ካ
▁በ ጐ
▁በ ቤት
▁ዲ ባባ
▁እንደማ ያ
▁የያዘ ው
▁ነ ቅ
▁ጨ ለማ
▁ጭ ንቅ
▁የጠ ቅ
▁ድል ድ
ጠየ ቁ
ቋ ር
▁የ ችግ
▁የሚ ነሱ
▁እንደሚ ከተለው
▁4 1
ዮ ሽ
ደ ቱ
ፌዴሬ ሽን
▁ተጠቅ ሞ
▁ላለ መ
ለ ፈ
ም ቷል
ዕ ና
ፈ ቅድ
ቦ ታው
▁እ ብ
▁በሂ ደት
ግ ስ
▁የ ገባው
▁ማ ፍራት
▁ዜ ናዊ
▁ምዕራ ብ
▁ቀጠ ለ
ሳ ለሁ
ነ ጥብ
ጥ ሩ
▁የሚ ካሄድ
▁ም ስራቅ
▁በማ ውጣት
▁በገ ጠር
ድ ቡ
▁የኮ ሚ
ሥ ረት
▁በአ ር
▁ገለ ጹ
▁ተሸ ላሚ
▁መቅ ደ
▁የሚ ደር
▁ያ ጋጠ
▁አግኝ ቶ
ሳ ለች
▁አር አያ
▁የሚያ ሰ
▁ዳ ያስፖራ
▁ስር አት
▁ሩ ሲያ
▁አደር ጋለሁ
▁ሚ ስጥ
▁ሀ ገራችን
▁ይሰራ ል
መ ሙ
ዚ ል
▁ጥ ሬ
▁ቢ ል
▁በዓ ሉ
▁ይታ ያሉ
▁ወዳ ድ
ባ ታል
▁ይ ሞ
▁እንዳ ን
ፍ ለ
▁በአ ስተ
▁ካ ርድ
▁መስ ፍን
▁ሙ ስሊ
ዕ ለት
▁እንዲ ወጣ
▁መል አ
▁ማስ ወገድ
▁ር ዝ
ቀጥ ሉ
▁በህ ይወት
ነገ ረው
▁ተከታ ዮች
o p
ተ ራ
ጅ ና
ግ ሮ
▁ለ ልማት
▁ለማ ካሄድ
▁ሃ ብ
▁ጠቅ ሶ
▁ከ1 5
▁የአመራ ር
▁የ ጃ
▁መ ቸ
▁ከ ሩ
▁ው ስብስብ
▁ጠ በ
▁የወ ጪ
▁3 00
▁ጸ ሎት
▁ማር ቆስ
▁የሚ ጋ
▁ጠ ንቅ
▁ከተ ባለ
▁እየተ ከናወነ
▁ጭ ብ
ትምህ ር
▁የሚጠ ብ
ድ ጉ
ፍ ሮ
▁ያ ጣ
▁ቀ ጣዩ
▁አግኝ ተዋል
▁ሳንቲ ም
ዎ ን
▁የሚ ሳተፉ
ለንተ ናዊ
e l
ማ ቅ
ም ግ
▁ለማ ስተ
▁ላ ሉ
▁ብሄ ረሰቦች
ክ ንያ
ዳ ግ
ጠ ጣ
▁ከ ገባ
▁የዕ ለት
▁አድራ ጎት
▁ማበረታ ቻ
▁ፈጥ ሯል
▁ G
▁ማ ሸነፍ
▁ኢንስቲት ዩት
ግ ሩ
▁በአ ም
▁በአ ይ
▁የመ ጠጥ
▁የት ዳር
▁ስፖር ተኞች
▁የተ ፋ
▁ሲ ናገሩ
▁ዘፍ ጥረት
መ ውን
ጡ በት
▁ከ ነዚህ
▁ሰ ኞ
▁በተ ጨባጭ
ያ ና
▁ ዌ
▁አል ፈው
▁ህ ንፃ
ይ ዙ
ጡ ም
▁ም ጣኔ
▁አፍሪካ ን
▁ማ ደግ
▁በተ ቋ
ታቸው ና
▁ቆ ዳ
▁ሌላ ም
▁ዘግ ቧል
▁ለማጥ ፋት
▁የተ ረ
▁ጥ ሎ
▁የማ ስተ
▁ፈ ንድ
▁ቆ ሮንቶስ
ሞክ ር
s t
ጭ ሩ
▁ነ ሐሴ
▁ግ ዛ
▁እየ ሰሩ
▁እንዳ ላ
ር ሽ
ከ ነ
ጎ ም
▁ ኒው
▁ሁኔታ ውን
▁ኦ ዲ
▁መዝ ሙ
▁መላ እ
ፋ ና
▁ ፌዴራ
▁በብ ሔራዊ
ሕ ር
▁መ ኳንን
▁ከ ኮ
▁የተ ሰራ
▁ስብሰባ ዎች
▁ክህ ሎት
ሠ ል
ሾ ቹ
▁ለ ፕ
▁ሰው ነት
▁ዞ ኖች
▁ቀጥ ተኛ
▁ፕሮግራ ሞች
▁ዮሐ .
ባበ ቅ
▁ሦ ስተኛው
▁ሰማ ያዊ
ሰ ኞ
ት ልና
▁የመ ኪና
▁ለመ ውጣት
▁የሰ ዎች
ልጣ ኑ
▁ን ጥረ
▁በም ር
ጠናቀ ቀው
▁በመንግ ሥ
▁አይመስ ልም
ወ ጠ
▁እ ጦት
ጨረ ታ
▁እንደሚያስ ፈልግ
▁የተከሰ ተው
ሚ ዎች
ዞ ር
▁አት ክል
▁ዲ ፕሎማሲ
▁ተቀም ጦ
▁ስርዓ ቱ
▁ነባ ራዊ
▁የተ ገኙት
በር ክ
▁የማ ት
▁2 .
▁መስ መ
▁ተከ ሳ
ነር ሱ
▁ተነ ስተው
▁ማጣ ሪያ
▁መገ መት
▁የህዝቡ ን
▁የ ፓርላማ
▁ተ ጀም
▁የተ ነገረ
▁ሆቴ ሎች
▁ተር ታ
▁ወዳጅ ነት
ር ብ
ኦ ል
▁የ ያ
▁ውስጥ ና
ምድ ና
▁ስፍራ ዎች
ናይ ጄሪያ
▁ከእንግ ዲህ
▁የ ጐ
▁ከ ምት
▁እንደ ታ
▁በአ ገልግሎት
▁መካከል ም
▁በማ ኅ
ቀ ፉ
ኔ ል
▁የ ጨ
▁አ ተ
▁ያ ጋ
▁ራ ሳችንን
▁ፋ ሲ
ዘዋ ዋሪ
▁ኢንጂ ነር
ከ ሪያ
▁ያ ምና
▁ባ ር
▁ኦ ሮሚያ
▁ግድ ቡ
▁የሥ ልጣን
▁ወላ ጆ
▁ለ ክ
▁በአ ካል
▁አባ ቶች
ዳደ ሪያ
ሰ ረ
ከ ስ
▁ሲያ ደርግ
ደረሰ በት
ለ ቁ
ራ ኒው
ኒ ስቴ
▁በ በርካታ
▁ይ ጥ
ቸው ና
▁የመሰ ረተ
▁ታይ ቷል
ቃ ለል
▁የሚ ረዳ
▁በአ ስ
ክ ና
▁መስ ጫ
5 00
a c
ም ች
ጤ ን
▁ይ ኖሩ
▁የነ ሐስ
▁መል ካ
▁ቅር ብ
▁ጽሑ ፎች
▁ፈጥ ሮ
ሏ ን
▁የ ንግ
▁አ ሽ
▁ሰ ውን
▁በማ ዘጋጀት
▁አመ ሰ
▁እንደሆነ ና
▁ዘር ፈ
ቡ ዕ
ኤ ልን
▁አ ሊ
▁ይ ዘን
▁ፈ ጣ
▁ሳይ ንሳዊ
▁የቡ ድን
ሟ ሉ
▁በመ ለየት
▁ልጆ ቻቸው
▁ቀጥ ሏል
ከባ በር
ወ ሓ
▁ቴ ሌቪዥን
▁ትኩ ረ
▁ዳር ቻ
ሣ ኤ
ቃ ለች
ጎ ለ
ጴ ዛ
▁መ ከተል
▁ማ ዶ
▁እንዲያ ደርግ
▁የጥ ፋት
ተ ሪያ
▁በሚ ፈለገው
▁በሰ ፊው
▁በው ሃ
▁በል ማት
▁ለመግ ዛት
ኦ ት
▁በ ፓ
▁ተ ሽከርካሪ
▁መስ ዋዕትነት
▁የሚጠ ቅ
ሄ ዳ
ም ጣ
ው ያኑ
▁የ ኬንያ
▁የአ ምስት
▁እና ቴ
▁ምክንያ ታዊ
▁ሐሳ ቦች
መ ሠ
ን ጀ
▁የምን ለው
▁ቀር በው
▁የሚመጣ ው
ረ ዳን
▁በ ጣ
▁የሚ ታወቀው
▁ሲ ተ
▁በዕ ድሜ
▁የኮን ስትራክሽን
ነ ጥ
ዛ ሉ
▁መ ደብ
▁ከ ንቱ
▁እንደማይ ችል
▁የዕድ ገት
▁ያምና ሉ
▁ዋ ት
▁የወ ር
▁የገ ዛ
▁ያሳ የ
መለካ ከት
▁አስተያየ ታቸውን
▁ከ ኃ
▁ለ ወጣ
▁የሚ ገር
▁ማ ጣት
▁ሰ ሚ
▁ባ ልን
▁1 .
▁የታ የ
መ ጠ
ጎ ል
▁በዚያ ም
▁የሚያሳ ዩ
▁የጉ ባኤ
▁ማዳ በሪያ
ፈጽ ም
▁የሁለ ተኛ
▁ ኔት
▁ከ 6
▁የነ በራቸው
▁ደንበ ኛ
በ ናል
ወ ርቅ
▁በ ሴ
▁የሚ ወጡ
▁አስ ከ
ለ መደ
የ ስ
▁መ ያ
▁ቆ ሞ
▁ፓርቲ ው
▁ድርጊ ቶች
▁ትምህር ታቸውን
▁ከሆኑ ት
ብ ኚ
▁አል ማ
▁አቅ ሙ
ዳ ጃ
ፋ ቱ
▁አ ነ
▁ጠ ፍ
▁የወጣ ቶች
▁ገበ ያው
ጓዳ ኝ
▁አስገንዝ በዋል
▁ያ ገኘው
▁ሳ ም
▁ች ላ
ምፒ ዮን
▁እንግ ዶች
ካተ ቱ
▁የጠቆ ሙት
▁ L
▁የሥ ር
▁ሥርዓ ቶች
▁የደረ ሰው
▁አርቲ ስት
ያ ዎቹ
▁የ ሮ
▁ቀ ለ
▁ለማ ፍራት
▁ሊ ታ
▁እና ደርጋ
▁የታ ላቁ
▁የማህ በራዊ
▁ሰን ደቅ
▁ዳግ መኛ
ል ቆ
ሙ በት
ቫ ይ
▁በአ ው
▁አሳዛ ኝ
▁በሚ ገኝ
▁አገል ግ
▁በ1 8
▁በዘ ንድሮው
▁ማ ነው
▁አባ ይ
▁ደረጃ ን
▁ዞ ሮ
ላ ና
▁ይ ታይ
ጠቀ ስ
▁ሲያ ደርጉ
▁ደር ግ
▁አጋጣሚ ዎች
ሱ ና
ሳ ትና
▁የሚ ቀርቡ
▁አባ ባ
▁ወጣቶች ና
▁የፕ ሮ
▁ሆስፒ ታ
▁ተቋማ ቱ
ስተና ግ
ሮ ቻቸው
▁ጆ ን
▁ከ3 0
▁ምኞ ት
▁አድና ቆት
▁መድሃ ኒ
▁ነ ክ
▁ለ ሶ
▁ለ ሆኑ
▁ለመ ያዝ
▁ቢ ኖሩም
▁ቅ ርስ
ታይ ም
▁መጥ ቀስ
ከፍ ል
▁ሳምን ታት
ጂ ንግ
▁የተ ደ
▁ታ ም
▁በም ንም
▁መሳሪያ ዎች
▁ጉድጓ ድ
▁እ ለት
▁መኖ ራቸው
ዙ ን
▁የሚያ ከናው
▁ጥያቄ ው
▁በአንድ ነት
▁ምሥ ክር
▁ድህ ነትን
ዱ ና
▁ቀ ነ
▁ስለ ነበረ
▁ታስ ቦ
▁አ ቃ
▁ባ ልና
▁እንዲ ሉ
▁ት ሆና
ሮ ድ
▁ማ ለቱ
▁ቤ ትና
▁እንደሚ ጠበቅ
▁ተከ ታት
▁እንድት ሆን
▁መስተ ዳድር
ማ ችሁ
ባ ለን
ታ ለን
ወ ደው
ፈ ቅ
▁አ ወጣ
▁የሚ ሆነ
▁አል ኩ
▁መሰ ለኝ
▁ብሔ ሮች
▁ጨዋ ታው
▁ኅ ብረተሰብ
▁ብሏል ፦
ሳ ቱ
ፈ ሰ
▁ከ ጠ
▁ለማ ገልገል
▁የኢ ትዮ
▁ፕሬ ስ
▁የሚገል ጽ
▁በግብ ፅ
አይ ቪ
ኗኗ ር
ም ፅ
ቦ ን
▁ነበር ና
▁እስከ ሚ
▁እኔ ና
ብዛ ም
▁የሚያሳ የው
▁መክ ፈል
ስ ጋ
ፍ ያ
▁አ ዘጋ
▁ከ ሙ
▁ሲ ካሄድ
▁ጥ ብቅ
▁አገ ላለ
ሁ ም
ጂ ዎች
▁በባ ህር
▁ባህር ይ
▁ይጠቁ ማል
ሄ ደው
▁ W
▁የ ሜ
▁አ ቆጣጠር
▁እንደ ዚሁ
▁የአ ስቸኳይ
▁ቅ ስቀሳ
▁ተጠ ቁሟል
▁ሚዲያ ዎች
▁ለ ሽ
▁ስ ፋት
▁አል ቻል
▁ጀ ግና
▁4 4
▁ዘመ ድ
▁በተቃ ራኒው
▁ምሕ ረት
ራ ችንን
ካ ተት
ኸ ኝ
ፍ ም
ፖ ንሰር
▁የግ ብር
▁እናንተ ም
ቁ ና
ባ ትን
▁መ ጀመር
▁ጠ ባብ
▁የወ ረ
▁ሜ ት
▁ለሚ ገኙ
▁ህዝብ ን
▁ተ ግ
▁ተ ሽከርካሪዎች
▁በተ ከታታይ
▁ለማ ውጣት
▁በማ ጠናከር
▁ን ዑስ
▁አ ነጋ
▁ማ እ
▁ት ቶ
▁የመ ረ
ገኙ ም
ቀረ በው
▁አስተዳደር ን
▁አብዛ ኛዎቹ
ከታተ ሉ
▁ማክ ሰኞ
ም ቀት
▁በ ኅ
▁ባ ራክ
▁ማዕ ቀፍ
▁ለ ደ
▁ብ ጥብ
▁ታ ግ
▁ከድ ህነት
ና ፍ
▁አሳ ድ
▁ሆና ለች
▁አድራ ጊ
▁ይጀም ራል
ማ ቱ
ሽ ት
▁እን ጨት
▁ሲ ጀምር
▁መግ ዛት
▁ያቀረ በው
▁ይጠበቅ በታል
ብ ራት
ጋ ባ
ጤ ት
▁በ ምና
▁ለመ መ
▁ያስ ደ
ፈራ ረ
▁እሷ ም
▁ደንበ ኞች
ሰ ባቸው
ዝ ቃ
ግ ሥት
▁ወ ታደር
▁እንደ ውም
▁የተ ያዘ
▁የሚሰ ጠውን
▁ቁጥ ራቸው
▁በዕ ለቱ
▁በኃ ይል
ወ ደ
ገ ዘ
ግ ነት
▁ ኀ
▁የ ደርግ
▁ማ ገልገል
▁ጊዜ ና
ንስ ና
▁በሰ ዎች
▁የራ ሳቸው
▁መድረ ኩ
ል ኛል
የ ረ
▁ው ዝ
▁ይህ ች
▁ሕ ጎች
▁አለመ ኖር
▁የጎ ዳና
▁ፈረን ሳይ
ዋ ለህ
▁የ ሱ
▁ተ ጉ
▁የወ ቅ
ጋ ለጥ
▁የ ዝ
▁ይ ካሄ
▁ያ ሸነ
▁ት ናገራ
▁ገ ጣሚ
▁የግ ለ
▁4 3
▁ጀም ረዋል
▁በፈ ረን
▁ኢንቨስት መን
ን ቦት
ገ ፋ
▁ድ ብ
ገራ ቸውን
▁ሬ ዲዮ
ቃቅ ንና
▁ይ ነግ
▁ይሰ ጣሉ
▁ሰራ ተኛ
▁የመጨረሻ ው
▁በማህ በራዊ
ደ ባ
▁ሁ ለንተናዊ
ኖር በት
▁ከማ ሳ
▁መዝ ገብ
▁መም ራት
ላቀ ቅ
▁አፈፃፀ ም
ፊ ትም
▁እንደ ቀ
▁ግ ራም
▁ፍ የ
▁ጉዳ ተኞች
▁ፀ ጥታ
▁የምር መራ
ኪ ም
▁ይ ለያ
▁የሚ ፈልግ
▁አማ ር
▁ክል ሉ
▁አጋ ጥ
▁ሊያ ደርግ
ቆጠ ብ
▁ያቀረ ቡት
▁ገፅ ታ
▁የተቋቋ መው
▁የሚ ወጣ
▁እንደ ሆን
▁የተ ተ
▁ል ቡ
▁ዘ ለ
▁ሊ ኖረው
▁ካ ሣ
▁መስ ፈር
▁ሃ ገር
▁ፓር ኮች
▁የሀ ገራችን
▁የኦ ሮሞ
▁በመቀ ጠል
▁ትምህር ቱን
▁መ ጡ
▁ይ ገኝ
▁ት ው
▁በእ ስራኤል
▁ቢሮ ው
▁የገለ ፁት
▁T he
▁በመንፈ ስ
▁ ዩኒ
▁መ ጓዝ
▁እን ኩ
▁በጥ ቂት
▁ያተኮ ረ
ፍ ቱ
▁ይ ይ
▁ሞ ዴል
▁የሚሰ ጡት
ካተ ተ
▁እናደርጋ ለን
ሻ ሽ
ጠ ናል
▁ተ ጣ
▁በማ ያ
ሰቡ ት
▁በነ በሩ
▁ከሌ ላ
▁ዝርያ ዎች
ጥ በት
▁የ ረጅም
▁በአ ገሪቷ
▁ገ መ
▁እነ ርሱ
ዘው ተሪያ
▁ምል ልስ
▁ለመንግ ሥት
▁ H
▁ለ ድር
▁ክ ረምት
▁ሚ ዛን
▁ሙ ያዊ
▁በግ ንባ
▁በጥ ናት
▁ለእ ነዚህ
ውል ት
▁እንግ ሊ
▁ከም ንም
▁ሪፖር ቱ
▁የ1 9
ጨር ቃ
▁በአንፃ ሩ
ጋ ጣሚ
▁በ ለ
▁በ ዩ
▁በተ ራ
▁በኮ ን
ዕ ለቱ
▁የ ር
▁የ ጀመሩት
ፍራ ው
▁ከደ ቡብ
ሠ ሩት
ቧ ቸው
ደ ሚያ
▁ከ ጋ
▁የሚ ቀርብ
▁ያለ ች
▁ሰው ዬ
ግለ ፅ
▁9 0
▁ዩ ሮ
▁እናው ቃለን
ዳ ዊ
ድ ማ
▁መ ቻል
▁ተ ዳ
▁ታ ጋ
▁ተገኝ ተው
ዋ ይ
▁ነ በራቸው
▁ሰ ልጣ
▁የአ ም
▁ተይ ዞ
ዓ ዛ
ጅ ቶ
▁የ ኛ
▁የአ ክ
▁አለ ና
▁ቆ ሮ
▁በኩል ም
▁ቀር ቧል
▁የቢ ዝነስ
ቋ ቸው
▁ነ ባር
▁ከነ በሩት
ጨዋ ታው
▁የስ ልጣን
▁ኪ ሳራ
ዘነጋ ም
▁እንደገለ ፁት
ፀ ን
ፈ ረው
▁መ ሃ
▁የሚ ቀር
▁የተ ማረ
▁የመ ከላከል
▁አድር ግ
▁የል ጅ
▁በገ ዛ
▁ስፖር ቶች
ም ኑ
▁መንገ ዱን
▁ይጨ ምራል
▁ት ግራይ
▁የማ ጣ
▁አድር ጓ
ካሄ ዱት
▁በሽ ታው
▁ፍት ህ
▁ጥቅ ስ
▁ተስማ ም
ሰ ም
▁በ ከተሞች
▁ሞ ተ
ችላ ለሁ
ቢ ኔ
▁ከ 7
▁እንደሚ ሰጥ
▁ስለ ሆኑ
▁ዓመ ታትን
▁አበ ራ
▁ተና ገረ
▁የሚገባ ውን
ስክ ሌት
ሊ ቲ
ደ ሰት
▁ሊ ቃ
▁ሙ ሽ
▁አድር ጉ
▁ጭ ንቀት
▁ተወ ዳዳሪዎች
▁በሶ ማሊያ
ፃፀ ር
ሞ ና
▁የ ክል
▁የመ ጀመርያ
▁ለመ ግለጽ
▁መስ ፋፋት
መለክ ተው
ው ቀት
▁ ጾ
▁ይ መለከ
▁የሚያስ ችለው
▁ዓለም ን
▁ተከ ፍ
▁ጸ ጋ
▁አግኝ ቷል
▁ወስ ደው
ዛ ባ
▁የ ፌ
▁አስተ ዳዳሪ
▁ነበረ በት
▁ጉባኤ ው
▁እ ችላለሁ
▁ገ ጥ
▁ኢን ቨ
▁ዜ ጐች
▁ስት ሆን
ጨ ብ
▁ ገር
▁ከ ን
▁እና ማ
▁አካ ላትን
▁የእ ነ
▁ሞ ል
ር ጋ
▁ለ ትምህርት
▁ባ ወጣው
▁እያንዳን ዳቸው
▁መቆ ራ
ሄ ር
▁አን ብ
▁አስተና ጋ
▁ቆሮ .
▁የ 3
▁በ ፅ
▁አይ ሁዳውያን
▁የእ ጅ
ተር ኔት
▁ተመ ድ
▁በሰ ላማዊ
▁አገሪ ቷ
ሁ በት
▁ማ ክበር
▁ማ መልከ
▁ሊ ሰ
▁እንደሚ ደረግ
▁አካ ሂ
▁ከሚያ ስ
▁የ ከፈ
▁ወ ኪ
▁ሲ ቲ
▁የማ ግኘት
▁አስተ ሳ
▁መሆኑን ና
▁አትሌ ቶችን
▁የ ኖረ
▁ይ መረ
▁ማ ማ
▁ታ ምራት
▁ዋ ን
▁ሶ ማሊያ
▁ፎ ቅ
ን ጻ
ው ር
▁ይ ደረግ
▁የተሰ ጠውን
▁መምህ ራ
▁ከስ ድስት
▁ልም ምድ
ቀ ዱ
ኳ ት
▁ተመ ጣ
▁እው ነቱን
▁በኢን ዱስትሪ
ሥ ላሴ
ክ ፈት
ዖ ን
ዳ ችሁ
ዶ ሚ
▁አ ቤት
▁የወ ይን
▁በም ታ
▁ድን ገተኛ
ስታ ን
▁አሳል ፎ
ቆ ማ
▁ያ ድ
▁ክ ንድ
▁ማዕ ከላዊ
▁ሥርዓ ቱን
▁ሲ ወጣ
▁አን ችልም
▁የሌ ለ
▁መተ ማመን
▁በድን ገት
▁አክሲ ዮን
ት ክል
ካ ችሁ
ጠ ፍ
ላይ ታ
ስተ ም
ጠና ቅ
▁በጥ ራት
▁ዞ ር
▁እባ ክህ
ለ ር
ላ ላው
ሙ ላት
▁በ ዴሞክራሲ
▁ከ ፕ
▁ፈ ፅ
ክ ላ
▁ህ ልም
▁ተወ ያይ
▁እንደሌ ለው
▁ትግ ሉ
▁አገልግሎ ቱ
▁4 00
▁አምራ ቾች
▁በጋ ዜ
ላችሁ ም
▁ያገኛ ሉ
▁ትናገራ ለች
ገ ራዊ
ፋ ትና
▁ክ ምች
▁የበ ቃ
ከፋ ፈ
▁ፈተና ዎች
▁የማህ በረሰብ
▁ተመጣ ጣኝ
▁በማ ግኘት
▁እየ ሰጠ
▁አላ ገኘ
▁መቻ ሉን
▁ይስተዋ ላል
▁የ ቃ
▁የ 201
▁እየተ ሠራ
ሰማ ቸው
▁ህገ ወጥ
▁ቫይ ረስ
▁ዲዛ ይን
ሯ ቸውን
ፍ ረስ
▁ዘ ፈን
▁ካ ሬ
▁ለእ ዚህ
▁የተሰ ኘው
▁አለማ የሁ
▁ክብረ ወሰን
▁የ ፅ
▁ብ ስ
▁ብቻ ም
▁በም ግብ
▁ፌ ስቲቫ
ለ 0
ቦ ል
ጅ መንት
▁ፍ ፁም
▁የማይ ችል
▁ዜ ጎ
ደረግ ን
ይ ቅ
▁በማ ሸነፍ
▁ሻ ምፒዮን
▁እንደሚገባ ም
▁ከመ ሆን
▁በሌሎች ም
▁ይጠቅ ሳሉ
▁አስከባ ሪ
ቆ ረ
▁የ ቅር
▁አ ጥር
▁ስ ማቸው
▁ገ ቡ
▁ለማ ስፋፋት
▁ተጠ ሪ
▁ኤ ም
ቆጠ ረ
▁በ ሰማ
▁ይ ችል
▁አል ታ
▁ከመ ጀመሪያ
ገል ገ
▁አቀ ፋዊ
▁ኃላፊ ነቱን
▁ከግ ምት
▁ጀመር ኩ
e c
▁እ ዚሁ
▁ም ግባ
▁ው ሀ
▁የመ ር
▁እስከ መ
▁በሙ ስና
▁19 8
▁ብል ሹ
▁የኅ ብረተሰብ
▁የሚያ ነሳ
▁ፍ ጥ
▁ፈ ት
▁መብ ትና
ጀም ሩ
▁መልእ ክ
▁ማሰል ጠኛ
ዓ ብ
▁ጥ ገና
▁አይ ቶ
▁ኦ ፍ
▁አግኝ ተው
▁የደረ ሱ
▁አውሮፕ ላ
ሻ ንጉ
ጃ ም
▁የ ጅ
▁ሲ ሰጥ
▁መም ሪያ
▁ዝግጅ ቶች
ቃ ጠል
▁እ ቴ
▁በእ ኩል
▁ሊያ ሳ
ሽ ናል
ኤ ም
ዎ ቿ
ጫ ዋ
▁የ በረ
▁የ ዝናብ
▁ተ ባብ
▁እንዲ ገባ
ምፒ ዩ
▁ሽብር ተኝነት
▁እ ረፍት
▁ዝ ምድና
▁በየ ዕለቱ
▁በበ ቂ
▁ካር ታ
▁የሚከተ ለውን
ቆ መ
▁አለ ብኝ
ላቸው ና
▁ዶ ናልድ
በላ ሸ
▁ለማን ኛውም
▁ተረጋግ ጧል
ወሓ ት
መ ንድ
ኚ ህ
ከ መ
▁ተ ንቀሳ
▁የመ ሠ
ሪያ ቸው
▁ብሔ ራት
▁መንገ ሻ
▁በማስ መዝገብ
▁በተባ በሩት
ይ ስ
▁አ ሞ
▁በብ ቃት
▁ተስማ ሚ
ደ ሉ
▁የሚ ደረጉ
▁ማ ወ
▁ገብ ተዋል
ል ውና
ቲ ቭ
ኖ ራት
ጀ ው
ጦ ሽ
▁መ ከበር
▁ከ 50
▁ተ ገናኝ
ጠቀ ሱት
▁ከእ ነ
▁በጥ ቅ
ገቡ ት
▁መም ጣቱ
▁ሀገ ራዊ
▁የሚ ቆጠር
▁የተ ራ
▁ለመ ፈጸም
▁በድ ምሩ
▁በቡ ድን
ራ ጮች
▁መንግሥ ትን
▁ብል ጫ
▁ማስታወ ሻ
▁የፍት ሕ
▁ዴኤ ታ
ሪ ም
▁ሲ መጡ
▁በተ ያዘው
▁ሊ ደርስ
▁ፍ ጡ
▁እው ቀ
ነጋ ገሩ
▁ጥላ ሁን
▁ያስታው ሳሉ
▁እ ሰ
▁እያ ከናወነ
▁የሚያስ ፈልገው
▁ውጤ ቶችን
▁ከእ ናንተ
ሻሻ ለ
ስፒ ታሉ
▁በማሳ የት
▁ባሉ በት
▁ውስ ጣዊ
በ ዙ
▁ ፩
▁የ ፈጠረ
▁የ ፈጠረው
▁መ መዘ
▁አስ መስ
ጀመር ያው
▁ዕድሜ ያቸው
ር ግ
ጨ ርስ
ፈ ኑ
▁እ ላለሁ
▁ታ ዳሚ
▁ሕ ሊና
▁ኪ ዳ
▁በ19 7
▁​ 1
▁ባለስልጣ ናት
ሩ ትን
ጢ አት
ጸ ል
▁የሚ ሄድ
▁የሚ መለከተው
▁ያ ረ
▁አለ ችው
▁ቅ ኝ
▁ሁኔታ ም
▁ባይ ሆን
ው ቀው
▁ሆ ድ
▁ን ቁ
▁የዘ ንድሮ
▁ተመል ሰው
▁ግለ ሰቡ
ሙ ትን
ን ሽ
ዳ ፊ
ዷ ቸው
▁ለ ዜ
▁ሊ ሰጠው
▁ፈ ሪ
▁ይጠቀ ሳል
▁በመንፈ ሳዊ
ስ ያ
▁ ፎር
▁አ ቁ
▁ከ ዛሬ
▁ወደ ብ
▁ውድ ቅ
ህን ነት
▁ሃሳ ቦች
▁የየ ራ
▁ሂደ ቱ
▁ተደራጅ ተው
▁ማ ሻሻል
▁የተ ናገረ
▁የመ ላ
▁እንደሚ ለው
ድረ ክ
▁እያ ልኩ
ሰማ ራ
▁መለ ኪያ
▁የተቀመ ጡ
▁አ ሪፍ
▁በመ ባል
▁ክ ቡር
▁አመ ጣ
▁የው ይይት
▁መታ ሰቢያ
▁የቀረ ቡ
▁ክፉ ኛ
ከበረ ው
▁ከ ቁ
▁ጥ ግ
▁በእ ያንዳንዱ
▁ሙ ቀት
▁በስ ፖርቱ
▁ምስ ል
▁በኢ የሩሳሌም
▁ላ ስ
▁በፈ ቃ
▁ነገሥ ታት
▁በመ ዝ
▁የመ ግ
▁ጨ ምረው
▁ተመ ስ
▁ተከ ናው
ደገ ፈ
ል ታ
ፔ ን
▁በ ክልል
▁የሚፈ ጥር
▁ለሕ ዝቡ
ዘዋ ወር
▁ቤተ ክ
▁አቅራ ቢያ
▁የሚ ናገረው
▁በእ ነሱ
▁ያሳ ስ
▁እም ብዛም
ፋ ፍ
▁ ፑ
▁ያ ገለ
▁አይ ዘነጋም
▁ታ ን
▁ጎ ልማ
▁ገብ ቷል
▁ፊል ሞች
▁ሰርቪ ስ
▁መ በ
▁መ ፈጸም
▁የተ ዘጋጀው
▁ሰ አት
▁ሸ ቀ
▁ጋዜ ጠ
▁በ19 6
▁ተቋማ ትና
ሙ ማን
ተ ሪ
▁ከ ዳ
▁ድ ረገ
▁ዓመ ቱን
ጀንሲ ው
▁የጠቅ ላይ
▁የቀ በሌ
▁የዓ ለማችን
▁ለወ ደ
▁ል ጇ
▁ጎ ልቶ
▁ባለመ ኖሩ
▁ምሁ ራ
▁ለዓ መታት
ካ ዊ
▁አ ጎ
▁እ ማ
▁መ ወሰ
▁ይ ገለ
▁በጉ ጉት
▁የበኩ ሉን
ዋ ወቅ
ፉ በት
▁ይ ፈልጋ
▁ተ ዕለት
▁ጠ ፋ
ሰብ ኩ
ርም ያስ
▁ራ ሴን
▁ረ ዥም
▁ስን ዴ
▁ተቀም ጧል
▁ለ የ
▁ያ ደርጉ
▁ያለ ንን
▁መለ የት
ግዚ ቢ
ያ ለን
▁በ ደም
▁ይ ለኛል
▁ባ ያ
▁ያሳ ያሉ
▁የቆ ዩ
▁መመሪያ ዎች
ቁ በት
ቸ ገሩ
▁ሄ ዱ
▁ይረዳ ል
ቀ ኛ
ቾ ቹ
▁መ ቅረብ
▁ሁ ሴን
▁መንግሥ ቱን
▁የገ ጠ
▁ፅ ሁፍ
▁ተጀም ሯል
ደ ቡ
▁ h
▁በ ንግ
▁የመ ታ
▁ገ ድ
▁ሌ ሊ
▁ያለ ችው
▁4 6
▁እርምጃ ዎች
ባ ውያን
▁በሚ ሊዮን
▁ከመ ካ
▁ማስ መዝገብ
▁የሰው ነት
▁የቅድ መ
ሞ ከር
▁በ ሺ
▁አ ሥራ
▁ከ ፊት
▁ለ ሦስት
▁ለመ ጀመር
▁ቢ ስ
▁መስ ኖ
▁በየ መን
▁ድን ኳ
▁ማዕ ረግ
▁መዝ ናኛ
ደረሰ ባቸው
▁ፎ ረም
▁የመሰ ለ
a s
ሟ ን
ያ የ
▁የተ ሳተፉ
▁ባ ት
▁እንደሚ ሰራ
ሰብ ዓዊ
▁ከሆነ ው
▁በዓ ሉን
▁አቅር ቧል
▁ወላ ጅ
▁ለ ፖ
ጠበ ቂያ
ቶችን ና
▁አቅጣጫ ዎች
▁ተፈ ላጊ
▁ለራ ሱ
▁ባለቤ ቶች
ሩ በት
▁ ንድ
▁አ ታው
▁የሚ መለከት
▁ሲ ነሳ
▁እያ ልን
▁እነ ር
ቀው ም
▁ር እ
▁ፖለቲከ ኞች
▁መጽሔ ት
ይ ም
▁ተ ደረገ
▁ተ ደጋጋሚ
▁ያ ውም
▁በመ ል
▁የአ ደጋ
▁ተመ ስር
ረዳ ቸው
▁ኤ ፌ
▁ቤቶች ና
▁የቆ ዳ
▁ውድድ ሮችን
▁ምርት ና
▁ኢኮኖሚያዊ ና
ጡ ና
▁አ ጽ
▁ማ ዘጋጀት
▁ገ ብር
ለት ና
▁ቅ ጥር
▁የልማ ትና
2 5
ኋ ቸው
ያ ንም
ጣ ራ
▁እንዲ ሰሩ
▁እና ገኛለን
▁የሚያስ ፈልጉ
▁ጢሞ ቴዎስ
▁ጉ ልበ
ሰራ ር
ላለ ፊያ
ላ ችኋል
▁ ዚ
▁ለ ምር
▁ወ ራ
▁ማ ካሄድ
▁በመ ሳሰ
▁የአ ዕምሮ
▁ተፈ ጻሚ
▁ሐኪ ሞች
▁መጀመ ሩን
▁ይሠራ ል
ሮ ጥ
ዶ ም
▁ያለ ብን
▁መቀ የር
▁ይኼ ን
▁መቃ ብር
▁t o
▁ፍራ ፍሬ
▁በቦ ታው
▁አማር ኛ
ክ ራሉ
▁በ ብር
▁ካለ ፉት
ነር ጂ
ባበ ሪያ
▁እርስ ዎ
ቸ ር
ዮ ርክ
▁ይ ስማ
▁አስ ቆጥ
▁በስ ብሰባ
ሮፕ ላን
ስፈ ላጊ
▁ሚዛ ናዊ
ከ ማ
▁አካ ላዊ
▁ለእ ሱ
/ ሚ
▁ድ ፍረት
▁አንቀ ፅ
▁ለራ ሳቸው
9 7
ካ ችን
▁ከ ኋላ
▁አል ችልም
▁ለአ ምስት
▁ድጋፍ ና
▁በ ዶ
▁ተ ባለ
▁ያለ ባቸውን
▁ሸ ማ
▁መዋ ጮ
▁አምና ለሁ
ቅ ለ
ደ ነ
▁የ ችግሩ
▁በ ታማ
▁ከ 8
▁የመ ጠቀም
▁ስለ አ
▁ሥራ ቸው
▁ነገ ሥት
▁ረ ሃብ
▁ማኅ በሩ
▁ምስ ጢር
▁ተቀብ ለው
▁ታውቃ ለህ
ን ዴ
ን ኦት
▁ወ ፍ
▁ወ ዴት
▁የመ ማር
▁የሰ ሜን
▁አለው ፦
ጠብ ቁ
ኒ ሳ
ን ቁ
▁አስ ገ
▁የማ ራቶን
▁ክፍ ሉ
▁የስ ልጠና
ደረገ ውን
▁ሙሉ ጌታ
▁የቱ ሪስት
▁ተጽ እኖ
ሏ ቸዋል
ቶ ሪ
ወ ከል
ጧ ት
ፊ ዎች
▁ሰ ል
▁ሲ ኖር
▁የመ ስጠት
▁የአ ዋ
▁ለማ ሟላት
▁ጨ ም
▁በ200 6
▁መደም ደሚያ
▁ማስጨበ ጫ
ፀ ባ
▁ደ ሴ
▁ለመ ሳተፍ
▁ሰብ አዊ
▁ልማ ቱ
ሌክት ሮ
ጀ ርባ
ጋ ታ
▁የ ጀመር
▁ተ ዘር
▁ቢ ኖርም
▁አስተ ላል
▁ቆ ም
መዘ ገብ
ወስ ዱ
▁ጉድ ለ
▁ይፈልጋ ሉ
ለ ዩ
ጋ ጭ
▁የተ መዘገቡ
▁በአ ራ
▁በአ ደባባይ
▁ጠ በቃ
▁ህ ጻናት
▁ከአ ውሮፓ
▁በቴ ክኖሎጂ
▁መድሃ ኒት
ብ ተው
▁በ ከፊ
▁ራ ሷን
ከሰ ተ
▁መቅ ደስ
▁ተዘጋጅ ቶ
▁ተ ኮር
ውን ድ
▁በማ ጣ
▁አበባ ና
▁የታ ክስ
▁ሪ ፐብሊክ
▁ድም ፁ
ሮድ ካ
ማ ረው
ረ ከብ
ተር ስ
▁በየ ቦታው
▁ግብ ይት
▁መሪ ነት
ጭበር በር
ባ ሪዎች
▁የመ ሠረተ
▁ከመ ጣ
▁አመ ላ
▁መጠ ነኛ
መር መር
▁ተፅ እኖ
▁ቁር ጥ
▁ባለሃብ ቶች
ኒ ን
ገል ጋ
▁ከሚ ገኘው
▁201 5
▁አማራ ጮች
ኪ ዎች
ዋ ርያት
▁አ ነጋግ
▁የሚ መረ
▁ብ ሶ
ራ መድ
ር ዱ
▁ከ ቤ
▁ሲ ገቡ
▁ድ ሬዳዋ
▁ቀ በ
▁ሕ ያው
ገራ ችሁ
▁ለፍ ርድ
v e
ረ ቅ
▁የ ሂ
▁በ ነበረ
▁እን ፈልጋ
▁ፍ ጆ
▁የሰ ውን
▁ተደር ገው
▁ትችላ ላችሁ
ራ ውን
▁ባ ሻ
▁ት ተው
▁መር ከ
▁ንጉ ሠ
▁ና ችሁ
▁ቅር ሶች
▁ጋዜጣ ዊ
ቻ ው
ኮ ን
▁ ፆ
▁ወደ ፊትም
▁ች ላለች
▁በሌ ላው
ዳጅ ነት
▁መተ ግበር
▁ሰላ ምን
▁ተመራ ማሪዎች
▁ምርታማ ነት
ሯ ት
ጠ ቅም
▁ያ ገኙት
▁ማ ል
ሻሻ ሉ
▁ተጠቃሚ ዎች
▁ምድር ን
▁ማድረ ስ
ሳ ዩ
▁አ ቢ
▁ይ ዤ
▁የሚ ታወቅ
▁እየተ ን
▁ቁ ልቁ
▁ቀር ቷል
ሹ ን
▁ት ላ
ደረ ጋቸው
▁ገል ጾ
▁የፖ ሊስ
▁ቻ ይ
▁አዎ ንታዊ
▁የግን ቦት
▁ፀጋ ዬ
ፈ ቀድ
▁እንዲ መጣ
▁ኤ ፍ
▁በት ዕ
ወስ ደው
▁ዘይ ቤ
▁ለሁለ ተኛ
ማ ና
▁የ ሬ
▁በተ ጓዳኝ
▁አም ስተኛ
ልክ ት
▁መጠ ሪያ
▁ሩ ቅ
. 1
ጓ ጉ
▁እ ሸ
▁ማ ደ
▁በተ ባለ
▁ገ ጠመ
▁አገር ን
▁ተና ገሩ
ከፈ ለው
▁ኤር ሚያስ
ኤ ን
ወ ን
▁ከ ፀ
▁ህ ሊና
▁ቁ ጠባ
ልጣ ል
▁መጠ ለያ
▁ተቀ ይ
▁ፋብሪካ ው
▁የአካባቢ ውን
▁አፋ ጣኝ
ኙ ን
ዓ ን
▁ ንስ
▁በ ዘር
▁ው ክልና
▁ረ ቡዕ
ቤት ነት
▁መር ሆ
▁በቅር በት
▁የዱ ር
ሰ ቦችን
ተ ኝ
ቶ ታል
ች ኝ
ጋ ችሁ
▁ው ሸት
ደርግ ም
▁ተገኝ ተዋል
ደ ስት
ጋ ጥም
ጨ ና
▁አ ዘው
▁ሳይ ቆይ
▁ከአ ባ
ሠራ ር
ገራ ቱ
▁ቱ ሪስ
ክ ራሲ
▁የአ ርሶ
▁በእ ሳት
▁የማህ በሩ
▁ምት ክ
ሳ ና
ዴ ፓ
ገል ጽ
ከብ ሩ
▁ከእነዚህ ም
▁ፍቃ ድ
▁ይካሄ ዳል
▁በ ንጉ
▁መ ጫወት
▁ይገ መ
ዘጋጁ ት
ሻንጉ ል
ከ ኝ
ዘ መን
▁ፕሮጀክ ቶችን
▁የሚፈ ጽ
▁ለህ ብረተሰቡ
▁አድርገ ህ
▁አቡ ነ
▁አልማ ዝ
▁ው ጊያ
▁ምን ዛሬ
▁በኢ የሱስ
▁ግብ ሩ
▁የተሰ ጣቸው
▁የለ ሽ
▁አስፈላጊ ነት
▁ተጫዋ ቾችን
ስ ቱን
ነ ቱም
ዳ ድሩ
▁በአ ህጉ
▁በበ ጀት
▁ተጫ ው
▁መጽሐ ፉ
▁እንፈልጋ ለን
ማ ኒ
ሸ ራ
ቻ ት
▁በ ጨ
▁አ ሶ
▁አ ፅ
▁ዕ ብ
ችል በት
▁የደ መ
▁አረ ቢያ
▁የሴ ቶችን
ስቡ ክ
▁ማስተካ ከያ
ሮ ት
በ ጥ
▁በ ጃ
▁የተ ደራጀ
▁በፍ ጹም
ጠይ ቁ
r o
ዮ ተ
ጓ ደ
▁ጋ ዝ
▁አልተ ቻለም
▁ተጠና ቆ
ሜ ናዊ
ገ ጠ
▁ ረዳ
▁አን በ
▁በአ ጭሩ
▁ይገባ ቸዋል
ሰባ ቸውን
▁መጥ ፋት
ዋን ጫ
▁ሕዝብ ን
▁ተፈጥ ሯዊ
ሳ ሰር
ታ ኔ
ገ ሪያ
▁ተ ባባሪ
▁ደ ላ
▁ማህ በረሰቡ
▁የሚመ ነ
ጠቅ ላይ
ር ሻ
ያ ችሁ
▁አ ዙ
▁አ ድን
▁ሲ ሳይ
▁ለሚ ለው
▁አኳ ኋ
ዳማ ዊ
▁ለመታ ደግ
▁ከግብ ፅ
ሎ ቹን
ዋ ር
ጎ ድ
▁በ ዱ
▁በ ፌ
▁ሲ ቪል
▁በተ ቀ
▁ቦ ሌ
▁ዳይሬ ክቶ
ተኮ ር
▁ታማ ኝነት
ሕ ትና
ታ የው
▁ተ ኝ
▁ያ ገኛል
▁ስ ማ
▁እንዲ ደረግ
▁ት ም
▁ለመ ለወጥ
▁አገ ሩ
▁የሰ ጠውን
▁ኤ ስ
▁በር ግጥ
▁ሚኒስቴ ሩ
▁ጥና ታዊ
▁ይደር ሳል
▁ገለል ተኛ
ፀ ባረ
▁ g
▁ለአ ደጋ
▁ጽ ሁፍ
▁በው ይይቱ
▁የምት ችለው
▁ግንባታ ዎች
▁የሶ ማሊያ
▁በምርጫ ው
▁መቆራ ረጥ
መ ታ
ሲ ብ
ዘ በ
▁በ ኬንያ
▁ያ ደርግ
▁እው ነትን
ጠይ ቀው
▁የፕ ሬዚዳንት
▁ኮሚሽ ነር
▁እጃ ቸውን
መ ላ
▁መ ሄ
▁ይ ኑ
▁የሚ ደግ
▁ማ ግስት
▁እንደ ዚያ
▁በማ ከናወን
▁ፈ ረስ
▁ቴ ክ
ገም ገም
▁ኢትዮጵያዊ ያን
▁ድ ሃ
▁ጋ ራ
▁እንደሚ ሆኑ
▁እነ ማን
▁ጽ ፏል
▁ስብ ስብ
▁ታሪ ኩ
ፋ ለች
▁የሚ ደረገውን
▁አስ ገብ
▁ልማ ቶች
▁ሰር ቶ
ም ምነት
ራ ለሁ
ጠ ቃሚ
▁በ ቻይና
▁ያ ክል
▁በማ ካሄድ
▁4 8
▁ጣ ሊያን
▁የ1 0
▁ማጥ ፋት
▁ሐኪ ም
ል ፎ
ሙ ርት
ሰ ተኛ
▁ከ ሰማይ
▁ያ መጣል
▁ግ ባ
▁የሚያ ረጋግጥ
▁ሊ ትር
▁ፍር ሃት
▁ሾ ፌ
ም ብ
ዩ በት
ይ ዘው
ዳ ሪ
▁ይ ለዋል
▁የተ ረጋገጠ
▁አስ ብ
ንግ ዶ
▁ፍ ፃሜ
▁ከፍ ታ
▁5 5
▁አሳ ው
▁ክት ትልና
▁ክብ ደት
▁የተ ካሄደ
▁በመ ላክ
▁ገ ዛ
ደር ጋቸው
▁በማ የት
▁የማ ንነት
▁እያ ለች
▁ከእ ዚህ
ጸባረ ቅ
▁አ ከራ
▁ገ ጠር
ዕ ም
▁ው ሻ
▁ለመ ደገፍ
ሰባ ዊ
▁መቀ ሌ
▁መጨረሻ ው
▁ገንዘ ቡን
ወያ የት
▁ቆን ጆ
ሰ ሳ
ን ዲ
▁የ በርካታ
▁እ ጁ
▁ያ ጋጥ
▁ወ ያ
▁በማ ምረት
▁ጉ ምሩ
▁እር ሷ
▁የዘ ንድሮው
ወለ ዱ
▁የመጣ ውን
▁እየቀ ነሰ
▁ናይ ጄሪያ
ዋ ስ
▁የአ መለካከት
ሪያ ና
▁የወ ረዳ
ውያን ን
▁የቴ ሌቪዥን
▁ለሰ ዎች
ቢ ነት
እ ም
▁የተ ነሱ
▁በመ ሳተፍ
▁በአ ዳማ
▁በተ ካሄደ
▁ጠ /ሚ
▁ኮ ም
ገን ዘ
▁ሴ ራ
ሰጥ ም
▁ዩ ናይትድ
▁ጃ ን
▁የተቃ ውሞ
ገነዘ ቡ
▁አዝማ ሚያ
▁የወቅ ቱ
▁ፍ ራን
ፍራ ሽ
አዴ ን
▁ትን ሣኤ
▁ስፖር ቱ
በ ባ
ቸ ዋለን
▁ሥራ ን
▁የው ጪ
▁ማድረ ጋቸውን
▁የኩ ባንያ
c e
ቆ የ
▁ይ መር
▁የሚ ንቀሳቀሱ
▁አሉ ኝ
▁ሦ ስቱ
▁አልባ ሳት
▁የወደ ፊት
▁ማነ ቆ
▁አልሆነ ም
ዋ ጋት
ዘ ዙ
▁ከ ካ
▁ለማ ስተካከል
▁ቢ ቢሲ
▁ኤ ንድ
▁የት ኛውም
▁ለማስ ከበር
▁የዜ ጎች
▁ትእ ዛ
ለ ፈው
▁ከአ ሁን
▁ኤ ርምያስ
▁ቴ ክኒክ
▁ማዕ ቀ
▁7 5
▁ባል ሆነ
▁መዛ ሙርት
▁በማን ሳት
ማ ርያም
ብ ቃ
ከ ንድ
▁መ ጸ
▁ለ ረ
▁የተ ከለ
▁መው ጣ
▁አንጋ ፋ
▁ነበር ኩ
▁ወይ ን
▁እየተ ቀ
▁ከመ ስጠት
▁ተሰ ና
▁ህገ መንግ
▁ተሸ ክ
▁ምሁ ር
▁የተቀመ ጠው
▁ከራ ሱ
▁የሚያደር ገውን
▁የሚ ረዱ
▁ትምህርት ና
▁የፊ ልም
ንዛ ኒያ
▁ለ ሃ
▁ባ ቢ
▁እስከ አ
▁ጽ ኑ
▁የፕ ሬስ
▁ባሕ ርያት
ፈጽ ሙ
ሎ ምፒ
▁መር ዳት
▁አድ ሮ
▁ለመቀ የር
▁ቀበሌ ዎች
▁ትች ት
▁የእድ ገት
▁ l
▁አ ሃ
▁ለመ ው
▁የሚያ ገኙ
▁የእ ሱ
▁የሚያደርጉ ትን
▁በእን ዲህ
▁ዮና ስ
▁ጩኸ ት
ል ቦ
ዋ ወ
▁ይ ለ
▁ተ ኩል
▁የተ ገለ
▁አካባቢ ውን
▁ሂ ሳብ
▁የሀ ብት
▁የጎ ደለው
▁በመስ ኖ
▁ስደ ተኞችን
▁ኢንጂ ነሪንግ
▁በ 6
▁ማ ምረቻ
▁የተመ ሠ
▁ከህ ዝብ
▁በከፊ ል
ል ባ
ዓ ል
▁የ ጫ
▁ያው ቃሉ
▁ጄ ኔራል
▁የመፍት ሔ
▁እሳ ቤ
▁የ ዚያ
▁ይ ከፍ
▁እንደ አ
▁ለመ ለየት
▁የለ ንም
ላቀ ሉ
ንቀሳቀ ሰ
መ ተ
▁ሲ ሄዱ
▁በአ ነስተኛ
▁ለመ ምራት
▁ሳ ላ
▁ከአ ገሪቱ
▁እኩል ነት
ግ ቡ
▁በተ ሰጠው
▁ለማ ቋቋም
▁ምልክ ቶች
▁ጠየ ቀ
▁ጤ ንነት
▁የሚሆነ ውን
ሷ ቸው
ጋ ችን
▁የ ዩኒቨርሲቲ
▁ይ ሰጥ
▁ስ ሙን
▁በመ ገንዘብ
▁ቤ ቴ
▁የማ ያስ
▁ጎ ረቤ
ዶሚ ኒየም
ባ ለች
▁ ቬ
▁በ 8
▁ይ ፈጠ
▁ው ረድ
▁15 0
ደ ንት
▁የ ቋንቋ
▁የ ጀርመን
▁መ ብራ
▁ከ ቅ
▁ለማስ ፈን
ጅም ላ
ቦ ራ
ጋ ር
▁የሚ ኖሩት
▁ሚ ስቱ
▁ኢትዮጵያ ና
ልም ድ
▁ገዥ ው
▁ግጭ ቶች
▁የነፃ ነት
▁አመሰ ግና
ም ስ
ና ና
ጣ ለች
▁ለ ድ
▁ይ ከብ
▁የሚ ፈለገውን
▁ዘ ፈ
▁ከመ ሬት
▁3 ,
▁ነገ ረ
▁ቤተ ሰቡ
▁የሚነ ገር
ሀ ብት
▁ይ ባል
▁ሲ ሰራ
▁ለማ ዘጋጀት
▁ማህ ጸን
ብራ ውያን
▁አዲ ሱን
▁ተዋና ይ
ስ ላሴ
ገ መት
▁የ ፆታ
▁አ ኩ
▁እ ሴ
▁ሲ ን
▁የአ ስ
▁ካ ገኘ
▁አል ገባ
▁በስ ፖርት
▁የታ የው
▁በጥ ናቱ
▁ኩ ራት
▁ፋ ንታ
▁ጉምሩ ክ
ሊ ስት
ቀ ቁ
ጋ ፍ
▁በ ትር
▁እን በል
▁እንደሚ ታወቀው
